<?xml version="1.0"?>
<MethodSetup Method="BDT::BDTG">
  <GeneralInfo>
    <Info name="TMVA Release" value="4.2.1 [262657]"/>
    <Info name="ROOT Release" value="6.04/16 [394256]"/>
    <Info name="Creator" value="sakatsuk"/>
    <Info name="Date" value="Mon Sep  3 01:42:30 2018"/>
    <Info name="Host" value="Linux lcgapp-slc6-physical1.cern.ch 2.6.32-573.8.1.el6.x86_64 #1 SMP Wed Nov 11 15:27:45 CET 2015 x86_64 x86_64 x86_64 GNU/Linux"/>
    <Info name="Dir" value="/gpfs/fs6001/sakatsuk/PromptLeptonTagger/addToNtuple/script"/>
    <Info name="Training events" value="588614"/>
    <Info name="TrainingTime" value="3.27551667e+02"/>
    <Info name="AnalysisType" value="Classification"/>
  </GeneralInfo>
  <Options>
    <Option name="V" modified="Yes">False</Option>
    <Option name="VerbosityLevel" modified="No">Default</Option>
    <Option name="VarTransform" modified="No">None</Option>
    <Option name="H" modified="Yes">False</Option>
    <Option name="CreateMVAPdfs" modified="No">False</Option>
    <Option name="IgnoreNegWeightsInTraining" modified="No">False</Option>
    <Option name="NTrees" modified="Yes">100</Option>
    <Option name="MaxDepth" modified="Yes">7</Option>
    <Option name="MinNodeSize" modified="Yes">1.0</Option>
    <Option name="nCuts" modified="Yes">30</Option>
    <Option name="BoostType" modified="Yes">Grad</Option>
    <Option name="AdaBoostR2Loss" modified="No">quadratic</Option>
    <Option name="UseBaggedBoost" modified="No">True</Option>
    <Option name="Shrinkage" modified="Yes">5.000000e-02</Option>
    <Option name="AdaBoostBeta" modified="No">5.000000e-01</Option>
    <Option name="UseRandomisedTrees" modified="No">False</Option>
    <Option name="UseNvars" modified="No">3</Option>
    <Option name="UsePoissonNvars" modified="No">True</Option>
    <Option name="BaggedSampleFraction" modified="No">5.000000e-01</Option>
    <Option name="UseYesNoLeaf" modified="No">True</Option>
    <Option name="NegWeightTreatment" modified="No">ignorenegweightsintraining</Option>
    <Option name="Css" modified="No">1.000000e+00</Option>
    <Option name="Cts_sb" modified="No">1.000000e+00</Option>
    <Option name="Ctb_ss" modified="No">1.000000e+00</Option>
    <Option name="Cbb" modified="No">1.000000e+00</Option>
    <Option name="NodePurityLimit" modified="No">5.000000e-01</Option>
    <Option name="SeparationType" modified="No">giniindex</Option>
    <Option name="DoBoostMonitor" modified="No">False</Option>
    <Option name="UseFisherCuts" modified="No">False</Option>
    <Option name="MinLinCorrForFisher" modified="No">8.000000e-01</Option>
    <Option name="UseExclusiveVars" modified="No">False</Option>
    <Option name="DoPreselection" modified="No">False</Option>
    <Option name="SigToBkgFraction" modified="No">1.000000e+00</Option>
    <Option name="PruneMethod" modified="Yes">nopruning</Option>
    <Option name="PruneStrength" modified="No">0.000000e+00</Option>
    <Option name="PruningValFraction" modified="No">5.000000e-01</Option>
    <Option name="nEventsMin" modified="No">0</Option>
    <Option name="UseBaggedGrad" modified="Yes">True</Option>
    <Option name="GradBaggingFraction" modified="Yes">5.000000e-01</Option>
    <Option name="UseNTrainEvents" modified="No">0</Option>
    <Option name="NNodesMax" modified="No">0</Option>
  </Options>
  <Variables NVar="8">
    <Variable VarIndex="0" Expression="CorrPtvarcone30/Pt/1000" Label="CorrPtvarcone30/Pt/1000" Title="mytree.CorrPtvarcone30/mytree.Pt/1000" Unit="unit" Internal="CorrPtvarcone30_D_Pt_D_1000" Type="F" Min="-3.43586203e-06" Max="6.42548779e+03"/>
    <Variable VarIndex="1" Expression="CorrTopoetcone20/Pt" Label="CorrTopoetcone20/Pt" Title="mytree.CorrTopoetcone20/mytree.Pt" Unit="unit" Internal="CorrTopoetcone20_D_Pt" Type="F" Min="-8.90940094e+01" Max="1.08516815e+02"/>
    <Variable VarIndex="2" Expression="PLTInput_PtRel" Label="PLTInput_PtRel" Title="mytree.PLTInput_PtRel" Unit="unit" Internal="PLTInput_PtRel" Type="F" Min="0.00000000e+00" Max="6.00479834e+03"/>
    <Variable VarIndex="3" Expression="PLTInput_PtFrac" Label="PLTInput_PtFrac" Title="mytree.PLTInput_PtFrac" Unit="unit" Internal="PLTInput_PtFrac" Type="F" Min="1.56295035e-04" Max="2.99355865e+00"/>
    <Variable VarIndex="4" Expression="PLTInput_DL1mu" Label="PLTInput_DL1mu" Title="mytree.PLTInput_DL1mu" Unit="unit" Internal="PLTInput_DL1mu" Type="F" Min="-5.22529840e+00" Max="3.27816620e+01"/>
    <Variable VarIndex="5" Expression="PLTInput_rnnip" Label="PLTInput_rnnip" Title="mytree.PLTInput_rnnip" Unit="unit" Internal="PLTInput_rnnip" Type="F" Min="-3.00000000e+01" Max="1.24490080e+01"/>
    <Variable VarIndex="6" Expression="PLTInput_DRlj" Label="PLTInput_DRlj" Title="mytree.PLTInput_DRlj" Unit="unit" Internal="PLTInput_DRlj" Type="F" Min="1.31414513e-09" Max="4.85199213e+00"/>
    <Variable VarIndex="7" Expression="PLTInput_TrackJetNTrack" Label="PLTInput_TrackJetNTrack" Title="mytree.PLTInput_TrackJetNTrack" Unit="unit" Internal="PLTInput_TrackJetNTrack" Type="I" Min="1.00000000e+00" Max="4.30000000e+01"/>
  </Variables>
  <Spectators NSpec="9">
    <Spectator SpecIndex="0" Expression="Origin" Label="Origin" Title="Origin" Unit="" Internal="Origin" Type="F" Min="0.00000000e+00" Max="3.50000000e+01"/>
    <Spectator SpecIndex="1" Expression="IsoCorrGradientLoose" Label="IsoCorrGradientLoose" Title="IsoCorrGradientLoose" Unit="" Internal="IsoCorrGradientLoose" Type="F" Min="0.00000000e+00" Max="1.00000000e+00"/>
    <Spectator SpecIndex="2" Expression="IsoCorrFixedCutLoose" Label="IsoCorrFixedCutLoose" Title="IsoCorrFixedCutLoose" Unit="" Internal="IsoCorrFixedCutLoose" Type="F" Min="0.00000000e+00" Max="1.00000000e+00"/>
    <Spectator SpecIndex="3" Expression="Pt" Label="Pt" Title="Pt" Unit="" Internal="Pt" Type="F" Min="3.00001335e+00" Max="5.99999952e+00"/>
    <Spectator SpecIndex="4" Expression="IsoCorrFixedCutTightTrackOnly" Label="IsoCorrFixedCutTightTrackOnly" Title="IsoCorrFixedCutTightTrackOnly" Unit="" Internal="IsoCorrFixedCutTightTrackOnly" Type="F" Min="0.00000000e+00" Max="1.00000000e+00"/>
    <Spectator SpecIndex="5" Expression="CorrPtvarcone20" Label="CorrPtvarcone20" Title="CorrPtvarcone20" Unit="" Internal="CorrPtvarcone20" Type="F" Min="-1.15079507e-02" Max="8.35901150e+06"/>
    <Spectator SpecIndex="6" Expression="IsoCorrGradient" Label="IsoCorrGradient" Title="IsoCorrGradient" Unit="" Internal="IsoCorrGradient" Type="F" Min="0.00000000e+00" Max="1.00000000e+00"/>
    <Spectator SpecIndex="7" Expression="IsoCorrLooseTrackOnly" Label="IsoCorrLooseTrackOnly" Title="IsoCorrLooseTrackOnly" Unit="" Internal="IsoCorrLooseTrackOnly" Type="F" Min="0.00000000e+00" Max="1.00000000e+00"/>
    <Spectator SpecIndex="8" Expression="Type" Label="Type" Title="Type" Unit="" Internal="Type" Type="F" Min="6.00000000e+00" Max="1.70000000e+01"/>
  </Spectators>
  <Classes NClass="2">
    <Class Name="Signal" Index="0"/>
    <Class Name="Background" Index="1"/>
  </Classes>
  <Transformations NTransformations="0"/>
  <MVAPdfs/>
  <Weights NTrees="100" AnalysisType="1">
    <BinaryTree type="DecisionTree" boostWeight="1.0000000000000000e+00" itree="0">
      <Node pos="s" depth="0" NCoef="0" IVar="3" Cut="6.7476129531860352e-01" cType="1" res="-3.1368812778964639e-04" rms="4.9999991059303284e-01" purity="4.9968630075454712e-01" nType="0">
        <Node pos="l" depth="1" NCoef="0" IVar="3" Cut="5.0066536664962769e-01" cType="1" res="-3.0191427469253540e-01" rms="3.9855712652206421e-01" purity="1.9808574020862579e-01" nType="0">
          <Node pos="l" depth="2" NCoef="0" IVar="4" Cut="9.0485650300979614e-01" cType="1" res="-3.9005753397941589e-01" rms="3.1281802058219910e-01" purity="1.0994245857000351e-01" nType="0">
            <Node pos="l" depth="3" NCoef="0" IVar="6" Cut="1.0703273862600327e-01" cType="1" res="-3.6509844660758972e-01" rms="3.4161838889122009e-01" purity="1.3490156829357147e-01" nType="0">
              <Node pos="l" depth="4" NCoef="0" IVar="3" Cut="4.2001685500144958e-01" cType="1" res="-4.1056364774703979e-01" rms="2.8537255525588989e-01" purity="8.9436352252960205e-02" nType="0">
                <Node pos="l" depth="5" NCoef="0" IVar="3" Cut="3.6588889360427856e-01" cType="1" res="-4.3811178207397461e-01" rms="2.4095241725444794e-01" purity="6.1888214200735092e-02" nType="0">
                  <Node pos="l" depth="6" NCoef="0" IVar="7" Cut="5.0000000000000000e+00" cType="1" res="0.0000000000000000e+00" rms="0.0000000000000000e+00" purity="5.1926981657743454e-02" nType="0">
                    <Node pos="l" depth="7" NCoef="0" IVar="-1" Cut="0.0000000000000000e+00" cType="1" res="-4.9277916550636292e-02" rms="2.6726773381233215e-01" purity="7.7426970005035400e-02" nType="-99"/>
                    <Node pos="r" depth="7" NCoef="0" IVar="-1" Cut="0.0000000000000000e+00" cType="1" res="-5.4055202752351761e-02" rms="1.9857884943485260e-01" purity="4.1124813258647919e-02" nType="-99"/>
                  </Node>
                  <Node pos="r" depth="6" NCoef="0" IVar="-1" Cut="0.0000000000000000e+00" cType="1" res="-4.4767051935195923e-02" rms="2.8728446364402771e-01" purity="9.0771898627281189e-02" nType="-99"/>
                </Node>
                <Node pos="r" depth="5" NCoef="0" IVar="7" Cut="5.0000000000000000e+00" cType="1" res="-3.4549102187156677e-01" rms="3.5839432477951050e-01" purity="1.5114794671535492e-01" nType="0">
                  <Node pos="l" depth="6" NCoef="0" IVar="-1" Cut="0.0000000000000000e+00" cType="1" res="-4.0407784283161163e-02" rms="3.3197832107543945e-01" purity="1.2611447274684906e-01" nType="-99"/>
                  <Node pos="r" depth="6" NCoef="0" IVar="-1" Cut="0.0000000000000000e+00" cType="1" res="-3.1138166785240173e-02" rms="3.9179384708404541e-01" purity="1.8935939669609070e-01" nType="-99"/>
                </Node>
              </Node>
              <Node pos="r" depth="4" NCoef="0" IVar="3" Cut="3.8764631748199463e-01" cType="1" res="-3.2467985153198242e-01" rms="3.8024070858955383e-01" purity="1.7532013356685638e-01" nType="0">
                <Node pos="l" depth="5" NCoef="0" IVar="6" Cut="2.1027724444866180e-01" cType="1" res="-3.5629692673683167e-01" rms="3.5078838467597961e-01" purity="1.4370307326316833e-01" nType="0">
                  <Node pos="l" depth="6" NCoef="0" IVar="3" Cut="3.1264692544937134e-01" cType="1" res="-3.9842280745506287e-01" rms="3.0209150910377502e-01" purity="1.0157719999551773e-01" nType="0">
                    <Node pos="l" depth="7" NCoef="0" IVar="-1" Cut="0.0000000000000000e+00" cType="1" res="-5.0305981189012527e-02" rms="2.6843374967575073e-01" purity="7.8166708350181580e-02" nType="-99"/>
                    <Node pos="r" depth="7" NCoef="0" IVar="-1" Cut="0.0000000000000000e+00" cType="1" res="-3.9118498563766479e-02" rms="3.5016345977783203e-01" purity="1.4308887720108032e-01" nType="-99"/>
                  </Node>
                  <Node pos="r" depth="6" NCoef="0" IVar="7" Cut="6.0000000000000000e+00" cType="1" res="-2.8029334545135498e-01" rms="4.1404786705970764e-01" purity="2.1970666944980621e-01" nType="0">
                    <Node pos="l" depth="7" NCoef="0" IVar="-1" Cut="0.0000000000000000e+00" cType="1" res="-2.1299265325069427e-02" rms="4.5274323225021362e-01" purity="2.8781244158744812e-01" nType="-99"/>
                    <Node pos="r" depth="7" NCoef="0" IVar="-1" Cut="0.0000000000000000e+00" cType="1" res="-3.6760549992322922e-02" rms="3.7280467152595520e-01" purity="1.6680835187435150e-01" nType="-99"/>
                  </Node>
                </Node>
                <Node pos="r" depth="5" NCoef="0" IVar="0" Cut="7.1822082996368408e-01" cType="1" res="-2.4749526381492615e-01" rms="4.3444919586181641e-01" purity="2.5250473618507385e-01" nType="0">
                  <Node pos="l" depth="6" NCoef="0" IVar="-1" Cut="0.0000000000000000e+00" cType="1" res="-1.8993552774190903e-02" rms="4.5912531018257141e-01" purity="3.0200013518333435e-01" nType="-99"/>
                  <Node pos="r" depth="6" NCoef="0" IVar="-1" Cut="0.0000000000000000e+00" cType="1" res="-3.5513125360012054e-02" rms="3.7399280071258545e-01" purity="1.6814251244068146e-01" nType="-99"/>
                </Node>
              </Node>
            </Node>
            <Node pos="r" depth="3" NCoef="0" IVar="6" Cut="1.1576855182647705e-01" cType="1" res="-4.4493409991264343e-01" rms="2.2810882329940796e-01" purity="5.5065888911485672e-02" nType="0">
              <Node pos="l" depth="4" NCoef="0" IVar="4" Cut="1.8669035434722900e+00" cType="1" res="-4.7148603200912476e-01" rms="1.6643597185611725e-01" purity="2.8513979166746140e-02" nType="0">
                <Node pos="l" depth="5" NCoef="0" IVar="-1" Cut="0.0000000000000000e+00" cType="1" res="-4.9876071512699127e-02" rms="2.2309754788875580e-01" purity="5.2532143890857697e-02" nType="-99"/>
                <Node pos="r" depth="5" NCoef="0" IVar="4" Cut="3.7283589839935303e+00" cType="1" res="-4.8420310020446777e-01" rms="1.2468907237052917e-01" purity="1.5796907246112823e-02" nType="0">
                  <Node pos="l" depth="6" NCoef="0" IVar="-1" Cut="0.0000000000000000e+00" cType="1" res="-5.4137345403432846e-02" rms="1.4588041603565216e-01" purity="2.1754348650574684e-02" nType="-99"/>
                  <Node pos="r" depth="6" NCoef="0" IVar="-1" Cut="0.0000000000000000e+00" cType="1" res="-5.5345684289932251e-02" rms="8.1427909433841705e-02" purity="6.6750617697834969e-03" nType="-99"/>
                </Node>
              </Node>
              <Node pos="r" depth="4" NCoef="0" IVar="0" Cut="9.5809102058410645e-01" cType="1" res="-4.1954529285430908e-01" rms="2.7199584245681763e-01" purity="8.0454707145690918e-02" nType="0">
                <Node pos="l" depth="5" NCoef="0" IVar="-1" Cut="0.0000000000000000e+00" cType="1" res="-4.0175758302211761e-02" rms="3.2977595925331116e-01" purity="1.2417048960924149e-01" nType="-99"/>
                <Node pos="r" depth="5" NCoef="0" IVar="0" Cut="1.8853763341903687e+00" cType="1" res="-4.5229539275169373e-01" rms="2.1314051747322083e-01" purity="4.7704610973596573e-02" nType="0">
                  <Node pos="l" depth="6" NCoef="0" IVar="-1" Cut="0.0000000000000000e+00" cType="1" res="-4.8936694860458374e-02" rms="2.3683390021324158e-01" purity="5.9648204594850540e-02" nType="-99"/>
                  <Node pos="r" depth="6" NCoef="0" IVar="-1" Cut="0.0000000000000000e+00" cType="1" res="-5.6196086108684540e-02" rms="1.8441429734230042e-01" purity="3.5251285880804062e-02" nType="-99"/>
                </Node>
              </Node>
            </Node>
          </Node>
          <Node pos="r" depth="2" NCoef="0" IVar="0" Cut="5.7583463191986084e-01" cType="1" res="-1.4001360535621643e-01" rms="4.7999602556228638e-01" purity="3.5998639464378357e-01" nType="0">
            <Node pos="l" depth="3" NCoef="0" IVar="5" Cut="-1.0671212673187256e+00" cType="1" res="-9.1175280511379242e-02" rms="4.9161678552627563e-01" purity="4.0882474184036255e-01" nType="0">
              <Node pos="l" depth="4" NCoef="0" IVar="0" Cut="3.3435225486755371e-01" cType="1" res="-5.5066656321287155e-02" rms="4.9695840477943420e-01" purity="4.4493332505226135e-01" nType="0">
                <Node pos="l" depth="5" NCoef="0" IVar="3" Cut="6.0741686820983887e-01" cType="1" res="-1.2375609949231148e-02" rms="4.9984681606292725e-01" purity="4.8762437701225281e-01" nType="0">
                  <Node pos="l" depth="6" NCoef="0" IVar="3" Cut="5.5926793813705444e-01" cType="1" res="-5.5971670895814896e-02" rms="4.9685728549957275e-01" purity="4.4402831792831421e-01" nType="0">
                    <Node pos="l" depth="7" NCoef="0" IVar="-1" Cut="0.0000000000000000e+00" cType="1" res="-7.3135118000209332e-03" rms="4.9302944540977478e-01" purity="4.1680169105529785e-01" nType="-99"/>
                    <Node pos="r" depth="7" NCoef="0" IVar="-1" Cut="0.0000000000000000e+00" cType="1" res="-2.8973207809031010e-03" rms="4.9889111518859863e-01" purity="4.6671867370605469e-01" nType="-99"/>
                  </Node>
                  <Node pos="r" depth="6" NCoef="0" IVar="3" Cut="6.4000153541564941e-01" cType="1" res="2.6601508259773254e-02" rms="4.9929186701774597e-01" purity="5.2660149335861206e-01" nType="0">
                    <Node pos="l" depth="7" NCoef="0" IVar="-1" Cut="0.0000000000000000e+00" cType="1" res="-3.7627065466949716e-05" rms="4.9999979138374329e-01" purity="4.9955868721008301e-01" nType="-99"/>
                    <Node pos="r" depth="7" NCoef="0" IVar="-1" Cut="0.0000000000000000e+00" cType="1" res="3.8883993402123451e-03" rms="4.9780473113059998e-01" purity="5.4680222272872925e-01" nType="-99"/>
                  </Node>
                </Node>
                <Node pos="r" depth="5" NCoef="0" IVar="0" Cut="4.7461408376693726e-01" cType="1" res="-1.2079004198312759e-01" rms="4.8519045114517212e-01" purity="3.7920993566513062e-01" nType="0">
                  <Node pos="l" depth="6" NCoef="0" IVar="-1" Cut="0.0000000000000000e+00" cType="1" res="-7.7517651952803135e-03" rms="4.9209314584732056e-01" purity="4.1143181920051575e-01" nType="-99"/>
                  <Node pos="r" depth="6" NCoef="0" IVar="-1" Cut="0.0000000000000000e+00" cType="1" res="-1.5215144492685795e-02" rms="4.7191533446311951e-01" purity="3.3478528261184692e-01" nType="-99"/>
                </Node>
              </Node>
              <Node pos="r" depth="4" NCoef="0" IVar="5" Cut="-2.5037181377410889e-01" cType="1" res="-2.1944107115268707e-01" rms="4.4927233457565308e-01" purity="2.8055891394615173e-01" nType="0">
                <Node pos="l" depth="5" NCoef="0" IVar="-1" Cut="0.0000000000000000e+00" cType="1" res="-1.1603947728872299e-02" rms="4.8285564780235291e-01" purity="3.7019082903862000e-01" nType="-99"/>
                <Node pos="r" depth="5" NCoef="0" IVar="-1" Cut="0.0000000000000000e+00" cType="1" res="-3.0292542651295662e-02" rms="3.9201492071151733e-01" purity="1.8963845074176788e-01" nType="-99"/>
              </Node>
            </Node>
            <Node pos="r" depth="3" NCoef="0" IVar="3" Cut="5.8489620685577393e-01" cType="1" res="-2.5525575876235962e-01" rms="4.2993545532226562e-01" purity="2.4474424123764038e-01" nType="0">
              <Node pos="l" depth="4" NCoef="0" IVar="2" Cut="1.3245542907714844e+02" cType="1" res="-2.8936511278152466e-01" rms="4.0775951743125916e-01" purity="2.1063487231731415e-01" nType="0">
                <Node pos="l" depth="5" NCoef="0" IVar="-1" Cut="0.0000000000000000e+00" cType="1" res="-2.4035846814513206e-02" rms="4.3206641077995300e-01" purity="2.4836806952953339e-01" nType="-99"/>
                <Node pos="r" depth="5" NCoef="0" IVar="-1" Cut="0.0000000000000000e+00" cType="1" res="-3.2308734953403473e-02" rms="3.8505107164382935e-01" purity="1.8103967607021332e-01" nType="-99"/>
              </Node>
              <Node pos="r" depth="4" NCoef="0" IVar="-1" Cut="0.0000000000000000e+00" cType="1" res="-1.7287511378526688e-02" rms="4.6460813283920288e-01" purity="3.1523177027702332e-01" nType="-99"/>
            </Node>
          </Node>
        </Node>
        <Node pos="r" depth="1" NCoef="0" IVar="3" Cut="8.2398396730422974e-01" cType="1" res="2.0493577420711517e-01" rms="4.5607161521911621e-01" purity="7.0493578910827637e-01" nType="0">
          <Node pos="l" depth="2" NCoef="0" IVar="5" Cut="-6.1032187938690186e-01" cType="1" res="7.5313329696655273e-02" rms="4.9429535865783691e-01" purity="5.7531327009201050e-01" nType="0">
            <Node pos="l" depth="3" NCoef="0" IVar="0" Cut="3.1588456034660339e-01" cType="1" res="9.9456295371055603e-02" rms="4.9000862240791321e-01" purity="5.9945631027221680e-01" nType="0">
              <Node pos="l" depth="4" NCoef="0" IVar="3" Cut="7.2772085666656494e-01" cType="1" res="1.2794037163257599e-01" rms="4.8335418105125427e-01" purity="6.2794041633605957e-01" nType="0">
                <Node pos="l" depth="5" NCoef="0" IVar="1" Cut="1.1310734599828720e-01" cType="1" res="6.4146496355533600e-02" rms="4.9586814641952515e-01" purity="5.6414645910263062e-01" nType="0">
                  <Node pos="l" depth="6" NCoef="0" IVar="-1" Cut="0.0000000000000000e+00" cType="1" res="8.5684908553957939e-03" rms="4.8912817239761353e-01" purity="6.0369968414306641e-01" nType="-99"/>
                  <Node pos="r" depth="6" NCoef="0" IVar="-1" Cut="0.0000000000000000e+00" cType="1" res="6.9414684548974037e-04" rms="4.9993300437927246e-01" purity="5.0818443298339844e-01" nType="-99"/>
                </Node>
                <Node pos="r" depth="5" NCoef="0" IVar="5" Cut="-1.5584030151367188e+00" cType="1" res="1.5071490406990051e-01" rms="4.7674417495727539e-01" purity="6.5071493387222290e-01" nType="0">
                  <Node pos="l" depth="6" NCoef="0" IVar="0" Cut="1.0188669897615910e-02" cType="1" res="1.6744072735309601e-01" rms="4.7113013267517090e-01" purity="6.6744077205657959e-01" nType="0">
                    <Node pos="l" depth="7" NCoef="0" IVar="-1" Cut="0.0000000000000000e+00" cType="1" res="1.4191155321896076e-02" rms="4.6433368325233459e-01" purity="6.8545675277709961e-01" nType="-99"/>
                    <Node pos="r" depth="7" NCoef="0" IVar="-1" Cut="0.0000000000000000e+00" cType="1" res="1.0054894722998142e-02" rms="4.8690435290336609e-01" purity="6.1368441581726074e-01" nType="-99"/>
                  </Node>
                  <Node pos="r" depth="6" NCoef="0" IVar="-1" Cut="0.0000000000000000e+00" cType="1" res="6.5131010487675667e-03" rms="4.9389362335205078e-01" purity="5.7790422439575195e-01" nType="-99"/>
                </Node>
              </Node>
              <Node pos="r" depth="4" NCoef="0" IVar="2" Cut="1.2207535552978516e+02" cType="1" res="-1.0496580973267555e-02" rms="4.9988982081413269e-01" purity="4.8950344324111938e-01" nType="0">
                <Node pos="l" depth="5" NCoef="0" IVar="-1" Cut="0.0000000000000000e+00" cType="1" res="1.5157421585172415e-03" rms="4.9964079260826111e-01" purity="5.1894927024841309e-01" nType="-99"/>
                <Node pos="r" depth="5" NCoef="0" IVar="-1" Cut="0.0000000000000000e+00" cType="1" res="-4.5284167863428593e-03" rms="4.9738737940788269e-01" purity="4.4895315170288086e-01" nType="-99"/>
              </Node>
            </Node>
            <Node pos="r" depth="3" NCoef="0" IVar="-1" Cut="0.0000000000000000e+00" cType="1" res="-1.3659417629241943e-02" rms="4.7737836837768555e-01" purity="3.5130605101585388e-01" nType="-99"/>
          </Node>
          <Node pos="r" depth="2" NCoef="0" IVar="5" Cut="-8.5891050100326538e-01" cType="1" res="2.5150096416473389e-01" rms="4.3214264512062073e-01" purity="7.5150096416473389e-01" nType="0">
            <Node pos="l" depth="3" NCoef="0" IVar="5" Cut="-1.7989923954010010e+00" cType="1" res="2.6819586753845215e-01" rms="4.2198455333709717e-01" purity="7.6819586753845215e-01" nType="0">
              <Node pos="l" depth="4" NCoef="0" IVar="4" Cut="-9.2067056894302368e-01" cType="1" res="2.8583845496177673e-01" rms="4.1023942828178406e-01" purity="7.8583842515945435e-01" nType="0">
                <Node pos="l" depth="5" NCoef="0" IVar="4" Cut="-2.9547817707061768e+00" cType="1" res="2.4812816083431244e-01" rms="4.3408802151679993e-01" purity="7.4812817573547363e-01" nType="0">
                  <Node pos="l" depth="6" NCoef="0" IVar="-1" Cut="0.0000000000000000e+00" cType="1" res="2.4623269215226173e-02" rms="3.9403098821640015e-01" purity="8.0779796838760376e-01" nType="-99"/>
                  <Node pos="r" depth="6" NCoef="0" IVar="5" Cut="-2.7087996006011963e+00" cType="1" res="2.4039088189601898e-01" rms="4.3842014670372009e-01" purity="7.4039089679718018e-01" nType="0">
                    <Node pos="l" depth="7" NCoef="0" IVar="-1" Cut="0.0000000000000000e+00" cType="1" res="1.9284101203083992e-02" rms="4.2695841193199158e-01" purity="7.6020473241806030e-01" nType="-99"/>
                    <Node pos="r" depth="7" NCoef="0" IVar="-1" Cut="0.0000000000000000e+00" cType="1" res="1.7010707408189774e-02" rms="4.4858092069625854e-01" purity="7.2085094451904297e-01" nType="-99"/>
                  </Node>
                </Node>
                <Node pos="r" depth="5" NCoef="0" IVar="5" Cut="-2.7090191841125488e+00" cType="1" res="3.1447759270668030e-01" rms="3.8872078061103821e-01" purity="8.1447762250900269e-01" nType="0">
                  <Node pos="l" depth="6" NCoef="0" IVar="3" Cut="1.0085493326187134e+00" cType="1" res="3.4056526422500610e-01" rms="3.6608099937438965e-01" purity="8.4056526422500610e-01" nType="0">
                    <Node pos="l" depth="7" NCoef="0" IVar="-1" Cut="0.0000000000000000e+00" cType="1" res="2.5978025048971176e-02" rms="3.6896750330924988e-01" purity="8.3743584156036377e-01" nType="-99"/>
                    <Node pos="r" depth="7" NCoef="0" IVar="-1" Cut="0.0000000000000000e+00" cType="1" res="2.5725532323122025e-02" rms="3.5581108927726746e-01" purity="8.5128116607666016e-01" nType="-99"/>
                  </Node>
                  <Node pos="r" depth="6" NCoef="0" IVar="3" Cut="9.5205402374267578e-01" cType="1" res="2.8146144747734070e-01" rms="4.1325470805168152e-01" purity="7.8146141767501831e-01" nType="0">
                    <Node pos="l" depth="7" NCoef="0" IVar="-1" Cut="0.0000000000000000e+00" cType="1" res="1.7371078953146935e-02" rms="4.5156735181808472e-01" purity="7.1467864513397217e-01" nType="-99"/>
                    <Node pos="r" depth="7" NCoef="0" IVar="-1" Cut="0.0000000000000000e+00" cType="1" res="2.2575428709387779e-02" rms="4.0630325675010681e-01" purity="7.9140639305114746e-01" nType="-99"/>
                  </Node>
                </Node>
              </Node>
              <Node pos="r" depth="4" NCoef="0" IVar="7" Cut="2.0000000000000000e+00" cType="1" res="1.7071770131587982e-01" rms="4.6977379918098450e-01" purity="6.7038160562515259e-01" nType="0">
                <Node pos="l" depth="5" NCoef="0" IVar="1" Cut="8.2654766738414764e-02" cType="1" res="1.9948081672191620e-01" rms="4.5848381519317627e-01" purity="6.9948083162307739e-01" nType="0">
                  <Node pos="l" depth="6" NCoef="0" IVar="-1" Cut="0.0000000000000000e+00" cType="1" res="1.7069363966584206e-02" rms="4.4878208637237549e-01" purity="7.2044193744659424e-01" nType="-99"/>
                  <Node pos="r" depth="6" NCoef="0" IVar="-1" Cut="0.0000000000000000e+00" cType="1" res="1.3535897247493267e-02" rms="4.6929875016212463e-01" purity="6.7250704765319824e-01" nType="-99"/>
                </Node>
                <Node pos="r" depth="5" NCoef="0" IVar="4" Cut="-1.2160950899124146e+00" cType="1" res="1.2555837631225586e-01" rms="4.8397839069366455e-01" purity="6.2555837631225586e-01" nType="0">
                  <Node pos="l" depth="6" NCoef="0" IVar="-1" Cut="0.0000000000000000e+00" cType="1" res="1.2230757623910904e-02" rms="4.7770115733146667e-01" purity="6.4765369892120361e-01" nType="-99"/>
                  <Node pos="r" depth="6" NCoef="0" IVar="-1" Cut="0.0000000000000000e+00" cType="1" res="8.7119666859507561e-03" rms="4.8911458253860474e-01" purity="6.0376381874084473e-01" nType="-99"/>
                </Node>
              </Node>
            </Node>
            <Node pos="r" depth="3" NCoef="0" IVar="5" Cut="-5.3191161155700684e-01" cType="1" res="2.1275931969285011e-02" rms="4.9954712390899658e-01" purity="5.2127599716186523e-01" nType="0">
              <Node pos="l" depth="4" NCoef="0" IVar="-1" Cut="0.0000000000000000e+00" cType="1" res="7.4710068292915821e-03" rms="4.9205344915390015e-01" purity="5.8878850936889648e-01" nType="-99"/>
              <Node pos="r" depth="4" NCoef="0" IVar="-1" Cut="0.0000000000000000e+00" cType="1" res="-2.0711016841232777e-03" rms="4.9943110346794128e-01" purity="4.7615519165992737e-01" nType="-99"/>
            </Node>
          </Node>
        </Node>
      </Node>
    </BinaryTree>
    <BinaryTree type="DecisionTree" boostWeight="1.0000000000000000e+00" itree="1">
      <Node pos="s" depth="0" NCoef="0" IVar="3" Cut="6.7633879184722900e-01" cType="1" res="1.4560499694198370e-03" rms="4.9238660931587219e-01" purity="4.9944111704826355e-01" nType="0">
        <Node pos="l" depth="1" NCoef="0" IVar="3" Cut="5.0192350149154663e-01" cType="1" res="-2.8525662422180176e-01" rms="3.9532956480979919e-01" purity="1.9829557836055756e-01" nType="0">
          <Node pos="l" depth="2" NCoef="0" IVar="6" Cut="1.5685297548770905e-01" cType="1" res="-3.6714616417884827e-01" rms="3.1282290816307068e-01" purity="1.1102240532636642e-01" nType="0">
            <Node pos="l" depth="3" NCoef="0" IVar="3" Cut="4.0490022301673889e-01" cType="1" res="-3.9196172356605530e-01" rms="2.7786055207252502e-01" purity="8.4995187819004059e-02" nType="0">
              <Node pos="l" depth="4" NCoef="0" IVar="4" Cut="1.7312856912612915e+00" cType="1" res="-4.2004373669624329e-01" rms="2.2748234868049622e-01" purity="5.4911490529775620e-02" nType="0">
                <Node pos="l" depth="5" NCoef="0" IVar="7" Cut="4.0000000000000000e+00" cType="1" res="2.2930008172988892e-01" rms="0.0000000000000000e+00" purity="6.9030776619911194e-02" nType="0">
                  <Node pos="l" depth="6" NCoef="0" IVar="-1" Cut="0.0000000000000000e+00" cType="1" res="-4.1216131299734116e-02" rms="3.1546726822853088e-01" purity="1.1194100975990295e-01" nType="-99"/>
                  <Node pos="r" depth="6" NCoef="0" IVar="3" Cut="3.3969765901565552e-01" cType="1" res="-4.1372212767601013e-01" rms="2.4010823667049408e-01" purity="6.1601378023624420e-02" nType="0">
                    <Node pos="l" depth="7" NCoef="0" IVar="-1" Cut="0.0000000000000000e+00" cType="1" res="-5.1015548408031464e-02" rms="2.0894810557365417e-01" purity="4.5800287276506424e-02" nType="-99"/>
                    <Node pos="r" depth="7" NCoef="0" IVar="-1" Cut="0.0000000000000000e+00" cType="1" res="-4.1915960609912872e-02" rms="2.9678165912628174e-01" purity="9.7822017967700958e-02" nType="-99"/>
                  </Node>
                </Node>
                <Node pos="r" depth="5" NCoef="0" IVar="6" Cut="7.1597851812839508e-02" cType="1" res="-4.6193364262580872e-01" rms="1.0586271435022354e-01" purity="1.1348493397235870e-02" nType="0">
                  <Node pos="l" depth="6" NCoef="0" IVar="-1" Cut="0.0000000000000000e+00" cType="1" res="-5.3831931203603745e-02" rms="7.5130261480808258e-02" purity="5.6768739596009254e-03" nType="-99"/>
                  <Node pos="r" depth="6" NCoef="0" IVar="-1" Cut="0.0000000000000000e+00" cType="1" res="-5.3618129342794418e-02" rms="1.1892590671777725e-01" purity="1.4365329407155514e-02" nType="-99"/>
                </Node>
              </Node>
              <Node pos="r" depth="4" NCoef="0" IVar="4" Cut="1.2352406978607178e+00" cType="1" res="-3.3404099941253662e-01" rms="3.5317733883857727e-01" purity="1.4704449474811554e-01" nType="0">
                <Node pos="l" depth="5" NCoef="0" IVar="0" Cut="7.5524157285690308e-01" cType="1" res="-3.1038364768028259e-01" rms="3.7693208456039429e-01" purity="1.7221651971340179e-01" nType="0">
                  <Node pos="l" depth="6" NCoef="0" IVar="-1" Cut="0.0000000000000000e+00" cType="1" res="-2.4235306307673454e-02" rms="4.2701348662376404e-01" purity="2.4067772924900055e-01" nType="-99"/>
                  <Node pos="r" depth="6" NCoef="0" IVar="6" Cut="9.1417036950588226e-02" cType="1" res="-3.4950959682464600e-01" rms="3.3738917112350464e-01" purity="1.3112749159336090e-01" nType="0">
                    <Node pos="l" depth="7" NCoef="0" IVar="-1" Cut="0.0000000000000000e+00" cType="1" res="-4.0107205510139465e-02" rms="3.0834391713142395e-01" purity="1.0646765679121017e-01" nType="-99"/>
                    <Node pos="r" depth="7" NCoef="0" IVar="-1" Cut="0.0000000000000000e+00" cType="1" res="-3.2214116305112839e-02" rms="3.8074871897697449e-01" purity="1.7607812583446503e-01" nType="-99"/>
                  </Node>
                </Node>
                <Node pos="r" depth="5" NCoef="0" IVar="-1" Cut="0.0000000000000000e+00" cType="1" res="-4.6073548495769501e-02" rms="2.1351224184036255e-01" purity="4.7957018017768860e-02" nType="-99"/>
              </Node>
            </Node>
            <Node pos="r" depth="3" NCoef="0" IVar="5" Cut="-1.4630157947540283e+00" cType="1" res="-3.0989262461662292e-01" rms="3.7524160742759705e-01" purity="1.7107146978378296e-01" nType="0">
              <Node pos="l" depth="4" NCoef="0" IVar="7" Cut="5.0000000000000000e+00" cType="1" res="-2.5550609827041626e-01" rms="4.1782462596893311e-01" purity="2.2722505033016205e-01" nType="0">
                <Node pos="l" depth="5" NCoef="0" IVar="-1" Cut="0.0000000000000000e+00" cType="1" res="-1.6174865886569023e-02" rms="4.6545639634132385e-01" purity="3.1953948736190796e-01" nType="-99"/>
                <Node pos="r" depth="5" NCoef="0" IVar="3" Cut="2.6559934020042419e-01" cType="1" res="-3.0407279729843140e-01" rms="3.8077005743980408e-01" purity="1.7697980999946594e-01" nType="0">
                  <Node pos="l" depth="6" NCoef="0" IVar="-1" Cut="0.0000000000000000e+00" cType="1" res="-3.9695963263511658e-02" rms="3.3736640214920044e-01" purity="1.3138149678707123e-01" nType="-99"/>
                  <Node pos="r" depth="6" NCoef="0" IVar="-1" Cut="0.0000000000000000e+00" cType="1" res="-2.5001635774970055e-02" rms="4.2550197243690491e-01" purity="2.3896431922912598e-01" nType="-99"/>
                </Node>
              </Node>
              <Node pos="r" depth="4" NCoef="0" IVar="4" Cut="1.1274536848068237e+00" cType="1" res="-3.6540108919143677e-01" rms="3.1660434603691101e-01" purity="1.1375948786735535e-01" nType="0">
                <Node pos="l" depth="5" NCoef="0" IVar="-1" Cut="0.0000000000000000e+00" cType="1" res="-3.5027690231800079e-02" rms="3.6344042420387268e-01" purity="1.5756617486476898e-01" nType="-99"/>
                <Node pos="r" depth="5" NCoef="0" IVar="3" Cut="2.6297473907470703e-01" cType="1" res="-3.9237508177757263e-01" rms="2.7787727117538452e-01" purity="8.4598876535892487e-02" nType="0">
                  <Node pos="l" depth="6" NCoef="0" IVar="-1" Cut="0.0000000000000000e+00" cType="1" res="-4.2096570134162903e-02" rms="3.1124189496040344e-01" purity="1.0931546986103058e-01" nType="-99"/>
                  <Node pos="r" depth="6" NCoef="0" IVar="-1" Cut="0.0000000000000000e+00" cType="1" res="-4.6428307890892029e-02" rms="2.4124018847942352e-01" purity="6.2167186290025711e-02" nType="-99"/>
                </Node>
              </Node>
            </Node>
          </Node>
          <Node pos="r" depth="2" NCoef="0" IVar="0" Cut="3.6567077040672302e-01" cType="1" res="-1.3476517796516418e-01" rms="4.7821345925331116e-01" purity="3.5868072509765625e-01" nType="0">
            <Node pos="l" depth="3" NCoef="0" IVar="5" Cut="-9.5489537715911865e-01" cType="1" res="-5.1892939954996109e-02" rms="4.9608343839645386e-01" purity="4.4522958993911743e-01" nType="0">
              <Node pos="l" depth="4" NCoef="0" IVar="2" Cut="2.1544210815429688e+02" cType="1" res="-1.5502116642892361e-02" rms="4.9951392412185669e-01" purity="4.8355922102928162e-01" nType="0">
                <Node pos="l" depth="5" NCoef="0" IVar="0" Cut="2.4768549203872681e-01" cType="1" res="1.9757263362407684e-02" rms="4.9943819642066956e-01" purity="5.1899486780166626e-01" nType="0">
                  <Node pos="l" depth="6" NCoef="0" IVar="2" Cut="1.1272748565673828e+02" cType="1" res="4.3313082307577133e-02" rms="4.9795612692832947e-01" purity="5.4299622774124146e-01" nType="0">
                    <Node pos="l" depth="7" NCoef="0" IVar="-1" Cut="0.0000000000000000e+00" cType="1" res="5.1575405523180962e-03" rms="4.9513819813728333e-01" purity="5.6845790147781372e-01" nType="-99"/>
                    <Node pos="r" depth="7" NCoef="0" IVar="-1" Cut="0.0000000000000000e+00" cType="1" res="1.3438818277791142e-03" rms="4.9954453110694885e-01" purity="5.1549887657165527e-01" nType="-99"/>
                  </Node>
                  <Node pos="r" depth="6" NCoef="0" IVar="-1" Cut="0.0000000000000000e+00" cType="1" res="-2.3397549521178007e-03" rms="4.9909609556198120e-01" purity="4.7157678008079529e-01" nType="-99"/>
                </Node>
                <Node pos="r" depth="5" NCoef="0" IVar="3" Cut="6.0884934663772583e-01" cType="1" res="-6.3325695693492889e-02" rms="4.9562427401542664e-01" purity="4.3549647927284241e-01" nType="0">
                  <Node pos="l" depth="6" NCoef="0" IVar="-1" Cut="0.0000000000000000e+00" cType="1" res="-8.6202938109636307e-03" rms="4.9045962095260620e-01" purity="4.0314444899559021e-01" nType="-99"/>
                  <Node pos="r" depth="6" NCoef="0" IVar="-1" Cut="0.0000000000000000e+00" cType="1" res="-2.2665394935756922e-03" rms="4.9929520487785339e-01" purity="4.7530728578567505e-01" nType="-99"/>
                </Node>
              </Node>
              <Node pos="r" depth="4" NCoef="0" IVar="-1" Cut="0.0000000000000000e+00" cType="1" res="-1.8443202599883080e-02" rms="4.5368227362632751e-01" purity="2.9160198569297791e-01" nType="-99"/>
            </Node>
            <Node pos="r" depth="3" NCoef="0" IVar="5" Cut="-1.0544722080230713e+00" cType="1" res="-2.1057014167308807e-01" rms="4.4803318381309509e-01" purity="2.7951270341873169e-01" nType="0">
              <Node pos="l" depth="4" NCoef="0" IVar="1" Cut="5.1636362075805664e-01" cType="1" res="-1.7485497891902924e-01" rms="4.6427816152572632e-01" purity="3.1582719087600708e-01" nType="0">
                <Node pos="l" depth="5" NCoef="0" IVar="0" Cut="7.0789462327957153e-01" cType="1" res="-1.4513438940048218e-01" rms="4.7503229975700378e-01" purity="3.4571439027786255e-01" nType="0">
                  <Node pos="l" depth="6" NCoef="0" IVar="6" Cut="5.6066110730171204e-02" cType="1" res="-1.1420142650604248e-01" rms="4.8467791080474854e-01" purity="3.7833157181739807e-01" nType="0">
                    <Node pos="l" depth="7" NCoef="0" IVar="-1" Cut="0.0000000000000000e+00" cType="1" res="-1.5487115830183029e-02" rms="4.6822595596313477e-01" purity="3.2550945878028870e-01" nType="-99"/>
                    <Node pos="r" depth="7" NCoef="0" IVar="-1" Cut="0.0000000000000000e+00" cType="1" res="-7.2545693255960941e-03" rms="4.9152427911758423e-01" purity="4.0980648994445801e-01" nType="-99"/>
                  </Node>
                  <Node pos="r" depth="6" NCoef="0" IVar="-1" Cut="0.0000000000000000e+00" cType="1" res="-2.1095382049679756e-02" rms="4.4266390800476074e-01" purity="2.6813969016075134e-01" nType="-99"/>
                </Node>
                <Node pos="r" depth="5" NCoef="0" IVar="-1" Cut="0.0000000000000000e+00" cType="1" res="-2.7565306052565575e-02" rms="4.1019302606582642e-01" purity="2.1467469632625580e-01" nType="-99"/>
              </Node>
              <Node pos="r" depth="4" NCoef="0" IVar="-1" Cut="0.0000000000000000e+00" cType="1" res="-3.3123370260000229e-02" rms="3.6424502730369568e-01" purity="1.5812095999717712e-01" nType="-99"/>
            </Node>
          </Node>
        </Node>
        <Node pos="r" depth="1" NCoef="0" IVar="3" Cut="8.2585275173187256e-01" cType="1" res="1.9833041727542877e-01" rms="4.5431348681449890e-01" purity="7.0622599124908447e-01" nType="0">
          <Node pos="l" depth="2" NCoef="0" IVar="5" Cut="-1.5457618236541748e+00" cType="1" res="7.6809525489807129e-02" rms="4.9272343516349792e-01" purity="5.7979667186737061e-01" nType="0">
            <Node pos="l" depth="3" NCoef="0" IVar="1" Cut="5.1668083667755127e-01" cType="1" res="1.1463402956724167e-01" rms="4.8516017198562622e-01" purity="6.1905258893966675e-01" nType="0">
              <Node pos="l" depth="4" NCoef="0" IVar="0" Cut="1.8475058674812317e-01" cType="1" res="1.3560071587562561e-01" rms="4.7952893376350403e-01" purity="6.4018803834915161e-01" nType="0">
                <Node pos="l" depth="5" NCoef="0" IVar="3" Cut="7.4385982751846313e-01" cType="1" res="1.7789943516254425e-01" rms="4.6474328637123108e-01" purity="6.8404096364974976e-01" nType="0">
                  <Node pos="l" depth="6" NCoef="0" IVar="-1" Cut="0.0000000000000000e+00" cType="1" res="9.9245514720678329e-03" rms="4.8286017775535583e-01" purity="6.2936115264892578e-01" nType="-99"/>
                  <Node pos="r" depth="6" NCoef="0" IVar="1" Cut="-6.3669276423752308e-03" cType="1" res="2.0494829118251801e-01" rms="4.5280155539512634e-01" purity="7.1206229925155640e-01" nType="0">
                    <Node pos="l" depth="7" NCoef="0" IVar="-1" Cut="0.0000000000000000e+00" cType="1" res="1.6650795936584473e-02" rms="4.4503813982009888e-01" purity="7.2790712118148804e-01" nType="-99"/>
                    <Node pos="r" depth="7" NCoef="0" IVar="-1" Cut="0.0000000000000000e+00" cType="1" res="1.4390291646122932e-02" rms="4.6082299947738647e-01" purity="6.9401234388351440e-01" nType="-99"/>
                  </Node>
                </Node>
                <Node pos="r" depth="5" NCoef="0" IVar="3" Cut="7.6794916391372681e-01" cType="1" res="6.8845607340335846e-02" rms="4.9467381834983826e-01" purity="5.7098013162612915e-01" nType="0">
                  <Node pos="l" depth="6" NCoef="0" IVar="2" Cut="1.0957755279541016e+02" cType="1" res="4.0415190160274506e-02" rms="4.9809855222702026e-01" purity="5.4161494970321655e-01" nType="0">
                    <Node pos="l" depth="7" NCoef="0" IVar="-1" Cut="0.0000000000000000e+00" cType="1" res="5.7448865845799446e-03" rms="4.9474209547042847e-01" purity="5.7202732563018799e-01" nType="-99"/>
                    <Node pos="r" depth="7" NCoef="0" IVar="-1" Cut="0.0000000000000000e+00" cType="1" res="7.0520961889997125e-04" rms="4.9974724650382996e-01" purity="5.0814729928970337e-01" nType="-99"/>
                  </Node>
                  <Node pos="r" depth="6" NCoef="0" IVar="-1" Cut="0.0000000000000000e+00" cType="1" res="1.0744866915047169e-02" rms="4.8312184214591980e-01" purity="6.2830537557601929e-01" nType="-99"/>
                </Node>
              </Node>
              <Node pos="r" depth="4" NCoef="0" IVar="-1" Cut="0.0000000000000000e+00" cType="1" res="-2.6667705969884992e-04" rms="4.9955517053604126e-01" purity="5.0019466876983643e-01" nType="-99"/>
            </Node>
            <Node pos="r" depth="3" NCoef="0" IVar="5" Cut="-7.9463392496109009e-01" cType="1" res="-2.6876667514443398e-02" rms="4.9837529659271240e-01" purity="4.7218656539916992e-01" nType="0">
              <Node pos="l" depth="4" NCoef="0" IVar="3" Cut="7.5352871417999268e-01" cType="1" res="4.4943109154701233e-02" rms="4.9750974774360657e-01" purity="5.4726785421371460e-01" nType="0">
                <Node pos="l" depth="5" NCoef="0" IVar="-1" Cut="0.0000000000000000e+00" cType="1" res="2.6332994457334280e-04" rms="4.9965262413024902e-01" purity="5.0483024120330811e-01" nType="-99"/>
                <Node pos="r" depth="5" NCoef="0" IVar="-1" Cut="0.0000000000000000e+00" cType="1" res="7.0144049823284149e-03" rms="4.9203148484230042e-01" purity="5.8841305971145630e-01" nType="-99"/>
              </Node>
              <Node pos="r" depth="4" NCoef="0" IVar="-1" Cut="0.0000000000000000e+00" cType="1" res="-1.0393012315034866e-02" rms="4.8522993922233582e-01" purity="3.8053724169731140e-01" nType="-99"/>
            </Node>
          </Node>
          <Node pos="r" depth="2" NCoef="0" IVar="5" Cut="-8.5891050100326538e-01" cType="1" res="2.4254043400287628e-01" rms="4.3109178543090820e-01" purity="7.5222170352935791e-01" nType="0">
            <Node pos="l" depth="3" NCoef="0" IVar="5" Cut="-1.7994534969329834e+00" cType="1" res="2.5851169228553772e-01" rms="4.2128098011016846e-01" purity="7.6882195472717285e-01" nType="0">
              <Node pos="l" depth="4" NCoef="0" IVar="1" Cut="1.0190397500991821e-01" cType="1" res="2.7515020966529846e-01" rms="4.0988796949386597e-01" purity="7.8609186410903931e-01" nType="0">
                <Node pos="l" depth="5" NCoef="0" IVar="4" Cut="-9.9834281206130981e-01" cType="1" res="3.0057179927825928e-01" rms="3.9093616604804993e-01" purity="8.1152206659317017e-01" nType="0">
                  <Node pos="l" depth="6" NCoef="0" IVar="5" Cut="-2.7094044685363770e+00" cType="1" res="2.6626950502395630e-01" rms="4.1702505946159363e-01" purity="7.7575218677520752e-01" nType="0">
                    <Node pos="l" depth="7" NCoef="0" IVar="-1" Cut="0.0000000000000000e+00" cType="1" res="2.1374195814132690e-02" rms="4.0442410111427307e-01" purity="7.9397225379943848e-01" nType="-99"/>
                    <Node pos="r" depth="7" NCoef="0" IVar="-1" Cut="0.0000000000000000e+00" cType="1" res="1.9140981137752533e-02" rms="4.2884403467178345e-01" purity="7.5700592994689941e-01" nType="-99"/>
                  </Node>
                  <Node pos="r" depth="6" NCoef="0" IVar="5" Cut="-2.7097012996673584e+00" cType="1" res="3.2408574223518372e-01" rms="3.7016510963439941e-01" purity="8.3604198694229126e-01" nType="0">
                    <Node pos="l" depth="7" NCoef="0" IVar="-1" Cut="0.0000000000000000e+00" cType="1" res="2.5841828435659409e-02" rms="3.5295993089675903e-01" purity="8.5414624214172363e-01" nType="-99"/>
                    <Node pos="r" depth="7" NCoef="0" IVar="-1" Cut="0.0000000000000000e+00" cType="1" res="2.3251445963978767e-02" rms="3.8964515924453735e-01" purity="8.1327503919601440e-01" nType="-99"/>
                  </Node>
                </Node>
                <Node pos="r" depth="5" NCoef="0" IVar="4" Cut="-8.9489603042602539e-01" cType="1" res="2.3681232333183289e-01" rms="4.3411061167716980e-01" purity="7.4774098396301270e-01" nType="0">
                  <Node pos="l" depth="6" NCoef="0" IVar="4" Cut="-2.7290863990783691e+00" cType="1" res="1.9738680124282837e-01" rms="4.5513761043548584e-01" purity="7.0685386657714844e-01" nType="0">
                    <Node pos="l" depth="7" NCoef="0" IVar="-1" Cut="0.0000000000000000e+00" cType="1" res="1.9817739725112915e-02" rms="4.2941486835479736e-01" purity="7.5605231523513794e-01" nType="-99"/>
                    <Node pos="r" depth="7" NCoef="0" IVar="-1" Cut="0.0000000000000000e+00" cType="1" res="1.3939973898231983e-02" rms="4.6031364798545837e-01" purity="6.9516575336456299e-01" nType="-99"/>
                  </Node>
                  <Node pos="r" depth="6" NCoef="0" IVar="5" Cut="-2.7094235420227051e+00" cType="1" res="2.6814943552017212e-01" rms="4.1397148370742798e-01" purity="7.8023988008499146e-01" nType="0">
                    <Node pos="l" depth="7" NCoef="0" IVar="-1" Cut="0.0000000000000000e+00" cType="1" res="2.2689213976264000e-02" rms="3.9180693030357361e-01" purity="8.1062585115432739e-01" nType="-99"/>
                    <Node pos="r" depth="7" NCoef="0" IVar="-1" Cut="0.0000000000000000e+00" cType="1" res="1.8283819779753685e-02" rms="4.3774807453155518e-01" purity="7.4148333072662354e-01" nType="-99"/>
                  </Node>
                </Node>
              </Node>
              <Node pos="r" depth="4" NCoef="0" IVar="5" Cut="-1.4052034616470337e+00" cType="1" res="1.6514375805854797e-01" rms="4.6940949559211731e-01" purity="6.7191094160079956e-01" nType="0">
                <Node pos="l" depth="5" NCoef="0" IVar="7" Cut="2.0000000000000000e+00" cType="1" res="1.8738579750061035e-01" rms="4.6046122908592224e-01" purity="6.9395595788955688e-01" nType="0">
                  <Node pos="l" depth="6" NCoef="0" IVar="-1" Cut="0.0000000000000000e+00" cType="1" res="1.6021518036723137e-02" rms="4.5155104994773865e-01" purity="7.1457648277282715e-01" nType="-99"/>
                  <Node pos="r" depth="6" NCoef="0" IVar="-1" Cut="0.0000000000000000e+00" cType="1" res="1.2775134295225143e-02" rms="4.7352632880210876e-01" purity="6.6049069166183472e-01" nType="-99"/>
                </Node>
                <Node pos="r" depth="5" NCoef="0" IVar="7" Cut="2.0000000000000000e+00" cType="1" res="1.3818709552288055e-01" rms="4.7789469361305237e-01" purity="6.4371812343597412e-01" nType="0">
                  <Node pos="l" depth="6" NCoef="0" IVar="-1" Cut="0.0000000000000000e+00" cType="1" res="1.2064842507243156e-02" rms="4.7377973794937134e-01" purity="6.5959501266479492e-01" nType="-99"/>
                  <Node pos="r" depth="6" NCoef="0" IVar="-1" Cut="0.0000000000000000e+00" cType="1" res="9.6841435879468918e-03" rms="4.8514419794082642e-01" purity="6.2096059322357178e-01" nType="-99"/>
                </Node>
              </Node>
            </Node>
            <Node pos="r" depth="3" NCoef="0" IVar="5" Cut="-5.3191161155700684e-01" cType="1" res="2.0098794251680374e-02" rms="4.9927592277526855e-01" purity="5.2101963758468628e-01" nType="0">
              <Node pos="l" depth="4" NCoef="0" IVar="-1" Cut="0.0000000000000000e+00" cType="1" res="7.6119690202176571e-03" rms="4.9100205302238464e-01" purity="5.9442985057830811e-01" nType="-99"/>
              <Node pos="r" depth="4" NCoef="0" IVar="-1" Cut="0.0000000000000000e+00" cType="1" res="-2.5428654626011848e-03" rms="4.9909859895706177e-01" purity="4.6999010443687439e-01" nType="-99"/>
            </Node>
          </Node>
        </Node>
      </Node>
    </BinaryTree>
    <BinaryTree type="DecisionTree" boostWeight="1.0000000000000000e+00" itree="2">
      <Node pos="s" depth="0" NCoef="0" IVar="3" Cut="6.7654424905776978e-01" cType="1" res="3.9970409125089645e-03" rms="4.8533609509468079e-01" purity="5.0023716688156128e-01" nType="0">
        <Node pos="l" depth="1" NCoef="0" IVar="3" Cut="5.0214380025863647e-01" cType="1" res="-2.7037572860717773e-01" rms="3.9172747731208801e-01" purity="1.9760824739933014e-01" nType="0">
          <Node pos="l" depth="2" NCoef="0" IVar="3" Cut="4.0509384870529175e-01" cType="1" res="-3.4750175476074219e-01" rms="3.1053063273429871e-01" purity="1.1018223315477371e-01" nType="0">
            <Node pos="l" depth="3" NCoef="0" IVar="6" Cut="1.5685297548770905e-01" cType="1" res="-3.6958128213882446e-01" rms="2.7727439999580383e-01" purity="8.5276417434215546e-02" nType="0">
              <Node pos="l" depth="4" NCoef="0" IVar="4" Cut="1.7407667636871338e+00" cType="1" res="-3.9893326163291931e-01" rms="2.2074311971664429e-01" purity="5.1706645637750626e-02" nType="0">
                <Node pos="l" depth="5" NCoef="0" IVar="3" Cut="3.3991736173629761e-01" cType="1" res="-3.8769978284835815e-01" rms="2.4462920427322388e-01" purity="6.4249165356159210e-02" nType="0">
                  <Node pos="l" depth="6" NCoef="0" IVar="7" Cut="5.0000000000000000e+00" cType="1" res="-3.9865136146545410e-01" rms="2.1968901157379150e-01" purity="5.0997585058212280e-02" nType="0">
                    <Node pos="l" depth="7" NCoef="0" IVar="-1" Cut="0.0000000000000000e+00" cType="1" res="-4.2533997446298599e-02" rms="2.8597429394721985e-01" purity="9.0042941272258759e-02" nType="-99"/>
                    <Node pos="r" depth="7" NCoef="0" IVar="-1" Cut="0.0000000000000000e+00" cType="1" res="-4.9394220113754272e-02" rms="1.8932753801345825e-01" purity="3.7276349961757660e-02" nType="-99"/>
                  </Node>
                  <Node pos="r" depth="6" NCoef="0" IVar="6" Cut="1.0148026794195175e-01" cType="1" res="-3.6355981230735779e-01" rms="2.9063689708709717e-01" purity="9.3371160328388214e-02" nType="0">
                    <Node pos="l" depth="7" NCoef="0" IVar="-1" Cut="0.0000000000000000e+00" cType="1" res="-4.3161440640687943e-02" rms="2.5793340802192688e-01" purity="7.1669273078441620e-02" nType="-99"/>
                    <Node pos="r" depth="7" NCoef="0" IVar="-1" Cut="0.0000000000000000e+00" cType="1" res="-3.6728888750076294e-02" rms="3.3504033088684082e-01" purity="1.2910090386867523e-01" nType="-99"/>
                  </Node>
                </Node>
                <Node pos="r" depth="5" NCoef="0" IVar="6" Cut="7.1602590382099152e-02" cType="1" res="-4.3329128623008728e-01" rms="1.1472847312688828e-01" purity="1.3344871811568737e-02" nType="0">
                  <Node pos="l" depth="6" NCoef="0" IVar="-1" Cut="0.0000000000000000e+00" cType="1" res="-5.1519118249416351e-02" rms="7.4323244392871857e-02" purity="5.5556166917085648e-03" nType="-99"/>
                  <Node pos="r" depth="6" NCoef="0" IVar="-1" Cut="0.0000000000000000e+00" cType="1" res="-5.0453718751668930e-02" rms="1.3131217658519745e-01" purity="1.7550321295857430e-02" nType="-99"/>
                </Node>
              </Node>
              <Node pos="r" depth="4" NCoef="0" IVar="4" Cut="6.4933472871780396e-01" cType="1" res="-3.1608524918556213e-01" rms="3.5179668664932251e-01" purity="1.4645974338054657e-01" nType="0">
                <Node pos="l" depth="5" NCoef="0" IVar="7" Cut="5.0000000000000000e+00" cType="1" res="2.2807228565216064e-01" rms="0.0000000000000000e+00" purity="1.8027493357658386e-01" nType="0">
                  <Node pos="l" depth="6" NCoef="0" IVar="-1" Cut="0.0000000000000000e+00" cType="1" res="-2.1502938121557236e-02" rms="4.4088926911354065e-01" purity="2.6550301909446716e-01" nType="-99"/>
                  <Node pos="r" depth="6" NCoef="0" IVar="3" Cut="2.7461320161819458e-01" cType="1" res="-3.1918165087699890e-01" rms="3.5038718581199646e-01" purity="1.4407852292060852e-01" nType="0">
                    <Node pos="l" depth="7" NCoef="0" IVar="-1" Cut="0.0000000000000000e+00" cType="1" res="-3.8547523319721222e-02" rms="3.2899802923202515e-01" purity="1.2390301376581192e-01" nType="-99"/>
                    <Node pos="r" depth="7" NCoef="0" IVar="-1" Cut="0.0000000000000000e+00" cType="1" res="-3.0450295656919479e-02" rms="3.8612073659896851e-01" purity="1.8314333260059357e-01" nType="-99"/>
                  </Node>
                </Node>
                <Node pos="r" depth="5" NCoef="0" IVar="3" Cut="2.3884880542755127e-01" cType="1" res="-3.6720955371856689e-01" rms="2.8376173973083496e-01" purity="8.8824003934860229e-02" nType="0">
                  <Node pos="l" depth="6" NCoef="0" IVar="-1" Cut="0.0000000000000000e+00" cType="1" res="-3.6943238228559494e-02" rms="3.3924359083175659e-01" purity="1.3351714611053467e-01" nType="-99"/>
                  <Node pos="r" depth="6" NCoef="0" IVar="-1" Cut="0.0000000000000000e+00" cType="1" res="-4.6183411031961441e-02" rms="2.2215011715888977e-01" purity="5.2428729832172394e-02" nType="-99"/>
                </Node>
              </Node>
            </Node>
            <Node pos="r" depth="3" NCoef="0" IVar="5" Cut="-3.5160213708877563e-01" cType="1" res="-2.9026341438293457e-01" rms="3.7757834792137146e-01" purity="1.7474733293056488e-01" nType="0">
              <Node pos="l" depth="4" NCoef="0" IVar="0" Cut="3.5911035537719727e-01" cType="1" res="-2.6206758618354797e-01" rms="4.0238794684410095e-01" purity="2.0538964867591858e-01" nType="0">
                <Node pos="l" depth="5" NCoef="0" IVar="-1" Cut="0.0000000000000000e+00" cType="1" res="-1.3377652503550053e-02" rms="4.7039756178855896e-01" purity="3.3255445957183838e-01" nType="-99"/>
                <Node pos="r" depth="5" NCoef="0" IVar="1" Cut="4.9604106694459915e-02" cType="1" res="-2.9381614923477173e-01" rms="3.7583187222480774e-01" purity="1.7133893072605133e-01" nType="0">
                  <Node pos="l" depth="6" NCoef="0" IVar="-1" Cut="0.0000000000000000e+00" cType="1" res="-2.4907795712351799e-02" rms="4.1309878230094910e-01" purity="2.1967425942420959e-01" nType="-99"/>
                  <Node pos="r" depth="6" NCoef="0" IVar="6" Cut="8.6845919489860535e-02" cType="1" res="-3.1900194287300110e-01" rms="3.5191130638122559e-01" purity="1.4573130011558533e-01" nType="0">
                    <Node pos="l" depth="7" NCoef="0" IVar="-1" Cut="0.0000000000000000e+00" cType="1" res="-3.6494109779596329e-02" rms="3.2371586561203003e-01" purity="1.1933054774999619e-01" nType="-99"/>
                    <Node pos="r" depth="7" NCoef="0" IVar="-1" Cut="0.0000000000000000e+00" cType="1" res="-3.0654167756438255e-02" rms="3.8294145464897156e-01" purity="1.7953313887119293e-01" nType="-99"/>
                  </Node>
                </Node>
              </Node>
              <Node pos="r" depth="4" NCoef="0" IVar="-1" Cut="0.0000000000000000e+00" cType="1" res="-4.2807362973690033e-02" rms="2.3823295533657074e-01" purity="6.0914214700460434e-02" nType="-99"/>
            </Node>
          </Node>
          <Node pos="r" depth="2" NCoef="0" IVar="5" Cut="-7.3425173759460449e-01" cType="1" res="-1.2903533875942230e-01" rms="4.7651723027229309e-01" purity="3.5782432556152344e-01" nType="0">
            <Node pos="l" depth="3" NCoef="0" IVar="0" Cut="3.6567085981369019e-01" cType="1" res="-9.5902241766452789e-02" rms="4.8642095923423767e-01" purity="3.9360338449478149e-01" nType="0">
              <Node pos="l" depth="4" NCoef="0" IVar="3" Cut="6.0905027389526367e-01" cType="1" res="-2.1387191489338875e-02" rms="4.9884277582168579e-01" purity="4.7634050250053406e-01" nType="0">
                <Node pos="l" depth="5" NCoef="0" IVar="2" Cut="2.3258924865722656e+02" cType="1" res="-6.9414086639881134e-02" rms="4.9407076835632324e-01" purity="4.2566597461700439e-01" nType="0">
                  <Node pos="l" depth="6" NCoef="0" IVar="-1" Cut="0.0000000000000000e+00" cType="1" res="-2.7329872827976942e-03" rms="4.9855455756187439e-01" purity="4.6451082825660706e-01" nType="-99"/>
                  <Node pos="r" depth="6" NCoef="0" IVar="-1" Cut="0.0000000000000000e+00" cType="1" res="-1.0601824149489403e-02" rms="4.8505136370658875e-01" purity="3.7943494319915771e-01" nType="-99"/>
                </Node>
                <Node pos="r" depth="5" NCoef="0" IVar="0" Cut="1.7690733075141907e-01" cType="1" res="1.9766116514801979e-02" rms="4.9923354387283325e-01" purity="5.1976251602172852e-01" nType="0">
                  <Node pos="l" depth="6" NCoef="0" IVar="-1" Cut="0.0000000000000000e+00" cType="1" res="4.3894103728234768e-03" rms="4.9672156572341919e-01" purity="5.5511373281478882e-01" nType="-99"/>
                  <Node pos="r" depth="6" NCoef="0" IVar="-1" Cut="0.0000000000000000e+00" cType="1" res="-3.3288118429481983e-03" rms="4.9819129705429077e-01" purity="4.6187630295753479e-01" nType="-99"/>
                </Node>
              </Node>
              <Node pos="r" depth="4" NCoef="0" IVar="3" Cut="5.6403034925460815e-01" cType="1" res="-1.6532321274280548e-01" rms="4.6390849351882935e-01" purity="3.1652241945266724e-01" nType="0">
                <Node pos="l" depth="5" NCoef="0" IVar="0" Cut="7.1962535381317139e-01" cType="1" res="-2.1791152656078339e-01" rms="4.3819421529769897e-01" purity="2.6088598370552063e-01" nType="0">
                  <Node pos="l" depth="6" NCoef="0" IVar="-1" Cut="0.0000000000000000e+00" cType="1" res="-1.7368774861097336e-02" rms="4.5593291521072388e-01" purity="2.9648756980895996e-01" nType="-99"/>
                  <Node pos="r" depth="6" NCoef="0" IVar="-1" Cut="0.0000000000000000e+00" cType="1" res="-2.4825835600495338e-02" rms="4.1494125127792358e-01" purity="2.2146756947040558e-01" nType="-99"/>
                </Node>
                <Node pos="r" depth="5" NCoef="0" IVar="1" Cut="3.2921218872070312e-01" cType="1" res="-1.2901155650615692e-01" rms="4.7749364376068115e-01" purity="3.5493880510330200e-01" nType="0">
                  <Node pos="l" depth="6" NCoef="0" IVar="2" Cut="1.5085073852539062e+02" cType="1" res="-8.8505923748016357e-02" rms="4.8858347535133362e-01" purity="3.9720839262008667e-01" nType="0">
                    <Node pos="l" depth="7" NCoef="0" IVar="-1" Cut="0.0000000000000000e+00" cType="1" res="-5.0839306786656380e-03" rms="4.9384093284606934e-01" purity="4.2586892843246460e-01" nType="-99"/>
                    <Node pos="r" depth="7" NCoef="0" IVar="-1" Cut="0.0000000000000000e+00" cType="1" res="-1.1810423806309700e-02" rms="4.7884497046470642e-01" purity="3.5917267203330994e-01" nType="-99"/>
                  </Node>
                  <Node pos="r" depth="6" NCoef="0" IVar="-1" Cut="0.0000000000000000e+00" cType="1" res="-2.0445488393306732e-02" rms="4.4259834289550781e-01" purity="2.6853999495506287e-01" nType="-99"/>
                </Node>
              </Node>
            </Node>
            <Node pos="r" depth="3" NCoef="0" IVar="4" Cut="1.3597362041473389e+00" cType="1" res="-2.8316548466682434e-01" rms="3.9222779870033264e-01" purity="1.9138549268245697e-01" nType="0">
              <Node pos="l" depth="4" NCoef="0" IVar="-1" Cut="0.0000000000000000e+00" cType="1" res="-1.9224392250180244e-02" rms="4.4547820091247559e-01" purity="2.7506273984909058e-01" nType="-99"/>
              <Node pos="r" depth="4" NCoef="0" IVar="-1" Cut="0.0000000000000000e+00" cType="1" res="-3.5905830562114716e-02" rms="3.2225239276885986e-01" purity="1.1824242025613785e-01" nType="-99"/>
            </Node>
          </Node>
        </Node>
        <Node pos="r" depth="1" NCoef="0" IVar="3" Cut="8.2603406906127930e-01" cType="1" res="1.9110576808452606e-01" rms="4.5298182964324951e-01" purity="7.0661520957946777e-01" nType="0">
          <Node pos="l" depth="2" NCoef="0" IVar="5" Cut="-6.1032187938690186e-01" cType="1" res="7.0521466434001923e-02" rms="4.9241226911544800e-01" purity="5.7641279697418213e-01" nType="0">
            <Node pos="l" depth="3" NCoef="0" IVar="1" Cut="7.0100414752960205e-01" cType="1" res="9.2651709914207458e-02" rms="4.8882308602333069e-01" purity="6.0045087337493896e-01" nType="0">
              <Node pos="l" depth="4" NCoef="0" IVar="0" Cut="3.9748448133468628e-01" cType="1" res="1.0934519767761230e-01" rms="4.8509338498115540e-01" purity="6.1764866113662720e-01" nType="0">
                <Node pos="l" depth="5" NCoef="0" IVar="0" Cut="1.7950288951396942e-01" cType="1" res="1.2380354106426239e-01" rms="4.8131796717643738e-01" purity="6.3288801908493042e-01" nType="0">
                  <Node pos="l" depth="6" NCoef="0" IVar="3" Cut="7.6334005594253540e-01" cType="1" res="1.5242877602577209e-01" rms="4.7203832864761353e-01" purity="6.6342419385910034e-01" nType="0">
                    <Node pos="l" depth="7" NCoef="0" IVar="-1" Cut="0.0000000000000000e+00" cType="1" res="9.3788998201489449e-03" rms="4.8338887095451355e-01" purity="6.2637037038803101e-01" nType="-99"/>
                    <Node pos="r" depth="7" NCoef="0" IVar="-1" Cut="0.0000000000000000e+00" cType="1" res="1.4018647372722626e-02" rms="4.5977938175201416e-01" purity="6.9569182395935059e-01" nType="-99"/>
                  </Node>
                  <Node pos="r" depth="6" NCoef="0" IVar="3" Cut="7.5850576162338257e-01" cType="1" res="6.5484821796417236e-02" rms="4.9459099769592285e-01" purity="5.7067602872848511e-01" nType="0">
                    <Node pos="l" depth="7" NCoef="0" IVar="-1" Cut="0.0000000000000000e+00" cType="1" res="2.7802318800240755e-03" rms="4.9861460924148560e-01" purity="5.3483510017395020e-01" nType="-99"/>
                    <Node pos="r" depth="7" NCoef="0" IVar="-1" Cut="0.0000000000000000e+00" cType="1" res="9.4245383515954018e-03" rms="4.8594105243682861e-01" purity="6.1704897880554199e-01" nType="-99"/>
                  </Node>
                </Node>
                <Node pos="r" depth="5" NCoef="0" IVar="-1" Cut="0.0000000000000000e+00" cType="1" res="-1.7689050873741508e-03" rms="4.9933657050132751e-01" purity="4.8039898276329041e-01" nType="-99"/>
              </Node>
              <Node pos="r" depth="4" NCoef="0" IVar="-1" Cut="0.0000000000000000e+00" cType="1" res="-5.0433501601219177e-03" rms="4.9637305736541748e-01" purity="4.4391089677810669e-01" nType="-99"/>
            </Node>
            <Node pos="r" depth="3" NCoef="0" IVar="-1" Cut="0.0000000000000000e+00" cType="1" res="-1.2564538046717644e-02" rms="4.7762373089790344e-01" purity="3.5212567448616028e-01" nType="-99"/>
          </Node>
          <Node pos="r" depth="2" NCoef="0" IVar="5" Cut="-2.1259143352508545e+00" cType="1" res="2.3462694883346558e-01" rms="4.2964681982994080e-01" purity="7.5360780954360962e-01" nType="0">
            <Node pos="l" depth="3" NCoef="0" IVar="4" Cut="-9.9834281206130981e-01" cType="1" res="2.7304354310035706e-01" rms="4.0349161624908447e-01" purity="7.9475253820419312e-01" nType="0">
              <Node pos="l" depth="4" NCoef="0" IVar="4" Cut="-2.5967390537261963e+00" cType="1" res="2.3646523058414459e-01" rms="4.2979386448860168e-01" purity="7.5518077611923218e-01" nType="0">
                <Node pos="l" depth="5" NCoef="0" IVar="3" Cut="8.8199043273925781e-01" cType="1" res="2.6396715641021729e-01" rms="4.1108998656272888e-01" purity="7.8449457883834839e-01" nType="0">
                  <Node pos="l" depth="6" NCoef="0" IVar="-1" Cut="0.0000000000000000e+00" cType="1" res="1.8882829695940018e-02" rms="4.3050271272659302e-01" purity="7.5426262617111206e-01" nType="-99"/>
                  <Node pos="r" depth="6" NCoef="0" IVar="-1" Cut="0.0000000000000000e+00" cType="1" res="2.3273007944226265e-02" rms="3.9459046721458435e-01" purity="8.0696153640747070e-01" nType="-99"/>
                </Node>
                <Node pos="r" depth="5" NCoef="0" IVar="4" Cut="-1.3076884746551514e+00" cType="1" res="2.2631938755512238e-01" rms="4.3605387210845947e-01" purity="7.4436646699905396e-01" nType="0">
                  <Node pos="l" depth="6" NCoef="0" IVar="3" Cut="8.9596575498580933e-01" cType="1" res="2.1850897371768951e-01" rms="4.4041967391967773e-01" purity="7.3644804954528809e-01" nType="0">
                    <Node pos="l" depth="7" NCoef="0" IVar="-1" Cut="0.0000000000000000e+00" cType="1" res="1.6076264902949333e-02" rms="4.4606077671051025e-01" purity="7.2553914785385132e-01" nType="-99"/>
                    <Node pos="r" depth="7" NCoef="0" IVar="-1" Cut="0.0000000000000000e+00" cType="1" res="1.5922199934720993e-02" rms="4.3602547049522400e-01" purity="7.4452257156372070e-01" nType="-99"/>
                  </Node>
                  <Node pos="r" depth="6" NCoef="0" IVar="-1" Cut="0.0000000000000000e+00" cType="1" res="1.8790544942021370e-02" rms="4.1865289211273193e-01" purity="7.7303224802017212e-01" nType="-99"/>
                </Node>
              </Node>
              <Node pos="r" depth="4" NCoef="0" IVar="7" Cut="2.0000000000000000e+00" cType="1" res="2.9943001270294189e-01" rms="3.8019859790802002e-01" purity="8.2242935895919800e-01" nType="0">
                <Node pos="l" depth="5" NCoef="0" IVar="5" Cut="-3.0021827220916748e+00" cType="1" res="3.0506956577301025e-01" rms="3.7634497880935669e-01" purity="8.2901436090469360e-01" nType="0">
                  <Node pos="l" depth="6" NCoef="0" IVar="3" Cut="9.9825692176818848e-01" cType="1" res="3.2893821597099304e-01" rms="3.5305416584014893e-01" purity="8.5399568080902100e-01" nType="0">
                    <Node pos="l" depth="7" NCoef="0" IVar="-1" Cut="0.0000000000000000e+00" cType="1" res="2.4705855175852776e-02" rms="3.6451846361160278e-01" purity="8.4216344356536865e-01" nType="-99"/>
                    <Node pos="r" depth="7" NCoef="0" IVar="-1" Cut="0.0000000000000000e+00" cType="1" res="2.5492236018180847e-02" rms="3.4326082468032837e-01" purity="8.6351418495178223e-01" nType="-99"/>
                  </Node>
                  <Node pos="r" depth="6" NCoef="0" IVar="5" Cut="-2.6912419795989990e+00" cType="1" res="2.8890860080718994e-01" rms="3.9050099253654480e-01" purity="8.1210005283355713e-01" nType="0">
                    <Node pos="l" depth="7" NCoef="0" IVar="-1" Cut="0.0000000000000000e+00" cType="1" res="2.2747917100787163e-02" rms="3.7864378094673157e-01" purity="8.2648938894271851e-01" nType="-99"/>
                    <Node pos="r" depth="7" NCoef="0" IVar="-1" Cut="0.0000000000000000e+00" cType="1" res="2.1337974816560745e-02" rms="3.9968794584274292e-01" purity="8.0026555061340332e-01" nType="-99"/>
                  </Node>
                </Node>
                <Node pos="r" depth="5" NCoef="0" IVar="-1" Cut="0.0000000000000000e+00" cType="1" res="1.6466470435261726e-02" rms="4.4462206959724426e-01" purity="7.2804152965545654e-01" nType="-99"/>
              </Node>
            </Node>
            <Node pos="r" depth="3" NCoef="0" IVar="5" Cut="-6.5454852581024170e-01" cType="1" res="1.4929965138435364e-01" rms="4.7163289785385132e-01" purity="6.6222089529037476e-01" nType="0">
              <Node pos="l" depth="4" NCoef="0" IVar="5" Cut="-1.6987450122833252e+00" cType="1" res="1.7917916178703308e-01" rms="4.6006757020950317e-01" purity="6.9462198019027710e-01" nType="0">
                <Node pos="l" depth="5" NCoef="0" IVar="7" Cut="2.0000000000000000e+00" cType="1" res="2.1483969688415527e-01" rms="4.4081699848175049e-01" purity="7.3190349340438843e-01" nType="0">
                  <Node pos="l" depth="6" NCoef="0" IVar="4" Cut="-3.9395633339881897e-01" cType="1" res="2.3524846136569977e-01" rms="4.2984184622764587e-01" purity="7.5502729415893555e-01" nType="0">
                    <Node pos="l" depth="7" NCoef="0" IVar="-1" Cut="0.0000000000000000e+00" cType="1" res="1.5626005828380585e-02" rms="4.4276455044746399e-01" purity="7.3193627595901489e-01" nType="-99"/>
                    <Node pos="r" depth="7" NCoef="0" IVar="-1" Cut="0.0000000000000000e+00" cType="1" res="2.0352950319647789e-02" rms="4.1719377040863037e-01" purity="7.7532368898391724e-01" nType="-99"/>
                  </Node>
                  <Node pos="r" depth="6" NCoef="0" IVar="-1" Cut="0.0000000000000000e+00" cType="1" res="1.4256129972636700e-02" rms="4.6225017309188843e-01" purity="6.9028383493423462e-01" nType="-99"/>
                </Node>
                <Node pos="r" depth="5" NCoef="0" IVar="7" Cut="2.0000000000000000e+00" cType="1" res="1.4777316153049469e-01" rms="4.7312992811203003e-01" purity="6.5969347953796387e-01" nType="0">
                  <Node pos="l" depth="6" NCoef="0" IVar="1" Cut="8.2654766738414764e-02" cType="1" res="1.7257435619831085e-01" rms="4.6379077434539795e-01" purity="6.8638515472412109e-01" nType="0">
                    <Node pos="l" depth="7" NCoef="0" IVar="-1" Cut="0.0000000000000000e+00" cType="1" res="1.5753459185361862e-02" rms="4.5057278871536255e-01" purity="7.1632194519042969e-01" nType="-99"/>
                    <Node pos="r" depth="7" NCoef="0" IVar="-1" Cut="0.0000000000000000e+00" cType="1" res="1.0772724635899067e-02" rms="4.7737312316894531e-01" purity="6.4869523048400879e-01" nType="-99"/>
                  </Node>
                  <Node pos="r" depth="6" NCoef="0" IVar="4" Cut="-1.0011161565780640e+00" cType="1" res="1.0795608907938004e-01" rms="4.8575186729431152e-01" purity="6.1825078725814819e-01" nType="0">
                    <Node pos="l" depth="7" NCoef="0" IVar="-1" Cut="0.0000000000000000e+00" cType="1" res="1.0118996724486351e-02" rms="4.8216843605041504e-01" purity="6.3222795724868774e-01" nType="-99"/>
                    <Node pos="r" depth="7" NCoef="0" IVar="-1" Cut="0.0000000000000000e+00" cType="1" res="7.9084970057010651e-03" rms="4.8903900384902954e-01" purity="6.0390442609786987e-01" nType="-99"/>
                  </Node>
                </Node>
              </Node>
              <Node pos="r" depth="4" NCoef="0" IVar="4" Cut="2.8897580504417419e-01" cType="1" res="-4.5379973016679287e-03" rms="4.9965330958366394e-01" purity="4.9540081620216370e-01" nType="0">
                <Node pos="l" depth="5" NCoef="0" IVar="-1" Cut="0.0000000000000000e+00" cType="1" res="3.5700199659913778e-03" rms="4.9796658754348755e-01" purity="5.4283702373504639e-01" nType="-99"/>
                <Node pos="r" depth="5" NCoef="0" IVar="-1" Cut="0.0000000000000000e+00" cType="1" res="-5.5641629733145237e-03" rms="4.9581667780876160e-01" purity="4.3813526630401611e-01" nType="-99"/>
              </Node>
            </Node>
          </Node>
        </Node>
      </Node>
    </BinaryTree>
    <BinaryTree type="DecisionTree" boostWeight="1.0000000000000000e+00" itree="3">
      <Node pos="s" depth="0" NCoef="0" IVar="3" Cut="6.7608582973480225e-01" cType="1" res="6.1367116868495941e-03" rms="4.7894129157066345e-01" purity="5.0060254335403442e-01" nType="0">
        <Node pos="l" depth="1" NCoef="0" IVar="3" Cut="4.7984808683395386e-01" cType="1" res="-2.5346475839614868e-01" rms="3.9048412442207336e-01" purity="1.9956873357295990e-01" nType="0">
          <Node pos="l" depth="2" NCoef="0" IVar="6" Cut="1.5685297548770905e-01" cType="1" res="-3.3154520392417908e-01" rms="3.0414572358131409e-01" purity="1.0578453540802002e-01" nType="0">
            <Node pos="l" depth="3" NCoef="0" IVar="3" Cut="3.7163525819778442e-01" cType="1" res="-3.5412141680717468e-01" rms="2.6697942614555359e-01" purity="7.8827910125255585e-02" nType="0">
              <Node pos="l" depth="4" NCoef="0" IVar="7" Cut="4.0000000000000000e+00" cType="1" res="0.0000000000000000e+00" rms="0.0000000000000000e+00" purity="4.8680081963539124e-02" nType="0">
                <Node pos="l" depth="5" NCoef="0" IVar="-1" Cut="0.0000000000000000e+00" cType="1" res="-3.6818850785493851e-02" rms="3.1307384371757507e-01" purity="1.1050452291965485e-01" nType="-99"/>
                <Node pos="r" depth="5" NCoef="0" IVar="4" Cut="1.7312856912612915e+00" cType="1" res="-3.8505691289901733e-01" rms="1.9640789926052094e-01" purity="4.0429666638374329e-02" nType="0">
                  <Node pos="l" depth="6" NCoef="0" IVar="3" Cut="2.8784877061843872e-01" cType="1" res="-3.7550288438796997e-01" rms="2.2050406038761139e-01" purity="5.1452551037073135e-02" nType="0">
                    <Node pos="l" depth="7" NCoef="0" IVar="-1" Cut="0.0000000000000000e+00" cType="1" res="-4.8055399209260941e-02" rms="1.8867938220500946e-01" purity="3.7016708403825760e-02" nType="-99"/>
                    <Node pos="r" depth="7" NCoef="0" IVar="-1" Cut="0.0000000000000000e+00" cType="1" res="-4.1533179581165314e-02" rms="2.5499811768531799e-01" purity="7.0125982165336609e-02" nType="-99"/>
                  </Node>
                  <Node pos="r" depth="6" NCoef="0" IVar="6" Cut="9.1721974313259125e-02" cType="1" res="-4.1107061505317688e-01" rms="1.0147768259048462e-01" purity="1.0416670702397823e-02" nType="0">
                    <Node pos="l" depth="7" NCoef="0" IVar="-1" Cut="0.0000000000000000e+00" cType="1" res="-4.9193084239959717e-02" rms="7.1246780455112457e-02" purity="5.1036421209573746e-03" nType="-99"/>
                    <Node pos="r" depth="7" NCoef="0" IVar="-1" Cut="0.0000000000000000e+00" cType="1" res="-4.9075890332460403e-02" rms="1.2597386538982391e-01" purity="1.6138374805450439e-02" nType="-99"/>
                  </Node>
                </Node>
              </Node>
              <Node pos="r" depth="4" NCoef="0" IVar="0" Cut="6.4827066659927368e-01" cType="1" res="-3.1664621829986572e-01" rms="3.3054941892623901e-01" purity="1.2682794034481049e-01" nType="0">
                <Node pos="l" depth="5" NCoef="0" IVar="-1" Cut="0.0000000000000000e+00" cType="1" res="-2.4079006165266037e-02" rms="4.1026130318641663e-01" purity="2.1750372648239136e-01" nType="-99"/>
                <Node pos="r" depth="5" NCoef="0" IVar="4" Cut="1.2352406978607178e+00" cType="1" res="-3.3753758668899536e-01" rms="3.0280131101608276e-01" purity="1.0306992381811142e-01" nType="0">
                  <Node pos="l" depth="6" NCoef="0" IVar="6" Cut="9.1191545128822327e-02" cType="1" res="-3.2202303409576416e-01" rms="3.2675543427467346e-01" purity="1.2204939126968384e-01" nType="0">
                    <Node pos="l" depth="7" NCoef="0" IVar="-1" Cut="0.0000000000000000e+00" cType="1" res="-3.7646684795618057e-02" rms="2.9699847102165222e-01" purity="9.7895629703998566e-02" nType="-99"/>
                    <Node pos="r" depth="7" NCoef="0" IVar="-1" Cut="0.0000000000000000e+00" cType="1" res="-3.1096000224351883e-02" rms="3.6524704098701477e-01" purity="1.5913909673690796e-01" nType="-99"/>
                  </Node>
                  <Node pos="r" depth="6" NCoef="0" IVar="-1" Cut="0.0000000000000000e+00" cType="1" res="-4.2919550091028214e-02" rms="1.9510847330093384e-01" purity="3.9943829178810120e-02" nType="-99"/>
                </Node>
              </Node>
            </Node>
            <Node pos="r" depth="3" NCoef="0" IVar="5" Cut="-1.4630157947540283e+00" cType="1" res="-2.8214561939239502e-01" rms="3.6796122789382935e-01" purity="1.6476897895336151e-01" nType="0">
              <Node pos="l" depth="4" NCoef="0" IVar="7" Cut="7.0000000000000000e+00" cType="1" res="0.0000000000000000e+00" rms="0.0000000000000000e+00" purity="2.1976916491985321e-01" nType="0">
                <Node pos="l" depth="5" NCoef="0" IVar="7" Cut="5.0000000000000000e+00" cType="1" res="-1.9497422873973846e-01" rms="4.3938764929771423e-01" purity="2.6426774263381958e-01" nType="0">
                  <Node pos="l" depth="6" NCoef="0" IVar="-1" Cut="0.0000000000000000e+00" cType="1" res="-1.6750341281294823e-02" rms="4.5728820562362671e-01" purity="2.9951298236846924e-01" nType="-99"/>
                  <Node pos="r" depth="6" NCoef="0" IVar="-1" Cut="0.0000000000000000e+00" cType="1" res="-2.3772617802023888e-02" rms="4.1680783033370972e-01" purity="2.2572672367095947e-01" nType="-99"/>
                </Node>
                <Node pos="r" depth="5" NCoef="0" IVar="-1" Cut="0.0000000000000000e+00" cType="1" res="-3.5206418484449387e-02" rms="3.4028178453445435e-01" purity="1.3474695384502411e-01" nType="-99"/>
              </Node>
              <Node pos="r" depth="4" NCoef="0" IVar="3" Cut="2.0130546391010284e-01" cType="1" res="-3.3023992180824280e-01" rms="3.1113678216934204e-01" purity="1.0986357182264328e-01" nType="0">
                <Node pos="l" depth="5" NCoef="0" IVar="-1" Cut="0.0000000000000000e+00" cType="1" res="-3.3632870763540268e-02" rms="3.5225427150726318e-01" purity="1.4657087624073029e-01" nType="-99"/>
                <Node pos="r" depth="5" NCoef="0" IVar="4" Cut="2.4662742614746094e+00" cType="1" res="-3.4432631731033325e-01" rms="2.9260578751564026e-01" purity="9.5770217478275299e-02" nType="0">
                  <Node pos="l" depth="6" NCoef="0" IVar="-1" Cut="0.0000000000000000e+00" cType="1" res="-3.5826221108436584e-02" rms="3.2752871513366699e-01" purity="1.2338402122259140e-01" nType="-99"/>
                  <Node pos="r" depth="6" NCoef="0" IVar="-1" Cut="0.0000000000000000e+00" cType="1" res="-4.4105727225542068e-02" rms="2.1129789948463440e-01" purity="4.7064587473869324e-02" nType="-99"/>
                </Node>
              </Node>
            </Node>
          </Node>
          <Node pos="r" depth="2" NCoef="0" IVar="0" Cut="5.7583469152450562e-01" cType="1" res="-1.3097970187664032e-01" rms="4.7116011381149292e-01" purity="3.4668838977813721e-01" nType="0">
            <Node pos="l" depth="3" NCoef="0" IVar="4" Cut="1.1882101297378540e+00" cType="1" res="-8.1982083618640900e-02" rms="4.8701164126396179e-01" purity="4.0290465950965881e-01" nType="0">
              <Node pos="l" depth="4" NCoef="0" IVar="0" Cut="3.5287567973136902e-01" cType="1" res="-5.5068250745534897e-02" rms="4.9350869655609131e-01" purity="4.3300786614418030e-01" nType="0">
                <Node pos="l" depth="5" NCoef="0" IVar="3" Cut="6.1914885044097900e-01" cType="1" res="-2.1070398390293121e-02" rms="4.9790489673614502e-01" purity="4.7211816906929016e-01" nType="0">
                  <Node pos="l" depth="6" NCoef="0" IVar="1" Cut="-9.2738363891839981e-03" cType="1" res="-5.6448202580213547e-02" rms="4.9443894624710083e-01" purity="4.3235871195793152e-01" nType="0">
                    <Node pos="l" depth="7" NCoef="0" IVar="-1" Cut="0.0000000000000000e+00" cType="1" res="-1.5832174103707075e-03" rms="4.9815285205841064e-01" purity="4.7051632404327393e-01" nType="-99"/>
                    <Node pos="r" depth="7" NCoef="0" IVar="-1" Cut="0.0000000000000000e+00" cType="1" res="-7.3302234522998333e-03" rms="4.9009850621223450e-01" purity="4.0583661198616028e-01" nType="-99"/>
                  </Node>
                  <Node pos="r" depth="6" NCoef="0" IVar="5" Cut="-2.0547363758087158e+00" cType="1" res="2.3784307762980461e-02" rms="4.9866941571235657e-01" purity="5.2252823114395142e-01" nType="0">
                    <Node pos="l" depth="7" NCoef="0" IVar="-1" Cut="0.0000000000000000e+00" cType="1" res="3.5421694628894329e-03" rms="4.9785703420639038e-01" purity="5.4422885179519653e-01" nType="-99"/>
                    <Node pos="r" depth="7" NCoef="0" IVar="-1" Cut="0.0000000000000000e+00" cType="1" res="1.8836140952771530e-05" rms="4.9870955944061279e-01" purity="4.9488797783851624e-01" nType="-99"/>
                  </Node>
                </Node>
                <Node pos="r" depth="5" NCoef="0" IVar="6" Cut="5.5872641503810883e-02" cType="1" res="-1.1882968991994858e-01" rms="4.7868937253952026e-01" purity="3.5965824127197266e-01" nType="0">
                  <Node pos="l" depth="6" NCoef="0" IVar="-1" Cut="0.0000000000000000e+00" cType="1" res="-1.4275942929089069e-02" rms="4.6768856048583984e-01" purity="3.2536271214485168e-01" nType="-99"/>
                  <Node pos="r" depth="6" NCoef="0" IVar="2" Cut="1.9554005432128906e+02" cType="1" res="-1.0044638067483902e-01" rms="4.8355257511138916e-01" purity="3.7824147939682007e-01" nType="0">
                    <Node pos="l" depth="7" NCoef="0" IVar="-1" Cut="0.0000000000000000e+00" cType="1" res="-4.6082027256488800e-03" rms="4.9314272403717041e-01" purity="4.2611843347549438e-01" nType="-99"/>
                    <Node pos="r" depth="7" NCoef="0" IVar="-1" Cut="0.0000000000000000e+00" cType="1" res="-1.3253116980195045e-02" rms="4.7106349468231201e-01" purity="3.3570399880409241e-01" nType="-99"/>
                  </Node>
                </Node>
              </Node>
              <Node pos="r" depth="4" NCoef="0" IVar="-1" Cut="0.0000000000000000e+00" cType="1" res="-2.8125949203968048e-02" rms="3.7930563092231750e-01" purity="1.7821975052356720e-01" nType="-99"/>
            </Node>
            <Node pos="r" depth="3" NCoef="0" IVar="3" Cut="5.8113884925842285e-01" cType="1" res="-2.3471942543983459e-01" rms="4.1712015867233276e-01" purity="2.2766496241092682e-01" nType="0">
              <Node pos="l" depth="4" NCoef="0" IVar="4" Cut="3.7971302866935730e-01" cType="1" res="-2.6167371869087219e-01" rms="3.9601457118988037e-01" purity="1.9653268158435822e-01" nType="0">
                <Node pos="l" depth="5" NCoef="0" IVar="6" Cut="7.0563264191150665e-02" cType="1" res="-2.4022191762924194e-01" rms="4.1378223896026611e-01" purity="2.2045052051544189e-01" nType="0">
                  <Node pos="l" depth="6" NCoef="0" IVar="-1" Cut="0.0000000000000000e+00" cType="1" res="-2.7166258543729782e-02" rms="3.9210659265518188e-01" purity="1.9080463051795959e-01" nType="-99"/>
                  <Node pos="r" depth="6" NCoef="0" IVar="-1" Cut="0.0000000000000000e+00" cType="1" res="-2.0856510847806931e-02" rms="4.3330568075180054e-01" purity="2.5176027417182922e-01" nType="-99"/>
                </Node>
                <Node pos="r" depth="5" NCoef="0" IVar="-1" Cut="0.0000000000000000e+00" cType="1" res="-3.1576860696077347e-02" rms="3.4790536761283875e-01" purity="1.4264562726020813e-01" nType="-99"/>
              </Node>
              <Node pos="r" depth="4" NCoef="0" IVar="-1" Cut="0.0000000000000000e+00" cType="1" res="-1.5804082155227661e-02" rms="4.5872306823730469e-01" purity="3.0522975325584412e-01" nType="-99"/>
            </Node>
          </Node>
        </Node>
        <Node pos="r" depth="1" NCoef="0" IVar="3" Cut="8.2561457157135010e-01" cType="1" res="1.8366621434688568e-01" rms="4.5207768678665161e-01" purity="7.0646572113037109e-01" nType="0">
          <Node pos="l" depth="2" NCoef="0" IVar="5" Cut="-6.1032187938690186e-01" cType="1" res="7.2096630930900574e-02" rms="4.9093756079673767e-01" purity="5.8069932460784912e-01" nType="0">
            <Node pos="l" depth="3" NCoef="0" IVar="1" Cut="7.0100414752960205e-01" cType="1" res="9.1875948011875153e-02" rms="4.8770913481712341e-01" purity="6.0329937934875488e-01" nType="0">
              <Node pos="l" depth="4" NCoef="0" IVar="3" Cut="7.4361997842788696e-01" cType="1" res="1.0904131829738617e-01" rms="4.8378911614418030e-01" purity="6.2164753675460815e-01" nType="0">
                <Node pos="l" depth="5" NCoef="0" IVar="0" Cut="2.5405457615852356e-01" cType="1" res="5.9056311845779419e-02" rms="4.9484837055206299e-01" purity="5.6640988588333130e-01" nType="0">
                  <Node pos="l" depth="6" NCoef="0" IVar="2" Cut="1.0347426605224609e+02" cType="1" res="9.2559762299060822e-02" rms="4.8872178792953491e-01" purity="6.0375779867172241e-01" nType="0">
                    <Node pos="l" depth="7" NCoef="0" IVar="-1" Cut="0.0000000000000000e+00" cType="1" res="9.1140884906053543e-03" rms="4.8335990309715271e-01" purity="6.2648278474807739e-01" nType="-99"/>
                    <Node pos="r" depth="7" NCoef="0" IVar="-1" Cut="0.0000000000000000e+00" cType="1" res="6.5889726392924786e-03" rms="4.9154961109161377e-01" purity="5.8946180343627930e-01" nType="-99"/>
                  </Node>
                  <Node pos="r" depth="6" NCoef="0" IVar="3" Cut="7.0658886432647705e-01" cType="1" res="9.9553214386105537e-03" rms="4.9965012073516846e-01" purity="5.1167458295822144e-01" nType="0">
                    <Node pos="l" depth="7" NCoef="0" IVar="-1" Cut="0.0000000000000000e+00" cType="1" res="-8.7156321387737989e-04" rms="4.9975463747978210e-01" purity="4.9117001891136169e-01" nType="-99"/>
                    <Node pos="r" depth="7" NCoef="0" IVar="-1" Cut="0.0000000000000000e+00" cType="1" res="2.3424697574228048e-03" rms="4.9882483482360840e-01" purity="5.3075349330902100e-01" nType="-99"/>
                  </Node>
                </Node>
                <Node pos="r" depth="5" NCoef="0" IVar="5" Cut="-1.5590368509292603e+00" cType="1" res="1.4372937381267548e-01" rms="4.7286778688430786e-01" purity="6.5998077392578125e-01" nType="0">
                  <Node pos="l" depth="6" NCoef="0" IVar="0" Cut="1.8475058674812317e-01" cType="1" res="1.6059412062168121e-01" rms="4.6648791432380676e-01" purity="6.7822104692459106e-01" nType="0">
                    <Node pos="l" depth="7" NCoef="0" IVar="-1" Cut="0.0000000000000000e+00" cType="1" res="1.4580853283405304e-02" rms="4.5327159762382507e-01" purity="7.1087342500686646e-01" nType="-99"/>
                    <Node pos="r" depth="7" NCoef="0" IVar="-1" Cut="0.0000000000000000e+00" cType="1" res="8.6283097043633461e-03" rms="4.8724615573883057e-01" purity="6.1035442352294922e-01" nType="-99"/>
                  </Node>
                  <Node pos="r" depth="6" NCoef="0" IVar="-1" Cut="0.0000000000000000e+00" cType="1" res="5.6821233592927456e-03" rms="4.9336922168731689e-01" purity="5.7859128713607788e-01" nType="-99"/>
                </Node>
              </Node>
              <Node pos="r" depth="4" NCoef="0" IVar="-1" Cut="0.0000000000000000e+00" cType="1" res="-5.5892905220389366e-03" rms="4.9529978632926941e-01" purity="4.3522599339485168e-01" nType="-99"/>
            </Node>
            <Node pos="r" depth="3" NCoef="0" IVar="-1" Cut="0.0000000000000000e+00" cType="1" res="-1.0703612118959427e-02" rms="4.8158344626426697e-01" purity="3.6557313799858093e-01" nType="-99"/>
          </Node>
          <Node pos="r" depth="2" NCoef="0" IVar="5" Cut="-2.1259143352508545e+00" cType="1" res="2.2399005293846130e-01" rms="4.3012180924415588e-01" purity="7.5192058086395264e-01" nType="0">
            <Node pos="l" depth="3" NCoef="0" IVar="4" Cut="-1.0338953733444214e+00" cType="1" res="2.5983795523643494e-01" rms="4.0537565946578979e-01" purity="7.9190528392791748e-01" nType="0">
              <Node pos="l" depth="4" NCoef="0" IVar="4" Cut="-2.8931884765625000e+00" cType="1" res="2.2468096017837524e-01" rms="4.3138018250465393e-01" purity="7.5230288505554199e-01" nType="0">
                <Node pos="l" depth="5" NCoef="0" IVar="-1" Cut="0.0000000000000000e+00" cType="1" res="2.1699354052543640e-02" rms="3.9791226387023926e-01" purity="8.0263203382492065e-01" nType="-99"/>
                <Node pos="r" depth="5" NCoef="0" IVar="3" Cut="8.9555948972702026e-01" cType="1" res="2.1619012951850891e-01" rms="4.3686583638191223e-01" purity="7.4284005165100098e-01" nType="0">
                  <Node pos="l" depth="6" NCoef="0" IVar="1" Cut="1.9417978823184967e-02" cType="1" res="1.9899626076221466e-01" rms="4.4601577520370483e-01" purity="7.2554761171340942e-01" nType="0">
                    <Node pos="l" depth="7" NCoef="0" IVar="-1" Cut="0.0000000000000000e+00" cType="1" res="1.8947774544358253e-02" rms="4.2043361067771912e-01" purity="7.7052575349807739e-01" nType="-99"/>
                    <Node pos="r" depth="7" NCoef="0" IVar="-1" Cut="0.0000000000000000e+00" cType="1" res="1.2796275317668915e-02" rms="4.6493464708328247e-01" purity="6.8353831768035889e-01" nType="-99"/>
                  </Node>
                  <Node pos="r" depth="6" NCoef="0" IVar="3" Cut="9.6327608823776245e-01" cType="1" res="2.2889700531959534e-01" rms="4.2953658103942871e-01" purity="7.5561982393264771e-01" nType="0">
                    <Node pos="l" depth="7" NCoef="0" IVar="-1" Cut="0.0000000000000000e+00" cType="1" res="2.1073447540402412e-02" rms="4.1217780113220215e-01" purity="7.8277111053466797e-01" nType="-99"/>
                    <Node pos="r" depth="7" NCoef="0" IVar="-1" Cut="0.0000000000000000e+00" cType="1" res="1.4791074208915234e-02" rms="4.3641239404678345e-01" purity="7.4372994899749756e-01" nType="-99"/>
                  </Node>
                </Node>
              </Node>
              <Node pos="r" depth="4" NCoef="0" IVar="1" Cut="5.6043833494186401e-01" cType="1" res="2.8305515646934509e-01" rms="3.8549256324768066e-01" purity="8.1805813312530518e-01" nType="0">
                <Node pos="l" depth="5" NCoef="0" IVar="5" Cut="-3.0252308845520020e+00" cType="1" res="2.9343998432159424e-01" rms="3.7662142515182495e-01" purity="8.2857209444046021e-01" nType="0">
                  <Node pos="l" depth="6" NCoef="0" IVar="1" Cut="4.8895176500082016e-02" cType="1" res="3.2161489129066467e-01" rms="3.4795108437538147e-01" purity="8.5900127887725830e-01" nType="0">
                    <Node pos="l" depth="7" NCoef="0" IVar="-1" Cut="0.0000000000000000e+00" cType="1" res="2.5013441219925880e-02" rms="3.3677002787590027e-01" purity="8.6953634023666382e-01" nType="-99"/>
                    <Node pos="r" depth="7" NCoef="0" IVar="-1" Cut="0.0000000000000000e+00" cType="1" res="2.3545604199171066e-02" rms="3.6383461952209473e-01" purity="8.4291172027587891e-01" nType="-99"/>
                  </Node>
                  <Node pos="r" depth="6" NCoef="0" IVar="5" Cut="-2.3001022338867188e+00" cType="1" res="2.7774760127067566e-01" rms="3.9080113172531128e-01" purity="8.1162410974502563e-01" nType="0">
                    <Node pos="l" depth="7" NCoef="0" IVar="-1" Cut="0.0000000000000000e+00" cType="1" res="2.1834528073668480e-02" rms="3.8523557782173157e-01" purity="8.1853330135345459e-01" nType="-99"/>
                    <Node pos="r" depth="7" NCoef="0" IVar="-1" Cut="0.0000000000000000e+00" cType="1" res="1.8606189638376236e-02" rms="4.2133790254592896e-01" purity="7.6885759830474854e-01" nType="-99"/>
                  </Node>
                </Node>
                <Node pos="r" depth="5" NCoef="0" IVar="-1" Cut="0.0000000000000000e+00" cType="1" res="1.5493207611143589e-02" rms="4.4194269180297852e-01" purity="7.3311901092529297e-01" nType="-99"/>
              </Node>
            </Node>
            <Node pos="r" depth="3" NCoef="0" IVar="5" Cut="-6.5454852581024170e-01" cType="1" res="1.4453028142452240e-01" rms="4.7081950306892395e-01" purity="6.6329139471054077e-01" nType="0">
              <Node pos="l" depth="4" NCoef="0" IVar="7" Cut="2.0000000000000000e+00" cType="1" res="1.7229050397872925e-01" rms="4.5975264906883240e-01" purity="6.9453626871109009e-01" nType="0">
                <Node pos="l" depth="5" NCoef="0" IVar="4" Cut="-5.1331388950347900e-01" cType="1" res="1.9216062128543854e-01" rms="4.5005887746810913e-01" purity="7.1685117483139038e-01" nType="0">
                  <Node pos="l" depth="6" NCoef="0" IVar="5" Cut="-1.6988371610641479e+00" cType="1" res="1.6103421151638031e-01" rms="4.6450501680374146e-01" purity="6.8442994356155396e-01" nType="0">
                    <Node pos="l" depth="7" NCoef="0" IVar="-1" Cut="0.0000000000000000e+00" cType="1" res="1.3464835472404957e-02" rms="4.5527589321136475e-01" purity="7.0648926496505737e-01" nType="-99"/>
                    <Node pos="r" depth="7" NCoef="0" IVar="-1" Cut="0.0000000000000000e+00" cType="1" res="1.0618263855576515e-02" rms="4.7253948450088501e-01" purity="6.6303282976150513e-01" nType="-99"/>
                  </Node>
                  <Node pos="r" depth="6" NCoef="0" IVar="5" Cut="-1.5089679956436157e+00" cType="1" res="2.1367275714874268e-01" rms="4.3850836157798767e-01" purity="7.3925822973251343e-01" nType="0">
                    <Node pos="l" depth="7" NCoef="0" IVar="-1" Cut="0.0000000000000000e+00" cType="1" res="1.9057283177971840e-02" rms="4.2283770442008972e-01" purity="7.6649188995361328e-01" nType="-99"/>
                    <Node pos="r" depth="7" NCoef="0" IVar="-1" Cut="0.0000000000000000e+00" cType="1" res="1.3633938506245613e-02" rms="4.6271854639053345e-01" purity="6.8908804655075073e-01" nType="-99"/>
                  </Node>
                </Node>
                <Node pos="r" depth="5" NCoef="0" IVar="1" Cut="-1.0039643198251724e-01" cType="1" res="1.3932712376117706e-01" rms="4.7392246127128601e-01" purity="6.5828800201416016e-01" nType="0">
                  <Node pos="l" depth="6" NCoef="0" IVar="-1" Cut="0.0000000000000000e+00" cType="1" res="1.4738077297806740e-02" rms="4.5733043551445007e-01" purity="7.0163995027542114e-01" nType="-99"/>
                  <Node pos="r" depth="6" NCoef="0" IVar="5" Cut="-1.6987659931182861e+00" cType="1" res="1.2366263568401337e-01" rms="4.7886759042739868e-01" purity="6.4249068498611450e-01" nType="0">
                    <Node pos="l" depth="7" NCoef="0" IVar="-1" Cut="0.0000000000000000e+00" cType="1" res="1.3015078380703926e-02" rms="4.6622088551521301e-01" purity="6.8027508258819580e-01" nType="-99"/>
                    <Node pos="r" depth="7" NCoef="0" IVar="-1" Cut="0.0000000000000000e+00" cType="1" res="8.0724945291876793e-03" rms="4.8775702714920044e-01" purity="6.0971146821975708e-01" nType="-99"/>
                  </Node>
                </Node>
              </Node>
              <Node pos="r" depth="4" NCoef="0" IVar="-1" Cut="0.0000000000000000e+00" cType="1" res="2.7090651565231383e-04" rms="4.9950617551803589e-01" purity="5.0264513492584229e-01" nType="-99"/>
            </Node>
          </Node>
        </Node>
      </Node>
    </BinaryTree>
    <BinaryTree type="DecisionTree" boostWeight="1.0000000000000000e+00" itree="4">
      <Node pos="s" depth="0" NCoef="0" IVar="3" Cut="6.7501425743103027e-01" cType="1" res="8.7811741977930069e-03" rms="4.7296756505966187e-01" purity="5.0190734863281250e-01" nType="0">
        <Node pos="l" depth="1" NCoef="0" IVar="3" Cut="5.0094032287597656e-01" cType="1" res="-2.3999239504337311e-01" rms="3.8776606321334839e-01" purity="1.9936624169349670e-01" nType="0">
          <Node pos="l" depth="2" NCoef="0" IVar="6" Cut="1.1743576824665070e-01" cType="1" res="-3.0896088480949402e-01" rms="3.0964034795761108e-01" purity="1.1125333607196808e-01" nType="0">
            <Node pos="l" depth="3" NCoef="0" IVar="3" Cut="4.2034009099006653e-01" cType="1" res="-3.3946633338928223e-01" rms="2.5881734490394592e-01" purity="7.4102073907852173e-02" nType="0">
              <Node pos="l" depth="4" NCoef="0" IVar="4" Cut="1.4088271856307983e+00" cType="1" res="-3.5852187871932983e-01" rms="2.1333722770214081e-01" purity="4.8361036926507950e-02" nType="0">
                <Node pos="l" depth="5" NCoef="0" IVar="3" Cut="3.5273978114128113e-01" cType="1" res="-3.4833762049674988e-01" rms="2.3872250318527222e-01" purity="6.1197996139526367e-02" nType="0">
                  <Node pos="l" depth="6" NCoef="0" IVar="7" Cut="5.0000000000000000e+00" cType="1" res="0.0000000000000000e+00" rms="0.0000000000000000e+00" purity="4.7900851815938950e-02" nType="0">
                    <Node pos="l" depth="7" NCoef="0" IVar="-1" Cut="0.0000000000000000e+00" cType="1" res="-3.9973441511392593e-02" rms="2.7154657244682312e-01" purity="8.0367296934127808e-02" nType="-99"/>
                    <Node pos="r" depth="7" NCoef="0" IVar="-1" Cut="0.0000000000000000e+00" cType="1" res="-4.5213341712951660e-02" rms="1.8462213873863220e-01" purity="3.5403370857238770e-02" nType="-99"/>
                  </Node>
                  <Node pos="r" depth="6" NCoef="0" IVar="0" Cut="1.3425196409225464e+00" cType="1" res="-3.2940778136253357e-01" rms="2.8628560900688171e-01" purity="9.0341351926326752e-02" nType="0">
                    <Node pos="l" depth="7" NCoef="0" IVar="-1" Cut="0.0000000000000000e+00" cType="1" res="-3.4053158015012741e-02" rms="3.1908524036407471e-01" purity="1.1528564989566803e-01" nType="-99"/>
                    <Node pos="r" depth="7" NCoef="0" IVar="-1" Cut="0.0000000000000000e+00" cType="1" res="-4.1658330708742142e-02" rms="2.3911441862583160e-01" purity="6.0919269919395447e-02" nType="-99"/>
                  </Node>
                </Node>
                <Node pos="r" depth="5" NCoef="0" IVar="4" Cut="3.1670212745666504e+00" cType="1" res="-3.8527095317840576e-01" rms="1.1993283778429031e-01" purity="1.4644619077444077e-02" nType="0">
                  <Node pos="l" depth="6" NCoef="0" IVar="-1" Cut="0.0000000000000000e+00" cType="1" res="-4.5574158430099487e-02" rms="1.4658142626285553e-01" purity="2.2002780809998512e-02" nType="-99"/>
                  <Node pos="r" depth="6" NCoef="0" IVar="-1" Cut="0.0000000000000000e+00" cType="1" res="-4.6712432056665421e-02" rms="7.0683665573596954e-02" purity="5.0274985842406750e-03" nType="-99"/>
                </Node>
              </Node>
              <Node pos="r" depth="4" NCoef="0" IVar="0" Cut="8.0851548910140991e-01" cType="1" res="-2.9078805446624756e-01" rms="3.4430316090583801e-01" purity="1.3985872268676758e-01" nType="0">
                <Node pos="l" depth="5" NCoef="0" IVar="-1" Cut="0.0000000000000000e+00" cType="1" res="-2.4408597499132156e-02" rms="3.9854165911674500e-01" purity="2.0114220678806305e-01" nType="-99"/>
                <Node pos="r" depth="5" NCoef="0" IVar="6" Cut="6.8321377038955688e-02" cType="1" res="-3.2183313369750977e-01" rms="3.0319854617118835e-01" purity="1.0329937189817429e-01" nType="0">
                  <Node pos="l" depth="6" NCoef="0" IVar="-1" Cut="0.0000000000000000e+00" cType="1" res="-3.8160048425197601e-02" rms="2.6837274432182312e-01" purity="7.8590653836727142e-02" nType="-99"/>
                  <Node pos="r" depth="6" NCoef="0" IVar="-1" Cut="0.0000000000000000e+00" cType="1" res="-3.1934555619955063e-02" rms="3.3423346281051636e-01" purity="1.2934325635433197e-01" nType="-99"/>
                </Node>
              </Node>
            </Node>
            <Node pos="r" depth="3" NCoef="0" IVar="5" Cut="-5.8432048559188843e-01" cType="1" res="-2.7632123231887817e-01" rms="3.5316866636276245e-01" purity="1.5100379288196564e-01" nType="0">
              <Node pos="l" depth="4" NCoef="0" IVar="7" Cut="4.0000000000000000e+00" cType="1" res="2.0975926518440247e-01" rms="0.0000000000000000e+00" purity="1.9008028507232666e-01" nType="0">
                <Node pos="l" depth="5" NCoef="0" IVar="-1" Cut="0.0000000000000000e+00" cType="1" res="-1.5287116169929504e-02" rms="4.5213076472282410e-01" purity="2.9212343692779541e-01" nType="-99"/>
                <Node pos="r" depth="5" NCoef="0" IVar="3" Cut="3.7213599681854248e-01" cType="1" res="-2.6336315274238586e-01" rms="3.6917671561241150e-01" purity="1.6728305816650391e-01" nType="0">
                  <Node pos="l" depth="6" NCoef="0" IVar="6" Cut="2.0964504778385162e-01" cType="1" res="-2.9557323455810547e-01" rms="3.3163714408874512e-01" purity="1.2817929685115814e-01" nType="0">
                    <Node pos="l" depth="7" NCoef="0" IVar="-1" Cut="0.0000000000000000e+00" cType="1" res="-3.9307937026023865e-02" rms="2.8311437368392944e-01" purity="8.9022263884544373e-02" nType="-99"/>
                    <Node pos="r" depth="7" NCoef="0" IVar="-1" Cut="0.0000000000000000e+00" cType="1" res="-2.6610339060425758e-02" rms="3.9195406436920166e-01" purity="1.9152241945266724e-01" nType="-99"/>
                  </Node>
                  <Node pos="r" depth="6" NCoef="0" IVar="-1" Cut="0.0000000000000000e+00" cType="1" res="-1.8308725208044052e-02" rms="4.3938660621643066e-01" purity="2.6519158482551575e-01" nType="-99"/>
                </Node>
              </Node>
              <Node pos="r" depth="4" NCoef="0" IVar="6" Cut="2.3076136410236359e-01" cType="1" res="-3.3844351768493652e-01" rms="2.6475054025650024e-01" purity="7.7125720679759979e-02" nType="0">
                <Node pos="l" depth="5" NCoef="0" IVar="4" Cut="2.3163759708404541e+00" cType="1" res="-3.6056369543075562e-01" rms="2.2236637771129608e-01" purity="5.3039900958538055e-02" nType="0">
                  <Node pos="l" depth="6" NCoef="0" IVar="-1" Cut="0.0000000000000000e+00" cType="1" res="-3.8373477756977081e-02" rms="2.8422841429710388e-01" purity="8.9736886322498322e-02" nType="-99"/>
                  <Node pos="r" depth="6" NCoef="0" IVar="-1" Cut="0.0000000000000000e+00" cType="1" res="-4.5900203287601471e-02" rms="1.4370036125183105e-01" purity="2.1147727966308594e-02" nType="-99"/>
                </Node>
                <Node pos="r" depth="5" NCoef="0" IVar="-1" Cut="0.0000000000000000e+00" cType="1" res="-3.0515432357788086e-02" rms="3.5631453990936279e-01" purity="1.5050455927848816e-01" nType="-99"/>
              </Node>
            </Node>
          </Node>
          <Node pos="r" depth="2" NCoef="0" IVar="4" Cut="1.4352180957794189e+00" cType="1" res="-1.1365594714879990e-01" rms="4.7486275434494019e-01" purity="3.6077144742012024e-01" nType="0">
            <Node pos="l" depth="3" NCoef="0" IVar="0" Cut="3.6567083001136780e-01" cType="1" res="-9.1181740164756775e-02" rms="4.8297163844108582e-01" purity="3.8665077090263367e-01" nType="0">
              <Node pos="l" depth="4" NCoef="0" IVar="3" Cut="6.0762453079223633e-01" cType="1" res="-2.1313292905688286e-02" rms="4.9762007594108582e-01" purity="4.7132217884063721e-01" nType="0">
                <Node pos="l" depth="5" NCoef="0" IVar="2" Cut="1.5689862060546875e+02" cType="1" res="-5.8549992740154266e-02" rms="4.9384579062461853e-01" purity="4.2830407619476318e-01" nType="0">
                  <Node pos="l" depth="6" NCoef="0" IVar="-1" Cut="0.0000000000000000e+00" cType="1" res="-1.5157174784690142e-03" rms="4.9865159392356873e-01" purity="4.7310349345207214e-01" nType="-99"/>
                  <Node pos="r" depth="6" NCoef="0" IVar="-1" Cut="0.0000000000000000e+00" cType="1" res="-7.3320628143846989e-03" rms="4.8961523175239563e-01" purity="4.0283572673797607e-01" nType="-99"/>
                </Node>
                <Node pos="r" depth="5" NCoef="0" IVar="0" Cut="2.0044058561325073e-01" cType="1" res="1.2091500684618950e-02" rms="4.9862107634544373e-01" purity="5.0991350412368774e-01" nType="0">
                  <Node pos="l" depth="6" NCoef="0" IVar="-1" Cut="0.0000000000000000e+00" cType="1" res="3.3653771970421076e-03" rms="4.9725314974784851e-01" purity="5.4129070043563843e-01" nType="-99"/>
                  <Node pos="r" depth="6" NCoef="0" IVar="-1" Cut="0.0000000000000000e+00" cType="1" res="-3.7821924779564142e-03" rms="4.9664103984832764e-01" purity="4.5242634415626526e-01" nType="-99"/>
                </Node>
              </Node>
              <Node pos="r" depth="4" NCoef="0" IVar="3" Cut="6.0200345516204834e-01" cType="1" res="-1.5541446208953857e-01" rms="4.5982867479324341e-01" purity="3.0880910158157349e-01" nType="0">
                <Node pos="l" depth="5" NCoef="0" IVar="6" Cut="8.9347131550312042e-02" cType="1" res="-1.8568328022956848e-01" rms="4.4440200924873352e-01" purity="2.7451801300048828e-01" nType="0">
                  <Node pos="l" depth="6" NCoef="0" IVar="0" Cut="6.3523960113525391e-01" cType="1" res="-2.0799541473388672e-01" rms="4.3204441666603088e-01" purity="2.5171989202499390e-01" nType="0">
                    <Node pos="l" depth="7" NCoef="0" IVar="-1" Cut="0.0000000000000000e+00" cType="1" res="-1.3967489823698997e-02" rms="4.6566647291183472e-01" purity="3.2040247321128845e-01" nType="-99"/>
                    <Node pos="r" depth="7" NCoef="0" IVar="-1" Cut="0.0000000000000000e+00" cType="1" res="-2.5011092424392700e-02" rms="4.0042439103126526e-01" purity="2.0184600353240967e-01" nType="-99"/>
                  </Node>
                  <Node pos="r" depth="6" NCoef="0" IVar="-1" Cut="0.0000000000000000e+00" cType="1" res="-1.3235411606729031e-02" rms="4.6462637186050415e-01" purity="3.1932330131530762e-01" nType="-99"/>
                </Node>
                <Node pos="r" depth="5" NCoef="0" IVar="2" Cut="1.4453640747070312e+02" cType="1" res="-1.0132673382759094e-01" rms="4.8146221041679382e-01" purity="3.7008425593376160e-01" nType="0">
                  <Node pos="l" depth="6" NCoef="0" IVar="-1" Cut="0.0000000000000000e+00" cType="1" res="-6.1085526831448078e-03" rms="4.8927271366119385e-01" purity="4.0323007106781006e-01" nType="-99"/>
                  <Node pos="r" depth="6" NCoef="0" IVar="-1" Cut="0.0000000000000000e+00" cType="1" res="-1.3059774413704872e-02" rms="4.6978884935379028e-01" purity="3.3251741528511047e-01" nType="-99"/>
                </Node>
              </Node>
            </Node>
            <Node pos="r" depth="3" NCoef="0" IVar="-1" Cut="0.0000000000000000e+00" cType="1" res="-3.1296376138925552e-02" rms="3.3970764279365540e-01" purity="1.3577869534492493e-01" nType="-99"/>
          </Node>
        </Node>
        <Node pos="r" depth="1" NCoef="0" IVar="3" Cut="8.2422852516174316e-01" cType="1" res="1.7832042276859283e-01" rms="4.5028463006019592e-01" purity="7.0808917284011841e-01" nType="0">
          <Node pos="l" depth="2" NCoef="0" IVar="5" Cut="-6.1032187938690186e-01" cType="1" res="6.7336864769458771e-02" rms="4.9051564931869507e-01" purity="5.7851260900497437e-01" nType="0">
            <Node pos="l" depth="3" NCoef="0" IVar="0" Cut="3.9748448133468628e-01" cType="1" res="8.6783796548843384e-02" rms="4.8759225010871887e-01" purity="6.0167402029037476e-01" nType="0">
              <Node pos="l" depth="4" NCoef="0" IVar="1" Cut="5.4121392965316772e-01" cType="1" res="1.0371848940849304e-01" rms="4.8373389244079590e-01" purity="6.2042337656021118e-01" nType="0">
                <Node pos="l" depth="5" NCoef="0" IVar="3" Cut="7.7609765529632568e-01" cType="1" res="1.2011761218309402e-01" rms="4.7921949625015259e-01" purity="6.3891410827636719e-01" nType="0">
                  <Node pos="l" depth="6" NCoef="0" IVar="0" Cut="1.9231633841991425e-01" cType="1" res="9.1460742056369781e-02" rms="4.8763966560363770e-01" purity="6.0661709308624268e-01" nType="0">
                    <Node pos="l" depth="7" NCoef="0" IVar="-1" Cut="0.0000000000000000e+00" cType="1" res="9.5683149993419647e-03" rms="4.7986796498298645e-01" purity="6.3888067007064819e-01" nType="-99"/>
                    <Node pos="r" depth="7" NCoef="0" IVar="-1" Cut="0.0000000000000000e+00" cType="1" res="3.7197154015302658e-03" rms="4.9711441993713379e-01" purity="5.5056744813919067e-01" nType="-99"/>
                  </Node>
                  <Node pos="r" depth="6" NCoef="0" IVar="5" Cut="-2.5064561367034912e+00" cType="1" res="1.6423679888248444e-01" rms="4.6250051259994507e-01" purity="6.8863767385482788e-01" nType="0">
                    <Node pos="l" depth="7" NCoef="0" IVar="-1" Cut="0.0000000000000000e+00" cType="1" res="1.5419873408973217e-02" rms="4.4859361648559570e-01" purity="7.2054749727249146e-01" nType="-99"/>
                    <Node pos="r" depth="7" NCoef="0" IVar="-1" Cut="0.0000000000000000e+00" cType="1" res="1.1294413357973099e-02" rms="4.7071170806884766e-01" purity="6.6666680574417114e-01" nType="-99"/>
                  </Node>
                </Node>
                <Node pos="r" depth="5" NCoef="0" IVar="-1" Cut="0.0000000000000000e+00" cType="1" res="-2.9635522514581680e-04" rms="4.9916765093803406e-01" purity="4.9945837259292603e-01" nType="-99"/>
              </Node>
              <Node pos="r" depth="4" NCoef="0" IVar="-1" Cut="0.0000000000000000e+00" cType="1" res="-4.5581483282148838e-03" rms="4.9681606888771057e-01" purity="4.4768133759498596e-01" nType="-99"/>
            </Node>
            <Node pos="r" depth="3" NCoef="0" IVar="-1" Cut="0.0000000000000000e+00" cType="1" res="-1.0549952276051044e-02" rms="4.7999307513237000e-01" purity="3.6020001769065857e-01" nType="-99"/>
          </Node>
          <Node pos="r" depth="2" NCoef="0" IVar="5" Cut="-2.0824518203735352e+00" cType="1" res="2.1824711561203003e-01" rms="4.2791879177093506e-01" purity="7.5470471382141113e-01" nType="0">
            <Node pos="l" depth="3" NCoef="0" IVar="0" Cut="3.6542323231697083e-01" cType="1" res="2.5424256920814514e-01" rms="4.0226680040359497e-01" purity="7.9596751928329468e-01" nType="0">
              <Node pos="l" depth="4" NCoef="0" IVar="1" Cut="2.4960075318813324e-01" cType="1" res="2.6225265860557556e-01" rms="3.9624527096748352e-01" purity="8.0403923988342285e-01" nType="0">
                <Node pos="l" depth="5" NCoef="0" IVar="4" Cut="-1.0998952388763428e+00" cType="1" res="2.7904203534126282e-01" rms="3.8217499852180481e-01" purity="8.2175385951995850e-01" nType="0">
                  <Node pos="l" depth="6" NCoef="0" IVar="3" Cut="8.8382148742675781e-01" cType="1" res="2.4964441359043121e-01" rms="4.0950626134872437e-01" purity="7.8656750917434692e-01" nType="0">
                    <Node pos="l" depth="7" NCoef="0" IVar="-1" Cut="0.0000000000000000e+00" cType="1" res="1.7957532778382301e-02" rms="4.2251762747764587e-01" purity="7.6710730791091919e-01" nType="-99"/>
                    <Node pos="r" depth="7" NCoef="0" IVar="-1" Cut="0.0000000000000000e+00" cType="1" res="1.9418239593505859e-02" rms="4.0098142623901367e-01" purity="7.9836660623550415e-01" nType="-99"/>
                  </Node>
                  <Node pos="r" depth="6" NCoef="0" IVar="3" Cut="9.5568978786468506e-01" cType="1" res="2.9647672176361084e-01" rms="3.6388006806373596e-01" purity="8.4262168407440186e-01" nType="0">
                    <Node pos="l" depth="7" NCoef="0" IVar="-1" Cut="0.0000000000000000e+00" cType="1" res="1.9129574298858643e-02" rms="4.1040429472923279e-01" purity="7.8514015674591064e-01" nType="-99"/>
                    <Node pos="r" depth="7" NCoef="0" IVar="-1" Cut="0.0000000000000000e+00" cType="1" res="2.3181045427918434e-02" rms="3.5793885588645935e-01" purity="8.4892761707305908e-01" nType="-99"/>
                  </Node>
                </Node>
                <Node pos="r" depth="5" NCoef="0" IVar="3" Cut="9.4864571094512939e-01" cType="1" res="2.1476615965366364e-01" rms="4.3004176020622253e-01" purity="7.5393587350845337e-01" nType="0">
                  <Node pos="l" depth="6" NCoef="0" IVar="-1" Cut="0.0000000000000000e+00" cType="1" res="1.3535520061850548e-02" rms="4.5793396234512329e-01" purity="7.0030921697616577e-01" nType="-99"/>
                  <Node pos="r" depth="6" NCoef="0" IVar="4" Cut="-9.1620713472366333e-01" cType="1" res="2.3371787369251251e-01" rms="4.1717809438705444e-01" purity="7.7475172281265259e-01" nType="0">
                    <Node pos="l" depth="7" NCoef="0" IVar="-1" Cut="0.0000000000000000e+00" cType="1" res="1.3266777619719505e-02" rms="4.4348031282424927e-01" purity="7.3048955202102661e-01" nType="-99"/>
                    <Node pos="r" depth="7" NCoef="0" IVar="-1" Cut="0.0000000000000000e+00" cType="1" res="1.8998410552740097e-02" rms="4.0563994646072388e-01" purity="7.9190307855606079e-01" nType="-99"/>
                  </Node>
                </Node>
              </Node>
              <Node pos="r" depth="4" NCoef="0" IVar="-1" Cut="0.0000000000000000e+00" cType="1" res="2.8983873780816793e-03" rms="4.9348324537277222e-01" purity="5.7553559541702271e-01" nType="-99"/>
            </Node>
            <Node pos="r" depth="3" NCoef="0" IVar="5" Cut="-1.1427063941955566e+00" cType="1" res="1.3177922368049622e-01" rms="4.7295039892196655e-01" purity="6.5558373928070068e-01" nType="0">
              <Node pos="l" depth="4" NCoef="0" IVar="7" Cut="2.0000000000000000e+00" cType="1" res="1.7138573527336121e-01" rms="4.5664626359939575e-01" purity="7.0148581266403198e-01" nType="0">
                <Node pos="l" depth="5" NCoef="0" IVar="5" Cut="-1.6278508901596069e+00" cType="1" res="1.9052548706531525e-01" rms="4.4663539528846741e-01" purity="7.2377783060073853e-01" nType="0">
                  <Node pos="l" depth="6" NCoef="0" IVar="4" Cut="-4.0394452214241028e-01" cType="1" res="2.0631076395511627e-01" rms="4.3699499964714050e-01" purity="7.4241250753402710e-01" nType="0">
                    <Node pos="l" depth="7" NCoef="0" IVar="-1" Cut="0.0000000000000000e+00" cType="1" res="1.3878366909921169e-02" rms="4.4899708032608032e-01" purity="7.1970796585083008e-01" nType="-99"/>
                    <Node pos="r" depth="7" NCoef="0" IVar="-1" Cut="0.0000000000000000e+00" cType="1" res="1.7927987501025200e-02" rms="4.2570495605468750e-01" purity="7.6193267107009888e-01" nType="-99"/>
                  </Node>
                  <Node pos="r" depth="6" NCoef="0" IVar="-1" Cut="0.0000000000000000e+00" cType="1" res="1.2723790481686592e-02" rms="4.6147632598876953e-01" purity="6.9174879789352417e-01" nType="-99"/>
                </Node>
                <Node pos="r" depth="5" NCoef="0" IVar="5" Cut="-1.6278789043426514e+00" cType="1" res="1.3904200494289398e-01" rms="4.7171208262443542e-01" purity="6.6471046209335327e-01" nType="0">
                  <Node pos="l" depth="6" NCoef="0" IVar="-1" Cut="0.0000000000000000e+00" cType="1" res="1.3139646500349045e-02" rms="4.6298965811729431e-01" purity="6.8839997053146362e-01" nType="-99"/>
                  <Node pos="r" depth="6" NCoef="0" IVar="-1" Cut="0.0000000000000000e+00" cType="1" res="9.1242408379912376e-03" rms="4.8311609029769897e-01" purity="6.2851440906524658e-01" nType="-99"/>
                </Node>
              </Node>
              <Node pos="r" depth="4" NCoef="0" IVar="5" Cut="-2.9382210969924927e-01" cType="1" res="4.8094671219587326e-02" rms="4.9504667520523071e-01" purity="5.5788153409957886e-01" nType="0">
                <Node pos="l" depth="5" NCoef="0" IVar="1" Cut="5.6069742888212204e-02" cType="1" res="8.9929386973381042e-02" rms="4.8844581842422485e-01" purity="6.0463243722915649e-01" nType="0">
                  <Node pos="l" depth="6" NCoef="0" IVar="-1" Cut="0.0000000000000000e+00" cType="1" res="1.0808961465954781e-02" rms="4.7670543193817139e-01" purity="6.4908522367477417e-01" nType="-99"/>
                  <Node pos="r" depth="6" NCoef="0" IVar="-1" Cut="0.0000000000000000e+00" cType="1" res="3.2764289062470198e-03" rms="4.9704053997993469e-01" purity="5.5247449874877930e-01" nType="-99"/>
                </Node>
                <Node pos="r" depth="5" NCoef="0" IVar="-1" Cut="0.0000000000000000e+00" cType="1" res="-5.5154152214527130e-03" rms="4.9546170234680176e-01" purity="4.3540906906127930e-01" nType="-99"/>
              </Node>
            </Node>
          </Node>
        </Node>
      </Node>
    </BinaryTree>
    <BinaryTree type="DecisionTree" boostWeight="1.0000000000000000e+00" itree="5">
      <Node pos="s" depth="0" NCoef="0" IVar="3" Cut="6.7608582973480225e-01" cType="1" res="7.2098444215953350e-03" rms="4.6753969788551331e-01" purity="4.9913045763969421e-01" nType="0">
        <Node pos="l" depth="1" NCoef="0" IVar="3" Cut="4.7984808683395386e-01" cType="1" res="-2.2914023697376251e-01" rms="3.8402915000915527e-01" purity="1.9725760817527771e-01" nType="0">
          <Node pos="l" depth="2" NCoef="0" IVar="6" Cut="1.2383532524108887e-01" cType="1" res="-2.9893222451210022e-01" rms="2.9786625504493713e-01" purity="1.0233134031295776e-01" nType="0">
            <Node pos="l" depth="3" NCoef="0" IVar="3" Cut="3.8709872961044312e-01" cType="1" res="-3.2696035504341125e-01" rms="2.4497054517269135e-01" purity="6.5760731697082520e-02" nType="0">
              <Node pos="l" depth="4" NCoef="0" IVar="7" Cut="4.0000000000000000e+00" cType="1" res="-3.4168982505798340e-01" rms="2.0045900344848633e-01" purity="4.2452085763216019e-02" nType="0">
                <Node pos="l" depth="5" NCoef="0" IVar="-1" Cut="0.0000000000000000e+00" cType="1" res="-3.4983228892087936e-02" rms="2.9906609654426575e-01" purity="9.9812291562557220e-02" nType="-99"/>
                <Node pos="r" depth="5" NCoef="0" IVar="5" Cut="-7.4062079191207886e-01" cType="1" res="-3.4819456934928894e-01" rms="1.8149657547473907e-01" purity="3.4427728503942490e-02" nType="0">
                  <Node pos="l" depth="6" NCoef="0" IVar="3" Cut="2.8759023547172546e-01" cType="1" res="-3.3844912052154541e-01" rms="2.0971833169460297e-01" purity="4.6412192285060883e-02" nType="0">
                    <Node pos="l" depth="7" NCoef="0" IVar="-1" Cut="0.0000000000000000e+00" cType="1" res="-4.4840905815362930e-02" rms="1.7557023465633392e-01" purity="3.1891345977783203e-02" nType="-99"/>
                    <Node pos="r" depth="7" NCoef="0" IVar="-1" Cut="0.0000000000000000e+00" cType="1" res="-3.9099488407373428e-02" rms="2.4103635549545288e-01" purity="6.2227137386798859e-02" nType="-99"/>
                  </Node>
                  <Node pos="r" depth="6" NCoef="0" IVar="5" Cut="1.3594712018966675e+00" cType="1" res="-3.6648467183113098e-01" rms="1.0819898545742035e-01" purity="1.1935407295823097e-02" nType="0">
                    <Node pos="l" depth="7" NCoef="0" IVar="-1" Cut="0.0000000000000000e+00" cType="1" res="-4.4831812381744385e-02" rms="1.4032682776451111e-01" purity="2.0201370120048523e-02" nType="-99"/>
                    <Node pos="r" depth="7" NCoef="0" IVar="-1" Cut="0.0000000000000000e+00" cType="1" res="-4.5995056629180908e-02" rms="5.7500369846820831e-02" purity="3.3129521179944277e-03" nType="-99"/>
                  </Node>
                </Node>
              </Node>
              <Node pos="r" depth="4" NCoef="0" IVar="0" Cut="7.5524157285690308e-01" cType="1" res="-2.9777792096138000e-01" rms="3.1296524405479431e-01" purity="1.1184579133987427e-01" nType="0">
                <Node pos="l" depth="5" NCoef="0" IVar="-1" Cut="0.0000000000000000e+00" cType="1" res="-2.6128502562642097e-02" rms="3.8357341289520264e-01" purity="1.8118003010749817e-01" nType="-99"/>
                <Node pos="r" depth="5" NCoef="0" IVar="5" Cut="-1.6406629085540771e+00" cType="1" res="-3.1364905834197998e-01" rms="2.8682461380958557e-01" purity="9.1295398771762848e-02" nType="0">
                  <Node pos="l" depth="6" NCoef="0" IVar="6" Cut="6.4088925719261169e-02" cType="1" res="-2.9464721679687500e-01" rms="3.1761875748634338e-01" purity="1.1443051695823669e-01" nType="0">
                    <Node pos="l" depth="7" NCoef="0" IVar="-1" Cut="0.0000000000000000e+00" cType="1" res="-3.3680412918329239e-02" rms="2.9812732338905334e-01" purity="9.8784603178501129e-02" nType="-99"/>
                    <Node pos="r" depth="7" NCoef="0" IVar="-1" Cut="0.0000000000000000e+00" cType="1" res="-3.1804487109184265e-02" rms="3.3455520868301392e-01" purity="1.2917841970920563e-01" nType="-99"/>
                  </Node>
                  <Node pos="r" depth="6" NCoef="0" IVar="-1" Cut="0.0000000000000000e+00" cType="1" res="-3.8727961480617523e-02" rms="2.2893661260604858e-01" purity="5.5921331048011780e-02" nType="-99"/>
                </Node>
              </Node>
            </Node>
            <Node pos="r" depth="3" NCoef="0" IVar="5" Cut="-1.2442203760147095e+00" cType="1" res="-2.6579535007476807e-01" rms="3.4733980894088745e-01" purity="1.4556774497032166e-01" nType="0">
              <Node pos="l" depth="4" NCoef="0" IVar="3" Cut="3.7185296416282654e-01" cType="1" res="-2.2858740389347076e-01" rms="3.8919940590858459e-01" purity="1.9207935035228729e-01" nType="0">
                <Node pos="l" depth="5" NCoef="0" IVar="6" Cut="2.2317250072956085e-01" cType="1" res="-2.5319552421569824e-01" rms="3.6227586865425110e-01" purity="1.5984839200973511e-01" nType="0">
                  <Node pos="l" depth="6" NCoef="0" IVar="0" Cut="1.9307470321655273e+00" cType="1" res="-2.8866571187973022e-01" rms="3.1883814930915833e-01" purity="1.1729082465171814e-01" nType="0">
                    <Node pos="l" depth="7" NCoef="0" IVar="-1" Cut="0.0000000000000000e+00" cType="1" res="-3.0779208987951279e-02" rms="3.5013392567634583e-01" purity="1.4507600665092468e-01" nType="-99"/>
                    <Node pos="r" depth="7" NCoef="0" IVar="-1" Cut="0.0000000000000000e+00" cType="1" res="-4.0158737450838089e-02" rms="2.6531749963760376e-01" purity="7.8197598457336426e-02" nType="-99"/>
                  </Node>
                  <Node pos="r" depth="6" NCoef="0" IVar="-1" Cut="0.0000000000000000e+00" cType="1" res="-2.0070428028702736e-02" rms="4.2254596948623657e-01" purity="2.3714545369148254e-01" nType="-99"/>
                </Node>
                <Node pos="r" depth="5" NCoef="0" IVar="-1" Cut="0.0000000000000000e+00" cType="1" res="-1.6538897529244423e-02" rms="4.4406154751777649e-01" purity="2.7349674701690674e-01" nType="-99"/>
              </Node>
              <Node pos="r" depth="4" NCoef="0" IVar="6" Cut="2.4334521591663361e-01" cType="1" res="-3.1102809309959412e-01" rms="2.8184252977371216e-01" purity="8.9024856686592102e-02" nType="0">
                <Node pos="l" depth="5" NCoef="0" IVar="4" Cut="2.5567598342895508e+00" cType="1" res="-3.2840666174888611e-01" rms="2.5096926093101501e-01" purity="6.9179296493530273e-02" nType="0">
                  <Node pos="l" depth="6" NCoef="0" IVar="3" Cut="3.2508957386016846e-01" cType="1" res="-3.0607196688652039e-01" rms="2.9484778642654419e-01" purity="9.7921006381511688e-02" nType="0">
                    <Node pos="l" depth="7" NCoef="0" IVar="-1" Cut="0.0000000000000000e+00" cType="1" res="-4.2353082448244095e-02" rms="2.3359870910644531e-01" purity="5.8718230575323105e-02" nType="-99"/>
                    <Node pos="r" depth="7" NCoef="0" IVar="-1" Cut="0.0000000000000000e+00" cType="1" res="-3.0450135469436646e-02" rms="3.4133851528167725e-01" purity="1.3622869551181793e-01" nType="-99"/>
                  </Node>
                  <Node pos="r" depth="6" NCoef="0" IVar="-1" Cut="0.0000000000000000e+00" cType="1" res="-4.3856773525476456e-02" rms="1.4959733188152313e-01" purity="2.2959046065807343e-02" nType="-99"/>
                </Node>
                <Node pos="r" depth="5" NCoef="0" IVar="-1" Cut="0.0000000000000000e+00" cType="1" res="-2.7802271768450737e-02" rms="3.6891260743141174e-01" purity="1.6395317018032074e-01" nType="-99"/>
              </Node>
            </Node>
          </Node>
          <Node pos="r" depth="2" NCoef="0" IVar="0" Cut="5.7583469152450562e-01" cType="1" res="-1.2184502184391022e-01" rms="4.6776467561721802e-01" purity="3.4319317340850830e-01" nType="0">
            <Node pos="l" depth="3" NCoef="0" IVar="4" Cut="1.4241732358932495e+00" cType="1" res="-7.7570647001266479e-02" rms="4.8470810055732727e-01" purity="3.9914780855178833e-01" nType="0">
              <Node pos="l" depth="4" NCoef="0" IVar="1" Cut="5.7838839292526245e-01" cType="1" res="-5.6459397077560425e-02" rms="4.9160397052764893e-01" purity="4.2533332109451294e-01" nType="0">
                <Node pos="l" depth="5" NCoef="0" IVar="3" Cut="5.3683519363403320e-01" cType="1" res="-3.9716355502605438e-02" rms="4.9411422014236450e-01" purity="4.4294479489326477e-01" nType="0">
                  <Node pos="l" depth="6" NCoef="0" IVar="-1" Cut="0.0000000000000000e+00" cType="1" res="-1.1705782264471054e-02" rms="4.7268116474151611e-01" purity="3.4246399998664856e-01" nType="-99"/>
                  <Node pos="r" depth="6" NCoef="0" IVar="0" Cut="2.9715847969055176e-01" cType="1" res="-2.1132288500666618e-02" rms="4.9666661024093628e-01" purity="4.6463912725448608e-01" nType="0">
                    <Node pos="l" depth="7" NCoef="0" IVar="-1" Cut="0.0000000000000000e+00" cType="1" res="8.2933239173144102e-04" rms="4.9846500158309937e-01" purity="5.0403386354446411e-01" nType="-99"/>
                    <Node pos="r" depth="7" NCoef="0" IVar="-1" Cut="0.0000000000000000e+00" cType="1" res="-5.2450681105256081e-03" rms="4.9167487025260925e-01" purity="4.1518875956535339e-01" nType="-99"/>
                  </Node>
                </Node>
                <Node pos="r" depth="5" NCoef="0" IVar="-1" Cut="0.0000000000000000e+00" cType="1" res="-1.4143326319754124e-02" rms="4.6460488438606262e-01" purity="3.2199123501777649e-01" nType="-99"/>
              </Node>
              <Node pos="r" depth="4" NCoef="0" IVar="-1" Cut="0.0000000000000000e+00" cType="1" res="-2.8250895440578461e-02" rms="3.5871332883834839e-01" purity="1.5399692952632904e-01" nType="-99"/>
            </Node>
            <Node pos="r" depth="3" NCoef="0" IVar="5" Cut="-7.3425173759460449e-01" cType="1" res="-2.1564006805419922e-01" rms="4.1432470083236694e-01" purity="2.2465351223945618e-01" nType="0">
              <Node pos="l" depth="4" NCoef="0" IVar="1" Cut="4.5424854755401611e-01" cType="1" res="-1.8716531991958618e-01" rms="4.3488094210624695e-01" purity="2.5700518488883972e-01" nType="0">
                <Node pos="l" depth="5" NCoef="0" IVar="2" Cut="1.0943792724609375e+02" cType="1" res="-1.5576022863388062e-01" rms="4.5225405693054199e-01" purity="2.9080691933631897e-01" nType="0">
                  <Node pos="l" depth="6" NCoef="0" IVar="-1" Cut="0.0000000000000000e+00" cType="1" res="-1.0189868509769440e-02" rms="4.7111323475837708e-01" purity="3.3779710531234741e-01" nType="-99"/>
                  <Node pos="r" depth="6" NCoef="0" IVar="-1" Cut="0.0000000000000000e+00" cType="1" res="-1.8224487081170082e-02" rms="4.3783599138259888e-01" purity="2.6182284951210022e-01" nType="-99"/>
                </Node>
                <Node pos="r" depth="5" NCoef="0" IVar="-1" Cut="0.0000000000000000e+00" cType="1" res="-2.7167879045009613e-02" rms="3.8224181532859802e-01" purity="1.7913453280925751e-01" nType="-99"/>
              </Node>
              <Node pos="r" depth="4" NCoef="0" IVar="-1" Cut="0.0000000000000000e+00" cType="1" res="-3.4277059137821198e-02" rms="3.0130386352539062e-01" purity="1.0203889012336731e-01" nType="-99"/>
            </Node>
          </Node>
        </Node>
        <Node pos="r" depth="1" NCoef="0" IVar="3" Cut="8.2561016082763672e-01" cType="1" res="1.6872234642505646e-01" rms="4.5047846436500549e-01" purity="7.0541864633560181e-01" nType="0">
          <Node pos="l" depth="2" NCoef="0" IVar="4" Cut="5.4927885532379150e-01" cType="1" res="6.3015528023242950e-02" rms="4.8985919356346130e-01" purity="5.7700616121292114e-01" nType="0">
            <Node pos="l" depth="3" NCoef="0" IVar="1" Cut="3.3702519536018372e-01" cType="1" res="8.3111777901649475e-02" rms="4.8697143793106079e-01" purity="5.9996032714843750e-01" nType="0">
              <Node pos="l" depth="4" NCoef="0" IVar="3" Cut="7.2916448116302490e-01" cType="1" res="1.1065682023763657e-01" rms="4.8041358590126038e-01" purity="6.3047927618026733e-01" nType="0">
                <Node pos="l" depth="5" NCoef="0" IVar="0" Cut="1.8077704310417175e-01" cType="1" res="6.3589654862880707e-02" rms="4.9274107813835144e-01" purity="5.7444828748703003e-01" nType="0">
                  <Node pos="l" depth="6" NCoef="0" IVar="-1" Cut="0.0000000000000000e+00" cType="1" res="9.0833753347396851e-03" rms="4.8121422529220581e-01" purity="6.3319283723831177e-01" nType="-99"/>
                  <Node pos="r" depth="6" NCoef="0" IVar="-1" Cut="0.0000000000000000e+00" cType="1" res="9.6428056713193655e-04" rms="4.9895155429840088e-01" purity="5.1385021209716797e-01" nType="-99"/>
                </Node>
                <Node pos="r" depth="5" NCoef="0" IVar="5" Cut="-1.8503466844558716e+00" cType="1" res="1.3203948736190796e-01" rms="4.7316330671310425e-01" purity="6.5593421459197998e-01" nType="0">
                  <Node pos="l" depth="6" NCoef="0" IVar="0" Cut="1.5331628918647766e-01" cType="1" res="1.5085875988006592e-01" rms="4.6576866507530212e-01" purity="6.7892903089523315e-01" nType="0">
                    <Node pos="l" depth="7" NCoef="0" IVar="-1" Cut="0.0000000000000000e+00" cType="1" res="1.3783620670437813e-02" rms="4.5245331525802612e-01" purity="7.1265023946762085e-01" nType="-99"/>
                    <Node pos="r" depth="7" NCoef="0" IVar="-1" Cut="0.0000000000000000e+00" cType="1" res="8.3418684080243111e-03" rms="4.8574101924896240e-01" purity="6.1445504426956177e-01" nType="-99"/>
                  </Node>
                  <Node pos="r" depth="6" NCoef="0" IVar="-1" Cut="0.0000000000000000e+00" cType="1" res="7.0462301373481750e-03" rms="4.8783317208290100e-01" purity="5.9921377897262573e-01" nType="-99"/>
                </Node>
              </Node>
              <Node pos="r" depth="4" NCoef="0" IVar="3" Cut="7.5325083732604980e-01" cType="1" res="-9.4390464946627617e-03" rms="4.9733474850654602e-01" purity="4.9741721153259277e-01" nType="0">
                <Node pos="l" depth="5" NCoef="0" IVar="-1" Cut="0.0000000000000000e+00" cType="1" res="-6.1664222739636898e-03" rms="4.9342668056488037e-01" purity="4.3160882592201233e-01" nType="-99"/>
                <Node pos="r" depth="5" NCoef="0" IVar="-1" Cut="0.0000000000000000e+00" cType="1" res="3.6724829114973545e-03" rms="4.9447208642959595e-01" purity="5.5705189704895020e-01" nType="-99"/>
              </Node>
            </Node>
            <Node pos="r" depth="3" NCoef="0" IVar="-1" Cut="0.0000000000000000e+00" cType="1" res="-9.2450575903058052e-03" rms="4.8221251368522644e-01" purity="3.8825377821922302e-01" nType="-99"/>
          </Node>
          <Node pos="r" depth="2" NCoef="0" IVar="0" Cut="5.7448899745941162e-01" cType="1" res="2.0708201825618744e-01" rms="4.2891296744346619e-01" purity="7.5201797485351562e-01" nType="0">
            <Node pos="l" depth="3" NCoef="0" IVar="5" Cut="-1.0067622661590576e+00" cType="1" res="2.1645461022853851e-01" rms="4.2338415980339050e-01" purity="7.6181548833847046e-01" nType="0">
              <Node pos="l" depth="4" NCoef="0" IVar="5" Cut="-1.9420956373214722e+00" cType="1" res="2.2962567210197449e-01" rms="4.1435247659683228e-01" purity="7.7780365943908691e-01" nType="0">
                <Node pos="l" depth="5" NCoef="0" IVar="3" Cut="9.6548211574554443e-01" cType="1" res="2.4396109580993652e-01" rms="4.0270459651947021e-01" purity="7.9507797956466675e-01" nType="0">
                  <Node pos="l" depth="6" NCoef="0" IVar="3" Cut="8.7073087692260742e-01" cType="1" res="2.0696499943733215e-01" rms="4.3091955780982971e-01" purity="7.5258892774581909e-01" nType="0">
                    <Node pos="l" depth="7" NCoef="0" IVar="-1" Cut="0.0000000000000000e+00" cType="1" res="1.3842461630702019e-02" rms="4.4736185669898987e-01" purity="7.2248339653015137e-01" nType="-99"/>
                    <Node pos="r" depth="7" NCoef="0" IVar="-1" Cut="0.0000000000000000e+00" cType="1" res="1.9051034003496170e-02" rms="4.1744643449783325e-01" purity="7.7435040473937988e-01" nType="-99"/>
                  </Node>
                  <Node pos="r" depth="6" NCoef="0" IVar="4" Cut="-9.9834281206130981e-01" cType="1" res="2.6086506247520447e-01" rms="3.8796001672744751e-01" purity="8.1449180841445923e-01" nType="0">
                    <Node pos="l" depth="7" NCoef="0" IVar="-1" Cut="0.0000000000000000e+00" cType="1" res="1.5593507327139378e-02" rms="4.1971209645271301e-01" purity="7.7095723152160645e-01" nType="-99"/>
                    <Node pos="r" depth="7" NCoef="0" IVar="-1" Cut="0.0000000000000000e+00" cType="1" res="2.1030437201261520e-02" rms="3.7717124819755554e-01" purity="8.2774019241333008e-01" nType="-99"/>
                  </Node>
                </Node>
                <Node pos="r" depth="5" NCoef="0" IVar="3" Cut="8.9075452089309692e-01" cType="1" res="1.6427165269851685e-01" rms="4.5811256766319275e-01" purity="6.9905138015747070e-01" nType="0">
                  <Node pos="l" depth="6" NCoef="0" IVar="-1" Cut="0.0000000000000000e+00" cType="1" res="1.0749659501016140e-02" rms="4.7235721349716187e-01" purity="6.6347044706344604e-01" nType="-99"/>
                  <Node pos="r" depth="6" NCoef="0" IVar="4" Cut="-3.1023898720741272e-01" cType="1" res="1.7671105265617371e-01" rms="4.5147803425788879e-01" purity="7.1383655071258545e-01" nType="0">
                    <Node pos="l" depth="7" NCoef="0" IVar="-1" Cut="0.0000000000000000e+00" cType="1" res="1.2313187122344971e-02" rms="4.6151947975158691e-01" purity="6.9177991151809692e-01" nType="-99"/>
                    <Node pos="r" depth="7" NCoef="0" IVar="-1" Cut="0.0000000000000000e+00" cType="1" res="1.6374653205275536e-02" rms="4.3886789679527283e-01" purity="7.3856765031814575e-01" nType="-99"/>
                  </Node>
                </Node>
              </Node>
              <Node pos="r" depth="4" NCoef="0" IVar="5" Cut="-4.6110516786575317e-01" cType="1" res="4.9276027828454971e-02" rms="4.9511623382568359e-01" purity="5.5887913703918457e-01" nType="0">
                <Node pos="l" depth="5" NCoef="0" IVar="-1" Cut="0.0000000000000000e+00" cType="1" res="6.6734193824231625e-03" rms="4.8950004577636719e-01" purity="5.9998470544815063e-01" nType="-99"/>
                <Node pos="r" depth="5" NCoef="0" IVar="-1" Cut="0.0000000000000000e+00" cType="1" res="4.4234364759176970e-04" rms="4.9952307343482971e-01" purity="5.0142759084701538e-01" nType="-99"/>
              </Node>
            </Node>
            <Node pos="r" depth="3" NCoef="0" IVar="-1" Cut="0.0000000000000000e+00" cType="1" res="-1.1833671480417252e-02" rms="4.8590669035911560e-01" purity="3.9652821421623230e-01" nType="-99"/>
          </Node>
        </Node>
      </Node>
    </BinaryTree>
    <BinaryTree type="DecisionTree" boostWeight="1.0000000000000000e+00" itree="6">
      <Node pos="s" depth="0" NCoef="0" IVar="3" Cut="6.7633879184722900e-01" cType="1" res="7.2535485960543156e-03" rms="4.6263435482978821e-01" purity="4.9760836362838745e-01" nType="0">
        <Node pos="l" depth="1" NCoef="0" IVar="3" Cut="5.2372527122497559e-01" cType="1" res="-2.1567925810813904e-01" rms="3.8265246152877808e-01" purity="1.9823919236660004e-01" nType="0">
          <Node pos="l" depth="2" NCoef="0" IVar="4" Cut="6.4933472871780396e-01" cType="1" res="-2.6990091800689697e-01" rms="3.1745886802673340e-01" purity="1.2016816437244415e-01" nType="0">
            <Node pos="l" depth="3" NCoef="0" IVar="3" Cut="3.8869133591651917e-01" cType="1" res="-2.4710151553153992e-01" rms="3.5070127248764038e-01" purity="1.5089851617813110e-01" nType="0">
              <Node pos="l" depth="4" NCoef="0" IVar="6" Cut="2.2111813724040985e-01" cType="1" res="-2.7382051944732666e-01" rms="3.0742782354354858e-01" purity="1.0995004326105118e-01" nType="0">
                <Node pos="l" depth="5" NCoef="0" IVar="6" Cut="1.3564896583557129e-01" cType="1" res="-2.9634940624237061e-01" rms="2.6872724294662476e-01" purity="8.0205373466014862e-02" nType="0">
                  <Node pos="l" depth="6" NCoef="0" IVar="7" Cut="5.0000000000000000e+00" cType="1" res="-3.1260600686073303e-01" rms="2.2870434820652008e-01" purity="5.5811855942010880e-02" nType="0">
                    <Node pos="l" depth="7" NCoef="0" IVar="-1" Cut="0.0000000000000000e+00" cType="1" res="-3.7587743252515793e-02" rms="2.6758381724357605e-01" purity="7.7819235622882843e-02" nType="-99"/>
                    <Node pos="r" depth="7" NCoef="0" IVar="-1" Cut="0.0000000000000000e+00" cType="1" res="-4.0446929633617401e-02" rms="2.0847724378108978e-01" purity="4.5868221670389175e-02" nType="-99"/>
                  </Node>
                  <Node pos="r" depth="6" NCoef="0" IVar="7" Cut="6.0000000000000000e+00" cType="1" res="-2.6199734210968018e-01" rms="3.3535581827163696e-01" purity="1.3162747025489807e-01" nType="0">
                    <Node pos="l" depth="7" NCoef="0" IVar="-1" Cut="0.0000000000000000e+00" cType="1" res="-2.6577260345220566e-02" rms="3.7288615107536316e-01" purity="1.6938871145248413e-01" nType="-99"/>
                    <Node pos="r" depth="7" NCoef="0" IVar="-1" Cut="0.0000000000000000e+00" cType="1" res="-3.5423025488853455e-02" rms="2.9290524125099182e-01" purity="9.6011050045490265e-02" nType="-99"/>
                  </Node>
                </Node>
                <Node pos="r" depth="5" NCoef="0" IVar="-1" Cut="0.0000000000000000e+00" cType="1" res="-1.8599620088934898e-02" rms="4.2454344034194946e-01" purity="2.4026961624622345e-01" nType="-99"/>
              </Node>
              <Node pos="r" depth="4" NCoef="0" IVar="0" Cut="7.1822077035903931e-01" cType="1" res="-2.0576833188533783e-01" rms="4.0525943040847778e-01" purity="2.1424408257007599e-01" nType="0">
                <Node pos="l" depth="5" NCoef="0" IVar="0" Cut="4.6334439516067505e-01" cType="1" res="-1.4129519462585449e-01" rms="4.5569226145744324e-01" purity="2.9926133155822754e-01" nType="0">
                  <Node pos="l" depth="6" NCoef="0" IVar="0" Cut="1.7931851744651794e-01" cType="1" res="-1.0890143364667892e-01" rms="4.7126826643943787e-01" purity="3.3775225281715393e-01" nType="0">
                    <Node pos="l" depth="7" NCoef="0" IVar="-1" Cut="0.0000000000000000e+00" cType="1" res="-9.1866189613938332e-03" rms="4.7534266114234924e-01" purity="3.5049661993980408e-01" nType="-99"/>
                    <Node pos="r" depth="7" NCoef="0" IVar="-1" Cut="0.0000000000000000e+00" cType="1" res="-1.1345264501869678e-02" rms="4.6701288223266602e-01" purity="3.2509863376617432e-01" nType="-99"/>
                  </Node>
                  <Node pos="r" depth="6" NCoef="0" IVar="-1" Cut="0.0000000000000000e+00" cType="1" res="-2.0443392917513847e-02" rms="4.2074790596961975e-01" purity="2.3128095269203186e-01" nType="-99"/>
                </Node>
                <Node pos="r" depth="5" NCoef="0" IVar="6" Cut="7.4316881597042084e-02" cType="1" res="-2.5677862763404846e-01" rms="3.5212332010269165e-01" purity="1.4697955548763275e-01" nType="0">
                  <Node pos="l" depth="6" NCoef="0" IVar="-1" Cut="0.0000000000000000e+00" cType="1" res="-3.1614776700735092e-02" rms="3.1605267524719238e-01" purity="1.1395642161369324e-01" nType="-99"/>
                  <Node pos="r" depth="6" NCoef="0" IVar="2" Cut="2.7862133789062500e+02" cType="1" res="-2.3151308298110962e-01" rms="3.8125562667846680e-01" purity="1.7805725336074829e-01" nType="0">
                    <Node pos="l" depth="7" NCoef="0" IVar="-1" Cut="0.0000000000000000e+00" cType="1" res="-2.0505102351307869e-02" rms="4.0741923451423645e-01" purity="2.1257451176643372e-01" nType="-99"/>
                    <Node pos="r" depth="7" NCoef="0" IVar="-1" Cut="0.0000000000000000e+00" cType="1" res="-2.9225694015622139e-02" rms="3.5001832246780396e-01" purity="1.4416134357452393e-01" nType="-99"/>
                  </Node>
                </Node>
              </Node>
            </Node>
            <Node pos="r" depth="3" NCoef="0" IVar="6" Cut="1.2430829554796219e-01" cType="1" res="-3.1252762675285339e-01" rms="2.3762185871601105e-01" purity="6.2713451683521271e-02" nType="0">
              <Node pos="l" depth="4" NCoef="0" IVar="5" Cut="-1.0699906200170517e-01" cType="1" res="-3.3345168828964233e-01" rms="1.8430440127849579e-01" purity="3.6456607282161713e-02" nType="0">
                <Node pos="l" depth="5" NCoef="0" IVar="5" Cut="-1.0713951587677002e+00" cType="1" res="-3.1276464462280273e-01" rms="2.4349053204059601e-01" purity="6.5699107944965363e-02" nType="0">
                  <Node pos="l" depth="6" NCoef="0" IVar="-1" Cut="0.0000000000000000e+00" cType="1" res="-3.3627133816480637e-02" rms="2.7969530224800110e-01" purity="8.9107602834701538e-02" nType="-99"/>
                  <Node pos="r" depth="6" NCoef="0" IVar="-1" Cut="0.0000000000000000e+00" cType="1" res="-3.9929755032062531e-02" rms="1.9832450151443481e-01" purity="4.2101673781871796e-02" nType="-99"/>
                </Node>
                <Node pos="r" depth="5" NCoef="0" IVar="5" Cut="2.2606704235076904e+00" cType="1" res="-3.4618481993675232e-01" rms="1.3400779664516449e-01" purity="1.8457494676113129e-02" nType="0">
                  <Node pos="l" depth="6" NCoef="0" IVar="-1" Cut="0.0000000000000000e+00" cType="1" res="-4.1281647980213165e-02" rms="1.6192455589771271e-01" purity="2.7248196303844452e-02" nType="-99"/>
                  <Node pos="r" depth="6" NCoef="0" IVar="-1" Cut="0.0000000000000000e+00" cType="1" res="-4.3542299419641495e-02" rms="7.7275454998016357e-02" purity="5.8313389308750629e-03" nType="-99"/>
                </Node>
              </Node>
              <Node pos="r" depth="4" NCoef="0" IVar="5" Cut="1.2510244548320770e-01" cType="1" res="-2.8770238161087036e-01" rms="2.8638911247253418e-01" purity="9.3865752220153809e-02" nType="0">
                <Node pos="l" depth="5" NCoef="0" IVar="-1" Cut="0.0000000000000000e+00" cType="1" res="-2.8063401579856873e-02" rms="3.4216412901878357e-01" purity="1.4176858961582184e-01" nType="-99"/>
                <Node pos="r" depth="5" NCoef="0" IVar="2" Cut="6.1716821289062500e+02" cType="1" res="-3.0861717462539673e-01" rms="2.4722552299499512e-01" purity="6.6972598433494568e-02" nType="0">
                  <Node pos="l" depth="6" NCoef="0" IVar="-1" Cut="0.0000000000000000e+00" cType="1" res="-4.1657160967588425e-02" rms="2.0659653842449188e-01" purity="4.5601081103086472e-02" nType="-99"/>
                  <Node pos="r" depth="6" NCoef="0" IVar="-1" Cut="0.0000000000000000e+00" cType="1" res="-3.0490009114146233e-02" rms="3.0255013704299927e-01" purity="1.0420101135969162e-01" nType="-99"/>
                </Node>
              </Node>
            </Node>
          </Node>
          <Node pos="r" depth="2" NCoef="0" IVar="5" Cut="1.4396150410175323e-01" cType="1" res="-9.6543602645397186e-02" rms="4.7545349597930908e-01" purity="3.6977660655975342e-01" nType="0">
            <Node pos="l" depth="3" NCoef="0" IVar="0" Cut="3.6567085981369019e-01" cType="1" res="-7.8611217439174652e-02" rms="4.8274594545364380e-01" purity="3.9206862449645996e-01" nType="0">
              <Node pos="l" depth="4" NCoef="0" IVar="3" Cut="6.0741865634918213e-01" cType="1" res="-1.7362290993332863e-02" rms="4.9707901477813721e-01" purity="4.7234645485877991e-01" nType="0">
                <Node pos="l" depth="5" NCoef="0" IVar="0" Cut="1.7691472172737122e-01" cType="1" res="-5.8809645473957062e-02" rms="4.9244838953018188e-01" purity="4.2220363020896912e-01" nType="0">
                  <Node pos="l" depth="6" NCoef="0" IVar="-1" Cut="0.0000000000000000e+00" cType="1" res="-3.7871287204325199e-03" rms="4.9455657601356506e-01" purity="4.3853345513343811e-01" nType="-99"/>
                  <Node pos="r" depth="6" NCoef="0" IVar="-1" Cut="0.0000000000000000e+00" cType="1" res="-7.6053049415349960e-03" rms="4.8835900425910950e-01" purity="3.9781355857849121e-01" nType="-99"/>
                </Node>
                <Node pos="r" depth="5" NCoef="0" IVar="0" Cut="2.3579940199851990e-01" cType="1" res="1.3274363242089748e-02" rms="4.9826312065124512e-01" purity="5.0941050052642822e-01" nType="0">
                  <Node pos="l" depth="6" NCoef="0" IVar="2" Cut="1.7722340393066406e+02" cType="1" res="3.0690209940075874e-02" rms="4.9772310256958008e-01" purity="5.3031080961227417e-01" nType="0">
                    <Node pos="l" depth="7" NCoef="0" IVar="-1" Cut="0.0000000000000000e+00" cType="1" res="4.4663809239864349e-03" rms="4.9540624022483826e-01" purity="5.5927646160125732e-01" nType="-99"/>
                    <Node pos="r" depth="7" NCoef="0" IVar="-1" Cut="0.0000000000000000e+00" cType="1" res="3.1122693326324224e-04" rms="4.9859035015106201e-01" purity="5.0099724531173706e-01" nType="-99"/>
                  </Node>
                  <Node pos="r" depth="6" NCoef="0" IVar="-1" Cut="0.0000000000000000e+00" cType="1" res="-2.3208823986351490e-03" rms="4.9723264575004578e-01" purity="4.6205395460128784e-01" nType="-99"/>
                </Node>
              </Node>
              <Node pos="r" depth="4" NCoef="0" IVar="1" Cut="-3.1962916254997253e-02" cType="1" res="-1.4126741886138916e-01" rms="4.5925337076187134e-01" purity="3.0994626879692078e-01" nType="0">
                <Node pos="l" depth="5" NCoef="0" IVar="-1" Cut="0.0000000000000000e+00" cType="1" res="-7.5375079177320004e-03" rms="4.8145583271980286e-01" purity="3.7310341000556946e-01" nType="-99"/>
                <Node pos="r" depth="5" NCoef="0" IVar="0" Cut="7.1955919265747070e-01" cType="1" res="-1.6693423688411713e-01" rms="4.4672426581382751e-01" purity="2.8213831782341003e-01" nType="0">
                  <Node pos="l" depth="6" NCoef="0" IVar="0" Cut="4.9123612046241760e-01" cType="1" res="-1.4379602670669556e-01" rms="4.6063375473022461e-01" purity="3.1155720353126526e-01" nType="0">
                    <Node pos="l" depth="7" NCoef="0" IVar="-1" Cut="0.0000000000000000e+00" cType="1" res="-8.2929385825991631e-03" rms="4.8082873225212097e-01" purity="3.6974295973777771e-01" nType="-99"/>
                    <Node pos="r" depth="7" NCoef="0" IVar="-1" Cut="0.0000000000000000e+00" cType="1" res="-1.6951616853475571e-02" rms="4.4461423158645630e-01" purity="2.7523317933082581e-01" nType="-99"/>
                  </Node>
                  <Node pos="r" depth="6" NCoef="0" IVar="-1" Cut="0.0000000000000000e+00" cType="1" res="-2.3228742182254791e-02" rms="4.0264153480529785e-01" purity="2.0635683834552765e-01" nType="-99"/>
                </Node>
              </Node>
            </Node>
            <Node pos="r" depth="3" NCoef="0" IVar="-1" Cut="0.0000000000000000e+00" cType="1" res="-2.9972549527883530e-02" rms="3.3084359765052795e-01" purity="1.2878632545471191e-01" nType="-99"/>
          </Node>
        </Node>
        <Node pos="r" depth="1" NCoef="0" IVar="3" Cut="8.2586044073104858e-01" cType="1" res="1.6095201671123505e-01" rms="4.5028236508369446e-01" purity="7.0400500297546387e-01" nType="0">
          <Node pos="l" depth="2" NCoef="0" IVar="5" Cut="-6.1032187938690186e-01" cType="1" res="6.0945384204387665e-02" rms="4.8928055167198181e-01" purity="5.7736682891845703e-01" nType="0">
            <Node pos="l" depth="3" NCoef="0" IVar="0" Cut="2.8551813960075378e-01" cType="1" res="7.9731136560440063e-02" rms="4.8677030205726624e-01" purity="6.0105568170547485e-01" nType="0">
              <Node pos="l" depth="4" NCoef="0" IVar="3" Cut="7.4870508909225464e-01" cType="1" res="1.0767598450183868e-01" rms="4.7957324981689453e-01" purity="6.3452392816543579e-01" nType="0">
                <Node pos="l" depth="5" NCoef="0" IVar="6" Cut="8.0927342176437378e-02" cType="1" res="7.0895105600357056e-02" rms="4.9038976430892944e-01" purity="5.8981931209564209e-01" nType="0">
                  <Node pos="l" depth="6" NCoef="0" IVar="2" Cut="9.3187385559082031e+01" cType="1" res="5.3068298846483231e-02" rms="4.9310114979743958e-01" purity="5.7184094190597534e-01" nType="0">
                    <Node pos="l" depth="7" NCoef="0" IVar="-1" Cut="0.0000000000000000e+00" cType="1" res="6.4827306196093559e-03" rms="4.8768967390060425e-01" purity="6.0067087411880493e-01" nType="-99"/>
                    <Node pos="r" depth="7" NCoef="0" IVar="-1" Cut="0.0000000000000000e+00" cType="1" res="2.2359644062817097e-03" rms="4.9701076745986938e-01" purity="5.4257744550704956e-01" nType="-99"/>
                  </Node>
                  <Node pos="r" depth="6" NCoef="0" IVar="-1" Cut="0.0000000000000000e+00" cType="1" res="7.9823685809969902e-03" rms="4.8406296968460083e-01" purity="6.2114608287811279e-01" nType="-99"/>
                </Node>
                <Node pos="r" depth="5" NCoef="0" IVar="5" Cut="-1.5585188865661621e+00" cType="1" res="1.3042575120925903e-01" rms="4.7132462263107300e-01" purity="6.6217464208602905e-01" nType="0">
                  <Node pos="l" depth="6" NCoef="0" IVar="7" Cut="3.0000000000000000e+00" cType="1" res="1.2616652250289917e-01" rms="4.1597715020179749e-01" purity="6.7977720499038696e-01" nType="0">
                    <Node pos="l" depth="7" NCoef="0" IVar="-1" Cut="0.0000000000000000e+00" cType="1" res="9.1928327456116676e-03" rms="4.7373414039611816e-01" purity="6.5625542402267456e-01" nType="-99"/>
                    <Node pos="r" depth="7" NCoef="0" IVar="-1" Cut="0.0000000000000000e+00" cType="1" res="1.5983000397682190e-02" rms="4.4800722599029541e-01" purity="7.1940642595291138e-01" nType="-99"/>
                  </Node>
                  <Node pos="r" depth="6" NCoef="0" IVar="-1" Cut="0.0000000000000000e+00" cType="1" res="5.3062927909195423e-03" rms="4.9187344312667847e-01" purity="5.8419555425643921e-01" nType="-99"/>
                </Node>
              </Node>
              <Node pos="r" depth="4" NCoef="0" IVar="2" Cut="1.6303552246093750e+02" cType="1" res="-3.5648075863718987e-03" rms="4.9840736389160156e-01" purity="5.0129604339599609e-01" nType="0">
                <Node pos="l" depth="5" NCoef="0" IVar="6" Cut="4.1933644562959671e-02" cType="1" res="1.7587408423423767e-02" rms="4.9789485335350037e-01" purity="5.2380657196044922e-01" nType="0">
                  <Node pos="l" depth="6" NCoef="0" IVar="-1" Cut="0.0000000000000000e+00" cType="1" res="-4.0521277114748955e-03" rms="4.9685448408126831e-01" purity="4.5988509058952332e-01" nType="-99"/>
                  <Node pos="r" depth="6" NCoef="0" IVar="-1" Cut="0.0000000000000000e+00" cType="1" res="5.7666981592774391e-03" rms="4.9171468615531921e-01" purity="5.8116501569747925e-01" nType="-99"/>
                </Node>
                <Node pos="r" depth="5" NCoef="0" IVar="-1" Cut="0.0000000000000000e+00" cType="1" res="-4.8005627468228340e-03" rms="4.9613040685653687e-01" purity="4.4903787970542908e-01" nType="-99"/>
              </Node>
            </Node>
            <Node pos="r" depth="3" NCoef="0" IVar="-1" Cut="0.0000000000000000e+00" cType="1" res="-1.1009691283106804e-02" rms="4.7653079032897949e-01" purity="3.5034269094467163e-01" nType="-99"/>
          </Node>
          <Node pos="r" depth="2" NCoef="0" IVar="5" Cut="-1.7516005039215088e+00" cType="1" res="1.9768960773944855e-01" rms="4.2926722764968872e-01" purity="7.5052571296691895e-01" nType="0">
            <Node pos="l" depth="3" NCoef="0" IVar="1" Cut="7.3203808069229126e-01" cType="1" res="2.2286808490753174e-01" rms="4.1139900684356689e-01" purity="7.8211647272109985e-01" nType="0">
              <Node pos="l" depth="4" NCoef="0" IVar="5" Cut="-2.6628684997558594e+00" cType="1" res="2.3323038220405579e-01" rms="4.0390840172767639e-01" purity="7.9300135374069214e-01" nType="0">
                <Node pos="l" depth="5" NCoef="0" IVar="4" Cut="-1.0647424459457397e+00" cType="1" res="2.5272846221923828e-01" rms="3.8653713464736938e-01" purity="8.1583577394485474e-01" nType="0">
                  <Node pos="l" depth="6" NCoef="0" IVar="4" Cut="-2.5234484672546387e+00" cType="1" res="2.2265918552875519e-01" rms="4.1602626442909241e-01" purity="7.7635151147842407e-01" nType="0">
                    <Node pos="l" depth="7" NCoef="0" IVar="-1" Cut="0.0000000000000000e+00" cType="1" res="2.0205434411764145e-02" rms="3.9607232809066772e-01" purity="8.0451095104217529e-01" nType="-99"/>
                    <Node pos="r" depth="7" NCoef="0" IVar="-1" Cut="0.0000000000000000e+00" cType="1" res="1.5371789224445820e-02" rms="4.2550981044769287e-01" purity="7.6165819168090820e-01" nType="-99"/>
                  </Node>
                  <Node pos="r" depth="6" NCoef="0" IVar="3" Cut="9.9296885728836060e-01" cType="1" res="2.6960009336471558e-01" rms="3.6788538098335266e-01" purity="8.3799016475677490e-01" nType="0">
                    <Node pos="l" depth="7" NCoef="0" IVar="-1" Cut="0.0000000000000000e+00" cType="1" res="1.9346304237842560e-02" rms="3.8916239142417908e-01" purity="8.1301510334014893e-01" nType="-99"/>
                    <Node pos="r" depth="7" NCoef="0" IVar="-1" Cut="0.0000000000000000e+00" cType="1" res="2.1622015163302422e-02" rms="3.5858753323554993e-01" purity="8.4800022840499878e-01" nType="-99"/>
                  </Node>
                </Node>
                <Node pos="r" depth="5" NCoef="0" IVar="5" Cut="-2.2513411045074463e+00" cType="1" res="2.0833802223205566e-01" rms="4.2375326156616211e-01" purity="7.6384955644607544e-01" nType="0">
                  <Node pos="l" depth="6" NCoef="0" IVar="3" Cut="8.8674426078796387e-01" cType="1" res="2.2434721887111664e-01" rms="4.1192483901977539e-01" purity="7.8222805261611938e-01" nType="0">
                    <Node pos="l" depth="7" NCoef="0" IVar="-1" Cut="0.0000000000000000e+00" cType="1" res="1.5489403158426285e-02" rms="4.3411514163017273e-01" purity="7.4735814332962036e-01" nType="-99"/>
                    <Node pos="r" depth="7" NCoef="0" IVar="-1" Cut="0.0000000000000000e+00" cType="1" res="1.8031982704997063e-02" rms="4.0435141324996948e-01" purity="7.9311543703079224e-01" nType="-99"/>
                  </Node>
                  <Node pos="r" depth="6" NCoef="0" IVar="4" Cut="-1.0471626520156860e+00" cType="1" res="1.8899556994438171e-01" rms="4.3683621287345886e-01" purity="7.4164468050003052e-01" nType="0">
                    <Node pos="l" depth="7" NCoef="0" IVar="-1" Cut="0.0000000000000000e+00" cType="1" res="1.2972902506589890e-02" rms="4.5264393091201782e-01" purity="7.1151483058929443e-01" nType="-99"/>
                    <Node pos="r" depth="7" NCoef="0" IVar="-1" Cut="0.0000000000000000e+00" cType="1" res="1.6557144001126289e-02" rms="4.2449212074279785e-01" purity="7.6290071010589600e-01" nType="-99"/>
                  </Node>
                </Node>
              </Node>
              <Node pos="r" depth="4" NCoef="0" IVar="3" Cut="9.9045330286026001e-01" cType="1" res="1.0871968418359756e-01" rms="4.7149917483329773e-01" purity="6.6221094131469727e-01" nType="0">
                <Node pos="l" depth="5" NCoef="0" IVar="-1" Cut="0.0000000000000000e+00" cType="1" res="4.3440549634397030e-03" rms="4.8877781629562378e-01" purity="6.0196292400360107e-01" nType="-99"/>
                <Node pos="r" depth="5" NCoef="0" IVar="-1" Cut="0.0000000000000000e+00" cType="1" res="1.0809463448822498e-02" rms="4.5706430077552795e-01" purity="6.9955319166183472e-01" nType="-99"/>
              </Node>
            </Node>
            <Node pos="r" depth="3" NCoef="0" IVar="5" Cut="-4.8374351859092712e-01" cType="1" res="9.4870202243328094e-02" rms="4.8213121294975281e-01" purity="6.2152117490768433e-01" nType="0">
              <Node pos="l" depth="4" NCoef="0" IVar="7" Cut="2.0000000000000000e+00" cType="1" res="1.2137670814990997e-01" rms="4.7419497370719910e-01" purity="6.5440201759338379e-01" nType="0">
                <Node pos="l" depth="5" NCoef="0" IVar="5" Cut="-1.4653395414352417e+00" cType="1" res="1.3733793795108795e-01" rms="4.6772876381874084e-01" purity="6.7414683103561401e-01" nType="0">
                  <Node pos="l" depth="6" NCoef="0" IVar="-1" Cut="0.0000000000000000e+00" cType="1" res="1.2953632511198521e-02" rms="4.5337226986885071e-01" purity="7.0979696512222290e-01" nType="-99"/>
                  <Node pos="r" depth="6" NCoef="0" IVar="4" Cut="-7.6249338686466217e-02" cType="1" res="1.2136838585138321e-01" rms="4.7496959567070007e-01" purity="6.5384966135025024e-01" nType="0">
                    <Node pos="l" depth="7" NCoef="0" IVar="-1" Cut="0.0000000000000000e+00" cType="1" res="8.4579242393374443e-03" rms="4.7904887795448303e-01" purity="6.4101195335388184e-01" nType="-99"/>
                    <Node pos="r" depth="7" NCoef="0" IVar="-1" Cut="0.0000000000000000e+00" cType="1" res="1.1404708959162235e-02" rms="4.6850433945655823e-01" purity="6.7213606834411621e-01" nType="-99"/>
                  </Node>
                </Node>
                <Node pos="r" depth="5" NCoef="0" IVar="4" Cut="-8.8403183221817017e-01" cType="1" res="9.5506325364112854e-02" rms="4.8379918932914734e-01" purity="6.2369590997695923e-01" nType="0">
                  <Node pos="l" depth="6" NCoef="0" IVar="-1" Cut="0.0000000000000000e+00" cType="1" res="9.7079081460833549e-03" rms="4.7753739356994629e-01" purity="6.4675158262252808e-01" nType="-99"/>
                  <Node pos="r" depth="6" NCoef="0" IVar="-1" Cut="0.0000000000000000e+00" cType="1" res="6.1151706613600254e-03" rms="4.8974737524986267e-01" purity="5.9755080938339233e-01" nType="-99"/>
                </Node>
              </Node>
              <Node pos="r" depth="4" NCoef="0" IVar="-1" Cut="0.0000000000000000e+00" cType="1" res="-2.0430588629096746e-03" rms="4.9835932254791260e-01" purity="4.7272399067878723e-01" nType="-99"/>
            </Node>
          </Node>
        </Node>
      </Node>
    </BinaryTree>
    <BinaryTree type="DecisionTree" boostWeight="1.0000000000000000e+00" itree="7">
      <Node pos="s" depth="0" NCoef="0" IVar="3" Cut="6.6849672794342041e-01" cType="1" res="1.0790117084980011e-02" rms="4.5810920000076294e-01" purity="5.0023329257965088e-01" nType="0">
        <Node pos="l" depth="1" NCoef="0" IVar="3" Cut="4.7445783019065857e-01" cType="1" res="-2.0766133069992065e-01" rms="3.7772181630134583e-01" purity="1.9308115541934967e-01" nType="0">
          <Node pos="l" depth="2" NCoef="0" IVar="6" Cut="1.1563894897699356e-01" cType="1" res="-2.6525759696960449e-01" rms="2.9800447821617126e-01" purity="1.0353921353816986e-01" nType="0">
            <Node pos="l" depth="3" NCoef="0" IVar="4" Cut="6.9124007225036621e-01" cType="1" res="-2.9198846220970154e-01" rms="2.4159790575504303e-01" purity="6.4048983156681061e-02" nType="0">
              <Node pos="l" depth="4" NCoef="0" IVar="3" Cut="4.4384774565696716e-01" cType="1" res="-2.7893778681755066e-01" rms="2.7220568060874939e-01" purity="8.2561090588569641e-02" nType="0">
                <Node pos="l" depth="5" NCoef="0" IVar="2" Cut="1.1176007080078125e+02" cType="1" res="-2.8657364845275879e-01" rms="2.5427889823913574e-01" purity="7.0629075169563293e-02" nType="0">
                  <Node pos="l" depth="6" NCoef="0" IVar="6" Cut="4.8865649849176407e-02" cType="1" res="-2.6997709274291992e-01" rms="2.7997049689292908e-01" purity="8.7113693356513977e-02" nType="0">
                    <Node pos="l" depth="7" NCoef="0" IVar="-1" Cut="0.0000000000000000e+00" cType="1" res="-3.5997398197650909e-02" rms="2.5658902525901794e-01" purity="7.1753554046154022e-02" nType="-99"/>
                    <Node pos="r" depth="7" NCoef="0" IVar="-1" Cut="0.0000000000000000e+00" cType="1" res="-3.2184753566980362e-02" rms="3.0476424098014832e-01" purity="1.0553008317947388e-01" nType="-99"/>
                  </Node>
                  <Node pos="r" depth="6" NCoef="0" IVar="6" Cut="9.4219855964183807e-02" cType="1" res="-2.9601198434829712e-01" rms="2.3792082071304321e-01" purity="6.1254397034645081e-02" nType="0">
                    <Node pos="l" depth="7" NCoef="0" IVar="-1" Cut="0.0000000000000000e+00" cType="1" res="-3.7478756159543991e-02" rms="2.1834886074066162e-01" purity="5.0544790923595428e-02" nType="-99"/>
                    <Node pos="r" depth="7" NCoef="0" IVar="-1" Cut="0.0000000000000000e+00" cType="1" res="-3.4123562276363373e-02" rms="2.7576035261154175e-01" purity="8.5352547466754913e-02" nType="-99"/>
                  </Node>
                </Node>
                <Node pos="r" depth="5" NCoef="0" IVar="-1" Cut="0.0000000000000000e+00" cType="1" res="-2.5055835023522377e-02" rms="3.6706757545471191e-01" purity="1.6308151185512543e-01" nType="-99"/>
              </Node>
              <Node pos="r" depth="4" NCoef="0" IVar="4" Cut="1.6269593238830566e+00" cType="1" res="-3.1697660684585571e-01" rms="1.6525061428546906e-01" purity="2.8603920713067055e-02" nType="0">
                <Node pos="l" depth="5" NCoef="0" IVar="-1" Cut="0.0000000000000000e+00" cType="1" res="-3.7048403173685074e-02" rms="2.2278442978858948e-01" purity="5.3144194185733795e-02" nType="-99"/>
                <Node pos="r" depth="5" NCoef="0" IVar="4" Cut="2.5324542522430420e+00" cType="1" res="-3.2399281859397888e-01" rms="1.2888196110725403e-01" purity="1.7014006152749062e-02" nType="0">
                  <Node pos="l" depth="6" NCoef="0" IVar="-1" Cut="0.0000000000000000e+00" cType="1" res="-4.0159929543733597e-02" rms="1.6436675190925598e-01" purity="2.8123505413532257e-02" nType="-99"/>
                  <Node pos="r" depth="6" NCoef="0" IVar="-1" Cut="0.0000000000000000e+00" cType="1" res="-4.1395302861928940e-02" rms="1.0367563366889954e-01" purity="1.0803107172250748e-02" nType="-99"/>
                </Node>
              </Node>
            </Node>
            <Node pos="r" depth="3" NCoef="0" IVar="4" Cut="8.1775343418121338e-01" cType="1" res="-2.3889769613742828e-01" rms="3.4266886115074158e-01" purity="1.4248141646385193e-01" nType="0">
              <Node pos="l" depth="4" NCoef="0" IVar="1" Cut="5.1594406366348267e-01" cType="1" res="-2.1608975529670715e-01" rms="3.7495151162147522e-01" purity="1.7605693638324738e-01" nType="0">
                <Node pos="l" depth="5" NCoef="0" IVar="7" Cut="4.0000000000000000e+00" cType="1" res="1.9418469071388245e-01" rms="2.7260020375251770e-01" purity="2.0270809531211853e-01" nType="0">
                  <Node pos="l" depth="6" NCoef="0" IVar="-1" Cut="0.0000000000000000e+00" cType="1" res="-1.0656576603651047e-02" rms="4.5876118540763855e-01" purity="3.0835598707199097e-01" nType="-99"/>
                  <Node pos="r" depth="6" NCoef="0" IVar="3" Cut="3.6727049946784973e-01" cType="1" res="-2.1224501729011536e-01" rms="3.7811201810836792e-01" purity="1.7902185022830963e-01" nType="0">
                    <Node pos="l" depth="7" NCoef="0" IVar="-1" Cut="0.0000000000000000e+00" cType="1" res="-2.8298188000917435e-02" rms="3.4595113992691040e-01" purity="1.4251393079757690e-01" nType="-99"/>
                    <Node pos="r" depth="7" NCoef="0" IVar="-1" Cut="0.0000000000000000e+00" cType="1" res="-1.4834121800959110e-02" rms="4.3994790315628052e-01" purity="2.6759207248687744e-01" nType="-99"/>
                  </Node>
                </Node>
                <Node pos="r" depth="5" NCoef="0" IVar="7" Cut="6.0000000000000000e+00" cType="1" res="1.7062471807003021e-01" rms="0.0000000000000000e+00" purity="1.1194305866956711e-01" nType="0">
                  <Node pos="l" depth="6" NCoef="0" IVar="-1" Cut="0.0000000000000000e+00" cType="1" res="-2.9519990086555481e-02" rms="3.4620073437690735e-01" purity="1.4276756346225739e-01" nType="-99"/>
                  <Node pos="r" depth="6" NCoef="0" IVar="-1" Cut="0.0000000000000000e+00" cType="1" res="-3.6622010171413422e-02" rms="2.6869291067123413e-01" purity="8.0553315579891205e-02" nType="-99"/>
                </Node>
              </Node>
              <Node pos="r" depth="4" NCoef="0" IVar="3" Cut="2.3410005867481232e-01" cType="1" res="-2.8252813220024109e-01" rms="2.6496511697769165e-01" purity="7.8253179788589478e-02" nType="0">
                <Node pos="l" depth="5" NCoef="0" IVar="-1" Cut="0.0000000000000000e+00" cType="1" res="-3.2881502062082291e-02" rms="2.9828405380249023e-01" purity="1.0154471546411514e-01" nType="-99"/>
                <Node pos="r" depth="5" NCoef="0" IVar="5" Cut="1.3884422779083252e+00" cType="1" res="-2.9252186417579651e-01" rms="2.4690414965152740e-01" purity="6.7163705825805664e-02" nType="0">
                  <Node pos="l" depth="6" NCoef="0" IVar="-1" Cut="0.0000000000000000e+00" cType="1" res="-3.1683899462223053e-02" rms="2.9481834173202515e-01" purity="9.8708815872669220e-02" nType="-99"/>
                  <Node pos="r" depth="6" NCoef="0" IVar="-1" Cut="0.0000000000000000e+00" cType="1" res="-4.0240392088890076e-02" rms="1.5866848826408386e-01" purity="2.6024587452411652e-02" nType="-99"/>
                </Node>
              </Node>
            </Node>
          </Node>
          <Node pos="r" depth="2" NCoef="0" IVar="4" Cut="1.7993263006210327e+00" cType="1" res="-1.1877408623695374e-01" rms="4.6128657460212708e-01" purity="3.3126950263977051e-01" nType="0">
            <Node pos="l" depth="3" NCoef="0" IVar="0" Cut="3.0081102252006531e-01" cType="1" res="-1.0182500630617142e-01" rms="4.7063446044921875e-01" purity="3.5327780246734619e-01" nType="0">
              <Node pos="l" depth="4" NCoef="0" IVar="5" Cut="-1.6760346889495850e+00" cType="1" res="-2.6019725948572159e-02" rms="4.9501031637191772e-01" purity="4.5742198824882507e-01" nType="0">
                <Node pos="l" depth="5" NCoef="0" IVar="2" Cut="2.0606872558593750e+02" cType="1" res="1.8277089111506939e-03" rms="4.9833357334136963e-01" purity="4.9168601632118225e-01" nType="0">
                  <Node pos="l" depth="6" NCoef="0" IVar="-1" Cut="0.0000000000000000e+00" cType="1" res="2.3785235825926065e-03" rms="4.9779453873634338e-01" purity="5.2386277914047241e-01" nType="-99"/>
                  <Node pos="r" depth="6" NCoef="0" IVar="-1" Cut="0.0000000000000000e+00" cType="1" res="-2.4033626541495323e-03" rms="4.9732089042663574e-01" purity="4.5751479268074036e-01" nType="-99"/>
                </Node>
                <Node pos="r" depth="5" NCoef="0" IVar="-1" Cut="0.0000000000000000e+00" cType="1" res="-7.3068053461611271e-03" rms="4.8369288444519043e-01" purity="3.8974937796592712e-01" nType="-99"/>
              </Node>
              <Node pos="r" depth="4" NCoef="0" IVar="1" Cut="5.1636362075805664e-01" cType="1" res="-1.4540232717990875e-01" rms="4.5029231905937195e-01" purity="2.9340961575508118e-01" nType="0">
                <Node pos="l" depth="5" NCoef="0" IVar="2" Cut="1.6048963928222656e+02" cType="1" res="-1.2091431766748428e-01" rms="4.6281617879867554e-01" purity="3.2184359431266785e-01" nType="0">
                  <Node pos="l" depth="6" NCoef="0" IVar="6" Cut="6.9934718310832977e-02" cType="1" res="-8.8397294282913208e-02" rms="4.7482314705848694e-01" purity="3.5721167922019958e-01" nType="0">
                    <Node pos="l" depth="7" NCoef="0" IVar="-1" Cut="0.0000000000000000e+00" cType="1" res="-1.1786689050495625e-02" rms="4.6248894929885864e-01" purity="3.2063278555870056e-01" nType="-99"/>
                    <Node pos="r" depth="7" NCoef="0" IVar="-1" Cut="0.0000000000000000e+00" cType="1" res="-1.5563175547868013e-03" rms="4.9074879288673401e-01" purity="4.2936769127845764e-01" nType="-99"/>
                  </Node>
                  <Node pos="r" depth="6" NCoef="0" IVar="0" Cut="5.4100310802459717e-01" cType="1" res="-1.5767148137092590e-01" rms="4.4601148366928101e-01" purity="2.8186362981796265e-01" nType="0">
                    <Node pos="l" depth="7" NCoef="0" IVar="-1" Cut="0.0000000000000000e+00" cType="1" res="-1.1494433507323265e-02" rms="4.7130033373832703e-01" purity="3.3776149153709412e-01" nType="-99"/>
                    <Node pos="r" depth="7" NCoef="0" IVar="-1" Cut="0.0000000000000000e+00" cType="1" res="-1.8743729218840599e-02" rms="4.2342913150787354e-01" purity="2.3888239264488220e-01" nType="-99"/>
                  </Node>
                </Node>
                <Node pos="r" depth="5" NCoef="0" IVar="3" Cut="5.5582797527313232e-01" cType="1" res="-2.2768580913543701e-01" rms="3.9440092444419861e-01" purity="1.9786699116230011e-01" nType="0">
                  <Node pos="l" depth="6" NCoef="0" IVar="-1" Cut="0.0000000000000000e+00" cType="1" res="-2.6158981025218964e-02" rms="3.6927324533462524e-01" purity="1.6642338037490845e-01" nType="-99"/>
                  <Node pos="r" depth="6" NCoef="0" IVar="-1" Cut="0.0000000000000000e+00" cType="1" res="-2.1359538659453392e-02" rms="4.1587576270103455e-01" purity="2.2731310129165649e-01" nType="-99"/>
                </Node>
              </Node>
            </Node>
            <Node pos="r" depth="3" NCoef="0" IVar="-1" Cut="0.0000000000000000e+00" cType="1" res="-3.3325303345918655e-02" rms="2.7561527490615845e-01" purity="8.4776900708675385e-02" nType="-99"/>
          </Node>
        </Node>
        <Node pos="r" depth="1" NCoef="0" IVar="3" Cut="8.1633430719375610e-01" cType="1" res="1.5578271448612213e-01" rms="4.4918090105056763e-01" purity="7.0409905910491943e-01" nType="0">
          <Node pos="l" depth="2" NCoef="0" IVar="5" Cut="-1.5457618236541748e+00" cType="1" res="5.9104777872562408e-02" rms="4.8888882994651794e-01" purity="5.7504135370254517e-01" nType="0">
            <Node pos="l" depth="3" NCoef="0" IVar="0" Cut="3.6592659354209900e-01" cType="1" res="9.1565601527690887e-02" rms="4.8321712017059326e-01" purity="6.1549866199493408e-01" nType="0">
              <Node pos="l" depth="4" NCoef="0" IVar="0" Cut="2.1247015893459320e-01" cType="1" res="1.0862006247043610e-01" rms="4.7846585512161255e-01" purity="6.3750970363616943e-01" nType="0">
                <Node pos="l" depth="5" NCoef="0" IVar="1" Cut="-3.8841478526592255e-02" cType="1" res="1.3091795146465302e-01" rms="4.7044780850410461e-01" purity="6.6531139612197876e-01" nType="0">
                  <Node pos="l" depth="6" NCoef="0" IVar="3" Cut="7.6864987611770630e-01" cType="1" res="1.6562531888484955e-01" rms="4.5515725016593933e-01" purity="7.0529073476791382e-01" nType="0">
                    <Node pos="l" depth="7" NCoef="0" IVar="-1" Cut="0.0000000000000000e+00" cType="1" res="1.1307640932500362e-02" rms="4.6625709533691406e-01" purity="6.7944878339767456e-01" nType="-99"/>
                    <Node pos="r" depth="7" NCoef="0" IVar="-1" Cut="0.0000000000000000e+00" cType="1" res="1.4673385769128799e-02" rms="4.3881893157958984e-01" purity="7.3923110961914062e-01" nType="-99"/>
                  </Node>
                  <Node pos="r" depth="6" NCoef="0" IVar="3" Cut="7.4963575601577759e-01" cType="1" res="1.0735230147838593e-01" rms="4.7912159562110901e-01" purity="6.3816612958908081e-01" nType="0">
                    <Node pos="l" depth="7" NCoef="0" IVar="-1" Cut="0.0000000000000000e+00" cType="1" res="6.1562391929328442e-03" rms="4.8978623747825623e-01" purity="5.9624725580215454e-01" nType="-99"/>
                    <Node pos="r" depth="7" NCoef="0" IVar="-1" Cut="0.0000000000000000e+00" cType="1" res="1.0234408080577850e-02" rms="4.6924689412117004e-01" purity="6.7043340206146240e-01" nType="-99"/>
                  </Node>
                </Node>
                <Node pos="r" depth="5" NCoef="0" IVar="2" Cut="9.8295440673828125e+01" cType="1" res="5.5035453289747238e-02" rms="4.9309983849525452e-01" purity="5.7069879770278931e-01" nType="0">
                  <Node pos="l" depth="6" NCoef="0" IVar="-1" Cut="0.0000000000000000e+00" cType="1" res="7.5040571391582489e-03" rms="4.8676013946533203e-01" purity="6.0689777135848999e-01" nType="-99"/>
                  <Node pos="r" depth="6" NCoef="0" IVar="-1" Cut="0.0000000000000000e+00" cType="1" res="2.1132291294634342e-03" rms="4.9679777026176453e-01" purity="5.3724604845046997e-01" nType="-99"/>
                </Node>
              </Node>
              <Node pos="r" depth="4" NCoef="0" IVar="-1" Cut="0.0000000000000000e+00" cType="1" res="-3.6014107172377408e-04" rms="4.9835431575775146e-01" purity="4.9179005622863770e-01" nType="-99"/>
            </Node>
            <Node pos="r" depth="3" NCoef="0" IVar="5" Cut="-4.1909641027450562e-01" cType="1" res="-2.7700444683432579e-02" rms="4.9335923790931702e-01" purity="4.6685239672660828e-01" nType="0">
              <Node pos="l" depth="4" NCoef="0" IVar="5" Cut="-1.0006902217864990e+00" cType="1" res="1.4345914125442505e-02" rms="4.9663007259368896e-01" purity="5.2256155014038086e-01" nType="0">
                <Node pos="l" depth="5" NCoef="0" IVar="-1" Cut="0.0000000000000000e+00" cType="1" res="3.6558422725647688e-03" rms="4.9433168768882751e-01" purity="5.5837196111679077e-01" nType="-99"/>
                <Node pos="r" depth="5" NCoef="0" IVar="-1" Cut="0.0000000000000000e+00" cType="1" res="-2.9390354175120592e-03" rms="4.9670931696891785e-01" purity="4.6409401297569275e-01" nType="-99"/>
              </Node>
              <Node pos="r" depth="4" NCoef="0" IVar="-1" Cut="0.0000000000000000e+00" cType="1" res="-1.2178470380604267e-02" rms="4.6972516179084778e-01" purity="3.3083373308181763e-01" nType="-99"/>
            </Node>
          </Node>
          <Node pos="r" depth="2" NCoef="0" IVar="5" Cut="-2.1259143352508545e+00" cType="1" res="1.8927763402462006e-01" rms="4.2953252792358398e-01" purity="7.4881231784820557e-01" nType="0">
            <Node pos="l" depth="3" NCoef="0" IVar="4" Cut="-1.0739719867706299e+00" cType="1" res="2.2140242159366608e-01" rms="4.0550589561462402e-01" purity="7.9014164209365845e-01" nType="0">
              <Node pos="l" depth="4" NCoef="0" IVar="3" Cut="8.8094156980514526e-01" cType="1" res="1.8888510763645172e-01" rms="4.3302276730537415e-01" purity="7.4812376499176025e-01" nType="0">
                <Node pos="l" depth="5" NCoef="0" IVar="3" Cut="8.6217504739761353e-01" cType="1" res="1.6447572410106659e-01" rms="4.4763851165771484e-01" purity="7.2076660394668579e-01" nType="0">
                  <Node pos="l" depth="6" NCoef="0" IVar="2" Cut="8.8279197692871094e+01" cType="1" res="1.4930823445320129e-01" rms="4.5543110370635986e-01" purity="7.0402908325195312e-01" nType="0">
                    <Node pos="l" depth="7" NCoef="0" IVar="-1" Cut="0.0000000000000000e+00" cType="1" res="1.2774288654327393e-02" rms="4.4526818394660950e-01" purity="7.2559744119644165e-01" nType="-99"/>
                    <Node pos="r" depth="7" NCoef="0" IVar="-1" Cut="0.0000000000000000e+00" cType="1" res="1.0194581933319569e-02" rms="4.6576187014579773e-01" purity="6.7898422479629517e-01" nType="-99"/>
                  </Node>
                  <Node pos="r" depth="6" NCoef="0" IVar="-1" Cut="0.0000000000000000e+00" cType="1" res="1.5856994315981865e-02" rms="4.3128010630607605e-01" purity="7.5203168392181396e-01" nType="-99"/>
                </Node>
                <Node pos="r" depth="5" NCoef="0" IVar="4" Cut="-2.0486464500427246e+00" cType="1" res="2.0327132940292358e-01" rms="4.2351442575454712e-01" purity="7.6424729824066162e-01" nType="0">
                  <Node pos="l" depth="6" NCoef="0" IVar="4" Cut="-2.8409011363983154e+00" cType="1" res="2.2737279534339905e-01" rms="4.0499746799468994e-01" purity="7.9208326339721680e-01" nType="0">
                    <Node pos="l" depth="7" NCoef="0" IVar="-1" Cut="0.0000000000000000e+00" cType="1" res="1.9699862226843834e-02" rms="3.9426767826080322e-01" purity="8.0694144964218140e-01" nType="-99"/>
                    <Node pos="r" depth="7" NCoef="0" IVar="-1" Cut="0.0000000000000000e+00" cType="1" res="1.8707387149333954e-02" rms="4.1201943159103394e-01" purity="7.8196626901626587e-01" nType="-99"/>
                  </Node>
                  <Node pos="r" depth="6" NCoef="0" IVar="4" Cut="-1.8285040855407715e+00" cType="1" res="1.8562896549701691e-01" rms="4.3572700023651123e-01" purity="7.4387133121490479e-01" nType="0">
                    <Node pos="l" depth="7" NCoef="0" IVar="-1" Cut="0.0000000000000000e+00" cType="1" res="1.1766522191464901e-02" rms="4.4674459099769592e-01" purity="7.2263646125793457e-01" nType="-99"/>
                    <Node pos="r" depth="7" NCoef="0" IVar="-1" Cut="0.0000000000000000e+00" cType="1" res="1.3713241554796696e-02" rms="4.3093028664588928e-01" purity="7.5244772434234619e-01" nType="-99"/>
                  </Node>
                </Node>
              </Node>
              <Node pos="r" depth="4" NCoef="0" IVar="5" Cut="-3.0251128673553467e+00" cType="1" res="2.4232475459575653e-01" rms="3.8531920313835144e-01" purity="8.1717681884765625e-01" nType="0">
                <Node pos="l" depth="5" NCoef="0" IVar="4" Cut="-5.3383934497833252e-01" cType="1" res="2.6684254407882690e-01" rms="3.6054009199142456e-01" purity="8.4562748670578003e-01" nType="0">
                  <Node pos="l" depth="6" NCoef="0" IVar="4" Cut="-7.4279451370239258e-01" cType="1" res="2.5952735543251038e-01" rms="3.6839315295219421e-01" purity="8.3723193407058716e-01" nType="0">
                    <Node pos="l" depth="7" NCoef="0" IVar="-1" Cut="0.0000000000000000e+00" cType="1" res="1.9336894154548645e-02" rms="3.6779078841209412e-01" purity="8.3787435293197632e-01" nType="-99"/>
                    <Node pos="r" depth="7" NCoef="0" IVar="-1" Cut="0.0000000000000000e+00" cType="1" res="1.9222410395741463e-02" rms="3.6906248331069946e-01" purity="8.3648961782455444e-01" nType="-99"/>
                  </Node>
                  <Node pos="r" depth="6" NCoef="0" IVar="4" Cut="-6.3744321465492249e-02" cType="1" res="2.7147430181503296e-01" rms="3.5540026426315308e-01" purity="8.5094326734542847e-01" nType="0">
                    <Node pos="l" depth="7" NCoef="0" IVar="-1" Cut="0.0000000000000000e+00" cType="1" res="2.1931599825620651e-02" rms="3.5053876042366028e-01" purity="8.5573518276214600e-01" nType="-99"/>
                    <Node pos="r" depth="7" NCoef="0" IVar="-1" Cut="0.0000000000000000e+00" cType="1" res="2.1365750581026077e-02" rms="3.6348584294319153e-01" purity="8.4268462657928467e-01" nType="-99"/>
                  </Node>
                </Node>
                <Node pos="r" depth="5" NCoef="0" IVar="5" Cut="-2.5900006294250488e+00" cType="1" res="2.2830255329608917e-01" rms="3.9812123775482178e-01" purity="8.0090534687042236e-01" nType="0">
                  <Node pos="l" depth="6" NCoef="0" IVar="3" Cut="1.0017914772033691e+00" cType="1" res="2.4288471043109894e-01" rms="3.8498309254646301e-01" purity="8.1788074970245361e-01" nType="0">
                    <Node pos="l" depth="7" NCoef="0" IVar="-1" Cut="0.0000000000000000e+00" cType="1" res="1.8660612404346466e-02" rms="3.9107009768486023e-01" purity="8.1026822328567505e-01" nType="-99"/>
                    <Node pos="r" depth="7" NCoef="0" IVar="-1" Cut="0.0000000000000000e+00" cType="1" res="1.9454924389719963e-02" rms="3.7241634726524353e-01" purity="8.3278393745422363e-01" nType="-99"/>
                  </Node>
                  <Node pos="r" depth="6" NCoef="0" IVar="4" Cut="-3.3104124665260315e-01" cType="1" res="2.0856213569641113e-01" rms="4.1442844271659851e-01" purity="7.7792507410049438e-01" nType="0">
                    <Node pos="l" depth="7" NCoef="0" IVar="-1" Cut="0.0000000000000000e+00" cType="1" res="1.5205726958811283e-02" rms="4.2229214310646057e-01" purity="7.6564663648605347e-01" nType="-99"/>
                    <Node pos="r" depth="7" NCoef="0" IVar="-1" Cut="0.0000000000000000e+00" cType="1" res="1.7498837783932686e-02" rms="4.0823990106582642e-01" purity="7.8708136081695557e-01" nType="-99"/>
                  </Node>
                </Node>
              </Node>
            </Node>
            <Node pos="r" depth="3" NCoef="0" IVar="5" Cut="-6.5454852581024170e-01" cType="1" res="1.1882144212722778e-01" rms="4.7039693593978882e-01" purity="6.5816861391067505e-01" nType="0">
              <Node pos="l" depth="4" NCoef="0" IVar="5" Cut="-1.6039282083511353e+00" cType="1" res="1.4291162788867950e-01" rms="4.6082276105880737e-01" purity="6.9024878740310669e-01" nType="0">
                <Node pos="l" depth="5" NCoef="0" IVar="3" Cut="8.7859576940536499e-01" cType="1" res="1.6489057242870331e-01" rms="4.4814077019691467e-01" purity="7.1957647800445557e-01" nType="0">
                  <Node pos="l" depth="6" NCoef="0" IVar="-1" Cut="0.0000000000000000e+00" cType="1" res="9.9415937438607216e-03" rms="4.6899929642677307e-01" purity="6.7177796363830566e-01" nType="-99"/>
                  <Node pos="r" depth="6" NCoef="0" IVar="4" Cut="-1.6774934530258179e-01" cType="1" res="1.7753414809703827e-01" rms="4.4046291708946228e-01" purity="7.3498481512069702e-01" nType="0">
                    <Node pos="l" depth="7" NCoef="0" IVar="-1" Cut="0.0000000000000000e+00" cType="1" res="1.3021291233599186e-02" rms="4.4822087883949280e-01" purity="7.1993130445480347e-01" nType="-99"/>
                    <Node pos="r" depth="7" NCoef="0" IVar="-1" Cut="0.0000000000000000e+00" cType="1" res="1.6259441152215004e-02" rms="4.2640650272369385e-01" purity="7.6025819778442383e-01" nType="-99"/>
                  </Node>
                </Node>
                <Node pos="r" depth="5" NCoef="0" IVar="7" Cut="2.0000000000000000e+00" cType="1" res="1.1576829850673676e-01" rms="4.7431346774101257e-01" purity="6.5308904647827148e-01" nType="0">
                  <Node pos="l" depth="6" NCoef="0" IVar="4" Cut="-1.2548263370990753e-01" cType="1" res="1.3748586177825928e-01" rms="4.6566599607467651e-01" purity="6.8027979135513306e-01" nType="0">
                    <Node pos="l" depth="7" NCoef="0" IVar="-1" Cut="0.0000000000000000e+00" cType="1" res="8.6741838604211807e-03" rms="4.7571253776550293e-01" purity="6.5224456787109375e-01" nType="-99"/>
                    <Node pos="r" depth="7" NCoef="0" IVar="-1" Cut="0.0000000000000000e+00" cType="1" res="1.4109433628618717e-02" rms="4.4917762279510498e-01" purity="7.1833622455596924e-01" nType="-99"/>
                  </Node>
                  <Node pos="r" depth="6" NCoef="0" IVar="-1" Cut="0.0000000000000000e+00" cType="1" res="7.0512141101062298e-03" rms="4.8580807447433472e-01" purity="6.1542266607284546e-01" nType="-99"/>
                </Node>
              </Node>
              <Node pos="r" depth="4" NCoef="0" IVar="5" Cut="-3.3369633555412292e-01" cType="1" res="-4.7072733286768198e-04" rms="4.9831548333168030e-01" purity="4.9931091070175171e-01" nType="0">
                <Node pos="l" depth="5" NCoef="0" IVar="-1" Cut="0.0000000000000000e+00" cType="1" res="3.9575477130711079e-03" rms="4.9627226591110229e-01" purity="5.5690884590148926e-01" nType="-99"/>
                <Node pos="r" depth="5" NCoef="0" IVar="-1" Cut="0.0000000000000000e+00" cType="1" res="-3.5772905685007572e-03" rms="4.9645295739173889e-01" purity="4.5053732395172119e-01" nType="-99"/>
              </Node>
            </Node>
          </Node>
        </Node>
      </Node>
    </BinaryTree>
    <BinaryTree type="DecisionTree" boostWeight="1.0000000000000000e+00" itree="8">
      <Node pos="s" depth="0" NCoef="0" IVar="3" Cut="6.7608582973480225e-01" cType="1" res="1.1728121899068356e-02" rms="4.5388138294219971e-01" purity="5.0038945674896240e-01" nType="0">
        <Node pos="l" depth="1" NCoef="0" IVar="3" Cut="5.4526060819625854e-01" cType="1" res="-1.9313938915729523e-01" rms="3.7899291515350342e-01" purity="1.9793128967285156e-01" nType="0">
          <Node pos="l" depth="2" NCoef="0" IVar="3" Cut="4.5733571052551270e-01" cType="1" res="-2.3760914802551270e-01" rms="3.2347646355628967e-01" purity="1.2779177725315094e-01" nType="0">
            <Node pos="l" depth="3" NCoef="0" IVar="6" Cut="1.5685297548770905e-01" cType="1" res="-2.5492641329765320e-01" rms="2.8975847363471985e-01" purity="9.7319871187210083e-02" nType="0">
              <Node pos="l" depth="4" NCoef="0" IVar="4" Cut="1.4770510196685791e+00" cType="1" res="-2.7385547757148743e-01" rms="2.4742835760116577e-01" purity="6.7858822643756866e-02" nType="0">
                <Node pos="l" depth="5" NCoef="0" IVar="6" Cut="1.0131425410509109e-01" cType="1" res="-2.6268038153648376e-01" rms="2.7519148588180542e-01" purity="8.4965027868747711e-02" nType="0">
                  <Node pos="l" depth="6" NCoef="0" IVar="2" Cut="5.8729419708251953e+01" cType="1" res="-2.7619338035583496e-01" rms="2.4554258584976196e-01" purity="6.5472960472106934e-02" nType="0">
                    <Node pos="l" depth="7" NCoef="0" IVar="-1" Cut="0.0000000000000000e+00" cType="1" res="-3.1275991350412369e-02" rms="2.9409551620483398e-01" purity="9.7420424222946167e-02" nType="-99"/>
                    <Node pos="r" depth="7" NCoef="0" IVar="-1" Cut="0.0000000000000000e+00" cType="1" res="-3.5851422697305679e-02" rms="2.3379676043987274e-01" purity="5.8911684900522232e-02" nType="-99"/>
                  </Node>
                  <Node pos="r" depth="6" NCoef="0" IVar="3" Cut="3.9919885993003845e-01" cType="1" res="-2.4048797786235809e-01" rms="3.1669187545776367e-01" purity="1.1697687208652496e-01" nType="0">
                    <Node pos="l" depth="7" NCoef="0" IVar="-1" Cut="0.0000000000000000e+00" cType="1" res="-3.3125702291727066e-02" rms="2.8050729632377625e-01" purity="8.7370343506336212e-02" nType="-99"/>
                    <Node pos="r" depth="7" NCoef="0" IVar="-1" Cut="0.0000000000000000e+00" cType="1" res="-1.9786080345511436e-02" rms="4.0575820207595825e-01" purity="2.1097826957702637e-01" nType="-99"/>
                  </Node>
                </Node>
                <Node pos="r" depth="5" NCoef="0" IVar="5" Cut="1.4944252967834473e+00" cType="1" res="-3.0530345439910889e-01" rms="1.3801749050617218e-01" purity="1.9719991832971573e-02" nType="0">
                  <Node pos="l" depth="6" NCoef="0" IVar="-1" Cut="0.0000000000000000e+00" cType="1" res="-3.8511682301759720e-02" rms="1.7076911032199860e-01" purity="3.0480071902275085e-02" nType="-99"/>
                  <Node pos="r" depth="6" NCoef="0" IVar="5" Cut="3.2614078521728516e+00" cType="1" res="-3.1175374984741211e-01" rms="9.6292220056056976e-02" purity="9.4085279852151871e-03" nType="0">
                    <Node pos="l" depth="7" NCoef="0" IVar="-1" Cut="0.0000000000000000e+00" cType="1" res="-4.0730662643909454e-02" rms="1.1217863112688065e-01" purity="1.2793831527233124e-02" nType="-99"/>
                    <Node pos="r" depth="7" NCoef="0" IVar="-1" Cut="0.0000000000000000e+00" cType="1" res="-4.1272375732660294e-02" rms="7.7899508178234100e-02" purity="6.1409650370478630e-03" nType="-99"/>
                  </Node>
                </Node>
              </Node>
              <Node pos="r" depth="4" NCoef="0" IVar="5" Cut="-1.4630157947540283e+00" cType="1" res="-2.1512274444103241e-01" rms="3.5977461934089661e-01" purity="1.5927006304264069e-01" nType="0">
                <Node pos="l" depth="5" NCoef="0" IVar="7" Cut="7.0000000000000000e+00" cType="1" res="0.0000000000000000e+00" rms="0.0000000000000000e+00" purity="2.1123595535755157e-01" nType="0">
                  <Node pos="l" depth="6" NCoef="0" IVar="7" Cut="5.0000000000000000e+00" cType="1" res="-1.4874863624572754e-01" rms="4.3084341287612915e-01" purity="2.5313112139701843e-01" nType="0">
                    <Node pos="l" depth="7" NCoef="0" IVar="-1" Cut="0.0000000000000000e+00" cType="1" res="-1.2656965292990208e-02" rms="4.5276281237602234e-01" purity="2.9328805208206177e-01" nType="-99"/>
                    <Node pos="r" depth="7" NCoef="0" IVar="-1" Cut="0.0000000000000000e+00" cType="1" res="-1.9738087430596352e-02" rms="4.0548807382583618e-01" purity="2.1207447350025177e-01" nType="-99"/>
                  </Node>
                  <Node pos="r" depth="6" NCoef="0" IVar="-1" Cut="0.0000000000000000e+00" cType="1" res="-2.7470052242279053e-02" rms="3.4657442569732666e-01" purity="1.4145690202713013e-01" nType="-99"/>
                </Node>
                <Node pos="r" depth="5" NCoef="0" IVar="3" Cut="2.5085541605949402e-01" cType="1" res="-2.5105345249176025e-01" rms="3.0628067255020142e-01" purity="1.0745931416749954e-01" nType="0">
                  <Node pos="l" depth="6" NCoef="0" IVar="-1" Cut="0.0000000000000000e+00" cType="1" res="-2.7329204604029655e-02" rms="3.4207937121391296e-01" purity="1.3840326666831970e-01" nType="-99"/>
                  <Node pos="r" depth="6" NCoef="0" IVar="3" Cut="3.3078563213348389e-01" cType="1" res="-2.7433118224143982e-01" rms="2.7223053574562073e-01" purity="8.2827478647232056e-02" nType="0">
                    <Node pos="l" depth="7" NCoef="0" IVar="-1" Cut="0.0000000000000000e+00" cType="1" res="-3.6047182977199554e-02" rms="2.4261429905891418e-01" purity="6.4712680876255035e-02" nType="-99"/>
                    <Node pos="r" depth="7" NCoef="0" IVar="-1" Cut="0.0000000000000000e+00" cType="1" res="-3.0840111896395683e-02" rms="2.9710853099822998e-01" purity="1.0002046078443527e-01" nType="-99"/>
                  </Node>
                </Node>
              </Node>
            </Node>
            <Node pos="r" depth="3" NCoef="0" IVar="0" Cut="6.4827066659927368e-01" cType="1" res="-1.7791002988815308e-01" rms="4.1390904784202576e-01" purity="2.3283977806568146e-01" nType="0">
              <Node pos="l" depth="4" NCoef="0" IVar="4" Cut="4.3146082758903503e-01" cType="1" res="-1.3087174296379089e-01" rms="4.5158109068870544e-01" purity="3.0103561282157898e-01" nType="0">
                <Node pos="l" depth="5" NCoef="0" IVar="0" Cut="2.7177307009696960e-01" cType="1" res="-9.8771765828132629e-02" rms="4.7282293438911438e-01" purity="3.4648880362510681e-01" nType="0">
                  <Node pos="l" depth="6" NCoef="0" IVar="-1" Cut="0.0000000000000000e+00" cType="1" res="-4.6368408948183060e-03" rms="4.8993641138076782e-01" purity="4.0709847211837769e-01" nType="-99"/>
                  <Node pos="r" depth="6" NCoef="0" IVar="-1" Cut="0.0000000000000000e+00" cType="1" res="-1.2892407365143299e-02" rms="4.5628142356872559e-01" purity="3.0048996210098267e-01" nType="-99"/>
                </Node>
                <Node pos="r" depth="5" NCoef="0" IVar="-1" Cut="0.0000000000000000e+00" cType="1" res="-2.0999319851398468e-02" rms="3.8958337903022766e-01" purity="1.9798628985881805e-01" nType="-99"/>
              </Node>
              <Node pos="r" depth="4" NCoef="0" IVar="2" Cut="1.3727648925781250e+02" cType="1" res="-2.2780328989028931e-01" rms="3.6318144202232361e-01" purity="1.6050478816032410e-01" nType="0">
                <Node pos="l" depth="5" NCoef="0" IVar="-1" Cut="0.0000000000000000e+00" cType="1" res="-2.0765107125043869e-02" rms="3.9020326733589172e-01" purity="1.9287793338298798e-01" nType="-99"/>
                <Node pos="r" depth="5" NCoef="0" IVar="-1" Cut="0.0000000000000000e+00" cType="1" res="-2.7381656691431999e-02" rms="3.4085524082183838e-01" purity="1.3736474514007568e-01" nType="-99"/>
              </Node>
            </Node>
          </Node>
          <Node pos="r" depth="2" NCoef="0" IVar="4" Cut="9.6569955348968506e-01" cType="1" res="-7.3679678142070770e-02" rms="4.7834625840187073e-01" purity="3.8634806871414185e-01" nType="0">
            <Node pos="l" depth="3" NCoef="0" IVar="0" Cut="3.6567077040672302e-01" cType="1" res="-5.2088607102632523e-02" rms="4.8711365461349487e-01" purity="4.1567784547805786e-01" nType="0">
              <Node pos="l" depth="4" NCoef="0" IVar="3" Cut="6.0857415199279785e-01" cType="1" res="-5.1310681737959385e-03" rms="4.9780127406120300e-01" purity="4.8565465211868286e-01" nType="0">
                <Node pos="l" depth="5" NCoef="0" IVar="-1" Cut="0.0000000000000000e+00" cType="1" res="-3.6359261721372604e-03" rms="4.9456778168678284e-01" purity="4.3914330005645752e-01" nType="-99"/>
                <Node pos="r" depth="5" NCoef="0" IVar="0" Cut="1.7690730094909668e-01" cType="1" res="1.5855295583605766e-02" rms="4.9850240349769592e-01" purity="5.1301574707031250e-01" nType="0">
                  <Node pos="l" depth="6" NCoef="0" IVar="-1" Cut="0.0000000000000000e+00" cType="1" res="2.8684504795819521e-03" rms="4.9769109487533569e-01" purity="5.3785169124603271e-01" nType="-99"/>
                  <Node pos="r" depth="6" NCoef="0" IVar="-1" Cut="0.0000000000000000e+00" cType="1" res="-1.4101983979344368e-03" rms="4.9820142984390259e-01" purity="4.7241091728210449e-01" nType="-99"/>
                </Node>
              </Node>
              <Node pos="r" depth="4" NCoef="0" IVar="1" Cut="4.5424854755401611e-01" cType="1" res="-1.0491736233234406e-01" rms="4.6921804547309875e-01" purity="3.3695167303085327e-01" nType="0">
                <Node pos="l" depth="5" NCoef="0" IVar="2" Cut="1.1051392364501953e+02" cType="1" res="-7.5668133795261383e-02" rms="4.8083388805389404e-01" purity="3.7204724550247192e-01" nType="0">
                  <Node pos="l" depth="6" NCoef="0" IVar="-1" Cut="0.0000000000000000e+00" cType="1" res="-2.9172166250646114e-03" rms="4.9111410975456238e-01" purity="4.1814717650413513e-01" nType="-99"/>
                  <Node pos="r" depth="6" NCoef="0" IVar="-1" Cut="0.0000000000000000e+00" cType="1" res="-9.8974285647273064e-03" rms="4.7147861123085022e-01" purity="3.4033095836639404e-01" nType="-99"/>
                </Node>
                <Node pos="r" depth="5" NCoef="0" IVar="-1" Cut="0.0000000000000000e+00" cType="1" res="-1.9431937485933304e-02" rms="4.2109134793281555e-01" purity="2.3275014758110046e-01" nType="-99"/>
              </Node>
            </Node>
            <Node pos="r" depth="3" NCoef="0" IVar="-1" Cut="0.0000000000000000e+00" cType="1" res="-2.1341100335121155e-02" rms="3.9063501358032227e-01" purity="1.9870001077651978e-01" nType="-99"/>
          </Node>
        </Node>
        <Node pos="r" depth="1" NCoef="0" IVar="3" Cut="8.2561016082763672e-01" cType="1" res="1.5138283371925354e-01" rms="4.4767463207244873e-01" purity="7.0657008886337280e-01" nType="0">
          <Node pos="l" depth="2" NCoef="0" IVar="5" Cut="-1.5457618236541748e+00" cType="1" res="5.9377823024988174e-02" rms="4.8797166347503662e-01" purity="5.8043003082275391e-01" nType="0">
            <Node pos="l" depth="3" NCoef="0" IVar="1" Cut="3.3702519536018372e-01" cType="1" res="8.5128746926784515e-02" rms="4.8308962583541870e-01" purity="6.1550402641296387e-01" nType="0">
              <Node pos="l" depth="4" NCoef="0" IVar="0" Cut="2.4652667343616486e-01" cType="1" res="1.0935936868190765e-01" rms="4.7629499435424805e-01" purity="6.4461851119995117e-01" nType="0">
                <Node pos="l" depth="5" NCoef="0" IVar="3" Cut="7.2915214300155640e-01" cType="1" res="1.3438653945922852e-01" rms="4.6607577800750732e-01" purity="6.7910873889923096e-01" nType="0">
                  <Node pos="l" depth="6" NCoef="0" IVar="-1" Cut="0.0000000000000000e+00" cType="1" res="8.1688426434993744e-03" rms="4.8203086853027344e-01" purity="6.3169217109680176e-01" nType="-99"/>
                  <Node pos="r" depth="6" NCoef="0" IVar="1" Cut="1.1966858990490437e-02" cType="1" res="1.4587615430355072e-01" rms="4.5999068021774292e-01" purity="6.9513434171676636e-01" nType="0">
                    <Node pos="l" depth="7" NCoef="0" IVar="-1" Cut="0.0000000000000000e+00" cType="1" res="1.2513017281889915e-02" rms="4.5404404401779175e-01" purity="7.0902138948440552e-01" nType="-99"/>
                    <Node pos="r" depth="7" NCoef="0" IVar="-1" Cut="0.0000000000000000e+00" cType="1" res="1.0080270469188690e-02" rms="4.6850481629371643e-01" purity="6.7316782474517822e-01" nType="-99"/>
                  </Node>
                </Node>
                <Node pos="r" depth="5" NCoef="0" IVar="2" Cut="8.5899375915527344e+01" cType="1" res="5.2640676498413086e-02" rms="4.9400946497917175e-01" purity="5.6645381450653076e-01" nType="0">
                  <Node pos="l" depth="6" NCoef="0" IVar="-1" Cut="0.0000000000000000e+00" cType="1" res="7.1260253898799419e-03" rms="4.8801401257514954e-01" purity="6.0557323694229126e-01" nType="-99"/>
                  <Node pos="r" depth="6" NCoef="0" IVar="-1" Cut="0.0000000000000000e+00" cType="1" res="2.1634644363075495e-03" rms="4.9680086970329285e-01" purity="5.3612810373306274e-01" nType="-99"/>
                </Node>
              </Node>
              <Node pos="r" depth="4" NCoef="0" IVar="4" Cut="-1.3032553195953369e+00" cType="1" res="5.8512217365205288e-03" rms="4.9648508429527283e-01" purity="5.2024757862091064e-01" nType="0">
                <Node pos="l" depth="5" NCoef="0" IVar="-1" Cut="0.0000000000000000e+00" cType="1" res="3.0729356221854687e-03" rms="4.9421140551567078e-01" purity="5.5588543415069580e-01" nType="-99"/>
                <Node pos="r" depth="5" NCoef="0" IVar="-1" Cut="0.0000000000000000e+00" cType="1" res="-3.6322909872978926e-03" rms="4.9588486552238464e-01" purity="4.6893045306205750e-01" nType="-99"/>
              </Node>
            </Node>
            <Node pos="r" depth="3" NCoef="0" IVar="5" Cut="-4.1904675960540771e-01" cType="1" res="-1.0599927045404911e-02" rms="4.9426749348640442e-01" purity="4.8511695861816406e-01" nType="0">
              <Node pos="l" depth="4" NCoef="0" IVar="6" Cut="5.2937507629394531e-02" cType="1" res="2.7784947305917740e-02" rms="4.9588978290557861e-01" purity="5.3865224123001099e-01" nType="0">
                <Node pos="l" depth="5" NCoef="0" IVar="-1" Cut="0.0000000000000000e+00" cType="1" res="-1.5572733245790005e-03" rms="4.9741405248641968e-01" purity="4.9309256672859192e-01" nType="-99"/>
                <Node pos="r" depth="5" NCoef="0" IVar="-1" Cut="0.0000000000000000e+00" cType="1" res="4.8058019019663334e-03" rms="4.9241945147514343e-01" purity="5.6971627473831177e-01" nType="-99"/>
              </Node>
              <Node pos="r" depth="4" NCoef="0" IVar="-1" Cut="0.0000000000000000e+00" cType="1" res="-9.9647780880331993e-03" rms="4.7671625018119812e-01" purity="3.5059356689453125e-01" nType="-99"/>
            </Node>
          </Node>
          <Node pos="r" depth="2" NCoef="0" IVar="5" Cut="-2.1259143352508545e+00" cType="1" res="1.8490582704544067e-01" rms="4.2716124653816223e-01" purity="7.5253051519393921e-01" nType="0">
            <Node pos="l" depth="3" NCoef="0" IVar="4" Cut="-1.0431845188140869e+00" cType="1" res="2.1562220156192780e-01" rms="4.0322300791740417e-01" purity="7.9341411590576172e-01" nType="0">
              <Node pos="l" depth="4" NCoef="0" IVar="4" Cut="-2.6878170967102051e+00" cType="1" res="1.8681223690509796e-01" rms="4.2943182587623596e-01" purity="7.5431519746780396e-01" nType="0">
                <Node pos="l" depth="5" NCoef="0" IVar="4" Cut="-2.9937064647674561e+00" cType="1" res="2.1817997097969055e-01" rms="4.0426096320152283e-01" purity="7.9326391220092773e-01" nType="0">
                  <Node pos="l" depth="6" NCoef="0" IVar="-1" Cut="0.0000000000000000e+00" cType="1" res="1.9084336236119270e-02" rms="3.9260655641555786e-01" purity="8.0906581878662109e-01" nType="-99"/>
                  <Node pos="r" depth="6" NCoef="0" IVar="-1" Cut="0.0000000000000000e+00" cType="1" res="1.6934625804424286e-02" rms="4.1563695669174194e-01" purity="7.7681016921997070e-01" nType="-99"/>
                </Node>
                <Node pos="r" depth="5" NCoef="0" IVar="1" Cut="-9.5076404511928558e-02" cType="1" res="1.7699374258518219e-01" rms="4.3654990196228027e-01" purity="7.4212372303009033e-01" nType="0">
                  <Node pos="l" depth="6" NCoef="0" IVar="4" Cut="-1.8920309543609619e+00" cType="1" res="1.9263061881065369e-01" rms="4.2597648501396179e-01" purity="7.6094764471054077e-01" nType="0">
                    <Node pos="l" depth="7" NCoef="0" IVar="-1" Cut="0.0000000000000000e+00" cType="1" res="1.5191515907645226e-02" rms="4.2621681094169617e-01" purity="7.6037520170211792e-01" nType="-99"/>
                    <Node pos="r" depth="7" NCoef="0" IVar="-1" Cut="0.0000000000000000e+00" cType="1" res="1.3361837714910507e-02" rms="4.2573675513267517e-01" purity="7.6151263713836670e-01" nType="-99"/>
                  </Node>
                  <Node pos="r" depth="6" NCoef="0" IVar="4" Cut="-1.7858556509017944e+00" cType="1" res="1.7119587957859039e-01" rms="4.4026470184326172e-01" purity="7.3514407873153687e-01" nType="0">
                    <Node pos="l" depth="7" NCoef="0" IVar="-1" Cut="0.0000000000000000e+00" cType="1" res="1.2599315494298935e-02" rms="4.4502335786819458e-01" purity="7.2606074810028076e-01" nType="-99"/>
                    <Node pos="r" depth="7" NCoef="0" IVar="-1" Cut="0.0000000000000000e+00" cType="1" res="1.3410925865173340e-02" rms="4.3343445658683777e-01" purity="7.4750626087188721e-01" nType="-99"/>
                  </Node>
                </Node>
              </Node>
              <Node pos="r" depth="4" NCoef="0" IVar="1" Cut="2.3726382851600647e-01" cType="1" res="2.3482953011989594e-01" rms="3.8355886936187744e-01" purity="8.1948107481002808e-01" nType="0">
                <Node pos="l" depth="5" NCoef="0" IVar="3" Cut="9.5354378223419189e-01" cType="1" res="2.5000581145286560e-01" rms="3.6926892399787903e-01" purity="8.3636182546615601e-01" nType="0">
                  <Node pos="l" depth="6" NCoef="0" IVar="-1" Cut="0.0000000000000000e+00" cType="1" res="1.5871705487370491e-02" rms="4.1857832670211792e-01" purity="7.7251732349395752e-01" nType="-99"/>
                  <Node pos="r" depth="6" NCoef="0" IVar="5" Cut="-3.0251615047454834e+00" cType="1" res="2.5570154190063477e-01" rms="3.6320680379867554e-01" purity="8.4310084581375122e-01" nType="0">
                    <Node pos="l" depth="7" NCoef="0" IVar="-1" Cut="0.0000000000000000e+00" cType="1" res="2.1635904908180237e-02" rms="3.4082075953483582e-01" purity="8.6558043956756592e-01" nType="-99"/>
                    <Node pos="r" depth="7" NCoef="0" IVar="-1" Cut="0.0000000000000000e+00" cType="1" res="1.9167091697454453e-02" rms="3.7594026327133179e-01" purity="8.2919764518737793e-01" nType="-99"/>
                  </Node>
                </Node>
                <Node pos="r" depth="5" NCoef="0" IVar="5" Cut="-3.0251977443695068e+00" cType="1" res="1.9249302148818970e-01" rms="4.1796311736106873e-01" purity="7.7238965034484863e-01" nType="0">
                  <Node pos="l" depth="6" NCoef="0" IVar="-1" Cut="0.0000000000000000e+00" cType="1" res="1.7287775874137878e-02" rms="3.9422887563705444e-01" purity="8.0631983280181885e-01" nType="-99"/>
                  <Node pos="r" depth="6" NCoef="0" IVar="5" Cut="-2.7061350345611572e+00" cType="1" res="1.7542202770709991e-01" rms="4.3012404441833496e-01" purity="7.5283318758010864e-01" nType="0">
                    <Node pos="l" depth="7" NCoef="0" IVar="-1" Cut="0.0000000000000000e+00" cType="1" res="1.6017358750104904e-02" rms="4.1002294421195984e-01" purity="7.8517001867294312e-01" nType="-99"/>
                    <Node pos="r" depth="7" NCoef="0" IVar="-1" Cut="0.0000000000000000e+00" cType="1" res="1.2136397883296013e-02" rms="4.4415447115898132e-01" purity="7.2716736793518066e-01" nType="-99"/>
                  </Node>
                </Node>
              </Node>
            </Node>
            <Node pos="r" depth="3" NCoef="0" IVar="5" Cut="-6.5454852581024170e-01" cType="1" res="1.1699170619249344e-01" rms="4.6874147653579712e-01" purity="6.6213655471801758e-01" nType="0">
              <Node pos="l" depth="4" NCoef="0" IVar="5" Cut="-1.6038202047348022e+00" cType="1" res="1.4113382995128632e-01" rms="4.5884609222412109e-01" purity="6.9482171535491943e-01" nType="0">
                <Node pos="l" depth="5" NCoef="0" IVar="7" Cut="2.0000000000000000e+00" cType="1" res="1.6443426907062531e-01" rms="4.4434404373168945e-01" purity="7.2553139925003052e-01" nType="0">
                  <Node pos="l" depth="6" NCoef="0" IVar="4" Cut="-4.8668265342712402e-01" cType="1" res="1.8081426620483398e-01" rms="4.3374752998352051e-01" purity="7.4742853641510010e-01" nType="0">
                    <Node pos="l" depth="7" NCoef="0" IVar="-1" Cut="0.0000000000000000e+00" cType="1" res="1.1609621345996857e-02" rms="4.5085865259170532e-01" purity="7.1547311544418335e-01" nType="-99"/>
                    <Node pos="r" depth="7" NCoef="0" IVar="-1" Cut="0.0000000000000000e+00" cType="1" res="1.6210731118917465e-02" rms="4.1990682482719421e-01" purity="7.7067989110946655e-01" nType="-99"/>
                  </Node>
                  <Node pos="r" depth="6" NCoef="0" IVar="1" Cut="4.2835049331188202e-02" cType="1" res="1.3302457332611084e-01" rms="4.6328034996986389e-01" purity="6.8643534183502197e-01" nType="0">
                    <Node pos="l" depth="7" NCoef="0" IVar="-1" Cut="0.0000000000000000e+00" cType="1" res="1.3442987576127052e-02" rms="4.5072048902511597e-01" purity="7.1539622545242310e-01" nType="-99"/>
                    <Node pos="r" depth="7" NCoef="0" IVar="-1" Cut="0.0000000000000000e+00" cType="1" res="8.4910253062844276e-03" rms="4.7470498085021973e-01" purity="6.5511536598205566e-01" nType="-99"/>
                  </Node>
                </Node>
                <Node pos="r" depth="5" NCoef="0" IVar="7" Cut="2.0000000000000000e+00" cType="1" res="1.1284489184617996e-01" rms="4.7383040189743042e-01" purity="6.5567076206207275e-01" nType="0">
                  <Node pos="l" depth="6" NCoef="0" IVar="1" Cut="1.5393349342048168e-02" cType="1" res="1.3097445666790009e-01" rms="4.6595856547355652e-01" purity="6.7933249473571777e-01" nType="0">
                    <Node pos="l" depth="7" NCoef="0" IVar="-1" Cut="0.0000000000000000e+00" cType="1" res="1.2013407424092293e-02" rms="4.5610690116882324e-01" purity="7.0391064882278442e-01" nType="-99"/>
                    <Node pos="r" depth="7" NCoef="0" IVar="-1" Cut="0.0000000000000000e+00" cType="1" res="8.8584655895829201e-03" rms="4.7394546866416931e-01" purity="6.5667748451232910e-01" nType="-99"/>
                  </Node>
                  <Node pos="r" depth="6" NCoef="0" IVar="-1" Cut="0.0000000000000000e+00" cType="1" res="7.0985187776386738e-03" rms="4.8485302925109863e-01" purity="6.2031120061874390e-01" nType="-99"/>
                </Node>
              </Node>
              <Node pos="r" depth="4" NCoef="0" IVar="-1" Cut="0.0000000000000000e+00" cType="1" res="-6.6765805240720510e-04" rms="4.9856030941009521e-01" purity="4.9339175224304199e-01" nType="-99"/>
            </Node>
          </Node>
        </Node>
      </Node>
    </BinaryTree>
    <BinaryTree type="DecisionTree" boostWeight="1.0000000000000000e+00" itree="9">
      <Node pos="s" depth="0" NCoef="0" IVar="3" Cut="6.6735237836837769e-01" cType="1" res="1.2489986605942249e-02" rms="4.5008796453475952e-01" purity="5.0038671493530273e-01" nType="0">
        <Node pos="l" depth="1" NCoef="0" IVar="3" Cut="5.3831088542938232e-01" cType="1" res="-1.8581084907054901e-01" rms="3.7452766299247742e-01" purity="1.9278717041015625e-01" nType="0">
          <Node pos="l" depth="2" NCoef="0" IVar="4" Cut="8.1775343418121338e-01" cType="1" res="-2.2391696274280548e-01" rms="3.2247886061668396e-01" purity="1.2722332775592804e-01" nType="0">
            <Node pos="l" depth="3" NCoef="0" IVar="6" Cut="1.0671886056661606e-01" cType="1" res="-2.0448847115039825e-01" rms="3.5452085733413696e-01" purity="1.5781404078006744e-01" nType="0">
              <Node pos="l" depth="4" NCoef="0" IVar="3" Cut="4.3424445390701294e-01" cType="1" res="-2.3855179548263550e-01" rms="3.0389449000358582e-01" purity="1.0918386280536652e-01" nType="0">
                <Node pos="l" depth="5" NCoef="0" IVar="2" Cut="1.5941076660156250e+02" cType="1" res="-2.5960311293601990e-01" rms="2.4314387142658234e-01" purity="6.3830666244029999e-02" nType="0">
                  <Node pos="l" depth="6" NCoef="0" IVar="6" Cut="5.8679334819316864e-02" cType="1" res="-2.5119933485984802e-01" rms="2.5805276632308960e-01" purity="7.2667725384235382e-02" nType="0">
                    <Node pos="l" depth="7" NCoef="0" IVar="-1" Cut="0.0000000000000000e+00" cType="1" res="-3.5428348928689957e-02" rms="2.3374707996845245e-01" purity="5.8574784547090530e-02" nType="-99"/>
                    <Node pos="r" depth="7" NCoef="0" IVar="-1" Cut="0.0000000000000000e+00" cType="1" res="-3.1334955245256424e-02" rms="2.8886595368385315e-01" purity="9.3293301761150360e-02" nType="-99"/>
                  </Node>
                  <Node pos="r" depth="6" NCoef="0" IVar="4" Cut="-8.5313034057617188e-01" cType="1" res="-2.6991626620292664e-01" rms="2.2306023538112640e-01" purity="5.2985768765211105e-02" nType="0">
                    <Node pos="l" depth="7" NCoef="0" IVar="-1" Cut="0.0000000000000000e+00" cType="1" res="-3.4350711852312088e-02" rms="2.4605396389961243e-01" purity="6.5254971385002136e-02" nType="-99"/>
                    <Node pos="r" depth="7" NCoef="0" IVar="-1" Cut="0.0000000000000000e+00" cType="1" res="-3.4912317991256714e-02" rms="2.0692777633666992e-01" purity="4.5251674950122833e-02" nType="-99"/>
                  </Node>
                </Node>
                <Node pos="r" depth="5" NCoef="0" IVar="7" Cut="4.0000000000000000e+00" cType="1" res="-1.9923475384712219e-01" rms="3.8594648241996765e-01" purity="1.8928521871566772e-01" nType="0">
                  <Node pos="l" depth="6" NCoef="0" IVar="-1" Cut="0.0000000000000000e+00" cType="1" res="-2.8828898444771767e-02" rms="3.3207306265830994e-01" purity="1.2935346364974976e-01" nType="-99"/>
                  <Node pos="r" depth="6" NCoef="0" IVar="0" Cut="6.4827072620391846e-01" cType="1" res="-1.7482538521289825e-01" rms="4.0895840525627136e-01" purity="2.2095687687397003e-01" nType="0">
                    <Node pos="l" depth="7" NCoef="0" IVar="-1" Cut="0.0000000000000000e+00" cType="1" res="-1.3408294878900051e-02" rms="4.4892492890357971e-01" purity="2.8714179992675781e-01" nType="-99"/>
                    <Node pos="r" depth="7" NCoef="0" IVar="-1" Cut="0.0000000000000000e+00" cType="1" res="-2.2183964028954506e-02" rms="3.7198078632354736e-01" purity="1.6863748431205750e-01" nType="-99"/>
                  </Node>
                </Node>
              </Node>
              <Node pos="r" depth="4" NCoef="0" IVar="3" Cut="3.9973402023315430e-01" cType="1" res="-1.7231324315071106e-01" rms="3.9375036954879761e-01" purity="2.0374865829944611e-01" nType="0">
                <Node pos="l" depth="5" NCoef="0" IVar="7" Cut="4.0000000000000000e+00" cType="1" res="1.6814123094081879e-01" rms="0.0000000000000000e+00" purity="1.5615898370742798e-01" nType="0">
                  <Node pos="l" depth="6" NCoef="0" IVar="-1" Cut="0.0000000000000000e+00" cType="1" res="-1.2398310005664825e-02" rms="4.3839555978775024e-01" purity="2.6998189091682434e-01" nType="-99"/>
                  <Node pos="r" depth="6" NCoef="0" IVar="6" Cut="2.0352625846862793e-01" cType="1" res="-2.1596756577491760e-01" rms="3.3902135491371155e-01" purity="1.3627435266971588e-01" nType="0">
                    <Node pos="l" depth="7" NCoef="0" IVar="-1" Cut="0.0000000000000000e+00" cType="1" res="-2.9411138966679573e-02" rms="3.0692338943481445e-01" purity="1.0764666646718979e-01" nType="-99"/>
                    <Node pos="r" depth="7" NCoef="0" IVar="-1" Cut="0.0000000000000000e+00" cType="1" res="-2.1687407046556473e-02" rms="3.8683339953422546e-01" purity="1.8600048124790192e-01" nType="-99"/>
                  </Node>
                </Node>
                <Node pos="r" depth="5" NCoef="0" IVar="0" Cut="7.1822082996368408e-01" cType="1" res="-1.1173445731401443e-01" rms="4.5504131913185120e-01" purity="3.0365705490112305e-01" nType="0">
                  <Node pos="l" depth="6" NCoef="0" IVar="5" Cut="-2.1259744167327881e+00" cType="1" res="-8.2070767879486084e-02" rms="4.7332412004470825e-01" purity="3.4683409333229065e-01" nType="0">
                    <Node pos="l" depth="7" NCoef="0" IVar="-1" Cut="0.0000000000000000e+00" cType="1" res="-5.0213239155709743e-03" rms="4.8321136832237244e-01" purity="3.7954494357109070e-01" nType="-99"/>
                    <Node pos="r" depth="7" NCoef="0" IVar="-1" Cut="0.0000000000000000e+00" cType="1" res="-1.0916549712419510e-02" rms="4.6030515432357788e-01" purity="3.1107011437416077e-01" nType="-99"/>
                  </Node>
                  <Node pos="r" depth="6" NCoef="0" IVar="-1" Cut="0.0000000000000000e+00" cType="1" res="-1.8850404769182205e-02" rms="4.0382501482963562e-01" purity="2.0776923000812531e-01" nType="-99"/>
                </Node>
              </Node>
            </Node>
            <Node pos="r" depth="3" NCoef="0" IVar="4" Cut="1.8314924240112305e+00" cType="1" res="-2.6626718044281006e-01" rms="2.3257504403591156e-01" purity="6.0541722923517227e-02" nType="0">
              <Node pos="l" depth="4" NCoef="0" IVar="3" Cut="4.0224567055702209e-01" cType="1" res="-2.3853114247322083e-01" rms="2.9628881812095642e-01" purity="1.0214973241090775e-01" nType="0">
                <Node pos="l" depth="5" NCoef="0" IVar="-1" Cut="0.0000000000000000e+00" cType="1" res="-3.4257750958204269e-02" rms="2.4326576292514801e-01" purity="6.4729146659374237e-02" nType="-99"/>
                <Node pos="r" depth="5" NCoef="0" IVar="-1" Cut="0.0000000000000000e+00" cType="1" res="-2.1704318001866341e-02" rms="3.6852744221687317e-01" purity="1.6867776215076447e-01" nType="-99"/>
              </Node>
              <Node pos="r" depth="4" NCoef="0" IVar="6" Cut="1.5753525495529175e-01" cType="1" res="-2.8086555004119873e-01" rms="1.8904466927051544e-01" purity="3.8642086088657379e-02" nType="0">
                <Node pos="l" depth="5" NCoef="0" IVar="6" Cut="1.2219929695129395e-01" cType="1" res="-2.9635727405548096e-01" rms="1.2591505050659180e-01" purity="1.6459060832858086e-02" nType="0">
                  <Node pos="l" depth="6" NCoef="0" IVar="3" Cut="3.5403838753700256e-01" cType="1" res="-2.9900869727134705e-01" rms="1.0788573324680328e-01" purity="1.1887652799487114e-02" nType="0">
                    <Node pos="l" depth="7" NCoef="0" IVar="-1" Cut="0.0000000000000000e+00" cType="1" res="-4.1320882737636566e-02" rms="7.9873152077198029e-02" purity="6.4393309876322746e-03" nType="-99"/>
                    <Node pos="r" depth="7" NCoef="0" IVar="-1" Cut="0.0000000000000000e+00" cType="1" res="-3.7514857947826385e-02" rms="1.3689088821411133e-01" purity="1.9309682771563530e-02" nType="-99"/>
                  </Node>
                  <Node pos="r" depth="6" NCoef="0" IVar="-1" Cut="0.0000000000000000e+00" cType="1" res="-3.7831053137779236e-02" rms="1.6845905780792236e-01" purity="3.0132029205560684e-02" nType="-99"/>
                </Node>
                <Node pos="r" depth="5" NCoef="0" IVar="-1" Cut="0.0000000000000000e+00" cType="1" res="-3.1309422105550766e-02" rms="2.7494004368782043e-01" purity="8.4823690354824066e-02" nType="-99"/>
              </Node>
            </Node>
          </Node>
          <Node pos="r" depth="2" NCoef="0" IVar="5" Cut="-7.3425173759460449e-01" cType="1" res="-8.2083165645599365e-02" rms="4.7361508011817932e-01" purity="3.7125676870346069e-01" nType="0">
            <Node pos="l" depth="3" NCoef="0" IVar="0" Cut="3.6567085981369019e-01" cType="1" res="-5.7578552514314651e-02" rms="4.8435556888580322e-01" purity="4.0506216883659363e-01" nType="0">
              <Node pos="l" depth="4" NCoef="0" IVar="1" Cut="2.9481351375579834e-01" cType="1" res="-7.7613536268472672e-03" rms="4.9773290753364563e-01" purity="4.8179236054420471e-01" nType="0">
                <Node pos="l" depth="5" NCoef="0" IVar="7" Cut="4.0000000000000000e+00" cType="1" res="2.4065388366580009e-02" rms="3.8955557346343994e-01" purity="5.1249217987060547e-01" nType="0">
                  <Node pos="l" depth="6" NCoef="0" IVar="-1" Cut="0.0000000000000000e+00" cType="1" res="-1.0213295463472605e-03" rms="4.9830511212348938e-01" purity="4.8027235269546509e-01" nType="-99"/>
                  <Node pos="r" depth="6" NCoef="0" IVar="-1" Cut="0.0000000000000000e+00" cType="1" res="4.2173597030341625e-03" rms="4.9641939997673035e-01" purity="5.3884756565093994e-01" nType="-99"/>
                </Node>
                <Node pos="r" depth="5" NCoef="0" IVar="-1" Cut="0.0000000000000000e+00" cType="1" res="-7.8431703150272369e-03" rms="4.8761504888534546e-01" purity="3.9812743663787842e-01" nType="-99"/>
              </Node>
              <Node pos="r" depth="4" NCoef="0" IVar="1" Cut="4.8374661803245544e-01" cType="1" res="-1.0814937204122543e-01" rms="4.6495929360389709e-01" purity="3.2717123627662659e-01" nType="0">
                <Node pos="l" depth="5" NCoef="0" IVar="2" Cut="1.1063705444335938e+02" cType="1" res="-8.0160990357398987e-02" rms="4.7785815596580505e-01" purity="3.6225149035453796e-01" nType="0">
                  <Node pos="l" depth="6" NCoef="0" IVar="-1" Cut="0.0000000000000000e+00" cType="1" res="-3.4585997927933931e-03" rms="4.8939490318298340e-01" purity="4.0848147869110107e-01" nType="-99"/>
                  <Node pos="r" depth="6" NCoef="0" IVar="-1" Cut="0.0000000000000000e+00" cType="1" res="-1.0284338146448135e-02" rms="4.6768024563789368e-01" purity="3.3037188649177551e-01" nType="-99"/>
                </Node>
                <Node pos="r" depth="5" NCoef="0" IVar="-1" Cut="0.0000000000000000e+00" cType="1" res="-2.0352751016616821e-02" rms="4.0773165225982666e-01" purity="2.1394342184066772e-01" nType="-99"/>
              </Node>
            </Node>
            <Node pos="r" depth="3" NCoef="0" IVar="-1" Cut="0.0000000000000000e+00" cType="1" res="-2.1157974377274513e-02" rms="3.9161488413810730e-01" purity="1.9925880432128906e-01" nType="-99"/>
          </Node>
        </Node>
        <Node pos="r" depth="1" NCoef="0" IVar="3" Cut="8.1482601165771484e-01" cType="1" res="1.4311617612838745e-01" rms="4.4794732332229614e-01" purity="7.0301085710525513e-01" nType="0">
          <Node pos="l" depth="2" NCoef="0" IVar="4" Cut="9.1758835315704346e-01" cType="1" res="4.9449544399976730e-02" rms="4.8824641108512878e-01" purity="5.6944209337234497e-01" nType="0">
            <Node pos="l" depth="3" NCoef="0" IVar="1" Cut="7.0100414752960205e-01" cType="1" res="6.4043231308460236e-02" rms="4.8705664277076721e-01" purity="5.8822345733642578e-01" nType="0">
              <Node pos="l" depth="4" NCoef="0" IVar="0" Cut="2.5405457615852356e-01" cType="1" res="7.9305328428745270e-02" rms="4.8417475819587708e-01" purity="6.0642969608306885e-01" nType="0">
                <Node pos="l" depth="5" NCoef="0" IVar="5" Cut="-1.8065900802612305e+00" cType="1" res="1.0707369446754456e-01" rms="4.7552809119224548e-01" purity="6.4421087503433228e-01" nType="0">
                  <Node pos="l" depth="6" NCoef="0" IVar="3" Cut="7.4824911355972290e-01" cType="1" res="1.2384901195764542e-01" rms="4.6878507733345032e-01" purity="6.6964709758758545e-01" nType="0">
                    <Node pos="l" depth="7" NCoef="0" IVar="-1" Cut="0.0000000000000000e+00" cType="1" res="7.2477189823985100e-03" rms="4.8395639657974243e-01" purity="6.2188220024108887e-01" nType="-99"/>
                    <Node pos="r" depth="7" NCoef="0" IVar="-1" Cut="0.0000000000000000e+00" cType="1" res="1.1930273845791817e-02" rms="4.5519527792930603e-01" purity="7.0561778545379639e-01" nType="-99"/>
                  </Node>
                  <Node pos="r" depth="6" NCoef="0" IVar="5" Cut="-1.1327211856842041e+00" cType="1" res="6.9775477051734924e-02" rms="4.8812669515609741e-01" purity="5.8765602111816406e-01" nType="0">
                    <Node pos="l" depth="7" NCoef="0" IVar="-1" Cut="0.0000000000000000e+00" cType="1" res="8.4836874157190323e-03" rms="4.7904014587402344e-01" purity="6.3943237066268921e-01" nType="-99"/>
                    <Node pos="r" depth="7" NCoef="0" IVar="-1" Cut="0.0000000000000000e+00" cType="1" res="1.4638644643127918e-03" rms="4.9648907780647278e-01" purity="5.1153361797332764e-01" nType="-99"/>
                  </Node>
                </Node>
                <Node pos="r" depth="5" NCoef="0" IVar="2" Cut="1.9293186950683594e+02" cType="1" res="2.2255344316363335e-02" rms="4.9662351608276367e-01" purity="5.2880859375000000e-01" nType="0">
                  <Node pos="l" depth="6" NCoef="0" IVar="6" Cut="3.9335705339908600e-02" cType="1" res="4.0648102760314941e-02" rms="4.9521082639694214e-01" purity="5.4966980218887329e-01" nType="0">
                    <Node pos="l" depth="7" NCoef="0" IVar="-1" Cut="0.0000000000000000e+00" cType="1" res="-7.4964476516470313e-04" rms="4.9784824252128601e-01" purity="5.0079625844955444e-01" nType="-99"/>
                    <Node pos="r" depth="7" NCoef="0" IVar="-1" Cut="0.0000000000000000e+00" cType="1" res="5.8842566795647144e-03" rms="4.9079585075378418e-01" purity="5.8173990249633789e-01" nType="-99"/>
                  </Node>
                  <Node pos="r" depth="6" NCoef="0" IVar="-1" Cut="0.0000000000000000e+00" cType="1" res="-3.1258636154234409e-03" rms="4.9669519066810608e-01" purity="4.6469277143478394e-01" nType="-99"/>
                </Node>
              </Node>
              <Node pos="r" depth="4" NCoef="0" IVar="-1" Cut="0.0000000000000000e+00" cType="1" res="-6.3190623186528683e-03" rms="4.9121999740600586e-01" purity="4.2266362905502319e-01" nType="-99"/>
            </Node>
            <Node pos="r" depth="3" NCoef="0" IVar="-1" Cut="0.0000000000000000e+00" cType="1" res="-1.3014149852097034e-02" rms="4.6398913860321045e-01" purity="3.2766342163085938e-01" nType="-99"/>
          </Node>
          <Node pos="r" depth="2" NCoef="0" IVar="0" Cut="5.7448899745941162e-01" cType="1" res="1.7552998661994934e-01" rms="4.2838555574417114e-01" purity="7.4923300743103027e-01" nType="0">
            <Node pos="l" depth="3" NCoef="0" IVar="5" Cut="-1.0067622661590576e+00" cType="1" res="1.8421903252601624e-01" rms="4.2346963286399841e-01" purity="7.5887644290924072e-01" nType="0">
              <Node pos="l" depth="4" NCoef="0" IVar="5" Cut="-1.9421014785766602e+00" cType="1" res="1.9544525444507599e-01" rms="4.1515290737152100e-01" purity="7.7507638931274414e-01" nType="0">
                <Node pos="l" depth="5" NCoef="0" IVar="0" Cut="1.8528845161199570e-02" cType="1" res="2.0825466513633728e-01" rms="4.0366959571838379e-01" purity="7.9277932643890381e-01" nType="0">
                  <Node pos="l" depth="6" NCoef="0" IVar="1" Cut="9.6015524864196777e-01" cType="1" res="2.1437470614910126e-01" rms="3.9893984794616699e-01" purity="7.9942291975021362e-01" nType="0">
                    <Node pos="l" depth="7" NCoef="0" IVar="-1" Cut="0.0000000000000000e+00" cType="1" res="1.7246950417757034e-02" rms="3.9349207282066345e-01" purity="8.0684965848922729e-01" nType="-99"/>
                    <Node pos="r" depth="7" NCoef="0" IVar="-1" Cut="0.0000000000000000e+00" cType="1" res="7.3634162545204163e-03" rms="4.6981900930404663e-01" purity="6.6777002811431885e-01" nType="-99"/>
                  </Node>
                  <Node pos="r" depth="6" NCoef="0" IVar="-1" Cut="0.0000000000000000e+00" cType="1" res="9.8995696753263474e-03" rms="4.5934298634529114e-01" purity="6.9288808107376099e-01" nType="-99"/>
                </Node>
                <Node pos="r" depth="5" NCoef="0" IVar="7" Cut="2.0000000000000000e+00" cType="1" res="1.3100743293762207e-01" rms="4.3597245216369629e-01" purity="6.9458639621734619e-01" nType="0">
                  <Node pos="l" depth="6" NCoef="0" IVar="4" Cut="-1.5584686398506165e-01" cType="1" res="1.5975697338581085e-01" rms="4.4624248147010803e-01" purity="7.2395640611648560e-01" nType="0">
                    <Node pos="l" depth="7" NCoef="0" IVar="-1" Cut="0.0000000000000000e+00" cType="1" res="1.0924499481916428e-02" rms="4.5702743530273438e-01" purity="7.0164954662322998e-01" nType="-99"/>
                    <Node pos="r" depth="7" NCoef="0" IVar="-1" Cut="0.0000000000000000e+00" cType="1" res="1.5188809484243393e-02" rms="4.3048354983329773e-01" purity="7.5322836637496948e-01" nType="-99"/>
                  </Node>
                  <Node pos="r" depth="6" NCoef="0" IVar="5" Cut="-1.6705181598663330e+00" cType="1" res="1.0450182110071182e-01" rms="4.7572901844978333e-01" purity="6.5199762582778931e-01" nType="0">
                    <Node pos="l" depth="7" NCoef="0" IVar="-1" Cut="0.0000000000000000e+00" cType="1" res="1.0221769101917744e-02" rms="4.6553766727447510e-01" purity="6.8129754066467285e-01" nType="-99"/>
                    <Node pos="r" depth="7" NCoef="0" IVar="-1" Cut="0.0000000000000000e+00" cType="1" res="7.5319302268326283e-03" rms="4.8212626576423645e-01" purity="6.3181793689727783e-01" nType="-99"/>
                  </Node>
                </Node>
              </Node>
              <Node pos="r" depth="4" NCoef="0" IVar="7" Cut="2.0000000000000000e+00" cType="1" res="4.7396335750818253e-02" rms="4.5343905687332153e-01" purity="5.6414324045181274e-01" nType="0">
                <Node pos="l" depth="5" NCoef="0" IVar="-1" Cut="0.0000000000000000e+00" cType="1" res="6.6042328253388405e-03" rms="4.8846396803855896e-01" purity="5.9831261634826660e-01" nType="-99"/>
                <Node pos="r" depth="5" NCoef="0" IVar="-1" Cut="0.0000000000000000e+00" cType="1" res="7.8410480637103319e-04" rms="4.9699667096138000e-01" purity="5.1896095275878906e-01" nType="-99"/>
              </Node>
            </Node>
            <Node pos="r" depth="3" NCoef="0" IVar="-1" Cut="0.0000000000000000e+00" cType="1" res="-1.3582080602645874e-02" rms="4.8140308260917664e-01" purity="3.8885581493377686e-01" nType="-99"/>
          </Node>
        </Node>
      </Node>
    </BinaryTree>
    <BinaryTree type="DecisionTree" boostWeight="1.0000000000000000e+00" itree="10">
      <Node pos="s" depth="0" NCoef="0" IVar="3" Cut="6.7633879184722900e-01" cType="1" res="1.2681012973189354e-02" rms="4.4681507349014282e-01" purity="4.9992552399635315e-01" nType="0">
        <Node pos="l" depth="1" NCoef="0" IVar="3" Cut="5.0192350149154663e-01" cType="1" res="-1.7157527804374695e-01" rms="3.7748643755912781e-01" purity="1.9945229589939117e-01" nType="0">
          <Node pos="l" depth="2" NCoef="0" IVar="4" Cut="8.1775343418121338e-01" cType="1" res="-2.1833792328834534e-01" rms="3.0733251571655273e-01" purity="1.1287640780210495e-01" nType="0">
            <Node pos="l" depth="3" NCoef="0" IVar="6" Cut="1.0452735424041748e-01" cType="1" res="-2.0101499557495117e-01" rms="3.3979660272598267e-01" purity="1.4137086272239685e-01" nType="0">
              <Node pos="l" depth="4" NCoef="0" IVar="3" Cut="4.5338630676269531e-01" cType="1" res="-2.2984753549098969e-01" rms="2.8476417064666748e-01" purity="9.2571206390857697e-02" nType="0">
                <Node pos="l" depth="5" NCoef="0" IVar="2" Cut="5.7492927551269531e+01" cType="1" res="-2.4188452959060669e-01" rms="2.5318664312362671e-01" purity="6.9991081953048706e-02" nType="0">
                  <Node pos="l" depth="6" NCoef="0" IVar="-1" Cut="0.0000000000000000e+00" cType="1" res="-2.8409864753484726e-02" rms="2.9684162139892578e-01" purity="1.0001145303249359e-01" nType="-99"/>
                  <Node pos="r" depth="6" NCoef="0" IVar="4" Cut="-1.3588582277297974e+00" cType="1" res="-2.4708525836467743e-01" rms="2.4403795599937439e-01" purity="6.4523234963417053e-02" nType="0">
                    <Node pos="l" depth="7" NCoef="0" IVar="-1" Cut="0.0000000000000000e+00" cType="1" res="-3.1261049211025238e-02" rms="2.7335563302040100e-01" purity="8.2442998886108398e-02" nType="-99"/>
                    <Node pos="r" depth="7" NCoef="0" IVar="-1" Cut="0.0000000000000000e+00" cType="1" res="-3.3094111829996109e-02" rms="2.3631660640239716e-01" purity="6.0251168906688690e-02" nType="-99"/>
                  </Node>
                </Node>
                <Node pos="r" depth="5" NCoef="0" IVar="-1" Cut="0.0000000000000000e+00" cType="1" res="-1.9778324291110039e-02" rms="3.8612073659896851e-01" purity="1.8714319169521332e-01" nType="-99"/>
              </Node>
              <Node pos="r" depth="4" NCoef="0" IVar="1" Cut="6.6745167970657349e-01" cType="1" res="-1.7660184204578400e-01" rms="3.7850308418273926e-01" purity="1.8269059062004089e-01" nType="0">
                <Node pos="l" depth="5" NCoef="0" IVar="3" Cut="3.7249118089675903e-01" cType="1" res="-1.5867996215820312e-01" rms="3.9669537544250488e-01" purity="2.0561993122100830e-01" nType="0">
                  <Node pos="l" depth="6" NCoef="0" IVar="6" Cut="2.0534966886043549e-01" cType="1" res="-1.8063440918922424e-01" rms="3.6603891849517822e-01" purity="1.6633579134941101e-01" nType="0">
                    <Node pos="l" depth="7" NCoef="0" IVar="-1" Cut="0.0000000000000000e+00" cType="1" res="-2.7131225913763046e-02" rms="3.1850633025169373e-01" purity="1.1716550588607788e-01" nType="-99"/>
                    <Node pos="r" depth="7" NCoef="0" IVar="-1" Cut="0.0000000000000000e+00" cType="1" res="-1.5122554264962673e-02" rms="4.1971954703330994e-01" purity="2.3522001504898071e-01" nType="-99"/>
                  </Node>
                  <Node pos="r" depth="6" NCoef="0" IVar="2" Cut="3.1205541992187500e+02" cType="1" res="-1.2132962048053741e-01" rms="4.4151148200035095e-01" purity="2.7245265245437622e-01" nType="0">
                    <Node pos="l" depth="7" NCoef="0" IVar="-1" Cut="0.0000000000000000e+00" cType="1" res="-7.1607297286391258e-03" rms="4.6437194943428040e-01" purity="3.2053837180137634e-01" nType="-99"/>
                    <Node pos="r" depth="7" NCoef="0" IVar="-1" Cut="0.0000000000000000e+00" cType="1" res="-1.6777142882347107e-02" rms="4.1947042942047119e-01" purity="2.3589435219764709e-01" nType="-99"/>
                  </Node>
                </Node>
                <Node pos="r" depth="5" NCoef="0" IVar="7" Cut="6.0000000000000000e+00" cType="1" res="1.4806424081325531e-01" rms="0.0000000000000000e+00" purity="1.0808246582746506e-01" nType="0">
                  <Node pos="l" depth="6" NCoef="0" IVar="-1" Cut="0.0000000000000000e+00" cType="1" res="-2.6396948844194412e-02" rms="3.4619626402854919e-01" purity="1.4350466430187225e-01" nType="-99"/>
                  <Node pos="r" depth="6" NCoef="0" IVar="-1" Cut="0.0000000000000000e+00" cType="1" res="-3.5083595663309097e-02" rms="2.5170868635177612e-01" purity="7.0410981774330139e-02" nType="-99"/>
                </Node>
              </Node>
            </Node>
            <Node pos="r" depth="3" NCoef="0" IVar="6" Cut="1.8914172053337097e-01" cType="1" res="-2.5444173812866211e-01" rms="2.2076995670795441e-01" purity="5.3489368408918381e-02" nType="0">
              <Node pos="l" depth="4" NCoef="0" IVar="4" Cut="1.7823127508163452e+00" cType="1" res="-2.6295390725135803e-01" rms="1.9324569404125214e-01" purity="4.0467470884323120e-02" nType="0">
                <Node pos="l" depth="5" NCoef="0" IVar="3" Cut="3.5918837785720825e-01" cType="1" res="-2.4137426912784576e-01" rms="2.6302757859230042e-01" purity="7.7787831425666809e-02" nType="0">
                  <Node pos="l" depth="6" NCoef="0" IVar="-1" Cut="0.0000000000000000e+00" cType="1" res="-3.6676280200481415e-02" rms="1.9271916151046753e-01" purity="3.9076235145330429e-02" nType="-99"/>
                  <Node pos="r" depth="6" NCoef="0" IVar="-1" Cut="0.0000000000000000e+00" cType="1" res="-2.5494538247585297e-02" rms="3.2229024171829224e-01" purity="1.2146794795989990e-01" nType="-99"/>
                </Node>
                <Node pos="r" depth="5" NCoef="0" IVar="4" Cut="3.6491048336029053e+00" cType="1" res="-2.7368322014808655e-01" rms="1.4548783004283905e-01" purity="2.1911924704909325e-02" nType="0">
                  <Node pos="l" depth="6" NCoef="0" IVar="0" Cut="1.2420908212661743e+00" cType="1" res="-2.6860213279724121e-01" rms="1.6930373013019562e-01" purity="3.0012771487236023e-02" nType="0">
                    <Node pos="l" depth="7" NCoef="0" IVar="-1" Cut="0.0000000000000000e+00" cType="1" res="-3.2878432422876358e-02" rms="2.2376155853271484e-01" purity="5.3216442465782166e-02" nType="-99"/>
                    <Node pos="r" depth="7" NCoef="0" IVar="-1" Cut="0.0000000000000000e+00" cType="1" res="-3.9579428732395172e-02" rms="1.2348601222038269e-01" purity="1.5630688518285751e-02" nType="-99"/>
                  </Node>
                  <Node pos="r" depth="6" NCoef="0" IVar="-1" Cut="0.0000000000000000e+00" cType="1" res="-3.8617443293333054e-02" rms="9.9046386778354645e-02" purity="9.7455820068717003e-03" nType="-99"/>
                </Node>
              </Node>
              <Node pos="r" depth="4" NCoef="0" IVar="-1" Cut="0.0000000000000000e+00" cType="1" res="-2.8443360701203346e-02" rms="3.0164352059364319e-01" purity="1.0329687595367432e-01" nType="-99"/>
            </Node>
          </Node>
          <Node pos="r" depth="2" NCoef="0" IVar="0" Cut="4.3360725045204163e-01" cType="1" res="-8.6321115493774414e-02" rms="4.6779155731201172e-01" purity="3.5729101300239563e-01" nType="0">
            <Node pos="l" depth="3" NCoef="0" IVar="5" Cut="-9.5489537715911865e-01" cType="1" res="-3.6304604262113571e-02" rms="4.8781624436378479e-01" purity="4.3318575620651245e-01" nType="0">
              <Node pos="l" depth="4" NCoef="0" IVar="3" Cut="6.0882854461669922e-01" cType="1" res="-8.7743345648050308e-03" rms="4.9646204710006714e-01" purity="4.7398453950881958e-01" nType="0">
                <Node pos="l" depth="5" NCoef="0" IVar="6" Cut="8.7388440966606140e-02" cType="1" res="-4.1005875915288925e-02" rms="4.9334791302680969e-01" purity="4.2936334013938904e-01" nType="0">
                  <Node pos="l" depth="6" NCoef="0" IVar="-1" Cut="0.0000000000000000e+00" cType="1" res="-6.6071054898202419e-03" rms="4.8635309934616089e-01" purity="3.9571008086204529e-01" nType="-99"/>
                  <Node pos="r" depth="6" NCoef="0" IVar="-1" Cut="0.0000000000000000e+00" cType="1" res="-2.0175713580101728e-03" rms="4.9615123867988586e-01" purity="4.4754981994628906e-01" nType="-99"/>
                </Node>
                <Node pos="r" depth="5" NCoef="0" IVar="0" Cut="1.9575282931327820e-01" cType="1" res="2.0821928977966309e-02" rms="4.9746865034103394e-01" purity="5.1495754718780518e-01" nType="0">
                  <Node pos="l" depth="6" NCoef="0" IVar="-1" Cut="0.0000000000000000e+00" cType="1" res="3.8657467812299728e-03" rms="4.9617654085159302e-01" purity="5.5470401048660278e-01" nType="-99"/>
                  <Node pos="r" depth="6" NCoef="0" IVar="-1" Cut="0.0000000000000000e+00" cType="1" res="-1.0298443958163261e-03" rms="4.9710026383399963e-01" purity="4.6704453229904175e-01" nType="-99"/>
                </Node>
              </Node>
              <Node pos="r" depth="4" NCoef="0" IVar="-1" Cut="0.0000000000000000e+00" cType="1" res="-1.4207058586180210e-02" rms="4.3492650985717773e-01" purity="2.7104082703590393e-01" nType="-99"/>
            </Node>
            <Node pos="r" depth="3" NCoef="0" IVar="5" Cut="-7.3425173759460449e-01" cType="1" res="-1.4896966516971588e-01" rms="4.3336126208305359e-01" purity="2.6222842931747437e-01" nType="0">
              <Node pos="l" depth="4" NCoef="0" IVar="6" Cut="8.8671103119850159e-02" cType="1" res="-1.3024477660655975e-01" rms="4.4883328676223755e-01" purity="2.8935888409614563e-01" nType="0">
                <Node pos="l" depth="5" NCoef="0" IVar="2" Cut="1.0004315948486328e+02" cType="1" res="-1.5526379644870758e-01" rms="4.3607679009437561e-01" purity="2.6444211602210999e-01" nType="0">
                  <Node pos="l" depth="6" NCoef="0" IVar="-1" Cut="0.0000000000000000e+00" cType="1" res="-1.0596430860459805e-02" rms="4.5922645926475525e-01" purity="3.1358698010444641e-01" nType="-99"/>
                  <Node pos="r" depth="6" NCoef="0" IVar="4" Cut="-6.5271937847137451e-01" cType="1" res="-1.9147810339927673e-01" rms="4.1249921917915344e-01" purity="2.2387847304344177e-01" nType="0">
                    <Node pos="l" depth="7" NCoef="0" IVar="-1" Cut="0.0000000000000000e+00" cType="1" res="-1.9150029867887497e-02" rms="4.1679838299751282e-01" purity="2.3011094331741333e-01" nType="-99"/>
                    <Node pos="r" depth="7" NCoef="0" IVar="-1" Cut="0.0000000000000000e+00" cType="1" res="-2.0122403278946877e-02" rms="4.0805405378341675e-01" purity="2.1758991479873657e-01" nType="-99"/>
                  </Node>
                </Node>
                <Node pos="r" depth="5" NCoef="0" IVar="-1" Cut="0.0000000000000000e+00" cType="1" res="-6.4753387123346329e-03" rms="4.7308143973350525e-01" purity="3.5036951303482056e-01" nType="-99"/>
              </Node>
              <Node pos="r" depth="4" NCoef="0" IVar="-1" Cut="0.0000000000000000e+00" cType="1" res="-2.4839973077178001e-02" rms="3.4761929512023926e-01" purity="1.4512109756469727e-01" nType="-99"/>
            </Node>
          </Node>
        </Node>
        <Node pos="r" depth="1" NCoef="0" IVar="3" Cut="8.2585197687149048e-01" cType="1" res="1.3863338530063629e-01" rms="4.4680729508399963e-01" purity="7.0532059669494629e-01" nType="0">
          <Node pos="l" depth="2" NCoef="0" IVar="0" Cut="3.9748445153236389e-01" cType="1" res="5.3611367940902710e-02" rms="4.8653537034988403e-01" purity="5.7973080873489380e-01" nType="0">
            <Node pos="l" depth="3" NCoef="0" IVar="5" Cut="-1.5457618236541748e+00" cType="1" res="7.0032231509685516e-02" rms="4.8372349143028259e-01" purity="6.0053479671478271e-01" nType="0">
              <Node pos="l" depth="4" NCoef="0" IVar="0" Cut="1.2821076437830925e-02" cType="1" res="9.3713611364364624e-02" rms="4.7793942689895630e-01" purity="6.3550853729248047e-01" nType="0">
                <Node pos="l" depth="5" NCoef="0" IVar="1" Cut="-5.5851705372333527e-02" cType="1" res="1.2021543085575104e-01" rms="4.6796029806137085e-01" purity="6.7096519470214844e-01" nType="0">
                  <Node pos="l" depth="6" NCoef="0" IVar="3" Cut="7.6795840263366699e-01" cType="1" res="1.4921917021274567e-01" rms="4.5377898216247559e-01" purity="7.0834416151046753e-01" nType="0">
                    <Node pos="l" depth="7" NCoef="0" IVar="-1" Cut="0.0000000000000000e+00" cType="1" res="9.8494803532958031e-03" rms="4.6764099597930908e-01" purity="6.7632430791854858e-01" nType="-99"/>
                    <Node pos="r" depth="7" NCoef="0" IVar="-1" Cut="0.0000000000000000e+00" cType="1" res="1.2825415469706059e-02" rms="4.3948364257812500e-01" purity="7.3799312114715576e-01" nType="-99"/>
                  </Node>
                  <Node pos="r" depth="6" NCoef="0" IVar="3" Cut="7.5351434946060181e-01" cType="1" res="0.0000000000000000e+00" rms="0.0000000000000000e+00" purity="6.4811503887176514e-01" nType="0">
                    <Node pos="l" depth="7" NCoef="0" IVar="-1" Cut="0.0000000000000000e+00" cType="1" res="6.3066477887332439e-03" rms="4.8641383647918701e-01" purity="6.1144572496414185e-01" nType="-99"/>
                    <Node pos="r" depth="7" NCoef="0" IVar="-1" Cut="0.0000000000000000e+00" cType="1" res="9.2866392806172371e-03" rms="4.6743994951248169e-01" purity="6.7261755466461182e-01" nType="-99"/>
                  </Node>
                </Node>
                <Node pos="r" depth="5" NCoef="0" IVar="3" Cut="7.4386471509933472e-01" cType="1" res="4.0346939116716385e-02" rms="4.9312427639961243e-01" purity="5.6410938501358032e-01" nType="0">
                  <Node pos="l" depth="6" NCoef="0" IVar="-1" Cut="0.0000000000000000e+00" cType="1" res="9.6143834525719285e-05" rms="4.9769166111946106e-01" purity="5.1413100957870483e-01" nType="-99"/>
                  <Node pos="r" depth="6" NCoef="0" IVar="-1" Cut="0.0000000000000000e+00" cType="1" res="6.1509520746767521e-03" rms="4.8745000362396240e-01" purity="6.0246735811233521e-01" nType="-99"/>
                </Node>
              </Node>
              <Node pos="r" depth="4" NCoef="0" IVar="5" Cut="-7.9467409849166870e-01" cType="1" res="2.2780420258641243e-03" rms="4.9366739392280579e-01" purity="5.0047242641448975e-01" nType="0">
                <Node pos="l" depth="5" NCoef="0" IVar="-1" Cut="0.0000000000000000e+00" cType="1" res="4.2583853937685490e-03" rms="4.9260413646697998e-01" purity="5.7467931509017944e-01" nType="-99"/>
                <Node pos="r" depth="5" NCoef="0" IVar="-1" Cut="0.0000000000000000e+00" cType="1" res="-5.6011308915913105e-03" rms="4.8765447735786438e-01" purity="4.0458172559738159e-01" nType="-99"/>
              </Node>
            </Node>
            <Node pos="r" depth="3" NCoef="0" IVar="-1" Cut="0.0000000000000000e+00" cType="1" res="-6.2773381359875202e-03" rms="4.8956817388534546e-01" purity="4.1973975300788879e-01" nType="-99"/>
          </Node>
          <Node pos="r" depth="2" NCoef="0" IVar="5" Cut="-2.1259143352508545e+00" cType="1" res="1.6948984563350677e-01" rms="4.2732188105583191e-01" purity="7.5090003013610840e-01" nType="0">
            <Node pos="l" depth="3" NCoef="0" IVar="1" Cut="1.0190397500991821e-01" cType="1" res="1.9713944196701050e-01" rms="4.0471202135086060e-01" purity="7.9082709550857544e-01" nType="0">
              <Node pos="l" depth="4" NCoef="0" IVar="4" Cut="-9.5714247226715088e-01" cType="1" res="2.1710348129272461e-01" rms="3.8782376050949097e-01" purity="8.1403833627700806e-01" nType="0">
                <Node pos="l" depth="5" NCoef="0" IVar="4" Cut="-2.4392638206481934e+00" cType="1" res="1.9932943582534790e-01" rms="4.0947926044464111e-01" purity="7.8569513559341431e-01" nType="0">
                  <Node pos="l" depth="6" NCoef="0" IVar="4" Cut="-2.8472404479980469e+00" cType="1" res="2.2046491503715515e-01" rms="3.9053678512573242e-01" purity="8.1128638982772827e-01" nType="0">
                    <Node pos="l" depth="7" NCoef="0" IVar="-1" Cut="0.0000000000000000e+00" cType="1" res="1.9146854057908058e-02" rms="3.7983876466751099e-01" purity="8.2465475797653198e-01" nType="-99"/>
                    <Node pos="r" depth="7" NCoef="0" IVar="-1" Cut="0.0000000000000000e+00" cType="1" res="1.7584471032023430e-02" rms="4.0021672844886780e-01" purity="7.9862833023071289e-01" nType="-99"/>
                  </Node>
                  <Node pos="r" depth="6" NCoef="0" IVar="4" Cut="-1.2918304204940796e+00" cType="1" res="1.8830525875091553e-01" rms="4.1859662532806396e-01" purity="7.7234697341918945e-01" nType="0">
                    <Node pos="l" depth="7" NCoef="0" IVar="-1" Cut="0.0000000000000000e+00" cType="1" res="1.3327757827937603e-02" rms="4.2651221156120300e-01" purity="7.5997179746627808e-01" nType="-99"/>
                    <Node pos="r" depth="7" NCoef="0" IVar="-1" Cut="0.0000000000000000e+00" cType="1" res="1.6423381865024567e-02" rms="3.9677295088768005e-01" purity="8.0353218317031860e-01" nType="-99"/>
                  </Node>
                </Node>
                <Node pos="r" depth="5" NCoef="0" IVar="5" Cut="-3.0251615047454834e+00" cType="1" res="2.2980964183807373e-01" rms="3.7104853987693787e-01" purity="8.3430010080337524e-01" nType="0">
                  <Node pos="l" depth="6" NCoef="0" IVar="4" Cut="-3.7127280235290527e-01" cType="1" res="2.4664643406867981e-01" rms="3.4960353374481201e-01" purity="8.5707730054855347e-01" nType="0">
                    <Node pos="l" depth="7" NCoef="0" IVar="-1" Cut="0.0000000000000000e+00" cType="1" res="1.8950480967760086e-02" rms="3.5646596550941467e-01" purity="8.5011690855026245e-01" nType="-99"/>
                    <Node pos="r" depth="7" NCoef="0" IVar="-1" Cut="0.0000000000000000e+00" cType="1" res="2.0853159949183464e-02" rms="3.4294533729553223e-01" purity="8.6359834671020508e-01" nType="-99"/>
                  </Node>
                  <Node pos="r" depth="6" NCoef="0" IVar="5" Cut="-2.5320611000061035e+00" cType="1" res="2.2074869275093079e-01" rms="3.8178443908691406e-01" purity="8.2204222679138184e-01" nType="0">
                    <Node pos="l" depth="7" NCoef="0" IVar="-1" Cut="0.0000000000000000e+00" cType="1" res="1.8086513504385948e-02" rms="3.7309440970420837e-01" purity="8.3234679698944092e-01" nType="-99"/>
                    <Node pos="r" depth="7" NCoef="0" IVar="-1" Cut="0.0000000000000000e+00" cType="1" res="1.6569400206208229e-02" rms="3.9651703834533691e-01" purity="8.0350077152252197e-01" nType="-99"/>
                  </Node>
                </Node>
              </Node>
              <Node pos="r" depth="4" NCoef="0" IVar="4" Cut="-8.3285075426101685e-01" cType="1" res="1.6702486574649811e-01" rms="4.2716923356056213e-01" purity="7.5581431388854980e-01" nType="0">
                <Node pos="l" depth="5" NCoef="0" IVar="3" Cut="8.8832676410675049e-01" cType="1" res="1.3505230844020844e-01" rms="4.5033675432205200e-01" purity="7.1369391679763794e-01" nType="0">
                  <Node pos="l" depth="6" NCoef="0" IVar="-1" Cut="0.0000000000000000e+00" cType="1" res="9.0644173324108124e-03" rms="4.6301239728927612e-01" purity="6.8582659959793091e-01" nType="-99"/>
                  <Node pos="r" depth="6" NCoef="0" IVar="4" Cut="-1.9848636388778687e+00" cType="1" res="1.4882402122020721e-01" rms="4.4244229793548584e-01" purity="7.2939205169677734e-01" nType="0">
                    <Node pos="l" depth="7" NCoef="0" IVar="-1" Cut="0.0000000000000000e+00" cType="1" res="1.4359509572386742e-02" rms="4.2843702435493469e-01" purity="7.5466769933700562e-01" nType="-99"/>
                    <Node pos="r" depth="7" NCoef="0" IVar="-1" Cut="0.0000000000000000e+00" cType="1" res="9.9034877493977547e-03" rms="4.4905734062194824e-01" purity="7.1646195650100708e-01" nType="-99"/>
                  </Node>
                </Node>
                <Node pos="r" depth="5" NCoef="0" IVar="5" Cut="-3.0251188278198242e+00" cType="1" res="1.9296999275684357e-01" rms="4.0555363893508911e-01" purity="7.8999418020248413e-01" nType="0">
                  <Node pos="l" depth="6" NCoef="0" IVar="-1" Cut="0.0000000000000000e+00" cType="1" res="1.7561238259077072e-02" rms="3.8189068436622620e-01" purity="8.2130855321884155e-01" nType="-99"/>
                  <Node pos="r" depth="6" NCoef="0" IVar="5" Cut="-2.4449601173400879e+00" cType="1" res="1.7813365161418915e-01" rms="4.1786998510360718e-01" purity="7.7193921804428101e-01" nType="0">
                    <Node pos="l" depth="7" NCoef="0" IVar="-1" Cut="0.0000000000000000e+00" cType="1" res="1.5545579604804516e-02" rms="4.0745145082473755e-01" purity="7.8781139850616455e-01" nType="-99"/>
                    <Node pos="r" depth="7" NCoef="0" IVar="-1" Cut="0.0000000000000000e+00" cType="1" res="1.1513941921293736e-02" rms="4.4213336706161499e-01" purity="7.2988855838775635e-01" nType="-99"/>
                  </Node>
                </Node>
              </Node>
            </Node>
            <Node pos="r" depth="3" NCoef="0" IVar="5" Cut="-6.5454852581024170e-01" cType="1" res="1.0870722681283951e-01" rms="4.6752965450286865e-01" purity="6.6312760114669800e-01" nType="0">
              <Node pos="l" depth="4" NCoef="0" IVar="5" Cut="-1.6987431049346924e+00" cType="1" res="1.2985466420650482e-01" rms="4.5843243598937988e-01" purity="6.9434940814971924e-01" nType="0">
                <Node pos="l" depth="5" NCoef="0" IVar="1" Cut="2.7947402000427246e-01" cType="1" res="1.5824058651924133e-01" rms="4.4028130173683167e-01" purity="7.3441386222839355e-01" nType="0">
                  <Node pos="l" depth="6" NCoef="0" IVar="4" Cut="-2.0353269577026367e-01" cType="1" res="1.8050058186054230e-01" rms="4.2728030681610107e-01" purity="7.5800132751464844e-01" nType="0">
                    <Node pos="l" depth="7" NCoef="0" IVar="-1" Cut="0.0000000000000000e+00" cType="1" res="1.3395666144788265e-02" rms="4.3690162897109985e-01" purity="7.4187856912612915e-01" nType="-99"/>
                    <Node pos="r" depth="7" NCoef="0" IVar="-1" Cut="0.0000000000000000e+00" cType="1" res="1.6919586807489395e-02" rms="4.0452647209167480e-01" purity="7.9287433624267578e-01" nType="-99"/>
                  </Node>
                  <Node pos="r" depth="6" NCoef="0" IVar="-1" Cut="0.0000000000000000e+00" cType="1" res="7.3576653376221657e-03" rms="4.7092059254646301e-01" purity="6.6356945037841797e-01" nType="-99"/>
                </Node>
                <Node pos="r" depth="5" NCoef="0" IVar="7" Cut="2.0000000000000000e+00" cType="1" res="1.0388727486133575e-01" rms="4.7286781668663025e-01" purity="6.5729898214340210e-01" nType="0">
                  <Node pos="l" depth="6" NCoef="0" IVar="5" Cut="-1.1261092424392700e+00" cType="1" res="1.2444517761468887e-01" rms="4.6345046162605286e-01" purity="6.8491303920745850e-01" nType="0">
                    <Node pos="l" depth="7" NCoef="0" IVar="-1" Cut="0.0000000000000000e+00" cType="1" res="1.0406358167529106e-02" rms="4.5838588476181030e-01" purity="6.9767892360687256e-01" nType="-99"/>
                    <Node pos="r" depth="7" NCoef="0" IVar="-1" Cut="0.0000000000000000e+00" cType="1" res="8.4019098430871964e-03" rms="4.7418627142906189e-01" purity="6.5586471557617188e-01" nType="-99"/>
                  </Node>
                  <Node pos="r" depth="6" NCoef="0" IVar="4" Cut="-9.1468954086303711e-01" cType="1" res="7.1335673332214355e-02" rms="4.8587206006050110e-01" purity="6.1454349756240845e-01" nType="0">
                    <Node pos="l" depth="7" NCoef="0" IVar="-1" Cut="0.0000000000000000e+00" cType="1" res="7.5017055496573448e-03" rms="4.8062467575073242e-01" purity="6.3508266210556030e-01" nType="-99"/>
                    <Node pos="r" depth="7" NCoef="0" IVar="-1" Cut="0.0000000000000000e+00" cType="1" res="4.4958875514566898e-03" rms="4.9082812666893005e-01" purity="5.9216690063476562e-01" nType="-99"/>
                  </Node>
                </Node>
              </Node>
              <Node pos="r" depth="4" NCoef="0" IVar="-1" Cut="0.0000000000000000e+00" cType="1" res="-7.8685807238798589e-05" rms="4.9790936708450317e-01" purity="5.0129222869873047e-01" nType="-99"/>
            </Node>
          </Node>
        </Node>
      </Node>
    </BinaryTree>
    <BinaryTree type="DecisionTree" boostWeight="1.0000000000000000e+00" itree="11">
      <Node pos="s" depth="0" NCoef="0" IVar="3" Cut="6.7633879184722900e-01" cType="1" res="1.1735026724636555e-02" rms="4.4329208135604858e-01" purity="4.9829307198524475e-01" nType="0">
        <Node pos="l" depth="1" NCoef="0" IVar="3" Cut="5.4552704095840454e-01" cType="1" res="-1.6434192657470703e-01" rms="3.7435299158096313e-01" purity="1.9727987051010132e-01" nType="0">
          <Node pos="l" depth="2" NCoef="0" IVar="3" Cut="4.5761474967002869e-01" cType="1" res="-2.0257827639579773e-01" rms="3.1981310248374939e-01" purity="1.2628601491451263e-01" nType="0">
            <Node pos="l" depth="3" NCoef="0" IVar="6" Cut="1.5685297548770905e-01" cType="1" res="-2.1637113392353058e-01" rms="2.8708752989768982e-01" purity="9.6371725201606750e-02" nType="0">
              <Node pos="l" depth="4" NCoef="0" IVar="4" Cut="1.7312856912612915e+00" cType="1" res="-2.3334604501724243e-01" rms="2.4336096644401550e-01" purity="6.5883100032806396e-02" nType="0">
                <Node pos="l" depth="5" NCoef="0" IVar="3" Cut="3.9862820506095886e-01" cType="1" res="-2.2583024203777313e-01" rms="2.6817715167999268e-01" purity="8.0704711377620697e-02" nType="0">
                  <Node pos="l" depth="6" NCoef="0" IVar="7" Cut="4.0000000000000000e+00" cType="1" res="1.1193093657493591e-01" rms="8.9152604341506958e-02" purity="6.1954151839017868e-02" nType="0">
                    <Node pos="l" depth="7" NCoef="0" IVar="-1" Cut="0.0000000000000000e+00" cType="1" res="-2.5639517232775688e-02" rms="3.1930226087570190e-01" purity="1.1613640934228897e-01" nType="-99"/>
                    <Node pos="r" depth="7" NCoef="0" IVar="-1" Cut="0.0000000000000000e+00" cType="1" res="-3.3945959061384201e-02" rms="2.2262337803840637e-01" purity="5.2992656826972961e-02" nType="-99"/>
                  </Node>
                  <Node pos="r" depth="6" NCoef="0" IVar="6" Cut="8.1116102635860443e-02" cType="1" res="-2.0126686990261078e-01" rms="3.4061560034751892e-01" purity="1.3807705044746399e-01" nType="0">
                    <Node pos="l" depth="7" NCoef="0" IVar="-1" Cut="0.0000000000000000e+00" cType="1" res="-2.8943911194801331e-02" rms="2.8348657488822937e-01" purity="8.8976435363292694e-02" nType="-99"/>
                    <Node pos="r" depth="7" NCoef="0" IVar="-1" Cut="0.0000000000000000e+00" cType="1" res="-2.0121300593018532e-02" rms="3.8164579868316650e-01" purity="1.8091540038585663e-01" nType="-99"/>
                  </Node>
                </Node>
                <Node pos="r" depth="5" NCoef="0" IVar="2" Cut="2.0657363891601562e+02" cType="1" res="-2.5834992527961731e-01" rms="1.2719748914241791e-01" purity="1.6574079170823097e-02" nType="0">
                  <Node pos="l" depth="6" NCoef="0" IVar="-1" Cut="0.0000000000000000e+00" cType="1" res="-3.7515684962272644e-02" rms="1.4184945821762085e-01" purity="2.0780017599463463e-02" nType="-99"/>
                  <Node pos="r" depth="6" NCoef="0" IVar="-1" Cut="0.0000000000000000e+00" cType="1" res="-3.6338135600090027e-02" rms="1.0855333507061005e-01" purity="1.1961304582655430e-02" nType="-99"/>
                </Node>
              </Node>
              <Node pos="r" depth="4" NCoef="0" IVar="7" Cut="4.0000000000000000e+00" cType="1" res="1.6166262328624725e-01" rms="0.0000000000000000e+00" purity="1.5995918214321136e-01" nType="0">
                <Node pos="l" depth="5" NCoef="0" IVar="-1" Cut="0.0000000000000000e+00" cType="1" res="-1.1979395523667336e-02" rms="4.3154111504554749e-01" purity="2.6275065541267395e-01" nType="-99"/>
                <Node pos="r" depth="5" NCoef="0" IVar="6" Cut="2.6889330148696899e-01" cType="1" res="-1.9410358369350433e-01" rms="3.4254747629165649e-01" purity="1.4114394783973694e-01" nType="0">
                  <Node pos="l" depth="6" NCoef="0" IVar="5" Cut="-9.3413937091827393e-01" cType="1" res="-2.0737266540527344e-01" rms="3.2488057017326355e-01" purity="1.2590909004211426e-01" nType="0">
                    <Node pos="l" depth="7" NCoef="0" IVar="-1" Cut="0.0000000000000000e+00" cType="1" res="-2.1244086325168610e-02" rms="3.7297245860099792e-01" purity="1.7313167452812195e-01" nType="-99"/>
                    <Node pos="r" depth="7" NCoef="0" IVar="-1" Cut="0.0000000000000000e+00" cType="1" res="-3.3212970942258835e-02" rms="2.3742656409740448e-01" purity="6.1004985123872757e-02" nType="-99"/>
                  </Node>
                  <Node pos="r" depth="6" NCoef="0" IVar="-1" Cut="0.0000000000000000e+00" cType="1" res="-1.6903156414628029e-02" rms="3.9965781569480896e-01" purity="2.0021164417266846e-01" nType="-99"/>
                </Node>
              </Node>
            </Node>
            <Node pos="r" depth="3" NCoef="0" IVar="5" Cut="-2.0118869841098785e-01" cType="1" res="-1.5434503555297852e-01" rms="4.1078302264213562e-01" purity="2.3089542984962463e-01" nType="0">
              <Node pos="l" depth="4" NCoef="0" IVar="0" Cut="6.4827066659927368e-01" cType="1" res="-1.3585859537124634e-01" rms="4.3035519123077393e-01" purity="2.5978237390518188e-01" nType="0">
                <Node pos="l" depth="5" NCoef="0" IVar="6" Cut="1.2139018625020981e-01" cType="1" res="-9.1471806168556213e-02" rms="4.6739637851715088e-01" purity="3.3406031131744385e-01" nType="0">
                  <Node pos="l" depth="6" NCoef="0" IVar="-1" Cut="0.0000000000000000e+00" cType="1" res="-1.1770932003855705e-02" rms="4.5275774598121643e-01" purity="2.9831984639167786e-01" nType="-99"/>
                  <Node pos="r" depth="6" NCoef="0" IVar="-1" Cut="0.0000000000000000e+00" cType="1" res="-4.9648154526948929e-03" rms="4.8182979226112366e-01" purity="3.7719848752021790e-01" nType="-99"/>
                </Node>
                <Node pos="r" depth="5" NCoef="0" IVar="6" Cut="7.0564553141593933e-02" cType="1" res="-1.8322576582431793e-01" rms="3.8127788901329041e-01" purity="1.8051694333553314e-01" nType="0">
                  <Node pos="l" depth="6" NCoef="0" IVar="-1" Cut="0.0000000000000000e+00" cType="1" res="-2.3921774700284004e-02" rms="3.5067999362945557e-01" purity="1.4617697894573212e-01" nType="-99"/>
                  <Node pos="r" depth="6" NCoef="0" IVar="-1" Cut="0.0000000000000000e+00" cType="1" res="-1.6927199438214302e-02" rms="4.0637260675430298e-01" purity="2.1321392059326172e-01" nType="-99"/>
                </Node>
              </Node>
              <Node pos="r" depth="4" NCoef="0" IVar="-1" Cut="0.0000000000000000e+00" cType="1" res="-2.8811849653720856e-02" rms="2.7723887562751770e-01" purity="8.7440967559814453e-02" nType="-99"/>
            </Node>
          </Node>
          <Node pos="r" depth="2" NCoef="0" IVar="4" Cut="9.2558461427688599e-01" cType="1" res="-6.1845470219850540e-02" rms="4.7665756940841675e-01" purity="3.8758614659309387e-01" nType="0">
            <Node pos="l" depth="3" NCoef="0" IVar="0" Cut="3.6567077040672302e-01" cType="1" res="-4.3614976108074188e-02" rms="4.8573735356330872e-01" purity="4.1595506668090820e-01" nType="0">
              <Node pos="l" depth="4" NCoef="0" IVar="0" Cut="1.7692048847675323e-01" cType="1" res="-2.7892284560948610e-03" rms="4.9722692370414734e-01" purity="4.8620602488517761e-01" nType="0">
                <Node pos="l" depth="5" NCoef="0" IVar="1" Cut="9.2805735766887665e-02" cType="1" res="2.0270453765988350e-02" rms="4.9767699837684631e-01" purity="5.1490181684494019e-01" nType="0">
                  <Node pos="l" depth="6" NCoef="0" IVar="-1" Cut="0.0000000000000000e+00" cType="1" res="4.1992957703769207e-03" rms="4.9597901105880737e-01" purity="5.4837566614151001e-01" nType="-99"/>
                  <Node pos="r" depth="6" NCoef="0" IVar="-1" Cut="0.0000000000000000e+00" cType="1" res="-1.4818391064181924e-03" rms="4.9715226888656616e-01" purity="4.7359848022460938e-01" nType="-99"/>
                </Node>
                <Node pos="r" depth="5" NCoef="0" IVar="-1" Cut="0.0000000000000000e+00" cType="1" res="-3.5843066871166229e-03" rms="4.9433022737503052e-01" purity="4.4089758396148682e-01" nType="-99"/>
              </Node>
              <Node pos="r" depth="4" NCoef="0" IVar="1" Cut="5.4197620600461960e-02" cType="1" res="-8.9950136840343475e-02" rms="4.6806436777114868e-01" purity="3.3622375130653381e-01" nType="0">
                <Node pos="l" depth="5" NCoef="0" IVar="-1" Cut="0.0000000000000000e+00" cType="1" res="-3.3311427105218172e-03" rms="4.8724961280822754e-01" purity="3.9978176355361938e-01" nType="-99"/>
                <Node pos="r" depth="5" NCoef="0" IVar="3" Cut="5.9617090225219727e-01" cType="1" res="-1.2845000624656677e-01" rms="4.4966754317283630e-01" purity="2.8986224532127380e-01" nType="0">
                  <Node pos="l" depth="6" NCoef="0" IVar="-1" Cut="0.0000000000000000e+00" cType="1" res="-1.6063684597611427e-02" rms="4.2905107140541077e-01" purity="2.4943144619464874e-01" nType="-99"/>
                  <Node pos="r" depth="6" NCoef="0" IVar="-1" Cut="0.0000000000000000e+00" cType="1" res="-9.7552528604865074e-03" rms="4.6441480517387390e-01" purity="3.2321715354919434e-01" nType="-99"/>
                </Node>
              </Node>
            </Node>
            <Node pos="r" depth="3" NCoef="0" IVar="-1" Cut="0.0000000000000000e+00" cType="1" res="-1.8107889220118523e-02" rms="3.9718538522720337e-01" purity="2.1077011525630951e-01" nType="-99"/>
          </Node>
        </Node>
        <Node pos="r" depth="1" NCoef="0" IVar="3" Cut="8.2585197687149048e-01" cType="1" res="1.3238719105720520e-01" rms="4.4646540284156799e-01" purity="7.0455449819564819e-01" nType="0">
          <Node pos="l" depth="2" NCoef="0" IVar="5" Cut="-1.5457618236541748e+00" cType="1" res="5.0253555178642273e-02" rms="4.8626053333282471e-01" purity="5.7802897691726685e-01" nType="0">
            <Node pos="l" depth="3" NCoef="0" IVar="1" Cut="5.1668083667755127e-01" cType="1" res="7.8205265104770660e-02" rms="4.8126485943794250e-01" purity="6.1813384294509888e-01" nType="0">
              <Node pos="l" depth="4" NCoef="0" IVar="0" Cut="1.8077704310417175e-01" cType="1" res="9.5808148384094238e-02" rms="4.7637212276458740e-01" purity="6.4103150367736816e-01" nType="0">
                <Node pos="l" depth="5" NCoef="0" IVar="3" Cut="7.2459292411804199e-01" cType="1" res="1.2641081213951111e-01" rms="4.6278783679008484e-01" purity="6.8707901239395142e-01" nType="0">
                  <Node pos="l" depth="6" NCoef="0" IVar="-1" Cut="0.0000000000000000e+00" cType="1" res="6.3538053072988987e-03" rms="4.8454961180686951e-01" purity="6.2230670452117920e-01" nType="-99"/>
                  <Node pos="r" depth="6" NCoef="0" IVar="7" Cut="3.0000000000000000e+00" cType="1" res="1.3914060592651367e-01" rms="4.5407354831695557e-01" purity="7.0568686723709106e-01" nType="0">
                    <Node pos="l" depth="7" NCoef="0" IVar="-1" Cut="0.0000000000000000e+00" cType="1" res="8.8609466329216957e-03" rms="4.6220895648002625e-01" purity="6.9019252061843872e-01" nType="-99"/>
                    <Node pos="r" depth="7" NCoef="0" IVar="-1" Cut="0.0000000000000000e+00" cType="1" res="1.3567101210355759e-02" rms="4.4725126028060913e-01" purity="7.2257387638092041e-01" nType="-99"/>
                  </Node>
                </Node>
                <Node pos="r" depth="5" NCoef="0" IVar="3" Cut="7.1975541114807129e-01" cType="1" res="4.8818495124578476e-02" rms="4.9282217025756836e-01" purity="5.7032674551010132e-01" nType="0">
                  <Node pos="l" depth="6" NCoef="0" IVar="-1" Cut="0.0000000000000000e+00" cType="1" res="1.1585497995838523e-03" rms="4.9845367670059204e-01" purity="5.2031946182250977e-01" nType="-99"/>
                  <Node pos="r" depth="6" NCoef="0" IVar="3" Cut="7.7110868692398071e-01" cType="1" res="6.7163765430450439e-02" rms="4.8886314034461975e-01" purity="5.9632945060729980e-01" nType="0">
                    <Node pos="l" depth="7" NCoef="0" IVar="-1" Cut="0.0000000000000000e+00" cType="1" res="4.4819833710789680e-03" rms="4.9344545602798462e-01" purity="5.7264888286590576e-01" nType="-99"/>
                    <Node pos="r" depth="7" NCoef="0" IVar="-1" Cut="0.0000000000000000e+00" cType="1" res="7.3449513874948025e-03" rms="4.8307266831398010e-01" purity="6.2324911355972290e-01" nType="-99"/>
                  </Node>
                </Node>
              </Node>
              <Node pos="r" depth="4" NCoef="0" IVar="-1" Cut="0.0000000000000000e+00" cType="1" res="-1.9946473184973001e-03" rms="4.9655997753143311e-01" purity="4.8529347777366638e-01" nType="-99"/>
            </Node>
            <Node pos="r" depth="3" NCoef="0" IVar="5" Cut="-4.1918158531188965e-01" cType="1" res="-2.7078926563262939e-02" rms="4.9160939455032349e-01" purity="4.6707308292388916e-01" nType="0">
              <Node pos="l" depth="4" NCoef="0" IVar="0" Cut="1.9507177174091339e-01" cType="1" res="1.3788294978439808e-02" rms="4.9617144465446472e-01" purity="5.2654099464416504e-01" nType="0">
                <Node pos="l" depth="5" NCoef="0" IVar="-1" Cut="0.0000000000000000e+00" cType="1" res="3.7527049425989389e-03" rms="4.9342349171638489e-01" purity="5.6475114822387695e-01" nType="-99"/>
                <Node pos="r" depth="5" NCoef="0" IVar="-1" Cut="0.0000000000000000e+00" cType="1" res="-3.0272183939814568e-03" rms="4.9650225043296814e-01" purity="4.6862286329269409e-01" nType="-99"/>
              </Node>
              <Node pos="r" depth="4" NCoef="0" IVar="-1" Cut="0.0000000000000000e+00" cType="1" res="-1.2461739592254162e-02" rms="4.6374475955963135e-01" purity="3.1538692116737366e-01" nType="-99"/>
            </Node>
          </Node>
          <Node pos="r" depth="2" NCoef="0" IVar="5" Cut="-1.7516005039215088e+00" cType="1" res="1.6192550957202911e-01" rms="4.2741522192955017e-01" purity="7.5005775690078735e-01" nType="0">
            <Node pos="l" depth="3" NCoef="0" IVar="1" Cut="1.0190397500991821e-01" cType="1" res="1.8263393640518188e-01" rms="4.1090592741966248e-01" purity="7.8133803606033325e-01" nType="0">
              <Node pos="l" depth="4" NCoef="0" IVar="5" Cut="-2.6628570556640625e+00" cType="1" res="2.0389181375503540e-01" rms="3.9339265227317810e-01" purity="8.0656337738037109e-01" nType="0">
                <Node pos="l" depth="5" NCoef="0" IVar="4" Cut="-1.0739291906356812e+00" cType="1" res="2.2230820357799530e-01" rms="3.7383446097373962e-01" purity="8.3070206642150879e-01" nType="0">
                  <Node pos="l" depth="6" NCoef="0" IVar="4" Cut="-2.5930645465850830e+00" cType="1" res="2.0117847621440887e-01" rms="4.0278723835945129e-01" purity="7.9540848731994629e-01" nType="0">
                    <Node pos="l" depth="7" NCoef="0" IVar="-1" Cut="0.0000000000000000e+00" cType="1" res="1.8332306295633316e-02" rms="3.8069662451744080e-01" purity="8.2369852066040039e-01" nType="-99"/>
                    <Node pos="r" depth="7" NCoef="0" IVar="-1" Cut="0.0000000000000000e+00" cType="1" res="1.4375275932252407e-02" rms="4.1207686066627502e-01" purity="7.8263527154922485e-01" nType="-99"/>
                  </Node>
                  <Node pos="r" depth="6" NCoef="0" IVar="3" Cut="9.8454552888870239e-01" cType="1" res="2.3374679684638977e-01" rms="3.5666117072105408e-01" purity="8.4980821609497070e-01" nType="0">
                    <Node pos="l" depth="7" NCoef="0" IVar="-1" Cut="0.0000000000000000e+00" cType="1" res="1.6983285546302795e-02" rms="3.8152992725372314e-01" purity="8.2220876216888428e-01" nType="-99"/>
                    <Node pos="r" depth="7" NCoef="0" IVar="-1" Cut="0.0000000000000000e+00" cType="1" res="1.8981490284204483e-02" rms="3.5075953602790833e-01" purity="8.5589128732681274e-01" nType="-99"/>
                  </Node>
                </Node>
                <Node pos="r" depth="5" NCoef="0" IVar="4" Cut="-9.3898260593414307e-01" cType="1" res="1.8022632598876953e-01" rms="4.1598609089851379e-01" purity="7.7554476261138916e-01" nType="0">
                  <Node pos="l" depth="6" NCoef="0" IVar="4" Cut="-2.4407129287719727e+00" cType="1" res="1.6251364350318909e-01" rms="4.3222919106483459e-01" purity="7.4971538782119751e-01" nType="0">
                    <Node pos="l" depth="7" NCoef="0" IVar="-1" Cut="0.0000000000000000e+00" cType="1" res="1.6054598614573479e-02" rms="4.1134098172187805e-01" purity="7.8294783830642700e-01" nType="-99"/>
                    <Node pos="r" depth="7" NCoef="0" IVar="-1" Cut="0.0000000000000000e+00" cType="1" res="1.1626614257693291e-02" rms="4.4114214181900024e-01" purity="7.3393404483795166e-01" nType="-99"/>
                  </Node>
                  <Node pos="r" depth="6" NCoef="0" IVar="5" Cut="-2.2218976020812988e+00" cType="1" res="1.9464524090290070e-01" rms="4.0170323848724365e-01" purity="7.9657101631164551e-01" nType="0">
                    <Node pos="l" depth="7" NCoef="0" IVar="-1" Cut="0.0000000000000000e+00" cType="1" res="1.6818437725305557e-02" rms="3.8680702447891235e-01" purity="8.1614226102828979e-01" nType="-99"/>
                    <Node pos="r" depth="7" NCoef="0" IVar="-1" Cut="0.0000000000000000e+00" cType="1" res="1.4264920726418495e-02" rms="4.2041483521461487e-01" purity="7.6972770690917969e-01" nType="-99"/>
                  </Node>
                </Node>
              </Node>
              <Node pos="r" depth="4" NCoef="0" IVar="5" Cut="-2.6628980636596680e+00" cType="1" res="1.5079589188098907e-01" rms="4.3387758731842041e-01" purity="7.4355787038803101e-01" nType="0">
                <Node pos="l" depth="5" NCoef="0" IVar="4" Cut="-7.9268097877502441e-01" cType="1" res="1.7622978985309601e-01" rms="4.1537150740623474e-01" purity="7.7447628974914551e-01" nType="0">
                  <Node pos="l" depth="6" NCoef="0" IVar="3" Cut="8.9450019598007202e-01" cType="1" res="1.4396639168262482e-01" rms="4.4192445278167725e-01" purity="7.2979044914245605e-01" nType="0">
                    <Node pos="l" depth="7" NCoef="0" IVar="-1" Cut="0.0000000000000000e+00" cType="1" res="9.7073689103126526e-03" rms="4.5725339651107788e-01" purity="6.9863533973693848e-01" nType="-99"/>
                    <Node pos="r" depth="7" NCoef="0" IVar="-1" Cut="0.0000000000000000e+00" cType="1" res="1.1651332490146160e-02" rms="4.3330487608909607e-01" purity="7.4555665254592896e-01" nType="-99"/>
                  </Node>
                  <Node pos="r" depth="6" NCoef="0" IVar="4" Cut="-4.1485592722892761e-01" cType="1" res="2.0303700864315033e-01" rms="3.8991782069206238e-01" purity="8.1160527467727661e-01" nType="0">
                    <Node pos="l" depth="7" NCoef="0" IVar="-1" Cut="0.0000000000000000e+00" cType="1" res="1.4904365874826908e-02" rms="3.9824831485748291e-01" purity="8.0100429058074951e-01" nType="-99"/>
                    <Node pos="r" depth="7" NCoef="0" IVar="-1" Cut="0.0000000000000000e+00" cType="1" res="1.7044415697455406e-02" rms="3.8601583242416382e-01" purity="8.1636703014373779e-01" nType="-99"/>
                  </Node>
                </Node>
                <Node pos="r" depth="5" NCoef="0" IVar="3" Cut="8.8835144042968750e-01" cType="1" res="1.1860951781272888e-01" rms="4.5418491959571838e-01" purity="7.0443069934844971e-01" nType="0">
                  <Node pos="l" depth="6" NCoef="0" IVar="-1" Cut="0.0000000000000000e+00" cType="1" res="6.3761775381863117e-03" rms="4.7501075267791748e-01" purity="6.5326905250549316e-01" nType="-99"/>
                  <Node pos="r" depth="6" NCoef="0" IVar="5" Cut="-2.1043658256530762e+00" cType="1" res="1.3262097537517548e-01" rms="4.4589412212371826e-01" purity="7.2214168310165405e-01" nType="0">
                    <Node pos="l" depth="7" NCoef="0" IVar="-1" Cut="0.0000000000000000e+00" cType="1" res="1.1873100884258747e-02" rms="4.3656724691390991e-01" purity="7.4051618576049805e-01" nType="-99"/>
                    <Node pos="r" depth="7" NCoef="0" IVar="-1" Cut="0.0000000000000000e+00" cType="1" res="7.9163946211338043e-03" rms="4.6519443392753601e-01" purity="6.7846637964248657e-01" nType="-99"/>
                  </Node>
                </Node>
              </Node>
            </Node>
            <Node pos="r" depth="3" NCoef="0" IVar="5" Cut="-4.8372888565063477e-01" cType="1" res="7.6287925243377686e-02" rms="4.8042774200439453e-01" purity="6.2070155143737793e-01" nType="0">
              <Node pos="l" depth="4" NCoef="0" IVar="5" Cut="-9.7449392080307007e-01" cType="1" res="9.7484298050403595e-02" rms="4.7386589646339417e-01" purity="6.5317416191101074e-01" nType="0">
                <Node pos="l" depth="5" NCoef="0" IVar="7" Cut="2.0000000000000000e+00" cType="1" res="1.1167503893375397e-01" rms="4.6725648641586304e-01" purity="6.7333418130874634e-01" nType="0">
                  <Node pos="l" depth="6" NCoef="0" IVar="1" Cut="8.2654766738414764e-02" cType="1" res="1.2192896753549576e-01" rms="4.6060904860496521e-01" purity="6.9178032875061035e-01" nType="0">
                    <Node pos="l" depth="7" NCoef="0" IVar="-1" Cut="0.0000000000000000e+00" cType="1" res="1.1925119906663895e-02" rms="4.4777047634124756e-01" purity="7.2105985879898071e-01" nType="-99"/>
                    <Node pos="r" depth="7" NCoef="0" IVar="-1" Cut="0.0000000000000000e+00" cType="1" res="7.0094089023768902e-03" rms="4.7441172599792480e-01" purity="6.5400576591491699e-01" nType="-99"/>
                  </Node>
                  <Node pos="r" depth="6" NCoef="0" IVar="-1" Cut="0.0000000000000000e+00" cType="1" res="7.9250512644648552e-03" rms="4.7786432504653931e-01" purity="6.4448851346969604e-01" nType="-99"/>
                </Node>
                <Node pos="r" depth="5" NCoef="0" IVar="-1" Cut="0.0000000000000000e+00" cType="1" res="4.6759382821619511e-03" rms="4.9002891778945923e-01" purity="5.9193962812423706e-01" nType="-99"/>
              </Node>
              <Node pos="r" depth="4" NCoef="0" IVar="-1" Cut="0.0000000000000000e+00" cType="1" res="-1.5429219929501414e-03" rms="4.9774330854415894e-01" purity="4.7676467895507812e-01" nType="-99"/>
            </Node>
          </Node>
        </Node>
      </Node>
    </BinaryTree>
    <BinaryTree type="DecisionTree" boostWeight="1.0000000000000000e+00" itree="12">
      <Node pos="s" depth="0" NCoef="0" IVar="3" Cut="6.7608582973480225e-01" cType="1" res="1.3514055870473385e-02" rms="4.4038721919059753e-01" purity="4.9901795387268066e-01" nType="0">
        <Node pos="l" depth="1" NCoef="0" IVar="3" Cut="5.4526060819625854e-01" cType="1" res="-1.5364177525043488e-01" rms="3.7462058663368225e-01" purity="1.9887679815292358e-01" nType="0">
          <Node pos="l" depth="2" NCoef="0" IVar="1" Cut="1.4958879351615906e-01" cType="1" res="-1.8982510268688202e-01" rms="3.2133442163467407e-01" purity="1.2807308137416840e-01" nType="0">
            <Node pos="l" depth="3" NCoef="0" IVar="5" Cut="-1.5001565217971802e+00" cType="1" res="-1.5790905058383942e-01" rms="3.6489099264144897e-01" purity="1.7329667508602142e-01" nType="0">
              <Node pos="l" depth="4" NCoef="0" IVar="3" Cut="4.3989729881286621e-01" cType="1" res="-1.2622569501399994e-01" rms="4.0374264121055603e-01" purity="2.2320641577243805e-01" nType="0">
                <Node pos="l" depth="5" NCoef="0" IVar="6" Cut="1.7252676188945770e-01" cType="1" res="-1.5261940658092499e-01" rms="3.6650681495666504e-01" purity="1.6984249651432037e-01" nType="0">
                  <Node pos="l" depth="6" NCoef="0" IVar="0" Cut="1.4707254171371460e+00" cType="1" res="-1.7998656630516052e-01" rms="3.2349824905395508e-01" purity="1.2340649962425232e-01" nType="0">
                    <Node pos="l" depth="7" NCoef="0" IVar="-1" Cut="0.0000000000000000e+00" cType="1" res="-1.8707325682044029e-02" rms="3.6613887548446655e-01" purity="1.6375581920146942e-01" nType="-99"/>
                    <Node pos="r" depth="7" NCoef="0" IVar="-1" Cut="0.0000000000000000e+00" cType="1" res="-2.9992057010531425e-02" rms="2.6308494806289673e-01" purity="7.6981917023658752e-02" nType="-99"/>
                  </Node>
                  <Node pos="r" depth="6" NCoef="0" IVar="-1" Cut="0.0000000000000000e+00" cType="1" res="-1.1237627826631069e-02" rms="4.3147212266921997e-01" purity="2.5732892751693726e-01" nType="-99"/>
                </Node>
                <Node pos="r" depth="5" NCoef="0" IVar="0" Cut="5.1476687192916870e-01" cType="1" res="-8.1379242241382599e-02" rms="4.5666828751564026e-01" purity="3.1387886404991150e-01" nType="0">
                  <Node pos="l" depth="6" NCoef="0" IVar="-1" Cut="0.0000000000000000e+00" cType="1" res="-2.4969344958662987e-03" rms="4.8902070522308350e-01" purity="4.0472975373268127e-01" nType="-99"/>
                  <Node pos="r" depth="6" NCoef="0" IVar="-1" Cut="0.0000000000000000e+00" cType="1" res="-1.3129157945513725e-02" rms="4.2506638169288635e-01" purity="2.4291969835758209e-01" nType="-99"/>
                </Node>
              </Node>
              <Node pos="r" depth="4" NCoef="0" IVar="4" Cut="1.8624025583267212e+00" cType="1" res="-1.9690915942192078e-01" rms="3.0598986148834229e-01" purity="1.1186110228300095e-01" nType="0">
                <Node pos="l" depth="5" NCoef="0" IVar="7" Cut="6.0000000000000000e+00" cType="1" res="-1.7560285329818726e-01" rms="3.5309711098670959e-01" purity="1.5404440462589264e-01" nType="0">
                  <Node pos="l" depth="6" NCoef="0" IVar="-1" Cut="0.0000000000000000e+00" cType="1" res="-1.8929651007056236e-02" rms="3.7519955635070801e-01" purity="1.7803043127059937e-01" nType="-99"/>
                  <Node pos="r" depth="6" NCoef="0" IVar="-1" Cut="0.0000000000000000e+00" cType="1" res="-2.5920584797859192e-02" rms="3.0473768711090088e-01" purity="1.0826002061367035e-01" nType="-99"/>
                </Node>
                <Node pos="r" depth="5" NCoef="0" IVar="3" Cut="3.0530610680580139e-01" cType="1" res="-2.2321444749832153e-01" rms="2.3240093886852264e-01" purity="5.9729661792516708e-02" nType="0">
                  <Node pos="l" depth="6" NCoef="0" IVar="-1" Cut="0.0000000000000000e+00" cType="1" res="-2.8249124065041542e-02" rms="2.6833647489547729e-01" purity="8.2580909132957458e-02" nType="-99"/>
                  <Node pos="r" depth="6" NCoef="0" IVar="-1" Cut="0.0000000000000000e+00" cType="1" res="-3.2296396791934967e-02" rms="1.9751784205436707e-01" purity="4.1853409260511398e-02" nType="-99"/>
                </Node>
              </Node>
            </Node>
            <Node pos="r" depth="3" NCoef="0" IVar="5" Cut="-1.6251822710037231e+00" cType="1" res="-2.1201349794864655e-01" rms="2.8508898615837097e-01" purity="9.6633113920688629e-02" nType="0">
              <Node pos="l" depth="4" NCoef="0" IVar="6" Cut="1.0143245011568069e-01" cType="1" res="-1.9596682488918304e-01" rms="3.1981369853019714e-01" purity="1.2472487241029739e-01" nType="0">
                <Node pos="l" depth="5" NCoef="0" IVar="3" Cut="4.7589150071144104e-01" cType="1" res="-2.1622800827026367e-01" rms="2.7725037932395935e-01" purity="8.8799238204956055e-02" nType="0">
                  <Node pos="l" depth="6" NCoef="0" IVar="2" Cut="7.6022415161132812e+01" cType="1" res="-2.2445955872535706e-01" rms="2.4010349810123444e-01" purity="6.2619760632514954e-02" nType="0">
                    <Node pos="l" depth="7" NCoef="0" IVar="-1" Cut="0.0000000000000000e+00" cType="1" res="-2.8885828331112862e-02" rms="2.7468889951705933e-01" purity="8.3739340305328369e-02" nType="-99"/>
                    <Node pos="r" depth="7" NCoef="0" IVar="-1" Cut="0.0000000000000000e+00" cType="1" res="-3.2109521329402924e-02" rms="2.2500500082969666e-01" purity="5.4526221007108688e-02" nType="-99"/>
                  </Node>
                  <Node pos="r" depth="6" NCoef="0" IVar="-1" Cut="0.0000000000000000e+00" cType="1" res="-1.9896326586604118e-02" rms="3.8719442486763000e-01" purity="1.9005028903484344e-01" nType="-99"/>
                </Node>
                <Node pos="r" depth="5" NCoef="0" IVar="3" Cut="4.0504086017608643e-01" cType="1" res="-1.7175348103046417e-01" rms="3.6273136734962463e-01" purity="1.6765822470188141e-01" nType="0">
                  <Node pos="l" depth="6" NCoef="0" IVar="7" Cut="6.0000000000000000e+00" cType="1" res="1.0302367620170116e-02" rms="1.2688229978084564e-01" purity="1.2479606270790100e-01" nType="0">
                    <Node pos="l" depth="7" NCoef="0" IVar="-1" Cut="0.0000000000000000e+00" cType="1" res="-2.1015964448451996e-02" rms="3.6462390422821045e-01" purity="1.6421312093734741e-01" nType="-99"/>
                    <Node pos="r" depth="7" NCoef="0" IVar="-1" Cut="0.0000000000000000e+00" cType="1" res="-2.9131626710295677e-02" rms="2.8605565428733826e-01" purity="9.2949353158473969e-02" nType="-99"/>
                  </Node>
                  <Node pos="r" depth="6" NCoef="0" IVar="-1" Cut="0.0000000000000000e+00" cType="1" res="-1.2061970308423042e-02" rms="4.4044974446296692e-01" purity="2.7527260780334473e-01" nType="-99"/>
                </Node>
              </Node>
              <Node pos="r" depth="4" NCoef="0" IVar="4" Cut="1.0134392976760864e+00" cType="1" res="-2.3130707442760468e-01" rms="2.3524160683155060e-01" purity="6.2857203185558319e-02" nType="0">
                <Node pos="l" depth="5" NCoef="0" IVar="7" Cut="6.0000000000000000e+00" cType="1" res="-2.1341586112976074e-01" rms="2.9846900701522827e-01" purity="1.0449635982513428e-01" nType="0">
                  <Node pos="l" depth="6" NCoef="0" IVar="-1" Cut="0.0000000000000000e+00" cType="1" res="-2.4515977129340172e-02" rms="3.3326297998428345e-01" purity="1.3336008787155151e-01" nType="-99"/>
                  <Node pos="r" depth="6" NCoef="0" IVar="-1" Cut="0.0000000000000000e+00" cType="1" res="-3.3315565437078476e-02" rms="2.2860391438007355e-01" purity="5.7555694133043289e-02" nType="-99"/>
                </Node>
                <Node pos="r" depth="5" NCoef="0" IVar="6" Cut="1.1597786098718643e-01" cType="1" res="-2.4323853850364685e-01" rms="1.8014933168888092e-01" purity="3.5055454820394516e-02" nType="0">
                  <Node pos="l" depth="6" NCoef="0" IVar="6" Cut="8.2603834569454193e-02" cType="1" res="-2.5069147348403931e-01" rms="1.3675351440906525e-01" purity="1.9487073644995689e-02" nType="0">
                    <Node pos="l" depth="7" NCoef="0" IVar="-1" Cut="0.0000000000000000e+00" cType="1" res="-3.6725688725709915e-02" rms="1.1422234028577805e-01" purity="1.3224377296864986e-02" nType="-99"/>
                    <Node pos="r" depth="7" NCoef="0" IVar="-1" Cut="0.0000000000000000e+00" cType="1" res="-3.4768741577863693e-02" rms="1.6668650507926941e-01" purity="2.9691364616155624e-02" nType="-99"/>
                  </Node>
                  <Node pos="r" depth="6" NCoef="0" IVar="5" Cut="1.2822669744491577e+00" cType="1" res="-2.3349635303020477e-01" rms="2.2419330477714539e-01" purity="5.5405799299478531e-02" nType="0">
                    <Node pos="l" depth="7" NCoef="0" IVar="-1" Cut="0.0000000000000000e+00" cType="1" res="-3.0592175200581551e-02" rms="2.5114831328392029e-01" purity="7.0675700902938843e-02" nType="-99"/>
                    <Node pos="r" depth="7" NCoef="0" IVar="-1" Cut="0.0000000000000000e+00" cType="1" res="-3.5057678818702698e-02" rms="1.9416216015815735e-01" purity="4.0603034198284149e-02" nType="-99"/>
                  </Node>
                </Node>
              </Node>
            </Node>
          </Node>
          <Node pos="r" depth="2" NCoef="0" IVar="5" Cut="-1.1635315418243408e+00" cType="1" res="-5.5416472256183624e-02" rms="4.7729516029357910e-01" purity="3.9108467102050781e-01" nType="0">
            <Node pos="l" depth="3" NCoef="0" IVar="0" Cut="3.5398793220520020e-01" cType="1" res="-3.2462682574987411e-02" rms="4.8745545744895935e-01" purity="4.2728623747825623e-01" nType="0">
              <Node pos="l" depth="4" NCoef="0" IVar="2" Cut="1.1904577636718750e+02" cType="1" res="1.1234631761908531e-02" rms="4.9824923276901245e-01" purity="5.0442659854888916e-01" nType="0">
                <Node pos="l" depth="5" NCoef="0" IVar="-1" Cut="0.0000000000000000e+00" cType="1" res="3.2938211224973202e-03" rms="4.9734163284301758e-01" purity="5.3815287351608276e-01" nType="-99"/>
                <Node pos="r" depth="5" NCoef="0" IVar="6" Cut="1.0938237607479095e-01" cType="1" res="-4.5026307925581932e-03" rms="4.9801239371299744e-01" purity="4.8655018210411072e-01" nType="0">
                  <Node pos="l" depth="6" NCoef="0" IVar="-1" Cut="0.0000000000000000e+00" cType="1" res="-2.5109578855335712e-03" rms="4.9708619713783264e-01" purity="4.6440252661705017e-01" nType="-99"/>
                  <Node pos="r" depth="6" NCoef="0" IVar="-1" Cut="0.0000000000000000e+00" cType="1" res="1.7354818992316723e-03" rms="4.9778759479522705e-01" purity="5.0966888666152954e-01" nType="-99"/>
                </Node>
              </Node>
              <Node pos="r" depth="4" NCoef="0" IVar="7" Cut="3.0000000000000000e+00" cType="1" res="-7.6215408742427826e-02" rms="4.7084391117095947e-01" purity="3.4726825356483459e-01" nType="0">
                <Node pos="l" depth="5" NCoef="0" IVar="-1" Cut="0.0000000000000000e+00" cType="1" res="-1.3007456436753273e-02" rms="4.4706472754478455e-01" purity="2.8496363759040833e-01" nType="-99"/>
                <Node pos="r" depth="5" NCoef="0" IVar="2" Cut="1.1439213562011719e+02" cType="1" res="-5.4102852940559387e-02" rms="4.7982227802276611e-01" purity="3.7358576059341431e-01" nType="0">
                  <Node pos="l" depth="6" NCoef="0" IVar="-1" Cut="0.0000000000000000e+00" cType="1" res="-1.5190321719273925e-03" rms="4.8955282568931580e-01" purity="4.1645839810371399e-01" nType="-99"/>
                  <Node pos="r" depth="6" NCoef="0" IVar="-1" Cut="0.0000000000000000e+00" cType="1" res="-7.9703284427523613e-03" rms="4.7035956382751465e-01" purity="3.4093573689460754e-01" nType="-99"/>
                </Node>
              </Node>
            </Node>
            <Node pos="r" depth="3" NCoef="0" IVar="5" Cut="-7.8239195048809052e-02" cType="1" res="-1.2971128523349762e-01" rms="4.3457892537117004e-01" purity="2.7391052246093750e-01" nType="0">
              <Node pos="l" depth="4" NCoef="0" IVar="-1" Cut="0.0000000000000000e+00" cType="1" res="-7.6310061849653721e-03" rms="4.6938708424568176e-01" purity="3.4640455245971680e-01" nType="-99"/>
              <Node pos="r" depth="4" NCoef="0" IVar="-1" Cut="0.0000000000000000e+00" cType="1" res="-2.2113004699349403e-02" rms="3.6101618409156799e-01" purity="1.6054601967334747e-01" nType="-99"/>
            </Node>
          </Node>
        </Node>
        <Node pos="r" depth="1" NCoef="0" IVar="3" Cut="8.2561016082763672e-01" cType="1" res="1.2848225235939026e-01" rms="4.4538906216621399e-01" purity="7.0545220375061035e-01" nType="0">
          <Node pos="l" depth="2" NCoef="0" IVar="5" Cut="-1.5457618236541748e+00" cType="1" res="4.5949436724185944e-02" rms="4.8661410808563232e-01" purity="5.7537204027175903e-01" nType="0">
            <Node pos="l" depth="3" NCoef="0" IVar="0" Cut="3.6592659354209900e-01" cType="1" res="7.0604950189590454e-02" rms="4.8227828741073608e-01" purity="6.1347573995590210e-01" nType="0">
              <Node pos="l" depth="4" NCoef="0" IVar="1" Cut="-1.1595818214118481e-02" cType="1" res="8.4696061909198761e-02" rms="4.7826707363128662e-01" purity="6.3429516553878784e-01" nType="0">
                <Node pos="l" depth="5" NCoef="0" IVar="3" Cut="7.2914189100265503e-01" cType="1" res="1.2030354887247086e-01" rms="4.6505373716354370e-01" purity="6.7896872758865356e-01" nType="0">
                  <Node pos="l" depth="6" NCoef="0" IVar="-1" Cut="0.0000000000000000e+00" cType="1" res="6.6307247616350651e-03" rms="4.8387494683265686e-01" purity="6.2253713607788086e-01" nType="-99"/>
                  <Node pos="r" depth="6" NCoef="0" IVar="7" Cut="3.0000000000000000e+00" cType="1" res="1.0132490843534470e-01" rms="3.8566634058952332e-01" purity="6.9892287254333496e-01" nType="0">
                    <Node pos="l" depth="7" NCoef="0" IVar="-1" Cut="0.0000000000000000e+00" cType="1" res="8.8191917166113853e-03" rms="4.6624451875686646e-01" purity="6.7680472135543823e-01" nType="-99"/>
                    <Node pos="r" depth="7" NCoef="0" IVar="-1" Cut="0.0000000000000000e+00" cType="1" res="1.3952133245766163e-02" rms="4.4271790981292725e-01" purity="7.3135387897491455e-01" nType="-99"/>
                  </Node>
                </Node>
                <Node pos="r" depth="5" NCoef="0" IVar="0" Cut="1.7705847322940826e-01" cType="1" res="5.7092037051916122e-02" rms="4.8647433519363403e-01" purity="5.9966289997100830e-01" nType="0">
                  <Node pos="l" depth="6" NCoef="0" IVar="3" Cut="7.4844795465469360e-01" cType="1" res="7.8200206160545349e-02" rms="4.8040831089019775e-01" purity="6.2950682640075684e-01" nType="0">
                    <Node pos="l" depth="7" NCoef="0" IVar="-1" Cut="0.0000000000000000e+00" cType="1" res="4.4032637961208820e-03" rms="4.9041840434074402e-01" purity="5.8942759037017822e-01" nType="-99"/>
                    <Node pos="r" depth="7" NCoef="0" IVar="-1" Cut="0.0000000000000000e+00" cType="1" res="7.2974888607859612e-03" rms="4.7387924790382385e-01" purity="6.5283769369125366e-01" nType="-99"/>
                  </Node>
                  <Node pos="r" depth="6" NCoef="0" IVar="-1" Cut="0.0000000000000000e+00" cType="1" res="1.2487530475482345e-03" rms="4.9584886431694031e-01" purity="5.3872221708297729e-01" nType="-99"/>
                </Node>
              </Node>
              <Node pos="r" depth="4" NCoef="0" IVar="-1" Cut="0.0000000000000000e+00" cType="1" res="-1.5192298451438546e-03" rms="4.9772074818611145e-01" purity="4.8246321082115173e-01" nType="-99"/>
            </Node>
            <Node pos="r" depth="3" NCoef="0" IVar="5" Cut="-4.1901361942291260e-01" cType="1" res="-2.0837938413023949e-02" rms="4.9200165271759033e-01" purity="4.7215592861175537e-01" nType="0">
              <Node pos="l" depth="4" NCoef="0" IVar="3" Cut="7.7252095937728882e-01" cType="1" res="1.3333128765225410e-02" rms="4.9617996811866760e-01" purity="5.2714633941650391e-01" nType="0">
                <Node pos="l" depth="5" NCoef="0" IVar="-1" Cut="0.0000000000000000e+00" cType="1" res="-8.0387358320876956e-04" rms="4.9711996316909790e-01" purity="5.0029176473617554e-01" nType="-99"/>
                <Node pos="r" depth="5" NCoef="0" IVar="-1" Cut="0.0000000000000000e+00" cType="1" res="4.2356145568192005e-03" rms="4.9239221215248108e-01" purity="5.7110834121704102e-01" nType="-99"/>
              </Node>
              <Node pos="r" depth="4" NCoef="0" IVar="-1" Cut="0.0000000000000000e+00" cType="1" res="-1.0091927833855152e-02" rms="4.7034472227096558e-01" purity="3.3319216966629028e-01" nType="-99"/>
            </Node>
          </Node>
          <Node pos="r" depth="2" NCoef="0" IVar="5" Cut="-1.0507403612136841e+00" cType="1" res="1.5816868841648102e-01" rms="4.2569938302040100e-01" purity="7.5224107503890991e-01" nType="0">
            <Node pos="l" depth="3" NCoef="0" IVar="5" Cut="-1.9847303628921509e+00" cType="1" res="1.7053307592868805e-01" rms="4.1670459508895874e-01" purity="7.7132755517959595e-01" nType="0">
              <Node pos="l" depth="4" NCoef="0" IVar="4" Cut="-1.0739719867706299e+00" cType="1" res="1.8364377319812775e-01" rms="4.0434619784355164e-01" purity="7.9090201854705811e-01" nType="0">
                <Node pos="l" depth="5" NCoef="0" IVar="4" Cut="-2.7308404445648193e+00" cType="1" res="1.5982069075107574e-01" rms="4.2911905050277710e-01" purity="7.5392228364944458e-01" nType="0">
                  <Node pos="l" depth="6" NCoef="0" IVar="4" Cut="-2.9949710369110107e+00" cType="1" res="1.9122922420501709e-01" rms="4.0146464109420776e-01" purity="7.9704952239990234e-01" nType="0">
                    <Node pos="l" depth="7" NCoef="0" IVar="-1" Cut="0.0000000000000000e+00" cType="1" res="1.6571633517742157e-02" rms="3.9546182751655579e-01" purity="8.0542248487472534e-01" nType="-99"/>
                    <Node pos="r" depth="7" NCoef="0" IVar="-1" Cut="0.0000000000000000e+00" cType="1" res="1.5436769463121891e-02" rms="4.0854072570800781e-01" purity="7.8690695762634277e-01" nType="-99"/>
                  </Node>
                  <Node pos="r" depth="6" NCoef="0" IVar="3" Cut="8.9554417133331299e-01" cType="1" res="1.5068405866622925e-01" rms="4.3641081452369690e-01" purity="7.4137675762176514e-01" nType="0">
                    <Node pos="l" depth="7" NCoef="0" IVar="-1" Cut="0.0000000000000000e+00" cType="1" res="1.1550090275704861e-02" rms="4.4218131899833679e-01" purity="7.3051273822784424e-01" nType="-99"/>
                    <Node pos="r" depth="7" NCoef="0" IVar="-1" Cut="0.0000000000000000e+00" cType="1" res="1.1631988920271397e-02" rms="4.3193647265434265e-01" purity="7.4946767091751099e-01" nType="-99"/>
                  </Node>
                </Node>
                <Node pos="r" depth="5" NCoef="0" IVar="5" Cut="-2.8884854316711426e+00" cType="1" res="1.9889885187149048e-01" rms="3.8688272237777710e-01" purity="8.1458193063735962e-01" nType="0">
                  <Node pos="l" depth="6" NCoef="0" IVar="3" Cut="9.8799961805343628e-01" cType="1" res="2.1810397505760193e-01" rms="3.6525136232376099e-01" purity="8.4028184413909912e-01" nType="0">
                    <Node pos="l" depth="7" NCoef="0" IVar="-1" Cut="0.0000000000000000e+00" cType="1" res="1.5976645052433014e-02" rms="3.8802081346511841e-01" purity="8.1346541643142700e-01" nType="-99"/>
                    <Node pos="r" depth="7" NCoef="0" IVar="-1" Cut="0.0000000000000000e+00" cType="1" res="1.8041601404547691e-02" rms="3.5925102233886719e-01" purity="8.4685826301574707e-01" nType="-99"/>
                  </Node>
                  <Node pos="r" depth="6" NCoef="0" IVar="7" Cut="2.0000000000000000e+00" cType="1" res="1.8372267484664917e-01" rms="4.0114316344261169e-01" purity="7.9235631227493286e-01" nType="0">
                    <Node pos="l" depth="7" NCoef="0" IVar="-1" Cut="0.0000000000000000e+00" cType="1" res="1.5195077285170555e-02" rms="3.9903622865676880e-01" purity="7.9949074983596802e-01" nType="-99"/>
                    <Node pos="r" depth="7" NCoef="0" IVar="-1" Cut="0.0000000000000000e+00" cType="1" res="1.1295850388705730e-02" rms="4.3843373656272888e-01" purity="7.3549866676330566e-01" nType="-99"/>
                  </Node>
                </Node>
              </Node>
              <Node pos="r" depth="4" NCoef="0" IVar="7" Cut="2.0000000000000000e+00" cType="1" res="1.1653802543878555e-01" rms="4.6010020375251770e-01" purity="6.8958824872970581e-01" nType="0">
                <Node pos="l" depth="5" NCoef="0" IVar="1" Cut="2.4437086284160614e-01" cType="1" res="1.3207566738128662e-01" rms="4.5057505369186401e-01" purity="7.1339917182922363e-01" nType="0">
                  <Node pos="l" depth="6" NCoef="0" IVar="5" Cut="-1.6533478498458862e+00" cType="1" res="1.5117156505584717e-01" rms="4.4041687250137329e-01" purity="7.3455303907394409e-01" nType="0">
                    <Node pos="l" depth="7" NCoef="0" IVar="-1" Cut="0.0000000000000000e+00" cType="1" res="1.3413944281637669e-02" rms="4.2527970671653748e-01" purity="7.6160871982574463e-01" nType="-99"/>
                    <Node pos="r" depth="7" NCoef="0" IVar="-1" Cut="0.0000000000000000e+00" cType="1" res="1.0741908103227615e-02" rms="4.5408222079277039e-01" purity="7.0795673131942749e-01" nType="-99"/>
                  </Node>
                  <Node pos="r" depth="6" NCoef="0" IVar="-1" Cut="0.0000000000000000e+00" cType="1" res="6.6237947903573513e-03" rms="4.7215971350669861e-01" purity="6.5902787446975708e-01" nType="-99"/>
                </Node>
                <Node pos="r" depth="5" NCoef="0" IVar="4" Cut="-1.7238781452178955e+00" cType="1" res="8.9917823672294617e-02" rms="4.7533768415451050e-01" purity="6.5177851915359497e-01" nType="0">
                  <Node pos="l" depth="6" NCoef="0" IVar="-1" Cut="0.0000000000000000e+00" cType="1" res="8.9164469391107559e-03" rms="4.6889260411262512e-01" purity="6.7094576358795166e-01" nType="-99"/>
                  <Node pos="r" depth="6" NCoef="0" IVar="-1" Cut="0.0000000000000000e+00" cType="1" res="6.5732197836041451e-03" rms="4.7965472936630249e-01" purity="6.3788563013076782e-01" nType="-99"/>
                </Node>
              </Node>
            </Node>
            <Node pos="r" depth="3" NCoef="0" IVar="5" Cut="-2.3361921310424805e-01" cType="1" res="2.3321047425270081e-02" rms="4.9397087097167969e-01" purity="5.4408198595046997e-01" nType="0">
              <Node pos="l" depth="4" NCoef="0" IVar="3" Cut="9.5651274919509888e-01" cType="1" res="5.5283643305301666e-02" rms="4.9038729071617126e-01" purity="5.8823710680007935e-01" nType="0">
                <Node pos="l" depth="5" NCoef="0" IVar="-1" Cut="0.0000000000000000e+00" cType="1" res="3.2867742702364922e-03" rms="4.9460777640342712e-01" purity="5.6656646728515625e-01" nType="-99"/>
                <Node pos="r" depth="5" NCoef="0" IVar="-1" Cut="0.0000000000000000e+00" cType="1" res="5.5674836039543152e-03" rms="4.8697659373283386e-01" purity="6.0378909111022949e-01" nType="-99"/>
              </Node>
              <Node pos="r" depth="4" NCoef="0" IVar="-1" Cut="0.0000000000000000e+00" cType="1" res="-5.1487116143107414e-03" rms="4.9371594190597534e-01" purity="4.3150499463081360e-01" nType="-99"/>
            </Node>
          </Node>
        </Node>
      </Node>
    </BinaryTree>
    <BinaryTree type="DecisionTree" boostWeight="1.0000000000000000e+00" itree="13">
      <Node pos="s" depth="0" NCoef="0" IVar="3" Cut="6.7569339275360107e-01" cType="1" res="1.5464491210877895e-02" rms="4.3790417909622192e-01" purity="5.0132143497467041e-01" nType="0">
        <Node pos="l" depth="1" NCoef="0" IVar="3" Cut="4.7991049289703369e-01" cType="1" res="-1.4536307752132416e-01" rms="3.7355479598045349e-01" purity="1.9882257282733917e-01" nType="0">
          <Node pos="l" depth="2" NCoef="0" IVar="6" Cut="2.3024281859397888e-01" cType="1" res="-1.8956854939460754e-01" rms="2.9529711604118347e-01" purity="1.0335726290941238e-01" nType="0">
            <Node pos="l" depth="3" NCoef="0" IVar="5" Cut="-1.2442203760147095e+00" cType="1" res="-1.9894538819789886e-01" rms="2.7684372663497925e-01" purity="8.9063592255115509e-02" nType="0">
              <Node pos="l" depth="4" NCoef="0" IVar="3" Cut="3.2892084121704102e-01" cType="1" res="-1.8385459482669830e-01" rms="3.1238701939582825e-01" purity="1.1607991904020309e-01" nType="0">
                <Node pos="l" depth="5" NCoef="0" IVar="7" Cut="5.0000000000000000e+00" cType="1" res="1.0592022538185120e-01" rms="0.0000000000000000e+00" purity="6.9657795131206512e-02" nType="0">
                  <Node pos="l" depth="6" NCoef="0" IVar="-1" Cut="0.0000000000000000e+00" cType="1" res="-2.5046935304999352e-02" rms="3.1311464309692383e-01" purity="1.1406391113996506e-01" nType="-99"/>
                  <Node pos="r" depth="6" NCoef="0" IVar="0" Cut="2.3595612049102783e+00" cType="1" res="-2.1793088316917419e-01" rms="2.2501112520694733e-01" purity="5.4564345628023148e-02" nType="0">
                    <Node pos="l" depth="7" NCoef="0" IVar="-1" Cut="0.0000000000000000e+00" cType="1" res="-2.9033018276095390e-02" rms="2.6374545693397522e-01" purity="7.6584711670875549e-02" nType="-99"/>
                    <Node pos="r" depth="7" NCoef="0" IVar="-1" Cut="0.0000000000000000e+00" cType="1" res="-3.6923836916685104e-02" rms="1.7234709858894348e-01" purity="3.0838506296277046e-02" nType="-99"/>
                  </Node>
                </Node>
                <Node pos="r" depth="5" NCoef="0" IVar="0" Cut="8.7333339452743530e-01" cType="1" res="-1.6245168447494507e-01" rms="3.5642707347869873e-01" purity="1.5685221552848816e-01" nType="0">
                  <Node pos="l" depth="6" NCoef="0" IVar="0" Cut="5.3524672985076904e-01" cType="1" res="-1.0578478872776031e-01" rms="4.2735466361045837e-01" purity="2.4675840139389038e-01" nType="0">
                    <Node pos="l" depth="7" NCoef="0" IVar="-1" Cut="0.0000000000000000e+00" cType="1" res="-8.0349789932370186e-03" rms="4.5222237706184387e-01" purity="2.9285916686058044e-01" nType="-99"/>
                    <Node pos="r" depth="7" NCoef="0" IVar="-1" Cut="0.0000000000000000e+00" cType="1" res="-1.6526136547327042e-02" rms="3.9233934879302979e-01" purity="1.9086669385433197e-01" nType="-99"/>
                  </Node>
                  <Node pos="r" depth="6" NCoef="0" IVar="1" Cut="4.9604106694459915e-02" cType="1" res="-1.9668142497539520e-01" rms="3.0058044195175171e-01" purity="1.0254419595003128e-01" nType="0">
                    <Node pos="l" depth="7" NCoef="0" IVar="-1" Cut="0.0000000000000000e+00" cType="1" res="-2.0559765398502350e-02" rms="3.4818422794342041e-01" purity="1.4441829919815063e-01" nType="-99"/>
                    <Node pos="r" depth="7" NCoef="0" IVar="-1" Cut="0.0000000000000000e+00" cType="1" res="-2.7943802997469902e-02" rms="2.7800399065017700e-01" purity="8.5656128823757172e-02" nType="-99"/>
                  </Node>
                </Node>
              </Node>
              <Node pos="r" depth="4" NCoef="0" IVar="4" Cut="1.8383842706680298e+00" cType="1" res="-2.2146274149417877e-01" rms="2.1105864644050598e-01" purity="4.8751886934041977e-02" nType="0">
                <Node pos="l" depth="5" NCoef="0" IVar="6" Cut="1.4912940561771393e-01" cType="1" res="-2.0712183415889740e-01" rms="2.6967939734458923e-01" purity="8.1356696784496307e-02" nType="0">
                  <Node pos="l" depth="6" NCoef="0" IVar="2" Cut="1.6528788757324219e+02" cType="1" res="-2.1526378393173218e-01" rms="2.4503988027572632e-01" purity="6.5570868551731110e-02" nType="0">
                    <Node pos="l" depth="7" NCoef="0" IVar="-1" Cut="0.0000000000000000e+00" cType="1" res="-2.9346048831939697e-02" rms="2.6207548379898071e-01" purity="7.5977697968482971e-02" nType="-99"/>
                    <Node pos="r" depth="7" NCoef="0" IVar="-1" Cut="0.0000000000000000e+00" cType="1" res="-3.0953841283917427e-02" rms="2.3102398216724396e-01" purity="5.7856943458318710e-02" nType="-99"/>
                  </Node>
                  <Node pos="r" depth="6" NCoef="0" IVar="-1" Cut="0.0000000000000000e+00" cType="1" res="-2.4730917066335678e-02" rms="3.1980234384536743e-01" purity="1.1879304796457291e-01" nType="-99"/>
                </Node>
                <Node pos="r" depth="5" NCoef="0" IVar="7" Cut="6.0000000000000000e+00" cType="1" res="-2.3413372039794922e-01" rms="1.3870245218276978e-01" purity="1.9861603155732155e-02" nType="0">
                  <Node pos="l" depth="6" NCoef="0" IVar="6" Cut="1.1929322779178619e-01" cType="1" res="-2.4046771228313446e-01" rms="1.2578372657299042e-01" purity="1.6096666455268860e-02" nType="0">
                    <Node pos="l" depth="7" NCoef="0" IVar="-1" Cut="0.0000000000000000e+00" cType="1" res="-3.6074653267860413e-02" rms="1.2072923034429550e-01" purity="1.4757359400391579e-02" nType="-99"/>
                    <Node pos="r" depth="7" NCoef="0" IVar="-1" Cut="0.0000000000000000e+00" cType="1" res="-3.7303041666746140e-02" rms="1.3125923275947571e-01" purity="1.7708983272314072e-02" nType="-99"/>
                  </Node>
                  <Node pos="r" depth="6" NCoef="0" IVar="4" Cut="4.5062818527221680e+00" cType="1" res="-2.2802136838436127e-01" rms="1.4994615316390991e-01" purity="2.3537263274192810e-02" nType="0">
                    <Node pos="l" depth="7" NCoef="0" IVar="-1" Cut="0.0000000000000000e+00" cType="1" res="-3.3265788108110428e-02" rms="1.7375531792640686e-01" purity="3.1902287155389786e-02" nType="-99"/>
                    <Node pos="r" depth="7" NCoef="0" IVar="-1" Cut="0.0000000000000000e+00" cType="1" res="-3.5743013024330139e-02" rms="1.1240135133266449e-01" purity="1.2967742048203945e-02" nType="-99"/>
                  </Node>
                </Node>
              </Node>
            </Node>
            <Node pos="r" depth="3" NCoef="0" IVar="7" Cut="6.0000000000000000e+00" cType="1" res="1.7636947333812714e-01" rms="0.0000000000000000e+00" purity="2.1344201266765594e-01" nType="0">
              <Node pos="l" depth="4" NCoef="0" IVar="-1" Cut="0.0000000000000000e+00" cType="1" res="-6.9677121937274933e-03" rms="4.4419732689857483e-01" purity="2.8802490234375000e-01" nType="-99"/>
              <Node pos="r" depth="4" NCoef="0" IVar="-1" Cut="0.0000000000000000e+00" cType="1" res="-1.8853800371289253e-02" rms="3.7230554223060608e-01" purity="1.6794981062412262e-01" nType="-99"/>
            </Node>
          </Node>
          <Node pos="r" depth="2" NCoef="0" IVar="4" Cut="1.3951030969619751e+00" cType="1" res="-7.6794311404228210e-02" rms="4.6152064204216003e-01" purity="3.4690243005752563e-01" nType="0">
            <Node pos="l" depth="3" NCoef="0" IVar="1" Cut="4.8374661803245544e-01" cType="1" res="-5.9461951255798340e-02" rms="4.7353646159172058e-01" purity="3.7535110116004944e-01" nType="0">
              <Node pos="l" depth="4" NCoef="0" IVar="0" Cut="2.8103512525558472e-01" cType="1" res="-3.4292869269847870e-02" rms="4.8237127065658569e-01" purity="4.0803119540214539e-01" nType="0">
                <Node pos="l" depth="5" NCoef="0" IVar="3" Cut="6.0622346401214600e-01" cType="1" res="1.7330678179860115e-02" rms="4.9590983986854553e-01" purity="5.0051140785217285e-01" nType="0">
                  <Node pos="l" depth="6" NCoef="0" IVar="-1" Cut="0.0000000000000000e+00" cType="1" res="-1.7701501492410898e-03" rms="4.9380618333816528e-01" purity="4.4344446063041687e-01" nType="-99"/>
                  <Node pos="r" depth="6" NCoef="0" IVar="7" Cut="4.0000000000000000e+00" cType="1" res="4.6652469784021378e-02" rms="4.3955093622207642e-01" purity="5.5153918266296387e-01" nType="0">
                    <Node pos="l" depth="7" NCoef="0" IVar="-1" Cut="0.0000000000000000e+00" cType="1" res="2.3941178806126118e-03" rms="4.9772855639457703e-01" purity="5.2983480691909790e-01" nType="-99"/>
                    <Node pos="r" depth="7" NCoef="0" IVar="-1" Cut="0.0000000000000000e+00" cType="1" res="6.3544535078108311e-03" rms="4.9181005358695984e-01" purity="5.7507961988449097e-01" nType="-99"/>
                  </Node>
                </Node>
                <Node pos="r" depth="5" NCoef="0" IVar="3" Cut="5.8095037937164307e-01" cType="1" res="-6.6193588078022003e-02" rms="4.7099164128303528e-01" purity="3.5088318586349487e-01" nType="0">
                  <Node pos="l" depth="6" NCoef="0" IVar="2" Cut="1.6170448303222656e+02" cType="1" res="-9.1701343655586243e-02" rms="4.5410645008087158e-01" purity="3.0450695753097534e-01" nType="0">
                    <Node pos="l" depth="7" NCoef="0" IVar="-1" Cut="0.0000000000000000e+00" cType="1" res="-6.0163764283061028e-03" rms="4.6673819422721863e-01" purity="3.3628788590431213e-01" nType="-99"/>
                    <Node pos="r" depth="7" NCoef="0" IVar="-1" Cut="0.0000000000000000e+00" cType="1" res="-1.2147705070674419e-02" rms="4.3985068798065186e-01" purity="2.7384403347969055e-01" nType="-99"/>
                  </Node>
                  <Node pos="r" depth="6" NCoef="0" IVar="6" Cut="5.9230964630842209e-02" cType="1" res="-3.7485267966985703e-02" rms="4.8770600557327271e-01" purity="4.0307846665382385e-01" nType="0">
                    <Node pos="l" depth="7" NCoef="0" IVar="-1" Cut="0.0000000000000000e+00" cType="1" res="-7.1187154389917850e-03" rms="4.7900795936584473e-01" purity="3.6522814631462097e-01" nType="-99"/>
                    <Node pos="r" depth="7" NCoef="0" IVar="-1" Cut="0.0000000000000000e+00" cType="1" res="-7.4951280839741230e-04" rms="4.9213382601737976e-01" purity="4.3147936463356018e-01" nType="-99"/>
                  </Node>
                </Node>
              </Node>
              <Node pos="r" depth="4" NCoef="0" IVar="0" Cut="3.6567085981369019e-01" cType="1" res="-1.5113340318202972e-01" rms="4.2751172184944153e-01" purity="2.5632277131080627e-01" nType="0">
                <Node pos="l" depth="5" NCoef="0" IVar="-1" Cut="0.0000000000000000e+00" cType="1" res="-9.4978259876370430e-03" rms="4.7775620222091675e-01" purity="3.6302787065505981e-01" nType="-99"/>
                <Node pos="r" depth="5" NCoef="0" IVar="-1" Cut="0.0000000000000000e+00" cType="1" res="-1.9317394122481346e-02" rms="3.9283427596092224e-01" purity="1.9436253607273102e-01" nType="-99"/>
              </Node>
            </Node>
            <Node pos="r" depth="3" NCoef="0" IVar="-1" Cut="0.0000000000000000e+00" cType="1" res="-2.4047279730439186e-02" rms="3.2378596067428589e-01" purity="1.2516596913337708e-01" nType="-99"/>
          </Node>
        </Node>
        <Node pos="r" depth="1" NCoef="0" IVar="3" Cut="8.2485902309417725e-01" cType="1" res="1.2425880879163742e-01" rms="4.4469049572944641e-01" purity="7.0595145225524902e-01" nType="0">
          <Node pos="l" depth="2" NCoef="0" IVar="1" Cut="5.1668083667755127e-01" cType="1" res="4.6197514981031418e-02" rms="4.8571541905403137e-01" purity="5.7722854614257812e-01" nType="0">
            <Node pos="l" depth="3" NCoef="0" IVar="5" Cut="-1.5457618236541748e+00" cType="1" res="6.4375825226306915e-02" rms="4.8245263099670410e-01" purity="6.0071164369583130e-01" nType="0">
              <Node pos="l" depth="4" NCoef="0" IVar="0" Cut="1.8760618567466736e-01" cType="1" res="8.6098819971084595e-02" rms="4.7682705521583557e-01" purity="6.3803589344024658e-01" nType="0">
                <Node pos="l" depth="5" NCoef="0" IVar="3" Cut="7.1900260448455811e-01" cType="1" res="1.1623280495405197e-01" rms="4.6327629685401917e-01" purity="6.8565481901168823e-01" nType="0">
                  <Node pos="l" depth="6" NCoef="0" IVar="-1" Cut="0.0000000000000000e+00" cType="1" res="5.9446087107062340e-03" rms="4.8461320996284485e-01" purity="6.2291085720062256e-01" nType="-99"/>
                  <Node pos="r" depth="6" NCoef="0" IVar="1" Cut="1.4138039946556091e-01" cType="1" res="1.2622308731079102e-01" rms="4.5750772953033447e-01" purity="7.0051604509353638e-01" nType="0">
                    <Node pos="l" depth="7" NCoef="0" IVar="-1" Cut="0.0000000000000000e+00" cType="1" res="1.0890576988458633e-02" rms="4.5084801316261292e-01" purity="7.1527904272079468e-01" nType="-99"/>
                    <Node pos="r" depth="7" NCoef="0" IVar="-1" Cut="0.0000000000000000e+00" cType="1" res="7.2109443135559559e-03" rms="4.7455644607543945e-01" purity="6.5721338987350464e-01" nType="-99"/>
                  </Node>
                </Node>
                <Node pos="r" depth="5" NCoef="0" IVar="3" Cut="7.1419650316238403e-01" cType="1" res="3.8937680423259735e-02" rms="4.9361526966094971e-01" purity="5.6351000070571899e-01" nType="0">
                  <Node pos="l" depth="6" NCoef="0" IVar="-1" Cut="0.0000000000000000e+00" cType="1" res="-9.5895258709788322e-04" rms="4.9904462695121765e-01" purity="4.9596416950225830e-01" nType="-99"/>
                  <Node pos="r" depth="6" NCoef="0" IVar="2" Cut="8.6000572204589844e+01" cType="1" res="5.9146400541067123e-02" rms="4.8995727300643921e-01" purity="5.9082877635955811e-01" nType="0">
                    <Node pos="l" depth="7" NCoef="0" IVar="-1" Cut="0.0000000000000000e+00" cType="1" res="6.5670642070472240e-03" rms="4.8584133386611938e-01" purity="6.1478686332702637e-01" nType="-99"/>
                    <Node pos="r" depth="7" NCoef="0" IVar="-1" Cut="0.0000000000000000e+00" cType="1" res="3.7618696223944426e-03" rms="4.9261999130249023e-01" purity="5.7160025835037231e-01" nType="-99"/>
                  </Node>
                </Node>
              </Node>
              <Node pos="r" depth="4" NCoef="0" IVar="5" Cut="-7.9467409849166870e-01" cType="1" res="4.9970643594861031e-03" rms="4.9264174699783325e-01" purity="4.9868768453598022e-01" nType="0">
                <Node pos="l" depth="5" NCoef="0" IVar="-1" Cut="0.0000000000000000e+00" cType="1" res="4.1784285567700863e-03" rms="4.9225223064422607e-01" purity="5.7551378011703491e-01" nType="-99"/>
                <Node pos="r" depth="5" NCoef="0" IVar="-1" Cut="0.0000000000000000e+00" cType="1" res="-4.6831318177282810e-03" rms="4.8731464147567749e-01" purity="4.0287712216377258e-01" nType="-99"/>
              </Node>
            </Node>
            <Node pos="r" depth="3" NCoef="0" IVar="4" Cut="-9.1459125280380249e-01" cType="1" res="-5.5642865598201752e-02" rms="4.9131858348846436e-01" purity="4.4566926360130310e-01" nType="0">
              <Node pos="l" depth="4" NCoef="0" IVar="-1" Cut="0.0000000000000000e+00" cType="1" res="-6.9867330603301525e-04" rms="4.9678951501846313e-01" purity="5.0257444381713867e-01" nType="-99"/>
              <Node pos="r" depth="4" NCoef="0" IVar="-1" Cut="0.0000000000000000e+00" cType="1" res="-1.0801977477967739e-02" rms="4.7631585597991943e-01" purity="3.6798980832099915e-01" nType="-99"/>
            </Node>
          </Node>
          <Node pos="r" depth="2" NCoef="0" IVar="5" Cut="-1.8113971948623657e+00" cType="1" res="1.5226812660694122e-01" rms="4.2553836107254028e-01" purity="7.5213873386383057e-01" nType="0">
            <Node pos="l" depth="3" NCoef="0" IVar="0" Cut="3.6542326211929321e-01" cType="1" res="1.7355597019195557e-01" rms="4.0740972757339478e-01" purity="7.8633534908294678e-01" nType="0">
              <Node pos="l" depth="4" NCoef="0" IVar="4" Cut="-1.0578289031982422e+00" cType="1" res="1.8082642555236816e-01" rms="4.0208658576011658e-01" purity="7.9460883140563965e-01" nType="0">
                <Node pos="l" depth="5" NCoef="0" IVar="2" Cut="1.7122802734375000e+02" cType="1" res="1.5834055840969086e-01" rms="4.2705428600311279e-01" purity="7.5822222232818604e-01" nType="0">
                  <Node pos="l" depth="6" NCoef="0" IVar="4" Cut="-2.4170038700103760e+00" cType="1" res="1.6275021433830261e-01" rms="4.2421561479568481e-01" purity="7.6296770572662354e-01" nType="0">
                    <Node pos="l" depth="7" NCoef="0" IVar="-1" Cut="0.0000000000000000e+00" cType="1" res="1.5145923942327499e-02" rms="4.0775364637374878e-01" purity="7.8788608312606812e-01" nType="-99"/>
                    <Node pos="r" depth="7" NCoef="0" IVar="-1" Cut="0.0000000000000000e+00" cType="1" res="1.1428432539105415e-02" rms="4.3294674158096313e-01" purity="7.4888706207275391e-01" nType="-99"/>
                  </Node>
                  <Node pos="r" depth="6" NCoef="0" IVar="-1" Cut="0.0000000000000000e+00" cType="1" res="9.9272988736629486e-03" rms="4.5374235510826111e-01" purity="7.0724344253540039e-01" nType="-99"/>
                </Node>
                <Node pos="r" depth="5" NCoef="0" IVar="5" Cut="-2.7207388877868652e+00" cType="1" res="1.9561651349067688e-01" rms="3.8406470417976379e-01" purity="8.1854206323623657e-01" nType="0">
                  <Node pos="l" depth="6" NCoef="0" IVar="1" Cut="5.6043833494186401e-01" cType="1" res="2.1136599779129028e-01" rms="3.6453172564506531e-01" purity="8.4154510498046875e-01" nType="0">
                    <Node pos="l" depth="7" NCoef="0" IVar="-1" Cut="0.0000000000000000e+00" cType="1" res="1.7802568152546883e-02" rms="3.5696619749069214e-01" purity="8.4977883100509644e-01" nType="-99"/>
                    <Node pos="r" depth="7" NCoef="0" IVar="-1" Cut="0.0000000000000000e+00" cType="1" res="1.2752754613757133e-02" rms="4.1617673635482788e-01" purity="7.7608263492584229e-01" nType="-99"/>
                  </Node>
                  <Node pos="r" depth="6" NCoef="0" IVar="3" Cut="9.4982874393463135e-01" cType="1" res="1.7542378604412079e-01" rms="4.0685072541236877e-01" purity="7.8904932737350464e-01" nType="0">
                    <Node pos="l" depth="7" NCoef="0" IVar="-1" Cut="0.0000000000000000e+00" cType="1" res="1.0827925987541676e-02" rms="4.4246575236320496e-01" purity="7.3096847534179688e-01" nType="-99"/>
                    <Node pos="r" depth="7" NCoef="0" IVar="-1" Cut="0.0000000000000000e+00" cType="1" res="1.4951126649975777e-02" rms="4.0039893984794617e-01" purity="7.9833978414535522e-01" nType="-99"/>
                  </Node>
                </Node>
              </Node>
              <Node pos="r" depth="4" NCoef="0" IVar="-1" Cut="0.0000000000000000e+00" cType="1" res="-1.6332704108208418e-03" rms="4.9162927269935608e-01" purity="5.6681752204895020e-01" nType="-99"/>
            </Node>
            <Node pos="r" depth="3" NCoef="0" IVar="5" Cut="-2.2994749248027802e-01" cType="1" res="7.3677606880664825e-02" rms="4.7851899266242981e-01" purity="6.2589156627655029e-01" nType="0">
              <Node pos="l" depth="4" NCoef="0" IVar="7" Cut="2.0000000000000000e+00" cType="1" res="8.9643329381942749e-02" rms="4.7394579648971558e-01" purity="6.5006273984909058e-01" nType="0">
                <Node pos="l" depth="5" NCoef="0" IVar="5" Cut="-9.9535316228866577e-01" cType="1" res="1.0682089626789093e-01" rms="4.6578627824783325e-01" purity="6.7486345767974854e-01" nType="0">
                  <Node pos="l" depth="6" NCoef="0" IVar="4" Cut="-1.8257115781307220e-01" cType="1" res="1.2194784730672836e-01" rms="4.5556613802909851e-01" purity="7.0311605930328369e-01" nType="0">
                    <Node pos="l" depth="7" NCoef="0" IVar="-1" Cut="0.0000000000000000e+00" cType="1" res="8.1486376002430916e-03" rms="4.6482083201408386e-01" purity="6.8166899681091309e-01" nType="-99"/>
                    <Node pos="r" depth="7" NCoef="0" IVar="-1" Cut="0.0000000000000000e+00" cType="1" res="1.1925407685339451e-02" rms="4.4332414865493774e-01" purity="7.2896325588226318e-01" nType="-99"/>
                  </Node>
                  <Node pos="r" depth="6" NCoef="0" IVar="-1" Cut="0.0000000000000000e+00" cType="1" res="5.8273072354495525e-03" rms="4.8743876814842224e-01" purity="6.0737931728363037e-01" nType="-99"/>
                </Node>
                <Node pos="r" depth="5" NCoef="0" IVar="4" Cut="-2.4310775101184845e-01" cType="1" res="6.2260080128908157e-02" rms="4.8560476303100586e-01" purity="6.1147844791412354e-01" nType="0">
                  <Node pos="l" depth="6" NCoef="0" IVar="-1" Cut="0.0000000000000000e+00" cType="1" res="6.4793690107762814e-03" rms="4.8109012842178345e-01" purity="6.3128942251205444e-01" nType="-99"/>
                  <Node pos="r" depth="6" NCoef="0" IVar="-1" Cut="0.0000000000000000e+00" cType="1" res="3.0282812658697367e-03" rms="4.9293839931488037e-01" purity="5.7366633415222168e-01" nType="-99"/>
                </Node>
              </Node>
              <Node pos="r" depth="4" NCoef="0" IVar="-1" Cut="0.0000000000000000e+00" cType="1" res="-4.1892328299582005e-03" rms="4.9455389380455017e-01" purity="4.4000607728958130e-01" nType="-99"/>
            </Node>
          </Node>
        </Node>
      </Node>
    </BinaryTree>
    <BinaryTree type="DecisionTree" boostWeight="1.0000000000000000e+00" itree="14">
      <Node pos="s" depth="0" NCoef="0" IVar="3" Cut="6.7608582973480225e-01" cType="1" res="1.3755155727267265e-02" rms="4.3489348888397217e-01" purity="4.9899536371231079e-01" nType="0">
        <Node pos="l" depth="1" NCoef="0" IVar="3" Cut="5.4525941610336304e-01" cType="1" res="-1.4032897353172302e-01" rms="3.7045359611511230e-01" purity="1.9587475061416626e-01" nType="0">
          <Node pos="l" depth="2" NCoef="0" IVar="1" Cut="1.4958879351615906e-01" cType="1" res="-1.7139370739459991e-01" rms="3.1858742237091064e-01" purity="1.2638248503208160e-01" nType="0">
            <Node pos="l" depth="3" NCoef="0" IVar="4" Cut="1.3881204128265381e+00" cType="1" res="-1.3961495459079742e-01" rms="3.6510643362998962e-01" purity="1.7506578564643860e-01" nType="0">
              <Node pos="l" depth="4" NCoef="0" IVar="6" Cut="1.0723830014467239e-01" cType="1" res="-1.2246788293123245e-01" rms="3.9342203736305237e-01" purity="2.0858162641525269e-01" nType="0">
                <Node pos="l" depth="5" NCoef="0" IVar="2" Cut="1.0266065979003906e+02" cType="1" res="-1.5260666608810425e-01" rms="3.5695201158523560e-01" purity="1.6246500611305237e-01" nType="0">
                  <Node pos="l" depth="6" NCoef="0" IVar="-1" Cut="0.0000000000000000e+00" cType="1" res="-1.2176033109426498e-02" rms="4.0282472968101501e-01" purity="2.2173789143562317e-01" nType="-99"/>
                  <Node pos="r" depth="6" NCoef="0" IVar="3" Cut="4.2236217856407166e-01" cType="1" res="-1.7739045619964600e-01" rms="3.2838717103004456e-01" purity="1.3226698338985443e-01" nType="0">
                    <Node pos="l" depth="7" NCoef="0" IVar="-1" Cut="0.0000000000000000e+00" cType="1" res="-2.9736019670963287e-02" rms="2.3975791037082672e-01" purity="6.1892662197351456e-02" nType="-99"/>
                    <Node pos="r" depth="7" NCoef="0" IVar="-1" Cut="0.0000000000000000e+00" cType="1" res="-1.7267620190978050e-02" rms="3.9323297142982483e-01" purity="1.9904693961143494e-01" nType="-99"/>
                  </Node>
                </Node>
                <Node pos="r" depth="5" NCoef="0" IVar="3" Cut="4.2237368226051331e-01" cType="1" res="-1.0151923447847366e-01" rms="4.1561058163642883e-01" purity="2.4063605070114136e-01" nType="0">
                  <Node pos="l" depth="6" NCoef="0" IVar="6" Cut="2.1018674969673157e-01" cType="1" res="-1.2335717678070068e-01" rms="3.8725465536117554e-01" purity="1.9463577866554260e-01" nType="0">
                    <Node pos="l" depth="7" NCoef="0" IVar="-1" Cut="0.0000000000000000e+00" cType="1" res="-2.0015971735119820e-02" rms="3.4959849715232849e-01" purity="1.4971870183944702e-01" nType="-99"/>
                    <Node pos="r" depth="7" NCoef="0" IVar="-1" Cut="0.0000000000000000e+00" cType="1" res="-8.6397835984826088e-03" rms="4.3660601973533630e-01" purity="2.6619863510131836e-01" nType="-99"/>
                  </Node>
                  <Node pos="r" depth="6" NCoef="0" IVar="-1" Cut="0.0000000000000000e+00" cType="1" res="-5.2445796318352222e-03" rms="4.6814152598381042e-01" purity="3.4114533662796021e-01" nType="-99"/>
                </Node>
              </Node>
              <Node pos="r" depth="4" NCoef="0" IVar="6" Cut="1.2570977210998535e-01" cType="1" res="-1.9322107732295990e-01" rms="2.4972712993621826e-01" purity="7.0286698639392853e-02" nType="0">
                <Node pos="l" depth="5" NCoef="0" IVar="-1" Cut="0.0000000000000000e+00" cType="1" res="-3.1397819519042969e-02" rms="1.8882900476455688e-01" purity="3.8560394197702408e-02" nType="-99"/>
                <Node pos="r" depth="5" NCoef="0" IVar="-1" Cut="0.0000000000000000e+00" cType="1" res="-2.4637077003717422e-02" rms="2.8699281811714172e-01" purity="9.4848506152629852e-02" nType="-99"/>
              </Node>
            </Node>
            <Node pos="r" depth="3" NCoef="0" IVar="6" Cut="1.1532030999660492e-01" cType="1" res="-1.9364748895168304e-01" rms="2.7932688593864441e-01" purity="9.2290885746479034e-02" nType="0">
              <Node pos="l" depth="4" NCoef="0" IVar="2" Cut="1.5144442749023438e+02" cType="1" res="-2.0623633265495300e-01" rms="2.4316486716270447e-01" purity="6.6921763122081757e-02" nType="0">
                <Node pos="l" depth="5" NCoef="0" IVar="5" Cut="-4.8559552431106567e-01" cType="1" res="-1.9669182598590851e-01" rms="2.5901943445205688e-01" purity="7.6920561492443085e-02" nType="0">
                  <Node pos="l" depth="6" NCoef="0" IVar="2" Cut="6.3656215667724609e+01" cType="1" res="-1.8941462039947510e-01" rms="2.8440472483634949e-01" purity="9.3291163444519043e-02" nType="0">
                    <Node pos="l" depth="7" NCoef="0" IVar="-1" Cut="0.0000000000000000e+00" cType="1" res="-2.4373179301619530e-02" rms="3.0743798613548279e-01" purity="1.0901284962892532e-01" nType="-99"/>
                    <Node pos="r" depth="7" NCoef="0" IVar="-1" Cut="0.0000000000000000e+00" cType="1" res="-2.7986554428935051e-02" rms="2.7085363864898682e-01" purity="8.4834225475788116e-02" nType="-99"/>
                  </Node>
                  <Node pos="r" depth="6" NCoef="0" IVar="-1" Cut="0.0000000000000000e+00" cType="1" res="-3.4896533936262131e-02" rms="1.5278021991252899e-01" purity="2.5811702013015747e-02" nType="-99"/>
                </Node>
                <Node pos="r" depth="5" NCoef="0" IVar="7" Cut="4.0000000000000000e+00" cType="1" res="-2.1682043373584747e-01" rms="2.2370615601539612e-01" purity="5.5767785757780075e-02" nType="0">
                  <Node pos="l" depth="6" NCoef="0" IVar="-1" Cut="0.0000000000000000e+00" cType="1" res="-3.2322414219379425e-02" rms="2.2704744338989258e-01" purity="5.5608149617910385e-02" nType="-99"/>
                  <Node pos="r" depth="6" NCoef="0" IVar="6" Cut="7.2845071554183960e-02" cType="1" res="-2.1155053377151489e-01" rms="2.2246316075325012e-01" purity="5.5810723453760147e-02" nType="0">
                    <Node pos="l" depth="7" NCoef="0" IVar="-1" Cut="0.0000000000000000e+00" cType="1" res="-3.1345028430223465e-02" rms="1.9058507680892944e-01" purity="3.9663475006818771e-02" nType="-99"/>
                    <Node pos="r" depth="7" NCoef="0" IVar="-1" Cut="0.0000000000000000e+00" cType="1" res="-2.8800323605537415e-02" rms="2.3728495836257935e-01" purity="6.4346775412559509e-02" nType="-99"/>
                  </Node>
                </Node>
              </Node>
              <Node pos="r" depth="4" NCoef="0" IVar="3" Cut="4.2210894823074341e-01" cType="1" res="-1.7567211389541626e-01" rms="3.2319191098213196e-01" purity="1.2851499021053314e-01" nType="0">
                <Node pos="l" depth="5" NCoef="0" IVar="6" Cut="2.2655889391899109e-01" cType="1" res="-1.8739953637123108e-01" rms="2.9433229565620422e-01" purity="1.0109116137027740e-01" nType="0">
                  <Node pos="l" depth="6" NCoef="0" IVar="5" Cut="-1.2442203760147095e+00" cType="1" res="-1.9778552651405334e-01" rms="2.6792585849761963e-01" purity="8.1696011126041412e-02" nType="0">
                    <Node pos="l" depth="7" NCoef="0" IVar="-1" Cut="0.0000000000000000e+00" cType="1" res="-2.5761939585208893e-02" rms="3.0770069360733032e-01" purity="1.1017646640539169e-01" nType="-99"/>
                    <Node pos="r" depth="7" NCoef="0" IVar="-1" Cut="0.0000000000000000e+00" cType="1" res="-3.2369416207075119e-02" rms="2.0972336828708649e-01" purity="4.7669816762208939e-02" nType="-99"/>
                  </Node>
                  <Node pos="r" depth="6" NCoef="0" IVar="-1" Cut="0.0000000000000000e+00" cType="1" res="-1.9759112969040871e-02" rms="3.6435529589653015e-01" purity="1.6324113309383392e-01" nType="-99"/>
                </Node>
                <Node pos="r" depth="5" NCoef="0" IVar="-1" Cut="0.0000000000000000e+00" cType="1" res="-1.4092078432440758e-02" rms="4.1271457076072693e-01" purity="2.3382540047168732e-01" nType="-99"/>
              </Node>
            </Node>
          </Node>
          <Node pos="r" depth="2" NCoef="0" IVar="4" Cut="9.2558461427688599e-01" cType="1" res="-5.6167971342802048e-02" rms="4.7366660833358765e-01" purity="3.8414415717124939e-01" nType="0">
            <Node pos="l" depth="3" NCoef="0" IVar="0" Cut="3.5398796200752258e-01" cType="1" res="-3.8051858544349670e-02" rms="4.8415091633796692e-01" purity="4.1507288813591003e-01" nType="0">
              <Node pos="l" depth="4" NCoef="0" IVar="3" Cut="6.3388270139694214e-01" cType="1" res="4.6200323849916458e-03" rms="4.9694061279296875e-01" purity="4.9329355359077454e-01" nType="0">
                <Node pos="l" depth="5" NCoef="0" IVar="2" Cut="1.5379490661621094e+02" cType="1" res="-1.3671780005097389e-02" rms="4.9631503224372864e-01" purity="4.6713724732398987e-01" nType="0">
                  <Node pos="l" depth="6" NCoef="0" IVar="-1" Cut="0.0000000000000000e+00" cType="1" res="1.2484374456107616e-03" rms="4.9743092060089111e-01" purity="5.0284326076507568e-01" nType="-99"/>
                  <Node pos="r" depth="6" NCoef="0" IVar="-1" Cut="0.0000000000000000e+00" cType="1" res="-2.9522506520152092e-03" rms="4.9466812610626221e-01" purity="4.4365480542182922e-01" nType="-99"/>
                </Node>
                <Node pos="r" depth="5" NCoef="0" IVar="4" Cut="-8.6414748430252075e-01" cType="1" res="2.9801802709698677e-02" rms="4.9669975042343140e-01" purity="5.2930206060409546e-01" nType="0">
                  <Node pos="l" depth="6" NCoef="0" IVar="-1" Cut="0.0000000000000000e+00" cType="1" res="2.6327732484787703e-03" rms="4.9757835268974304e-01" purity="5.3510540723800659e-01" nType="-99"/>
                  <Node pos="r" depth="6" NCoef="0" IVar="-1" Cut="0.0000000000000000e+00" cType="1" res="2.4227150715887547e-03" rms="4.9580505490303040e-01" purity="5.2345150709152222e-01" nType="-99"/>
                </Node>
              </Node>
              <Node pos="r" depth="4" NCoef="0" IVar="1" Cut="4.8374661803245544e-01" cType="1" res="-8.3838663995265961e-02" rms="4.6571239829063416e-01" purity="3.3114236593246460e-01" nType="0">
                <Node pos="l" depth="5" NCoef="0" IVar="6" Cut="6.6677629947662354e-02" cType="1" res="-6.3693091273307800e-02" rms="4.7715675830841064e-01" purity="3.6169898509979248e-01" nType="0">
                  <Node pos="l" depth="6" NCoef="0" IVar="-1" Cut="0.0000000000000000e+00" cType="1" res="-8.7377019226551056e-03" rms="4.6840956807136536e-01" purity="3.3415928483009338e-01" nType="-99"/>
                  <Node pos="r" depth="6" NCoef="0" IVar="-1" Cut="0.0000000000000000e+00" cType="1" res="-3.2543470151722431e-03" rms="4.8413479328155518e-01" purity="3.8921347260475159e-01" nType="-99"/>
                </Node>
                <Node pos="r" depth="5" NCoef="0" IVar="-1" Cut="0.0000000000000000e+00" cType="1" res="-1.5780324116349220e-02" rms="4.1942054033279419e-01" purity="2.3117230832576752e-01" nType="-99"/>
              </Node>
            </Node>
            <Node pos="r" depth="3" NCoef="0" IVar="-1" Cut="0.0000000000000000e+00" cType="1" res="-1.7997700721025467e-02" rms="3.8510715961456299e-01" purity="1.9422784447669983e-01" nType="-99"/>
          </Node>
        </Node>
        <Node pos="r" depth="1" NCoef="0" IVar="5" Cut="-1.7516005039215088e+00" cType="1" res="1.1857331544160843e-01" rms="4.4418245553970337e-01" purity="7.0519787073135376e-01" nType="0">
          <Node pos="l" depth="2" NCoef="0" IVar="3" Cut="8.2561099529266357e-01" cType="1" res="1.4441265165805817e-01" rms="4.2739555239677429e-01" purity="7.4717712402343750e-01" nType="0">
            <Node pos="l" depth="3" NCoef="0" IVar="0" Cut="3.1588456034660339e-01" cType="1" res="7.0267580449581146e-02" rms="4.8019725084304810e-01" purity="6.1923235654830933e-01" nType="0">
              <Node pos="l" depth="4" NCoef="0" IVar="0" Cut="2.2414894402027130e-01" cType="1" res="8.7667584419250488e-02" rms="4.7430327534675598e-01" purity="6.4710789918899536e-01" nType="0">
                <Node pos="l" depth="5" NCoef="0" IVar="3" Cut="7.2915285825729370e-01" cType="1" res="1.0268756747245789e-01" rms="4.6823278069496155e-01" purity="6.6855245828628540e-01" nType="0">
                  <Node pos="l" depth="6" NCoef="0" IVar="-1" Cut="0.0000000000000000e+00" cType="1" res="5.5507426150143147e-03" rms="4.8575520515441895e-01" purity="6.1386442184448242e-01" nType="-99"/>
                  <Node pos="r" depth="6" NCoef="0" IVar="7" Cut="3.0000000000000000e+00" cType="1" res="1.0706249624490738e-01" rms="4.4543108344078064e-01" purity="6.8705075979232788e-01" nType="0">
                    <Node pos="l" depth="7" NCoef="0" IVar="-1" Cut="0.0000000000000000e+00" cType="1" res="7.5283562764525414e-03" rms="4.6650388836860657e-01" purity="6.7451268434524536e-01" nType="-99"/>
                    <Node pos="r" depth="7" NCoef="0" IVar="-1" Cut="0.0000000000000000e+00" cType="1" res="1.1061176657676697e-02" rms="4.5583155751228333e-01" purity="7.0085120201110840e-01" nType="-99"/>
                  </Node>
                </Node>
                <Node pos="r" depth="5" NCoef="0" IVar="-1" Cut="0.0000000000000000e+00" cType="1" res="2.5201917160302401e-03" rms="4.9322214722633362e-01" purity="5.6173664331436157e-01" nType="-99"/>
              </Node>
              <Node pos="r" depth="4" NCoef="0" IVar="-1" Cut="0.0000000000000000e+00" cType="1" res="-7.9199970059562474e-05" rms="4.9729761481285095e-01" purity="5.0513482093811035e-01" nType="-99"/>
            </Node>
            <Node pos="r" depth="3" NCoef="0" IVar="5" Cut="-2.6628816127777100e+00" cType="1" res="1.6693317890167236e-01" rms="4.0735027194023132e-01" purity="7.8603857755661011e-01" nType="0">
              <Node pos="l" depth="4" NCoef="0" IVar="4" Cut="-9.0205979347229004e-01" cType="1" res="1.8303695321083069e-01" rms="3.9041516184806824e-01" purity="8.0942064523696899e-01" nType="0">
                <Node pos="l" depth="5" NCoef="0" IVar="1" Cut="2.8298079967498779e-01" cType="1" res="1.6029639542102814e-01" rms="4.1848105192184448e-01" purity="7.7093839645385742e-01" nType="0">
                  <Node pos="l" depth="6" NCoef="0" IVar="1" Cut="-1.2049975246191025e-01" cType="1" res="1.7610229551792145e-01" rms="4.0584668517112732e-01" purity="7.9043841361999512e-01" nType="0">
                    <Node pos="l" depth="7" NCoef="0" IVar="-1" Cut="0.0000000000000000e+00" cType="1" res="1.2078215368092060e-02" rms="4.1789004206657410e-01" purity="7.7260434627532959e-01" nType="-99"/>
                    <Node pos="r" depth="7" NCoef="0" IVar="-1" Cut="0.0000000000000000e+00" cType="1" res="1.4902860857546329e-02" rms="4.0065473318099976e-01" purity="7.9762017726898193e-01" nType="-99"/>
                  </Node>
                  <Node pos="r" depth="6" NCoef="0" IVar="-1" Cut="0.0000000000000000e+00" cType="1" res="8.4460740908980370e-03" rms="4.5259124040603638e-01" purity="7.0912426710128784e-01" nType="-99"/>
                </Node>
                <Node pos="r" depth="5" NCoef="0" IVar="3" Cut="9.8799961805343628e-01" cType="1" res="1.9919964671134949e-01" rms="3.6832004785537720e-01" purity="8.3677160739898682e-01" nType="0">
                  <Node pos="l" depth="6" NCoef="0" IVar="-1" Cut="0.0000000000000000e+00" cType="1" res="1.3866647146642208e-02" rms="3.9882674813270569e-01" purity="7.9967975616455078e-01" nType="-99"/>
                  <Node pos="r" depth="6" NCoef="0" IVar="1" Cut="-6.6641099750995636e-02" cType="1" res="2.0577670633792877e-01" rms="3.6127972602844238e-01" purity="8.4451574087142944e-01" nType="0">
                    <Node pos="l" depth="7" NCoef="0" IVar="-1" Cut="0.0000000000000000e+00" cType="1" res="1.7756424844264984e-02" rms="3.4658041596412659e-01" purity="8.5986572504043579e-01" nType="-99"/>
                    <Node pos="r" depth="7" NCoef="0" IVar="-1" Cut="0.0000000000000000e+00" cType="1" res="1.6590887680649757e-02" rms="3.6884534358978271e-01" purity="8.3621382713317871e-01" nType="-99"/>
                  </Node>
                </Node>
              </Node>
              <Node pos="r" depth="4" NCoef="0" IVar="3" Cut="8.8807249069213867e-01" cType="1" res="1.4645005762577057e-01" rms="4.2704695463180542e-01" purity="7.5629788637161255e-01" nType="0">
                <Node pos="l" depth="5" NCoef="0" IVar="3" Cut="8.4777468442916870e-01" cType="1" res="1.1748459190130234e-01" rms="4.4975277781486511e-01" purity="7.1499544382095337e-01" nType="0">
                  <Node pos="l" depth="6" NCoef="0" IVar="-1" Cut="0.0000000000000000e+00" cType="1" res="7.5983055867254734e-03" rms="4.6037679910659790e-01" purity="6.9085156917572021e-01" nType="-99"/>
                  <Node pos="r" depth="6" NCoef="0" IVar="4" Cut="-2.0684654712677002e+00" cType="1" res="1.2829826772212982e-01" rms="4.4405481219291687e-01" purity="7.2682428359985352e-01" nType="0">
                    <Node pos="l" depth="7" NCoef="0" IVar="-1" Cut="0.0000000000000000e+00" cType="1" res="1.1900085955858231e-02" rms="4.3577829003334045e-01" purity="7.4292391538619995e-01" nType="-99"/>
                    <Node pos="r" depth="7" NCoef="0" IVar="-1" Cut="0.0000000000000000e+00" cType="1" res="8.9966226369142532e-03" rms="4.5325320959091187e-01" purity="7.0747715234756470e-01" nType="-99"/>
                  </Node>
                </Node>
                <Node pos="r" depth="5" NCoef="0" IVar="5" Cut="-2.2513470649719238e+00" cType="1" res="1.5591208636760712e-01" rms="4.1892969608306885e-01" purity="7.6978993415832520e-01" nType="0">
                  <Node pos="l" depth="6" NCoef="0" IVar="1" Cut="2.6296344399452209e-01" cType="1" res="1.6719131171703339e-01" rms="4.0836298465728760e-01" purity="7.8598338365554810e-01" nType="0">
                    <Node pos="l" depth="7" NCoef="0" IVar="-1" Cut="0.0000000000000000e+00" cType="1" res="1.4993024058640003e-02" rms="3.9376989006996155e-01" purity="8.0689060688018799e-01" nType="-99"/>
                    <Node pos="r" depth="7" NCoef="0" IVar="-1" Cut="0.0000000000000000e+00" cType="1" res="9.1951051726937294e-03" rms="4.4537362456321716e-01" purity="7.2305798530578613e-01" nType="-99"/>
                  </Node>
                  <Node pos="r" depth="6" NCoef="0" IVar="4" Cut="-8.0106416717171669e-03" cType="1" res="1.4195203781127930e-01" rms="4.3124145269393921e-01" purity="7.4974775314331055e-01" nType="0">
                    <Node pos="l" depth="7" NCoef="0" IVar="-1" Cut="0.0000000000000000e+00" cType="1" res="1.0750378482043743e-02" rms="4.3767008185386658e-01" purity="7.3836129903793335e-01" nType="-99"/>
                    <Node pos="r" depth="7" NCoef="0" IVar="-1" Cut="0.0000000000000000e+00" cType="1" res="1.4174721203744411e-02" rms="4.1168320178985596e-01" purity="7.8176397085189819e-01" nType="-99"/>
                  </Node>
                </Node>
              </Node>
            </Node>
          </Node>
          <Node pos="r" depth="2" NCoef="0" IVar="5" Cut="1.5016743540763855e-01" cType="1" res="3.2945904880762100e-02" rms="4.8604378104209900e-01" purity="5.6608545780181885e-01" nType="0">
            <Node pos="l" depth="3" NCoef="0" IVar="1" Cut="7.2986233234405518e-01" cType="1" res="5.0032228231430054e-02" rms="4.8517730832099915e-01" purity="5.9011781215667725e-01" nType="0">
              <Node pos="l" depth="4" NCoef="0" IVar="3" Cut="7.4631726741790771e-01" cType="1" res="6.5762996673583984e-02" rms="4.8214501142501831e-01" purity="6.0736584663391113e-01" nType="0">
                <Node pos="l" depth="5" NCoef="0" IVar="-1" Cut="0.0000000000000000e+00" cType="1" res="-1.1850089067593217e-03" rms="4.9556055665016174e-01" purity="4.9000677466392517e-01" nType="-99"/>
                <Node pos="r" depth="5" NCoef="0" IVar="7" Cut="2.0000000000000000e+00" cType="1" res="8.1599093973636627e-02" rms="4.7777560353279114e-01" purity="6.3050228357315063e-01" nType="0">
                  <Node pos="l" depth="6" NCoef="0" IVar="5" Cut="-1.0772234201431274e+00" cType="1" res="1.0955108702182770e-01" rms="4.6511596441268921e-01" purity="6.7559999227523804e-01" nType="0">
                    <Node pos="l" depth="7" NCoef="0" IVar="-1" Cut="0.0000000000000000e+00" cType="1" res="1.0487373918294907e-02" rms="4.4946020841598511e-01" purity="7.1673446893692017e-01" nType="-99"/>
                    <Node pos="r" depth="7" NCoef="0" IVar="-1" Cut="0.0000000000000000e+00" cType="1" res="6.4914585091173649e-03" rms="4.8548203706741333e-01" purity="6.1524659395217896e-01" nType="-99"/>
                  </Node>
                  <Node pos="r" depth="6" NCoef="0" IVar="5" Cut="-6.4784592390060425e-01" cType="1" res="5.7893775403499603e-02" rms="4.8709285259246826e-01" purity="5.9276854991912842e-01" nType="0">
                    <Node pos="l" depth="7" NCoef="0" IVar="-1" Cut="0.0000000000000000e+00" cType="1" res="6.0035111382603645e-03" rms="4.8365467786788940e-01" purity="6.2030440568923950e-01" nType="-99"/>
                    <Node pos="r" depth="7" NCoef="0" IVar="-1" Cut="0.0000000000000000e+00" cType="1" res="5.2201986545696855e-04" rms="4.9669411778450012e-01" purity="4.8666140437126160e-01" nType="-99"/>
                  </Node>
                </Node>
              </Node>
              <Node pos="r" depth="4" NCoef="0" IVar="-1" Cut="0.0000000000000000e+00" cType="1" res="-9.6367206424474716e-03" rms="4.8697575926780701e-01" purity="4.1491660475730896e-01" nType="-99"/>
            </Node>
            <Node pos="r" depth="3" NCoef="0" IVar="-1" Cut="0.0000000000000000e+00" cType="1" res="-1.5210151672363281e-02" rms="4.5356917381286621e-01" purity="2.9673078656196594e-01" nType="-99"/>
          </Node>
        </Node>
      </Node>
    </BinaryTree>
    <BinaryTree type="DecisionTree" boostWeight="1.0000000000000000e+00" itree="15">
      <Node pos="s" depth="0" NCoef="0" IVar="3" Cut="6.7633879184722900e-01" cType="1" res="1.3819668442010880e-02" rms="4.3311679363250732e-01" purity="4.9837309122085571e-01" nType="0">
        <Node pos="l" depth="1" NCoef="0" IVar="3" Cut="5.4552263021469116e-01" cType="1" res="-1.3165527582168579e-01" rms="3.7118980288505554e-01" purity="1.9731889665126801e-01" nType="0">
          <Node pos="l" depth="2" NCoef="0" IVar="4" Cut="8.1775343418121338e-01" cType="1" res="-1.6028369963169098e-01" rms="3.2004678249359131e-01" purity="1.2811824679374695e-01" nType="0">
            <Node pos="l" depth="3" NCoef="0" IVar="3" Cut="4.5760962367057800e-01" cType="1" res="-1.4589846134185791e-01" rms="3.5238546133041382e-01" purity="1.5908171236515045e-01" nType="0">
              <Node pos="l" depth="4" NCoef="0" IVar="6" Cut="2.2111813724040985e-01" cType="1" res="-1.5956999361515045e-01" rms="3.1970384716987610e-01" purity="1.2322756648063660e-01" nType="0">
                <Node pos="l" depth="5" NCoef="0" IVar="6" Cut="1.3563957810401917e-01" cType="1" res="-1.6831248998641968e-01" rms="3.0035305023193359e-01" purity="1.0583380609750748e-01" nType="0">
                  <Node pos="l" depth="6" NCoef="0" IVar="3" Cut="3.3966892957687378e-01" cType="1" res="-1.8026237189769745e-01" rms="2.6715099811553955e-01" purity="7.9873479902744293e-02" nType="0">
                    <Node pos="l" depth="7" NCoef="0" IVar="-1" Cut="0.0000000000000000e+00" cType="1" res="-3.0965095385909081e-02" rms="2.1769604086875916e-01" purity="5.0413161516189575e-02" nType="-99"/>
                    <Node pos="r" depth="7" NCoef="0" IVar="-1" Cut="0.0000000000000000e+00" cType="1" res="-2.2536657750606537e-02" rms="3.1245163083076477e-01" purity="1.1251878738403320e-01" nType="-99"/>
                  </Node>
                  <Node pos="r" depth="6" NCoef="0" IVar="2" Cut="2.6841421508789062e+02" cType="1" res="-1.4165304601192474e-01" rms="3.6224108934402466e-01" purity="1.6374966502189636e-01" nType="0">
                    <Node pos="l" depth="7" NCoef="0" IVar="-1" Cut="0.0000000000000000e+00" cType="1" res="-1.0710776783525944e-02" rms="4.0568408370018005e-01" purity="2.1982938051223755e-01" nType="-99"/>
                    <Node pos="r" depth="7" NCoef="0" IVar="-1" Cut="0.0000000000000000e+00" cType="1" res="-2.1345907822251320e-02" rms="3.4092923998832703e-01" purity="1.4131833612918854e-01" nType="-99"/>
                  </Node>
                </Node>
                <Node pos="r" depth="5" NCoef="0" IVar="4" Cut="-9.3180471658706665e-01" cType="1" res="-1.0688481479883194e-01" rms="4.1386204957962036e-01" purity="2.2804823517799377e-01" nType="0">
                  <Node pos="l" depth="6" NCoef="0" IVar="-1" Cut="0.0000000000000000e+00" cType="1" res="-9.4603952020406723e-03" rms="4.3269729614257812e-01" purity="2.6010563969612122e-01" nType="-99"/>
                  <Node pos="r" depth="6" NCoef="0" IVar="-1" Cut="0.0000000000000000e+00" cType="1" res="-1.5663797035813332e-02" rms="3.9375191926956177e-01" purity="1.9766017794609070e-01" nType="-99"/>
                </Node>
              </Node>
              <Node pos="r" depth="4" NCoef="0" IVar="6" Cut="8.0151677131652832e-02" cType="1" res="-1.0528559237718582e-01" rms="4.3268966674804688e-01" purity="2.6559054851531982e-01" nType="0">
                <Node pos="l" depth="5" NCoef="0" IVar="2" Cut="1.0891884613037109e+02" cType="1" res="-1.4727804064750671e-01" rms="3.9305135607719421e-01" purity="1.9952939450740814e-01" nType="0">
                  <Node pos="l" depth="6" NCoef="0" IVar="-1" Cut="0.0000000000000000e+00" cType="1" res="-1.2209000065922737e-02" rms="4.1817888617515564e-01" purity="2.3955470323562622e-01" nType="-99"/>
                  <Node pos="r" depth="6" NCoef="0" IVar="-1" Cut="0.0000000000000000e+00" cType="1" res="-2.1239310503005981e-02" rms="3.5974973440170288e-01" purity="1.5566068887710571e-01" nType="-99"/>
                </Node>
                <Node pos="r" depth="5" NCoef="0" IVar="0" Cut="5.0969552993774414e-01" cType="1" res="-7.5625516474246979e-02" rms="4.5630437135696411e-01" purity="3.1225079298019409e-01" nType="0">
                  <Node pos="l" depth="6" NCoef="0" IVar="-1" Cut="0.0000000000000000e+00" cType="1" res="-4.9197254702448845e-03" rms="4.7806745767593384e-01" purity="3.6683800816535950e-01" nType="-99"/>
                  <Node pos="r" depth="6" NCoef="0" IVar="-1" Cut="0.0000000000000000e+00" cType="1" res="-1.1135227046906948e-02" rms="4.2765811085700989e-01" purity="2.4777209758758545e-01" nType="-99"/>
                </Node>
              </Node>
            </Node>
            <Node pos="r" depth="3" NCoef="0" IVar="4" Cut="1.8314828872680664e+00" cType="1" res="-1.9159837067127228e-01" rms="2.3165005445480347e-01" purity="6.0715045779943466e-02" nType="0">
              <Node pos="l" depth="4" NCoef="0" IVar="6" Cut="1.2282766401767731e-01" cType="1" res="-1.7044550180435181e-01" rms="2.9566344618797302e-01" purity="1.0305424034595490e-01" nType="0">
                <Node pos="l" depth="5" NCoef="0" IVar="-1" Cut="0.0000000000000000e+00" cType="1" res="-2.7140250429511070e-02" rms="2.5168129801750183e-01" purity="7.2060585021972656e-02" nType="-99"/>
                <Node pos="r" depth="5" NCoef="0" IVar="-1" Cut="0.0000000000000000e+00" cType="1" res="-1.8276458606123924e-02" rms="3.4710013866424561e-01" purity="1.4804512262344360e-01" nType="-99"/>
              </Node>
              <Node pos="r" depth="4" NCoef="0" IVar="3" Cut="2.5353530049324036e-01" cType="1" res="-2.0254652202129364e-01" rms="1.8931341171264648e-01" purity="3.8801435381174088e-02" nType="0">
                <Node pos="l" depth="5" NCoef="0" IVar="-1" Cut="0.0000000000000000e+00" cType="1" res="-2.9235374182462692e-02" rms="2.3228518664836884e-01" purity="6.0947474092245102e-02" nType="-99"/>
                <Node pos="r" depth="5" NCoef="0" IVar="5" Cut="1.9545387029647827e+00" cType="1" res="-2.1270006895065308e-01" rms="1.6488330066204071e-01" purity="2.8624176979064941e-02" nType="0">
                  <Node pos="l" depth="6" NCoef="0" IVar="4" Cut="2.5867133140563965e+00" cType="1" res="-2.0380848646163940e-01" rms="1.9832882285118103e-01" purity="4.2127557098865509e-02" nType="0">
                    <Node pos="l" depth="7" NCoef="0" IVar="-1" Cut="0.0000000000000000e+00" cType="1" res="-2.8202947229146957e-02" rms="2.2966212034225464e-01" purity="5.7523656636476517e-02" nType="-99"/>
                    <Node pos="r" depth="7" NCoef="0" IVar="-1" Cut="0.0000000000000000e+00" cType="1" res="-3.2462205737829208e-02" rms="1.5219365060329437e-01" purity="2.3942673578858376e-02" nType="-99"/>
                  </Node>
                  <Node pos="r" depth="6" NCoef="0" IVar="-1" Cut="0.0000000000000000e+00" cType="1" res="-3.4347716718912125e-02" rms="1.1067632585763931e-01" purity="1.2255754321813583e-02" nType="-99"/>
                </Node>
              </Node>
            </Node>
          </Node>
          <Node pos="r" depth="2" NCoef="0" IVar="5" Cut="-1.1635315418243408e+00" cType="1" res="-5.5033028125762939e-02" rms="4.7363975644111633e-01" purity="3.8253018260002136e-01" nType="0">
            <Node pos="l" depth="3" NCoef="0" IVar="0" Cut="3.5398793220520020e-01" cType="1" res="-3.2794147729873657e-02" rms="4.8536694049835205e-01" purity="4.2070862650871277e-01" nType="0">
              <Node pos="l" depth="4" NCoef="0" IVar="2" Cut="1.9519268798828125e+02" cType="1" res="4.0409825742244720e-03" rms="4.9791479110717773e-01" purity="4.9699521064758301e-01" nType="0">
                <Node pos="l" depth="5" NCoef="0" IVar="6" Cut="6.9431625306606293e-02" cType="1" res="2.0400971174240112e-02" rms="4.9807319045066833e-01" purity="5.1822674274444580e-01" nType="0">
                  <Node pos="l" depth="6" NCoef="0" IVar="-1" Cut="0.0000000000000000e+00" cType="1" res="-4.9204460810869932e-04" rms="4.9808090925216675e-01" purity="4.9076944589614868e-01" nType="-99"/>
                  <Node pos="r" depth="6" NCoef="0" IVar="-1" Cut="0.0000000000000000e+00" cType="1" res="3.7954114377498627e-03" rms="4.9664634466171265e-01" purity="5.4622763395309448e-01" nType="-99"/>
                </Node>
                <Node pos="r" depth="5" NCoef="0" IVar="-1" Cut="0.0000000000000000e+00" cType="1" res="-1.3738407287746668e-03" rms="4.9703133106231689e-01" purity="4.7185561060905457e-01" nType="-99"/>
              </Node>
              <Node pos="r" depth="4" NCoef="0" IVar="6" Cut="5.7225536555051804e-02" cType="1" res="-7.0411182940006256e-02" rms="4.6923390030860901e-01" purity="3.4280267357826233e-01" nType="0">
                <Node pos="l" depth="5" NCoef="0" IVar="-1" Cut="0.0000000000000000e+00" cType="1" res="-1.1145064607262611e-02" rms="4.5238444209098816e-01" purity="2.9799658060073853e-01" nType="-99"/>
                <Node pos="r" depth="5" NCoef="0" IVar="2" Cut="1.9070101928710938e+02" cType="1" res="-4.1053753346204758e-02" rms="4.7828531265258789e-01" purity="3.7364768981933594e-01" nType="0">
                  <Node pos="l" depth="6" NCoef="0" IVar="-1" Cut="0.0000000000000000e+00" cType="1" res="4.4147530570626259e-04" rms="4.8988068103790283e-01" purity="4.2893797159194946e-01" nType="-99"/>
                  <Node pos="r" depth="6" NCoef="0" IVar="-1" Cut="0.0000000000000000e+00" cType="1" res="-8.0455467104911804e-03" rms="4.6422591805458069e-01" purity="3.2549458742141724e-01" nType="-99"/>
                </Node>
              </Node>
            </Node>
            <Node pos="r" depth="3" NCoef="0" IVar="5" Cut="-7.8242413699626923e-02" cType="1" res="-1.2648810446262360e-01" rms="4.2603284120559692e-01" purity="2.5986018776893616e-01" nType="0">
              <Node pos="l" depth="4" NCoef="0" IVar="-1" Cut="0.0000000000000000e+00" cType="1" res="-8.4844576194882393e-03" rms="4.6196815371513367e-01" purity="3.2685878872871399e-01" nType="-99"/>
              <Node pos="r" depth="4" NCoef="0" IVar="-1" Cut="0.0000000000000000e+00" cType="1" res="-2.0576445385813713e-02" rms="3.5677531361579895e-01" purity="1.5709686279296875e-01" nType="-99"/>
            </Node>
          </Node>
        </Node>
        <Node pos="r" depth="1" NCoef="0" IVar="0" Cut="7.8209793567657471e-01" cType="1" res="1.1337438225746155e-01" rms="4.4416466355323792e-01" purity="7.0439732074737549e-01" nType="0">
          <Node pos="l" depth="2" NCoef="0" IVar="0" Cut="1.7658631503582001e-01" cType="1" res="1.1979896575212479e-01" rms="4.4152158498764038e-01" purity="7.1222960948944092e-01" nType="0">
            <Node pos="l" depth="3" NCoef="0" IVar="5" Cut="-1.5457618236541748e+00" cType="1" res="1.3948026299476624e-01" rms="4.2955201864242554e-01" purity="7.4221956729888916e-01" nType="0">
              <Node pos="l" depth="4" NCoef="0" IVar="3" Cut="9.0062719583511353e-01" cType="1" res="1.5327209234237671e-01" rms="4.1710996627807617e-01" purity="7.6914858818054199e-01" nType="0">
                <Node pos="l" depth="5" NCoef="0" IVar="3" Cut="8.5722517967224121e-01" cType="1" res="1.1601737141609192e-01" rms="4.5216393470764160e-01" purity="7.0602369308471680e-01" nType="0">
                  <Node pos="l" depth="6" NCoef="0" IVar="3" Cut="7.2888547182083130e-01" cType="1" res="9.9296294152736664e-02" rms="4.6400427818298340e-01" purity="6.7954939603805542e-01" nType="0">
                    <Node pos="l" depth="7" NCoef="0" IVar="-1" Cut="0.0000000000000000e+00" cType="1" res="4.6350695192813873e-03" rms="4.8732000589370728e-01" purity="6.0586529970169067e-01" nType="-99"/>
                    <Node pos="r" depth="7" NCoef="0" IVar="-1" Cut="0.0000000000000000e+00" cType="1" res="8.5511226207017899e-03" rms="4.5825162529945374e-01" purity="6.9562375545501709e-01" nType="-99"/>
                  </Node>
                  <Node pos="r" depth="6" NCoef="0" IVar="5" Cut="-2.4638051986694336e+00" cType="1" res="1.5071083605289459e-01" rms="4.2445400357246399e-01" purity="7.6095348596572876e-01" nType="0">
                    <Node pos="l" depth="7" NCoef="0" IVar="-1" Cut="0.0000000000000000e+00" cType="1" res="1.4781549572944641e-02" rms="4.0617060661315918e-01" purity="7.9000872373580933e-01" nType="-99"/>
                    <Node pos="r" depth="7" NCoef="0" IVar="-1" Cut="0.0000000000000000e+00" cType="1" res="1.0497750714421272e-02" rms="4.4712275266647339e-01" purity="7.2029799222946167e-01" nType="-99"/>
                  </Node>
                </Node>
                <Node pos="r" depth="5" NCoef="0" IVar="5" Cut="-2.4639933109283447e+00" cType="1" res="1.7384070158004761e-01" rms="3.9492765069007874e-01" purity="8.0400031805038452e-01" nType="0">
                  <Node pos="l" depth="6" NCoef="0" IVar="1" Cut="-3.1888160854578018e-02" cType="1" res="1.8556237220764160e-01" rms="3.8087448477745056e-01" purity="8.2199984788894653e-01" nType="0">
                    <Node pos="l" depth="7" NCoef="0" IVar="-1" Cut="0.0000000000000000e+00" cType="1" res="1.6269033774733543e-02" rms="3.6218518018722534e-01" purity="8.4363150596618652e-01" nType="-99"/>
                    <Node pos="r" depth="7" NCoef="0" IVar="-1" Cut="0.0000000000000000e+00" cType="1" res="1.4064053073525429e-02" rms="3.9319539070129395e-01" purity="8.0658280849456787e-01" nType="-99"/>
                  </Node>
                  <Node pos="r" depth="6" NCoef="0" IVar="4" Cut="-8.7491673231124878e-01" cType="1" res="1.4792250096797943e-01" rms="4.2320102453231812e-01" purity="7.6420104503631592e-01" nType="0">
                    <Node pos="l" depth="7" NCoef="0" IVar="-1" Cut="0.0000000000000000e+00" cType="1" res="9.3810921534895897e-03" rms="4.4587498903274536e-01" purity="7.2527271509170532e-01" nType="-99"/>
                    <Node pos="r" depth="7" NCoef="0" IVar="-1" Cut="0.0000000000000000e+00" cType="1" res="1.3340599834918976e-02" rms="4.1217392683029175e-01" purity="7.8144025802612305e-01" nType="-99"/>
                  </Node>
                </Node>
              </Node>
              <Node pos="r" depth="4" NCoef="0" IVar="5" Cut="-7.9476183652877808e-01" cType="1" res="6.8583086133003235e-02" rms="4.8235049843788147e-01" purity="6.0379046201705933e-01" nType="0">
                <Node pos="l" depth="5" NCoef="0" IVar="5" Cut="-1.3519927263259888e+00" cType="1" res="9.4630412757396698e-02" rms="4.7288015484809875e-01" purity="6.5606361627578735e-01" nType="0">
                  <Node pos="l" depth="6" NCoef="0" IVar="-1" Cut="0.0000000000000000e+00" cType="1" res="9.2975860461592674e-03" rms="4.6406909823417664e-01" purity="6.8198150396347046e-01" nType="-99"/>
                  <Node pos="r" depth="6" NCoef="0" IVar="3" Cut="8.7031209468841553e-01" cType="1" res="8.3479590713977814e-02" rms="4.7728788852691650e-01" purity="6.4181488752365112e-01" nType="0">
                    <Node pos="l" depth="7" NCoef="0" IVar="-1" Cut="0.0000000000000000e+00" cType="1" res="5.0453594885766506e-03" rms="4.8802003264427185e-01" purity="6.0229307413101196e-01" nType="-99"/>
                    <Node pos="r" depth="7" NCoef="0" IVar="-1" Cut="0.0000000000000000e+00" cType="1" res="8.1714037805795670e-03" rms="4.6781104803085327e-01" purity="6.7349612712860107e-01" nType="-99"/>
                  </Node>
                </Node>
                <Node pos="r" depth="5" NCoef="0" IVar="7" Cut="2.0000000000000000e+00" cType="1" res="2.8920892626047134e-02" rms="4.9319034814834595e-01" purity="5.2393686771392822e-01" nType="0">
                  <Node pos="l" depth="6" NCoef="0" IVar="-1" Cut="0.0000000000000000e+00" cType="1" res="5.6614978238940239e-03" rms="4.9057957530021667e-01" purity="5.8751130104064941e-01" nType="-99"/>
                  <Node pos="r" depth="6" NCoef="0" IVar="-1" Cut="0.0000000000000000e+00" cType="1" res="8.8462198618799448e-05" rms="4.9422264099121094e-01" purity="4.7898033261299133e-01" nType="-99"/>
                </Node>
              </Node>
            </Node>
            <Node pos="r" depth="3" NCoef="0" IVar="5" Cut="-1.1945672035217285e+00" cType="1" res="1.8718341365456581e-02" rms="4.8608970642089844e-01" purity="5.5820477008819580e-01" nType="0">
              <Node pos="l" depth="4" NCoef="0" IVar="4" Cut="-2.3505532741546631e+00" cType="1" res="4.0189359337091446e-02" rms="4.8433575034141541e-01" purity="5.9271055459976196e-01" nType="0">
                <Node pos="l" depth="5" NCoef="0" IVar="-1" Cut="0.0000000000000000e+00" cType="1" res="1.0102485306560993e-02" rms="4.6032768487930298e-01" purity="6.7777973413467407e-01" nType="-99"/>
                <Node pos="r" depth="5" NCoef="0" IVar="0" Cut="3.9142936468124390e-01" cType="1" res="2.5640930980443954e-02" rms="4.8724398016929626e-01" purity="5.7701510190963745e-01" nType="0">
                  <Node pos="l" depth="6" NCoef="0" IVar="3" Cut="8.0689030885696411e-01" cType="1" res="4.3566070497035980e-02" rms="4.8323535919189453e-01" purity="5.9932965040206909e-01" nType="0">
                    <Node pos="l" depth="7" NCoef="0" IVar="-1" Cut="0.0000000000000000e+00" cType="1" res="1.7378297634422779e-03" rms="4.9462935328483582e-01" purity="5.4718244075775146e-01" nType="-99"/>
                    <Node pos="r" depth="7" NCoef="0" IVar="-1" Cut="0.0000000000000000e+00" cType="1" res="7.3510012589395046e-03" rms="4.6145716309547424e-01" purity="6.8424296379089355e-01" nType="-99"/>
                  </Node>
                  <Node pos="r" depth="6" NCoef="0" IVar="-1" Cut="0.0000000000000000e+00" cType="1" res="-1.9777205307036638e-03" rms="4.9472817778587341e-01" purity="5.1608788967132568e-01" nType="-99"/>
                </Node>
              </Node>
              <Node pos="r" depth="4" NCoef="0" IVar="-1" Cut="0.0000000000000000e+00" cType="1" res="-6.3280249014496803e-03" rms="4.8325017094612122e-01" purity="4.1549634933471680e-01" nType="-99"/>
            </Node>
          </Node>
          <Node pos="r" depth="2" NCoef="0" IVar="-1" Cut="0.0000000000000000e+00" cType="1" res="-1.9739553332328796e-02" rms="4.5744538307189941e-01" purity="3.1355395913124084e-01" nType="-99"/>
        </Node>
      </Node>
    </BinaryTree>
    <BinaryTree type="DecisionTree" boostWeight="1.0000000000000000e+00" itree="16">
      <Node pos="s" depth="0" NCoef="0" IVar="3" Cut="6.7633879184722900e-01" cType="1" res="1.7274733632802963e-02" rms="4.3106999993324280e-01" purity="5.0200045108795166e-01" nType="0">
        <Node pos="l" depth="1" NCoef="0" IVar="3" Cut="5.0192350149154663e-01" cType="1" res="-1.2143321335315704e-01" rms="3.7240123748779297e-01" purity="2.0049628615379333e-01" nType="0">
          <Node pos="l" depth="2" NCoef="0" IVar="5" Cut="-1.2442203760147095e+00" cType="1" res="-1.5579254925251007e-01" rms="3.0446851253509521e-01" purity="1.1257845908403397e-01" nType="0">
            <Node pos="l" depth="3" NCoef="0" IVar="6" Cut="1.0705746710300446e-01" cType="1" res="-1.4060379564762115e-01" rms="3.3832734823226929e-01" purity="1.4289845526218414e-01" nType="0">
              <Node pos="l" depth="4" NCoef="0" IVar="3" Cut="4.5347407460212708e-01" cType="1" res="-1.6263628005981445e-01" rms="2.8583532571792603e-01" purity="9.4517014920711517e-02" nType="0">
                <Node pos="l" depth="5" NCoef="0" IVar="1" Cut="2.8645029664039612e-01" cType="1" res="-1.7242312431335449e-01" rms="2.5417605042457581e-01" purity="7.1021817624568939e-02" nType="0">
                  <Node pos="l" depth="6" NCoef="0" IVar="2" Cut="1.5712834167480469e+02" cType="1" res="-1.5758399665355682e-01" rms="2.8787216544151306e-01" purity="9.3400783836841583e-02" nType="0">
                    <Node pos="l" depth="7" NCoef="0" IVar="-1" Cut="0.0000000000000000e+00" cType="1" res="-2.0384589210152626e-02" rms="3.1692939996719360e-01" purity="1.1612789332866669e-01" nType="-99"/>
                    <Node pos="r" depth="7" NCoef="0" IVar="-1" Cut="0.0000000000000000e+00" cType="1" res="-2.6881029829382896e-02" rms="2.5100120902061462e-01" purity="6.8881258368492126e-02" nType="-99"/>
                  </Node>
                  <Node pos="r" depth="6" NCoef="0" IVar="5" Cut="-3.0997192859649658e+00" cType="1" res="-1.8143711984157562e-01" rms="2.3085811734199524e-01" purity="5.7427771389484406e-02" nType="0">
                    <Node pos="l" depth="7" NCoef="0" IVar="-1" Cut="0.0000000000000000e+00" cType="1" res="-3.1060568988323212e-02" rms="2.0332305133342743e-01" purity="4.3458387255668640e-02" nType="-99"/>
                    <Node pos="r" depth="7" NCoef="0" IVar="-1" Cut="0.0000000000000000e+00" cType="1" res="-2.7504691854119301e-02" rms="2.4263258278369904e-01" purity="6.4087882637977600e-02" nType="-99"/>
                  </Node>
                </Node>
                <Node pos="r" depth="5" NCoef="0" IVar="-1" Cut="0.0000000000000000e+00" cType="1" res="-1.4159164391458035e-02" rms="3.9161685109138489e-01" purity="1.9602641463279724e-01" nType="-99"/>
              </Node>
              <Node pos="r" depth="4" NCoef="0" IVar="3" Cut="4.0654903650283813e-01" cType="1" res="-1.1880999803543091e-01" rms="3.8199332356452942e-01" purity="1.9075575470924377e-01" nType="0">
                <Node pos="l" depth="5" NCoef="0" IVar="6" Cut="2.1032030880451202e-01" cType="1" res="-1.3513952493667603e-01" rms="3.5471031069755554e-01" purity="1.5601977705955505e-01" nType="0">
                  <Node pos="l" depth="6" NCoef="0" IVar="0" Cut="2.2755992412567139e+00" cType="1" res="-1.5251839160919189e-01" rms="3.1970694661140442e-01" purity="1.2025050073862076e-01" nType="0">
                    <Node pos="l" depth="7" NCoef="0" IVar="-1" Cut="0.0000000000000000e+00" cType="1" res="-1.8562601879239082e-02" rms="3.4759825468063354e-01" purity="1.4479547739028931e-01" nType="-99"/>
                    <Node pos="r" depth="7" NCoef="0" IVar="-1" Cut="0.0000000000000000e+00" cType="1" res="-3.0426379293203354e-02" rms="2.3984114825725555e-01" purity="6.3921511173248291e-02" nType="-99"/>
                  </Node>
                  <Node pos="r" depth="6" NCoef="0" IVar="-1" Cut="0.0000000000000000e+00" cType="1" res="-1.1708863079547882e-02" rms="4.1619694232940674e-01" purity="2.3079803586006165e-01" nType="-99"/>
                </Node>
                <Node pos="r" depth="5" NCoef="0" IVar="-1" Cut="0.0000000000000000e+00" cType="1" res="-7.3639047332108021e-03" rms="4.4996568560600281e-01" purity="2.9391938447952271e-01" nType="-99"/>
              </Node>
            </Node>
            <Node pos="r" depth="3" NCoef="0" IVar="6" Cut="2.3518271744251251e-01" cType="1" res="-1.7816878855228424e-01" rms="2.4453429877758026e-01" purity="6.7910641431808472e-02" nType="0">
              <Node pos="l" depth="4" NCoef="0" IVar="5" Cut="8.1114768981933594e-02" cType="1" res="-1.8662893772125244e-01" rms="2.2090847790241241e-01" purity="5.4565388709306717e-02" nType="0">
                <Node pos="l" depth="5" NCoef="0" IVar="3" Cut="3.7398102879524231e-01" cType="1" res="-1.7119668424129486e-01" rms="2.7910816669464111e-01" purity="8.9686922729015350e-02" nType="0">
                  <Node pos="l" depth="6" NCoef="0" IVar="6" Cut="1.2184447050094604e-01" cType="1" res="-1.8392771482467651e-01" rms="2.3021094501018524e-01" purity="5.8080349117517471e-02" nType="0">
                    <Node pos="l" depth="7" NCoef="0" IVar="-1" Cut="0.0000000000000000e+00" cType="1" res="-3.2448451966047287e-02" rms="1.7454442381858826e-01" purity="3.1836777925491333e-02" nType="-99"/>
                    <Node pos="r" depth="7" NCoef="0" IVar="-1" Cut="0.0000000000000000e+00" cType="1" res="-2.5131620466709137e-02" rms="2.8032901883125305e-01" purity="8.8234409689903259e-02" nType="-99"/>
                  </Node>
                  <Node pos="r" depth="6" NCoef="0" IVar="-1" Cut="0.0000000000000000e+00" cType="1" res="-1.9883820787072182e-02" rms="3.3706140518188477e-01" purity="1.3574250042438507e-01" nType="-99"/>
                </Node>
                <Node pos="r" depth="5" NCoef="0" IVar="5" Cut="2.0760059356689453e+00" cType="1" res="-1.9786235690116882e-01" rms="1.6528154909610748e-01" purity="2.8999779373407364e-02" nType="0">
                  <Node pos="l" depth="6" NCoef="0" IVar="4" Cut="2.4783091545104980e+00" cType="1" res="-1.9178651273250580e-01" rms="1.9833184778690338e-01" purity="4.2287014424800873e-02" nType="0">
                    <Node pos="l" depth="7" NCoef="0" IVar="-1" Cut="0.0000000000000000e+00" cType="1" res="-2.9303066432476044e-02" rms="2.2848005592823029e-01" purity="5.6832455098628998e-02" nType="-99"/>
                    <Node pos="r" depth="7" NCoef="0" IVar="-1" Cut="0.0000000000000000e+00" cType="1" res="-3.3135052770376205e-02" rms="1.4214998483657837e-01" purity="2.0805213600397110e-02" nType="-99"/>
                  </Node>
                  <Node pos="r" depth="6" NCoef="0" IVar="7" Cut="6.0000000000000000e+00" cType="1" res="-2.0545881986618042e-01" rms="1.1022420972585678e-01" purity="1.2339418753981590e-02" nType="0">
                    <Node pos="l" depth="7" NCoef="0" IVar="-1" Cut="0.0000000000000000e+00" cType="1" res="-3.5150036215782166e-02" rms="1.0311782360076904e-01" purity="1.0719310492277145e-02" nType="-99"/>
                    <Node pos="r" depth="7" NCoef="0" IVar="-1" Cut="0.0000000000000000e+00" cType="1" res="-3.4124419093132019e-02" rms="1.1659401655197144e-01" purity="1.3930005021393299e-02" nType="-99"/>
                  </Node>
                </Node>
              </Node>
              <Node pos="r" depth="4" NCoef="0" IVar="-1" Cut="0.0000000000000000e+00" cType="1" res="-1.4848609454929829e-02" rms="3.7413302063941956e-01" purity="1.7107735574245453e-01" nType="-99"/>
            </Node>
          </Node>
          <Node pos="r" depth="2" NCoef="0" IVar="1" Cut="4.5424854755401611e-01" cType="1" res="-5.8573413640260696e-02" rms="4.6550408005714417e-01" purity="3.6134043335914612e-01" nType="0">
            <Node pos="l" depth="3" NCoef="0" IVar="0" Cut="3.5398790240287781e-01" cType="1" res="-3.6731030791997910e-02" rms="4.7441449761390686e-01" purity="3.9232394099235535e-01" nType="0">
              <Node pos="l" depth="4" NCoef="0" IVar="5" Cut="-1.1120369434356689e+00" cType="1" res="5.7671531103551388e-03" rms="4.8967799544334412e-01" purity="4.7244495153427124e-01" nType="0">
                <Node pos="l" depth="5" NCoef="0" IVar="2" Cut="1.9651112365722656e+02" cType="1" res="2.5468531996011734e-02" rms="4.9698957800865173e-01" purity="5.1420485973358154e-01" nType="0">
                  <Node pos="l" depth="6" NCoef="0" IVar="6" Cut="6.7286051809787750e-02" cType="1" res="5.0838410854339600e-02" rms="4.9622747302055359e-01" purity="5.4586601257324219e-01" nType="0">
                    <Node pos="l" depth="7" NCoef="0" IVar="-1" Cut="0.0000000000000000e+00" cType="1" res="1.6834059497341514e-03" rms="4.9763306975364685e-01" purity="5.1495742797851562e-01" nType="-99"/>
                    <Node pos="r" depth="7" NCoef="0" IVar="-1" Cut="0.0000000000000000e+00" cType="1" res="6.0152364894747734e-03" rms="4.9364361166954041e-01" purity="5.7119250297546387e-01" nType="-99"/>
                  </Node>
                  <Node pos="r" depth="6" NCoef="0" IVar="-1" Cut="0.0000000000000000e+00" cType="1" res="-4.5708316611126065e-04" rms="4.9618574976921082e-01" purity="4.7604662179946899e-01" nType="-99"/>
                </Node>
                <Node pos="r" depth="5" NCoef="0" IVar="-1" Cut="0.0000000000000000e+00" cType="1" res="-5.8320797979831696e-03" rms="4.5857444405555725e-01" purity="3.3389922976493835e-01" nType="-99"/>
              </Node>
              <Node pos="r" depth="4" NCoef="0" IVar="5" Cut="-1.8654168844223022e+00" cType="1" res="-7.7858708798885345e-02" rms="4.5539975166320801e-01" purity="3.1478673219680786e-01" nType="0">
                <Node pos="l" depth="5" NCoef="0" IVar="3" Cut="5.9758090972900391e-01" cType="1" res="-4.9353376030921936e-02" rms="4.7431197762489319e-01" purity="3.5895076394081116e-01" nType="0">
                  <Node pos="l" depth="6" NCoef="0" IVar="-1" Cut="0.0000000000000000e+00" cType="1" res="-7.6150977984070778e-03" rms="4.5971226692199707e-01" purity="3.1488075852394104e-01" nType="-99"/>
                  <Node pos="r" depth="6" NCoef="0" IVar="-1" Cut="0.0000000000000000e+00" cType="1" res="-6.3318543834611773e-04" rms="4.9178728461265564e-01" purity="4.2328390479087830e-01" nType="-99"/>
                </Node>
                <Node pos="r" depth="5" NCoef="0" IVar="5" Cut="-9.1799581050872803e-01" cType="1" res="-1.1842416971921921e-01" rms="4.2375120520591736e-01" purity="2.5193762779235840e-01" nType="0">
                  <Node pos="l" depth="6" NCoef="0" IVar="-1" Cut="0.0000000000000000e+00" cType="1" res="-7.4297818355262280e-03" rms="4.6463942527770996e-01" purity="3.2660365104675293e-01" nType="-99"/>
                  <Node pos="r" depth="6" NCoef="0" IVar="-1" Cut="0.0000000000000000e+00" cType="1" res="-1.8247019499540329e-02" rms="3.7064722180366516e-01" purity="1.7285978794097900e-01" nType="-99"/>
                </Node>
              </Node>
            </Node>
            <Node pos="r" depth="3" NCoef="0" IVar="6" Cut="7.6308287680149078e-02" cType="1" res="-1.3331812620162964e-01" rms="4.2522367835044861e-01" purity="2.5531473755836487e-01" nType="0">
              <Node pos="l" depth="4" NCoef="0" IVar="-1" Cut="0.0000000000000000e+00" cType="1" res="-1.6940362751483917e-02" rms="4.0361705422401428e-01" purity="2.1756622195243835e-01" nType="-99"/>
              <Node pos="r" depth="4" NCoef="0" IVar="-1" Cut="0.0000000000000000e+00" cType="1" res="-1.0574949905276299e-02" rms="4.4419547915458679e-01" purity="2.9315313696861267e-01" nType="-99"/>
            </Node>
          </Node>
        </Node>
        <Node pos="r" depth="1" NCoef="0" IVar="5" Cut="-1.8348917961120605e+00" cType="1" res="1.1171699315309525e-01" rms="4.4260308146476746e-01" purity="7.0728600025177002e-01" nType="0">
          <Node pos="l" depth="2" NCoef="0" IVar="3" Cut="9.0060251951217651e-01" cType="1" res="1.3514128327369690e-01" rms="4.2577254772186279e-01" purity="7.4928504228591919e-01" nType="0">
            <Node pos="l" depth="3" NCoef="0" IVar="1" Cut="4.1477429866790771e-01" cType="1" res="9.2435307800769806e-02" rms="4.6231424808502197e-01" purity="6.7298579216003418e-01" nType="0">
              <Node pos="l" depth="4" NCoef="0" IVar="3" Cut="7.5592130422592163e-01" cType="1" res="1.1112891882658005e-01" rms="4.5375996828079224e-01" purity="6.9779330492019653e-01" nType="0">
                <Node pos="l" depth="5" NCoef="0" IVar="0" Cut="2.4652667343616486e-01" cType="1" res="5.6720096617937088e-02" rms="4.8652696609497070e-01" purity="6.0012030601501465e-01" nType="0">
                  <Node pos="l" depth="6" NCoef="0" IVar="2" Cut="1.2650950622558594e+02" cType="1" res="7.9114481806755066e-02" rms="4.7793292999267578e-01" purity="6.4288657903671265e-01" nType="0">
                    <Node pos="l" depth="7" NCoef="0" IVar="-1" Cut="0.0000000000000000e+00" cType="1" res="7.9934205859899521e-03" rms="4.6992209553718567e-01" purity="6.6722339391708374e-01" nType="-99"/>
                    <Node pos="r" depth="7" NCoef="0" IVar="-1" Cut="0.0000000000000000e+00" cType="1" res="4.6428344212472439e-03" rms="4.8535925149917603e-01" purity="6.1602818965911865e-01" nType="-99"/>
                  </Node>
                  <Node pos="r" depth="6" NCoef="0" IVar="-1" Cut="0.0000000000000000e+00" cType="1" res="1.9016140140593052e-03" rms="4.9744457006454468e-01" purity="5.3467166423797607e-01" nType="-99"/>
                </Node>
                <Node pos="r" depth="5" NCoef="0" IVar="3" Cut="8.6325246095657349e-01" cType="1" res="1.3138288259506226e-01" rms="4.3922269344329834e-01" purity="7.3415261507034302e-01" nType="0">
                  <Node pos="l" depth="6" NCoef="0" IVar="0" Cut="1.8760618567466736e-01" cType="1" res="1.1814296990633011e-01" rms="4.5077240467071533e-01" purity="7.1201413869857788e-01" nType="0">
                    <Node pos="l" depth="7" NCoef="0" IVar="-1" Cut="0.0000000000000000e+00" cType="1" res="1.0130547918379307e-02" rms="4.4264543056488037e-01" purity="7.3165249824523926e-01" nType="-99"/>
                    <Node pos="r" depth="7" NCoef="0" IVar="-1" Cut="0.0000000000000000e+00" cType="1" res="7.5722634792327881e-03" rms="4.7520104050636292e-01" purity="6.4726960659027100e-01" nType="-99"/>
                  </Node>
                  <Node pos="r" depth="6" NCoef="0" IVar="3" Cut="8.8493031263351440e-01" cType="1" res="1.6021779179573059e-01" rms="4.1148093342781067e-01" purity="7.8236740827560425e-01" nType="0">
                    <Node pos="l" depth="7" NCoef="0" IVar="-1" Cut="0.0000000000000000e+00" cType="1" res="1.2867429293692112e-02" rms="4.1945007443428040e-01" purity="7.7053552865982056e-01" nType="-99"/>
                    <Node pos="r" depth="7" NCoef="0" IVar="-1" Cut="0.0000000000000000e+00" cType="1" res="1.5873920172452927e-02" rms="3.9853510260581970e-01" purity="8.0039167404174805e-01" nType="-99"/>
                  </Node>
                </Node>
              </Node>
              <Node pos="r" depth="4" NCoef="0" IVar="3" Cut="7.7040374279022217e-01" cType="1" res="1.0832658968865871e-02" rms="4.8965072631835938e-01" purity="5.6469422578811646e-01" nType="0">
                <Node pos="l" depth="5" NCoef="0" IVar="-1" Cut="0.0000000000000000e+00" cType="1" res="-2.7229767292737961e-03" rms="4.9605259299278259e-01" purity="4.7716525197029114e-01" nType="-99"/>
                <Node pos="r" depth="5" NCoef="0" IVar="-1" Cut="0.0000000000000000e+00" cType="1" res="2.7620180044323206e-03" rms="4.8465785384178162e-01" purity="6.1105340719223022e-01" nType="-99"/>
              </Node>
            </Node>
            <Node pos="r" depth="3" NCoef="0" IVar="5" Cut="-2.7435357570648193e+00" cType="1" res="1.6401864588260651e-01" rms="3.9657443761825562e-01" purity="8.0087786912918091e-01" nType="0">
              <Node pos="l" depth="4" NCoef="0" IVar="4" Cut="-1.1426618099212646e+00" cType="1" res="1.7670792341232300e-01" rms="3.8145163655281067e-01" purity="8.2028454542160034e-01" nType="0">
                <Node pos="l" depth="5" NCoef="0" IVar="4" Cut="-2.0900921821594238e+00" cType="1" res="1.5413640439510345e-01" rms="4.1552171111106873e-01" purity="7.7444100379943848e-01" nType="0">
                  <Node pos="l" depth="6" NCoef="0" IVar="-1" Cut="0.0000000000000000e+00" cType="1" res="1.7159076407551765e-02" rms="3.6965492367744446e-01" purity="8.3463793992996216e-01" nType="-99"/>
                  <Node pos="r" depth="6" NCoef="0" IVar="-1" Cut="0.0000000000000000e+00" cType="1" res="9.2206811532378197e-03" rms="4.3467214703559875e-01" purity="7.4419003725051880e-01" nType="-99"/>
                </Node>
                <Node pos="r" depth="5" NCoef="0" IVar="4" Cut="7.0142276585102081e-02" cType="1" res="1.8402467668056488e-01" rms="3.6943849921226501e-01" purity="8.3514511585235596e-01" nType="0">
                  <Node pos="l" depth="6" NCoef="0" IVar="4" Cut="-7.9030102491378784e-01" cType="1" res="1.8575692176818848e-01" rms="3.6792373657226562e-01" purity="8.3675348758697510e-01" nType="0">
                    <Node pos="l" depth="7" NCoef="0" IVar="-1" Cut="0.0000000000000000e+00" cType="1" res="1.3807774521410465e-02" rms="3.8698974251747131e-01" purity="8.1418317556381226e-01" nType="-99"/>
                    <Node pos="r" depth="7" NCoef="0" IVar="-1" Cut="0.0000000000000000e+00" cType="1" res="1.5956331044435501e-02" rms="3.6301898956298828e-01" purity="8.4228056669235229e-01" nType="-99"/>
                  </Node>
                  <Node pos="r" depth="6" NCoef="0" IVar="-1" Cut="0.0000000000000000e+00" cType="1" res="1.4939671382308006e-02" rms="3.7924093008041382e-01" purity="8.2435369491577148e-01" nType="-99"/>
                </Node>
              </Node>
              <Node pos="r" depth="4" NCoef="0" IVar="4" Cut="-2.9776987433433533e-01" cType="1" res="1.4821887016296387e-01" rms="4.1409090161323547e-01" purity="7.7671414613723755e-01" nType="0">
                <Node pos="l" depth="5" NCoef="0" IVar="5" Cut="-2.4211149215698242e+00" cType="1" res="1.3639193773269653e-01" rms="4.2443364858627319e-01" purity="7.6046818494796753e-01" nType="0">
                  <Node pos="l" depth="6" NCoef="0" IVar="5" Cut="-2.5875294208526611e+00" cType="1" res="1.5293899178504944e-01" rms="4.1008418798446655e-01" purity="7.8325361013412476e-01" nType="0">
                    <Node pos="l" depth="7" NCoef="0" IVar="-1" Cut="0.0000000000000000e+00" cType="1" res="1.2559105642139912e-02" rms="4.0234941244125366e-01" purity="7.9432052373886108e-01" nType="-99"/>
                    <Node pos="r" depth="7" NCoef="0" IVar="-1" Cut="0.0000000000000000e+00" cType="1" res="1.1310107074677944e-02" rms="4.1859075427055359e-01" purity="7.7047324180603027e-01" nType="-99"/>
                  </Node>
                  <Node pos="r" depth="6" NCoef="0" IVar="5" Cut="-2.0618140697479248e+00" cType="1" res="1.2149337679147720e-01" rms="4.3641412258148193e-01" purity="7.3995262384414673e-01" nType="0">
                    <Node pos="l" depth="7" NCoef="0" IVar="-1" Cut="0.0000000000000000e+00" cType="1" res="1.0231670923531055e-02" rms="4.3099972605705261e-01" purity="7.4991714954376221e-01" nType="-99"/>
                    <Node pos="r" depth="7" NCoef="0" IVar="-1" Cut="0.0000000000000000e+00" cType="1" res="8.9121917262673378e-03" rms="4.4808730483055115e-01" purity="7.1763134002685547e-01" nType="-99"/>
                  </Node>
                </Node>
                <Node pos="r" depth="5" NCoef="0" IVar="5" Cut="-2.2745761871337891e+00" cType="1" res="1.6554668545722961e-01" rms="3.9781862497329712e-01" purity="8.0051636695861816e-01" nType="0">
                  <Node pos="l" depth="6" NCoef="0" IVar="1" Cut="1.4315390028059483e-02" cType="1" res="1.7874091863632202e-01" rms="3.8493236899375916e-01" purity="8.1746852397918701e-01" nType="0">
                    <Node pos="l" depth="7" NCoef="0" IVar="-1" Cut="0.0000000000000000e+00" cType="1" res="1.6413332894444466e-02" rms="3.6687266826629639e-01" purity="8.3893907070159912e-01" nType="-99"/>
                    <Node pos="r" depth="7" NCoef="0" IVar="-1" Cut="0.0000000000000000e+00" cType="1" res="1.4121308922767639e-02" rms="3.9966532588005066e-01" purity="7.9856097698211670e-01" nType="-99"/>
                  </Node>
                  <Node pos="r" depth="6" NCoef="0" IVar="-1" Cut="0.0000000000000000e+00" cType="1" res="1.2685966677963734e-02" rms="4.1416266560554504e-01" purity="7.7726048231124878e-01" nType="-99"/>
                </Node>
              </Node>
            </Node>
          </Node>
          <Node pos="r" depth="2" NCoef="0" IVar="5" Cut="6.1220884323120117e-02" cType="1" res="4.3230324983596802e-02" rms="4.8201030492782593e-01" purity="5.8449137210845947e-01" nType="0">
            <Node pos="l" depth="3" NCoef="0" IVar="3" Cut="7.4655658006668091e-01" cType="1" res="5.9302009642124176e-02" rms="4.8075258731842041e-01" purity="6.0925102233886719e-01" nType="0">
              <Node pos="l" depth="4" NCoef="0" IVar="5" Cut="-1.1624151468276978e+00" cType="1" res="-1.1502724140882492e-02" rms="4.9367281794548035e-01" purity="4.9203822016716003e-01" nType="0">
                <Node pos="l" depth="5" NCoef="0" IVar="-1" Cut="0.0000000000000000e+00" cType="1" res="1.2194078881293535e-03" rms="4.9385240674018860e-01" purity="5.3811746835708618e-01" nType="-99"/>
                <Node pos="r" depth="5" NCoef="0" IVar="-1" Cut="0.0000000000000000e+00" cType="1" res="-3.7508083041757345e-03" rms="4.9169287085533142e-01" purity="4.3727704882621765e-01" nType="-99"/>
              </Node>
              <Node pos="r" depth="4" NCoef="0" IVar="1" Cut="4.6537485718727112e-01" cType="1" res="7.2640150785446167e-02" rms="4.7710490226745605e-01" purity="6.3133144378662109e-01" nType="0">
                <Node pos="l" depth="5" NCoef="0" IVar="5" Cut="-7.9526162147521973e-01" cType="1" res="9.2193409800529480e-02" rms="4.7126087546348572e-01" purity="6.5333598852157593e-01" nType="0">
                  <Node pos="l" depth="6" NCoef="0" IVar="2" Cut="1.4693270874023438e+02" cType="1" res="1.0381387174129486e-01" rms="4.6364542841911316e-01" purity="6.8061751127243042e-01" nType="0">
                    <Node pos="l" depth="7" NCoef="0" IVar="-1" Cut="0.0000000000000000e+00" cType="1" res="8.9723132550716400e-03" rms="4.5969748497009277e-01" purity="6.9143921136856079e-01" nType="-99"/>
                    <Node pos="r" depth="7" NCoef="0" IVar="-1" Cut="0.0000000000000000e+00" cType="1" res="5.5487644858658314e-03" rms="4.8249813914299011e-01" purity="6.2195074558258057e-01" nType="-99"/>
                  </Node>
                  <Node pos="r" depth="6" NCoef="0" IVar="7" Cut="2.0000000000000000e+00" cType="1" res="5.5426549166440964e-02" rms="4.9220672249794006e-01" purity="5.6374824047088623e-01" nType="0">
                    <Node pos="l" depth="7" NCoef="0" IVar="-1" Cut="0.0000000000000000e+00" cType="1" res="5.6695449165999889e-03" rms="4.8990657925605774e-01" purity="5.9581947326660156e-01" nType="-99"/>
                    <Node pos="r" depth="7" NCoef="0" IVar="-1" Cut="0.0000000000000000e+00" cType="1" res="3.7669248413294554e-03" rms="4.9630674719810486e-01" purity="5.3650468587875366e-01" nType="-99"/>
                  </Node>
                </Node>
                <Node pos="r" depth="5" NCoef="0" IVar="-1" Cut="0.0000000000000000e+00" cType="1" res="-2.5611419696360826e-03" rms="4.9416130781173706e-01" purity="5.1552504301071167e-01" nType="-99"/>
              </Node>
            </Node>
            <Node pos="r" depth="3" NCoef="0" IVar="-1" Cut="0.0000000000000000e+00" cType="1" res="-1.2060095556080341e-02" rms="4.6183377504348755e-01" purity="3.2139274477958679e-01" nType="-99"/>
          </Node>
        </Node>
      </Node>
    </BinaryTree>
    <BinaryTree type="DecisionTree" boostWeight="1.0000000000000000e+00" itree="17">
      <Node pos="s" depth="0" NCoef="0" IVar="3" Cut="6.7501425743103027e-01" cType="1" res="1.4784557744860649e-02" rms="4.2925921082496643e-01" purity="4.9879121780395508e-01" nType="0">
        <Node pos="l" depth="1" NCoef="0" IVar="3" Cut="5.6621861457824707e-01" cType="1" res="-1.1670780926942825e-01" rms="3.7000197172164917e-01" purity="1.9801713526248932e-01" nType="0">
          <Node pos="l" depth="2" NCoef="0" IVar="1" Cut="1.4958879351615906e-01" cType="1" res="-1.4048609137535095e-01" rms="3.2812458276748657e-01" purity="1.3819617033004761e-01" nType="0">
            <Node pos="l" depth="3" NCoef="0" IVar="5" Cut="-1.3629549741744995e+00" cType="1" res="-1.1266766488552094e-01" rms="3.7139981985092163e-01" purity="1.8739782273769379e-01" nType="0">
              <Node pos="l" depth="4" NCoef="0" IVar="3" Cut="4.3905615806579590e-01" cType="1" res="-8.5614673793315887e-02" rms="4.0915307402610779e-01" purity="2.3926362395286560e-01" nType="0">
                <Node pos="l" depth="5" NCoef="0" IVar="6" Cut="1.1125268787145615e-01" cType="1" res="-1.1451520770788193e-01" rms="3.6217948794364929e-01" purity="1.6688953340053558e-01" nType="0">
                  <Node pos="l" depth="6" NCoef="0" IVar="-1" Cut="0.0000000000000000e+00" cType="1" res="-2.2311089560389519e-02" rms="2.8982606530189514e-01" purity="9.4566732645034790e-02" nType="-99"/>
                  <Node pos="r" depth="6" NCoef="0" IVar="7" Cut="6.0000000000000000e+00" cType="1" res="-9.4990104436874390e-02" rms="3.9917102456092834e-01" purity="2.1171520650386810e-01" nType="0">
                    <Node pos="l" depth="7" NCoef="0" IVar="-1" Cut="0.0000000000000000e+00" cType="1" res="-9.3274153769016266e-03" rms="4.1993793845176697e-01" purity="2.4257536232471466e-01" nType="-99"/>
                    <Node pos="r" depth="7" NCoef="0" IVar="-1" Cut="0.0000000000000000e+00" cType="1" res="-1.4855600893497467e-02" rms="3.7370327115058899e-01" purity="1.7686280608177185e-01" nType="-99"/>
                  </Node>
                </Node>
                <Node pos="r" depth="5" NCoef="0" IVar="0" Cut="7.0797592401504517e-01" cType="1" res="-4.6613808721303940e-02" rms="4.6222606301307678e-01" purity="3.3693149685859680e-01" nType="0">
                  <Node pos="l" depth="6" NCoef="0" IVar="0" Cut="3.6524212360382080e-01" cType="1" res="-1.4132427051663399e-02" rms="4.8350980877876282e-01" purity="3.9830359816551208e-01" nType="0">
                    <Node pos="l" depth="7" NCoef="0" IVar="-1" Cut="0.0000000000000000e+00" cType="1" res="1.0965249966830015e-03" rms="4.9424967169761658e-01" purity="4.4888296723365784e-01" nType="-99"/>
                    <Node pos="r" depth="7" NCoef="0" IVar="-1" Cut="0.0000000000000000e+00" cType="1" res="-4.2851674370467663e-03" rms="4.6913719177246094e-01" purity="3.4060204029083252e-01" nType="-99"/>
                  </Node>
                  <Node pos="r" depth="6" NCoef="0" IVar="-1" Cut="0.0000000000000000e+00" cType="1" res="-1.1910558678209782e-02" rms="4.1380476951599121e-01" purity="2.2432935237884521e-01" nType="-99"/>
                </Node>
              </Node>
              <Node pos="r" depth="4" NCoef="0" IVar="6" Cut="2.0542234182357788e-01" cType="1" res="-1.5247343480587006e-01" rms="3.0317759513854980e-01" purity="1.1108246445655823e-01" nType="0">
                <Node pos="l" depth="5" NCoef="0" IVar="5" Cut="1.7164163589477539e+00" cType="1" res="-1.6087812185287476e-01" rms="2.8718134760856628e-01" purity="9.9821023643016815e-02" nType="0">
                  <Node pos="l" depth="6" NCoef="0" IVar="3" Cut="4.2179769277572632e-01" cType="1" res="-1.4831461012363434e-01" rms="3.2133698463439941e-01" purity="1.2677596509456635e-01" nType="0">
                    <Node pos="l" depth="7" NCoef="0" IVar="-1" Cut="0.0000000000000000e+00" cType="1" res="-2.7205185964703560e-02" rms="2.4499246478080750e-01" purity="6.6135220229625702e-02" nType="-99"/>
                    <Node pos="r" depth="7" NCoef="0" IVar="-1" Cut="0.0000000000000000e+00" cType="1" res="-1.4419217593967915e-02" rms="3.8599616289138794e-01" purity="1.9259847700595856e-01" nType="-99"/>
                  </Node>
                  <Node pos="r" depth="6" NCoef="0" IVar="-1" Cut="0.0000000000000000e+00" cType="1" res="-3.2875418663024902e-02" rms="1.3155813515186310e-01" purity="1.7825508490204811e-02" nType="-99"/>
                </Node>
                <Node pos="r" depth="5" NCoef="0" IVar="-1" Cut="0.0000000000000000e+00" cType="1" res="-1.6332611441612244e-02" rms="3.5639575123786926e-01" purity="1.5451897680759430e-01" nType="-99"/>
              </Node>
            </Node>
            <Node pos="r" depth="3" NCoef="0" IVar="5" Cut="-1.2442203760147095e+00" cType="1" res="-1.6042160987854004e-01" rms="2.9158160090446472e-01" purity="1.0293676704168320e-01" nType="0">
              <Node pos="l" depth="4" NCoef="0" IVar="3" Cut="4.5692080259323120e-01" cType="1" res="-1.5001547336578369e-01" rms="3.2336151599884033e-01" purity="1.2939114868640900e-01" nType="0">
                <Node pos="l" depth="5" NCoef="0" IVar="6" Cut="2.0249101519584656e-01" cType="1" res="-1.5983286499977112e-01" rms="2.8453695774078369e-01" purity="9.3409530818462372e-02" nType="0">
                  <Node pos="l" depth="6" NCoef="0" IVar="5" Cut="-3.0997192859649658e+00" cType="1" res="-1.6528753936290741e-01" rms="2.6630109548568726e-01" purity="7.9561911523342133e-02" nType="0">
                    <Node pos="l" depth="7" NCoef="0" IVar="-1" Cut="0.0000000000000000e+00" cType="1" res="-3.0155746266245842e-02" rms="2.1253430843353271e-01" purity="4.8083100467920303e-02" nType="-99"/>
                    <Node pos="r" depth="7" NCoef="0" IVar="-1" Cut="0.0000000000000000e+00" cType="1" res="-2.4178620427846909e-02" rms="2.8226983547210693e-01" purity="9.0508513152599335e-02" nType="-99"/>
                  </Node>
                  <Node pos="r" depth="6" NCoef="0" IVar="-1" Cut="0.0000000000000000e+00" cType="1" res="-1.5305155888199806e-02" rms="3.8719499111175537e-01" purity="1.9078990817070007e-01" nType="-99"/>
                </Node>
                <Node pos="r" depth="5" NCoef="0" IVar="0" Cut="6.4827072620391846e-01" cType="1" res="-1.2086095660924911e-01" rms="4.1655132174491882e-01" purity="2.3624499142169952e-01" nType="0">
                  <Node pos="l" depth="6" NCoef="0" IVar="-1" Cut="0.0000000000000000e+00" cType="1" res="-9.0319951996207237e-03" rms="4.5645222067832947e-01" purity="3.0613830685615540e-01" nType="-99"/>
                  <Node pos="r" depth="6" NCoef="0" IVar="-1" Cut="0.0000000000000000e+00" cType="1" res="-1.7695382237434387e-02" rms="3.7125003337860107e-01" purity="1.6774924099445343e-01" nType="-99"/>
                </Node>
              </Node>
              <Node pos="r" depth="4" NCoef="0" IVar="5" Cut="-8.0243939161300659e-01" cType="1" res="-1.7697513103485107e-01" rms="2.3127014935016632e-01" purity="6.0854598879814148e-02" nType="0">
                <Node pos="l" depth="5" NCoef="0" IVar="-1" Cut="0.0000000000000000e+00" cType="1" res="-2.1307021379470825e-02" rms="3.1080147624015808e-01" purity="1.1620754003524780e-01" nType="-99"/>
                <Node pos="r" depth="5" NCoef="0" IVar="4" Cut="1.3630331754684448e+00" cType="1" res="-1.8240322172641754e-01" rms="2.1025647222995758e-01" purity="4.9158908426761627e-02" nType="0">
                  <Node pos="l" depth="6" NCoef="0" IVar="-1" Cut="0.0000000000000000e+00" cType="1" res="-2.4549134075641632e-02" rms="2.8410774469375610e-01" purity="9.2920534312725067e-02" nType="-99"/>
                  <Node pos="r" depth="6" NCoef="0" IVar="3" Cut="3.6978614330291748e-01" cType="1" res="-1.8846029043197632e-01" rms="1.6937518119812012e-01" purity="3.0704492703080177e-02" nType="0">
                    <Node pos="l" depth="7" NCoef="0" IVar="-1" Cut="0.0000000000000000e+00" cType="1" res="-3.2166067510843277e-02" rms="1.6099467873573303e-01" purity="2.7871392667293549e-02" nType="-99"/>
                    <Node pos="r" depth="7" NCoef="0" IVar="-1" Cut="0.0000000000000000e+00" cType="1" res="-2.9982117936015129e-02" rms="1.8533612787723541e-01" purity="3.6693602800369263e-02" nType="-99"/>
                  </Node>
                </Node>
              </Node>
            </Node>
          </Node>
          <Node pos="r" depth="2" NCoef="0" IVar="5" Cut="-1.2930841445922852e+00" cType="1" res="-3.5967756062746048e-02" rms="4.7721451520919800e-01" purity="4.0114158391952515e-01" nType="0">
            <Node pos="l" depth="3" NCoef="0" IVar="1" Cut="5.8866101503372192e-01" cType="1" res="-1.5833273530006409e-02" rms="4.8773592710494995e-01" purity="4.3972402811050415e-01" nType="0">
              <Node pos="l" depth="4" NCoef="0" IVar="1" Cut="3.9982248097658157e-02" cType="1" res="1.7040856182575226e-03" rms="4.9241876602172852e-01" purity="4.6485126018524170e-01" nType="0">
                <Node pos="l" depth="5" NCoef="0" IVar="2" Cut="2.1675698852539062e+02" cType="1" res="3.1121093779802322e-02" rms="4.9465203285217285e-01" purity="5.0170540809631348e-01" nType="0">
                  <Node pos="l" depth="6" NCoef="0" IVar="6" Cut="6.2822118401527405e-02" cType="1" res="5.2586499601602554e-02" rms="4.9345383048057556e-01" purity="5.2438485622406006e-01" nType="0">
                    <Node pos="l" depth="7" NCoef="0" IVar="-1" Cut="0.0000000000000000e+00" cType="1" res="2.0524282008409500e-03" rms="4.9300128221511841e-01" purity="4.8355174064636230e-01" nType="-99"/>
                    <Node pos="r" depth="7" NCoef="0" IVar="-1" Cut="0.0000000000000000e+00" cType="1" res="6.4038303680717945e-03" rms="4.9226105213165283e-01" purity="5.6440466642379761e-01" nType="-99"/>
                  </Node>
                  <Node pos="r" depth="6" NCoef="0" IVar="-1" Cut="0.0000000000000000e+00" cType="1" res="-1.1082880664616823e-03" rms="4.9422681331634521e-01" purity="4.5586779713630676e-01" nType="-99"/>
                </Node>
                <Node pos="r" depth="5" NCoef="0" IVar="3" Cut="6.1183035373687744e-01" cType="1" res="-3.2083585858345032e-02" rms="4.8765644431114197e-01" purity="4.2252147197723389e-01" nType="0">
                  <Node pos="l" depth="6" NCoef="0" IVar="-1" Cut="0.0000000000000000e+00" cType="1" res="-7.2198486886918545e-03" rms="4.7524812817573547e-01" purity="3.5936272144317627e-01" nType="-99"/>
                  <Node pos="r" depth="6" NCoef="0" IVar="-1" Cut="0.0000000000000000e+00" cType="1" res="-2.3130199406296015e-04" rms="4.9352887272834778e-01" purity="4.6449652314186096e-01" nType="-99"/>
                </Node>
              </Node>
              <Node pos="r" depth="4" NCoef="0" IVar="-1" Cut="0.0000000000000000e+00" cType="1" res="-1.1019803583621979e-02" rms="4.4869649410247803e-01" purity="3.0056044459342957e-01" nType="-99"/>
            </Node>
            <Node pos="r" depth="3" NCoef="0" IVar="3" Cut="6.1535280942916870e-01" cType="1" res="-9.3705803155899048e-02" rms="4.4059458374977112e-01" purity="2.9050177335739136e-01" nType="0">
              <Node pos="l" depth="4" NCoef="0" IVar="-1" Cut="0.0000000000000000e+00" cType="1" res="-1.4001921750605106e-02" rms="4.1375213861465454e-01" purity="2.3773178458213806e-01" nType="-99"/>
              <Node pos="r" depth="4" NCoef="0" IVar="-1" Cut="0.0000000000000000e+00" cType="1" res="-6.0295015573501587e-03" rms="4.5955225825309753e-01" purity="3.3486822247505188e-01" nType="-99"/>
            </Node>
          </Node>
        </Node>
        <Node pos="r" depth="1" NCoef="0" IVar="5" Cut="-1.7516005039215088e+00" cType="1" res="1.0433200746774673e-01" rms="4.4353562593460083e-01" purity="7.0362102985382080e-01" nType="0">
          <Node pos="l" depth="2" NCoef="0" IVar="3" Cut="8.2200336456298828e-01" cType="1" res="1.2681493163108826e-01" rms="4.2801517248153687e-01" purity="7.4482536315917969e-01" nType="0">
            <Node pos="l" depth="3" NCoef="0" IVar="1" Cut="5.1668083667755127e-01" cType="1" res="6.4445018768310547e-02" rms="4.7955730557441711e-01" purity="6.1974936723709106e-01" nType="0">
              <Node pos="l" depth="4" NCoef="0" IVar="0" Cut="1.8760618567466736e-01" cType="1" res="7.6943390071392059e-02" rms="4.7552514076232910e-01" purity="6.4004731178283691e-01" nType="0">
                <Node pos="l" depth="5" NCoef="0" IVar="3" Cut="7.2718763351440430e-01" cType="1" res="1.0066220164299011e-01" rms="4.6271842718124390e-01" purity="6.8590492010116577e-01" nType="0">
                  <Node pos="l" depth="6" NCoef="0" IVar="-1" Cut="0.0000000000000000e+00" cType="1" res="5.3817457519471645e-03" rms="4.8375806212425232e-01" purity="6.2588912248611450e-01" nType="-99"/>
                  <Node pos="r" depth="6" NCoef="0" IVar="7" Cut="3.0000000000000000e+00" cType="1" res="1.1102696508169174e-01" rms="4.5195972919464111e-01" purity="7.0581322908401489e-01" nType="0">
                    <Node pos="l" depth="7" NCoef="0" IVar="-1" Cut="0.0000000000000000e+00" cType="1" res="6.6388091072440147e-03" rms="4.6509262919425964e-01" purity="6.8242877721786499e-01" nType="-99"/>
                    <Node pos="r" depth="7" NCoef="0" IVar="-1" Cut="0.0000000000000000e+00" cType="1" res="1.1731066741049290e-02" rms="4.4362887740135193e-01" purity="7.2893965244293213e-01" nType="-99"/>
                  </Node>
                </Node>
                <Node pos="r" depth="5" NCoef="0" IVar="3" Cut="7.1296989917755127e-01" cType="1" res="4.1018564254045486e-02" rms="4.9211871623992920e-01" purity="5.7059085369110107e-01" nType="0">
                  <Node pos="l" depth="6" NCoef="0" IVar="-1" Cut="0.0000000000000000e+00" cType="1" res="-3.6448531318455935e-04" rms="4.9891436100006104e-01" purity="5.0356203317642212e-01" nType="-99"/>
                  <Node pos="r" depth="6" NCoef="0" IVar="3" Cut="7.6571536064147949e-01" cType="1" res="5.9998504817485809e-02" rms="4.8799377679824829e-01" purity="5.9869110584259033e-01" nType="0">
                    <Node pos="l" depth="7" NCoef="0" IVar="-1" Cut="0.0000000000000000e+00" cType="1" res="4.1457978077232838e-03" rms="4.9290847778320312e-01" purity="5.7569992542266846e-01" nType="-99"/>
                    <Node pos="r" depth="7" NCoef="0" IVar="-1" Cut="0.0000000000000000e+00" cType="1" res="6.3523845747113228e-03" rms="4.8194116353988647e-01" purity="6.2525033950805664e-01" nType="-99"/>
                  </Node>
                </Node>
              </Node>
              <Node pos="r" depth="4" NCoef="0" IVar="-1" Cut="0.0000000000000000e+00" cType="1" res="-3.8357242010533810e-04" rms="4.9561366438865662e-01" purity="5.0747835636138916e-01" nType="-99"/>
            </Node>
            <Node pos="r" depth="3" NCoef="0" IVar="2" Cut="1.7305223083496094e+02" cType="1" res="1.4531075954437256e-01" rms="4.0966963768005371e-01" purity="7.8191667795181274e-01" nType="0">
              <Node pos="l" depth="4" NCoef="0" IVar="4" Cut="-1.0192509889602661e+00" cType="1" res="1.4965185523033142e-01" rms="4.0632438659667969e-01" purity="7.8730440139770508e-01" nType="0">
                <Node pos="l" depth="5" NCoef="0" IVar="5" Cut="-2.4927413463592529e+00" cType="1" res="1.3116116821765900e-01" rms="4.2966875433921814e-01" purity="7.5234389305114746e-01" nType="0">
                  <Node pos="l" depth="6" NCoef="0" IVar="4" Cut="-2.3751180171966553e+00" cType="1" res="1.3973401486873627e-01" rms="4.2187196016311646e-01" purity="7.6528823375701904e-01" nType="0">
                    <Node pos="l" depth="7" NCoef="0" IVar="-1" Cut="0.0000000000000000e+00" cType="1" res="1.3432382605969906e-02" rms="4.0550345182418823e-01" purity="7.9028326272964478e-01" nType="-99"/>
                    <Node pos="r" depth="7" NCoef="0" IVar="-1" Cut="0.0000000000000000e+00" cType="1" res="9.7867064177989960e-03" rms="4.3136411905288696e-01" purity="7.4980485439300537e-01" nType="-99"/>
                  </Node>
                  <Node pos="r" depth="6" NCoef="0" IVar="6" Cut="3.1335640698671341e-02" cType="1" res="1.1453726142644882e-01" rms="4.4392663240432739e-01" purity="7.2724318504333496e-01" nType="0">
                    <Node pos="l" depth="7" NCoef="0" IVar="-1" Cut="0.0000000000000000e+00" cType="1" res="8.2052079960703850e-03" rms="4.4893670082092285e-01" purity="7.1703934669494629e-01" nType="-99"/>
                    <Node pos="r" depth="7" NCoef="0" IVar="-1" Cut="0.0000000000000000e+00" cType="1" res="1.1252414435148239e-02" rms="4.3156069517135620e-01" purity="7.4974030256271362e-01" nType="-99"/>
                  </Node>
                </Node>
                <Node pos="r" depth="5" NCoef="0" IVar="5" Cut="-2.6628980636596680e+00" cType="1" res="1.6159534454345703e-01" rms="3.9003902673721313e-01" purity="8.0988597869873047e-01" nType="0">
                  <Node pos="l" depth="6" NCoef="0" IVar="1" Cut="5.6043833494186401e-01" cType="1" res="1.7561562359333038e-01" rms="3.7124383449554443e-01" purity="8.3333069086074829e-01" nType="0">
                    <Node pos="l" depth="7" NCoef="0" IVar="-1" Cut="0.0000000000000000e+00" cType="1" res="1.5568664297461510e-02" rms="3.6312451958656311e-01" purity="8.4273183345794678e-01" nType="-99"/>
                    <Node pos="r" depth="7" NCoef="0" IVar="-1" Cut="0.0000000000000000e+00" cType="1" res="9.7521869465708733e-03" rms="4.2607837915420532e-01" purity="7.5822395086288452e-01" nType="-99"/>
                  </Node>
                  <Node pos="r" depth="6" NCoef="0" IVar="3" Cut="9.8092710971832275e-01" cType="1" res="1.4167082309722900e-01" rms="4.1447332501411438e-01" purity="7.7656823396682739e-01" nType="0">
                    <Node pos="l" depth="7" NCoef="0" IVar="-1" Cut="0.0000000000000000e+00" cType="1" res="8.6650922894477844e-03" rms="4.4307494163513184e-01" purity="7.2662079334259033e-01" nType="-99"/>
                    <Node pos="r" depth="7" NCoef="0" IVar="-1" Cut="0.0000000000000000e+00" cType="1" res="1.2844885699450970e-02" rms="4.0596333146095276e-01" purity="7.8983545303344727e-01" nType="-99"/>
                  </Node>
                </Node>
              </Node>
              <Node pos="r" depth="4" NCoef="0" IVar="-1" Cut="0.0000000000000000e+00" cType="1" res="3.5196859389543533e-03" rms="4.7254124283790588e-01" purity="6.4882576465606689e-01" nType="-99"/>
            </Node>
          </Node>
          <Node pos="r" depth="2" NCoef="0" IVar="4" Cut="1.3059117794036865e+00" cType="1" res="3.0300486832857132e-02" rms="4.8385924100875854e-01" purity="5.6794375181198120e-01" nType="0">
            <Node pos="l" depth="3" NCoef="0" IVar="3" Cut="8.2422333955764771e-01" cType="1" res="4.7305978834629059e-02" rms="4.8333904147148132e-01" purity="5.9210592508316040e-01" nType="0">
              <Node pos="l" depth="4" NCoef="0" IVar="3" Cut="7.2795265913009644e-01" cType="1" res="4.7609466128051281e-03" rms="4.9282503128051758e-01" purity="5.1619893312454224e-01" nType="0">
                <Node pos="l" depth="5" NCoef="0" IVar="-1" Cut="0.0000000000000000e+00" cType="1" res="-3.5999964457005262e-03" rms="4.9112474918365479e-01" purity="4.5555797219276428e-01" nType="-99"/>
                <Node pos="r" depth="5" NCoef="0" IVar="3" Cut="7.9005604982376099e-01" cType="1" res="2.5801099836826324e-02" rms="4.9220192432403564e-01" purity="5.4444533586502075e-01" nType="0">
                  <Node pos="l" depth="6" NCoef="0" IVar="-1" Cut="0.0000000000000000e+00" cType="1" res="1.2250251602381468e-03" rms="4.9332892894744873e-01" purity="5.2847617864608765e-01" nType="-99"/>
                  <Node pos="r" depth="6" NCoef="0" IVar="-1" Cut="0.0000000000000000e+00" cType="1" res="3.7524148356169462e-03" rms="4.8970395326614380e-01" purity="5.7120007276535034e-01" nType="-99"/>
                </Node>
              </Node>
              <Node pos="r" depth="4" NCoef="0" IVar="5" Cut="-8.1375449895858765e-01" cType="1" res="7.1124270558357239e-02" rms="4.7628974914550781e-01" purity="6.3460147380828857e-01" nType="0">
                <Node pos="l" depth="5" NCoef="0" IVar="7" Cut="2.0000000000000000e+00" cType="1" res="8.7021917104721069e-02" rms="4.6750321984291077e-01" purity="6.6957885026931763e-01" nType="0">
                  <Node pos="l" depth="6" NCoef="0" IVar="4" Cut="-5.3429806232452393e-01" cType="1" res="1.0063806176185608e-01" rms="4.5892336964607239e-01" purity="6.9371861219406128e-01" nType="0">
                    <Node pos="l" depth="7" NCoef="0" IVar="-1" Cut="0.0000000000000000e+00" cType="1" res="5.7617640122771263e-03" rms="4.7216042876243591e-01" purity="6.6110301017761230e-01" nType="-99"/>
                    <Node pos="r" depth="7" NCoef="0" IVar="-1" Cut="0.0000000000000000e+00" cType="1" res="1.0019134730100632e-02" rms="4.4826695322990417e-01" purity="7.1707183122634888e-01" nType="-99"/>
                  </Node>
                  <Node pos="r" depth="6" NCoef="0" IVar="5" Cut="-1.3886924982070923e+00" cType="1" res="6.5316110849380493e-02" rms="4.8035478591918945e-01" purity="6.3260048627853394e-01" nType="0">
                    <Node pos="l" depth="7" NCoef="0" IVar="-1" Cut="0.0000000000000000e+00" cType="1" res="6.4921891316771507e-03" rms="4.7566288709640503e-01" purity="6.4987760782241821e-01" nType="-99"/>
                    <Node pos="r" depth="7" NCoef="0" IVar="-1" Cut="0.0000000000000000e+00" cType="1" res="4.5001944527029991e-03" rms="4.8512282967567444e-01" purity="6.1375701427459717e-01" nType="-99"/>
                  </Node>
                </Node>
                <Node pos="r" depth="5" NCoef="0" IVar="5" Cut="-4.0525183081626892e-01" cType="1" res="3.3389594405889511e-02" rms="4.9418589472770691e-01" purity="5.4979246854782104e-01" nType="0">
                  <Node pos="l" depth="6" NCoef="0" IVar="-1" Cut="0.0000000000000000e+00" cType="1" res="3.9720432832837105e-03" rms="4.9102208018302917e-01" purity="5.8598190546035767e-01" nType="-99"/>
                  <Node pos="r" depth="6" NCoef="0" IVar="-1" Cut="0.0000000000000000e+00" cType="1" res="1.4186553889885545e-03" rms="4.9748954176902771e-01" purity="5.0566387176513672e-01" nType="-99"/>
                </Node>
              </Node>
            </Node>
            <Node pos="r" depth="3" NCoef="0" IVar="-1" Cut="0.0000000000000000e+00" cType="1" res="-1.3408104889094830e-02" rms="4.5503833889961243e-01" purity="3.2510611414909363e-01" nType="-99"/>
          </Node>
        </Node>
      </Node>
    </BinaryTree>
    <BinaryTree type="DecisionTree" boostWeight="1.0000000000000000e+00" itree="18">
      <Node pos="s" depth="0" NCoef="0" IVar="3" Cut="6.7647039890289307e-01" cType="1" res="1.5604136511683464e-02" rms="4.2681381106376648e-01" purity="4.9906712770462036e-01" nType="0">
        <Node pos="l" depth="1" NCoef="0" IVar="3" Cut="5.4566681385040283e-01" cType="1" res="-1.1193467676639557e-01" rms="3.6844521760940552e-01" purity="1.9652155041694641e-01" nType="0">
          <Node pos="l" depth="2" NCoef="0" IVar="4" Cut="9.0485650300979614e-01" cType="1" res="-1.3621245324611664e-01" rms="3.1800496578216553e-01" purity="1.2739072740077972e-01" nType="0">
            <Node pos="l" depth="3" NCoef="0" IVar="3" Cut="4.7534021735191345e-01" cType="1" res="-1.2371643632650375e-01" rms="3.5009258985519409e-01" purity="1.5781058371067047e-01" nType="0">
              <Node pos="l" depth="4" NCoef="0" IVar="6" Cut="2.2114205360412598e-01" cType="1" res="-1.3415202498435974e-01" rms="3.2228407263755798e-01" purity="1.2629514932632446e-01" nType="0">
                <Node pos="l" depth="5" NCoef="0" IVar="6" Cut="1.4991563558578491e-01" cType="1" res="-1.4117240905761719e-01" rms="3.0537778139114380e-01" purity="1.1066316068172455e-01" nType="0">
                  <Node pos="l" depth="6" NCoef="0" IVar="3" Cut="3.6814436316490173e-01" cType="1" res="-1.5090675652027130e-01" rms="2.7984073758125305e-01" purity="8.9437015354633331e-02" nType="0">
                    <Node pos="l" depth="7" NCoef="0" IVar="-1" Cut="0.0000000000000000e+00" cType="1" res="-2.7327412739396095e-02" rms="2.3323868215084076e-01" purity="5.8588210493326187e-02" nType="-99"/>
                    <Node pos="r" depth="7" NCoef="0" IVar="-1" Cut="0.0000000000000000e+00" cType="1" res="-1.8897781148552895e-02" rms="3.3544456958770752e-01" purity="1.3389685750007629e-01" nType="-99"/>
                  </Node>
                  <Node pos="r" depth="6" NCoef="0" IVar="3" Cut="3.6948686838150024e-01" cType="1" res="-1.0877349972724915e-01" rms="3.7633925676345825e-01" purity="1.8131037056446075e-01" nType="0">
                    <Node pos="l" depth="7" NCoef="0" IVar="-1" Cut="0.0000000000000000e+00" cType="1" res="-1.8546300008893013e-02" rms="3.4001520276069641e-01" purity="1.3807146251201630e-01" nType="-99"/>
                    <Node pos="r" depth="7" NCoef="0" IVar="-1" Cut="0.0000000000000000e+00" cType="1" res="-7.5344280339777470e-03" rms="4.3790090084075928e-01" purity="2.6869249343872070e-01" nType="-99"/>
                  </Node>
                </Node>
                <Node pos="r" depth="5" NCoef="0" IVar="5" Cut="-2.2136611938476562e+00" cType="1" res="-8.7943241000175476e-02" rms="4.1382688283920288e-01" purity="2.2918613255023956e-01" nType="0">
                  <Node pos="l" depth="6" NCoef="0" IVar="-1" Cut="0.0000000000000000e+00" cType="1" res="-7.1639725938439369e-03" rms="4.3371209502220154e-01" purity="2.6257371902465820e-01" nType="-99"/>
                  <Node pos="r" depth="6" NCoef="0" IVar="-1" Cut="0.0000000000000000e+00" cType="1" res="-1.4119883067905903e-02" rms="3.9214521646499634e-01" purity="1.9706723093986511e-01" nType="-99"/>
                </Node>
              </Node>
              <Node pos="r" depth="4" NCoef="0" IVar="6" Cut="1.2139018625020981e-01" cType="1" res="-8.2619182765483856e-02" rms="4.4054773449897766e-01" purity="2.8192412853240967e-01" nType="0">
                <Node pos="l" depth="5" NCoef="0" IVar="2" Cut="1.3104669189453125e+02" cType="1" res="-1.0847431421279907e-01" rms="4.1972145438194275e-01" purity="2.4012927711009979e-01" nType="0">
                  <Node pos="l" depth="6" NCoef="0" IVar="-1" Cut="0.0000000000000000e+00" cType="1" res="-8.2690883427858353e-03" rms="4.3732523918151855e-01" purity="2.7392846345901489e-01" nType="-99"/>
                  <Node pos="r" depth="6" NCoef="0" IVar="-1" Cut="0.0000000000000000e+00" cType="1" res="-1.5048309229314327e-02" rms="4.0194615721702576e-01" purity="2.1067613363265991e-01" nType="-99"/>
                </Node>
                <Node pos="r" depth="5" NCoef="0" IVar="-1" Cut="0.0000000000000000e+00" cType="1" res="-1.9599993247538805e-03" rms="4.8097786307334900e-01" purity="3.8137939572334290e-01" nType="-99"/>
              </Node>
            </Node>
            <Node pos="r" depth="3" NCoef="0" IVar="6" Cut="1.1811804026365280e-01" cType="1" res="-1.6528838872909546e-01" rms="2.2368942201137543e-01" purity="5.6609291583299637e-02" nType="0">
              <Node pos="l" depth="4" NCoef="0" IVar="5" Cut="-1.4302112162113190e-01" cType="1" res="-1.7901326715946198e-01" rms="1.7143231630325317e-01" purity="3.2448180019855499e-02" nType="0">
                <Node pos="l" depth="5" NCoef="0" IVar="-1" Cut="0.0000000000000000e+00" cType="1" res="-2.5712657719850540e-02" rms="2.3836986720561981e-01" purity="6.5584808588027954e-02" nType="-99"/>
                <Node pos="r" depth="5" NCoef="0" IVar="3" Cut="3.9080622792243958e-01" cType="1" res="-1.8435418605804443e-01" rms="1.3105402886867523e-01" purity="1.7806345596909523e-02" nType="0">
                  <Node pos="l" depth="6" NCoef="0" IVar="5" Cut="2.2210245132446289e+00" cType="1" res="-1.7991967499256134e-01" rms="9.5343731343746185e-02" purity="9.1783087700605392e-03" nType="0">
                    <Node pos="l" depth="7" NCoef="0" IVar="-1" Cut="0.0000000000000000e+00" cType="1" res="-3.4003078937530518e-02" rms="1.0292445868253708e-01" purity="1.0736675933003426e-02" nType="-99"/>
                    <Node pos="r" depth="7" NCoef="0" IVar="-1" Cut="0.0000000000000000e+00" cType="1" res="-3.4380991011857986e-02" rms="8.6279824376106262e-02" purity="7.4852211400866508e-03" nType="-99"/>
                  </Node>
                  <Node pos="r" depth="6" NCoef="0" IVar="-1" Cut="0.0000000000000000e+00" cType="1" res="-2.9330028221011162e-02" rms="1.8024922907352448e-01" purity="3.4266553819179535e-02" nType="-99"/>
                </Node>
              </Node>
              <Node pos="r" depth="4" NCoef="0" IVar="4" Cut="1.9332714080810547e+00" cType="1" res="-1.5075425803661346e-01" rms="2.6737913489341736e-01" purity="8.2194998860359192e-02" nType="0">
                <Node pos="l" depth="5" NCoef="0" IVar="-1" Cut="0.0000000000000000e+00" cType="1" res="-1.8340671434998512e-02" rms="3.2530325651168823e-01" purity="1.2746332585811615e-01" nType="-99"/>
                <Node pos="r" depth="5" NCoef="0" IVar="3" Cut="2.5113248825073242e-01" cType="1" res="-1.6096404194831848e-01" rms="2.3441644012928009e-01" purity="6.0813110321760178e-02" nType="0">
                  <Node pos="l" depth="6" NCoef="0" IVar="-1" Cut="0.0000000000000000e+00" cType="1" res="-2.2127067670226097e-02" rms="2.8429654240608215e-01" purity="9.3369171023368835e-02" nType="-99"/>
                  <Node pos="r" depth="6" NCoef="0" IVar="-1" Cut="0.0000000000000000e+00" cType="1" res="-2.8656547889113426e-02" rms="1.9719246029853821e-01" purity="4.1410814970731735e-02" nType="-99"/>
                </Node>
              </Node>
            </Node>
          </Node>
          <Node pos="r" depth="2" NCoef="0" IVar="5" Cut="-1.1635315418243408e+00" cType="1" res="-4.6214088797569275e-02" rms="4.7282889485359192e-01" purity="3.8366052508354187e-01" nType="0">
            <Node pos="l" depth="3" NCoef="0" IVar="5" Cut="-3.0242643356323242e+00" cType="1" res="-2.6292070746421814e-02" rms="4.8500531911849976e-01" purity="4.2187750339508057e-01" nType="0">
              <Node pos="l" depth="4" NCoef="0" IVar="-1" Cut="0.0000000000000000e+00" cType="1" res="-9.7037050873041153e-03" rms="4.5763900876045227e-01" purity="3.1945380568504333e-01" nType="-99"/>
              <Node pos="r" depth="4" NCoef="0" IVar="2" Cut="1.7347676086425781e+02" cType="1" res="-1.4852169901132584e-02" rms="4.8823180794715881e-01" purity="4.3813779950141907e-01" nType="0">
                <Node pos="l" depth="5" NCoef="0" IVar="1" Cut="-7.5535558164119720e-02" cType="1" res="9.9499495700001717e-03" rms="4.9029484391212463e-01" purity="4.6538868546485901e-01" nType="0">
                  <Node pos="l" depth="6" NCoef="0" IVar="-1" Cut="0.0000000000000000e+00" cType="1" res="6.5589393489062786e-03" rms="4.9219104647636414e-01" purity="5.5891048908233643e-01" nType="-99"/>
                  <Node pos="r" depth="6" NCoef="0" IVar="6" Cut="5.9758570045232773e-02" cType="1" res="-1.8320893868803978e-02" rms="4.8660710453987122e-01" purity="4.2964816093444824e-01" nType="0">
                    <Node pos="l" depth="7" NCoef="0" IVar="-1" Cut="0.0000000000000000e+00" cType="1" res="-5.1470105536282063e-03" rms="4.7675150632858276e-01" purity="3.7976151704788208e-01" nType="-99"/>
                    <Node pos="r" depth="7" NCoef="0" IVar="-1" Cut="0.0000000000000000e+00" cType="1" res="1.4504423597827554e-03" rms="4.9328181147575378e-01" purity="4.7742059826850891e-01" nType="-99"/>
                  </Node>
                </Node>
                <Node pos="r" depth="5" NCoef="0" IVar="6" Cut="8.3567179739475250e-02" cType="1" res="-4.2543448507785797e-02" rms="4.8442003130912781e-01" purity="4.0771257877349854e-01" nType="0">
                  <Node pos="l" depth="6" NCoef="0" IVar="-1" Cut="0.0000000000000000e+00" cType="1" res="-7.8646531328558922e-03" rms="4.6897789835929871e-01" purity="3.5055115818977356e-01" nType="-99"/>
                  <Node pos="r" depth="6" NCoef="0" IVar="3" Cut="6.0895931720733643e-01" cType="1" res="-2.5497373193502426e-02" rms="4.9016103148460388e-01" purity="4.3310385942459106e-01" nType="0">
                    <Node pos="l" depth="7" NCoef="0" IVar="-1" Cut="0.0000000000000000e+00" cType="1" res="-4.5280731283128262e-03" rms="4.8395693302154541e-01" purity="3.9252966642379761e-01" nType="-99"/>
                    <Node pos="r" depth="7" NCoef="0" IVar="-1" Cut="0.0000000000000000e+00" cType="1" res="-2.0709796808660030e-04" rms="4.9548822641372681e-01" purity="4.7544291615486145e-01" nType="-99"/>
                  </Node>
                </Node>
              </Node>
            </Node>
            <Node pos="r" depth="3" NCoef="0" IVar="3" Cut="6.1739939451217651e-01" cType="1" res="-1.1177527904510498e-01" rms="4.2377015948295593e-01" purity="2.5789263844490051e-01" nType="0">
              <Node pos="l" depth="4" NCoef="0" IVar="-1" Cut="0.0000000000000000e+00" cType="1" res="-1.6670744866132736e-02" rms="3.8914695382118225e-01" purity="1.9950859248638153e-01" nType="-99"/>
              <Node pos="r" depth="4" NCoef="0" IVar="-1" Cut="0.0000000000000000e+00" cType="1" res="-5.8994945138692856e-03" rms="4.5722565054893494e-01" purity="3.2846510410308838e-01" nType="-99"/>
            </Node>
          </Node>
        </Node>
        <Node pos="r" depth="1" NCoef="0" IVar="3" Cut="8.2596194744110107e-01" cType="1" res="1.0322822630405426e-01" rms="4.4182306528091431e-01" purity="7.0692759752273560e-01" nType="0">
          <Node pos="l" depth="2" NCoef="0" IVar="1" Cut="3.3702519536018372e-01" cType="1" res="3.9287600666284561e-02" rms="4.8358049988746643e-01" purity="5.7971239089965820e-01" nType="0">
            <Node pos="l" depth="3" NCoef="0" IVar="5" Cut="-9.6020638942718506e-01" cType="1" res="6.1232659965753555e-02" rms="4.7924479842185974e-01" purity="6.1054927110671997e-01" nType="0">
              <Node pos="l" depth="4" NCoef="0" IVar="0" Cut="3.5888800024986267e-01" cType="1" res="7.4627898633480072e-02" rms="4.7614994645118713e-01" purity="6.3890850543975830e-01" nType="0">
                <Node pos="l" depth="5" NCoef="0" IVar="3" Cut="7.2469455003738403e-01" cType="1" res="8.4784597158432007e-02" rms="4.7193217277526855e-01" purity="6.5750312805175781e-01" nType="0">
                  <Node pos="l" depth="6" NCoef="0" IVar="3" Cut="7.0135110616683960e-01" cType="1" res="5.1599647849798203e-02" rms="4.8890739679336548e-01" purity="5.9891474246978760e-01" nType="0">
                    <Node pos="l" depth="7" NCoef="0" IVar="-1" Cut="0.0000000000000000e+00" cType="1" res="3.0660985503345728e-03" rms="4.9203738570213318e-01" purity="5.8157294988632202e-01" nType="-99"/>
                    <Node pos="r" depth="7" NCoef="0" IVar="-1" Cut="0.0000000000000000e+00" cType="1" res="5.4899705573916435e-03" rms="4.8550540208816528e-01" purity="6.1527544260025024e-01" nType="-99"/>
                  </Node>
                  <Node pos="r" depth="6" NCoef="0" IVar="5" Cut="-1.8970283269882202e+00" cType="1" res="9.5271587371826172e-02" rms="4.6594807505607605e-01" purity="6.7601799964904785e-01" nType="0">
                    <Node pos="l" depth="7" NCoef="0" IVar="-1" Cut="0.0000000000000000e+00" cType="1" res="8.4884269163012505e-03" rms="4.6050289273262024e-01" purity="6.9071257114410400e-01" nType="-99"/>
                    <Node pos="r" depth="7" NCoef="0" IVar="-1" Cut="0.0000000000000000e+00" cType="1" res="5.8628064580261707e-03" rms="4.8065593838691711e-01" purity="6.3332331180572510e-01" nType="-99"/>
                  </Node>
                </Node>
                <Node pos="r" depth="5" NCoef="0" IVar="-1" Cut="0.0000000000000000e+00" cType="1" res="4.7500411164946854e-04" rms="4.9841585755348206e-01" purity="5.1262032985687256e-01" nType="-99"/>
              </Node>
              <Node pos="r" depth="4" NCoef="0" IVar="-1" Cut="0.0000000000000000e+00" cType="1" res="-1.8427388276904821e-03" rms="4.8982980847358704e-01" purity="4.3792203068733215e-01" nType="-99"/>
            </Node>
            <Node pos="r" depth="3" NCoef="0" IVar="4" Cut="-1.7383060455322266e+00" cType="1" res="-3.2201778143644333e-02" rms="4.9068287014961243e-01" purity="4.7925636172294617e-01" nType="0">
              <Node pos="l" depth="4" NCoef="0" IVar="-1" Cut="0.0000000000000000e+00" cType="1" res="1.5574577264487743e-03" rms="4.9257373809814453e-01" purity="5.5162733793258667e-01" nType="-99"/>
              <Node pos="r" depth="4" NCoef="0" IVar="6" Cut="5.9734974056482315e-02" cType="1" res="-6.3823580741882324e-02" rms="4.8682609200477600e-01" purity="4.3481680750846863e-01" nType="0">
                <Node pos="l" depth="5" NCoef="0" IVar="-1" Cut="0.0000000000000000e+00" cType="1" res="-7.5198034755885601e-03" rms="4.8347306251525879e-01" purity="4.1534224152565002e-01" nType="-99"/>
                <Node pos="r" depth="5" NCoef="0" IVar="-1" Cut="0.0000000000000000e+00" cType="1" res="-3.5881395451724529e-03" rms="4.8938646912574768e-01" purity="4.5567351579666138e-01" nType="-99"/>
              </Node>
            </Node>
          </Node>
          <Node pos="r" depth="2" NCoef="0" IVar="5" Cut="-9.7360891103744507e-01" cType="1" res="1.2654541432857513e-01" rms="4.2317998409271240e-01" purity="7.5331902503967285e-01" nType="0">
            <Node pos="l" depth="3" NCoef="0" IVar="2" Cut="1.8723973083496094e+02" cType="1" res="1.3584727048873901e-01" rms="4.1555640101432800e-01" purity="7.7141690254211426e-01" nType="0">
              <Node pos="l" depth="4" NCoef="0" IVar="0" Cut="3.9769303798675537e-01" cType="1" res="1.4003977179527283e-01" rms="4.1250982880592346e-01" purity="7.7676600217819214e-01" nType="0">
                <Node pos="l" depth="5" NCoef="0" IVar="3" Cut="8.7450605630874634e-01" cType="1" res="1.4567667245864868e-01" rms="4.0839466452598572e-01" purity="7.8393739461898804e-01" nType="0">
                  <Node pos="l" depth="6" NCoef="0" IVar="1" Cut="1.9417978823184967e-02" cType="1" res="1.0150106251239777e-01" rms="4.4938349723815918e-01" purity="7.1500176191329956e-01" nType="0">
                    <Node pos="l" depth="7" NCoef="0" IVar="-1" Cut="0.0000000000000000e+00" cType="1" res="1.0067842900753021e-02" rms="4.3448585271835327e-01" purity="7.4430173635482788e-01" nType="-99"/>
                    <Node pos="r" depth="7" NCoef="0" IVar="-1" Cut="0.0000000000000000e+00" cType="1" res="6.4647686667740345e-03" rms="4.6204921603202820e-01" purity="6.8715447187423706e-01" nType="-99"/>
                  </Node>
                  <Node pos="r" depth="6" NCoef="0" IVar="5" Cut="-2.8463451862335205e+00" cType="1" res="1.5282952785491943e-01" rms="4.0090659260749817e-01" purity="7.9509937763214111e-01" nType="0">
                    <Node pos="l" depth="7" NCoef="0" IVar="-1" Cut="0.0000000000000000e+00" cType="1" res="1.4399897307157516e-02" rms="3.7403541803359985e-01" purity="8.3000761270523071e-01" nType="-99"/>
                    <Node pos="r" depth="7" NCoef="0" IVar="-1" Cut="0.0000000000000000e+00" cType="1" res="1.1594463139772415e-02" rms="4.1780513525009155e-01" purity="7.7114063501358032e-01" nType="-99"/>
                  </Node>
                </Node>
                <Node pos="r" depth="5" NCoef="0" IVar="-1" Cut="0.0000000000000000e+00" cType="1" res="-1.9964918028563261e-03" rms="4.9046236276626587e-01" purity="5.6848067045211792e-01" nType="-99"/>
              </Node>
              <Node pos="r" depth="4" NCoef="0" IVar="-1" Cut="0.0000000000000000e+00" cType="1" res="1.3576116180047393e-03" rms="4.8010748624801636e-01" purity="6.1648052930831909e-01" nType="-99"/>
            </Node>
            <Node pos="r" depth="3" NCoef="0" IVar="5" Cut="-3.2214024662971497e-01" cType="1" res="1.5644362196326256e-02" rms="4.9191966652870178e-01" purity="5.3754776716232300e-01" nType="0">
              <Node pos="l" depth="4" NCoef="0" IVar="-1" Cut="0.0000000000000000e+00" cType="1" res="4.0474841371178627e-03" rms="4.8911491036415100e-01" purity="5.9303599596023560e-01" nType="-99"/>
              <Node pos="r" depth="4" NCoef="0" IVar="-1" Cut="0.0000000000000000e+00" cType="1" res="-3.8514931220561266e-03" rms="4.9150264263153076e-01" purity="4.3715640902519226e-01" nType="-99"/>
            </Node>
          </Node>
        </Node>
      </Node>
    </BinaryTree>
    <BinaryTree type="DecisionTree" boostWeight="1.0000000000000000e+00" itree="19">
      <Node pos="s" depth="0" NCoef="0" IVar="3" Cut="6.7608582973480225e-01" cType="1" res="1.6738193109631538e-02" rms="4.2560249567031860e-01" purity="5.0020438432693481e-01" nType="0">
        <Node pos="l" depth="1" NCoef="0" IVar="3" Cut="5.4525941610336304e-01" cType="1" res="-1.0373092442750931e-01" rms="3.6966747045516968e-01" purity="1.9899106025695801e-01" nType="0">
          <Node pos="l" depth="2" NCoef="0" IVar="5" Cut="-1.2442203760147095e+00" cType="1" res="-1.2733501195907593e-01" rms="3.1991529464721680e-01" purity="1.2917396426200867e-01" nType="0">
            <Node pos="l" depth="3" NCoef="0" IVar="1" Cut="7.5091958045959473e-01" cType="1" res="-1.1387003213167191e-01" rms="3.5337033867835999e-01" purity="1.6213449835777283e-01" nType="0">
              <Node pos="l" depth="4" NCoef="0" IVar="3" Cut="4.7513583302497864e-01" cType="1" res="-1.0060299932956696e-01" rms="3.7546539306640625e-01" purity="1.8783125281333923e-01" nType="0">
                <Node pos="l" depth="5" NCoef="0" IVar="6" Cut="2.1417434513568878e-01" cType="1" res="-1.1331514269113541e-01" rms="3.4636041522026062e-01" purity="1.5018767118453979e-01" nType="0">
                  <Node pos="l" depth="6" NCoef="0" IVar="0" Cut="1.2448099851608276e+00" cType="1" res="-1.2443220615386963e-01" rms="3.2594075798988342e-01" purity="1.2866425514221191e-01" nType="0">
                    <Node pos="l" depth="7" NCoef="0" IVar="-1" Cut="0.0000000000000000e+00" cType="1" res="-1.2434553354978561e-02" rms="3.8302534818649292e-01" purity="1.8678870797157288e-01" nType="-99"/>
                    <Node pos="r" depth="7" NCoef="0" IVar="-1" Cut="0.0000000000000000e+00" cType="1" res="-2.4919820949435234e-02" rms="2.5926256179809570e-01" purity="7.4682444334030151e-02" nType="-99"/>
                  </Node>
                  <Node pos="r" depth="6" NCoef="0" IVar="-1" Cut="0.0000000000000000e+00" cType="1" res="-6.0359928756952286e-03" rms="4.3696430325508118e-01" purity="2.6836553215980530e-01" nType="-99"/>
                </Node>
                <Node pos="r" depth="5" NCoef="0" IVar="0" Cut="5.0969552993774414e-01" cType="1" res="-5.9597659856081009e-02" rms="4.5446565747261047e-01" purity="3.0925747752189636e-01" nType="0">
                  <Node pos="l" depth="6" NCoef="0" IVar="-1" Cut="0.0000000000000000e+00" cType="1" res="-2.6908102445304394e-03" rms="4.8338454961776733e-01" purity="3.8643741607666016e-01" nType="-99"/>
                  <Node pos="r" depth="6" NCoef="0" IVar="-1" Cut="0.0000000000000000e+00" cType="1" res="-9.2671168968081474e-03" rms="4.2826220393180847e-01" purity="2.4716086685657501e-01" nType="-99"/>
                </Node>
              </Node>
              <Node pos="r" depth="4" NCoef="0" IVar="7" Cut="5.0000000000000000e+00" cType="1" res="-1.5306116640567780e-01" rms="2.7428492903709412e-01" purity="8.6206510663032532e-02" nType="0">
                <Node pos="l" depth="5" NCoef="0" IVar="-1" Cut="0.0000000000000000e+00" cType="1" res="-2.0358251407742500e-02" rms="3.2008552551269531e-01" purity="1.1927390098571777e-01" nType="-99"/>
                <Node pos="r" depth="5" NCoef="0" IVar="3" Cut="2.6778718829154968e-01" cType="1" res="-1.6336092352867126e-01" rms="2.3374673724174500e-01" purity="6.1493065208196640e-02" nType="0">
                  <Node pos="l" depth="6" NCoef="0" IVar="-1" Cut="0.0000000000000000e+00" cType="1" res="-3.1890124082565308e-02" rms="1.8802444636821747e-01" purity="3.7919811904430389e-02" nType="-99"/>
                  <Node pos="r" depth="6" NCoef="0" IVar="-1" Cut="0.0000000000000000e+00" cType="1" res="-2.2370494902133942e-02" rms="2.8516387939453125e-01" purity="9.4657257199287415e-02" nType="-99"/>
                </Node>
              </Node>
            </Node>
            <Node pos="r" depth="3" NCoef="0" IVar="6" Cut="1.5753525495529175e-01" cType="1" res="-1.4844982326030731e-01" rms="2.5747606158256531e-01" purity="7.7487632632255554e-02" nType="0">
              <Node pos="l" depth="4" NCoef="0" IVar="4" Cut="5.7185494899749756e-01" cType="1" res="-1.5853294730186462e-01" rms="2.2484393417835236e-01" purity="5.8239400386810303e-02" nType="0">
                <Node pos="l" depth="5" NCoef="0" IVar="-1" Cut="0.0000000000000000e+00" cType="1" res="-1.8290808424353600e-02" rms="3.2271963357925415e-01" purity="1.2835645675659180e-01" nType="-99"/>
                <Node pos="r" depth="5" NCoef="0" IVar="2" Cut="1.7545440673828125e+02" cType="1" res="-1.6698142886161804e-01" rms="1.8734306097030640e-01" purity="3.8440287113189697e-02" nType="0">
                  <Node pos="l" depth="6" NCoef="0" IVar="4" Cut="2.5173087120056152e+00" cType="1" res="-1.5753099322319031e-01" rms="2.0443812012672424e-01" purity="4.6814698725938797e-02" nType="0">
                    <Node pos="l" depth="7" NCoef="0" IVar="-1" Cut="0.0000000000000000e+00" cType="1" res="-2.4059413000941277e-02" rms="2.5652605295181274e-01" purity="7.4920423328876495e-02" nType="-99"/>
                    <Node pos="r" depth="7" NCoef="0" IVar="-1" Cut="0.0000000000000000e+00" cType="1" res="-3.4076545387506485e-02" rms="1.0219401866197586e-01" purity="1.0664003901183605e-02" nType="-99"/>
                  </Node>
                  <Node pos="r" depth="6" NCoef="0" IVar="3" Cut="4.0812212228775024e-01" cType="1" res="-1.7477177083492279e-01" rms="1.7158700525760651e-01" purity="3.1536947935819626e-02" nType="0">
                    <Node pos="l" depth="7" NCoef="0" IVar="-1" Cut="0.0000000000000000e+00" cType="1" res="-3.0741142109036446e-02" rms="1.3967247307300568e-01" purity="2.0368400961160660e-02" nType="-99"/>
                    <Node pos="r" depth="7" NCoef="0" IVar="-1" Cut="0.0000000000000000e+00" cType="1" res="-2.6784840971231461e-02" rms="2.2100400924682617e-01" purity="5.3528342396020889e-02" nType="-99"/>
                  </Node>
                </Node>
              </Node>
              <Node pos="r" depth="4" NCoef="0" IVar="2" Cut="7.6419348144531250e+02" cType="1" res="-1.2688755989074707e-01" rms="3.1506967544555664e-01" purity="1.1864901334047318e-01" nType="0">
                <Node pos="l" depth="5" NCoef="0" IVar="5" Cut="7.2503501176834106e-01" cType="1" res="-1.3629862666130066e-01" rms="2.9980623722076416e-01" purity="1.0675544291734695e-01" nType="0">
                  <Node pos="l" depth="6" NCoef="0" IVar="-1" Cut="0.0000000000000000e+00" cType="1" res="-1.7107870429754257e-02" rms="3.4098371863365173e-01" purity="1.4230632781982422e-01" nType="-99"/>
                  <Node pos="r" depth="6" NCoef="0" IVar="-1" Cut="0.0000000000000000e+00" cType="1" res="-2.7456210926175117e-02" rms="2.3640543222427368e-01" purity="6.2141519039869308e-02" nType="-99"/>
                </Node>
                <Node pos="r" depth="5" NCoef="0" IVar="-1" Cut="0.0000000000000000e+00" cType="1" res="-1.4382922090590000e-02" rms="3.4813404083251953e-01" purity="1.4736367762088776e-01" nType="-99"/>
              </Node>
            </Node>
          </Node>
          <Node pos="r" depth="2" NCoef="0" IVar="1" Cut="6.2054418027400970e-02" cType="1" res="-3.9930190891027451e-02" rms="4.7308671474456787e-01" purity="3.8770329952239990e-01" nType="0">
            <Node pos="l" depth="3" NCoef="0" IVar="3" Cut="6.0856282711029053e-01" cType="1" res="5.3032822906970978e-03" rms="4.8525986075401306e-01" purity="4.4829219579696655e-01" nType="0">
              <Node pos="l" depth="4" NCoef="0" IVar="7" Cut="4.0000000000000000e+00" cType="1" res="-3.0182518064975739e-02" rms="4.7644075751304626e-01" purity="3.9078891277313232e-01" nType="0">
                <Node pos="l" depth="5" NCoef="0" IVar="-1" Cut="0.0000000000000000e+00" cType="1" res="-6.4717265777289867e-03" rms="4.6493980288505554e-01" purity="3.4377422928810120e-01" nType="-99"/>
                <Node pos="r" depth="5" NCoef="0" IVar="-1" Cut="0.0000000000000000e+00" cType="1" res="7.4222788680344820e-04" rms="4.8526716232299805e-01" purity="4.3922227621078491e-01" nType="-99"/>
              </Node>
              <Node pos="r" depth="4" NCoef="0" IVar="2" Cut="1.7541177368164062e+02" cType="1" res="3.5307027399539948e-02" rms="4.9036598205566406e-01" purity="4.9629229307174683e-01" nType="0">
                <Node pos="l" depth="5" NCoef="0" IVar="-1" Cut="0.0000000000000000e+00" cType="1" res="5.0108307041227818e-03" rms="4.9075374007225037e-01" purity="5.2673429250717163e-01" nType="-99"/>
                <Node pos="r" depth="5" NCoef="0" IVar="-1" Cut="0.0000000000000000e+00" cType="1" res="2.7309335564495996e-05" rms="4.8767140507698059e-01" purity="4.5393076539039612e-01" nType="-99"/>
              </Node>
            </Node>
            <Node pos="r" depth="3" NCoef="0" IVar="0" Cut="5.7583475112915039e-01" cType="1" res="-7.9758614301681519e-02" rms="4.5842236280441284e-01" purity="3.3435431122779846e-01" nType="0">
              <Node pos="l" depth="4" NCoef="0" IVar="5" Cut="-1.2930841445922852e+00" cType="1" res="-6.0426320880651474e-02" rms="4.7298881411552429e-01" purity="3.7457492947578430e-01" nType="0">
                <Node pos="l" depth="5" NCoef="0" IVar="6" Cut="8.7314829230308533e-02" cType="1" res="-4.1189849376678467e-02" rms="4.8637580871582031e-01" purity="4.1245305538177490e-01" nType="0">
                  <Node pos="l" depth="6" NCoef="0" IVar="-1" Cut="0.0000000000000000e+00" cType="1" res="-6.6147549077868462e-03" rms="4.7699475288391113e-01" purity="3.7282815575599670e-01" nType="-99"/>
                  <Node pos="r" depth="6" NCoef="0" IVar="-1" Cut="0.0000000000000000e+00" cType="1" res="-1.2162420898675919e-04" rms="4.9552863836288452e-01" purity="4.6413469314575195e-01" nType="-99"/>
                </Node>
                <Node pos="r" depth="5" NCoef="0" IVar="-1" Cut="0.0000000000000000e+00" cType="1" res="-1.1852196417748928e-02" rms="4.2690166831016541e-01" purity="2.6462119817733765e-01" nType="-99"/>
              </Node>
              <Node pos="r" depth="4" NCoef="0" IVar="-1" Cut="0.0000000000000000e+00" cType="1" res="-1.4610358513891697e-02" rms="4.1011044383049011e-01" purity="2.2174836695194244e-01" nType="-99"/>
            </Node>
          </Node>
        </Node>
        <Node pos="r" depth="1" NCoef="0" IVar="7" Cut="2.0000000000000000e+00" cType="1" res="9.9526844918727875e-02" rms="4.4139212369918823e-01" purity="7.0704907178878784e-01" nType="0">
          <Node pos="l" depth="2" NCoef="0" IVar="1" Cut="7.2159433364868164e-01" cType="1" res="1.3534979522228241e-01" rms="4.0959507226943970e-01" purity="7.7670383453369141e-01" nType="0">
            <Node pos="l" depth="3" NCoef="0" IVar="5" Cut="-2.2284288406372070e+00" cType="1" res="1.4531783759593964e-01" rms="4.0228885412216187e-01" purity="7.8863918781280518e-01" nType="0">
              <Node pos="l" depth="4" NCoef="0" IVar="4" Cut="-9.9834281206130981e-01" cType="1" res="1.6161303222179413e-01" rms="3.8045391440391541e-01" purity="8.2198786735534668e-01" nType="0">
                <Node pos="l" depth="5" NCoef="0" IVar="4" Cut="-1.9974936246871948e+00" cType="1" res="1.4321291446685791e-01" rms="4.1208237409591675e-01" purity="7.8057676553726196e-01" nType="0">
                  <Node pos="l" depth="6" NCoef="0" IVar="-1" Cut="0.0000000000000000e+00" cType="1" res="1.3006906956434250e-02" rms="3.9359334111213684e-01" purity="8.0638879537582397e-01" nType="-99"/>
                  <Node pos="r" depth="6" NCoef="0" IVar="4" Cut="-1.7066876888275146e+00" cType="1" res="1.3837794959545135e-01" rms="4.1762784123420715e-01" purity="7.7243500947952271e-01" nType="0">
                    <Node pos="l" depth="7" NCoef="0" IVar="-1" Cut="0.0000000000000000e+00" cType="1" res="7.9331947490572929e-03" rms="4.3598097562789917e-01" purity="7.4247026443481445e-01" nType="-99"/>
                    <Node pos="r" depth="7" NCoef="0" IVar="-1" Cut="0.0000000000000000e+00" cType="1" res="1.1324687860906124e-02" rms="4.0733876824378967e-01" purity="7.8777694702148438e-01" nType="-99"/>
                  </Node>
                </Node>
                <Node pos="r" depth="5" NCoef="0" IVar="1" Cut="1.1432504653930664e-01" cType="1" res="1.6796590387821198e-01" rms="3.6869141459465027e-01" purity="8.3628553152084351e-01" nType="0">
                  <Node pos="l" depth="6" NCoef="0" IVar="5" Cut="-3.1242861747741699e+00" cType="1" res="1.7628568410873413e-01" rms="3.5816767811775208e-01" purity="8.4781831502914429e-01" nType="0">
                    <Node pos="l" depth="7" NCoef="0" IVar="-1" Cut="0.0000000000000000e+00" cType="1" res="1.6921389847993851e-02" rms="3.3253979682922363e-01" purity="8.7274384498596191e-01" nType="-99"/>
                    <Node pos="r" depth="7" NCoef="0" IVar="-1" Cut="0.0000000000000000e+00" cType="1" res="1.4592316932976246e-02" rms="3.6795669794082642e-01" purity="8.3756220340728760e-01" nType="-99"/>
                  </Node>
                  <Node pos="r" depth="6" NCoef="0" IVar="5" Cut="-2.8858234882354736e+00" cType="1" res="1.5120948851108551e-01" rms="3.8848310708999634e-01" purity="8.1305813789367676e-01" nType="0">
                    <Node pos="l" depth="7" NCoef="0" IVar="-1" Cut="0.0000000000000000e+00" cType="1" res="1.4220980927348137e-02" rms="3.7081646919250488e-01" purity="8.3417654037475586e-01" nType="-99"/>
                    <Node pos="r" depth="7" NCoef="0" IVar="-1" Cut="0.0000000000000000e+00" cType="1" res="1.1460114270448685e-02" rms="4.0741610527038574e-01" purity="7.8859841823577881e-01" nType="-99"/>
                  </Node>
                </Node>
              </Node>
              <Node pos="r" depth="4" NCoef="0" IVar="5" Cut="-6.7035883665084839e-01" cType="1" res="1.0839014500379562e-01" rms="4.4564822316169739e-01" purity="7.1306532621383667e-01" nType="0">
                <Node pos="l" depth="5" NCoef="0" IVar="4" Cut="-4.3125814199447632e-01" cType="1" res="1.1937770247459412e-01" rms="4.3608483672142029e-01" purity="7.3943537473678589e-01" nType="0">
                  <Node pos="l" depth="6" NCoef="0" IVar="1" Cut="5.8473292738199234e-02" cType="1" res="9.8960168659687042e-02" rms="4.5094871520996094e-01" purity="7.1104496717453003e-01" nType="0">
                    <Node pos="l" depth="7" NCoef="0" IVar="-1" Cut="0.0000000000000000e+00" cType="1" res="9.1336956247687340e-03" rms="4.4121378660202026e-01" purity="7.3186987638473511e-01" nType="-99"/>
                    <Node pos="r" depth="7" NCoef="0" IVar="-1" Cut="0.0000000000000000e+00" cType="1" res="5.6599467061460018e-03" rms="4.6471664309501648e-01" purity="6.7793816328048706e-01" nType="-99"/>
                  </Node>
                  <Node pos="r" depth="6" NCoef="0" IVar="5" Cut="-1.8263998031616211e+00" cType="1" res="1.3633380830287933e-01" rms="4.2259529232978821e-01" purity="7.6301264762878418e-01" nType="0">
                    <Node pos="l" depth="7" NCoef="0" IVar="-1" Cut="0.0000000000000000e+00" cType="1" res="1.3608867302536964e-02" rms="3.9689666032791138e-01" purity="8.0300688743591309e-01" nType="-99"/>
                    <Node pos="r" depth="7" NCoef="0" IVar="-1" Cut="0.0000000000000000e+00" cType="1" res="1.0086855851113796e-02" rms="4.4227832555770874e-01" purity="7.2954863309860229e-01" nType="-99"/>
                  </Node>
                </Node>
                <Node pos="r" depth="5" NCoef="0" IVar="-1" Cut="0.0000000000000000e+00" cType="1" res="3.5878417547792196e-03" rms="4.9451708793640137e-01" purity="5.5322498083114624e-01" nType="-99"/>
              </Node>
            </Node>
            <Node pos="r" depth="3" NCoef="0" IVar="-1" Cut="0.0000000000000000e+00" cType="1" res="2.2494439035654068e-03" rms="4.6816256642341614e-01" purity="6.4777916669845581e-01" nType="-99"/>
          </Node>
          <Node pos="r" depth="2" NCoef="0" IVar="1" Cut="6.9237715005874634e-01" cType="1" res="6.1105463653802872e-02" rms="4.7010925412178040e-01" purity="6.3259088993072510e-01" nType="0">
            <Node pos="l" depth="3" NCoef="0" IVar="5" Cut="-2.5238737463951111e-01" cType="1" res="7.4819028377532959e-02" rms="4.6595990657806396e-01" purity="6.5071249008178711e-01" nType="0">
              <Node pos="l" depth="4" NCoef="0" IVar="3" Cut="8.2561457157135010e-01" cType="1" res="8.1736542284488678e-02" rms="4.6420446038246155e-01" purity="6.6461038589477539e-01" nType="0">
                <Node pos="l" depth="5" NCoef="0" IVar="0" Cut="3.9748448133468628e-01" cType="1" res="5.7893715798854828e-02" rms="4.8107430338859558e-01" purity="6.1308264732360840e-01" nType="0">
                  <Node pos="l" depth="6" NCoef="0" IVar="0" Cut="1.2821635231375694e-02" cType="1" res="6.6587693989276886e-02" rms="4.7827190160751343e-01" purity="6.2862533330917358e-01" nType="0">
                    <Node pos="l" depth="7" NCoef="0" IVar="-1" Cut="0.0000000000000000e+00" cType="1" res="6.5625002607703209e-03" rms="4.7085160017013550e-01" purity="6.5665245056152344e-01" nType="-99"/>
                    <Node pos="r" depth="7" NCoef="0" IVar="-1" Cut="0.0000000000000000e+00" cType="1" res="3.2629047054797411e-03" rms="4.9150058627128601e-01" purity="5.7238906621932983e-01" nType="-99"/>
                  </Node>
                  <Node pos="r" depth="6" NCoef="0" IVar="-1" Cut="0.0000000000000000e+00" cType="1" res="-1.4644514303654432e-03" rms="4.9839660525321960e-01" purity="4.7839137911796570e-01" nType="-99"/>
                </Node>
                <Node pos="r" depth="5" NCoef="0" IVar="2" Cut="1.7581622314453125e+02" cType="1" res="1.0995158553123474e-01" rms="4.4175332784652710e-01" purity="7.2558706998825073e-01" nType="0">
                  <Node pos="l" depth="6" NCoef="0" IVar="1" Cut="1.0444457828998566e-01" cType="1" res="1.1793990433216095e-01" rms="4.3687710165977478e-01" purity="7.3573863506317139e-01" nType="0">
                    <Node pos="l" depth="7" NCoef="0" IVar="-1" Cut="0.0000000000000000e+00" cType="1" res="1.1409940198063850e-02" rms="4.2680162191390991e-01" purity="7.5434708595275879e-01" nType="-99"/>
                    <Node pos="r" depth="7" NCoef="0" IVar="-1" Cut="0.0000000000000000e+00" cType="1" res="7.5922352261841297e-03" rms="4.5531272888183594e-01" purity="6.9763004779815674e-01" nType="-99"/>
                  </Node>
                  <Node pos="r" depth="6" NCoef="0" IVar="-1" Cut="0.0000000000000000e+00" cType="1" res="5.2762017585337162e-03" rms="4.6937319636344910e-01" purity="6.5831929445266724e-01" nType="-99"/>
                </Node>
              </Node>
              <Node pos="r" depth="4" NCoef="0" IVar="-1" Cut="0.0000000000000000e+00" cType="1" res="-5.8544650673866272e-03" rms="4.7927561402320862e-01" purity="3.7391787767410278e-01" nType="-99"/>
            </Node>
            <Node pos="r" depth="3" NCoef="0" IVar="4" Cut="-1.0953298807144165e+00" cType="1" res="-6.2197066843509674e-02" rms="4.8890799283981323e-01" purity="4.6965411305427551e-01" nType="0">
              <Node pos="l" depth="4" NCoef="0" IVar="-1" Cut="0.0000000000000000e+00" cType="1" res="-1.9052288262173533e-03" rms="4.9339574575424194e-01" purity="5.3172832727432251e-01" nType="-99"/>
              <Node pos="r" depth="4" NCoef="0" IVar="-1" Cut="0.0000000000000000e+00" cType="1" res="-1.1089470237493515e-02" rms="4.7554951906204224e-01" purity="3.7401753664016724e-01" nType="-99"/>
            </Node>
          </Node>
        </Node>
      </Node>
    </BinaryTree>
    <BinaryTree type="DecisionTree" boostWeight="1.0000000000000000e+00" itree="20">
      <Node pos="s" depth="0" NCoef="0" IVar="3" Cut="6.7608582973480225e-01" cType="1" res="1.4912752434611320e-02" rms="4.2442351579666138e-01" purity="4.9861630797386169e-01" nType="0">
        <Node pos="l" depth="1" NCoef="0" IVar="3" Cut="5.4525941610336304e-01" cType="1" res="-9.9762201309204102e-02" rms="3.6866277456283569e-01" purity="1.9710768759250641e-01" nType="0">
          <Node pos="l" depth="2" NCoef="0" IVar="5" Cut="-1.2442203760147095e+00" cType="1" res="-1.2033225595951080e-01" rms="3.2035747170448303e-01" purity="1.2930549681186676e-01" nType="0">
            <Node pos="l" depth="3" NCoef="0" IVar="3" Cut="3.6967769265174866e-01" cType="1" res="-1.0619406402111053e-01" rms="3.5461696982383728e-01" purity="1.6355554759502411e-01" nType="0">
              <Node pos="l" depth="4" NCoef="0" IVar="7" Cut="4.0000000000000000e+00" cType="1" res="1.0477362573146820e-01" rms="4.9242522567510605e-02" purity="1.0556886345148087e-01" nType="0">
                <Node pos="l" depth="5" NCoef="0" IVar="-1" Cut="0.0000000000000000e+00" cType="1" res="-9.0962946414947510e-03" rms="3.8336747884750366e-01" purity="1.9725935161113739e-01" nType="-99"/>
                <Node pos="r" depth="5" NCoef="0" IVar="6" Cut="1.9231304526329041e-01" cType="1" res="-1.3563568890094757e-01" rms="2.8029030561447144e-01" purity="9.0065486729145050e-02" nType="0">
                  <Node pos="l" depth="6" NCoef="0" IVar="3" Cut="3.3404338359832764e-01" cType="1" res="-1.4170221984386444e-01" rms="2.4336987733840942e-01" purity="6.4381353557109833e-02" nType="0">
                    <Node pos="l" depth="7" NCoef="0" IVar="-1" Cut="0.0000000000000000e+00" cType="1" res="-2.6842754334211349e-02" rms="2.2922635078430176e-01" purity="5.6473128497600555e-02" nType="-99"/>
                    <Node pos="r" depth="7" NCoef="0" IVar="-1" Cut="0.0000000000000000e+00" cType="1" res="-1.9871920347213745e-02" rms="2.9425871372222900e-01" purity="9.7253151237964630e-02" nType="-99"/>
                  </Node>
                  <Node pos="r" depth="6" NCoef="0" IVar="-1" Cut="0.0000000000000000e+00" cType="1" res="-1.5375183895230293e-02" rms="3.7544837594032288e-01" purity="1.7363663017749786e-01" nType="-99"/>
                </Node>
              </Node>
              <Node pos="r" depth="4" NCoef="0" IVar="0" Cut="7.1822077035903931e-01" cType="1" res="-8.5901103913784027e-02" rms="4.0437567234039307e-01" purity="2.2451540827751160e-01" nType="0">
                <Node pos="l" depth="5" NCoef="0" IVar="1" Cut="-8.1097200512886047e-02" cType="1" res="-4.3528828769922256e-02" rms="4.5933860540390015e-01" purity="3.1895899772644043e-01" nType="0">
                  <Node pos="l" depth="6" NCoef="0" IVar="-1" Cut="0.0000000000000000e+00" cType="1" res="1.1608280474320054e-03" rms="4.8350879549980164e-01" purity="3.9037191867828369e-01" nType="-99"/>
                  <Node pos="r" depth="6" NCoef="0" IVar="4" Cut="-5.2663022279739380e-01" cType="1" res="-6.4323239028453827e-02" rms="4.4821527600288391e-01" purity="2.9231071472167969e-01" nType="0">
                    <Node pos="l" depth="7" NCoef="0" IVar="-1" Cut="0.0000000000000000e+00" cType="1" res="-1.0127098299562931e-02" rms="4.3289747834205627e-01" purity="2.6375630497932434e-01" nType="-99"/>
                    <Node pos="r" depth="7" NCoef="0" IVar="-1" Cut="0.0000000000000000e+00" cType="1" res="-4.1498048231005669e-03" rms="4.5846185088157654e-01" purity="3.1480959057807922e-01" nType="-99"/>
                  </Node>
                </Node>
                <Node pos="r" depth="5" NCoef="0" IVar="5" Cut="-3.0998225212097168e+00" cType="1" res="-1.2004633992910385e-01" rms="3.5021701455116272e-01" purity="1.4840911328792572e-01" nType="0">
                  <Node pos="l" depth="6" NCoef="0" IVar="-1" Cut="0.0000000000000000e+00" cType="1" res="-2.2750793024897575e-02" rms="2.9458701610565186e-01" purity="9.8608642816543579e-02" nType="-99"/>
                  <Node pos="r" depth="6" NCoef="0" IVar="2" Cut="1.2809353637695312e+02" cType="1" res="-1.0898208618164062e-01" rms="3.6380237340927124e-01" purity="1.6264098882675171e-01" nType="0">
                    <Node pos="l" depth="7" NCoef="0" IVar="-1" Cut="0.0000000000000000e+00" cType="1" res="-9.9506899714469910e-03" rms="3.8514333963394165e-01" purity="1.9032350182533264e-01" nType="-99"/>
                    <Node pos="r" depth="7" NCoef="0" IVar="-1" Cut="0.0000000000000000e+00" cType="1" res="-1.6761966049671173e-02" rms="3.5073012113571167e-01" purity="1.4796248078346252e-01" nType="-99"/>
                  </Node>
                </Node>
              </Node>
            </Node>
            <Node pos="r" depth="3" NCoef="0" IVar="3" Cut="1.7599017918109894e-01" cType="1" res="-1.4261777698993683e-01" rms="2.5567013025283813e-01" purity="7.5318425893783569e-02" nType="0">
              <Node pos="l" depth="4" NCoef="0" IVar="-1" Cut="0.0000000000000000e+00" cType="1" res="-1.5179666690528393e-02" rms="3.2543542981147766e-01" purity="1.2868794798851013e-01" nType="-99"/>
              <Node pos="r" depth="4" NCoef="0" IVar="0" Cut="4.9878060817718506e-01" cType="1" res="-1.4925563335418701e-01" rms="2.4471032619476318e-01" purity="6.8619102239608765e-02" nType="0">
                <Node pos="l" depth="5" NCoef="0" IVar="0" Cut="1.7690120637416840e-01" cType="1" res="-1.1589138954877853e-01" rms="3.4623873233795166e-01" purity="1.4731827378273010e-01" nType="0">
                  <Node pos="l" depth="6" NCoef="0" IVar="-1" Cut="0.0000000000000000e+00" cType="1" res="-1.1903061531484127e-02" rms="3.7511858344078064e-01" purity="1.7973886430263519e-01" nType="-99"/>
                  <Node pos="r" depth="6" NCoef="0" IVar="-1" Cut="0.0000000000000000e+00" cType="1" res="-1.9810272380709648e-02" rms="3.1364506483078003e-01" purity="1.1593151837587357e-01" nType="-99"/>
                </Node>
                <Node pos="r" depth="5" NCoef="0" IVar="2" Cut="2.4585589599609375e+02" cType="1" res="-1.5772651135921478e-01" rms="2.1046566963195801e-01" purity="4.8638109117746353e-02" nType="0">
                  <Node pos="l" depth="6" NCoef="0" IVar="6" Cut="9.6972741186618805e-02" cType="1" res="-1.4986927807331085e-01" rms="2.1531231701374054e-01" purity="5.1861513406038284e-02" nType="0">
                    <Node pos="l" depth="7" NCoef="0" IVar="-1" Cut="0.0000000000000000e+00" cType="1" res="-2.8617916628718376e-02" rms="1.8837085366249084e-01" purity="3.8712885230779648e-02" nType="-99"/>
                    <Node pos="r" depth="7" NCoef="0" IVar="-1" Cut="0.0000000000000000e+00" cType="1" res="-2.3144239559769630e-02" rms="2.6145410537719727e-01" purity="7.9168789088726044e-02" nType="-99"/>
                  </Node>
                  <Node pos="r" depth="6" NCoef="0" IVar="3" Cut="3.7847462296485901e-01" cType="1" res="-1.6579703986644745e-01" rms="2.0505520701408386e-01" purity="4.5327194035053253e-02" nType="0">
                    <Node pos="l" depth="7" NCoef="0" IVar="-1" Cut="0.0000000000000000e+00" cType="1" res="-2.8587678447365761e-02" rms="1.9259598851203918e-01" purity="3.9666052907705307e-02" nType="-99"/>
                    <Node pos="r" depth="7" NCoef="0" IVar="-1" Cut="0.0000000000000000e+00" cType="1" res="-2.5967322289943695e-02" rms="2.3063729703426361e-01" purity="5.8164928108453751e-02" nType="-99"/>
                  </Node>
                </Node>
              </Node>
            </Node>
          </Node>
          <Node pos="r" depth="2" NCoef="0" IVar="1" Cut="1.9871324300765991e-01" cType="1" res="-4.3765950947999954e-02" rms="4.7141215205192566e-01" purity="3.8168016076087952e-01" nType="0">
            <Node pos="l" depth="3" NCoef="0" IVar="5" Cut="-1.1997860670089722e+00" cType="1" res="-1.4238847419619560e-02" rms="4.8199093341827393e-01" purity="4.2552351951599121e-01" nType="0">
              <Node pos="l" depth="4" NCoef="0" IVar="0" Cut="3.3819401264190674e-01" cType="1" res="4.8533664084970951e-03" rms="4.9206325411796570e-01" purity="4.6674412488937378e-01" nType="0">
                <Node pos="l" depth="5" NCoef="0" IVar="7" Cut="4.0000000000000000e+00" cType="1" res="2.6455258950591087e-02" rms="4.0362223982810974e-01" purity="5.3467434644699097e-01" nType="0">
                  <Node pos="l" depth="6" NCoef="0" IVar="-1" Cut="0.0000000000000000e+00" cType="1" res="1.2404473964124918e-03" rms="4.9811190366744995e-01" purity="5.1663136482238770e-01" nType="-99"/>
                  <Node pos="r" depth="6" NCoef="0" IVar="-1" Cut="0.0000000000000000e+00" cType="1" res="4.6409955248236656e-03" rms="4.9456003308296204e-01" purity="5.5096232891082764e-01" nType="-99"/>
                </Node>
                <Node pos="r" depth="5" NCoef="0" IVar="6" Cut="6.6677629947662354e-02" cType="1" res="-2.7110625058412552e-02" rms="4.8515579104423523e-01" purity="3.9495506882667542e-01" nType="0">
                  <Node pos="l" depth="6" NCoef="0" IVar="-1" Cut="0.0000000000000000e+00" cType="1" res="-5.5475058034062386e-03" rms="4.7651636600494385e-01" purity="3.6058968305587769e-01" nType="-99"/>
                  <Node pos="r" depth="6" NCoef="0" IVar="-1" Cut="0.0000000000000000e+00" cType="1" res="5.5854208767414093e-04" rms="4.9174588918685913e-01" purity="4.3062147498130798e-01" nType="-99"/>
                </Node>
              </Node>
              <Node pos="r" depth="4" NCoef="0" IVar="-1" Cut="0.0000000000000000e+00" cType="1" res="-7.5397440232336521e-03" rms="4.4370281696319580e-01" purity="2.9642805457115173e-01" nType="-99"/>
            </Node>
            <Node pos="r" depth="3" NCoef="0" IVar="0" Cut="5.7583475112915039e-01" cType="1" res="-8.9654937386512756e-02" rms="4.5065945386886597e-01" purity="3.1354191899299622e-01" nType="0">
              <Node pos="l" depth="4" NCoef="0" IVar="0" Cut="1.8570894375443459e-02" cType="1" res="-6.8587340414524078e-02" rms="4.6926763653755188e-01" purity="3.5884678363800049e-01" nType="0">
                <Node pos="l" depth="5" NCoef="0" IVar="-1" Cut="0.0000000000000000e+00" cType="1" res="-2.8083336073905230e-03" rms="4.8699796199798584e-01" purity="4.2986866831779480e-01" nType="-99"/>
                <Node pos="r" depth="5" NCoef="0" IVar="-1" Cut="0.0000000000000000e+00" cType="1" res="-8.9913913980126381e-03" rms="4.5610520243644714e-01" purity="3.1368622183799744e-01" nType="-99"/>
              </Node>
              <Node pos="r" depth="4" NCoef="0" IVar="-1" Cut="0.0000000000000000e+00" cType="1" res="-1.5800807625055313e-02" rms="3.9701178669929504e-01" purity="2.0303988456726074e-01" nType="-99"/>
            </Node>
          </Node>
        </Node>
        <Node pos="r" depth="1" NCoef="0" IVar="0" Cut="7.9670566320419312e-01" cType="1" res="9.3182496726512909e-02" rms="4.4183415174484253e-01" purity="7.0440667867660522e-01" nType="0">
          <Node pos="l" depth="2" NCoef="0" IVar="0" Cut="2.5694627314805984e-02" cType="1" res="9.9058665335178375e-02" rms="4.3953517079353333e-01" purity="7.1217286586761475e-01" nType="0">
            <Node pos="l" depth="3" NCoef="0" IVar="5" Cut="-2.1217980384826660e+00" cType="1" res="1.1600384861230850e-01" rms="4.2819127440452576e-01" purity="7.4218463897705078e-01" nType="0">
              <Node pos="l" depth="4" NCoef="0" IVar="3" Cut="9.0041220188140869e-01" cType="1" res="1.3617791235446930e-01" rms="4.0668174624443054e-01" purity="7.8451257944107056e-01" nType="0">
                <Node pos="l" depth="5" NCoef="0" IVar="1" Cut="2.1781903505325317e-01" cType="1" res="0.0000000000000000e+00" rms="0.0000000000000000e+00" purity="7.1853220462799072e-01" nType="0">
                  <Node pos="l" depth="6" NCoef="0" IVar="3" Cut="7.4849003553390503e-01" cType="1" res="0.0000000000000000e+00" rms="0.0000000000000000e+00" purity="7.4048930406570435e-01" nType="0">
                    <Node pos="l" depth="7" NCoef="0" IVar="-1" Cut="0.0000000000000000e+00" cType="1" res="6.2192925252020359e-03" rms="4.7478342056274414e-01" purity="6.5642410516738892e-01" nType="-99"/>
                    <Node pos="r" depth="7" NCoef="0" IVar="-1" Cut="0.0000000000000000e+00" cType="1" res="1.0377928614616394e-02" rms="4.2800319194793701e-01" purity="7.5648015737533569e-01" nType="-99"/>
                  </Node>
                  <Node pos="r" depth="6" NCoef="0" IVar="3" Cut="8.4976011514663696e-01" cType="1" res="0.0000000000000000e+00" rms="0.0000000000000000e+00" purity="6.6438335180282593e-01" nType="0">
                    <Node pos="l" depth="7" NCoef="0" IVar="-1" Cut="0.0000000000000000e+00" cType="1" res="4.8199575394392014e-03" rms="4.7903487086296082e-01" purity="6.3432455062866211e-01" nType="-99"/>
                    <Node pos="r" depth="7" NCoef="0" IVar="-1" Cut="0.0000000000000000e+00" cType="1" res="7.7580101788043976e-03" rms="4.4985193014144897e-01" purity="7.1440500020980835e-01" nType="-99"/>
                  </Node>
                </Node>
                <Node pos="r" depth="5" NCoef="0" IVar="4" Cut="-1.0578289031982422e+00" cType="1" res="1.5206976234912872e-01" rms="3.8487374782562256e-01" purity="8.1681835651397705e-01" nType="0">
                  <Node pos="l" depth="6" NCoef="0" IVar="4" Cut="-2.1257526874542236e+00" cType="1" res="1.3082711398601532e-01" rms="4.1782569885253906e-01" purity="7.7253186702728271e-01" nType="0">
                    <Node pos="l" depth="7" NCoef="0" IVar="-1" Cut="0.0000000000000000e+00" cType="1" res="1.3800378888845444e-02" rms="3.8955929875373840e-01" purity="8.1171435117721558e-01" nType="-99"/>
                    <Node pos="r" depth="7" NCoef="0" IVar="-1" Cut="0.0000000000000000e+00" cType="1" res="8.8310316205024719e-03" rms="4.2942956089973450e-01" purity="7.5491291284561157e-01" nType="-99"/>
                  </Node>
                  <Node pos="r" depth="6" NCoef="0" IVar="1" Cut="2.7330407500267029e-01" cType="1" res="1.5946137905120850e-01" rms="3.7244114279747009e-01" purity="8.3222830295562744e-01" nType="0">
                    <Node pos="l" depth="7" NCoef="0" IVar="-1" Cut="0.0000000000000000e+00" cType="1" res="1.4819863252341747e-02" rms="3.5959571599960327e-01" purity="8.4683066606521606e-01" nType="-99"/>
                    <Node pos="r" depth="7" NCoef="0" IVar="-1" Cut="0.0000000000000000e+00" cType="1" res="1.0509950108826160e-02" rms="4.0925934910774231e-01" purity="7.8506505489349365e-01" nType="-99"/>
                  </Node>
                </Node>
              </Node>
              <Node pos="r" depth="4" NCoef="0" IVar="1" Cut="6.7177355289459229e-01" cType="1" res="7.4463099241256714e-02" rms="4.6664881706237793e-01" purity="6.5502655506134033e-01" nType="0">
                <Node pos="l" depth="5" NCoef="0" IVar="5" Cut="-1.0725741386413574e+00" cType="1" res="8.5851378738880157e-02" rms="4.6260508894920349e-01" purity="6.6925013065338135e-01" nType="0">
                  <Node pos="l" depth="6" NCoef="0" IVar="3" Cut="8.1491923332214355e-01" cType="1" res="1.0350684076547623e-01" rms="4.5085129141807556e-01" purity="7.1059668064117432e-01" nType="0">
                    <Node pos="l" depth="7" NCoef="0" IVar="-1" Cut="0.0000000000000000e+00" cType="1" res="5.4913782514631748e-03" rms="4.7741162776947021e-01" purity="6.4265280961990356e-01" nType="-99"/>
                    <Node pos="r" depth="7" NCoef="0" IVar="-1" Cut="0.0000000000000000e+00" cType="1" res="9.5081310719251633e-03" rms="4.4202342629432678e-01" purity="7.3095130920410156e-01" nType="-99"/>
                  </Node>
                  <Node pos="r" depth="6" NCoef="0" IVar="3" Cut="9.5692884922027588e-01" cType="1" res="3.9047498255968094e-02" rms="4.8933503031730652e-01" purity="5.5964201688766479e-01" nType="0">
                    <Node pos="l" depth="7" NCoef="0" IVar="-1" Cut="0.0000000000000000e+00" cType="1" res="1.1513385688886046e-03" rms="4.9352863430976868e-01" purity="5.1525545120239258e-01" nType="-99"/>
                    <Node pos="r" depth="7" NCoef="0" IVar="-1" Cut="0.0000000000000000e+00" cType="1" res="6.3558402471244335e-03" rms="4.8067054152488708e-01" purity="6.2427026033401489e-01" nType="-99"/>
                  </Node>
                </Node>
                <Node pos="r" depth="5" NCoef="0" IVar="-1" Cut="0.0000000000000000e+00" cType="1" res="-3.0788469593971968e-03" rms="4.9073973298072815e-01" purity="5.1607781648635864e-01" nType="-99"/>
              </Node>
            </Node>
            <Node pos="r" depth="3" NCoef="0" IVar="5" Cut="-9.2480075359344482e-01" cType="1" res="1.3152482919394970e-02" rms="4.8400232195854187e-01" purity="5.6002318859100342e-01" nType="0">
              <Node pos="l" depth="4" NCoef="0" IVar="3" Cut="7.4320739507675171e-01" cType="1" res="2.8074022382497787e-02" rms="4.8338040709495544e-01" purity="5.8928108215332031e-01" nType="0">
                <Node pos="l" depth="5" NCoef="0" IVar="2" Cut="1.1418490600585938e+02" cType="1" res="-1.2341132387518883e-02" rms="4.9630138278007507e-01" purity="4.9879470467567444e-01" nType="0">
                  <Node pos="l" depth="6" NCoef="0" IVar="-1" Cut="0.0000000000000000e+00" cType="1" res="1.1836739722639322e-03" rms="4.9476382136344910e-01" purity="5.2944195270538330e-01" nType="-99"/>
                  <Node pos="r" depth="6" NCoef="0" IVar="-1" Cut="0.0000000000000000e+00" cType="1" res="-3.8744402118027210e-03" rms="4.9631136655807495e-01" purity="4.6413430571556091e-01" nType="-99"/>
                </Node>
                <Node pos="r" depth="5" NCoef="0" IVar="5" Cut="-1.8634959459304810e+00" cType="1" res="4.7623246908187866e-02" rms="4.7577446699142456e-01" purity="6.3305032253265381e-01" nType="0">
                  <Node pos="l" depth="6" NCoef="0" IVar="0" Cut="2.8891181945800781e-01" cType="1" res="6.1818160116672516e-02" rms="4.6967813372612000e-01" purity="6.5485554933547974e-01" nType="0">
                    <Node pos="l" depth="7" NCoef="0" IVar="-1" Cut="0.0000000000000000e+00" cType="1" res="7.9196915030479431e-03" rms="4.5904847979545593e-01" purity="6.8560183048248291e-01" nType="-99"/>
                    <Node pos="r" depth="7" NCoef="0" IVar="-1" Cut="0.0000000000000000e+00" cType="1" res="3.4678259398788214e-03" rms="4.7805771231651306e-01" purity="6.2747710943222046e-01" nType="-99"/>
                  </Node>
                  <Node pos="r" depth="6" NCoef="0" IVar="-1" Cut="0.0000000000000000e+00" cType="1" res="3.6210726830177009e-04" rms="4.9142900109291077e-01" purity="5.6628960371017456e-01" nType="-99"/>
                </Node>
              </Node>
              <Node pos="r" depth="4" NCoef="0" IVar="-1" Cut="0.0000000000000000e+00" cType="1" res="-6.7482609301805496e-03" rms="4.7856888175010681e-01" purity="3.9114964008331299e-01" nType="-99"/>
            </Node>
          </Node>
          <Node pos="r" depth="2" NCoef="0" IVar="-1" Cut="0.0000000000000000e+00" cType="1" res="-1.9596818834543228e-02" rms="4.5524188876152039e-01" purity="3.0966198444366455e-01" nType="-99"/>
        </Node>
      </Node>
    </BinaryTree>
    <BinaryTree type="DecisionTree" boostWeight="1.0000000000000000e+00" itree="21">
      <Node pos="s" depth="0" NCoef="0" IVar="3" Cut="6.7647039890289307e-01" cType="1" res="1.6759892925620079e-02" rms="4.2300572991371155e-01" purity="5.0040483474731445e-01" nType="0">
        <Node pos="l" depth="1" NCoef="0" IVar="3" Cut="5.6746691465377808e-01" cType="1" res="-9.1863594949245453e-02" rms="3.6953863501548767e-01" purity="2.0023362338542938e-01" nType="0">
          <Node pos="l" depth="2" NCoef="0" IVar="6" Cut="1.0674358904361725e-01" cType="1" res="-1.1137788742780685e-01" rms="3.2876989245414734e-01" purity="1.3947188854217529e-01" nType="0">
            <Node pos="l" depth="3" NCoef="0" IVar="1" Cut="2.8645029664039612e-01" cType="1" res="-1.2729896605014801e-01" rms="2.9494571685791016e-01" purity="1.0748964548110962e-01" nType="0">
              <Node pos="l" depth="4" NCoef="0" IVar="2" Cut="1.0151510620117188e+02" cType="1" res="-1.1062999814748764e-01" rms="3.3796718716621399e-01" purity="1.4844115078449249e-01" nType="0">
                <Node pos="l" depth="5" NCoef="0" IVar="6" Cut="4.5266013592481613e-02" cType="1" res="-7.5998023152351379e-02" rms="3.8126978278160095e-01" purity="2.0135408639907837e-01" nType="0">
                  <Node pos="l" depth="6" NCoef="0" IVar="-1" Cut="0.0000000000000000e+00" cType="1" res="-1.4789134263992310e-02" rms="3.4853681921958923e-01" purity="1.6010174155235291e-01" nType="-99"/>
                  <Node pos="r" depth="6" NCoef="0" IVar="-1" Cut="0.0000000000000000e+00" cType="1" res="-5.5296304635703564e-03" rms="4.0939301252365112e-01" purity="2.4313095211982727e-01" nType="-99"/>
                </Node>
                <Node pos="r" depth="5" NCoef="0" IVar="6" Cut="7.5746431946754456e-02" cType="1" res="-1.2770649790763855e-01" rms="3.1302043795585632e-01" purity="1.2235058099031448e-01" nType="0">
                  <Node pos="l" depth="6" NCoef="0" IVar="7" Cut="5.0000000000000000e+00" cType="1" res="-1.4672082662582397e-01" rms="2.8879138827323914e-01" purity="1.0035586357116699e-01" nType="0">
                    <Node pos="l" depth="7" NCoef="0" IVar="-1" Cut="0.0000000000000000e+00" cType="1" res="-2.1265894174575806e-02" rms="3.1023666262626648e-01" purity="1.1450058966875076e-01" nType="-99"/>
                    <Node pos="r" depth="7" NCoef="0" IVar="-1" Cut="0.0000000000000000e+00" cType="1" res="-2.1589104086160660e-02" rms="2.6837483048439026e-01" purity="8.7929368019104004e-02" nType="-99"/>
                  </Node>
                  <Node pos="r" depth="6" NCoef="0" IVar="2" Cut="2.3491784667968750e+02" cType="1" res="-1.1125908792018890e-01" rms="3.3166199922561646e-01" purity="1.4135600626468658e-01" nType="0">
                    <Node pos="l" depth="7" NCoef="0" IVar="-1" Cut="0.0000000000000000e+00" cType="1" res="-1.2000667862594128e-02" rms="3.5950002074241638e-01" purity="1.7229193449020386e-01" nType="-99"/>
                    <Node pos="r" depth="7" NCoef="0" IVar="-1" Cut="0.0000000000000000e+00" cType="1" res="-1.9218550994992256e-02" rms="3.0613303184509277e-01" purity="1.1681166291236877e-01" nType="-99"/>
                  </Node>
                </Node>
              </Node>
              <Node pos="r" depth="4" NCoef="0" IVar="2" Cut="2.9717984008789062e+02" cType="1" res="-1.4085616171360016e-01" rms="2.5384533405303955e-01" purity="7.4183002114295959e-02" nType="0">
                <Node pos="l" depth="5" NCoef="0" IVar="4" Cut="1.5216819047927856e+00" cType="1" res="-1.3711252808570862e-01" rms="2.5913578271865845e-01" purity="7.7998504042625427e-02" nType="0">
                  <Node pos="l" depth="6" NCoef="0" IVar="6" Cut="7.9283788800239563e-02" cType="1" res="-1.3179190456867218e-01" rms="2.8462952375411987e-01" purity="9.4777040183544159e-02" nType="0">
                    <Node pos="l" depth="7" NCoef="0" IVar="-1" Cut="0.0000000000000000e+00" cType="1" res="-2.2400662302970886e-02" rms="2.7462944388389587e-01" purity="8.6576543748378754e-02" nType="-99"/>
                    <Node pos="r" depth="7" NCoef="0" IVar="-1" Cut="0.0000000000000000e+00" cType="1" res="-1.7389245331287384e-02" rms="3.1459778547286987e-01" purity="1.2207946181297302e-01" nType="-99"/>
                  </Node>
                  <Node pos="r" depth="6" NCoef="0" IVar="-1" Cut="0.0000000000000000e+00" cType="1" res="-3.1430400907993317e-02" rms="1.2793476879596710e-01" purity="1.7107905820012093e-02" nType="-99"/>
                </Node>
                <Node pos="r" depth="5" NCoef="0" IVar="-1" Cut="0.0000000000000000e+00" cType="1" res="-2.5623194873332977e-02" rms="2.2213774919509888e-01" purity="5.3641699254512787e-02" nType="-99"/>
              </Node>
            </Node>
            <Node pos="r" depth="3" NCoef="0" IVar="3" Cut="4.7606053948402405e-01" cType="1" res="-9.6016094088554382e-02" rms="3.5772144794464111e-01" purity="1.7033062875270844e-01" nType="0">
              <Node pos="l" depth="4" NCoef="0" IVar="6" Cut="2.0968599617481232e-01" cType="1" res="-1.0667792707681656e-01" rms="3.3370360732078552e-01" purity="1.3841259479522705e-01" nType="0">
                <Node pos="l" depth="5" NCoef="0" IVar="5" Cut="-7.0833957195281982e-01" cType="1" res="-1.1972880363464355e-01" rms="3.0584135651588440e-01" purity="1.1313810199499130e-01" nType="0">
                  <Node pos="l" depth="6" NCoef="0" IVar="3" Cut="3.5575807094573975e-01" cType="1" res="-1.0529123991727829e-01" rms="3.4567183256149292e-01" purity="1.4817427098751068e-01" nType="0">
                    <Node pos="l" depth="7" NCoef="0" IVar="-1" Cut="0.0000000000000000e+00" cType="1" res="-2.1136732771992683e-02" rms="2.8917044401168823e-01" purity="9.5524296164512634e-02" nType="-99"/>
                    <Node pos="r" depth="7" NCoef="0" IVar="-1" Cut="0.0000000000000000e+00" cType="1" res="-9.6136275678873062e-03" rms="4.0896034240722656e-01" purity="2.2013691067695618e-01" nType="-99"/>
                  </Node>
                  <Node pos="r" depth="6" NCoef="0" IVar="4" Cut="2.9798858165740967e+00" cType="1" res="-1.4618542790412903e-01" rms="2.1190534532070160e-01" purity="4.8934839665889740e-02" nType="0">
                    <Node pos="l" depth="7" NCoef="0" IVar="-1" Cut="0.0000000000000000e+00" cType="1" res="-2.3625047877430916e-02" rms="2.5528445839881897e-01" purity="7.1910582482814789e-02" nType="-99"/>
                    <Node pos="r" depth="7" NCoef="0" IVar="-1" Cut="0.0000000000000000e+00" cType="1" res="-3.2403431832790375e-02" rms="1.0768448561429977e-01" purity="1.1732955463230610e-02" nType="-99"/>
                  </Node>
                </Node>
                <Node pos="r" depth="5" NCoef="0" IVar="7" Cut="5.0000000000000000e+00" cType="1" res="1.6000990569591522e-01" rms="0.0000000000000000e+00" purity="2.0191760361194611e-01" nType="0">
                  <Node pos="l" depth="6" NCoef="0" IVar="-1" Cut="0.0000000000000000e+00" cType="1" res="-1.9394694827497005e-03" rms="4.4423860311508179e-01" purity="2.9193988442420959e-01" nType="-99"/>
                  <Node pos="r" depth="6" NCoef="0" IVar="5" Cut="-6.2617659568786621e-01" cType="1" res="-9.6429154276847839e-02" rms="3.6879613995552063e-01" purity="1.6647855937480927e-01" nType="0">
                    <Node pos="l" depth="7" NCoef="0" IVar="-1" Cut="0.0000000000000000e+00" cType="1" res="-1.3901214115321636e-02" rms="3.8109970092773438e-01" purity="1.8084383010864258e-01" nType="-99"/>
                    <Node pos="r" depth="7" NCoef="0" IVar="-1" Cut="0.0000000000000000e+00" cType="1" res="-1.3066908344626427e-02" rms="3.4985333681106567e-01" purity="1.4557817578315735e-01" nType="-99"/>
                  </Node>
                </Node>
              </Node>
              <Node pos="r" depth="4" NCoef="0" IVar="2" Cut="3.7184008789062500e+02" cType="1" res="-4.3525852262973785e-02" rms="4.5432040095329285e-01" purity="3.2746922969818115e-01" nType="0">
                <Node pos="l" depth="5" NCoef="0" IVar="-1" Cut="0.0000000000000000e+00" cType="1" res="-9.7926321905106306e-04" rms="4.6461468935012817e-01" purity="3.6420243978500366e-01" nType="-99"/>
                <Node pos="r" depth="5" NCoef="0" IVar="-1" Cut="0.0000000000000000e+00" cType="1" res="-9.1978060081601143e-03" rms="4.3697249889373779e-01" purity="2.8014975786209106e-01" nType="-99"/>
              </Node>
            </Node>
          </Node>
          <Node pos="r" depth="2" NCoef="0" IVar="4" Cut="1.1077777147293091e+00" cType="1" res="-2.6224924251437187e-02" rms="4.7616061568260193e-01" purity="4.0461310744285583e-01" nType="0">
            <Node pos="l" depth="3" NCoef="0" IVar="0" Cut="3.3819401264190674e-01" cType="1" res="-1.3842785730957985e-02" rms="4.8476213216781616e-01" purity="4.3081608414649963e-01" nType="0">
              <Node pos="l" depth="4" NCoef="0" IVar="3" Cut="6.1670279502868652e-01" cType="1" res="2.0716950297355652e-02" rms="4.9553826451301575e-01" purity="5.0678235292434692e-01" nType="0">
                <Node pos="l" depth="5" NCoef="0" IVar="-1" Cut="0.0000000000000000e+00" cType="1" res="-1.4461729442700744e-03" rms="4.9371427297592163e-01" purity="4.5125311613082886e-01" nType="-99"/>
                <Node pos="r" depth="5" NCoef="0" IVar="3" Cut="6.5335702896118164e-01" cType="1" res="4.1756149381399155e-02" rms="4.9533209204673767e-01" purity="5.3819668292999268e-01" nType="0">
                  <Node pos="l" depth="6" NCoef="0" IVar="-1" Cut="0.0000000000000000e+00" cType="1" res="2.2151081357151270e-03" rms="4.9662521481513977e-01" purity="5.1966863870620728e-01" nType="-99"/>
                  <Node pos="r" depth="6" NCoef="0" IVar="-1" Cut="0.0000000000000000e+00" cType="1" res="5.0838221795856953e-03" rms="4.9292692542076111e-01" purity="5.6193554401397705e-01" nType="-99"/>
                </Node>
              </Node>
              <Node pos="r" depth="4" NCoef="0" IVar="7" Cut="3.0000000000000000e+00" cType="1" res="-4.8369195312261581e-02" rms="4.6939843893051147e-01" purity="3.5111278295516968e-01" nType="0">
                <Node pos="l" depth="5" NCoef="0" IVar="-1" Cut="0.0000000000000000e+00" cType="1" res="-9.3901213258504868e-03" rms="4.4824498891830444e-01" purity="2.9441955685615540e-01" nType="-99"/>
                <Node pos="r" depth="5" NCoef="0" IVar="2" Cut="1.6498144531250000e+02" cType="1" res="-3.0692892149090767e-02" rms="4.7860017418861389e-01" purity="3.7596574425697327e-01" nType="0">
                  <Node pos="l" depth="6" NCoef="0" IVar="-1" Cut="0.0000000000000000e+00" cType="1" res="3.0271412106230855e-04" rms="4.8750621080398560e-01" purity="4.1649895906448364e-01" nType="-99"/>
                  <Node pos="r" depth="6" NCoef="0" IVar="-1" Cut="0.0000000000000000e+00" cType="1" res="-7.7933534048497677e-03" rms="4.6140754222869873e-01" purity="3.1852436065673828e-01" nType="-99"/>
                </Node>
              </Node>
            </Node>
            <Node pos="r" depth="3" NCoef="0" IVar="-1" Cut="0.0000000000000000e+00" cType="1" res="-1.3743381015956402e-02" rms="3.8950473070144653e-01" purity="2.0017878711223602e-01" nType="-99"/>
          </Node>
        </Node>
        <Node pos="r" depth="1" NCoef="0" IVar="7" Cut="2.0000000000000000e+00" cType="1" res="9.1353744268417358e-02" rms="4.4082039594650269e-01" purity="7.0638203620910645e-01" nType="0">
          <Node pos="l" depth="2" NCoef="0" IVar="5" Cut="-1.3995518684387207e+00" cType="1" res="1.2459685653448105e-01" rms="4.1010203957557678e-01" purity="7.7570003271102905e-01" nType="0">
            <Node pos="l" depth="3" NCoef="0" IVar="1" Cut="1.0190397500991821e-01" cType="1" res="1.3328456878662109e-01" rms="3.9979371428489685e-01" purity="7.9513865709304810e-01" nType="0">
              <Node pos="l" depth="4" NCoef="0" IVar="4" Cut="-1.6037558317184448e+00" cType="1" res="1.5042725205421448e-01" rms="3.8285520672798157e-01" purity="8.1841742992401123e-01" nType="0">
                <Node pos="l" depth="5" NCoef="0" IVar="-1" Cut="0.0000000000000000e+00" cType="1" res="9.1251628473401070e-03" rms="4.2190968990325928e-01" purity="7.6468843221664429e-01" nType="-99"/>
                <Node pos="r" depth="5" NCoef="0" IVar="5" Cut="-2.3224613666534424e+00" cType="1" res="1.5543812513351440e-01" rms="3.7596505880355835e-01" purity="8.2704508304595947e-01" nType="0">
                  <Node pos="l" depth="6" NCoef="0" IVar="5" Cut="-3.2153425216674805e+00" cType="1" res="1.6256183385848999e-01" rms="3.6241483688354492e-01" purity="8.4292566776275635e-01" nType="0">
                    <Node pos="l" depth="7" NCoef="0" IVar="-1" Cut="0.0000000000000000e+00" cType="1" res="1.5806337818503380e-02" rms="3.3857369422912598e-01" purity="8.6621934175491333e-01" nType="-99"/>
                    <Node pos="r" depth="7" NCoef="0" IVar="-1" Cut="0.0000000000000000e+00" cType="1" res="1.3685860671103001e-02" rms="3.6798697710037231e-01" purity="8.3712804317474365e-01" nType="-99"/>
                  </Node>
                  <Node pos="r" depth="6" NCoef="0" IVar="4" Cut="-4.4726243615150452e-01" cType="1" res="1.3550010323524475e-01" rms="4.1086861491203308e-01" purity="7.8259813785552979e-01" nType="0">
                    <Node pos="l" depth="7" NCoef="0" IVar="-1" Cut="0.0000000000000000e+00" cType="1" res="9.4971023499965668e-03" rms="4.2772296071052551e-01" purity="7.5652951002120972e-01" nType="-99"/>
                    <Node pos="r" depth="7" NCoef="0" IVar="-1" Cut="0.0000000000000000e+00" cType="1" res="1.2721105478703976e-02" rms="3.9947298169136047e-01" purity="7.9906237125396729e-01" nType="-99"/>
                  </Node>
                </Node>
              </Node>
              <Node pos="r" depth="4" NCoef="0" IVar="4" Cut="-9.2067056894302368e-01" cType="1" res="1.0751096159219742e-01" rms="4.2268231511116028e-01" purity="7.6013958454132080e-01" nType="0">
                <Node pos="l" depth="5" NCoef="0" IVar="4" Cut="-1.5631303787231445e+00" cType="1" res="7.6032117009162903e-02" rms="4.5192998647689819e-01" purity="7.0649409294128418e-01" nType="0">
                  <Node pos="l" depth="6" NCoef="0" IVar="-1" Cut="0.0000000000000000e+00" cType="1" res="6.4734378829598427e-03" rms="4.4642731547355652e-01" purity="7.1823394298553467e-01" nType="-99"/>
                  <Node pos="r" depth="6" NCoef="0" IVar="-1" Cut="0.0000000000000000e+00" cType="1" res="4.5449184253811836e-03" rms="4.5942768454551697e-01" purity="6.8908947706222534e-01" nType="-99"/>
                </Node>
                <Node pos="r" depth="5" NCoef="0" IVar="5" Cut="-2.3221600055694580e+00" cType="1" res="1.1992212384939194e-01" rms="4.0991470217704773e-01" purity="7.8129035234451294e-01" nType="0">
                  <Node pos="l" depth="6" NCoef="0" IVar="5" Cut="-3.2153017520904541e+00" cType="1" res="1.2993973493576050e-01" rms="3.9745190739631653e-01" purity="8.0048745870590210e-01" nType="0">
                    <Node pos="l" depth="7" NCoef="0" IVar="-1" Cut="0.0000000000000000e+00" cType="1" res="1.3083302415907383e-02" rms="3.7439849972724915e-01" purity="8.2862836122512817e-01" nType="-99"/>
                    <Node pos="r" depth="7" NCoef="0" IVar="-1" Cut="0.0000000000000000e+00" cType="1" res="1.0891082696616650e-02" rms="4.0311428904533386e-01" purity="7.9308563470840454e-01" nType="-99"/>
                  </Node>
                  <Node pos="r" depth="6" NCoef="0" IVar="-1" Cut="0.0000000000000000e+00" cType="1" res="7.9177366569638252e-03" rms="4.4107300043106079e-01" purity="7.2874385118484497e-01" nType="-99"/>
                </Node>
              </Node>
            </Node>
            <Node pos="r" depth="3" NCoef="0" IVar="4" Cut="-1.1512858420610428e-01" cType="1" res="5.2794765681028366e-02" rms="4.8104494810104370e-01" purity="6.1504399776458740e-01" nType="0">
              <Node pos="l" depth="4" NCoef="0" IVar="-1" Cut="0.0000000000000000e+00" cType="1" res="3.1257872469723225e-03" rms="4.8575955629348755e-01" purity="6.0708999633789062e-01" nType="-99"/>
              <Node pos="r" depth="4" NCoef="0" IVar="-1" Cut="0.0000000000000000e+00" cType="1" res="5.8442750014364719e-03" rms="4.7541138529777527e-01" purity="6.2364858388900757e-01" nType="-99"/>
            </Node>
          </Node>
          <Node pos="r" depth="2" NCoef="0" IVar="5" Cut="-8.5891050100326538e-01" cType="1" res="5.5820271372795105e-02" rms="4.6883508563041687e-01" purity="6.3253152370452881e-01" nType="0">
            <Node pos="l" depth="3" NCoef="0" IVar="3" Cut="7.5121724605560303e-01" cType="1" res="6.8079985678195953e-02" rms="4.6541738510131836e-01" purity="6.5838402509689331e-01" nType="0">
              <Node pos="l" depth="4" NCoef="0" IVar="1" Cut="2.9554784297943115e-01" cType="1" res="2.0260505378246307e-02" rms="4.9036946892738342e-01" purity="5.5782949924468994e-01" nType="0">
                <Node pos="l" depth="5" NCoef="0" IVar="0" Cut="2.4652667343616486e-01" cType="1" res="4.5274753123521805e-02" rms="4.8737144470214844e-01" purity="5.9316581487655640e-01" nType="0">
                  <Node pos="l" depth="6" NCoef="0" IVar="3" Cut="7.1504741907119751e-01" cType="1" res="6.8626202642917633e-02" rms="4.7904473543167114e-01" purity="6.3938057422637939e-01" nType="0">
                    <Node pos="l" depth="7" NCoef="0" IVar="-1" Cut="0.0000000000000000e+00" cType="1" res="3.8440271746367216e-03" rms="4.8780781030654907e-01" purity="6.0832422971725464e-01" nType="-99"/>
                    <Node pos="r" depth="7" NCoef="0" IVar="-1" Cut="0.0000000000000000e+00" cType="1" res="7.0776143111288548e-03" rms="4.7143411636352539e-01" purity="6.6331392526626587e-01" nType="-99"/>
                  </Node>
                  <Node pos="r" depth="6" NCoef="0" IVar="-1" Cut="0.0000000000000000e+00" cType="1" res="7.9972745152190328e-04" rms="4.9774336814880371e-01" purity="5.2232795953750610e-01" nType="-99"/>
                </Node>
                <Node pos="r" depth="5" NCoef="0" IVar="-1" Cut="0.0000000000000000e+00" cType="1" res="-4.2434660717844963e-03" rms="4.9196499586105347e-01" purity="4.5940032601356506e-01" nType="-99"/>
              </Node>
              <Node pos="r" depth="4" NCoef="0" IVar="5" Cut="-1.7989778518676758e+00" cType="1" res="8.3812855184078217e-02" rms="4.5581474900245667e-01" purity="6.9146692752838135e-01" nType="0">
                <Node pos="l" depth="5" NCoef="0" IVar="1" Cut="7.0806747674942017e-01" cType="1" res="9.4841986894607544e-02" rms="4.4731879234313965e-01" purity="7.1305596828460693e-01" nType="0">
                  <Node pos="l" depth="6" NCoef="0" IVar="0" Cut="2.3268350958824158e-01" cType="1" res="1.0364641249179840e-01" rms="4.4188266992568970e-01" purity="7.2644960880279541e-01" nType="0">
                    <Node pos="l" depth="7" NCoef="0" IVar="-1" Cut="0.0000000000000000e+00" cType="1" res="9.8739406093955040e-03" rms="4.3331280350685120e-01" purity="7.4627572298049927e-01" nType="-99"/>
                    <Node pos="r" depth="7" NCoef="0" IVar="-1" Cut="0.0000000000000000e+00" cType="1" res="3.1541751231998205e-03" rms="4.8505884408950806e-01" purity="6.0648983716964722e-01" nType="-99"/>
                  </Node>
                  <Node pos="r" depth="6" NCoef="0" IVar="-1" Cut="0.0000000000000000e+00" cType="1" res="7.0242333458736539e-04" rms="4.8920482397079468e-01" purity="5.8154886960983276e-01" nType="-99"/>
                </Node>
                <Node pos="r" depth="5" NCoef="0" IVar="4" Cut="-2.4762621521949768e-01" cType="1" res="4.4676523655653000e-02" rms="4.8273274302482605e-01" purity="6.1485934257507324e-01" nType="0">
                  <Node pos="l" depth="6" NCoef="0" IVar="5" Cut="-1.3743982315063477e+00" cType="1" res="5.9843234717845917e-02" rms="4.7810062766075134e-01" purity="6.3492858409881592e-01" nType="0">
                    <Node pos="l" depth="7" NCoef="0" IVar="-1" Cut="0.0000000000000000e+00" cType="1" res="6.0971998609602451e-03" rms="4.7198188304901123e-01" purity="6.5459448099136353e-01" nType="-99"/>
                    <Node pos="r" depth="7" NCoef="0" IVar="-1" Cut="0.0000000000000000e+00" cType="1" res="3.2802075147628784e-03" rms="4.8734876513481140e-01" purity="6.0230213403701782e-01" nType="-99"/>
                  </Node>
                  <Node pos="r" depth="6" NCoef="0" IVar="-1" Cut="0.0000000000000000e+00" cType="1" res="9.9095958285033703e-04" rms="4.9109315872192383e-01" purity="5.7089799642562866e-01" nType="-99"/>
                </Node>
              </Node>
            </Node>
            <Node pos="r" depth="3" NCoef="0" IVar="5" Cut="-2.0487906038761139e-01" cType="1" res="-4.1998475790023804e-02" rms="4.8426756262779236e-01" purity="4.2625817656517029e-01" nType="0">
              <Node pos="l" depth="4" NCoef="0" IVar="-1" Cut="0.0000000000000000e+00" cType="1" res="6.8281602580100298e-04" rms="4.9445241689682007e-01" purity="5.0415825843811035e-01" nType="-99"/>
              <Node pos="r" depth="4" NCoef="0" IVar="-1" Cut="0.0000000000000000e+00" cType="1" res="-1.0880600661039352e-02" rms="4.6047839522361755e-01" purity="3.1642350554466248e-01" nType="-99"/>
            </Node>
          </Node>
        </Node>
      </Node>
    </BinaryTree>
    <BinaryTree type="DecisionTree" boostWeight="1.0000000000000000e+00" itree="22">
      <Node pos="s" depth="0" NCoef="0" IVar="3" Cut="6.6849672794342041e-01" cType="1" res="1.8723916262388229e-02" rms="4.2129671573638916e-01" purity="5.0336998701095581e-01" nType="0">
        <Node pos="l" depth="1" NCoef="0" IVar="3" Cut="5.3913873434066772e-01" cType="1" res="-8.8340334594249725e-02" rms="3.6655059456825256e-01" purity="1.9559165835380554e-01" nType="0">
          <Node pos="l" depth="2" NCoef="0" IVar="6" Cut="1.5687771141529083e-01" cType="1" res="-1.0903140902519226e-01" rms="3.1671023368835449e-01" purity="1.2595818936824799e-01" nType="0">
            <Node pos="l" depth="3" NCoef="0" IVar="4" Cut="1.7312856912612915e+00" cType="1" res="-1.2076835334300995e-01" rms="2.9028874635696411e-01" purity="1.0273219645023346e-01" nType="0">
              <Node pos="l" depth="4" NCoef="0" IVar="3" Cut="4.3499189615249634e-01" cType="1" res="-1.1388184130191803e-01" rms="3.1722828745841980e-01" purity="1.2387932091951370e-01" nType="0">
                <Node pos="l" depth="5" NCoef="0" IVar="4" Cut="-1.6348394155502319e+00" cType="1" res="-1.2408614158630371e-01" rms="2.6174667477607727e-01" purity="7.6330959796905518e-02" nType="0">
                  <Node pos="l" depth="6" NCoef="0" IVar="-1" Cut="0.0000000000000000e+00" cType="1" res="-1.7329186201095581e-02" rms="3.0676603317260742e-01" purity="1.0801082104444504e-01" nType="-99"/>
                  <Node pos="r" depth="6" NCoef="0" IVar="6" Cut="1.3678346574306488e-01" cType="1" res="-1.2789750099182129e-01" rms="2.5468650460243225e-01" purity="7.1966379880905151e-02" nType="0">
                    <Node pos="l" depth="7" NCoef="0" IVar="-1" Cut="0.0000000000000000e+00" cType="1" res="-2.3858850821852684e-02" rms="2.4310369789600372e-01" purity="6.4763776957988739e-02" nType="-99"/>
                    <Node pos="r" depth="7" NCoef="0" IVar="-1" Cut="0.0000000000000000e+00" cType="1" res="-1.6196481883525848e-02" rms="3.2590493559837341e-01" purity="1.2463674694299698e-01" nType="-99"/>
                  </Node>
                </Node>
                <Node pos="r" depth="5" NCoef="0" IVar="7" Cut="4.0000000000000000e+00" cType="1" res="-9.4593919813632965e-02" rms="3.9852562546730042e-01" purity="2.1108958125114441e-01" nType="0">
                  <Node pos="l" depth="6" NCoef="0" IVar="-1" Cut="0.0000000000000000e+00" cType="1" res="-1.7370119690895081e-02" rms="3.5886290669441223e-01" purity="1.5936413407325745e-01" nType="-99"/>
                  <Node pos="r" depth="6" NCoef="0" IVar="2" Cut="2.2508299255371094e+02" cType="1" res="-7.5319916009902954e-02" rms="4.1598755121231079e-01" purity="2.3712185025215149e-01" nType="0">
                    <Node pos="l" depth="7" NCoef="0" IVar="-1" Cut="0.0000000000000000e+00" cType="1" res="-5.7750637643039227e-03" rms="4.2724046111106873e-01" purity="2.5953158736228943e-01" nType="-99"/>
                    <Node pos="r" depth="7" NCoef="0" IVar="-1" Cut="0.0000000000000000e+00" cType="1" res="-1.3407725840806961e-02" rms="3.9427408576011658e-01" purity="2.0127429068088531e-01" nType="-99"/>
                  </Node>
                </Node>
              </Node>
              <Node pos="r" depth="4" NCoef="0" IVar="6" Cut="7.1623004972934723e-02" cType="1" res="-1.4741292595863342e-01" rms="1.4160397648811340e-01" purity="2.0911946892738342e-02" nType="0">
                <Node pos="l" depth="5" NCoef="0" IVar="-1" Cut="0.0000000000000000e+00" cType="1" res="-3.1803775578737259e-02" rms="9.2440918087959290e-02" purity="8.6367260664701462e-03" nType="-99"/>
                <Node pos="r" depth="5" NCoef="0" IVar="2" Cut="2.0605197143554688e+02" cType="1" res="-1.4385922253131866e-01" rms="1.5994562208652496e-01" purity="2.6853745803236961e-02" nType="0">
                  <Node pos="l" depth="6" NCoef="0" IVar="-1" Cut="0.0000000000000000e+00" cType="1" res="-2.7856146916747093e-02" rms="1.8952442705631256e-01" purity="3.8713138550519943e-02" nType="-99"/>
                  <Node pos="r" depth="6" NCoef="0" IVar="-1" Cut="0.0000000000000000e+00" cType="1" res="-2.9150076210498810e-02" rms="1.3963381946086884e-01" purity="2.0018732175230980e-02" nType="-99"/>
                </Node>
              </Node>
            </Node>
            <Node pos="r" depth="3" NCoef="0" IVar="7" Cut="5.0000000000000000e+00" cType="1" res="1.4604873955249786e-01" rms="2.3665279150009155e-01" purity="1.8490250408649445e-01" nType="0">
              <Node pos="l" depth="4" NCoef="0" IVar="4" Cut="-4.0565844625234604e-02" cType="1" res="-4.0071066468954086e-02" rms="4.2123484611511230e-01" purity="2.5738641619682312e-01" nType="0">
                <Node pos="l" depth="5" NCoef="0" IVar="-1" Cut="0.0000000000000000e+00" cType="1" res="-7.5839349301531911e-04" rms="4.6159291267395020e-01" purity="3.2658615708351135e-01" nType="-99"/>
                <Node pos="r" depth="5" NCoef="0" IVar="-1" Cut="0.0000000000000000e+00" cType="1" res="-1.0817314498126507e-02" rms="3.6675393581390381e-01" purity="1.7913828790187836e-01" nType="-99"/>
              </Node>
              <Node pos="r" depth="4" NCoef="0" IVar="3" Cut="3.4777477383613586e-01" cType="1" res="-1.0019990056753159e-01" rms="3.4403511881828308e-01" purity="1.4612857997417450e-01" nType="0">
                <Node pos="l" depth="5" NCoef="0" IVar="6" Cut="2.6895752549171448e-01" cType="1" res="-1.1459621787071228e-01" rms="3.2399466633796692e-01" purity="1.2318478524684906e-01" nType="0">
                  <Node pos="l" depth="6" NCoef="0" IVar="3" Cut="2.1320334076881409e-01" cType="1" res="-1.3416585326194763e-01" rms="2.8811070322990417e-01" purity="9.4179235398769379e-02" nType="0">
                    <Node pos="l" depth="7" NCoef="0" IVar="-1" Cut="0.0000000000000000e+00" cType="1" res="-2.7000561356544495e-02" rms="2.5199484825134277e-01" purity="6.9203190505504608e-02" nType="-99"/>
                    <Node pos="r" depth="7" NCoef="0" IVar="-1" Cut="0.0000000000000000e+00" cType="1" res="-1.8943894654512405e-02" rms="3.0658245086669922e-01" purity="1.0898598283529282e-01" nType="-99"/>
                  </Node>
                  <Node pos="r" depth="6" NCoef="0" IVar="-1" Cut="0.0000000000000000e+00" cType="1" res="-8.3406111225485802e-03" rms="4.0269783139228821e-01" purity="2.0405198633670807e-01" nType="-99"/>
                </Node>
                <Node pos="r" depth="5" NCoef="0" IVar="-1" Cut="0.0000000000000000e+00" cType="1" res="-5.2574397996068001e-03" rms="4.1011369228363037e-01" purity="2.3875598609447479e-01" nType="-99"/>
              </Node>
            </Node>
          </Node>
          <Node pos="r" depth="2" NCoef="0" IVar="4" Cut="1.4352180957794189e+00" cType="1" res="-3.2635219395160675e-02" rms="4.7094026207923889e-01" purity="3.8306084275245667e-01" nType="0">
            <Node pos="l" depth="3" NCoef="0" IVar="0" Cut="3.5398784279823303e-01" cType="1" res="-2.0754821598529816e-02" rms="4.8058423399925232e-01" purity="4.0785890817642212e-01" nType="0">
              <Node pos="l" depth="4" NCoef="0" IVar="0" Cut="1.9411294162273407e-01" cType="1" res="7.6914769597351551e-03" rms="4.9480146169662476e-01" purity="4.8383319377899170e-01" nType="0">
                <Node pos="l" depth="5" NCoef="0" IVar="7" Cut="4.0000000000000000e+00" cType="1" res="2.3588297888636589e-02" rms="4.9133080244064331e-01" purity="5.0747668743133545e-01" nType="0">
                  <Node pos="l" depth="6" NCoef="0" IVar="-1" Cut="0.0000000000000000e+00" cType="1" res="-1.2631190475076437e-04" rms="4.9512314796447754e-01" purity="4.8158764839172363e-01" nType="-99"/>
                  <Node pos="r" depth="6" NCoef="0" IVar="-1" Cut="0.0000000000000000e+00" cType="1" res="4.3903682380914688e-03" rms="4.9439010024070740e-01" purity="5.3541266918182373e-01" nType="-99"/>
                </Node>
                <Node pos="r" depth="5" NCoef="0" IVar="-1" Cut="0.0000000000000000e+00" cType="1" res="-2.0879828371107578e-03" rms="4.9207738041877747e-01" purity="4.4011902809143066e-01" nType="-99"/>
              </Node>
              <Node pos="r" depth="4" NCoef="0" IVar="1" Cut="4.8374661803245544e-01" cType="1" res="-4.7844961285591125e-02" rms="4.6502751111984253e-01" purity="3.3550664782524109e-01" nType="0">
                <Node pos="l" depth="5" NCoef="0" IVar="6" Cut="6.6871099174022675e-02" cType="1" res="-3.3658631145954132e-02" rms="4.7579082846641541e-01" purity="3.6451700329780579e-01" nType="0">
                  <Node pos="l" depth="6" NCoef="0" IVar="-1" Cut="0.0000000000000000e+00" cType="1" res="-5.4855444468557835e-03" rms="4.6796119213104248e-01" purity="3.3848068118095398e-01" nType="-99"/>
                  <Node pos="r" depth="6" NCoef="0" IVar="-1" Cut="0.0000000000000000e+00" cType="1" res="-1.0142178507521749e-03" rms="4.8221215605735779e-01" purity="3.8988372683525085e-01" nType="-99"/>
                </Node>
                <Node pos="r" depth="5" NCoef="0" IVar="-1" Cut="0.0000000000000000e+00" cType="1" res="-1.0377846658229828e-02" rms="4.2489299178123474e-01" purity="2.4115760624408722e-01" nType="-99"/>
              </Node>
            </Node>
            <Node pos="r" depth="3" NCoef="0" IVar="-1" Cut="0.0000000000000000e+00" cType="1" res="-1.6930371522903442e-02" rms="3.5037589073181152e-01" purity="1.5210716426372528e-01" nType="-99"/>
          </Node>
        </Node>
        <Node pos="r" depth="1" NCoef="0" IVar="3" Cut="8.1633347272872925e-01" cType="1" res="8.9293897151947021e-02" rms="4.3975549936294556e-01" purity="7.0623797178268433e-01" nType="0">
          <Node pos="l" depth="2" NCoef="0" IVar="4" Cut="9.1758835315704346e-01" cType="1" res="2.9171086847782135e-02" rms="4.8327180743217468e-01" purity="5.6934583187103271e-01" nType="0">
            <Node pos="l" depth="3" NCoef="0" IVar="1" Cut="2.9554784297943115e-01" cType="1" res="3.9412572979927063e-02" rms="4.8374474048614502e-01" purity="5.8811813592910767e-01" nType="0">
              <Node pos="l" depth="4" NCoef="0" IVar="3" Cut="7.2572362422943115e-01" cType="1" res="5.7414829730987549e-02" rms="4.7968104481697083e-01" purity="6.1759459972381592e-01" nType="0">
                <Node pos="l" depth="5" NCoef="0" IVar="0" Cut="2.4652667343616486e-01" cType="1" res="2.6480356231331825e-02" rms="4.9251121282577515e-01" purity="5.5441671609878540e-01" nType="0">
                  <Node pos="l" depth="6" NCoef="0" IVar="-1" Cut="0.0000000000000000e+00" cType="1" res="3.7834579125046730e-03" rms="4.8785275220870972e-01" purity="5.9806793928146362e-01" nType="-99"/>
                  <Node pos="r" depth="6" NCoef="0" IVar="-1" Cut="0.0000000000000000e+00" cType="1" res="9.9065357062499970e-05" rms="4.9745398759841919e-01" purity="4.9685773253440857e-01" nType="-99"/>
                </Node>
                <Node pos="r" depth="5" NCoef="0" IVar="3" Cut="7.7833586931228638e-01" cType="1" res="7.3485888540744781e-02" rms="4.7207868099212646e-01" purity="6.5041679143905640e-01" nType="0">
                  <Node pos="l" depth="6" NCoef="0" IVar="6" Cut="3.9603382349014282e-02" cType="1" res="5.9655003249645233e-02" rms="4.7877368330955505e-01" purity="6.2795901298522949e-01" nType="0">
                    <Node pos="l" depth="7" NCoef="0" IVar="-1" Cut="0.0000000000000000e+00" cType="1" res="1.7479760572314262e-03" rms="4.8703405261039734e-01" purity="5.9290105104446411e-01" nType="-99"/>
                    <Node pos="r" depth="7" NCoef="0" IVar="-1" Cut="0.0000000000000000e+00" cType="1" res="6.3403528183698654e-03" rms="4.7434505820274353e-01" purity="6.4252114295959473e-01" nType="-99"/>
                  </Node>
                  <Node pos="r" depth="6" NCoef="0" IVar="2" Cut="1.0714538574218750e+02" cType="1" res="9.0546302497386932e-02" rms="4.6311861276626587e-01" purity="6.7811840772628784e-01" nType="0">
                    <Node pos="l" depth="7" NCoef="0" IVar="-1" Cut="0.0000000000000000e+00" cType="1" res="8.0865109339356422e-03" rms="4.5740365982055664e-01" purity="6.9295972585678101e-01" nType="-99"/>
                    <Node pos="r" depth="7" NCoef="0" IVar="-1" Cut="0.0000000000000000e+00" cType="1" res="6.5443362109363079e-03" rms="4.7017365694046021e-01" purity="6.5837812423706055e-01" nType="-99"/>
                  </Node>
                </Node>
              </Node>
              <Node pos="r" depth="4" NCoef="0" IVar="4" Cut="-2.0789349079132080e+00" cType="1" res="-1.1737119406461716e-02" rms="4.9152395129203796e-01" purity="5.0436687469482422e-01" nType="0">
                <Node pos="l" depth="5" NCoef="0" IVar="-1" Cut="0.0000000000000000e+00" cType="1" res="2.9219035059213638e-03" rms="4.8845788836479187e-01" purity="5.7289975881576538e-01" nType="-99"/>
                <Node pos="r" depth="5" NCoef="0" IVar="3" Cut="7.5432515144348145e-01" cType="1" res="-3.2593313604593277e-02" rms="4.9141436815261841e-01" purity="4.7429344058036804e-01" nType="0">
                  <Node pos="l" depth="6" NCoef="0" IVar="-1" Cut="0.0000000000000000e+00" cType="1" res="-5.0239842385053635e-03" rms="4.9003747105598450e-01" purity="4.3381199240684509e-01" nType="-99"/>
                  <Node pos="r" depth="6" NCoef="0" IVar="-1" Cut="0.0000000000000000e+00" cType="1" res="-4.0891412936616689e-05" rms="4.9143302440643311e-01" purity="5.2869808673858643e-01" nType="-99"/>
                </Node>
              </Node>
            </Node>
            <Node pos="r" depth="3" NCoef="0" IVar="-1" Cut="0.0000000000000000e+00" cType="1" res="-9.3002952635288239e-03" rms="4.5858862996101379e-01" purity="3.3568677306175232e-01" nType="-99"/>
          </Node>
          <Node pos="r" depth="2" NCoef="0" IVar="5" Cut="-2.1259143352508545e+00" cType="1" res="1.0990213602781296e-01" rms="4.2184504866600037e-01" purity="7.5316029787063599e-01" nType="0">
            <Node pos="l" depth="3" NCoef="0" IVar="1" Cut="2.2283615544438362e-02" cType="1" res="1.2986753880977631e-01" rms="3.9963686466217041e-01" purity="7.9527652263641357e-01" nType="0">
              <Node pos="l" depth="4" NCoef="0" IVar="3" Cut="8.8164782524108887e-01" cType="1" res="1.4643678069114685e-01" rms="3.8185292482376099e-01" purity="8.1966495513916016e-01" nType="0">
                <Node pos="l" depth="5" NCoef="0" IVar="3" Cut="8.5636752843856812e-01" cType="1" res="1.1567219346761703e-01" rms="4.2437839508056641e-01" purity="7.6195126771926880e-01" nType="0">
                  <Node pos="l" depth="6" NCoef="0" IVar="-1" Cut="0.0000000000000000e+00" cType="1" res="8.1300036981701851e-03" rms="4.3797647953033447e-01" purity="7.3922330141067505e-01" nType="-99"/>
                  <Node pos="r" depth="6" NCoef="0" IVar="-1" Cut="0.0000000000000000e+00" cType="1" res="1.1912831105291843e-02" rms="4.0525498986244202e-01" purity="7.9106271266937256e-01" nType="-99"/>
                </Node>
                <Node pos="r" depth="5" NCoef="0" IVar="5" Cut="-3.0251615047454834e+00" cType="1" res="1.5298710763454437e-01" rms="3.7184309959411621e-01" purity="8.3195322751998901e-01" nType="0">
                  <Node pos="l" depth="6" NCoef="0" IVar="4" Cut="-9.2948472499847412e-01" cType="1" res="1.6610440611839294e-01" rms="3.5136434435844421e-01" purity="8.5359436273574829e-01" nType="0">
                    <Node pos="l" depth="7" NCoef="0" IVar="-1" Cut="0.0000000000000000e+00" cType="1" res="1.2162704020738602e-02" rms="3.8692504167556763e-01" purity="8.1408077478408813e-01" nType="-99"/>
                    <Node pos="r" depth="7" NCoef="0" IVar="-1" Cut="0.0000000000000000e+00" cType="1" res="1.5563664957880974e-02" rms="3.3331951498985291e-01" purity="8.7195467948913574e-01" nType="-99"/>
                  </Node>
                  <Node pos="r" depth="6" NCoef="0" IVar="5" Cut="-2.5900704860687256e+00" cType="1" res="1.4558248221874237e-01" rms="3.8272145390510559e-01" purity="8.1973695755004883e-01" nType="0">
                    <Node pos="l" depth="7" NCoef="0" IVar="-1" Cut="0.0000000000000000e+00" cType="1" res="1.3329220935702324e-02" rms="3.6988997459411621e-01" purity="8.3492374420166016e-01" nType="-99"/>
                    <Node pos="r" depth="7" NCoef="0" IVar="-1" Cut="0.0000000000000000e+00" cType="1" res="1.1291721835732460e-02" rms="3.9964359998703003e-01" purity="7.9835402965545654e-01" nType="-99"/>
                  </Node>
                </Node>
              </Node>
              <Node pos="r" depth="4" NCoef="0" IVar="1" Cut="1.2339510917663574e+00" cType="1" res="1.1334125697612762e-01" rms="4.1596227884292603e-01" purity="7.7095133066177368e-01" nType="0">
                <Node pos="l" depth="5" NCoef="0" IVar="1" Cut="5.6947445869445801e-01" cType="1" res="1.1914779990911484e-01" rms="4.1127225756645203e-01" purity="7.7876025438308716e-01" nType="0">
                  <Node pos="l" depth="6" NCoef="0" IVar="3" Cut="8.7909412384033203e-01" cType="1" res="1.3003867864608765e-01" rms="4.0214946866035461e-01" purity="7.9326874017715454e-01" nType="0">
                    <Node pos="l" depth="7" NCoef="0" IVar="-1" Cut="0.0000000000000000e+00" cType="1" res="8.0055920407176018e-03" rms="4.4420072436332703e-01" purity="7.2681123018264771e-01" nType="-99"/>
                    <Node pos="r" depth="7" NCoef="0" IVar="-1" Cut="0.0000000000000000e+00" cType="1" res="1.1887259781360626e-02" rms="3.9260870218276978e-01" purity="8.0685639381408691e-01" nType="-99"/>
                  </Node>
                  <Node pos="r" depth="6" NCoef="0" IVar="4" Cut="-8.1248295307159424e-01" cType="1" res="6.4384534955024719e-02" rms="4.5040339231491089e-01" purity="7.0580643415451050e-01" nType="0">
                    <Node pos="l" depth="7" NCoef="0" IVar="-1" Cut="0.0000000000000000e+00" cType="1" res="1.9124499522149563e-03" rms="4.7471931576728821e-01" purity="6.4723521471023560e-01" nType="-99"/>
                    <Node pos="r" depth="7" NCoef="0" IVar="-1" Cut="0.0000000000000000e+00" cType="1" res="8.7045738473534584e-03" rms="4.2178890109062195e-01" purity="7.6258438825607300e-01" nType="-99"/>
                  </Node>
                </Node>
                <Node pos="r" depth="5" NCoef="0" IVar="-1" Cut="0.0000000000000000e+00" cType="1" res="3.6118833813816309e-03" rms="4.6279793977737427e-01" purity="6.7760378122329712e-01" nType="-99"/>
              </Node>
            </Node>
            <Node pos="r" depth="3" NCoef="0" IVar="3" Cut="1.0237969160079956e+00" cType="1" res="6.5738745033740997e-02" rms="4.6419382095336914e-01" purity="6.5999948978424072e-01" nType="0">
              <Node pos="l" depth="4" NCoef="0" IVar="5" Cut="-9.3046247959136963e-01" cType="1" res="7.5192600488662720e-02" rms="4.6192798018455505e-01" purity="6.7036980390548706e-01" nType="0">
                <Node pos="l" depth="5" NCoef="0" IVar="3" Cut="8.6319428682327271e-01" cType="1" res="8.8566325604915619e-02" rms="4.5202088356018066e-01" purity="7.0552676916122437e-01" nType="0">
                  <Node pos="l" depth="6" NCoef="0" IVar="-1" Cut="0.0000000000000000e+00" cType="1" res="3.7827668711543083e-03" rms="4.7743326425552368e-01" purity="6.4062184095382690e-01" nType="-99"/>
                  <Node pos="r" depth="6" NCoef="0" IVar="5" Cut="-1.4319908618927002e+00" cType="1" res="9.9133387207984924e-02" rms="4.4479185342788696e-01" purity="7.2181200981140137e-01" nType="0">
                    <Node pos="l" depth="7" NCoef="0" IVar="-1" Cut="0.0000000000000000e+00" cType="1" res="9.2963054776191711e-03" rms="4.3596976995468140e-01" purity="7.3998063802719116e-01" nType="-99"/>
                    <Node pos="r" depth="7" NCoef="0" IVar="-1" Cut="0.0000000000000000e+00" cType="1" res="5.8503826148808002e-03" rms="4.6876209974288940e-01" purity="6.6792374849319458e-01" nType="-99"/>
                  </Node>
                </Node>
                <Node pos="r" depth="5" NCoef="0" IVar="3" Cut="9.8363918066024780e-01" cType="1" res="3.1036688014864922e-02" rms="4.9064511060714722e-01" purity="5.5429250001907349e-01" nType="0">
                  <Node pos="l" depth="6" NCoef="0" IVar="-1" Cut="0.0000000000000000e+00" cType="1" res="-5.0258176634088159e-04" rms="4.9451491236686707e-01" purity="5.0705909729003906e-01" nType="-99"/>
                  <Node pos="r" depth="6" NCoef="0" IVar="-1" Cut="0.0000000000000000e+00" cType="1" res="6.0921125113964081e-03" rms="4.8248684406280518e-01" purity="6.0982596874237061e-01" nType="-99"/>
                </Node>
              </Node>
              <Node pos="r" depth="4" NCoef="0" IVar="-1" Cut="0.0000000000000000e+00" cType="1" res="-4.1783237829804420e-03" rms="4.7615608572959900e-01" purity="5.3635424375534058e-01" nType="-99"/>
            </Node>
          </Node>
        </Node>
      </Node>
    </BinaryTree>
    <BinaryTree type="DecisionTree" boostWeight="1.0000000000000000e+00" itree="23">
      <Node pos="s" depth="0" NCoef="0" IVar="3" Cut="7.7264720201492310e-01" cType="1" res="1.4553662389516830e-02" rms="4.2070978879928589e-01" purity="4.9839708209037781e-01" nType="0">
        <Node pos="l" depth="1" NCoef="0" IVar="3" Cut="5.9821218252182007e-01" cType="1" res="-6.6618993878364563e-02" rms="3.9447823166847229e-01" purity="2.6320800185203552e-01" nType="0">
          <Node pos="l" depth="2" NCoef="0" IVar="5" Cut="-1.2442203760147095e+00" cType="1" res="-9.8266623914241791e-02" rms="3.3782118558883667e-01" purity="1.5265569090843201e-01" nType="0">
            <Node pos="l" depth="3" NCoef="0" IVar="1" Cut="2.8645029664039612e-01" cType="1" res="-8.2985088229179382e-02" rms="3.7367483973503113e-01" purity="1.9370226562023163e-01" nType="0">
              <Node pos="l" depth="4" NCoef="0" IVar="3" Cut="4.0625491738319397e-01" cType="1" res="-5.4656293243169785e-02" rms="4.1287708282470703e-01" purity="2.5086364150047302e-01" nType="0">
                <Node pos="l" depth="5" NCoef="0" IVar="6" Cut="2.2244930267333984e-01" cType="1" res="-8.2859031856060028e-02" rms="3.4784451127052307e-01" purity="1.5146835148334503e-01" nType="0">
                  <Node pos="l" depth="6" NCoef="0" IVar="2" Cut="1.6364755249023438e+02" cType="1" res="-9.6347227692604065e-02" rms="3.1703090667724609e-01" purity="1.1841972172260284e-01" nType="0">
                    <Node pos="l" depth="7" NCoef="0" IVar="-1" Cut="0.0000000000000000e+00" cType="1" res="-1.2721760198473930e-02" rms="3.2950913906097412e-01" purity="1.2769886851310730e-01" nType="-99"/>
                    <Node pos="r" depth="7" NCoef="0" IVar="-1" Cut="0.0000000000000000e+00" cType="1" res="-1.7217328771948814e-02" rms="3.1093752384185791e-01" purity="1.1441603302955627e-01" nType="-99"/>
                  </Node>
                  <Node pos="r" depth="6" NCoef="0" IVar="-1" Cut="0.0000000000000000e+00" cType="1" res="-3.8541315589100122e-03" rms="4.4045886397361755e-01" purity="2.7439233660697937e-01" nType="-99"/>
                </Node>
                <Node pos="r" depth="5" NCoef="0" IVar="0" Cut="7.0797586441040039e-01" cType="1" res="-3.2326333224773407e-02" rms="4.5662796497344971e-01" purity="3.2956138253211975e-01" nType="0">
                  <Node pos="l" depth="6" NCoef="0" IVar="7" Cut="5.0000000000000000e+00" cType="1" res="7.9370997846126556e-03" rms="2.9888492822647095e-01" purity="3.9731284976005554e-01" nType="0">
                    <Node pos="l" depth="7" NCoef="0" IVar="-1" Cut="0.0000000000000000e+00" cType="1" res="-2.2309499327093363e-03" rms="4.8073971271514893e-01" purity="3.8828682899475098e-01" nType="-99"/>
                    <Node pos="r" depth="7" NCoef="0" IVar="-1" Cut="0.0000000000000000e+00" cType="1" res="3.1024734489619732e-03" rms="4.8526352643966675e-01" purity="4.1444373130798340e-01" nType="-99"/>
                  </Node>
                  <Node pos="r" depth="6" NCoef="0" IVar="4" Cut="-2.5898227095603943e-01" cType="1" res="-8.1979513168334961e-02" rms="4.0021100640296936e-01" purity="2.0805877447128296e-01" nType="0">
                    <Node pos="l" depth="7" NCoef="0" IVar="-1" Cut="0.0000000000000000e+00" cType="1" res="-1.3633216731250286e-02" rms="3.8118410110473633e-01" purity="1.8392074108123779e-01" nType="-99"/>
                    <Node pos="r" depth="7" NCoef="0" IVar="-1" Cut="0.0000000000000000e+00" cType="1" res="-6.1120139434933662e-03" rms="4.2026102542877197e-01" purity="2.3754744231700897e-01" nType="-99"/>
                  </Node>
                </Node>
              </Node>
              <Node pos="r" depth="4" NCoef="0" IVar="5" Cut="-3.0998225212097168e+00" cType="1" res="-1.1556664109230042e-01" rms="3.1966358423233032e-01" purity="1.2795974314212799e-01" nType="0">
                <Node pos="l" depth="5" NCoef="0" IVar="3" Cut="3.1389400362968445e-01" cType="1" res="-1.3762538135051727e-01" rms="2.6008367538452148e-01" purity="7.6260298490524292e-02" nType="0">
                  <Node pos="l" depth="6" NCoef="0" IVar="-1" Cut="0.0000000000000000e+00" cType="1" res="-2.3572977632284164e-02" rms="2.3986294865608215e-01" purity="6.5280012786388397e-02" nType="-99"/>
                  <Node pos="r" depth="6" NCoef="0" IVar="-1" Cut="0.0000000000000000e+00" cType="1" res="-2.3466184735298157e-02" rms="2.7728232741355896e-01" purity="8.6778596043586731e-02" nType="-99"/>
                </Node>
                <Node pos="r" depth="5" NCoef="0" IVar="3" Cut="5.0363552570343018e-01" cType="1" res="-1.0901400446891785e-01" rms="3.3504915237426758e-01" purity="1.4331726729869843e-01" nType="0">
                  <Node pos="l" depth="6" NCoef="0" IVar="7" Cut="7.0000000000000000e+00" cType="1" res="-1.1743905395269394e-01" rms="2.9891735315322876e-01" purity="1.0510388016700745e-01" nType="0">
                    <Node pos="l" depth="7" NCoef="0" IVar="-1" Cut="0.0000000000000000e+00" cType="1" res="-1.7598910257220268e-02" rms="3.1777501106262207e-01" purity="1.2034027278423309e-01" nType="-99"/>
                    <Node pos="r" depth="7" NCoef="0" IVar="-1" Cut="0.0000000000000000e+00" cType="1" res="-2.4410914629697800e-02" rms="2.3928426206111908e-01" purity="6.3482016324996948e-02" nType="-99"/>
                  </Node>
                  <Node pos="r" depth="6" NCoef="0" IVar="-1" Cut="0.0000000000000000e+00" cType="1" res="-7.9401591792702675e-03" rms="4.4489473104476929e-01" purity="2.8839898109436035e-01" nType="-99"/>
                </Node>
              </Node>
            </Node>
            <Node pos="r" depth="3" NCoef="0" IVar="4" Cut="1.7312856912612915e+00" cType="1" res="-1.2365428358316422e-01" rms="2.6591461896896362e-01" purity="8.4463834762573242e-02" nType="0">
              <Node pos="l" depth="4" NCoef="0" IVar="3" Cut="3.2810428738594055e-01" cType="1" res="-1.0933534055948257e-01" rms="3.2677963376045227e-01" purity="1.3205051422119141e-01" nType="0">
                <Node pos="l" depth="5" NCoef="0" IVar="2" Cut="3.0001062011718750e+02" cType="1" res="-1.2936981022357941e-01" rms="2.5429591536521912e-01" purity="7.2358921170234680e-02" nType="0">
                  <Node pos="l" depth="6" NCoef="0" IVar="-1" Cut="0.0000000000000000e+00" cType="1" res="-2.2626129910349846e-02" rms="2.4960944056510925e-01" purity="6.9369390606880188e-02" nType="-99"/>
                  <Node pos="r" depth="6" NCoef="0" IVar="-1" Cut="0.0000000000000000e+00" cType="1" res="-2.4205991998314857e-02" rms="2.5776824355125427e-01" purity="7.5113385915756226e-02" nType="-99"/>
                </Node>
                <Node pos="r" depth="5" NCoef="0" IVar="0" Cut="7.3134177923202515e-01" cType="1" res="-9.6942014992237091e-02" rms="3.6391973495483398e-01" purity="1.6897575557231903e-01" nType="0">
                  <Node pos="l" depth="6" NCoef="0" IVar="-1" Cut="0.0000000000000000e+00" cType="1" res="-8.1278281286358833e-03" rms="4.2038378119468689e-01" purity="2.3857466876506805e-01" nType="-99"/>
                  <Node pos="r" depth="6" NCoef="0" IVar="-1" Cut="0.0000000000000000e+00" cType="1" res="-1.9460290670394897e-02" rms="2.9341948032379150e-01" purity="9.8536215722560883e-02" nType="-99"/>
                </Node>
              </Node>
              <Node pos="r" depth="4" NCoef="0" IVar="3" Cut="2.1788333356380463e-01" cType="1" res="-1.3704475760459900e-01" rms="1.9132260978221893e-01" purity="3.9962809532880783e-02" nType="0">
                <Node pos="l" depth="5" NCoef="0" IVar="-1" Cut="0.0000000000000000e+00" cType="1" res="-2.2561395540833473e-02" rms="2.4270832538604736e-01" purity="6.8709775805473328e-02" nType="-99"/>
                <Node pos="r" depth="5" NCoef="0" IVar="3" Cut="4.6317034959793091e-01" cType="1" res="-1.4355865120887756e-01" rms="1.7629985511302948e-01" purity="3.3129196614027023e-02" nType="0">
                  <Node pos="l" depth="6" NCoef="0" IVar="7" Cut="5.0000000000000000e+00" cType="1" res="-1.3809402287006378e-01" rms="1.5607319772243500e-01" purity="2.5712693110108376e-02" nType="0">
                    <Node pos="l" depth="7" NCoef="0" IVar="-1" Cut="0.0000000000000000e+00" cType="1" res="-3.0149608850479126e-02" rms="1.4461618661880493e-01" purity="2.1945200860500336e-02" nType="-99"/>
                    <Node pos="r" depth="7" NCoef="0" IVar="-1" Cut="0.0000000000000000e+00" cType="1" res="-2.7418371289968491e-02" rms="1.6088517010211945e-01" purity="2.7437463402748108e-02" nType="-99"/>
                  </Node>
                  <Node pos="r" depth="6" NCoef="0" IVar="-1" Cut="0.0000000000000000e+00" cType="1" res="-2.4840867146849632e-02" rms="2.3652185499668121e-01" purity="6.1061192303895950e-02" nType="-99"/>
                </Node>
              </Node>
            </Node>
          </Node>
          <Node pos="r" depth="2" NCoef="0" IVar="5" Cut="-6.1032187938690186e-01" cType="1" res="-1.1824971297755837e-03" rms="4.8481670022010803e-01" purity="4.9179241061210632e-01" nType="0">
            <Node pos="l" depth="3" NCoef="0" IVar="1" Cut="6.7113792896270752e-01" cType="1" res="1.1383207514882088e-02" rms="4.8916727304458618e-01" purity="5.1936775445938110e-01" nType="0">
              <Node pos="l" depth="4" NCoef="0" IVar="7" Cut="3.0000000000000000e+00" cType="1" res="2.4765746667981148e-02" rms="4.8934984207153320e-01" purity="5.3942102193832397e-01" nType="0">
                <Node pos="l" depth="5" NCoef="0" IVar="0" Cut="4.3701633810997009e-01" cType="1" res="-1.1528348550200462e-02" rms="4.9139526486396790e-01" purity="5.0067496299743652e-01" nType="0">
                  <Node pos="l" depth="6" NCoef="0" IVar="3" Cut="7.3891180753707886e-01" cType="1" res="7.0313145406544209e-03" rms="4.9377056956291199e-01" purity="5.5053991079330444e-01" nType="0">
                    <Node pos="l" depth="7" NCoef="0" IVar="-1" Cut="0.0000000000000000e+00" cType="1" res="-6.2892935238778591e-04" rms="4.9656307697296143e-01" purity="5.1935172080993652e-01" nType="-99"/>
                    <Node pos="r" depth="7" NCoef="0" IVar="-1" Cut="0.0000000000000000e+00" cType="1" res="2.0677035208791494e-03" rms="4.8961082100868225e-01" purity="5.8977353572845459e-01" nType="-99"/>
                  </Node>
                  <Node pos="r" depth="6" NCoef="0" IVar="-1" Cut="0.0000000000000000e+00" cType="1" res="-5.1360544748604298e-03" rms="4.8247265815734863e-01" purity="3.7799665331840515e-01" nType="-99"/>
                </Node>
                <Node pos="r" depth="5" NCoef="0" IVar="6" Cut="4.8889368772506714e-02" cType="1" res="3.9629712700843811e-02" rms="4.8855972290039062e-01" purity="5.5690836906433105e-01" nType="0">
                  <Node pos="l" depth="6" NCoef="0" IVar="2" Cut="5.5597171783447266e+01" cType="1" res="1.0495708324015141e-02" rms="4.8919838666915894e-01" purity="5.3387075662612915e-01" nType="0">
                    <Node pos="l" depth="7" NCoef="0" IVar="-1" Cut="0.0000000000000000e+00" cType="1" res="4.2713056318461895e-03" rms="4.8526555299758911e-01" purity="5.8009386062622070e-01" nType="-99"/>
                    <Node pos="r" depth="7" NCoef="0" IVar="-1" Cut="0.0000000000000000e+00" cType="1" res="-1.9822241738438606e-03" rms="4.8997557163238525e-01" purity="4.9652570486068726e-01" nType="-99"/>
                  </Node>
                  <Node pos="r" depth="6" NCoef="0" IVar="2" Cut="2.0185240173339844e+02" cType="1" res="5.5214539170265198e-02" rms="4.8750346899032593e-01" purity="5.6923210620880127e-01" nType="0">
                    <Node pos="l" depth="7" NCoef="0" IVar="-1" Cut="0.0000000000000000e+00" cType="1" res="7.0715998299419880e-03" rms="4.8244297504425049e-01" purity="6.0703468322753906e-01" nType="-99"/>
                    <Node pos="r" depth="7" NCoef="0" IVar="-1" Cut="0.0000000000000000e+00" cType="1" res="1.4161011204123497e-03" rms="4.9084922671318054e-01" purity="5.2210158109664917e-01" nType="-99"/>
                  </Node>
                </Node>
              </Node>
              <Node pos="r" depth="4" NCoef="0" IVar="-1" Cut="0.0000000000000000e+00" cType="1" res="-7.6667135581374168e-03" rms="4.7178718447685242e-01" purity="3.6431336402893066e-01" nType="-99"/>
            </Node>
            <Node pos="r" depth="3" NCoef="0" IVar="-1" Cut="0.0000000000000000e+00" cType="1" res="-1.0087260976433754e-02" rms="4.3757498264312744e-01" purity="2.7797019481658936e-01" nType="-99"/>
          </Node>
        </Node>
        <Node pos="r" depth="1" NCoef="0" IVar="0" Cut="6.1459439992904663e-01" cType="1" res="9.6377633512020111e-02" rms="4.3036603927612305e-01" purity="7.3547333478927612e-01" nType="0">
          <Node pos="l" depth="2" NCoef="0" IVar="1" Cut="1.0190397500991821e-01" cType="1" res="1.0261944681406021e-01" rms="4.2726856470108032e-01" purity="7.4432116746902466e-01" nType="0">
            <Node pos="l" depth="3" NCoef="0" IVar="5" Cut="-1.7230957746505737e+00" cType="1" res="1.2274216115474701e-01" rms="4.1195109486579895e-01" purity="7.7261006832122803e-01" nType="0">
              <Node pos="l" depth="4" NCoef="0" IVar="0" Cut="1.7826111614704132e-01" cType="1" res="1.3244892656803131e-01" rms="3.9632654190063477e-01" purity="8.0112117528915405e-01" nType="0">
                <Node pos="l" depth="5" NCoef="0" IVar="4" Cut="-9.6805965900421143e-01" cType="1" res="1.3640464842319489e-01" rms="3.9108690619468689e-01" purity="8.0867844820022583e-01" nType="0">
                  <Node pos="l" depth="6" NCoef="0" IVar="3" Cut="8.4430533647537231e-01" cType="1" res="1.2102439999580383e-01" rms="4.1674587130546570e-01" purity="7.7426290512084961e-01" nType="0">
                    <Node pos="l" depth="7" NCoef="0" IVar="-1" Cut="0.0000000000000000e+00" cType="1" res="7.5533767230808735e-03" rms="4.4626674056053162e-01" purity="7.2508198022842407e-01" nType="-99"/>
                    <Node pos="r" depth="7" NCoef="0" IVar="-1" Cut="0.0000000000000000e+00" cType="1" res="1.0829646140336990e-02" rms="4.0763920545578003e-01" purity="7.8820955753326416e-01" nType="-99"/>
                  </Node>
                  <Node pos="r" depth="6" NCoef="0" IVar="3" Cut="9.8389583826065063e-01" cType="1" res="1.4891129732131958e-01" rms="3.6843565106391907e-01" purity="8.3666390180587769e-01" nType="0">
                    <Node pos="l" depth="7" NCoef="0" IVar="-1" Cut="0.0000000000000000e+00" cType="1" res="1.1211324483156204e-02" rms="4.0071719884872437e-01" purity="7.9770004749298096e-01" nType="-99"/>
                    <Node pos="r" depth="7" NCoef="0" IVar="-1" Cut="0.0000000000000000e+00" cType="1" res="1.3847824186086655e-02" rms="3.5931810736656189e-01" purity="8.4690415859222412e-01" nType="-99"/>
                  </Node>
                </Node>
                <Node pos="r" depth="5" NCoef="0" IVar="-1" Cut="0.0000000000000000e+00" cType="1" res="7.6407943852245808e-03" rms="4.5096725225448608e-01" purity="7.1199399232864380e-01" nType="-99"/>
              </Node>
              <Node pos="r" depth="4" NCoef="0" IVar="5" Cut="-6.2843883037567139e-01" cType="1" res="8.3113968372344971e-02" rms="4.6830213069915771e-01" purity="6.5621262788772583e-01" nType="0">
                <Node pos="l" depth="5" NCoef="0" IVar="4" Cut="-7.5104498863220215e-01" cType="1" res="9.4156347215175629e-02" rms="4.5952573418617249e-01" purity="6.9225209951400757e-01" nType="0">
                  <Node pos="l" depth="6" NCoef="0" IVar="-1" Cut="0.0000000000000000e+00" cType="1" res="6.3872812315821648e-03" rms="4.6666038036346436e-01" purity="6.7512106895446777e-01" nType="-99"/>
                  <Node pos="r" depth="6" NCoef="0" IVar="3" Cut="9.8022627830505371e-01" cType="1" res="1.0544276982545853e-01" rms="4.5385798811912537e-01" purity="7.0489525794982910e-01" nType="0">
                    <Node pos="l" depth="7" NCoef="0" IVar="-1" Cut="0.0000000000000000e+00" cType="1" res="8.1941103562712669e-03" rms="4.6767342090606689e-01" purity="6.7384928464889526e-01" nType="-99"/>
                    <Node pos="r" depth="7" NCoef="0" IVar="-1" Cut="0.0000000000000000e+00" cType="1" res="9.5904553309082985e-03" rms="4.4001069664955139e-01" purity="7.3484933376312256e-01" nType="-99"/>
                  </Node>
                </Node>
                <Node pos="r" depth="5" NCoef="0" IVar="-1" Cut="0.0000000000000000e+00" cType="1" res="4.2481510899960995e-03" rms="4.9261805415153503e-01" purity="5.4611486196517944e-01" nType="-99"/>
              </Node>
            </Node>
            <Node pos="r" depth="3" NCoef="0" IVar="0" Cut="1.9792607054114342e-02" cType="1" res="7.2940587997436523e-02" rms="4.4725796580314636e-01" purity="7.0259803533554077e-01" nType="0">
              <Node pos="l" depth="4" NCoef="0" IVar="3" Cut="9.6422594785690308e-01" cType="1" res="8.4113702178001404e-02" rms="4.4091525673866272e-01" purity="7.2000473737716675e-01" nType="0">
                <Node pos="l" depth="5" NCoef="0" IVar="5" Cut="-1.5457618236541748e+00" cType="1" res="5.1579643040895462e-02" rms="4.6763464808464050e-01" purity="6.5764522552490234e-01" nType="0">
                  <Node pos="l" depth="6" NCoef="0" IVar="3" Cut="8.7768965959548950e-01" cType="1" res="6.2886476516723633e-02" rms="4.6045094728469849e-01" purity="6.8616867065429688e-01" nType="0">
                    <Node pos="l" depth="7" NCoef="0" IVar="-1" Cut="0.0000000000000000e+00" cType="1" res="3.7908661179244518e-03" rms="4.7230762243270874e-01" purity="6.5641176700592041e-01" nType="-99"/>
                    <Node pos="r" depth="7" NCoef="0" IVar="-1" Cut="0.0000000000000000e+00" cType="1" res="8.3673857152462006e-03" rms="4.3802562355995178e-01" purity="7.3684763908386230e-01" nType="-99"/>
                  </Node>
                  <Node pos="r" depth="6" NCoef="0" IVar="-1" Cut="0.0000000000000000e+00" cType="1" res="5.3238787222653627e-04" rms="4.9283191561698914e-01" purity="5.4308807849884033e-01" nType="-99"/>
                </Node>
                <Node pos="r" depth="5" NCoef="0" IVar="5" Cut="-2.2801415920257568e+00" cType="1" res="1.0504458844661713e-01" rms="4.2150828242301941e-01" purity="7.6012390851974487e-01" nType="0">
                  <Node pos="l" depth="6" NCoef="0" IVar="4" Cut="-1.0347961187362671e+00" cType="1" res="0.0000000000000000e+00" rms="0.0000000000000000e+00" purity="7.9155415296554565e-01" nType="0">
                    <Node pos="l" depth="7" NCoef="0" IVar="-1" Cut="0.0000000000000000e+00" cType="1" res="6.0677272267639637e-03" rms="4.4447654485702515e-01" purity="7.2596353292465210e-01" nType="-99"/>
                    <Node pos="r" depth="7" NCoef="0" IVar="-1" Cut="0.0000000000000000e+00" cType="1" res="1.1309608817100525e-02" rms="3.9085045456886292e-01" purity="8.1034409999847412e-01" nType="-99"/>
                  </Node>
                  <Node pos="r" depth="6" NCoef="0" IVar="4" Cut="-2.7120432257652283e-01" cType="1" res="7.6029174029827118e-02" rms="4.5548462867736816e-01" purity="6.9312214851379395e-01" nType="0">
                    <Node pos="l" depth="7" NCoef="0" IVar="-1" Cut="0.0000000000000000e+00" cType="1" res="4.3015833944082260e-03" rms="4.6683052182197571e-01" purity="6.6751402616500854e-01" nType="-99"/>
                    <Node pos="r" depth="7" NCoef="0" IVar="-1" Cut="0.0000000000000000e+00" cType="1" res="8.2671111449599266e-03" rms="4.4434162974357605e-01" purity="7.1574229001998901e-01" nType="-99"/>
                  </Node>
                </Node>
              </Node>
              <Node pos="r" depth="4" NCoef="0" IVar="-1" Cut="0.0000000000000000e+00" cType="1" res="-1.7126780003309250e-03" rms="4.8674571514129639e-01" purity="5.5933135747909546e-01" nType="-99"/>
            </Node>
          </Node>
          <Node pos="r" depth="2" NCoef="0" IVar="-1" Cut="0.0000000000000000e+00" cType="1" res="-1.2918962165713310e-02" rms="4.7781378030776978e-01" purity="3.9633360505104065e-01" nType="-99"/>
        </Node>
      </Node>
    </BinaryTree>
    <BinaryTree type="DecisionTree" boostWeight="1.0000000000000000e+00" itree="24">
      <Node pos="s" depth="0" NCoef="0" IVar="3" Cut="6.7633879184722900e-01" cType="1" res="1.6871199011802673e-02" rms="4.1935601830482483e-01" purity="5.0069576501846313e-01" nType="0">
        <Node pos="l" depth="1" NCoef="0" IVar="3" Cut="5.2372527122497559e-01" cType="1" res="-7.7077046036720276e-02" rms="3.6769393086433411e-01" purity="1.9999834895133972e-01" nType="0">
          <Node pos="l" depth="2" NCoef="0" IVar="6" Cut="1.5685297548770905e-01" cType="1" res="-9.8149292171001434e-02" rms="3.1100335717201233e-01" purity="1.2054728716611862e-01" nType="0">
            <Node pos="l" depth="3" NCoef="0" IVar="4" Cut="1.4770510196685791e+00" cType="1" res="-1.0685756057500839e-01" rms="2.8534188866615295e-01" purity="9.8495207726955414e-02" nType="0">
              <Node pos="l" depth="4" NCoef="0" IVar="3" Cut="4.2248356342315674e-01" cType="1" res="-9.9238768219947815e-02" rms="3.1504797935485840e-01" purity="1.2143528461456299e-01" nType="0">
                <Node pos="l" depth="5" NCoef="0" IVar="2" Cut="1.4687931823730469e+02" cType="1" res="-1.1054595559835434e-01" rms="2.6006597280502319e-01" purity="7.5063005089759827e-02" nType="0">
                  <Node pos="l" depth="6" NCoef="0" IVar="6" Cut="6.5963447093963623e-02" cType="1" res="-9.9069952964782715e-02" rms="2.7325624227523804e-01" purity="8.3615891635417938e-02" nType="0">
                    <Node pos="l" depth="7" NCoef="0" IVar="-1" Cut="0.0000000000000000e+00" cType="1" res="-2.2507473826408386e-02" rms="2.4437366425991058e-01" purity="6.4835354685783386e-02" nType="-99"/>
                    <Node pos="r" depth="7" NCoef="0" IVar="-1" Cut="0.0000000000000000e+00" cType="1" res="-1.5149005688726902e-02" rms="3.0898520350456238e-01" purity="1.1068712174892426e-01" nType="-99"/>
                  </Node>
                  <Node pos="r" depth="6" NCoef="0" IVar="6" Cut="7.6268143951892853e-02" cType="1" res="-1.1802370101213455e-01" rms="2.5081628561019897e-01" purity="6.9489963352680206e-02" nType="0">
                    <Node pos="l" depth="7" NCoef="0" IVar="-1" Cut="0.0000000000000000e+00" cType="1" res="-2.6355253532528877e-02" rms="1.8754377961158752e-01" purity="3.6681372672319412e-02" nType="-99"/>
                    <Node pos="r" depth="7" NCoef="0" IVar="-1" Cut="0.0000000000000000e+00" cType="1" res="-2.0545134320855141e-02" rms="2.6700133085250854e-01" purity="7.9562686383724213e-02" nType="-99"/>
                  </Node>
                </Node>
                <Node pos="r" depth="5" NCoef="0" IVar="1" Cut="2.6176884770393372e-01" cType="1" res="-7.8451059758663177e-02" rms="3.9588072896003723e-01" purity="2.0668846368789673e-01" nType="0">
                  <Node pos="l" depth="6" NCoef="0" IVar="2" Cut="1.6916542053222656e+02" cType="1" res="-5.8809712529182434e-02" rms="4.2146140336990356e-01" purity="2.4364788830280304e-01" nType="0">
                    <Node pos="l" depth="7" NCoef="0" IVar="-1" Cut="0.0000000000000000e+00" cType="1" res="-3.1302645802497864e-03" rms="4.3814706802368164e-01" purity="2.7310559153556824e-01" nType="-99"/>
                    <Node pos="r" depth="7" NCoef="0" IVar="-1" Cut="0.0000000000000000e+00" cType="1" res="-1.0496790520846844e-02" rms="4.0362700819969177e-01" purity="2.1690011024475098e-01" nType="-99"/>
                  </Node>
                  <Node pos="r" depth="6" NCoef="0" IVar="6" Cut="8.1432737410068512e-02" cType="1" res="-1.0386659204959869e-01" rms="3.5849919915199280e-01" purity="1.5886363387107849e-01" nType="0">
                    <Node pos="l" depth="7" NCoef="0" IVar="-1" Cut="0.0000000000000000e+00" cType="1" res="-1.7949711531400681e-02" rms="3.1778404116630554e-01" purity="1.1917314678430557e-01" nType="-99"/>
                    <Node pos="r" depth="7" NCoef="0" IVar="-1" Cut="0.0000000000000000e+00" cType="1" res="-1.0339505039155483e-02" rms="3.9673554897308350e-01" purity="2.0183472335338593e-01" nType="-99"/>
                  </Node>
                </Node>
              </Node>
              <Node pos="r" depth="4" NCoef="0" IVar="2" Cut="1.7545440673828125e+02" cType="1" res="-1.3169449567794800e-01" rms="1.4990581572055817e-01" purity="2.3711482062935829e-02" nType="0">
                <Node pos="l" depth="5" NCoef="0" IVar="6" Cut="6.1350140720605850e-02" cType="1" res="-1.2478426098823547e-01" rms="1.6487394273281097e-01" purity="2.9169060289859772e-02" nType="0">
                  <Node pos="l" depth="6" NCoef="0" IVar="-1" Cut="0.0000000000000000e+00" cType="1" res="-3.0123302713036537e-02" rms="1.2035687267780304e-01" purity="1.5182837843894958e-02" nType="-99"/>
                  <Node pos="r" depth="6" NCoef="0" IVar="-1" Cut="0.0000000000000000e+00" cType="1" res="-2.6101207360625267e-02" rms="1.9476734101772308e-01" purity="4.1203502565622330e-02" nType="-99"/>
                </Node>
                <Node pos="r" depth="5" NCoef="0" IVar="7" Cut="6.0000000000000000e+00" cType="1" res="-1.3765676319599152e-01" rms="1.3514868915081024e-01" purity="1.9080711528658867e-02" nType="0">
                  <Node pos="l" depth="6" NCoef="0" IVar="-1" Cut="0.0000000000000000e+00" cType="1" res="-2.9040167108178139e-02" rms="1.3565987348556519e-01" purity="1.8871534615755081e-02" nType="-99"/>
                  <Node pos="r" depth="6" NCoef="0" IVar="-1" Cut="0.0000000000000000e+00" cType="1" res="-2.8132170438766479e-02" rms="1.3526885211467743e-01" purity="1.9341057166457176e-02" nType="-99"/>
                </Node>
              </Node>
            </Node>
            <Node pos="r" depth="3" NCoef="0" IVar="7" Cut="4.0000000000000000e+00" cType="1" res="1.4009805023670197e-01" rms="0.0000000000000000e+00" purity="1.7560562491416931e-01" nType="0">
              <Node pos="l" depth="4" NCoef="0" IVar="-1" Cut="0.0000000000000000e+00" cType="1" res="-2.7726697735488415e-03" rms="4.3246406316757202e-01" purity="2.7872136235237122e-01" nType="-99"/>
              <Node pos="r" depth="4" NCoef="0" IVar="6" Cut="2.6889330148696899e-01" cType="1" res="-8.7552353739738464e-02" rms="3.4994789958000183e-01" purity="1.5392909944057465e-01" nType="0">
                <Node pos="l" depth="5" NCoef="0" IVar="3" Cut="3.5513857007026672e-01" cType="1" res="-9.9391572177410126e-02" rms="3.3153003454208374e-01" purity="1.3797019422054291e-01" nType="0">
                  <Node pos="l" depth="6" NCoef="0" IVar="3" Cut="2.4100722372531891e-01" cType="1" res="-1.2202731519937515e-01" rms="2.8863152861595154e-01" purity="9.5376521348953247e-02" nType="0">
                    <Node pos="l" depth="7" NCoef="0" IVar="-1" Cut="0.0000000000000000e+00" cType="1" res="-2.5769131258130074e-02" rms="2.5642877817153931e-01" purity="7.2153195738792419e-02" nType="-99"/>
                    <Node pos="r" depth="7" NCoef="0" IVar="-1" Cut="0.0000000000000000e+00" cType="1" res="-1.6955917701125145e-02" rms="3.1227591633796692e-01" purity="1.1518271267414093e-01" nType="-99"/>
                  </Node>
                  <Node pos="r" depth="6" NCoef="0" IVar="-1" Cut="0.0000000000000000e+00" cType="1" res="-6.0006408020853996e-03" rms="4.0779331326484680e-01" purity="2.3429128527641296e-01" nType="-99"/>
                </Node>
                <Node pos="r" depth="5" NCoef="0" IVar="-1" Cut="0.0000000000000000e+00" cType="1" res="-5.4037291556596756e-03" rms="4.1321837902069092e-01" purity="2.1901519596576691e-01" nType="-99"/>
              </Node>
            </Node>
          </Node>
          <Node pos="r" depth="2" NCoef="0" IVar="5" Cut="1.4396150410175323e-01" cType="1" res="-2.9550064355134964e-02" rms="4.6767279505729675e-01" purity="3.7919464707374573e-01" nType="0">
            <Node pos="l" depth="3" NCoef="0" IVar="0" Cut="3.6567077040672302e-01" cType="1" res="-1.8985146656632423e-02" rms="4.7674408555030823e-01" purity="4.0138533711433411e-01" nType="0">
              <Node pos="l" depth="4" NCoef="0" IVar="0" Cut="1.8871518969535828e-01" cType="1" res="1.2960752472281456e-02" rms="4.9321702122688293e-01" purity="4.8356169462203979e-01" nType="0">
                <Node pos="l" depth="5" NCoef="0" IVar="3" Cut="6.0741978883743286e-01" cType="1" res="3.1419634819030762e-02" rms="4.9464377760887146e-01" purity="5.1159000396728516e-01" nType="0">
                  <Node pos="l" depth="6" NCoef="0" IVar="-1" Cut="0.0000000000000000e+00" cType="1" res="4.5469656470231712e-04" rms="4.9427703022956848e-01" purity="4.5554542541503906e-01" nType="-99"/>
                  <Node pos="r" depth="6" NCoef="0" IVar="4" Cut="-7.6036208868026733e-01" cType="1" res="4.9497030675411224e-02" rms="4.9408733844757080e-01" purity="5.5025845766067505e-01" nType="0">
                    <Node pos="l" depth="7" NCoef="0" IVar="-1" Cut="0.0000000000000000e+00" cType="1" res="4.4949245639145374e-03" rms="4.9338084459304810e-01" purity="5.6780654191970825e-01" nType="-99"/>
                    <Node pos="r" depth="7" NCoef="0" IVar="-1" Cut="0.0000000000000000e+00" cType="1" res="3.5261041484773159e-03" rms="4.9465808272361755e-01" purity="5.3335189819335938e-01" nType="-99"/>
                  </Node>
                </Node>
                <Node pos="r" depth="5" NCoef="0" IVar="3" Cut="6.1233514547348022e-01" cType="1" res="-1.7373638227581978e-02" rms="4.8935332894325256e-01" purity="4.3750125169754028e-01" nType="0">
                  <Node pos="l" depth="6" NCoef="0" IVar="-1" Cut="0.0000000000000000e+00" cType="1" res="-3.3145772758871317e-03" rms="4.8431736230850220e-01" purity="4.0265569090843201e-01" nType="-99"/>
                  <Node pos="r" depth="6" NCoef="0" IVar="-1" Cut="0.0000000000000000e+00" cType="1" res="-1.7683151236269623e-04" rms="4.9321717023849487e-01" purity="4.6810162067413330e-01" nType="-99"/>
                </Node>
              </Node>
              <Node pos="r" depth="4" NCoef="0" IVar="6" Cut="9.2549003660678864e-02" cType="1" res="-5.1329609006643295e-02" rms="4.5719584822654724e-01" purity="3.1818374991416931e-01" nType="0">
                <Node pos="l" depth="5" NCoef="0" IVar="6" Cut="5.4290052503347397e-02" cType="1" res="-6.5803878009319305e-02" rms="4.5070564746856689e-01" purity="3.0241140723228455e-01" nType="0">
                  <Node pos="l" depth="6" NCoef="0" IVar="3" Cut="5.9760385751724243e-01" cType="1" res="-9.5319673418998718e-02" rms="4.3589556217193604e-01" purity="2.7061530947685242e-01" nType="0">
                    <Node pos="l" depth="7" NCoef="0" IVar="-1" Cut="0.0000000000000000e+00" cType="1" res="-1.1949501000344753e-02" rms="4.1638860106468201e-01" purity="2.3335003852844238e-01" nType="-99"/>
                    <Node pos="r" depth="7" NCoef="0" IVar="-1" Cut="0.0000000000000000e+00" cType="1" res="-8.2228295505046844e-03" rms="4.5445966720581055e-01" purity="3.0844828486442566e-01" nType="-99"/>
                  </Node>
                  <Node pos="r" depth="6" NCoef="0" IVar="2" Cut="1.7894343566894531e+02" cType="1" res="-3.8850117474794388e-02" rms="4.6217355132102966e-01" purity="3.3144754171371460e-01" nType="0">
                    <Node pos="l" depth="7" NCoef="0" IVar="-1" Cut="0.0000000000000000e+00" cType="1" res="-1.0046487441286445e-03" rms="4.7594147920608521e-01" purity="3.7237349152565002e-01" nType="-99"/>
                    <Node pos="r" depth="7" NCoef="0" IVar="-1" Cut="0.0000000000000000e+00" cType="1" res="-7.2178728878498077e-03" rms="4.4525894522666931e-01" purity="2.8831890225410461e-01" nType="-99"/>
                  </Node>
                </Node>
                <Node pos="r" depth="5" NCoef="0" IVar="-1" Cut="0.0000000000000000e+00" cType="1" res="-9.2058960581198335e-04" rms="4.7297516465187073e-01" purity="3.6377844214439392e-01" nType="-99"/>
              </Node>
            </Node>
            <Node pos="r" depth="3" NCoef="0" IVar="-1" Cut="0.0000000000000000e+00" cType="1" res="-1.9160028547048569e-02" rms="3.2401457428932190e-01" purity="1.2564824521541595e-01" nType="-99"/>
          </Node>
        </Node>
        <Node pos="r" depth="1" NCoef="0" IVar="0" Cut="7.9670566320419312e-01" cType="1" res="8.0970868468284607e-02" rms="4.3985325098037720e-01" purity="7.0585769414901733e-01" nType="0">
          <Node pos="l" depth="2" NCoef="0" IVar="0" Cut="2.5684410706162453e-02" cType="1" res="8.6392082273960114e-02" rms="4.3787342309951782e-01" purity="7.1362054347991943e-01" nType="0">
            <Node pos="l" depth="3" NCoef="0" IVar="5" Cut="-1.0067622661590576e+00" cType="1" res="1.0090392827987671e-01" rms="4.2707300186157227e-01" purity="7.4303412437438965e-01" nType="0">
              <Node pos="l" depth="4" NCoef="0" IVar="1" Cut="9.2764824628829956e-01" cType="1" res="1.0829376429319382e-01" rms="4.2007350921630859e-01" purity="7.6169294118881226e-01" nType="0">
                <Node pos="l" depth="5" NCoef="0" IVar="3" Cut="9.0063297748565674e-01" cType="1" res="1.1373066902160645e-01" rms="4.1586527228355408e-01" purity="7.6954025030136108e-01" nType="0">
                  <Node pos="l" depth="6" NCoef="0" IVar="3" Cut="7.8488725423812866e-01" cType="1" res="0.0000000000000000e+00" rms="0.0000000000000000e+00" purity="7.0875602960586548e-01" nType="0">
                    <Node pos="l" depth="7" NCoef="0" IVar="-1" Cut="0.0000000000000000e+00" cType="1" res="5.3419037722051144e-03" rms="4.7426050901412964e-01" purity="6.5137171745300293e-01" nType="-99"/>
                    <Node pos="r" depth="7" NCoef="0" IVar="-1" Cut="0.0000000000000000e+00" cType="1" res="8.4107611328363419e-03" rms="4.3925130367279053e-01" purity="7.3376297950744629e-01" nType="-99"/>
                  </Node>
                  <Node pos="r" depth="6" NCoef="0" IVar="1" Cut="3.0169394612312317e-01" cType="1" res="1.2810885906219482e-01" rms="3.9346310496330261e-01" purity="8.0520749092102051e-01" nType="0">
                    <Node pos="l" depth="7" NCoef="0" IVar="-1" Cut="0.0000000000000000e+00" cType="1" res="1.1762509122490883e-02" rms="3.8628309965133667e-01" purity="8.1472742557525635e-01" nType="-99"/>
                    <Node pos="r" depth="7" NCoef="0" IVar="-1" Cut="0.0000000000000000e+00" cType="1" res="8.2955947145819664e-03" rms="4.2351338267326355e-01" purity="7.6165390014648438e-01" nType="-99"/>
                  </Node>
                </Node>
                <Node pos="r" depth="5" NCoef="0" IVar="4" Cut="-7.9984277486801147e-01" cType="1" res="0.0000000000000000e+00" rms="0.0000000000000000e+00" purity="6.3070881366729736e-01" nType="0">
                  <Node pos="l" depth="6" NCoef="0" IVar="-1" Cut="0.0000000000000000e+00" cType="1" res="-2.0403417875058949e-04" rms="4.8823553323745728e-01" purity="5.8989989757537842e-01" nType="-99"/>
                  <Node pos="r" depth="6" NCoef="0" IVar="-1" Cut="0.0000000000000000e+00" cType="1" res="3.4619458019733429e-03" rms="4.6047130227088928e-01" purity="6.7672359943389893e-01" nType="-99"/>
                </Node>
              </Node>
              <Node pos="r" depth="4" NCoef="0" IVar="1" Cut="-7.0408768951892853e-02" cType="1" res="1.8429117277264595e-02" rms="4.9107789993286133e-01" purity="5.3479093313217163e-01" nType="0">
                <Node pos="l" depth="5" NCoef="0" IVar="-1" Cut="0.0000000000000000e+00" cType="1" res="5.1689548417925835e-03" rms="4.8570671677589417e-01" purity="5.8520466089248657e-01" nType="-99"/>
                <Node pos="r" depth="5" NCoef="0" IVar="5" Cut="-5.5405682325363159e-01" cType="1" res="-3.4694762434810400e-03" rms="4.9231904745101929e-01" purity="5.0933063030242920e-01" nType="0">
                  <Node pos="l" depth="6" NCoef="0" IVar="-1" Cut="0.0000000000000000e+00" cType="1" res="1.6395194688811898e-03" rms="4.9105930328369141e-01" purity="5.7324177026748657e-01" nType="-99"/>
                  <Node pos="r" depth="6" NCoef="0" IVar="-1" Cut="0.0000000000000000e+00" cType="1" res="-2.1331743337213993e-03" rms="4.9257609248161316e-01" purity="4.5097669959068298e-01" nType="-99"/>
                </Node>
              </Node>
            </Node>
            <Node pos="r" depth="3" NCoef="0" IVar="5" Cut="-2.1362674236297607e+00" cType="1" res="1.2372749857604504e-02" rms="4.8252344131469727e-01" purity="5.6359326839447021e-01" nType="0">
              <Node pos="l" depth="4" NCoef="0" IVar="1" Cut="3.3702519536018372e-01" cType="1" res="3.8915157318115234e-02" rms="4.7589653730392456e-01" purity="6.1478942632675171e-01" nType="0">
                <Node pos="l" depth="5" NCoef="0" IVar="3" Cut="8.1057399511337280e-01" cType="1" res="6.1777293682098389e-02" rms="4.6914532780647278e-01" purity="6.4733290672302246e-01" nType="0">
                  <Node pos="l" depth="6" NCoef="0" IVar="2" Cut="9.9270736694335938e+01" cType="1" res="4.2768146842718124e-02" rms="4.8957571387290955e-01" purity="5.8507347106933594e-01" nType="0">
                    <Node pos="l" depth="7" NCoef="0" IVar="-1" Cut="0.0000000000000000e+00" cType="1" res="5.8598145842552185e-03" rms="4.8364573717117310e-01" purity="6.1721122264862061e-01" nType="-99"/>
                    <Node pos="r" depth="7" NCoef="0" IVar="-1" Cut="0.0000000000000000e+00" cType="1" res="1.2036391999572515e-03" rms="4.9423214793205261e-01" purity="5.5027329921722412e-01" nType="-99"/>
                  </Node>
                  <Node pos="r" depth="6" NCoef="0" IVar="-1" Cut="0.0000000000000000e+00" cType="1" res="7.9358816146850586e-03" rms="4.3761575222015381e-01" purity="7.3435896635055542e-01" nType="-99"/>
                </Node>
                <Node pos="r" depth="5" NCoef="0" IVar="-1" Cut="0.0000000000000000e+00" cType="1" res="-2.8666250873357058e-03" rms="4.8956069350242615e-01" purity="5.1319533586502075e-01" nType="-99"/>
              </Node>
              <Node pos="r" depth="4" NCoef="0" IVar="4" Cut="-1.3155099749565125e-01" cType="1" res="-2.0738851279020309e-02" rms="4.8864808678627014e-01" purity="4.9972617626190186e-01" nType="0">
                <Node pos="l" depth="5" NCoef="0" IVar="-1" Cut="0.0000000000000000e+00" cType="1" res="1.2303311377763748e-03" rms="4.9128910899162292e-01" purity="5.5719131231307983e-01" nType="-99"/>
                <Node pos="r" depth="5" NCoef="0" IVar="1" Cut="7.8425928950309753e-02" cType="1" res="-5.4270159453153610e-02" rms="4.8373115062713623e-01" purity="4.4451513886451721e-01" nType="0">
                  <Node pos="l" depth="6" NCoef="0" IVar="-1" Cut="0.0000000000000000e+00" cType="1" res="-7.0773932384327054e-04" rms="4.8704946041107178e-01" purity="4.9962201714515686e-01" nType="-99"/>
                  <Node pos="r" depth="6" NCoef="0" IVar="-1" Cut="0.0000000000000000e+00" cType="1" res="-9.7034610807895660e-03" rms="4.7506117820739746e-01" purity="3.8497290015220642e-01" nType="-99"/>
                </Node>
              </Node>
            </Node>
          </Node>
          <Node pos="r" depth="2" NCoef="0" IVar="-1" Cut="0.0000000000000000e+00" cType="1" res="-1.9001230597496033e-02" rms="4.5118606090545654e-01" purity="3.0645948648452759e-01" nType="-99"/>
        </Node>
      </Node>
    </BinaryTree>
    <BinaryTree type="DecisionTree" boostWeight="1.0000000000000000e+00" itree="25">
      <Node pos="s" depth="0" NCoef="0" IVar="3" Cut="7.7264720201492310e-01" cType="1" res="1.6638528555631638e-02" rms="4.1830429434776306e-01" purity="5.0137239694595337e-01" nType="0">
        <Node pos="l" depth="1" NCoef="0" IVar="3" Cut="5.7329463958740234e-01" cType="1" res="-5.8815836906433105e-02" rms="3.9404428005218506e-01" purity="2.6457694172859192e-01" nType="0">
          <Node pos="l" depth="2" NCoef="0" IVar="1" Cut="1.4958879351615906e-01" cType="1" res="-8.9182980358600616e-02" rms="3.2939770817756653e-01" purity="1.4179511368274689e-01" nType="0">
            <Node pos="l" depth="3" NCoef="0" IVar="3" Cut="4.8091831803321838e-01" cType="1" res="-6.5771572291851044e-02" rms="3.7279787659645081e-01" purity="1.9238847494125366e-01" nType="0">
              <Node pos="l" depth="4" NCoef="0" IVar="5" Cut="-1.4630157947540283e+00" cType="1" res="-7.8970491886138916e-02" rms="3.3663034439086914e-01" purity="1.4228197932243347e-01" nType="0">
                <Node pos="l" depth="5" NCoef="0" IVar="6" Cut="1.0765006393194199e-01" cType="1" res="-6.5223932266235352e-02" rms="3.7362021207809448e-01" purity="1.8134211003780365e-01" nType="0">
                  <Node pos="l" depth="6" NCoef="0" IVar="6" Cut="6.9911114871501923e-02" cType="1" res="-8.6144126951694489e-02" rms="3.1848558783531189e-01" purity="1.2116052955389023e-01" nType="0">
                    <Node pos="l" depth="7" NCoef="0" IVar="-1" Cut="0.0000000000000000e+00" cType="1" res="-1.8880665302276611e-02" rms="2.8962627053260803e-01" purity="9.5399051904678345e-02" nType="-99"/>
                    <Node pos="r" depth="7" NCoef="0" IVar="-1" Cut="0.0000000000000000e+00" cType="1" res="-1.0134336538612843e-02" rms="3.4354096651077271e-01" purity="1.4721851050853729e-01" nType="-99"/>
                  </Node>
                  <Node pos="r" depth="6" NCoef="0" IVar="2" Cut="4.3355621337890625e+02" cType="1" res="-5.1507342606782913e-02" rms="4.0513747930526733e-01" purity="2.2080093622207642e-01" nType="0">
                    <Node pos="l" depth="7" NCoef="0" IVar="-1" Cut="0.0000000000000000e+00" cType="1" res="-4.7448338009417057e-03" rms="4.1154181957244873e-01" purity="2.3187798261642456e-01" nType="-99"/>
                    <Node pos="r" depth="7" NCoef="0" IVar="-1" Cut="0.0000000000000000e+00" cType="1" res="-8.9431311935186386e-03" rms="3.9759573340415955e-01" purity="2.0911876857280731e-01" nType="-99"/>
                  </Node>
                </Node>
                <Node pos="r" depth="5" NCoef="0" IVar="3" Cut="2.3306898772716522e-01" cType="1" res="-9.5191642642021179e-02" rms="2.8606367111206055e-01" purity="9.6190407872200012e-02" nType="0">
                  <Node pos="l" depth="6" NCoef="0" IVar="-1" Cut="0.0000000000000000e+00" cType="1" res="-1.2502511031925678e-02" rms="3.2449537515640259e-01" purity="1.2839320302009583e-01" nType="-99"/>
                  <Node pos="r" depth="6" NCoef="0" IVar="0" Cut="7.8631395101547241e-01" cType="1" res="-1.0275941342115402e-01" rms="2.7310845255851746e-01" purity="8.6590848863124847e-02" nType="0">
                    <Node pos="l" depth="7" NCoef="0" IVar="-1" Cut="0.0000000000000000e+00" cType="1" res="-1.1857226490974426e-02" rms="3.4262558817863464e-01" purity="1.4285996556282043e-01" nType="-99"/>
                    <Node pos="r" depth="7" NCoef="0" IVar="-1" Cut="0.0000000000000000e+00" cType="1" res="-2.3523643612861633e-02" rms="2.2030651569366455e-01" purity="5.3230959922075272e-02" nType="-99"/>
                  </Node>
                </Node>
              </Node>
              <Node pos="r" depth="4" NCoef="0" IVar="5" Cut="-1.4643864631652832e+00" cType="1" res="-3.1517114490270615e-02" rms="4.5159974694252014e-01" purity="3.2242724299430847e-01" nType="0">
                <Node pos="l" depth="5" NCoef="0" IVar="6" Cut="9.1828987002372742e-02" cType="1" res="-9.2676803469657898e-03" rms="4.7523453831672668e-01" purity="3.7451657652854919e-01" nType="0">
                  <Node pos="l" depth="6" NCoef="0" IVar="-1" Cut="0.0000000000000000e+00" cType="1" res="-4.1808877140283585e-03" rms="4.5601934194564819e-01" purity="3.2110431790351868e-01" nType="-99"/>
                  <Node pos="r" depth="6" NCoef="0" IVar="-1" Cut="0.0000000000000000e+00" cType="1" res="2.0355777814984322e-03" rms="4.9144929647445679e-01" purity="4.2726781964302063e-01" nType="-99"/>
                </Node>
                <Node pos="r" depth="5" NCoef="0" IVar="-1" Cut="0.0000000000000000e+00" cType="1" res="-8.6238980293273926e-03" rms="3.9978119730949402e-01" purity="2.2395296394824982e-01" nType="-99"/>
              </Node>
            </Node>
            <Node pos="r" depth="3" NCoef="0" IVar="5" Cut="-1.2442203760147095e+00" cType="1" res="-1.0610166192054749e-01" rms="2.9291105270385742e-01" purity="1.0523290187120438e-01" nType="0">
              <Node pos="l" depth="4" NCoef="0" IVar="3" Cut="4.2584118247032166e-01" cType="1" res="-9.7835347056388855e-02" rms="3.2530018687248230e-01" purity="1.3311751186847687e-01" nType="0">
                <Node pos="l" depth="5" NCoef="0" IVar="7" Cut="4.0000000000000000e+00" cType="1" res="0.0000000000000000e+00" rms="0.0000000000000000e+00" purity="8.5480757057666779e-02" nType="0">
                  <Node pos="l" depth="6" NCoef="0" IVar="-1" Cut="0.0000000000000000e+00" cType="1" res="-1.3038615696132183e-02" rms="3.3924192190170288e-01" purity="1.3838659226894379e-01" nType="-99"/>
                  <Node pos="r" depth="6" NCoef="0" IVar="3" Cut="2.6174145936965942e-01" cType="1" res="-1.1366421729326248e-01" rms="2.5755190849304199e-01" purity="7.4635133147239685e-02" nType="0">
                    <Node pos="l" depth="7" NCoef="0" IVar="-1" Cut="0.0000000000000000e+00" cType="1" res="-2.5483494624495506e-02" rms="2.2420793771743774e-01" purity="5.5720839649438858e-02" nType="-99"/>
                    <Node pos="r" depth="7" NCoef="0" IVar="-1" Cut="0.0000000000000000e+00" cType="1" res="-1.8790852278470993e-02" rms="2.8082430362701416e-01" purity="8.9631401002407074e-02" nType="-99"/>
                  </Node>
                </Node>
                <Node pos="r" depth="5" NCoef="0" IVar="6" Cut="1.0237921029329300e-01" cType="1" res="-7.8524872660636902e-02" rms="4.0655985474586487e-01" purity="2.2529488801956177e-01" nType="0">
                  <Node pos="l" depth="6" NCoef="0" IVar="4" Cut="-6.7150789499282837e-01" cType="1" res="-9.6106171607971191e-02" rms="3.7878522276878357e-01" purity="1.8482039868831635e-01" nType="0">
                    <Node pos="l" depth="7" NCoef="0" IVar="-1" Cut="0.0000000000000000e+00" cType="1" res="-1.4695200137794018e-02" rms="3.6550477147102356e-01" purity="1.6724929213523865e-01" nType="-99"/>
                    <Node pos="r" depth="7" NCoef="0" IVar="-1" Cut="0.0000000000000000e+00" cType="1" res="-1.0235135443508625e-02" rms="3.8843333721160889e-01" purity="1.9883804023265839e-01" nType="-99"/>
                  </Node>
                  <Node pos="r" depth="6" NCoef="0" IVar="-1" Cut="0.0000000000000000e+00" cType="1" res="-5.0588897429406643e-03" rms="4.5012885332107544e-01" purity="2.9739519953727722e-01" nType="-99"/>
                </Node>
              </Node>
              <Node pos="r" depth="4" NCoef="0" IVar="4" Cut="1.2140781879425049e+00" cType="1" res="-1.1953120678663254e-01" rms="2.3016397655010223e-01" purity="5.9931278228759766e-02" nType="0">
                <Node pos="l" depth="5" NCoef="0" IVar="7" Cut="5.0000000000000000e+00" cType="1" res="-1.1005844920873642e-01" rms="2.9874801635742188e-01" purity="1.0390461236238480e-01" nType="0">
                  <Node pos="l" depth="6" NCoef="0" IVar="-1" Cut="0.0000000000000000e+00" cType="1" res="-1.3959070667624474e-02" rms="3.5022550821304321e-01" purity="1.4471136033535004e-01" nType="-99"/>
                  <Node pos="r" depth="6" NCoef="0" IVar="-1" Cut="0.0000000000000000e+00" cType="1" res="-2.2591661661863327e-02" rms="2.5143074989318848e-01" purity="7.2687454521656036e-02" nType="-99"/>
                </Node>
                <Node pos="r" depth="5" NCoef="0" IVar="3" Cut="3.5466212034225464e-01" cType="1" res="-1.2488050758838654e-01" rms="1.7983441054821014e-01" purity="3.5012140870094299e-02" nType="0">
                  <Node pos="l" depth="6" NCoef="0" IVar="7" Cut="7.0000000000000000e+00" cType="1" res="-1.1697091907262802e-01" rms="1.7566224932670593e-01" purity="3.3539030700922012e-02" nType="0">
                    <Node pos="l" depth="7" NCoef="0" IVar="-1" Cut="0.0000000000000000e+00" cType="1" res="-2.9399683699011803e-02" rms="1.5322312712669373e-01" purity="2.4638626724481583e-02" nType="-99"/>
                    <Node pos="r" depth="7" NCoef="0" IVar="-1" Cut="0.0000000000000000e+00" cType="1" res="-2.3812389001250267e-02" rms="2.0109936594963074e-01" purity="4.5257400721311569e-02" nType="-99"/>
                  </Node>
                  <Node pos="r" depth="6" NCoef="0" IVar="-1" Cut="0.0000000000000000e+00" cType="1" res="-2.5892585515975952e-02" rms="1.8607208132743835e-01" purity="3.7571102380752563e-02" nType="-99"/>
                </Node>
              </Node>
            </Node>
          </Node>
          <Node pos="r" depth="2" NCoef="0" IVar="5" Cut="3.7987999618053436e-02" cType="1" res="-6.4543914049863815e-03" rms="4.8122793436050415e-01" purity="4.7628709673881531e-01" nType="0">
            <Node pos="l" depth="3" NCoef="0" IVar="0" Cut="4.2297545075416565e-01" cType="1" res="2.3047451395541430e-03" rms="4.8566213250160217e-01" purity="4.9506202340126038e-01" nType="0">
              <Node pos="l" depth="4" NCoef="0" IVar="0" Cut="1.7736937105655670e-01" cType="1" res="1.8037391826510429e-02" rms="4.8933196067810059e-01" purity="5.3733766078948975e-01" nType="0">
                <Node pos="l" depth="5" NCoef="0" IVar="1" Cut="2.4175950884819031e-01" cType="1" res="4.1393142193555832e-02" rms="4.8567315936088562e-01" purity="5.8134031295776367e-01" nType="0">
                  <Node pos="l" depth="6" NCoef="0" IVar="7" Cut="3.0000000000000000e+00" cType="1" res="5.6588627398014069e-02" rms="4.8066303133964539e-01" purity="6.0888630151748657e-01" nType="0">
                    <Node pos="l" depth="7" NCoef="0" IVar="-1" Cut="0.0000000000000000e+00" cType="1" res="2.0510572940111160e-03" rms="4.8820200562477112e-01" purity="5.8470284938812256e-01" nType="-99"/>
                    <Node pos="r" depth="7" NCoef="0" IVar="-1" Cut="0.0000000000000000e+00" cType="1" res="5.5219437927007675e-03" rms="4.7935202717781067e-01" purity="6.1605393886566162e-01" nType="-99"/>
                  </Node>
                  <Node pos="r" depth="6" NCoef="0" IVar="3" Cut="6.9550704956054688e-01" cType="1" res="2.0184495951980352e-03" rms="4.9326112866401672e-01" purity="5.1258867979049683e-01" nType="0">
                    <Node pos="l" depth="7" NCoef="0" IVar="-1" Cut="0.0000000000000000e+00" cType="1" res="-2.0647207275032997e-03" rms="4.9583664536476135e-01" purity="4.5826435089111328e-01" nType="-99"/>
                    <Node pos="r" depth="7" NCoef="0" IVar="-1" Cut="0.0000000000000000e+00" cType="1" res="2.2539449855685234e-03" rms="4.8942658305168152e-01" purity="5.6499242782592773e-01" nType="-99"/>
                  </Node>
                </Node>
                <Node pos="r" depth="5" NCoef="0" IVar="5" Cut="-1.9005374908447266e+00" cType="1" res="-1.4463972300291061e-02" rms="4.9253895878791809e-01" purity="4.7610461711883545e-01" nType="0">
                  <Node pos="l" depth="6" NCoef="0" IVar="0" Cut="2.7257168292999268e-01" cType="1" res="1.2590185506269336e-03" rms="4.9499565362930298e-01" purity="5.0390481948852539e-01" nType="0">
                    <Node pos="l" depth="7" NCoef="0" IVar="-1" Cut="0.0000000000000000e+00" cType="1" res="2.6711171958595514e-03" rms="4.9241024255752563e-01" purity="5.5455338954925537e-01" nType="-99"/>
                    <Node pos="r" depth="7" NCoef="0" IVar="-1" Cut="0.0000000000000000e+00" cType="1" res="-9.1028318274766207e-04" rms="4.9562311172485352e-01" purity="4.8252385854721069e-01" nType="-99"/>
                  </Node>
                  <Node pos="r" depth="6" NCoef="0" IVar="-1" Cut="0.0000000000000000e+00" cType="1" res="-4.0367003530263901e-03" rms="4.8662254214286804e-01" purity="4.2466330528259277e-01" nType="-99"/>
                </Node>
              </Node>
              <Node pos="r" depth="4" NCoef="0" IVar="5" Cut="-1.9012235403060913e+00" cType="1" res="-4.8470728099346161e-02" rms="4.7004559636116028e-01" purity="3.5862171649932861e-01" nType="0">
                <Node pos="l" depth="5" NCoef="0" IVar="5" Cut="-2.8085279464721680e+00" cType="1" res="-2.8832385316491127e-02" rms="4.7648012638092041e-01" purity="3.8457041978836060e-01" nType="0">
                  <Node pos="l" depth="6" NCoef="0" IVar="-1" Cut="0.0000000000000000e+00" cType="1" res="-6.7855054512619972e-03" rms="4.6206566691398621e-01" purity="3.3864444494247437e-01" nType="-99"/>
                  <Node pos="r" depth="6" NCoef="0" IVar="-1" Cut="0.0000000000000000e+00" cType="1" res="1.0970330185955390e-04" rms="4.8460134863853455e-01" purity="4.1830283403396606e-01" nType="-99"/>
                </Node>
                <Node pos="r" depth="5" NCoef="0" IVar="-1" Cut="0.0000000000000000e+00" cType="1" res="-8.3070686087012291e-03" rms="4.5591452717781067e-01" purity="3.1132671236991882e-01" nType="-99"/>
              </Node>
            </Node>
            <Node pos="r" depth="3" NCoef="0" IVar="-1" Cut="0.0000000000000000e+00" cType="1" res="-1.5960423275828362e-02" rms="3.8218316435813904e-01" purity="1.8683567643165588e-01" nType="-99"/>
          </Node>
        </Node>
        <Node pos="r" depth="1" NCoef="0" IVar="5" Cut="-2.1259143352508545e+00" cType="1" res="9.2244535684585571e-02" rms="4.2814084887504578e-01" purity="7.3864388465881348e-01" nType="0">
          <Node pos="l" depth="2" NCoef="0" IVar="1" Cut="4.0915766358375549e-01" cType="1" res="1.1007142066955566e-01" rms="4.0717500448226929e-01" purity="7.8207951784133911e-01" nType="0">
            <Node pos="l" depth="3" NCoef="0" IVar="3" Cut="8.4429115056991577e-01" cType="1" res="1.2085718661546707e-01" rms="3.9652884006500244e-01" purity="7.9908156394958496e-01" nType="0">
              <Node pos="l" depth="4" NCoef="0" IVar="2" Cut="6.5520446777343750e+01" cType="1" res="7.5363561511039734e-02" rms="4.5603951811790466e-01" purity="7.0032161474227905e-01" nType="0">
                <Node pos="l" depth="5" NCoef="0" IVar="-1" Cut="0.0000000000000000e+00" cType="1" res="7.5913239270448685e-03" rms="4.4512543082237244e-01" purity="7.2369754314422607e-01" nType="-99"/>
                <Node pos="r" depth="5" NCoef="0" IVar="4" Cut="-2.0810637474060059e+00" cType="1" res="6.0773599892854691e-02" rms="4.6339100599288940e-01" purity="6.8306565284729004e-01" nType="0">
                  <Node pos="l" depth="6" NCoef="0" IVar="-1" Cut="0.0000000000000000e+00" cType="1" res="3.3461437560617924e-03" rms="4.7009745240211487e-01" purity="6.6609066724777222e-01" nType="-99"/>
                  <Node pos="r" depth="6" NCoef="0" IVar="-1" Cut="0.0000000000000000e+00" cType="1" res="7.3605990037322044e-03" rms="4.5566201210021973e-01" purity="6.9960540533065796e-01" nType="-99"/>
                </Node>
              </Node>
              <Node pos="r" depth="4" NCoef="0" IVar="5" Cut="-3.0251114368438721e+00" cType="1" res="1.2827065587043762e-01" rms="3.8545426726341248e-01" purity="8.1517505645751953e-01" nType="0">
                <Node pos="l" depth="5" NCoef="0" IVar="4" Cut="-8.2632136344909668e-01" cType="1" res="1.4355061948299408e-01" rms="3.6264443397521973e-01" purity="8.4149503707885742e-01" nType="0">
                  <Node pos="l" depth="6" NCoef="0" IVar="4" Cut="-1.4536780118942261e+00" cType="1" res="1.3221178948879242e-01" rms="3.9065191149711609e-01" purity="8.0884534120559692e-01" nType="0">
                    <Node pos="l" depth="7" NCoef="0" IVar="-1" Cut="0.0000000000000000e+00" cType="1" res="1.0382834821939468e-02" rms="4.0159443020820618e-01" purity="7.9448616504669189e-01" nType="-99"/>
                    <Node pos="r" depth="7" NCoef="0" IVar="-1" Cut="0.0000000000000000e+00" cType="1" res="1.2070761993527412e-02" rms="3.7576746940612793e-01" purity="8.2748961448669434e-01" nType="-99"/>
                  </Node>
                  <Node pos="r" depth="6" NCoef="0" IVar="3" Cut="1.0057487487792969e+00" cType="1" res="1.5084414184093475e-01" rms="3.4322613477706909e-01" purity="8.6249643564224243e-01" nType="0">
                    <Node pos="l" depth="7" NCoef="0" IVar="-1" Cut="0.0000000000000000e+00" cType="1" res="1.4063466340303421e-02" rms="3.4639096260070801e-01" purity="8.5942512750625610e-01" nType="-99"/>
                    <Node pos="r" depth="7" NCoef="0" IVar="-1" Cut="0.0000000000000000e+00" cType="1" res="1.4284701086580753e-02" rms="3.3441615104675293e-01" purity="8.7078922986984253e-01" nType="-99"/>
                  </Node>
                </Node>
                <Node pos="r" depth="5" NCoef="0" IVar="5" Cut="-2.5900151729583740e+00" cType="1" res="1.2073294818401337e-01" rms="3.9600604772567749e-01" purity="8.0219125747680664e-01" nType="0">
                  <Node pos="l" depth="6" NCoef="0" IVar="1" Cut="-1.5407180786132812e-01" cType="1" res="1.3027943670749664e-01" rms="3.8486483693122864e-01" purity="8.1699955463409424e-01" nType="0">
                    <Node pos="l" depth="7" NCoef="0" IVar="-1" Cut="0.0000000000000000e+00" cType="1" res="1.0046752169728279e-02" rms="3.9220890402793884e-01" purity="8.0804932117462158e-01" nType="-99"/>
                    <Node pos="r" depth="7" NCoef="0" IVar="-1" Cut="0.0000000000000000e+00" cType="1" res="1.1960502713918686e-02" rms="3.8274323940277100e-01" purity="8.1946879625320435e-01" nType="-99"/>
                  </Node>
                  <Node pos="r" depth="6" NCoef="0" IVar="4" Cut="-3.1077858805656433e-01" cType="1" res="1.0756788402795792e-01" rms="4.1051101684570312e-01" purity="7.8176999092102051e-01" nType="0">
                    <Node pos="l" depth="7" NCoef="0" IVar="-1" Cut="0.0000000000000000e+00" cType="1" res="8.4958244115114212e-03" rms="4.2077326774597168e-01" purity="7.6630890369415283e-01" nType="-99"/>
                    <Node pos="r" depth="7" NCoef="0" IVar="-1" Cut="0.0000000000000000e+00" cType="1" res="1.1755504645407200e-02" rms="3.8762995600700378e-01" purity="8.1377249956130981e-01" nType="-99"/>
                  </Node>
                </Node>
              </Node>
            </Node>
            <Node pos="r" depth="3" NCoef="0" IVar="4" Cut="-3.0805757641792297e-01" cType="1" res="5.8894377201795578e-02" rms="4.5079845190048218e-01" purity="7.0140707492828369e-01" nType="0">
              <Node pos="l" depth="4" NCoef="0" IVar="4" Cut="-2.2208828926086426e+00" cType="1" res="4.2093995958566666e-02" rms="4.6350890398025513e-01" purity="6.7261070013046265e-01" nType="0">
                <Node pos="l" depth="5" NCoef="0" IVar="-1" Cut="0.0000000000000000e+00" cType="1" res="5.0095245242118835e-03" rms="4.6419560909271240e-01" purity="6.7718374729156494e-01" nType="-99"/>
                <Node pos="r" depth="5" NCoef="0" IVar="3" Cut="9.9600428342819214e-01" cType="1" res="3.4357760101556778e-02" rms="4.6299600601196289e-01" purity="6.7061209678649902e-01" nType="0">
                  <Node pos="l" depth="6" NCoef="0" IVar="-1" Cut="0.0000000000000000e+00" cType="1" res="3.9547236519865692e-04" rms="4.7518023848533630e-01" purity="6.2793803215026855e-01" nType="-99"/>
                  <Node pos="r" depth="6" NCoef="0" IVar="-1" Cut="0.0000000000000000e+00" cType="1" res="5.1406342536211014e-03" rms="4.4574922323226929e-01" purity="7.2070026397705078e-01" nType="-99"/>
                </Node>
              </Node>
              <Node pos="r" depth="4" NCoef="0" IVar="-1" Cut="0.0000000000000000e+00" cType="1" res="8.3246706053614616e-03" rms="4.2115700244903564e-01" purity="7.6100724935531616e-01" nType="-99"/>
            </Node>
          </Node>
          <Node pos="r" depth="2" NCoef="0" IVar="2" Cut="1.8824549865722656e+02" cType="1" res="5.5998191237449646e-02" rms="4.6578216552734375e-01" purity="6.5032893419265747e-01" nType="0">
            <Node pos="l" depth="3" NCoef="0" IVar="4" Cut="7.3432523012161255e-01" cType="1" res="6.4616724848747253e-02" rms="4.6294248104095459e-01" purity="6.6430789232254028e-01" nType="0">
              <Node pos="l" depth="4" NCoef="0" IVar="3" Cut="8.7722140550613403e-01" cType="1" res="7.0903889834880829e-02" rms="4.6009734272956848e-01" purity="6.7849719524383545e-01" nType="0">
                <Node pos="l" depth="5" NCoef="0" IVar="6" Cut="4.1815645992755890e-02" cType="1" res="4.6191237866878510e-02" rms="4.7723597288131714e-01" purity="6.2757074832916260e-01" nType="0">
                  <Node pos="l" depth="6" NCoef="0" IVar="3" Cut="8.4011626243591309e-01" cType="1" res="1.8219081684947014e-02" rms="4.8297372460365295e-01" purity="6.0125213861465454e-01" nType="0">
                    <Node pos="l" depth="7" NCoef="0" IVar="-1" Cut="0.0000000000000000e+00" cType="1" res="-1.0671724157873541e-04" rms="4.8798900842666626e-01" purity="5.6790244579315186e-01" nType="-99"/>
                    <Node pos="r" depth="7" NCoef="0" IVar="-1" Cut="0.0000000000000000e+00" cType="1" res="3.0877962708473206e-03" rms="4.7759744524955750e-01" purity="6.3202267885208130e-01" nType="-99"/>
                  </Node>
                  <Node pos="r" depth="6" NCoef="0" IVar="-1" Cut="0.0000000000000000e+00" cType="1" res="6.1208358965814114e-03" rms="4.6858003735542297e-01" purity="6.5756505727767944e-01" nType="-99"/>
                </Node>
                <Node pos="r" depth="5" NCoef="0" IVar="1" Cut="2.4437086284160614e-01" cType="1" res="8.1705883145332336e-02" rms="4.5197793841362000e-01" purity="7.0075732469558716e-01" nType="0">
                  <Node pos="l" depth="6" NCoef="0" IVar="5" Cut="-1.7106387615203857e+00" cType="1" res="1.0029063373804092e-01" rms="4.4203960895538330e-01" purity="7.2495716810226440e-01" nType="0">
                    <Node pos="l" depth="7" NCoef="0" IVar="-1" Cut="0.0000000000000000e+00" cType="1" res="1.0139966383576393e-02" rms="4.1613316535949707e-01" purity="7.7507948875427246e-01" nType="-99"/>
                    <Node pos="r" depth="7" NCoef="0" IVar="-1" Cut="0.0000000000000000e+00" cType="1" res="7.4071674607694149e-03" rms="4.6067509055137634e-01" purity="6.8625992536544800e-01" nType="-99"/>
                  </Node>
                  <Node pos="r" depth="6" NCoef="0" IVar="5" Cut="-1.6670893430709839e+00" cType="1" res="3.2199565321207047e-02" rms="4.7390002012252808e-01" purity="6.3629323244094849e-01" nType="0">
                    <Node pos="l" depth="7" NCoef="0" IVar="-1" Cut="0.0000000000000000e+00" cType="1" res="4.7035450115799904e-03" rms="4.5858174562454224e-01" purity="6.9249725341796875e-01" nType="-99"/>
                    <Node pos="r" depth="7" NCoef="0" IVar="-1" Cut="0.0000000000000000e+00" cType="1" res="1.0349571239203215e-03" rms="4.8556023836135864e-01" purity="5.8887952566146851e-01" nType="-99"/>
                  </Node>
                </Node>
              </Node>
              <Node pos="r" depth="4" NCoef="0" IVar="-1" Cut="0.0000000000000000e+00" cType="1" res="3.5662253503687680e-04" rms="4.8535138368606567e-01" purity="5.2761298418045044e-01" nType="-99"/>
            </Node>
            <Node pos="r" depth="3" NCoef="0" IVar="-1" Cut="0.0000000000000000e+00" cType="1" res="-2.0942520350217819e-03" rms="4.8390716314315796e-01" purity="5.2264839410781860e-01" nType="-99"/>
          </Node>
        </Node>
      </Node>
    </BinaryTree>
    <BinaryTree type="DecisionTree" boostWeight="1.0000000000000000e+00" itree="26">
      <Node pos="s" depth="0" NCoef="0" IVar="3" Cut="7.7113348245620728e-01" cType="1" res="1.4760489575564861e-02" rms="4.1710221767425537e-01" purity="4.9913689494132996e-01" nType="0">
        <Node pos="l" depth="1" NCoef="0" IVar="3" Cut="5.7216840982437134e-01" cType="1" res="-5.7993534952402115e-02" rms="3.9194157719612122e-01" purity="2.6125183701515198e-01" nType="0">
          <Node pos="l" depth="2" NCoef="0" IVar="3" Cut="4.4300255179405212e-01" cType="1" res="-8.6173526942729950e-02" rms="3.2668104767799377e-01" purity="1.3953775167465210e-01" nType="0">
            <Node pos="l" depth="3" NCoef="0" IVar="7" Cut="3.0000000000000000e+00" cType="1" res="3.8670455726474984e-11" rms="1.8839631974697113e-01" purity="9.2924140393733978e-02" nType="0">
              <Node pos="l" depth="4" NCoef="0" IVar="-1" Cut="0.0000000000000000e+00" cType="1" res="-5.1057529635727406e-03" rms="3.7963178753852844e-01" purity="1.9226843118667603e-01" nType="-99"/>
              <Node pos="r" depth="4" NCoef="0" IVar="6" Cut="2.3452319204807281e-01" cType="1" res="-9.9049247801303864e-02" rms="2.7376312017440796e-01" purity="8.8075667619705200e-02" nType="0">
                <Node pos="l" depth="5" NCoef="0" IVar="3" Cut="3.2871344685554504e-01" cType="1" res="-1.0367365181446075e-01" rms="2.5535196065902710e-01" purity="7.5027860701084137e-02" nType="0">
                  <Node pos="l" depth="6" NCoef="0" IVar="7" Cut="5.0000000000000000e+00" cType="1" res="5.7771284133195877e-02" rms="2.3975582420825958e-01" purity="4.8831462860107422e-02" nType="0">
                    <Node pos="l" depth="7" NCoef="0" IVar="-1" Cut="0.0000000000000000e+00" cType="1" res="-1.8799677491188049e-02" rms="2.7297538518905640e-01" purity="8.5164330899715424e-02" nType="-99"/>
                    <Node pos="r" depth="7" NCoef="0" IVar="-1" Cut="0.0000000000000000e+00" cType="1" res="-2.6601331308484077e-02" rms="1.9270242750644684e-01" purity="3.9873752743005753e-02" nType="-99"/>
                  </Node>
                  <Node pos="r" depth="6" NCoef="0" IVar="0" Cut="6.7811501026153564e-01" cType="1" res="-8.9320823550224304e-02" rms="3.0305895209312439e-01" purity="1.0942308604717255e-01" nType="0">
                    <Node pos="l" depth="7" NCoef="0" IVar="-1" Cut="0.0000000000000000e+00" cType="1" res="-6.7308708094060421e-03" rms="3.8645625114440918e-01" purity="1.9729442894458771e-01" nType="-99"/>
                    <Node pos="r" depth="7" NCoef="0" IVar="-1" Cut="0.0000000000000000e+00" cType="1" res="-1.8820649012923241e-02" rms="2.7036774158477783e-01" purity="8.1857658922672272e-02" nType="-99"/>
                  </Node>
                </Node>
                <Node pos="r" depth="5" NCoef="0" IVar="7" Cut="7.0000000000000000e+00" cType="1" res="-6.4406879246234894e-02" rms="3.8278251886367798e-01" purity="1.8576636910438538e-01" nType="0">
                  <Node pos="l" depth="6" NCoef="0" IVar="-1" Cut="0.0000000000000000e+00" cType="1" res="-6.6866241395473480e-03" rms="4.0191698074340820e-01" purity="2.1510440111160278e-01" nType="-99"/>
                  <Node pos="r" depth="6" NCoef="0" IVar="-1" Cut="0.0000000000000000e+00" cType="1" res="-1.1972221545875072e-02" rms="3.6331361532211304e-01" purity="1.5821814537048340e-01" nType="-99"/>
                </Node>
              </Node>
            </Node>
            <Node pos="r" depth="3" NCoef="0" IVar="0" Cut="7.0797586441040039e-01" cType="1" res="-6.4384125173091888e-02" rms="4.1116690635681152e-01" purity="2.4312202632427216e-01" nType="0">
              <Node pos="l" depth="4" NCoef="0" IVar="0" Cut="5.4803162813186646e-01" cType="1" res="-3.9624046534299850e-02" rms="4.4693383574485779e-01" purity="3.0716666579246521e-01" nType="0">
                <Node pos="l" depth="5" NCoef="0" IVar="5" Cut="-2.3680353164672852e+00" cType="1" res="-2.4443916976451874e-02" rms="4.5960688591003418e-01" purity="3.3661246299743652e-01" nType="0">
                  <Node pos="l" depth="6" NCoef="0" IVar="-1" Cut="0.0000000000000000e+00" cType="1" res="1.0646635200828314e-03" rms="4.8507657647132874e-01" purity="4.0727949142456055e-01" nType="-99"/>
                  <Node pos="r" depth="6" NCoef="0" IVar="2" Cut="3.0653689575195312e+02" cType="1" res="-4.3660834431648254e-02" rms="4.4419258832931519e-01" purity="2.9880771040916443e-01" nType="0">
                    <Node pos="l" depth="7" NCoef="0" IVar="-1" Cut="0.0000000000000000e+00" cType="1" res="-2.2641301620751619e-03" rms="4.5632994174957275e-01" purity="3.2731088995933533e-01" nType="-99"/>
                    <Node pos="r" depth="7" NCoef="0" IVar="-1" Cut="0.0000000000000000e+00" cType="1" res="-8.3249118179082870e-03" rms="4.2466452717781067e-01" purity="2.5865796208381653e-01" nType="-99"/>
                  </Node>
                </Node>
                <Node pos="r" depth="5" NCoef="0" IVar="-1" Cut="0.0000000000000000e+00" cType="1" res="-1.0615755803883076e-02" rms="4.0018758177757263e-01" purity="2.1352264285087585e-01" nType="-99"/>
              </Node>
              <Node pos="r" depth="4" NCoef="0" IVar="7" Cut="4.0000000000000000e+00" cType="1" res="-9.8624922335147858e-02" rms="3.5096779465675354e-01" purity="1.5270934998989105e-01" nType="0">
                <Node pos="l" depth="5" NCoef="0" IVar="6" Cut="7.1369498968124390e-02" cType="1" res="-1.1394626647233963e-01" rms="3.4578961133956909e-01" purity="1.4676778018474579e-01" nType="0">
                  <Node pos="l" depth="6" NCoef="0" IVar="-1" Cut="0.0000000000000000e+00" cType="1" res="-1.7205653712153435e-02" rms="3.2977670431137085e-01" purity="1.3094072043895721e-01" nType="-99"/>
                  <Node pos="r" depth="6" NCoef="0" IVar="-1" Cut="0.0000000000000000e+00" cType="1" res="-1.4591527171432972e-02" rms="3.5840952396392822e-01" purity="1.5992282330989838e-01" nType="-99"/>
                </Node>
                <Node pos="r" depth="5" NCoef="0" IVar="-1" Cut="0.0000000000000000e+00" cType="1" res="-1.1355718597769737e-02" rms="3.5768330097198486e-01" purity="1.5978652238845825e-01" nType="-99"/>
              </Node>
            </Node>
          </Node>
          <Node pos="r" depth="2" NCoef="0" IVar="5" Cut="3.7987999618053436e-02" cType="1" res="-9.1412216424942017e-03" rms="4.8078683018684387e-01" purity="4.7225311398506165e-01" nType="0">
            <Node pos="l" depth="3" NCoef="0" IVar="0" Cut="4.2297545075416565e-01" cType="1" res="3.0124434852041304e-04" rms="4.8579418659210205e-01" purity="4.9184408783912659e-01" nType="0">
              <Node pos="l" depth="4" NCoef="0" IVar="0" Cut="2.5923222303390503e-01" cType="1" res="1.7006870359182358e-02" rms="4.9001252651214600e-01" purity="5.3574246168136597e-01" nType="0">
                <Node pos="l" depth="5" NCoef="0" IVar="2" Cut="2.7707589721679688e+02" cType="1" res="3.1587980687618256e-02" rms="4.8836657404899597e-01" purity="5.6755155324935913e-01" nType="0">
                  <Node pos="l" depth="6" NCoef="0" IVar="6" Cut="6.0420792549848557e-02" cType="1" res="4.1684612631797791e-02" rms="4.8661336302757263e-01" purity="5.8410137891769409e-01" nType="0">
                    <Node pos="l" depth="7" NCoef="0" IVar="-1" Cut="0.0000000000000000e+00" cType="1" res="1.6761225415393710e-03" rms="4.8921290040016174e-01" purity="5.7106566429138184e-01" nType="-99"/>
                    <Node pos="r" depth="7" NCoef="0" IVar="-1" Cut="0.0000000000000000e+00" cType="1" res="4.8757726326584816e-03" rms="4.8359015583992004e-01" purity="5.9520757198333740e-01" nType="-99"/>
                  </Node>
                  <Node pos="r" depth="6" NCoef="0" IVar="4" Cut="-1.1937614679336548e+00" cType="1" res="9.0875045862048864e-04" rms="4.9238696694374084e-01" purity="5.1726388931274414e-01" nType="0">
                    <Node pos="l" depth="7" NCoef="0" IVar="-1" Cut="0.0000000000000000e+00" cType="1" res="2.0701375324279070e-03" rms="4.9150344729423523e-01" purity="5.5836182832717896e-01" nType="-99"/>
                    <Node pos="r" depth="7" NCoef="0" IVar="-1" Cut="0.0000000000000000e+00" cType="1" res="-1.9482669886201620e-03" rms="4.9222791194915771e-01" purity="4.7809055447578430e-01" nType="-99"/>
                  </Node>
                </Node>
                <Node pos="r" depth="5" NCoef="0" IVar="5" Cut="-1.9003515243530273e+00" cType="1" res="-1.4429597184062004e-02" rms="4.9207472801208496e-01" purity="4.6716308593750000e-01" nType="0">
                  <Node pos="l" depth="6" NCoef="0" IVar="3" Cut="7.1331787109375000e-01" cType="1" res="2.0402711816132069e-03" rms="4.9429306387901306e-01" purity="4.9514883756637573e-01" nType="0">
                    <Node pos="l" depth="7" NCoef="0" IVar="-1" Cut="0.0000000000000000e+00" cType="1" res="-1.6765090404078364e-03" rms="4.9434274435043335e-01" purity="4.5157420635223389e-01" nType="-99"/>
                    <Node pos="r" depth="7" NCoef="0" IVar="-1" Cut="0.0000000000000000e+00" cType="1" res="2.8418647125363350e-03" rms="4.9249491095542908e-01" purity="5.6290769577026367e-01" nType="-99"/>
                  </Node>
                  <Node pos="r" depth="6" NCoef="0" IVar="-1" Cut="0.0000000000000000e+00" cType="1" res="-4.1838902980089188e-03" rms="4.8621913790702820e-01" purity="4.1337767243385315e-01" nType="-99"/>
                </Node>
              </Node>
              <Node pos="r" depth="4" NCoef="0" IVar="7" Cut="3.0000000000000000e+00" cType="1" res="-5.1616050302982330e-02" rms="4.6681144833564758e-01" purity="3.5010540485382080e-01" nType="0">
                <Node pos="l" depth="5" NCoef="0" IVar="-1" Cut="0.0000000000000000e+00" cType="1" res="-8.2428222522139549e-03" rms="4.5910605788230896e-01" purity="3.2468241453170776e-01" nType="-99"/>
                <Node pos="r" depth="5" NCoef="0" IVar="6" Cut="5.8850016444921494e-02" cType="1" res="-2.7420490980148315e-02" rms="4.7348156571388245e-01" purity="3.7139835953712463e-01" nType="0">
                  <Node pos="l" depth="6" NCoef="0" IVar="-1" Cut="0.0000000000000000e+00" cType="1" res="-5.1297792233526707e-03" rms="4.6704676747322083e-01" purity="3.4514945745468140e-01" nType="-99"/>
                  <Node pos="r" depth="6" NCoef="0" IVar="-1" Cut="0.0000000000000000e+00" cType="1" res="-4.4815518776886165e-04" rms="4.7807231545448303e-01" purity="3.9505141973495483e-01" nType="-99"/>
                </Node>
              </Node>
            </Node>
            <Node pos="r" depth="3" NCoef="0" IVar="-1" Cut="0.0000000000000000e+00" cType="1" res="-1.8400534987449646e-02" rms="3.6191496253013611e-01" purity="1.6262811422348022e-01" nType="-99"/>
          </Node>
        </Node>
        <Node pos="r" depth="1" NCoef="0" IVar="5" Cut="-2.2356259822845459e+00" cType="1" res="8.7591499090194702e-02" rms="4.2865926027297974e-01" purity="7.3727375268936157e-01" nType="0">
          <Node pos="l" depth="2" NCoef="0" IVar="3" Cut="9.8231458663940430e-01" cType="1" res="1.0647770762443542e-01" rms="4.0614977478981018e-01" purity="7.8360277414321899e-01" nType="0">
            <Node pos="l" depth="3" NCoef="0" IVar="3" Cut="8.7332350015640259e-01" cType="1" res="8.6535103619098663e-02" rms="4.3352186679840088e-01" purity="7.3996990919113159e-01" nType="0">
              <Node pos="l" depth="4" NCoef="0" IVar="4" Cut="-2.4812257289886475e+00" cType="1" res="7.2099819779396057e-02" rms="4.5331406593322754e-01" purity="7.0184153318405151e-01" nType="0">
                <Node pos="l" depth="5" NCoef="0" IVar="4" Cut="-2.7533106803894043e+00" cType="1" res="9.0404175221920013e-02" rms="4.4009968638420105e-01" purity="7.3201006650924683e-01" nType="0">
                  <Node pos="l" depth="6" NCoef="0" IVar="-1" Cut="0.0000000000000000e+00" cType="1" res="8.5422741249203682e-03" rms="4.3395760655403137e-01" purity="7.4471616744995117e-01" nType="-99"/>
                  <Node pos="r" depth="6" NCoef="0" IVar="-1" Cut="0.0000000000000000e+00" cType="1" res="7.1083754301071167e-03" rms="4.4615116715431213e-01" purity="7.1912038326263428e-01" nType="-99"/>
                </Node>
                <Node pos="r" depth="5" NCoef="0" IVar="4" Cut="-1.1591423749923706e+00" cType="1" res="6.3134580850601196e-02" rms="4.5938166975975037e-01" purity="6.8706542253494263e-01" nType="0">
                  <Node pos="l" depth="6" NCoef="0" IVar="1" Cut="-5.1660906523466110e-02" cType="1" res="5.2822355180978775e-02" rms="4.6359908580780029e-01" purity="6.7750549316406250e-01" nType="0">
                    <Node pos="l" depth="7" NCoef="0" IVar="-1" Cut="0.0000000000000000e+00" cType="1" res="6.4015942625701427e-03" rms="4.4892010092735291e-01" purity="7.1727997064590454e-01" nType="-99"/>
                    <Node pos="r" depth="7" NCoef="0" IVar="-1" Cut="0.0000000000000000e+00" cType="1" res="3.2871242146939039e-03" rms="4.7140198945999146e-01" purity="6.5429419279098511e-01" nType="-99"/>
                  </Node>
                  <Node pos="r" depth="6" NCoef="0" IVar="-1" Cut="0.0000000000000000e+00" cType="1" res="7.0541417226195335e-03" rms="4.5020103454589844e-01" purity="7.0602804422378540e-01" nType="-99"/>
                </Node>
              </Node>
              <Node pos="r" depth="4" NCoef="0" IVar="1" Cut="4.8276763409376144e-02" cType="1" res="1.0197277367115021e-01" rms="4.1074174642562866e-01" purity="7.8074598312377930e-01" nType="0">
                <Node pos="l" depth="5" NCoef="0" IVar="1" Cut="-1.1999491602182388e-01" cType="1" res="1.2044291943311691e-01" rms="3.9323997497558594e-01" purity="8.0762749910354614e-01" nType="0">
                  <Node pos="l" depth="6" NCoef="0" IVar="-1" Cut="0.0000000000000000e+00" cType="1" res="9.4296382740139961e-03" rms="4.0732645988464355e-01" purity="7.8852450847625732e-01" nType="-99"/>
                  <Node pos="r" depth="6" NCoef="0" IVar="-1" Cut="0.0000000000000000e+00" cType="1" res="1.2260562740266323e-02" rms="3.8444972038269043e-01" purity="8.1867569684982300e-01" nType="-99"/>
                </Node>
                <Node pos="r" depth="5" NCoef="0" IVar="4" Cut="-1.9223521947860718e+00" cType="1" res="7.8172184526920319e-02" rms="4.3108549714088440e-01" purity="7.4610656499862671e-01" nType="0">
                  <Node pos="l" depth="6" NCoef="0" IVar="-1" Cut="0.0000000000000000e+00" cType="1" res="9.2239892110228539e-03" rms="4.2457395792007446e-01" purity="7.5859701633453369e-01" nType="-99"/>
                  <Node pos="r" depth="6" NCoef="0" IVar="-1" Cut="0.0000000000000000e+00" cType="1" res="5.7438672520220280e-03" rms="4.3583387136459351e-01" purity="7.3599815368652344e-01" nType="-99"/>
                </Node>
              </Node>
            </Node>
            <Node pos="r" depth="3" NCoef="0" IVar="1" Cut="7.2112470865249634e-01" cType="1" res="1.2113016098737717e-01" rms="3.8414061069488525e-01" purity="8.1566113233566284e-01" nType="0">
              <Node pos="l" depth="4" NCoef="0" IVar="4" Cut="-1.6914494037628174e+00" cType="1" res="1.2780615687370300e-01" rms="3.7661349773406982e-01" purity="8.2580661773681641e-01" nType="0">
                <Node pos="l" depth="5" NCoef="0" IVar="-1" Cut="0.0000000000000000e+00" cType="1" res="7.7120508067309856e-03" rms="4.1998305916786194e-01" purity="7.6697534322738647e-01" nType="-99"/>
                <Node pos="r" depth="5" NCoef="0" IVar="1" Cut="2.6937502622604370e-01" cType="1" res="1.3206867873668671e-01" rms="3.6925634741783142e-01" purity="8.3492046594619751e-01" nType="0">
                  <Node pos="l" depth="6" NCoef="0" IVar="5" Cut="-3.1313862800598145e+00" cType="1" res="1.3625338673591614e-01" rms="3.6253210902214050e-01" purity="8.4257131814956665e-01" nType="0">
                    <Node pos="l" depth="7" NCoef="0" IVar="-1" Cut="0.0000000000000000e+00" cType="1" res="1.3763344846665859e-02" rms="3.4204038977622986e-01" purity="8.6366927623748779e-01" nType="-99"/>
                    <Node pos="r" depth="7" NCoef="0" IVar="-1" Cut="0.0000000000000000e+00" cType="1" res="1.1864938773214817e-02" rms="3.7021467089653015e-01" purity="8.3422732353210449e-01" nType="-99"/>
                  </Node>
                  <Node pos="r" depth="6" NCoef="0" IVar="4" Cut="-1.8474720418453217e-01" cType="1" res="1.1368256807327271e-01" rms="3.9693221449851990e-01" purity="8.0130565166473389e-01" nType="0">
                    <Node pos="l" depth="7" NCoef="0" IVar="-1" Cut="0.0000000000000000e+00" cType="1" res="8.5545545443892479e-03" rms="4.0818235278129578e-01" purity="7.8575819730758667e-01" nType="-99"/>
                    <Node pos="r" depth="7" NCoef="0" IVar="-1" Cut="0.0000000000000000e+00" cType="1" res="1.1751088313758373e-02" rms="3.8256016373634338e-01" purity="8.1993693113327026e-01" nType="-99"/>
                  </Node>
                </Node>
              </Node>
              <Node pos="r" depth="4" NCoef="0" IVar="-1" Cut="0.0000000000000000e+00" cType="1" res="4.2084641754627228e-03" rms="4.5031780004501343e-01" purity="7.0811063051223755e-01" nType="-99"/>
            </Node>
          </Node>
          <Node pos="r" depth="2" NCoef="0" IVar="5" Cut="-4.0362760424613953e-01" cType="1" res="5.5431153625249863e-02" rms="4.6271535754203796e-01" purity="6.5838253498077393e-01" nType="0">
            <Node pos="l" depth="3" NCoef="0" IVar="2" Cut="1.8824549865722656e+02" cType="1" res="6.4119994640350342e-02" rms="4.5909255743026733e-01" purity="6.8116724491119385e-01" nType="0">
              <Node pos="l" depth="4" NCoef="0" IVar="5" Cut="-1.5855193138122559e+00" cType="1" res="6.8909175693988800e-02" rms="4.5620614290237427e-01" purity="6.8987530469894409e-01" nType="0">
                <Node pos="l" depth="5" NCoef="0" IVar="3" Cut="9.8958009481430054e-01" cType="1" res="8.2843847572803497e-02" rms="4.4081062078475952e-01" purity="7.2756397724151611e-01" nType="0">
                  <Node pos="l" depth="6" NCoef="0" IVar="6" Cut="2.4905640631914139e-02" cType="1" res="6.6524386405944824e-02" rms="4.5594376325607300e-01" purity="6.9673275947570801e-01" nType="0">
                    <Node pos="l" depth="7" NCoef="0" IVar="-1" Cut="0.0000000000000000e+00" cType="1" res="3.8764863274991512e-03" rms="4.5918288826942444e-01" purity="6.8693768978118896e-01" nType="-99"/>
                    <Node pos="r" depth="7" NCoef="0" IVar="-1" Cut="0.0000000000000000e+00" cType="1" res="6.8446937948465347e-03" rms="4.5310869812965393e-01" purity="7.0328205823898315e-01" nType="-99"/>
                  </Node>
                  <Node pos="r" depth="6" NCoef="0" IVar="1" Cut="-5.5044788867235184e-02" cType="1" res="1.0101587325334549e-01" rms="4.2258250713348389e-01" purity="7.6189512014389038e-01" nType="0">
                    <Node pos="l" depth="7" NCoef="0" IVar="-1" Cut="0.0000000000000000e+00" cType="1" res="1.0180769488215446e-02" rms="4.0732833743095398e-01" purity="7.8728944063186646e-01" nType="-99"/>
                    <Node pos="r" depth="7" NCoef="0" IVar="-1" Cut="0.0000000000000000e+00" cType="1" res="7.8984722495079041e-03" rms="4.3056759238243103e-01" purity="7.4780529737472534e-01" nType="-99"/>
                  </Node>
                </Node>
                <Node pos="r" depth="5" NCoef="0" IVar="3" Cut="8.8966923952102661e-01" cType="1" res="4.8871852457523346e-02" rms="4.7676143050193787e-01" purity="6.3568103313446045e-01" nType="0">
                  <Node pos="l" depth="6" NCoef="0" IVar="6" Cut="4.0287435054779053e-02" cType="1" res="3.5415612161159515e-02" rms="4.8652529716491699e-01" purity="5.9790581464767456e-01" nType="0">
                    <Node pos="l" depth="7" NCoef="0" IVar="-1" Cut="0.0000000000000000e+00" cType="1" res="3.8717253482900560e-04" rms="4.9043622612953186e-01" purity="5.6919568777084351e-01" nType="-99"/>
                    <Node pos="r" depth="7" NCoef="0" IVar="-1" Cut="0.0000000000000000e+00" cType="1" res="5.3714010864496231e-03" rms="4.8016259074211121e-01" purity="6.2839674949645996e-01" nType="-99"/>
                  </Node>
                  <Node pos="r" depth="6" NCoef="0" IVar="4" Cut="9.2934124171733856e-02" cType="1" res="5.7032935321331024e-02" rms="4.7055366635322571e-01" purity="6.5859121084213257e-01" nType="0">
                    <Node pos="l" depth="7" NCoef="0" IVar="-1" Cut="0.0000000000000000e+00" cType="1" res="3.8139915559440851e-03" rms="4.7471711039543152e-01" purity="6.4639115333557129e-01" nType="-99"/>
                    <Node pos="r" depth="7" NCoef="0" IVar="-1" Cut="0.0000000000000000e+00" cType="1" res="6.7982850596308708e-03" rms="4.6170803904533386e-01" purity="6.8185561895370483e-01" nType="-99"/>
                  </Node>
                </Node>
              </Node>
              <Node pos="r" depth="4" NCoef="0" IVar="-1" Cut="0.0000000000000000e+00" cType="1" res="1.3022877974435687e-03" rms="4.8524802923202515e-01" purity="5.9083551168441772e-01" nType="-99"/>
            </Node>
            <Node pos="r" depth="3" NCoef="0" IVar="-1" Cut="0.0000000000000000e+00" cType="1" res="-2.4735718034207821e-03" rms="4.8827126622200012e-01" purity="4.4057124853134155e-01" nType="-99"/>
          </Node>
        </Node>
      </Node>
    </BinaryTree>
    <BinaryTree type="DecisionTree" boostWeight="1.0000000000000000e+00" itree="27">
      <Node pos="s" depth="0" NCoef="0" IVar="3" Cut="6.7633879184722900e-01" cType="1" res="1.5234808437526226e-02" rms="4.1607424616813660e-01" purity="4.9980404973030090e-01" nType="0">
        <Node pos="l" depth="1" NCoef="0" IVar="3" Cut="4.8012173175811768e-01" cType="1" res="-6.9280929863452911e-02" rms="3.6407768726348877e-01" purity="1.9591818749904633e-01" nType="0">
          <Node pos="l" depth="2" NCoef="0" IVar="6" Cut="2.4732232093811035e-01" cType="1" res="-8.9607186615467072e-02" rms="2.8918227553367615e-01" purity="1.0085694491863251e-01" nType="0">
            <Node pos="l" depth="3" NCoef="0" IVar="5" Cut="7.1384059265255928e-04" cType="1" res="-9.4353504478931427e-02" rms="2.7539470791816711e-01" purity="9.0082980692386627e-02" nType="0">
              <Node pos="l" depth="4" NCoef="0" IVar="3" Cut="3.2736626267433167e-01" cType="1" res="-8.7368346750736237e-02" rms="3.0282625555992126e-01" purity="1.1031759530305862e-01" nType="0">
                <Node pos="l" depth="5" NCoef="0" IVar="7" Cut="5.0000000000000000e+00" cType="1" res="7.1692541241645813e-02" rms="0.0000000000000000e+00" purity="7.0054620504379272e-02" nType="0">
                  <Node pos="l" depth="6" NCoef="0" IVar="-1" Cut="0.0000000000000000e+00" cType="1" res="-1.0676031000912189e-02" rms="3.3013796806335449e-01" purity="1.3311304152011871e-01" nType="-99"/>
                  <Node pos="r" depth="6" NCoef="0" IVar="2" Cut="2.6965722656250000e+02" cType="1" res="-1.1366336047649384e-01" rms="2.1408638358116150e-01" purity="4.9470171332359314e-02" nType="0">
                    <Node pos="l" depth="7" NCoef="0" IVar="-1" Cut="0.0000000000000000e+00" cType="1" res="-2.4513952434062958e-02" rms="2.1254563331604004e-01" purity="4.8609502613544464e-02" nType="-99"/>
                    <Node pos="r" depth="7" NCoef="0" IVar="-1" Cut="0.0000000000000000e+00" cType="1" res="-2.5150656700134277e-02" rms="2.1535654366016388e-01" purity="5.0488356500864029e-02" nType="-99"/>
                  </Node>
                </Node>
                <Node pos="r" depth="5" NCoef="0" IVar="0" Cut="6.4827060699462891e-01" cType="1" res="-7.6016969978809357e-02" rms="3.4367755055427551e-01" purity="1.4642007648944855e-01" nType="0">
                  <Node pos="l" depth="6" NCoef="0" IVar="2" Cut="3.1785018920898438e+02" cType="1" res="-2.9840227216482162e-02" rms="4.2808502912521362e-01" purity="2.5296801328659058e-01" nType="0">
                    <Node pos="l" depth="7" NCoef="0" IVar="-1" Cut="0.0000000000000000e+00" cType="1" res="-1.1613232782110572e-03" rms="4.3597081303596497e-01" purity="2.6819378137588501e-01" nType="-99"/>
                    <Node pos="r" depth="7" NCoef="0" IVar="-1" Cut="0.0000000000000000e+00" cType="1" res="-6.2230830080807209e-03" rms="4.1901856660842896e-01" purity="2.3770277202129364e-01" nType="-99"/>
                  </Node>
                  <Node pos="r" depth="6" NCoef="0" IVar="1" Cut="4.8456255346536636e-02" cType="1" res="-9.2747963964939117e-02" rms="3.0571058392524719e-01" purity="1.0781508684158325e-01" nType="0">
                    <Node pos="l" depth="7" NCoef="0" IVar="-1" Cut="0.0000000000000000e+00" cType="1" res="-1.1356860399246216e-02" rms="3.4518024325370789e-01" purity="1.4303354918956757e-01" nType="-99"/>
                    <Node pos="r" depth="7" NCoef="0" IVar="-1" Cut="0.0000000000000000e+00" cType="1" res="-1.7952522262930870e-02" rms="2.8669723868370056e-01" purity="9.2727050185203552e-02" nType="-99"/>
                  </Node>
                </Node>
              </Node>
              <Node pos="r" depth="4" NCoef="0" IVar="6" Cut="1.6786527633666992e-01" cType="1" res="-1.1569093167781830e-01" rms="1.6366472840309143e-01" purity="2.8272695839405060e-02" nType="0">
                <Node pos="l" depth="5" NCoef="0" IVar="5" Cut="3.1688983440399170e+00" cType="1" res="-1.1290986835956573e-01" rms="1.4920543134212494e-01" purity="2.3273805156350136e-02" nType="0">
                  <Node pos="l" depth="6" NCoef="0" IVar="5" Cut="1.2278399467468262e+00" cType="1" res="-1.1081361025571823e-01" rms="1.6846625506877899e-01" purity="2.9808327555656433e-02" nType="0">
                    <Node pos="l" depth="7" NCoef="0" IVar="-1" Cut="0.0000000000000000e+00" cType="1" res="-2.6983458548784256e-02" rms="1.7315185070037842e-01" purity="3.1510937958955765e-02" nType="-99"/>
                    <Node pos="r" depth="7" NCoef="0" IVar="-1" Cut="0.0000000000000000e+00" cType="1" res="-2.5707444176077843e-02" rms="1.6293671727180481e-01" purity="2.7934059500694275e-02" nType="-99"/>
                  </Node>
                  <Node pos="r" depth="6" NCoef="0" IVar="-1" Cut="0.0000000000000000e+00" cType="1" res="-3.0864728614687920e-02" rms="8.0483935773372650e-02" purity="6.4594219438731670e-03" nType="-99"/>
                </Node>
                <Node pos="r" depth="5" NCoef="0" IVar="-1" Cut="0.0000000000000000e+00" cType="1" res="-2.5760127231478691e-02" rms="2.0411948859691620e-01" purity="4.4835735112428665e-02" nType="-99"/>
              </Node>
            </Node>
            <Node pos="r" depth="3" NCoef="0" IVar="7" Cut="7.0000000000000000e+00" cType="1" res="-4.0483102202415466e-02" rms="4.0192711353302002e-01" purity="2.1236686408519745e-01" nType="0">
              <Node pos="l" depth="4" NCoef="0" IVar="-1" Cut="0.0000000000000000e+00" cType="1" res="-1.6903177602216601e-03" rms="4.2845097184181213e-01" purity="2.5857782363891602e-01" nType="-99"/>
              <Node pos="r" depth="4" NCoef="0" IVar="-1" Cut="0.0000000000000000e+00" cType="1" res="-1.0469840839505196e-02" rms="3.7205761671066284e-01" purity="1.6692444682121277e-01" nType="-99"/>
            </Node>
          </Node>
          <Node pos="r" depth="2" NCoef="0" IVar="4" Cut="1.3951030969619751e+00" cType="1" res="-3.7647679448127747e-02" rms="4.5502912998199463e-01" purity="3.4385967254638672e-01" nType="0">
            <Node pos="l" depth="3" NCoef="0" IVar="3" Cut="6.3203251361846924e-01" cType="1" res="-2.7439121156930923e-02" rms="4.6848136186599731e-01" purity="3.7186607718467712e-01" nType="0">
              <Node pos="l" depth="4" NCoef="0" IVar="1" Cut="6.4835423231124878e-01" cType="1" res="-4.0851432830095291e-02" rms="4.5995908975601196e-01" purity="3.3819165825843811e-01" nType="0">
                <Node pos="l" depth="5" NCoef="0" IVar="0" Cut="3.5398793220520020e-01" cType="1" res="-2.8599735349416733e-02" rms="4.6865209937095642e-01" purity="3.6037540435791016e-01" nType="0">
                  <Node pos="l" depth="6" NCoef="0" IVar="5" Cut="-2.3247411251068115e+00" cType="1" res="-5.0018872134387493e-03" rms="4.9182125926017761e-01" purity="4.4531512260437012e-01" nType="0">
                    <Node pos="l" depth="7" NCoef="0" IVar="-1" Cut="0.0000000000000000e+00" cType="1" res="1.1625045444816351e-03" rms="4.9699699878692627e-01" purity="4.7853708267211914e-01" nType="-99"/>
                    <Node pos="r" depth="7" NCoef="0" IVar="-1" Cut="0.0000000000000000e+00" cType="1" res="-1.6479140613228083e-03" rms="4.8761621117591858e-01" purity="4.2127722501754761e-01" nType="-99"/>
                  </Node>
                  <Node pos="r" depth="6" NCoef="0" IVar="6" Cut="6.0533761978149414e-02" cType="1" res="-4.4884346425533295e-02" rms="4.5125219225883484e-01" purity="3.0175948143005371e-01" nType="0">
                    <Node pos="l" depth="7" NCoef="0" IVar="-1" Cut="0.0000000000000000e+00" cType="1" res="-7.9903071746230125e-03" rms="4.3532997369766235e-01" purity="2.6570865511894226e-01" nType="-99"/>
                    <Node pos="r" depth="7" NCoef="0" IVar="-1" Cut="0.0000000000000000e+00" cType="1" res="-2.8419694863259792e-03" rms="4.5947873592376709e-01" purity="3.2291311025619507e-01" nType="-99"/>
                  </Node>
                </Node>
                <Node pos="r" depth="5" NCoef="0" IVar="-1" Cut="0.0000000000000000e+00" cType="1" res="-1.2397488579154015e-02" rms="4.0270623564720154e-01" purity="2.1702314913272858e-01" nType="-99"/>
              </Node>
              <Node pos="r" depth="4" NCoef="0" IVar="0" Cut="2.5214844942092896e-01" cType="1" res="1.1183780618011951e-02" rms="4.9015319347381592e-01" purity="4.6883699297904968e-01" nType="0">
                <Node pos="l" depth="5" NCoef="0" IVar="-1" Cut="0.0000000000000000e+00" cType="1" res="2.5118682533502579e-03" rms="4.9558883905410767e-01" purity="5.3661257028579712e-01" nType="-99"/>
                <Node pos="r" depth="5" NCoef="0" IVar="-1" Cut="0.0000000000000000e+00" cType="1" res="-4.4136712676845491e-04" rms="4.8490792512893677e-01" purity="4.1111671924591064e-01" nType="-99"/>
              </Node>
            </Node>
            <Node pos="r" depth="3" NCoef="0" IVar="-1" Cut="0.0000000000000000e+00" cType="1" res="-1.6247553750872612e-02" rms="3.2149615883827209e-01" purity="1.2612809240818024e-01" nType="-99"/>
          </Node>
        </Node>
        <Node pos="r" depth="1" NCoef="0" IVar="0" Cut="7.9670566320419312e-01" cType="1" res="7.2683222591876984e-02" rms="4.3878901004791260e-01" purity="7.0636630058288574e-01" nType="0">
          <Node pos="l" depth="2" NCoef="0" IVar="0" Cut="2.5694627314805984e-02" cType="1" res="7.7389851212501526e-02" rms="4.3704396486282349e-01" purity="7.1374845504760742e-01" nType="0">
            <Node pos="l" depth="3" NCoef="0" IVar="5" Cut="-1.5457618236541748e+00" cType="1" res="9.1316953301429749e-02" rms="4.2598068714141846e-01" purity="7.4390929937362671e-01" nType="0">
              <Node pos="l" depth="4" NCoef="0" IVar="1" Cut="9.9467289447784424e-01" cType="1" res="1.0092534869909286e-01" rms="4.1409060359001160e-01" purity="7.7161163091659546e-01" nType="0">
                <Node pos="l" depth="5" NCoef="0" IVar="3" Cut="9.0059185028076172e-01" cType="1" res="1.0513982921838760e-01" rms="4.1034847497940063e-01" purity="7.7834445238113403e-01" nType="0">
                  <Node pos="l" depth="6" NCoef="0" IVar="1" Cut="3.5944488644599915e-01" cType="1" res="8.1314682960510254e-02" rms="4.4750505685806274e-01" purity="7.1575975418090820e-01" nType="0">
                    <Node pos="l" depth="7" NCoef="0" IVar="-1" Cut="0.0000000000000000e+00" cType="1" res="7.5536998920142651e-03" rms="4.4152069091796875e-01" purity="7.2950941324234009e-01" nType="-99"/>
                    <Node pos="r" depth="7" NCoef="0" IVar="-1" Cut="0.0000000000000000e+00" cType="1" res="3.4161848016083241e-03" rms="4.7684082388877869e-01" purity="6.4083164930343628e-01" nType="-99"/>
                  </Node>
                  <Node pos="r" depth="6" NCoef="0" IVar="1" Cut="3.8057047128677368e-01" cType="1" res="1.1826844513416290e-01" rms="3.8773229718208313e-01" purity="8.1283116340637207e-01" nType="0">
                    <Node pos="l" depth="7" NCoef="0" IVar="-1" Cut="0.0000000000000000e+00" cType="1" res="1.1158142238855362e-02" rms="3.8070496916770935e-01" purity="8.2186138629913330e-01" nType="-99"/>
                    <Node pos="r" depth="7" NCoef="0" IVar="-1" Cut="0.0000000000000000e+00" cType="1" res="6.8456265144050121e-03" rms="4.2790973186492920e-01" purity="7.5543159246444702e-01" nType="-99"/>
                  </Node>
                </Node>
                <Node pos="r" depth="5" NCoef="0" IVar="-1" Cut="0.0000000000000000e+00" cType="1" res="1.7975292867049575e-03" rms="4.7208082675933838e-01" purity="6.4503347873687744e-01" nType="-99"/>
              </Node>
              <Node pos="r" depth="4" NCoef="0" IVar="4" Cut="6.7923766374588013e-01" cType="1" res="4.1473150253295898e-02" rms="4.7990825772285461e-01" purity="6.0020285844802856e-01" nType="0">
                <Node pos="l" depth="5" NCoef="0" IVar="3" Cut="8.1684952974319458e-01" cType="1" res="5.4319266229867935e-02" rms="4.7753560543060303e-01" purity="6.2590134143829346e-01" nType="0">
                  <Node pos="l" depth="6" NCoef="0" IVar="-1" Cut="0.0000000000000000e+00" cType="1" res="2.0869937725365162e-03" rms="4.9069246649742126e-01" purity="5.5323654413223267e-01" nType="-99"/>
                  <Node pos="r" depth="6" NCoef="0" IVar="4" Cut="-1.0433369874954224e+00" cType="1" res="6.4701430499553680e-02" rms="4.7239840030670166e-01" purity="6.5136867761611938e-01" nType="0">
                    <Node pos="l" depth="7" NCoef="0" IVar="-1" Cut="0.0000000000000000e+00" cType="1" res="3.9276760071516037e-03" rms="4.7825425863265991e-01" purity="6.3445109128952026e-01" nType="-99"/>
                    <Node pos="r" depth="7" NCoef="0" IVar="-1" Cut="0.0000000000000000e+00" cType="1" res="6.2440079636871815e-03" rms="4.6888193488121033e-01" purity="6.6064667701721191e-01" nType="-99"/>
                  </Node>
                </Node>
                <Node pos="r" depth="5" NCoef="0" IVar="-1" Cut="0.0000000000000000e+00" cType="1" res="-1.4612667728215456e-03" rms="4.8626279830932617e-01" purity="4.8450142145156860e-01" nType="-99"/>
              </Node>
            </Node>
            <Node pos="r" depth="3" NCoef="0" IVar="4" Cut="-2.3762643337249756e+00" cType="1" res="6.8283234722912312e-03" rms="4.8313564062118530e-01" purity="5.6093889474868774e-01" nType="0">
              <Node pos="l" depth="4" NCoef="0" IVar="-1" Cut="0.0000000000000000e+00" cType="1" res="6.2608481384813786e-03" rms="4.6437308192253113e-01" purity="6.5551853179931641e-01" nType="-99"/>
              <Node pos="r" depth="4" NCoef="0" IVar="4" Cut="5.9328186511993408e-01" cType="1" res="-1.9034873694181442e-03" rms="4.8494985699653625e-01" purity="5.4818207025527954e-01" nType="0">
                <Node pos="l" depth="5" NCoef="0" IVar="7" Cut="2.0000000000000000e+00" cType="1" res="6.6648703068494797e-03" rms="3.3798879384994507e-01" purity="5.6836348772048950e-01" nType="0">
                  <Node pos="l" depth="6" NCoef="0" IVar="-1" Cut="0.0000000000000000e+00" cType="1" res="3.6592083051800728e-03" rms="4.6052920818328857e-01" purity="6.8249899148941040e-01" nType="-99"/>
                  <Node pos="r" depth="6" NCoef="0" IVar="1" Cut="3.3702519536018372e-01" cType="1" res="-2.7265585958957672e-03" rms="4.9270641803741455e-01" purity="5.3686863183975220e-01" nType="0">
                    <Node pos="l" depth="7" NCoef="0" IVar="-1" Cut="0.0000000000000000e+00" cType="1" res="2.0161727443337440e-03" rms="4.9071022868156433e-01" purity="5.7328879833221436e-01" nType="-99"/>
                    <Node pos="r" depth="7" NCoef="0" IVar="-1" Cut="0.0000000000000000e+00" cType="1" res="-7.3359026573598385e-03" rms="4.9054166674613953e-01" purity="4.2537552118301392e-01" nType="-99"/>
                  </Node>
                </Node>
                <Node pos="r" depth="5" NCoef="0" IVar="-1" Cut="0.0000000000000000e+00" cType="1" res="-5.9468005783855915e-03" rms="4.7075498104095459e-01" purity="4.0603384375572205e-01" nType="-99"/>
              </Node>
            </Node>
          </Node>
          <Node pos="r" depth="2" NCoef="0" IVar="-1" Cut="0.0000000000000000e+00" cType="1" res="-1.6134541481733322e-02" rms="4.5924699306488037e-01" purity="3.2202008366584778e-01" nType="-99"/>
        </Node>
      </Node>
    </BinaryTree>
    <BinaryTree type="DecisionTree" boostWeight="1.0000000000000000e+00" itree="28">
      <Node pos="s" depth="0" NCoef="0" IVar="3" Cut="7.7308648824691772e-01" cType="1" res="1.5247912146151066e-02" rms="4.1613799333572388e-01" purity="4.9997654557228088e-01" nType="0">
        <Node pos="l" depth="1" NCoef="0" IVar="3" Cut="6.2360113859176636e-01" cType="1" res="-4.9390293657779694e-02" rms="3.9343163371086121e-01" purity="2.6523125171661377e-01" nType="0">
          <Node pos="l" depth="2" NCoef="0" IVar="1" Cut="1.4958879351615906e-01" cType="1" res="-6.9651797413825989e-02" rms="3.4871631860733032e-01" purity="1.6937127709388733e-01" nType="0">
            <Node pos="l" depth="3" NCoef="0" IVar="5" Cut="7.1384059265255928e-04" cType="1" res="-4.5250117778778076e-02" rms="3.9119783043861389e-01" purity="2.2791767120361328e-01" nType="0">
              <Node pos="l" depth="4" NCoef="0" IVar="3" Cut="4.6323043107986450e-01" cType="1" res="-3.3218935132026672e-02" rms="4.1615942120552063e-01" purity="2.6452422142028809e-01" nType="0">
                <Node pos="l" depth="5" NCoef="0" IVar="6" Cut="1.2521238625049591e-01" cType="1" res="-5.4823763668537140e-02" rms="3.5862159729003906e-01" purity="1.6549113392829895e-01" nType="0">
                  <Node pos="l" depth="6" NCoef="0" IVar="6" Cut="6.9463066756725311e-02" cType="1" res="-8.1120006740093231e-02" rms="2.9774394631385803e-01" purity="1.0337697714567184e-01" nType="0">
                    <Node pos="l" depth="7" NCoef="0" IVar="-1" Cut="0.0000000000000000e+00" cType="1" res="-1.9208254292607307e-02" rms="2.6509675383567810e-01" purity="7.7591754496097565e-02" nType="-99"/>
                    <Node pos="r" depth="7" NCoef="0" IVar="-1" Cut="0.0000000000000000e+00" cType="1" res="-1.2388934381306171e-02" rms="3.1697767972946167e-01" purity="1.2049879133701324e-01" nType="-99"/>
                  </Node>
                  <Node pos="r" depth="6" NCoef="0" IVar="7" Cut="5.0000000000000000e+00" cType="1" res="-3.4672360867261887e-02" rms="3.9840835332870483e-01" purity="2.1471388638019562e-01" nType="0">
                    <Node pos="l" depth="7" NCoef="0" IVar="-1" Cut="0.0000000000000000e+00" cType="1" res="3.9539457065984607e-04" rms="4.4155719876289368e-01" purity="2.8402048349380493e-01" nType="-99"/>
                    <Node pos="r" depth="7" NCoef="0" IVar="-1" Cut="0.0000000000000000e+00" cType="1" res="-8.0491509288549423e-03" rms="3.7391179800033569e-01" purity="1.7897400259971619e-01" nType="-99"/>
                  </Node>
                </Node>
                <Node pos="r" depth="5" NCoef="0" IVar="2" Cut="1.6156799316406250e+02" cType="1" res="-8.4961671382188797e-03" rms="4.7228810191154480e-01" purity="3.7784942984580994e-01" nType="0">
                  <Node pos="l" depth="6" NCoef="0" IVar="6" Cut="6.6599942743778229e-02" cType="1" res="2.1803988143801689e-02" rms="4.7992560267448425e-01" purity="4.1284370422363281e-01" nType="0">
                    <Node pos="l" depth="7" NCoef="0" IVar="-1" Cut="0.0000000000000000e+00" cType="1" res="-1.5618855832144618e-03" rms="4.6728065609931946e-01" purity="3.5948744416236877e-01" nType="-99"/>
                    <Node pos="r" depth="7" NCoef="0" IVar="-1" Cut="0.0000000000000000e+00" cType="1" res="5.3902165964245796e-03" rms="4.8997482657432556e-01" purity="4.7047719359397888e-01" nType="-99"/>
                  </Node>
                  <Node pos="r" depth="6" NCoef="0" IVar="0" Cut="3.0894804000854492e-01" cType="1" res="-3.5274099558591843e-02" rms="4.6378925442695618e-01" purity="3.4692299365997314e-01" nType="0">
                    <Node pos="l" depth="7" NCoef="0" IVar="-1" Cut="0.0000000000000000e+00" cType="1" res="5.3788546938449144e-04" rms="4.9057549238204956e-01" purity="4.4228869676589966e-01" nType="-99"/>
                    <Node pos="r" depth="7" NCoef="0" IVar="-1" Cut="0.0000000000000000e+00" cType="1" res="-7.2370679117739201e-03" rms="4.4010800123214722e-01" purity="2.7532613277435303e-01" nType="-99"/>
                  </Node>
                </Node>
              </Node>
              <Node pos="r" depth="4" NCoef="0" IVar="4" Cut="2.7845616340637207e+00" cType="1" res="-9.3366906046867371e-02" rms="2.6371055841445923e-01" purity="8.1515684723854065e-02" nType="0">
                <Node pos="l" depth="5" NCoef="0" IVar="-1" Cut="0.0000000000000000e+00" cType="1" res="-1.4199930243194103e-02" rms="3.0694052577018738e-01" purity="1.1307860910892487e-01" nType="-99"/>
                <Node pos="r" depth="5" NCoef="0" IVar="-1" Cut="0.0000000000000000e+00" cType="1" res="-2.2239213809370995e-02" rms="2.0948797464370728e-01" purity="4.9037825316190720e-02" nType="-99"/>
              </Node>
            </Node>
            <Node pos="r" depth="3" NCoef="0" IVar="4" Cut="7.6782572269439697e-01" cType="1" res="-8.8323034346103668e-02" rms="3.1104302406311035e-01" purity="1.2457378953695297e-01" nType="0">
              <Node pos="l" depth="4" NCoef="0" IVar="4" Cut="-2.2922210693359375e+00" cType="1" res="-8.1170812249183655e-02" rms="3.4353649616241455e-01" purity="1.5476961433887482e-01" nType="0">
                <Node pos="l" depth="5" NCoef="0" IVar="-1" Cut="0.0000000000000000e+00" cType="1" res="-5.5930232629179955e-03" rms="3.9521890878677368e-01" purity="2.2183448076248169e-01" nType="-99"/>
                <Node pos="r" depth="5" NCoef="0" IVar="6" Cut="1.0368811339139938e-01" cType="1" res="-8.4916368126869202e-02" rms="3.3804780244827271e-01" purity="1.4848613739013672e-01" nType="0">
                  <Node pos="l" depth="6" NCoef="0" IVar="2" Cut="7.6829277038574219e+01" cType="1" res="-9.4080671668052673e-02" rms="3.1607809662818909e-01" purity="1.2680128216743469e-01" nType="0">
                    <Node pos="l" depth="7" NCoef="0" IVar="-1" Cut="0.0000000000000000e+00" cType="1" res="-1.0494493879377842e-02" rms="3.4735575318336487e-01" purity="1.5880583226680756e-01" nType="-99"/>
                    <Node pos="r" depth="7" NCoef="0" IVar="-1" Cut="0.0000000000000000e+00" cType="1" res="-1.7043275758624077e-02" rms="3.0253764986991882e-01" purity="1.1444843560457230e-01" nType="-99"/>
                  </Node>
                  <Node pos="r" depth="6" NCoef="0" IVar="3" Cut="4.6361595392227173e-01" cType="1" res="-7.3022097349166870e-02" rms="3.6424964666366577e-01" purity="1.7663075029850006e-01" nType="0">
                    <Node pos="l" depth="7" NCoef="0" IVar="-1" Cut="0.0000000000000000e+00" cType="1" res="-1.4212666079401970e-02" rms="3.2435148954391479e-01" purity="1.2523142993450165e-01" nType="-99"/>
                    <Node pos="r" depth="7" NCoef="0" IVar="-1" Cut="0.0000000000000000e+00" cType="1" res="-4.6801092103123665e-03" rms="4.6051886677742004e-01" purity="3.2704684138298035e-01" nType="-99"/>
                  </Node>
                </Node>
              </Node>
              <Node pos="r" depth="4" NCoef="0" IVar="4" Cut="1.8006280660629272e+00" cType="1" res="-1.0475941747426987e-01" rms="2.1790108084678650e-01" purity="5.5181413888931274e-02" nType="0">
                <Node pos="l" depth="5" NCoef="0" IVar="6" Cut="8.9796438813209534e-02" cType="1" res="-9.3620829284191132e-02" rms="2.8070756793022156e-01" purity="9.7003594040870667e-02" nType="0">
                  <Node pos="l" depth="6" NCoef="0" IVar="-1" Cut="0.0000000000000000e+00" cType="1" res="-2.1934736520051956e-02" rms="2.3772916197776794e-01" purity="6.5519146621227264e-02" nType="-99"/>
                  <Node pos="r" depth="6" NCoef="0" IVar="-1" Cut="0.0000000000000000e+00" cType="1" res="-1.2746153399348259e-02" rms="3.1091701984405518e-01" purity="1.2365301698446274e-01" nType="-99"/>
                </Node>
                <Node pos="r" depth="5" NCoef="0" IVar="3" Cut="4.0539896488189697e-01" cType="1" res="-1.1115215718746185e-01" rms="1.7145197093486786e-01" purity="3.1178519129753113e-02" nType="0">
                  <Node pos="l" depth="6" NCoef="0" IVar="5" Cut="2.4283630847930908e+00" cType="1" res="-1.0326953977346420e-01" rms="1.6011470556259155e-01" purity="2.7658319100737572e-02" nType="0">
                    <Node pos="l" depth="7" NCoef="0" IVar="-1" Cut="0.0000000000000000e+00" cType="1" res="-2.7801809832453728e-02" rms="1.4918795228004456e-01" purity="2.3300847038626671e-02" nType="-99"/>
                    <Node pos="r" depth="7" NCoef="0" IVar="-1" Cut="0.0000000000000000e+00" cType="1" res="-2.4496899917721748e-02" rms="1.7336711287498474e-01" purity="3.3538229763507843e-02" nType="-99"/>
                  </Node>
                  <Node pos="r" depth="6" NCoef="0" IVar="-1" Cut="0.0000000000000000e+00" cType="1" res="-2.4735083803534508e-02" rms="1.9860532879829407e-01" purity="4.1228730231523514e-02" nType="-99"/>
                </Node>
              </Node>
            </Node>
          </Node>
          <Node pos="r" depth="2" NCoef="0" IVar="1" Cut="3.4767001867294312e-01" cType="1" res="1.7099344404414296e-03" rms="4.8459935188293457e-01" purity="5.0699347257614136e-01" nType="0">
            <Node pos="l" depth="3" NCoef="0" IVar="5" Cut="-1.1997860670089722e+00" cType="1" res="1.9360061734914780e-02" rms="4.8529312014579773e-01" purity="5.3834891319274902e-01" nType="0">
              <Node pos="l" depth="4" NCoef="0" IVar="6" Cut="7.6430566608905792e-02" cType="1" res="3.2895620912313461e-02" rms="4.8654735088348389e-01" purity="5.7420325279235840e-01" nType="0">
                <Node pos="l" depth="5" NCoef="0" IVar="2" Cut="8.6427154541015625e+01" cType="1" res="1.7130896449089050e-02" rms="4.8824101686477661e-01" purity="5.5685341358184814e-01" nType="0">
                  <Node pos="l" depth="6" NCoef="0" IVar="6" Cut="3.9900947362184525e-02" cType="1" res="4.5674514025449753e-02" rms="4.8408743739128113e-01" purity="5.9191483259201050e-01" nType="0">
                    <Node pos="l" depth="7" NCoef="0" IVar="-1" Cut="0.0000000000000000e+00" cType="1" res="1.8694038735702634e-03" rms="4.8573979735374451e-01" purity="5.6864112615585327e-01" nType="-99"/>
                    <Node pos="r" depth="7" NCoef="0" IVar="-1" Cut="0.0000000000000000e+00" cType="1" res="5.9053949080407619e-03" rms="4.8034235835075378e-01" purity="6.2129694223403931e-01" nType="-99"/>
                  </Node>
                  <Node pos="r" depth="6" NCoef="0" IVar="3" Cut="7.1523934602737427e-01" cType="1" res="-1.1440251953899860e-02" rms="4.9070358276367188e-01" purity="5.2175819873809814e-01" nType="0">
                    <Node pos="l" depth="7" NCoef="0" IVar="-1" Cut="0.0000000000000000e+00" cType="1" res="-3.2345380168408155e-03" rms="4.9272185564041138e-01" purity="4.6057450771331787e-01" nType="-99"/>
                    <Node pos="r" depth="7" NCoef="0" IVar="-1" Cut="0.0000000000000000e+00" cType="1" res="1.1669937521219254e-03" rms="4.8741886019706726e-01" purity="5.8454746007919312e-01" nType="-99"/>
                  </Node>
                </Node>
                <Node pos="r" depth="5" NCoef="0" IVar="2" Cut="2.5320294189453125e+02" cType="1" res="6.2825098633766174e-02" rms="4.8189869523048401e-01" purity="6.0714197158813477e-01" nType="0">
                  <Node pos="l" depth="6" NCoef="0" IVar="-1" Cut="0.0000000000000000e+00" cType="1" res="7.0555019192397594e-03" rms="4.7506070137023926e-01" purity="6.3858020305633545e-01" nType="-99"/>
                  <Node pos="r" depth="6" NCoef="0" IVar="-1" Cut="0.0000000000000000e+00" cType="1" res="2.1165888756513596e-03" rms="4.8899075388908386e-01" purity="5.6159049272537231e-01" nType="-99"/>
                </Node>
              </Node>
              <Node pos="r" depth="4" NCoef="0" IVar="2" Cut="1.3196357727050781e+02" cType="1" res="-3.3511813730001450e-02" rms="4.7669389843940735e-01" purity="3.9829665422439575e-01" nType="0">
                <Node pos="l" depth="5" NCoef="0" IVar="-1" Cut="0.0000000000000000e+00" cType="1" res="-5.8429379714652896e-04" rms="4.8370414972305298e-01" purity="4.3274676799774170e-01" nType="-99"/>
                <Node pos="r" depth="5" NCoef="0" IVar="-1" Cut="0.0000000000000000e+00" cType="1" res="-5.3928489796817303e-03" rms="4.6957087516784668e-01" purity="3.6953124403953552e-01" nType="-99"/>
              </Node>
            </Node>
            <Node pos="r" depth="3" NCoef="0" IVar="7" Cut="3.0000000000000000e+00" cType="1" res="-5.2972268313169479e-02" rms="4.7702965140342712e-01" purity="4.0712440013885498e-01" nType="0">
              <Node pos="l" depth="4" NCoef="0" IVar="-1" Cut="0.0000000000000000e+00" cType="1" res="-7.9391915351152420e-03" rms="4.7054296731948853e-01" purity="3.6760932207107544e-01" nType="-99"/>
              <Node pos="r" depth="4" NCoef="0" IVar="-1" Cut="0.0000000000000000e+00" cType="1" res="-2.9970526229590178e-03" rms="4.8198550939559937e-01" purity="4.3423870205879211e-01" nType="-99"/>
            </Node>
          </Node>
        </Node>
        <Node pos="r" depth="1" NCoef="0" IVar="5" Cut="-1.5457618236541748e+00" cType="1" res="8.0574959516525269e-02" rms="4.2808744311332703e-01" purity="7.3722350597381592e-01" nType="0">
          <Node pos="l" depth="2" NCoef="0" IVar="1" Cut="7.3249198496341705e-02" cType="1" res="9.0870663523674011e-02" rms="4.1624811291694641e-01" purity="7.6677721738815308e-01" nType="0">
            <Node pos="l" depth="3" NCoef="0" IVar="5" Cut="-2.4636614322662354e+00" cType="1" res="1.0629438608884811e-01" rms="4.0030646324157715e-01" purity="7.9349058866500854e-01" nType="0">
              <Node pos="l" depth="4" NCoef="0" IVar="3" Cut="8.4477031230926514e-01" cType="1" res="1.1677630990743637e-01" rms="3.8405096530914307e-01" purity="8.1581211090087891e-01" nType="0">
                <Node pos="l" depth="5" NCoef="0" IVar="-1" Cut="0.0000000000000000e+00" cType="1" res="6.8529965355992317e-03" rms="4.4674220681190491e-01" purity="7.1994835138320923e-01" nType="-99"/>
                <Node pos="r" depth="5" NCoef="0" IVar="3" Cut="9.8342752456665039e-01" cType="1" res="1.2205728888511658e-01" rms="3.7385118007659912e-01" purity="8.2963317632675171e-01" nType="0">
                  <Node pos="l" depth="6" NCoef="0" IVar="4" Cut="-1.8563617467880249e+00" cType="1" res="1.1434294283390045e-01" rms="3.9327469468116760e-01" purity="8.0690693855285645e-01" nType="0">
                    <Node pos="l" depth="7" NCoef="0" IVar="-1" Cut="0.0000000000000000e+00" cType="1" res="1.1971973814070225e-02" rms="3.8900446891784668e-01" purity="8.1227385997772217e-01" nType="-99"/>
                    <Node pos="r" depth="7" NCoef="0" IVar="-1" Cut="0.0000000000000000e+00" cType="1" res="9.4494540244340897e-03" rms="3.9686945080757141e-01" purity="8.0196362733840942e-01" nType="-99"/>
                  </Node>
                  <Node pos="r" depth="6" NCoef="0" IVar="4" Cut="-1.6443940401077271e+00" cType="1" res="1.2587282061576843e-01" rms="3.6380076408386230e-01" purity="8.4087365865707397e-01" nType="0">
                    <Node pos="l" depth="7" NCoef="0" IVar="-1" Cut="0.0000000000000000e+00" cType="1" res="8.4819700568914413e-03" rms="4.0442964434623718e-01" purity="7.9095351696014404e-01" nType="-99"/>
                    <Node pos="r" depth="7" NCoef="0" IVar="-1" Cut="0.0000000000000000e+00" cType="1" res="1.2053899466991425e-02" rms="3.5644340515136719e-01" purity="8.4925615787506104e-01" nType="-99"/>
                  </Node>
                </Node>
              </Node>
              <Node pos="r" depth="4" NCoef="0" IVar="3" Cut="9.0670216083526611e-01" cType="1" res="8.7554670870304108e-02" rms="4.2719143629074097e-01" purity="7.5358378887176514e-01" nType="0">
                <Node pos="l" depth="5" NCoef="0" IVar="6" Cut="3.6091908812522888e-02" cType="1" res="7.5581260025501251e-02" rms="4.4719165563583374e-01" purity="7.1801799535751343e-01" nType="0">
                  <Node pos="l" depth="6" NCoef="0" IVar="-1" Cut="0.0000000000000000e+00" cType="1" res="4.7686411999166012e-03" rms="4.5445156097412109e-01" purity="7.0026969909667969e-01" nType="-99"/>
                  <Node pos="r" depth="6" NCoef="0" IVar="-1" Cut="0.0000000000000000e+00" cType="1" res="7.8132990747690201e-03" rms="4.4114390015602112e-01" purity="7.3077374696731567e-01" nType="-99"/>
                </Node>
                <Node pos="r" depth="5" NCoef="0" IVar="4" Cut="-5.2471035718917847e-01" cType="1" res="9.5944151282310486e-02" rms="4.1239348053932190e-01" purity="7.7850389480590820e-01" nType="0">
                  <Node pos="l" depth="6" NCoef="0" IVar="-1" Cut="0.0000000000000000e+00" cType="1" res="6.5350532531738281e-03" rms="4.3114995956420898e-01" purity="7.4840146303176880e-01" nType="-99"/>
                  <Node pos="r" depth="6" NCoef="0" IVar="4" Cut="7.1950843557715416e-03" cType="1" res="1.1170510202646255e-01" rms="3.9581048488616943e-01" purity="8.0294847488403320e-01" nType="0">
                    <Node pos="l" depth="7" NCoef="0" IVar="-1" Cut="0.0000000000000000e+00" cType="1" res="9.6712941303849220e-03" rms="3.9969161152839661e-01" purity="7.9715389013290405e-01" nType="-99"/>
                    <Node pos="r" depth="7" NCoef="0" IVar="-1" Cut="0.0000000000000000e+00" cType="1" res="1.1047212406992912e-02" rms="3.9117562770843506e-01" purity="8.0961698293685913e-01" nType="-99"/>
                  </Node>
                </Node>
              </Node>
            </Node>
            <Node pos="r" depth="3" NCoef="0" IVar="3" Cut="9.8408794403076172e-01" cType="1" res="7.0915088057518005e-02" rms="4.3519935011863708e-01" purity="7.3221486806869507e-01" nType="0">
              <Node pos="l" depth="4" NCoef="0" IVar="4" Cut="-2.4704551696777344e+00" cType="1" res="4.5487597584724426e-02" rms="4.6058112382888794e-01" purity="6.7949336767196655e-01" nType="0">
                <Node pos="l" depth="5" NCoef="0" IVar="-1" Cut="0.0000000000000000e+00" cType="1" res="6.7676394246518612e-03" rms="4.4552132487297058e-01" purity="7.2008872032165527e-01" nType="-99"/>
                <Node pos="r" depth="5" NCoef="0" IVar="3" Cut="8.8880062103271484e-01" cType="1" res="3.3908311277627945e-02" rms="4.6575930714607239e-01" purity="6.6379302740097046e-01" nType="0">
                  <Node pos="l" depth="6" NCoef="0" IVar="5" Cut="-2.4638237953186035e+00" cType="1" res="2.4302009493112564e-02" rms="4.7665101289749146e-01" purity="6.3290697336196899e-01" nType="0">
                    <Node pos="l" depth="7" NCoef="0" IVar="-1" Cut="0.0000000000000000e+00" cType="1" res="3.1560522038489580e-03" rms="4.7052612900733948e-01" purity="6.5154051780700684e-01" nType="-99"/>
                    <Node pos="r" depth="7" NCoef="0" IVar="-1" Cut="0.0000000000000000e+00" cType="1" res="1.0345814516767859e-03" rms="4.8205041885375977e-01" purity="6.1533081531524658e-01" nType="-99"/>
                  </Node>
                  <Node pos="r" depth="6" NCoef="0" IVar="-1" Cut="0.0000000000000000e+00" cType="1" res="4.6402714215219021e-03" rms="4.4553256034851074e-01" purity="7.1791750192642212e-01" nType="-99"/>
                </Node>
              </Node>
              <Node pos="r" depth="4" NCoef="0" IVar="5" Cut="-2.4637269973754883e+00" cType="1" res="9.0932779014110565e-02" rms="4.1302487254142761e-01" purity="7.7371966838836670e-01" nType="0">
                <Node pos="l" depth="5" NCoef="0" IVar="4" Cut="-8.0073988437652588e-01" cType="1" res="1.0224932432174683e-01" rms="3.9989367127418518e-01" purity="7.9475963115692139e-01" nType="0">
                  <Node pos="l" depth="6" NCoef="0" IVar="-1" Cut="0.0000000000000000e+00" cType="1" res="6.2391296960413456e-03" rms="4.3215543031692505e-01" purity="7.4471837282180786e-01" nType="-99"/>
                  <Node pos="r" depth="6" NCoef="0" IVar="4" Cut="-4.3840758502483368e-02" cType="1" res="1.1056627333164215e-01" rms="3.8633689284324646e-01" purity="8.1416821479797363e-01" nType="0">
                    <Node pos="l" depth="7" NCoef="0" IVar="-1" Cut="0.0000000000000000e+00" cType="1" res="1.0486276820302010e-02" rms="3.8249772787094116e-01" purity="8.1878751516342163e-01" nType="-99"/>
                    <Node pos="r" depth="7" NCoef="0" IVar="-1" Cut="0.0000000000000000e+00" cType="1" res="9.7870239987969398e-03" rms="3.9486110210418701e-01" purity="8.0356591939926147e-01" nType="-99"/>
                  </Node>
                </Node>
                <Node pos="r" depth="5" NCoef="0" IVar="4" Cut="-3.9472329616546631e-01" cType="1" res="6.6520795226097107e-02" rms="4.3902674317359924e-01" purity="7.2833234071731567e-01" nType="0">
                  <Node pos="l" depth="6" NCoef="0" IVar="-1" Cut="0.0000000000000000e+00" cType="1" res="4.2325835675001144e-03" rms="4.5121935009956360e-01" purity="7.0283615589141846e-01" nType="-99"/>
                  <Node pos="r" depth="6" NCoef="0" IVar="-1" Cut="0.0000000000000000e+00" cType="1" res="7.0400820113718510e-03" rms="4.2911642789840698e-01" purity="7.4800288677215576e-01" nType="-99"/>
                </Node>
              </Node>
            </Node>
          </Node>
          <Node pos="r" depth="2" NCoef="0" IVar="5" Cut="-4.1926631331443787e-01" cType="1" res="2.8307402506470680e-02" rms="4.8035058379173279e-01" purity="5.8719015121459961e-01" nType="0">
            <Node pos="l" depth="3" NCoef="0" IVar="5" Cut="-1.3640698194503784e+00" cType="1" res="4.5524884015321732e-02" rms="4.7677883505821228e-01" purity="6.3071435689926147e-01" nType="0">
              <Node pos="l" depth="4" NCoef="0" IVar="-1" Cut="0.0000000000000000e+00" cType="1" res="5.6122597306966782e-03" rms="4.6115610003471375e-01" purity="6.7702114582061768e-01" nType="-99"/>
              <Node pos="r" depth="4" NCoef="0" IVar="5" Cut="-6.9358986616134644e-01" cType="1" res="3.8144893944263458e-02" rms="4.8165267705917358e-01" purity="6.1526435613632202e-01" nType="0">
                <Node pos="l" depth="5" NCoef="0" IVar="5" Cut="-1.1045396327972412e+00" cType="1" res="4.4199351221323013e-02" rms="4.7795507311820984e-01" purity="6.3347065448760986e-01" nType="0">
                  <Node pos="l" depth="6" NCoef="0" IVar="-1" Cut="0.0000000000000000e+00" cType="1" res="3.0099756550043821e-03" rms="4.7748059034347534e-01" purity="6.3558435440063477e-01" nType="-99"/>
                  <Node pos="r" depth="6" NCoef="0" IVar="-1" Cut="0.0000000000000000e+00" cType="1" res="4.2970064096152782e-03" rms="4.7822079062461853e-01" purity="6.3168048858642578e-01" nType="-99"/>
                </Node>
                <Node pos="r" depth="5" NCoef="0" IVar="-1" Cut="0.0000000000000000e+00" cType="1" res="1.6039027832448483e-03" rms="4.9276933073997498e-01" purity="5.5716770887374878e-01" nType="-99"/>
              </Node>
            </Node>
            <Node pos="r" depth="3" NCoef="0" IVar="-1" Cut="0.0000000000000000e+00" cType="1" res="-2.7687994297593832e-03" rms="4.8781168460845947e-01" purity="4.3781548738479614e-01" nType="-99"/>
          </Node>
        </Node>
      </Node>
    </BinaryTree>
    <BinaryTree type="DecisionTree" boostWeight="1.0000000000000000e+00" itree="29">
      <Node pos="s" depth="0" NCoef="0" IVar="3" Cut="6.7647039890289307e-01" cType="1" res="1.4102611690759659e-02" rms="4.1470307111740112e-01" purity="4.9887260794639587e-01" nType="0">
        <Node pos="l" depth="1" NCoef="0" IVar="3" Cut="5.0206571817398071e-01" cType="1" res="-6.1931509524583817e-02" rms="3.6411800980567932e-01" purity="1.9658516347408295e-01" nType="0">
          <Node pos="l" depth="2" NCoef="0" IVar="6" Cut="2.3454709351062775e-01" cType="1" res="-7.8272424638271332e-02" rms="2.9810523986816406e-01" purity="1.0907384753227234e-01" nType="0">
            <Node pos="l" depth="3" NCoef="0" IVar="3" Cut="3.8884267210960388e-01" cType="1" res="-8.3015486598014832e-02" rms="2.8427037596702576e-01" purity="9.7914613783359528e-02" nType="0">
              <Node pos="l" depth="4" NCoef="0" IVar="7" Cut="4.0000000000000000e+00" cType="1" res="0.0000000000000000e+00" rms="0.0000000000000000e+00" purity="6.3259467482566833e-02" nType="0">
                <Node pos="l" depth="5" NCoef="0" IVar="-1" Cut="0.0000000000000000e+00" cType="1" res="-1.1902314610779285e-02" rms="3.1893268227577209e-01" purity="1.2141817808151245e-01" nType="-99"/>
                <Node pos="r" depth="5" NCoef="0" IVar="6" Cut="2.0437167584896088e-01" cType="1" res="-9.5583416521549225e-02" rms="2.2275345027446747e-01" purity="5.4872062057256699e-02" nType="0">
                  <Node pos="l" depth="6" NCoef="0" IVar="3" Cut="3.3874702453613281e-01" cType="1" res="-9.8089955747127533e-02" rms="2.1056608855724335e-01" purity="4.8266213387250900e-02" nType="0">
                    <Node pos="l" depth="7" NCoef="0" IVar="-1" Cut="0.0000000000000000e+00" cType="1" res="-2.5246795266866684e-02" rms="1.8972377479076385e-01" purity="3.8286484777927399e-02" nType="-99"/>
                    <Node pos="r" depth="7" NCoef="0" IVar="-1" Cut="0.0000000000000000e+00" cType="1" res="-1.6784802079200745e-02" rms="2.6759308576583862e-01" purity="8.1199556589126587e-02" nType="-99"/>
                  </Node>
                  <Node pos="r" depth="6" NCoef="0" IVar="-1" Cut="0.0000000000000000e+00" cType="1" res="-1.1822706088423729e-02" rms="3.3101746439933777e-01" purity="1.3100013136863708e-01" nType="-99"/>
                </Node>
              </Node>
              <Node pos="r" depth="4" NCoef="0" IVar="0" Cut="3.7762075662612915e-01" cType="1" res="-6.7407667636871338e-02" rms="3.5402628779411316e-01" purity="1.6140066087245941e-01" nType="0">
                <Node pos="l" depth="5" NCoef="0" IVar="-1" Cut="0.0000000000000000e+00" cType="1" res="-1.4821266522631049e-03" rms="4.3650335073471069e-01" purity="2.8133755922317505e-01" nType="-99"/>
                <Node pos="r" depth="5" NCoef="0" IVar="2" Cut="2.9041580200195312e+02" cType="1" res="-8.1991761922836304e-02" rms="3.2708129286766052e-01" purity="1.2950360774993896e-01" nType="0">
                  <Node pos="l" depth="6" NCoef="0" IVar="6" Cut="8.3358749747276306e-02" cType="1" res="-7.0228837430477142e-02" rms="3.3461585640907288e-01" purity="1.3704207539558411e-01" nType="0">
                    <Node pos="l" depth="7" NCoef="0" IVar="-1" Cut="0.0000000000000000e+00" cType="1" res="-1.4937452040612698e-02" rms="3.0605858564376831e-01" purity="1.0888643562793732e-01" nType="-99"/>
                    <Node pos="r" depth="7" NCoef="0" IVar="-1" Cut="0.0000000000000000e+00" cType="1" res="-6.4930017106235027e-03" rms="3.7609499692916870e-01" purity="1.8427401781082153e-01" nType="-99"/>
                  </Node>
                  <Node pos="r" depth="6" NCoef="0" IVar="4" Cut="-5.2683606743812561e-02" cType="1" res="-1.0745425522327423e-01" rms="3.0861347913742065e-01" purity="1.1318554729223251e-01" nType="0">
                    <Node pos="l" depth="7" NCoef="0" IVar="-1" Cut="0.0000000000000000e+00" cType="1" res="-1.7596373334527016e-02" rms="3.3045488595962524e-01" purity="1.2948544323444366e-01" nType="-99"/>
                    <Node pos="r" depth="7" NCoef="0" IVar="-1" Cut="0.0000000000000000e+00" cType="1" res="-1.6092637553811073e-02" rms="2.8618112206459045e-01" purity="9.7971700131893158e-02" nType="-99"/>
                  </Node>
                </Node>
              </Node>
            </Node>
            <Node pos="r" depth="3" NCoef="0" IVar="7" Cut="6.0000000000000000e+00" cType="1" res="1.5990701317787170e-01" rms="4.1239760816097260e-02" purity="2.0844484865665436e-01" nType="0">
              <Node pos="l" depth="4" NCoef="0" IVar="-1" Cut="0.0000000000000000e+00" cType="1" res="7.0025162131059915e-05" rms="4.3795904517173767e-01" purity="2.7729609608650208e-01" nType="-99"/>
              <Node pos="r" depth="4" NCoef="0" IVar="-1" Cut="0.0000000000000000e+00" cType="1" res="-9.1783730313181877e-03" rms="3.7034022808074951e-01" purity="1.6659072041511536e-01" nType="-99"/>
            </Node>
          </Node>
          <Node pos="r" depth="2" NCoef="0" IVar="5" Cut="2.0402896404266357e-01" cType="1" res="-3.1999435275793076e-02" rms="4.5964241027832031e-01" purity="3.5688194632530212e-01" nType="0">
            <Node pos="l" depth="3" NCoef="0" IVar="0" Cut="3.6567077040672302e-01" cType="1" res="-2.3603053763508797e-02" rms="4.7019782662391663e-01" purity="3.7912189960479736e-01" nType="0">
              <Node pos="l" depth="4" NCoef="0" IVar="1" Cut="-1.6779942810535431e-01" cType="1" res="2.2292041685432196e-03" rms="4.9145179986953735e-01" purity="4.6479645371437073e-01" nType="0">
                <Node pos="l" depth="5" NCoef="0" IVar="-1" Cut="0.0000000000000000e+00" cType="1" res="3.1061526387929916e-03" rms="4.9477133154869080e-01" purity="5.1559746265411377e-01" nType="-99"/>
                <Node pos="r" depth="5" NCoef="0" IVar="2" Cut="3.2239358520507812e+02" cType="1" res="-5.1717408932745457e-03" rms="4.9043262004852295e-01" purity="4.5418834686279297e-01" nType="0">
                  <Node pos="l" depth="6" NCoef="0" IVar="6" Cut="8.2463495433330536e-02" cType="1" res="5.2653579041361809e-03" rms="4.9254107475280762e-01" purity="4.6951314806938171e-01" nType="0">
                    <Node pos="l" depth="7" NCoef="0" IVar="-1" Cut="0.0000000000000000e+00" cType="1" res="-1.3472288846969604e-03" rms="4.9198409914970398e-01" purity="4.5097187161445618e-01" nType="-99"/>
                    <Node pos="r" depth="7" NCoef="0" IVar="-1" Cut="0.0000000000000000e+00" cType="1" res="2.2255138028413057e-03" rms="4.9225154519081116e-01" purity="4.8835855722427368e-01" nType="-99"/>
                  </Node>
                  <Node pos="r" depth="6" NCoef="0" IVar="-1" Cut="0.0000000000000000e+00" cType="1" res="-3.1989146955311298e-03" rms="4.8336857557296753e-01" purity="4.1173604130744934e-01" nType="-99"/>
                </Node>
              </Node>
              <Node pos="r" depth="4" NCoef="0" IVar="6" Cut="6.0733903199434280e-02" cType="1" res="-4.7840110957622528e-02" rms="4.4799080491065979e-01" purity="2.9873797297477722e-01" nType="0">
                <Node pos="l" depth="5" NCoef="0" IVar="2" Cut="1.0184915161132812e+02" cType="1" res="-7.1053996682167053e-02" rms="4.3349391222000122e-01" purity="2.6833698153495789e-01" nType="0">
                  <Node pos="l" depth="6" NCoef="0" IVar="-1" Cut="0.0000000000000000e+00" cType="1" res="-5.0872638821601868e-03" rms="4.4830799102783203e-01" purity="2.9831188917160034e-01" nType="-99"/>
                  <Node pos="r" depth="6" NCoef="0" IVar="-1" Cut="0.0000000000000000e+00" cType="1" res="-1.1813749559223652e-02" rms="4.0888088941574097e-01" purity="2.2505140304565430e-01" nType="-99"/>
                </Node>
                <Node pos="r" depth="5" NCoef="0" IVar="2" Cut="1.9221939086914062e+02" cType="1" res="-3.1143929809331894e-02" rms="4.5740607380867004e-01" purity="3.2060334086418152e-01" nType="0">
                  <Node pos="l" depth="6" NCoef="0" IVar="-1" Cut="0.0000000000000000e+00" cType="1" res="-2.7053459780290723e-04" rms="4.7108614444732666e-01" purity="3.6130818724632263e-01" nType="-99"/>
                  <Node pos="r" depth="6" NCoef="0" IVar="3" Cut="5.7520151138305664e-01" cType="1" res="-5.4644398391246796e-02" rms="4.4438430666923523e-01" purity="2.8687739372253418e-01" nType="0">
                    <Node pos="l" depth="7" NCoef="0" IVar="-1" Cut="0.0000000000000000e+00" cType="1" res="-8.1506501883268356e-03" rms="4.2296373844146729e-01" purity="2.4401077628135681e-01" nType="-99"/>
                    <Node pos="r" depth="7" NCoef="0" IVar="-1" Cut="0.0000000000000000e+00" cType="1" res="-3.6590488161891699e-03" rms="4.6643179655075073e-01" purity="3.3473575115203857e-01" nType="-99"/>
                  </Node>
                </Node>
              </Node>
            </Node>
            <Node pos="r" depth="3" NCoef="0" IVar="-1" Cut="0.0000000000000000e+00" cType="1" res="-1.7318561673164368e-02" rms="3.0874359607696533e-01" purity="1.1481253802776337e-01" nType="-99"/>
          </Node>
        </Node>
        <Node pos="r" depth="1" NCoef="0" IVar="5" Cut="-2.1259143352508545e+00" cType="1" res="6.6008053719997406e-02" rms="4.3844318389892578e-01" purity="7.0523208379745483e-01" nType="0">
          <Node pos="l" depth="2" NCoef="0" IVar="0" Cut="3.6542329192161560e-01" cType="1" res="8.6967580020427704e-02" rms="4.1834974288940430e-01" purity="7.5703459978103638e-01" nType="0">
            <Node pos="l" depth="3" NCoef="0" IVar="3" Cut="9.0070670843124390e-01" cType="1" res="9.3578495085239410e-02" rms="4.1280129551887512e-01" purity="7.7061480283737183e-01" nType="0">
              <Node pos="l" depth="4" NCoef="0" IVar="3" Cut="8.5730290412902832e-01" cType="1" res="6.8755209445953369e-02" rms="4.5287176966667175e-01" purity="6.9681388139724731e-01" nType="0">
                <Node pos="l" depth="5" NCoef="0" IVar="4" Cut="-2.7272996902465820e+00" cType="1" res="5.7879507541656494e-02" rms="4.6579620242118835e-01" purity="6.6719853878021240e-01" nType="0">
                  <Node pos="l" depth="6" NCoef="0" IVar="-1" Cut="0.0000000000000000e+00" cType="1" res="8.4699643775820732e-03" rms="4.4075945019721985e-01" purity="7.3266208171844482e-01" nType="-99"/>
                  <Node pos="r" depth="6" NCoef="0" IVar="0" Cut="1.7681182920932770e-01" cType="1" res="5.2235227078199387e-02" rms="4.6904063224792480e-01" purity="6.5772396326065063e-01" nType="0">
                    <Node pos="l" depth="7" NCoef="0" IVar="-1" Cut="0.0000000000000000e+00" cType="1" res="4.9814647063612938e-03" rms="4.6209183335304260e-01" purity="6.8436652421951294e-01" nType="-99"/>
                    <Node pos="r" depth="7" NCoef="0" IVar="-1" Cut="0.0000000000000000e+00" cType="1" res="2.8508340474218130e-03" rms="4.8434421420097351e-01" purity="5.9516346454620361e-01" nType="-99"/>
                  </Node>
                </Node>
                <Node pos="r" depth="5" NCoef="0" IVar="4" Cut="-2.5192332267761230e+00" cType="1" res="9.6703924238681793e-02" rms="4.1652789711952209e-01" purity="7.7292025089263916e-01" nType="0">
                  <Node pos="l" depth="6" NCoef="0" IVar="-1" Cut="0.0000000000000000e+00" cType="1" res="1.1110234074294567e-02" rms="4.0019568800926208e-01" purity="7.9744422435760498e-01" nType="-99"/>
                  <Node pos="r" depth="6" NCoef="0" IVar="-1" Cut="0.0000000000000000e+00" cType="1" res="7.7307680621743202e-03" rms="4.2710646986961365e-01" purity="7.5592172145843506e-01" nType="-99"/>
                </Node>
              </Node>
              <Node pos="r" depth="4" NCoef="0" IVar="5" Cut="-3.0250973701477051e+00" cType="1" res="1.0843481868505478e-01" rms="3.8607674837112427e-01" purity="8.1478339433670044e-01" nType="0">
                <Node pos="l" depth="5" NCoef="0" IVar="4" Cut="-1.7711850404739380e+00" cType="1" res="1.2427636235952377e-01" rms="3.6538669466972351e-01" purity="8.3891171216964722e-01" nType="0">
                  <Node pos="l" depth="6" NCoef="0" IVar="-1" Cut="0.0000000000000000e+00" cType="1" res="8.4334295243024826e-03" rms="4.0778461098670959e-01" purity="7.8512722253799438e-01" nType="-99"/>
                  <Node pos="r" depth="6" NCoef="0" IVar="4" Cut="-3.5411262512207031e-01" cType="1" res="1.2796208262443542e-01" rms="3.5735464096069336e-01" purity="8.4828615188598633e-01" nType="0">
                    <Node pos="l" depth="7" NCoef="0" IVar="-1" Cut="0.0000000000000000e+00" cType="1" res="1.1193491518497467e-02" rms="3.6465835571289062e-01" purity="8.4006643295288086e-01" nType="-99"/>
                    <Node pos="r" depth="7" NCoef="0" IVar="-1" Cut="0.0000000000000000e+00" cType="1" res="1.3012329116463661e-02" rms="3.4754827618598938e-01" purity="8.5902488231658936e-01" nType="-99"/>
                  </Node>
                </Node>
                <Node pos="r" depth="5" NCoef="0" IVar="1" Cut="5.9083104133605957e-01" cType="1" res="9.9032402038574219e-02" rms="3.9754998683929443e-01" purity="8.0046254396438599e-01" nType="0">
                  <Node pos="l" depth="6" NCoef="0" IVar="4" Cut="-3.1580388545989990e-01" cType="1" res="1.0612293332815170e-01" rms="3.8982349634170532e-01" purity="8.1155413389205933e-01" nType="0">
                    <Node pos="l" depth="7" NCoef="0" IVar="-1" Cut="0.0000000000000000e+00" cType="1" res="8.7551316246390343e-03" rms="3.9960506558418274e-01" purity="7.9870700836181641e-01" nType="-99"/>
                    <Node pos="r" depth="7" NCoef="0" IVar="-1" Cut="0.0000000000000000e+00" cType="1" res="1.1322277598083019e-02" rms="3.7319570779800415e-01" purity="8.3233082294464111e-01" nType="-99"/>
                  </Node>
                  <Node pos="r" depth="6" NCoef="0" IVar="-1" Cut="0.0000000000000000e+00" cType="1" res="3.2333596609532833e-03" rms="4.5400977134704590e-01" purity="7.0526796579360962e-01" nType="-99"/>
                </Node>
              </Node>
            </Node>
            <Node pos="r" depth="3" NCoef="0" IVar="4" Cut="-9.4258803129196167e-01" cType="1" res="-2.1924946457147598e-02" rms="4.8826172947883606e-01" purity="5.3334665298461914e-01" nType="0">
              <Node pos="l" depth="4" NCoef="0" IVar="-1" Cut="0.0000000000000000e+00" cType="1" res="-2.9266744386404753e-03" rms="4.9051162600517273e-01" purity="5.0618553161621094e-01" nType="-99"/>
              <Node pos="r" depth="4" NCoef="0" IVar="-1" Cut="0.0000000000000000e+00" cType="1" res="-7.6459255069494247e-04" rms="4.8551365733146667e-01" purity="5.6230431795120239e-01" nType="-99"/>
            </Node>
          </Node>
          <Node pos="r" depth="2" NCoef="0" IVar="4" Cut="1.2847588062286377e+00" cType="1" res="2.6973402127623558e-02" rms="4.7111913561820984e-01" purity="6.0875594615936279e-01" nType="0">
            <Node pos="l" depth="3" NCoef="0" IVar="7" Cut="2.0000000000000000e+00" cType="1" res="3.7300109863281250e-02" rms="4.7078663110733032e-01" purity="6.2767487764358521e-01" nType="0">
              <Node pos="l" depth="4" NCoef="0" IVar="1" Cut="5.2307760715484619e-01" cType="1" res="6.1939861625432968e-02" rms="4.5272186398506165e-01" purity="6.9376516342163086e-01" nType="0">
                <Node pos="l" depth="5" NCoef="0" IVar="4" Cut="-3.2078269124031067e-01" cType="1" res="7.7521845698356628e-02" rms="4.4515988230705261e-01" purity="7.1411788463592529e-01" nType="0">
                  <Node pos="l" depth="6" NCoef="0" IVar="5" Cut="-1.3245438337326050e+00" cType="1" res="5.9086937457323074e-02" rms="4.5634254813194275e-01" purity="6.9085168838500977e-01" nType="0">
                    <Node pos="l" depth="7" NCoef="0" IVar="-1" Cut="0.0000000000000000e+00" cType="1" res="6.2104449607431889e-03" rms="4.4172316789627075e-01" purity="7.2909200191497803e-01" nType="-99"/>
                    <Node pos="r" depth="7" NCoef="0" IVar="-1" Cut="0.0000000000000000e+00" cType="1" res="2.1047890186309814e-03" rms="4.8412111401557922e-01" purity="6.0992014408111572e-01" nType="-99"/>
                  </Node>
                  <Node pos="r" depth="6" NCoef="0" IVar="5" Cut="-1.3905674219131470e+00" cType="1" res="9.5823369920253754e-02" rms="4.3299734592437744e-01" purity="7.3721587657928467e-01" nType="0">
                    <Node pos="l" depth="7" NCoef="0" IVar="-1" Cut="0.0000000000000000e+00" cType="1" res="9.8788663744926453e-03" rms="4.0892767906188965e-01" purity="7.8469538688659668e-01" nType="-99"/>
                    <Node pos="r" depth="7" NCoef="0" IVar="-1" Cut="0.0000000000000000e+00" cType="1" res="6.7029907368123531e-03" rms="4.6733331680297852e-01" purity="6.6357791423797607e-01" nType="-99"/>
                  </Node>
                </Node>
                <Node pos="r" depth="5" NCoef="0" IVar="-1" Cut="0.0000000000000000e+00" cType="1" res="-2.9582933057099581e-03" rms="4.8618048429489136e-01" purity="5.6667506694793701e-01" nType="-99"/>
              </Node>
              <Node pos="r" depth="4" NCoef="0" IVar="1" Cut="7.2986233234405518e-01" cType="1" res="1.9827967509627342e-02" rms="4.8240786790847778e-01" purity="5.8122491836547852e-01" nType="0">
                <Node pos="l" depth="5" NCoef="0" IVar="4" Cut="-1.9101831316947937e-01" cType="1" res="3.2893583178520203e-02" rms="4.8084580898284912e-01" purity="5.9989786148071289e-01" nType="0">
                  <Node pos="l" depth="6" NCoef="0" IVar="3" Cut="8.0674576759338379e-01" cType="1" res="4.6007193624973297e-02" rms="4.7540318965911865e-01" purity="6.3307696580886841e-01" nType="0">
                    <Node pos="l" depth="7" NCoef="0" IVar="-1" Cut="0.0000000000000000e+00" cType="1" res="2.4330064188688993e-03" rms="4.8642838001251221e-01" purity="5.8739435672760010e-01" nType="-99"/>
                    <Node pos="r" depth="7" NCoef="0" IVar="-1" Cut="0.0000000000000000e+00" cType="1" res="5.1614427939057350e-03" rms="4.6613922715187073e-01" purity="6.6886883974075317e-01" nType="-99"/>
                  </Node>
                  <Node pos="r" depth="6" NCoef="0" IVar="6" Cut="5.7692997157573700e-02" cType="1" res="8.5143940523266792e-03" rms="4.8987159132957458e-01" purity="5.3821527957916260e-01" nType="0">
                    <Node pos="l" depth="7" NCoef="0" IVar="-1" Cut="0.0000000000000000e+00" cType="1" res="-1.3755606778431684e-04" rms="4.9211704730987549e-01" purity="5.3628748655319214e-01" nType="-99"/>
                    <Node pos="r" depth="7" NCoef="0" IVar="-1" Cut="0.0000000000000000e+00" cType="1" res="1.8347834702581167e-03" rms="4.8668703436851501e-01" purity="5.4067748785018921e-01" nType="-99"/>
                  </Node>
                </Node>
                <Node pos="r" depth="5" NCoef="0" IVar="-1" Cut="0.0000000000000000e+00" cType="1" res="-9.4430604949593544e-03" rms="4.7917467355728149e-01" purity="4.0022921562194824e-01" nType="-99"/>
              </Node>
            </Node>
            <Node pos="r" depth="3" NCoef="0" IVar="-1" Cut="0.0000000000000000e+00" cType="1" res="-1.2637245468795300e-02" rms="4.4689324498176575e-01" purity="3.1838324666023254e-01" nType="-99"/>
          </Node>
        </Node>
      </Node>
    </BinaryTree>
    <BinaryTree type="DecisionTree" boostWeight="1.0000000000000000e+00" itree="30">
      <Node pos="s" depth="0" NCoef="0" IVar="3" Cut="7.7264720201492310e-01" cType="1" res="1.5656696632504463e-02" rms="4.1474187374114990e-01" purity="5.0051808357238770e-01" nType="0">
        <Node pos="l" depth="1" NCoef="0" IVar="3" Cut="5.9821218252182007e-01" cType="1" res="-4.2625684291124344e-02" rms="3.9269766211509705e-01" purity="2.6619461178779602e-01" nType="0">
          <Node pos="l" depth="2" NCoef="0" IVar="5" Cut="-1.3629549741744995e+00" cType="1" res="-6.5372012555599213e-02" rms="3.3844390511512756e-01" purity="1.5453864634037018e-01" nType="0">
            <Node pos="l" depth="3" NCoef="0" IVar="6" Cut="9.4147734344005585e-02" cType="1" res="-5.4611884057521820e-02" rms="3.7239497900009155e-01" purity="1.9387429952621460e-01" nType="0">
              <Node pos="l" depth="4" NCoef="0" IVar="2" Cut="8.8909828186035156e+01" cType="1" res="-7.4590899050235748e-02" rms="3.3981072902679443e-01" purity="1.5402789413928986e-01" nType="0">
                <Node pos="l" depth="5" NCoef="0" IVar="3" Cut="4.2677929997444153e-01" cType="1" res="-4.5554749667644501e-02" rms="3.7304785847663879e-01" purity="1.9575037062168121e-01" nType="0">
                  <Node pos="l" depth="6" NCoef="0" IVar="-1" Cut="0.0000000000000000e+00" cType="1" res="-1.8354250118136406e-02" rms="2.5575274229049683e-01" purity="7.1550354361534119e-02" nType="-99"/>
                  <Node pos="r" depth="6" NCoef="0" IVar="-1" Cut="0.0000000000000000e+00" cType="1" res="-1.9511638674885035e-03" rms="4.4507706165313721e-01" purity="2.9792582988739014e-01" nType="-99"/>
                </Node>
                <Node pos="r" depth="5" NCoef="0" IVar="6" Cut="7.8916408121585846e-02" cType="1" res="-9.1466382145881653e-02" rms="3.1768891215324402e-01" purity="1.2977927923202515e-01" nType="0">
                  <Node pos="l" depth="6" NCoef="0" IVar="7" Cut="4.0000000000000000e+00" cType="1" res="-1.0096563398838043e-01" rms="3.0473983287811279e-01" purity="1.1533044278621674e-01" nType="0">
                    <Node pos="l" depth="7" NCoef="0" IVar="-1" Cut="0.0000000000000000e+00" cType="1" res="-1.8455537036061287e-02" rms="3.1134310364723206e-01" purity="1.1498820036649704e-01" nType="-99"/>
                    <Node pos="r" depth="7" NCoef="0" IVar="-1" Cut="0.0000000000000000e+00" cType="1" res="-1.5449120663106441e-02" rms="3.0157995223999023e-01" purity="1.1546660959720612e-01" nType="-99"/>
                  </Node>
                  <Node pos="r" depth="6" NCoef="0" IVar="-1" Cut="0.0000000000000000e+00" cType="1" res="-1.0465606115758419e-02" rms="3.4638643264770508e-01" purity="1.6531707346439362e-01" nType="-99"/>
                </Node>
              </Node>
              <Node pos="r" depth="4" NCoef="0" IVar="3" Cut="4.0824612975120544e-01" cType="1" res="-3.7375137209892273e-02" rms="3.9756503701210022e-01" purity="2.2825148701667786e-01" nType="0">
                <Node pos="l" depth="5" NCoef="0" IVar="6" Cut="1.8502752482891083e-01" cType="1" res="-5.7620346546173096e-02" rms="3.4246358275413513e-01" purity="1.4676423370838165e-01" nType="0">
                  <Node pos="l" depth="6" NCoef="0" IVar="2" Cut="3.0586288452148438e+02" cType="1" res="-7.3575854301452637e-02" rms="2.9397761821746826e-01" purity="9.9399000406265259e-02" nType="0">
                    <Node pos="l" depth="7" NCoef="0" IVar="-1" Cut="0.0000000000000000e+00" cType="1" res="-9.9309775978326797e-03" rms="3.2051226496696472e-01" purity="1.2227668613195419e-01" nType="-99"/>
                    <Node pos="r" depth="7" NCoef="0" IVar="-1" Cut="0.0000000000000000e+00" cType="1" res="-1.9210180267691612e-02" rms="2.6583564281463623e-01" purity="7.8770384192466736e-02" nType="-99"/>
                  </Node>
                  <Node pos="r" depth="6" NCoef="0" IVar="7" Cut="7.0000000000000000e+00" cType="1" res="0.0000000000000000e+00" rms="0.0000000000000000e+00" purity="2.1917054057121277e-01" nType="0">
                    <Node pos="l" depth="7" NCoef="0" IVar="-1" Cut="0.0000000000000000e+00" cType="1" res="-6.9437659112736583e-04" rms="4.3541264533996582e-01" purity="2.6939830183982849e-01" nType="-99"/>
                    <Node pos="r" depth="7" NCoef="0" IVar="-1" Cut="0.0000000000000000e+00" cType="1" res="-1.1727174744009972e-02" rms="3.5296177864074707e-01" purity="1.4932306110858917e-01" nType="-99"/>
                  </Node>
                </Node>
                <Node pos="r" depth="5" NCoef="0" IVar="2" Cut="2.4330885314941406e+02" cType="1" res="-8.2241566851735115e-03" rms="4.6403890848159790e-01" purity="3.4558457136154175e-01" nType="0">
                  <Node pos="l" depth="6" NCoef="0" IVar="-1" Cut="0.0000000000000000e+00" cType="1" res="2.2163442336022854e-03" rms="4.7277957201004028e-01" purity="3.8758656382560730e-01" nType="-99"/>
                  <Node pos="r" depth="6" NCoef="0" IVar="2" Cut="4.2922485351562500e+02" cType="1" res="-2.8302693739533424e-02" rms="4.5718774199485779e-01" purity="3.1848302483558655e-01" nType="0">
                    <Node pos="l" depth="7" NCoef="0" IVar="-1" Cut="0.0000000000000000e+00" cType="1" res="-1.2279618531465530e-03" rms="4.6471777558326721e-01" purity="3.3046644926071167e-01" nType="-99"/>
                    <Node pos="r" depth="7" NCoef="0" IVar="-1" Cut="0.0000000000000000e+00" cType="1" res="-4.8434357158839703e-03" rms="4.4918233156204224e-01" purity="3.0687299370765686e-01" nType="-99"/>
                  </Node>
                </Node>
              </Node>
            </Node>
            <Node pos="r" depth="3" NCoef="0" IVar="6" Cut="2.0763796567916870e-01" cType="1" res="-8.1576921045780182e-02" rms="2.7885755896568298e-01" purity="9.5298588275909424e-02" nType="0">
              <Node pos="l" depth="4" NCoef="0" IVar="4" Cut="1.7312856912612915e+00" cType="1" res="-8.6643107235431671e-02" rms="2.6448193192481995e-01" purity="8.6094312369823456e-02" nType="0">
                <Node pos="l" depth="5" NCoef="0" IVar="3" Cut="5.0173109769821167e-01" cType="1" res="-7.2622038424015045e-02" rms="3.2923600077629089e-01" purity="1.3843491673469543e-01" nType="0">
                  <Node pos="l" depth="6" NCoef="0" IVar="2" Cut="2.2918721008300781e+02" cType="1" res="-8.2126207649707794e-02" rms="2.8068721294403076e-01" purity="9.1225124895572662e-02" nType="0">
                    <Node pos="l" depth="7" NCoef="0" IVar="-1" Cut="0.0000000000000000e+00" cType="1" res="-1.4369174838066101e-02" rms="2.8800752758979797e-01" purity="9.6638359129428864e-02" nType="-99"/>
                    <Node pos="r" depth="7" NCoef="0" IVar="-1" Cut="0.0000000000000000e+00" cType="1" res="-1.7593547701835632e-02" rms="2.7320641279220581e-01" purity="8.6160309612751007e-02" nType="-99"/>
                  </Node>
                  <Node pos="r" depth="6" NCoef="0" IVar="-1" Cut="0.0000000000000000e+00" cType="1" res="-5.1304614171385765e-03" rms="4.3680232763290405e-01" purity="2.7135467529296875e-01" nType="-99"/>
                </Node>
                <Node pos="r" depth="5" NCoef="0" IVar="3" Cut="4.6503394842147827e-01" cType="1" res="-1.0134119540452957e-01" rms="1.7095778882503510e-01" purity="3.1226446852087975e-02" nType="0">
                  <Node pos="l" depth="6" NCoef="0" IVar="4" Cut="4.5364146232604980e+00" cType="1" res="-9.6793971955776215e-02" rms="1.4528548717498779e-01" purity="2.1940071135759354e-02" nType="0">
                    <Node pos="l" depth="7" NCoef="0" IVar="-1" Cut="0.0000000000000000e+00" cType="1" res="-2.4981655180454254e-02" rms="1.6513866186141968e-01" purity="2.8553515672683716e-02" nType="-99"/>
                    <Node pos="r" depth="7" NCoef="0" IVar="-1" Cut="0.0000000000000000e+00" cType="1" res="-2.9334206134080887e-02" rms="9.5372572541236877e-02" purity="9.1386483982205391e-03" nType="-99"/>
                  </Node>
                  <Node pos="r" depth="6" NCoef="0" IVar="-1" Cut="0.0000000000000000e+00" cType="1" res="-2.0343231037259102e-02" rms="2.5014960765838623e-01" purity="6.9879278540611267e-02" nType="-99"/>
                </Node>
              </Node>
              <Node pos="r" depth="4" NCoef="0" IVar="-1" Cut="0.0000000000000000e+00" cType="1" res="-8.8812801986932755e-03" rms="3.4974068403244019e-01" purity="1.4901089668273926e-01" nType="-99"/>
            </Node>
          </Node>
          <Node pos="r" depth="2" NCoef="0" IVar="5" Cut="3.9631320396438241e-04" cType="1" res="4.2869062162935734e-03" rms="4.8244604468345642e-01" purity="4.9647670984268188e-01" nType="0">
            <Node pos="l" depth="3" NCoef="0" IVar="7" Cut="3.0000000000000000e+00" cType="1" res="1.2467061169445515e-02" rms="4.8623174428939819e-01" purity="5.1589804887771606e-01" nType="0">
              <Node pos="l" depth="4" NCoef="0" IVar="0" Cut="4.5122382044792175e-01" cType="1" res="-1.7362451180815697e-02" rms="4.8521256446838379e-01" purity="4.7805362939834595e-01" nType="0">
                <Node pos="l" depth="5" NCoef="0" IVar="1" Cut="-1.8343770876526833e-02" cType="1" res="1.6429070383310318e-03" rms="4.9132108688354492e-01" purity="5.3210729360580444e-01" nType="0">
                  <Node pos="l" depth="6" NCoef="0" IVar="-1" Cut="0.0000000000000000e+00" cType="1" res="2.5583317037671804e-03" rms="4.8976513743400574e-01" purity="5.8024340867996216e-01" nType="-99"/>
                  <Node pos="r" depth="6" NCoef="0" IVar="3" Cut="7.2774875164031982e-01" cType="1" res="-1.8166080117225647e-02" rms="4.9131399393081665e-01" purity="5.0087988376617432e-01" nType="0">
                    <Node pos="l" depth="7" NCoef="0" IVar="-1" Cut="0.0000000000000000e+00" cType="1" res="-3.4845876507461071e-03" rms="4.8958420753479004e-01" purity="4.5706695318222046e-01" nType="-99"/>
                    <Node pos="r" depth="7" NCoef="0" IVar="-1" Cut="0.0000000000000000e+00" cType="1" res="1.0634893988026306e-04" rms="4.9198660254478455e-01" purity="5.3901654481887817e-01" nType="-99"/>
                  </Node>
                </Node>
                <Node pos="r" depth="5" NCoef="0" IVar="-1" Cut="0.0000000000000000e+00" cType="1" res="-6.6030574962496758e-03" rms="4.6466401219367981e-01" purity="3.3338874578475952e-01" nType="-99"/>
              </Node>
              <Node pos="r" depth="4" NCoef="0" IVar="5" Cut="-1.9355924129486084e+00" cType="1" res="2.6438588276505470e-02" rms="4.8673364520072937e-01" purity="5.3441160917282104e-01" nType="0">
                <Node pos="l" depth="5" NCoef="0" IVar="3" Cut="7.1637904644012451e-01" cType="1" res="4.3781645596027374e-02" rms="4.8529654741287231e-01" purity="5.6859999895095825e-01" nType="0">
                  <Node pos="l" depth="6" NCoef="0" IVar="6" Cut="6.4604081213474274e-02" cType="1" res="3.0477602034807205e-02" rms="4.9264213442802429e-01" purity="5.2666908502578735e-01" nType="0">
                    <Node pos="l" depth="7" NCoef="0" IVar="-1" Cut="0.0000000000000000e+00" cType="1" res="7.0337904617190361e-04" rms="4.9371945858001709e-01" purity="4.9670872092247009e-01" nType="-99"/>
                    <Node pos="r" depth="7" NCoef="0" IVar="-1" Cut="0.0000000000000000e+00" cType="1" res="4.5685586519539356e-03" rms="4.9045276641845703e-01" purity="5.5754899978637695e-01" nType="-99"/>
                  </Node>
                  <Node pos="r" depth="6" NCoef="0" IVar="-1" Cut="0.0000000000000000e+00" cType="1" res="6.4858994446694851e-03" rms="4.6633371710777283e-01" purity="6.6596412658691406e-01" nType="-99"/>
                </Node>
                <Node pos="r" depth="5" NCoef="0" IVar="1" Cut="2.1957047283649445e-01" cType="1" res="-1.4431639574468136e-03" rms="4.8774421215057373e-01" purity="4.7944834828376770e-01" nType="0">
                  <Node pos="l" depth="6" NCoef="0" IVar="3" Cut="6.9386202096939087e-01" cType="1" res="2.3019567131996155e-02" rms="4.8917520046234131e-01" purity="5.1761132478713989e-01" nType="0">
                    <Node pos="l" depth="7" NCoef="0" IVar="-1" Cut="0.0000000000000000e+00" cType="1" res="1.0185808641836047e-03" rms="4.8870542645454407e-01" purity="4.7185066342353821e-01" nType="-99"/>
                    <Node pos="r" depth="7" NCoef="0" IVar="-1" Cut="0.0000000000000000e+00" cType="1" res="3.2836482860147953e-03" rms="4.8937836289405823e-01" purity="5.7728922367095947e-01" nType="-99"/>
                  </Node>
                  <Node pos="r" depth="6" NCoef="0" IVar="-1" Cut="0.0000000000000000e+00" cType="1" res="-4.9029923975467682e-03" rms="4.8062503337860107e-01" purity="3.9877802133560181e-01" nType="-99"/>
                </Node>
              </Node>
            </Node>
            <Node pos="r" depth="3" NCoef="0" IVar="-1" Cut="0.0000000000000000e+00" cType="1" res="-1.2705675326287746e-02" rms="3.9629849791526794e-01" purity="2.0566789805889130e-01" nType="-99"/>
          </Node>
        </Node>
        <Node pos="r" depth="1" NCoef="0" IVar="5" Cut="-2.2356259822845459e+00" cType="1" res="7.4425041675567627e-02" rms="4.2787817120552063e-01" purity="7.3679536581039429e-01" nType="0">
          <Node pos="l" depth="2" NCoef="0" IVar="1" Cut="1.0744930505752563e+00" cType="1" res="9.1737121343612671e-02" rms="4.0555936098098755e-01" purity="7.8387850522994995e-01" nType="0">
            <Node pos="l" depth="3" NCoef="0" IVar="1" Cut="3.3913552761077881e-01" cType="1" res="9.5987983047962189e-02" rms="4.0153709053993225e-01" purity="7.9076427221298218e-01" nType="0">
              <Node pos="l" depth="4" NCoef="0" IVar="2" Cut="1.7305223083496094e+02" cType="1" res="1.0215470194816589e-01" rms="3.9399492740631104e-01" purity="8.0257958173751831e-01" nType="0">
                <Node pos="l" depth="5" NCoef="0" IVar="3" Cut="1.0000753402709961e+00" cType="1" res="1.0469708591699600e-01" rms="3.9063534140586853e-01" purity="8.0756038427352905e-01" nType="0">
                  <Node pos="l" depth="6" NCoef="0" IVar="3" Cut="8.6802017688751221e-01" cType="1" res="9.6923120319843292e-02" rms="4.0182906389236450e-01" purity="7.9258990287780762e-01" nType="0">
                    <Node pos="l" depth="7" NCoef="0" IVar="-1" Cut="0.0000000000000000e+00" cType="1" res="6.8097901530563831e-03" rms="4.4026982784271240e-01" purity="7.3261475563049316e-01" nType="-99"/>
                    <Node pos="r" depth="7" NCoef="0" IVar="-1" Cut="0.0000000000000000e+00" cType="1" res="9.7525585442781448e-03" rms="3.8776186108589172e-01" purity="8.1293720006942749e-01" nType="-99"/>
                  </Node>
                  <Node pos="r" depth="6" NCoef="0" IVar="5" Cut="-2.6105875968933105e+00" cType="1" res="1.2232107669115067e-01" rms="3.6337056756019592e-01" purity="8.4149920940399170e-01" nType="0">
                    <Node pos="l" depth="7" NCoef="0" IVar="-1" Cut="0.0000000000000000e+00" cType="1" res="1.1737060733139515e-02" rms="3.5316646099090576e-01" purity="8.5233509540557861e-01" nType="-99"/>
                    <Node pos="r" depth="7" NCoef="0" IVar="-1" Cut="0.0000000000000000e+00" cType="1" res="8.8858455419540405e-03" rms="3.9465457201004028e-01" purity="8.0536222457885742e-01" nType="-99"/>
                  </Node>
                </Node>
                <Node pos="r" depth="5" NCoef="0" IVar="-1" Cut="0.0000000000000000e+00" cType="1" res="4.8003187403082848e-03" rms="4.5404985547065735e-01" purity="7.0102119445800781e-01" nType="-99"/>
              </Node>
              <Node pos="r" depth="4" NCoef="0" IVar="3" Cut="9.6519970893859863e-01" cType="1" res="6.5857753157615662e-02" rms="4.3526348471641541e-01" purity="7.3303544521331787e-01" nType="0">
                <Node pos="l" depth="5" NCoef="0" IVar="-1" Cut="0.0000000000000000e+00" cType="1" res="2.8167688287794590e-03" rms="4.6923911571502686e-01" purity="6.6051596403121948e-01" nType="-99"/>
                <Node pos="r" depth="5" NCoef="0" IVar="4" Cut="-5.5157178640365601e-01" cType="1" res="8.4619171917438507e-02" rms="4.1380405426025391e-01" purity="7.7372121810913086e-01" nType="0">
                  <Node pos="l" depth="6" NCoef="0" IVar="-1" Cut="0.0000000000000000e+00" cType="1" res="4.8013459891080856e-03" rms="4.3813762068748474e-01" purity="7.3274219036102295e-01" nType="-99"/>
                  <Node pos="r" depth="6" NCoef="0" IVar="-1" Cut="0.0000000000000000e+00" cType="1" res="9.3828998506069183e-03" rms="3.9361563324928284e-01" purity="8.0450326204299927e-01" nType="-99"/>
                </Node>
              </Node>
            </Node>
            <Node pos="r" depth="3" NCoef="0" IVar="-1" Cut="0.0000000000000000e+00" cType="1" res="6.1585381627082825e-04" rms="4.7056549787521362e-01" purity="6.4721804857254028e-01" nType="-99"/>
          </Node>
          <Node pos="r" depth="2" NCoef="0" IVar="1" Cut="6.5971261262893677e-01" cType="1" res="4.4683720916509628e-02" rms="4.6220827102661133e-01" purity="6.5590882301330566e-01" nType="0">
            <Node pos="l" depth="3" NCoef="0" IVar="2" Cut="1.8824554443359375e+02" cType="1" res="5.6715592741966248e-02" rms="4.5823058485984802e-01" purity="6.7309546470642090e-01" nType="0">
              <Node pos="l" depth="4" NCoef="0" IVar="5" Cut="-7.2981470823287964e-01" cType="1" res="6.4070150256156921e-02" rms="4.5488575100898743e-01" purity="6.8591427803039551e-01" nType="0">
                <Node pos="l" depth="5" NCoef="0" IVar="3" Cut="9.9089592695236206e-01" cType="1" res="7.1565195918083191e-02" rms="4.4714719057083130e-01" purity="7.1446609497070312e-01" nType="0">
                  <Node pos="l" depth="6" NCoef="0" IVar="6" Cut="5.0947614014148712e-02" cType="1" res="5.9276018291711807e-02" rms="4.6056401729583740e-01" purity="6.8592518568038940e-01" nType="0">
                    <Node pos="l" depth="7" NCoef="0" IVar="-1" Cut="0.0000000000000000e+00" cType="1" res="4.4475328177213669e-03" rms="4.6229264140129089e-01" purity="6.8054413795471191e-01" nType="-99"/>
                    <Node pos="r" depth="7" NCoef="0" IVar="-1" Cut="0.0000000000000000e+00" cType="1" res="7.6080248691141605e-03" rms="4.5025983452796936e-01" purity="7.1076172590255737e-01" nType="-99"/>
                  </Node>
                  <Node pos="r" depth="6" NCoef="0" IVar="4" Cut="-1.0549559593200684e+00" cType="1" res="8.7167456746101379e-02" rms="4.2900297045707703e-01" purity="7.5070148706436157e-01" nType="0">
                    <Node pos="l" depth="7" NCoef="0" IVar="-1" Cut="0.0000000000000000e+00" cType="1" res="5.1788813434541225e-03" rms="4.5103627443313599e-01" purity="7.0955318212509155e-01" nType="-99"/>
                    <Node pos="r" depth="7" NCoef="0" IVar="-1" Cut="0.0000000000000000e+00" cType="1" res="8.4159504622220993e-03" rms="4.2202377319335938e-01" purity="7.6290071010589600e-01" nType="-99"/>
                  </Node>
                </Node>
                <Node pos="r" depth="5" NCoef="0" IVar="5" Cut="-3.2447260618209839e-01" cType="1" res="2.4148162454366684e-02" rms="4.9214735627174377e-01" purity="5.3383463621139526e-01" nType="0">
                  <Node pos="l" depth="6" NCoef="0" IVar="-1" Cut="0.0000000000000000e+00" cType="1" res="3.4536588937044144e-03" rms="4.9059587717056274e-01" purity="5.8412581682205200e-01" nType="-99"/>
                  <Node pos="r" depth="6" NCoef="0" IVar="-1" Cut="0.0000000000000000e+00" cType="1" res="4.5713191502727568e-04" rms="4.9323964118957520e-01" purity="4.7610038518905640e-01" nType="-99"/>
                </Node>
              </Node>
              <Node pos="r" depth="4" NCoef="0" IVar="-1" Cut="0.0000000000000000e+00" cType="1" res="-1.5510109951719642e-03" rms="4.8433709144592285e-01" purity="5.4480767250061035e-01" nType="-99"/>
            </Node>
            <Node pos="r" depth="3" NCoef="0" IVar="-1" Cut="0.0000000000000000e+00" cType="1" res="-5.0493520684540272e-03" rms="4.8291379213333130e-01" purity="5.0752282142639160e-01" nType="-99"/>
          </Node>
        </Node>
      </Node>
    </BinaryTree>
    <BinaryTree type="DecisionTree" boostWeight="1.0000000000000000e+00" itree="31">
      <Node pos="s" depth="0" NCoef="0" IVar="3" Cut="7.7113348245620728e-01" cType="1" res="1.4658390544354916e-02" rms="4.1306236386299133e-01" purity="4.9960833787918091e-01" nType="0">
        <Node pos="l" depth="1" NCoef="0" IVar="3" Cut="5.7216840982437134e-01" cType="1" res="-4.3504297733306885e-02" rms="3.8989061117172241e-01" purity="2.6178547739982605e-01" nType="0">
          <Node pos="l" depth="2" NCoef="0" IVar="5" Cut="-1.4657717943191528e+00" cType="1" res="-6.6535875201225281e-02" rms="3.2493585348129272e-01" purity="1.3888967037200928e-01" nType="0">
            <Node pos="l" depth="3" NCoef="0" IVar="1" Cut="7.5091958045959473e-01" cType="1" res="-5.6223779916763306e-02" rms="3.5964360833168030e-01" purity="1.7643767595291138e-01" nType="0">
              <Node pos="l" depth="4" NCoef="0" IVar="6" Cut="1.1125268787145615e-01" cType="1" res="-4.5348770916461945e-02" rms="3.8211470842361450e-01" purity="2.0457433164119720e-01" nType="0">
                <Node pos="l" depth="5" NCoef="0" IVar="3" Cut="5.1692867279052734e-01" cType="1" res="-6.1428882181644440e-02" rms="3.5274204611778259e-01" purity="1.6722863912582397e-01" nType="0">
                  <Node pos="l" depth="6" NCoef="0" IVar="6" Cut="7.2083398699760437e-02" cType="1" res="-7.2820350527763367e-02" rms="3.1209081411361694e-01" purity="1.1735134571790695e-01" nType="0">
                    <Node pos="l" depth="7" NCoef="0" IVar="-1" Cut="0.0000000000000000e+00" cType="1" res="-1.6442170366644859e-02" rms="2.8510612249374390e-01" purity="9.5553494989871979e-02" nType="-99"/>
                    <Node pos="r" depth="7" NCoef="0" IVar="-1" Cut="0.0000000000000000e+00" cType="1" res="-9.0156411752104759e-03" rms="3.4038394689559937e-01" purity="1.4338734745979309e-01" nType="-99"/>
                  </Node>
                  <Node pos="r" depth="6" NCoef="0" IVar="-1" Cut="0.0000000000000000e+00" cType="1" res="-2.5470303371548653e-03" rms="4.5789611339569092e-01" purity="3.2779645919799805e-01" nType="-99"/>
                </Node>
                <Node pos="r" depth="5" NCoef="0" IVar="3" Cut="3.5104435682296753e-01" cType="1" res="-2.7511380612850189e-02" rms="4.1152179241180420e-01" purity="2.4600124359130859e-01" nType="0">
                  <Node pos="l" depth="6" NCoef="0" IVar="7" Cut="6.0000000000000000e+00" cType="1" res="1.3027681410312653e-01" rms="1.2280254065990448e-01" purity="1.6296654939651489e-01" nType="0">
                    <Node pos="l" depth="7" NCoef="0" IVar="-1" Cut="0.0000000000000000e+00" cType="1" res="-2.8952567372471094e-03" rms="4.0042379498481750e-01" purity="2.2071717679500580e-01" nType="-99"/>
                    <Node pos="r" depth="7" NCoef="0" IVar="-1" Cut="0.0000000000000000e+00" cType="1" res="-1.4142790809273720e-02" rms="3.1758552789688110e-01" purity="1.1849533021450043e-01" nType="-99"/>
                  </Node>
                  <Node pos="r" depth="6" NCoef="0" IVar="2" Cut="3.0564440917968750e+02" cType="1" res="-3.9580669254064560e-03" rms="4.5587000250816345e-01" purity="3.2468783855438232e-01" nType="0">
                    <Node pos="l" depth="7" NCoef="0" IVar="-1" Cut="0.0000000000000000e+00" cType="1" res="3.5663654562085867e-03" rms="4.7039854526519775e-01" purity="3.7251153588294983e-01" nType="-99"/>
                    <Node pos="r" depth="7" NCoef="0" IVar="-1" Cut="0.0000000000000000e+00" cType="1" res="-4.1843666695058346e-03" rms="4.4100970029830933e-01" purity="2.8527575731277466e-01" nType="-99"/>
                  </Node>
                </Node>
              </Node>
              <Node pos="r" depth="4" NCoef="0" IVar="7" Cut="5.0000000000000000e+00" cType="1" res="-9.0032607316970825e-02" rms="2.7567026019096375e-01" purity="8.8931657373905182e-02" nType="0">
                <Node pos="l" depth="5" NCoef="0" IVar="-1" Cut="0.0000000000000000e+00" cType="1" res="-1.3763207942247391e-02" rms="3.2710811495780945e-01" purity="1.2786436080932617e-01" nType="-99"/>
                <Node pos="r" depth="5" NCoef="0" IVar="6" Cut="8.4590092301368713e-02" cType="1" res="-9.8441883921623230e-02" rms="2.2386312484741211e-01" purity="5.6632760912179947e-02" nType="0">
                  <Node pos="l" depth="6" NCoef="0" IVar="-1" Cut="0.0000000000000000e+00" cType="1" res="-2.6050811633467674e-02" rms="1.7764498293399811e-01" purity="3.3315263688564301e-02" nType="-99"/>
                  <Node pos="r" depth="6" NCoef="0" IVar="-1" Cut="0.0000000000000000e+00" cType="1" res="-1.9431391730904579e-02" rms="2.5533744692802429e-01" purity="7.5730778276920319e-02" nType="-99"/>
                </Node>
              </Node>
            </Node>
            <Node pos="r" depth="3" NCoef="0" IVar="3" Cut="1.6622363030910492e-01" cType="1" res="-8.0497875809669495e-02" rms="2.7032279968261719e-01" purity="8.8051818311214447e-02" nType="0">
              <Node pos="l" depth="4" NCoef="0" IVar="-1" Cut="0.0000000000000000e+00" cType="1" res="-7.7411117963492870e-03" rms="3.1835508346557617e-01" purity="1.2510454654693604e-01" nType="-99"/>
              <Node pos="r" depth="4" NCoef="0" IVar="0" Cut="6.7811453342437744e-01" cType="1" res="-8.4768176078796387e-02" rms="2.6477435231208801e-01" purity="8.4429576992988586e-02" nType="0">
                <Node pos="l" depth="5" NCoef="0" IVar="4" Cut="1.6545652151107788e+00" cType="1" res="-6.2276206910610199e-02" rms="3.6068257689476013e-01" purity="1.6787335276603699e-01" nType="0">
                  <Node pos="l" depth="6" NCoef="0" IVar="0" Cut="3.0623200535774231e-01" cType="1" res="-4.0147647261619568e-02" rms="4.1627168655395508e-01" purity="2.3308975994586945e-01" nType="0">
                    <Node pos="l" depth="7" NCoef="0" IVar="-1" Cut="0.0000000000000000e+00" cType="1" res="-3.6699248012155294e-03" rms="4.3311285972595215e-01" purity="2.6099926233291626e-01" nType="-99"/>
                    <Node pos="r" depth="7" NCoef="0" IVar="-1" Cut="0.0000000000000000e+00" cType="1" res="-6.8185860291123390e-03" rms="3.9930152893066406e-01" purity="2.0648233592510223e-01" nType="-99"/>
                  </Node>
                  <Node pos="r" depth="6" NCoef="0" IVar="-1" Cut="0.0000000000000000e+00" cType="1" res="-1.7909703776240349e-02" rms="2.5921800732612610e-01" purity="7.5432270765304565e-02" nType="-99"/>
                </Node>
                <Node pos="r" depth="5" NCoef="0" IVar="2" Cut="1.7272520446777344e+02" cType="1" res="-9.4277366995811462e-02" rms="2.1080794930458069e-01" purity="4.9151077866554260e-02" nType="0">
                  <Node pos="l" depth="6" NCoef="0" IVar="7" Cut="5.0000000000000000e+00" cType="1" res="-8.6349427700042725e-02" rms="2.1824839711189270e-01" purity="5.3441088646650314e-02" nType="0">
                    <Node pos="l" depth="7" NCoef="0" IVar="-1" Cut="0.0000000000000000e+00" cType="1" res="-1.6565447673201561e-02" rms="2.7086165547370911e-01" purity="8.3463035523891449e-02" nType="-99"/>
                    <Node pos="r" depth="7" NCoef="0" IVar="-1" Cut="0.0000000000000000e+00" cType="1" res="-2.5087056681513786e-02" rms="1.7033521831035614e-01" purity="3.1815562397241592e-02" nType="-99"/>
                  </Node>
                  <Node pos="r" depth="6" NCoef="0" IVar="5" Cut="-1.7330862581729889e-01" cType="1" res="-9.8710566759109497e-02" rms="2.0611439645290375e-01" purity="4.6587310731410980e-02" nType="0">
                    <Node pos="l" depth="7" NCoef="0" IVar="-1" Cut="0.0000000000000000e+00" cType="1" res="-2.0445205271244049e-02" rms="2.4509030580520630e-01" purity="6.7752651870250702e-02" nType="-99"/>
                    <Node pos="r" depth="7" NCoef="0" IVar="-1" Cut="0.0000000000000000e+00" cType="1" res="-2.3927666246891022e-02" rms="1.7759734392166138e-01" purity="3.3444572240114212e-02" nType="-99"/>
                  </Node>
                </Node>
              </Node>
            </Node>
          </Node>
          <Node pos="r" depth="2" NCoef="0" IVar="4" Cut="9.9802076816558838e-01" cType="1" res="-3.6327578127384186e-03" rms="4.7946548461914062e-01" purity="4.7453880310058594e-01" nType="0">
            <Node pos="l" depth="3" NCoef="0" IVar="1" Cut="5.4197620600461960e-02" cType="1" res="5.4544066078960896e-03" rms="4.8515227437019348e-01" purity="4.9936154484748840e-01" nType="0">
              <Node pos="l" depth="4" NCoef="0" IVar="7" Cut="3.0000000000000000e+00" cType="1" res="3.3485278487205505e-02" rms="4.8584300279617310e-01" purity="5.4909437894821167e-01" nType="0">
                <Node pos="l" depth="5" NCoef="0" IVar="3" Cut="7.1979165077209473e-01" cType="1" res="8.0805714242160320e-04" rms="4.8959550261497498e-01" purity="5.1353126764297485e-01" nType="0">
                  <Node pos="l" depth="6" NCoef="0" IVar="-1" Cut="0.0000000000000000e+00" cType="1" res="-1.1943073477596045e-03" rms="4.8797541856765747e-01" purity="4.5855998992919922e-01" nType="-99"/>
                  <Node pos="r" depth="6" NCoef="0" IVar="-1" Cut="0.0000000000000000e+00" cType="1" res="1.4767971588298678e-03" rms="4.9089390039443970e-01" purity="5.7634955644607544e-01" nType="-99"/>
                </Node>
                <Node pos="r" depth="5" NCoef="0" IVar="2" Cut="1.2317839050292969e+02" cType="1" res="4.5613013207912445e-02" rms="4.8488393425941467e-01" purity="5.6392014026641846e-01" nType="0">
                  <Node pos="l" depth="6" NCoef="0" IVar="6" Cut="4.3550819158554077e-02" cType="1" res="6.8826369941234589e-02" rms="4.8210567235946655e-01" purity="5.9986692667007446e-01" nType="0">
                    <Node pos="l" depth="7" NCoef="0" IVar="-1" Cut="0.0000000000000000e+00" cType="1" res="2.7958219870924950e-03" rms="4.8764532804489136e-01" purity="5.6094568967819214e-01" nType="-99"/>
                    <Node pos="r" depth="7" NCoef="0" IVar="-1" Cut="0.0000000000000000e+00" cType="1" res="8.0178417265415192e-03" rms="4.7470989823341370e-01" purity="6.3450157642364502e-01" nType="-99"/>
                  </Node>
                  <Node pos="r" depth="6" NCoef="0" IVar="0" Cut="1.4481383562088013e-01" cType="1" res="2.4017989635467529e-02" rms="4.8646071553230286e-01" purity="5.3047949075698853e-01" nType="0">
                    <Node pos="l" depth="7" NCoef="0" IVar="-1" Cut="0.0000000000000000e+00" cType="1" res="4.5668478123843670e-03" rms="4.8294118046760559e-01" purity="6.0424470901489258e-01" nType="-99"/>
                    <Node pos="r" depth="7" NCoef="0" IVar="-1" Cut="0.0000000000000000e+00" cType="1" res="-5.7939440011978149e-04" rms="4.8843079805374146e-01" purity="4.5101806521415710e-01" nType="-99"/>
                  </Node>
                </Node>
              </Node>
              <Node pos="r" depth="4" NCoef="0" IVar="0" Cut="4.2297551035881042e-01" cType="1" res="-1.9868522882461548e-02" rms="4.8232069611549377e-01" purity="4.5267590880393982e-01" nType="0">
                <Node pos="l" depth="5" NCoef="0" IVar="0" Cut="1.7736369371414185e-01" cType="1" res="-4.2463992722332478e-03" rms="4.9093845486640930e-01" purity="5.0301390886306763e-01" nType="0">
                  <Node pos="l" depth="6" NCoef="0" IVar="4" Cut="-1.3130184412002563e+00" cType="1" res="1.9979322329163551e-02" rms="4.9003574252128601e-01" purity="5.4972290992736816e-01" nType="0">
                    <Node pos="l" depth="7" NCoef="0" IVar="-1" Cut="0.0000000000000000e+00" cType="1" res="2.6914540212601423e-03" rms="4.8809957504272461e-01" purity="5.7893610000610352e-01" nType="-99"/>
                    <Node pos="r" depth="7" NCoef="0" IVar="-1" Cut="0.0000000000000000e+00" cType="1" res="6.9758726749569178e-04" rms="4.9145260453224182e-01" purity="5.2369654178619385e-01" nType="-99"/>
                  </Node>
                  <Node pos="r" depth="6" NCoef="0" IVar="0" Cut="3.2798019051551819e-01" cType="1" res="-3.6116037517786026e-02" rms="4.9030375480651855e-01" purity="4.4156682491302490e-01" nType="0">
                    <Node pos="l" depth="7" NCoef="0" IVar="-1" Cut="0.0000000000000000e+00" cType="1" res="-4.6394951641559601e-03" rms="4.9133500456809998e-01" purity="4.4353944063186646e-01" nType="-99"/>
                    <Node pos="r" depth="7" NCoef="0" IVar="-1" Cut="0.0000000000000000e+00" cType="1" res="-1.6373285325244069e-03" rms="4.8843148350715637e-01" purity="4.3903377652168274e-01" nType="-99"/>
                  </Node>
                </Node>
                <Node pos="r" depth="5" NCoef="0" IVar="7" Cut="3.0000000000000000e+00" cType="1" res="-5.9655662626028061e-02" rms="4.5405152440071106e-01" purity="3.1540924310684204e-01" nType="0">
                  <Node pos="l" depth="6" NCoef="0" IVar="-1" Cut="0.0000000000000000e+00" cType="1" res="-9.7972052171826363e-03" rms="4.4074004888534546e-01" purity="2.8461271524429321e-01" nType="-99"/>
                  <Node pos="r" depth="6" NCoef="0" IVar="-1" Cut="0.0000000000000000e+00" cType="1" res="-3.1213539186865091e-03" rms="4.6614190936088562e-01" purity="3.4381279349327087e-01" nType="-99"/>
                </Node>
              </Node>
            </Node>
            <Node pos="r" depth="3" NCoef="0" IVar="-1" Cut="0.0000000000000000e+00" cType="1" res="-9.4547113403677940e-03" rms="4.1464167833328247e-01" purity="2.4706928431987762e-01" nType="-99"/>
          </Node>
        </Node>
        <Node pos="r" depth="1" NCoef="0" IVar="1" Cut="5.0322329998016357e-01" cType="1" res="7.2951786220073700e-02" rms="4.2717623710632324e-01" purity="7.3796570301055908e-01" nType="0">
          <Node pos="l" depth="2" NCoef="0" IVar="5" Cut="-2.8391363620758057e+00" cType="1" res="8.4129020571708679e-02" rms="4.1914629936218262e-01" purity="7.5625342130661011e-01" nType="0">
            <Node pos="l" depth="3" NCoef="0" IVar="3" Cut="9.0473222732543945e-01" cType="1" res="1.0910428315401077e-01" rms="3.7827268242835999e-01" purity="8.2172882556915283e-01" nType="0">
              <Node pos="l" depth="4" NCoef="0" IVar="2" Cut="6.2248184204101562e+01" cType="1" res="8.3037175238132477e-02" rms="4.2855802178382874e-01" purity="7.5032389163970947e-01" nType="0">
                <Node pos="l" depth="5" NCoef="0" IVar="-1" Cut="0.0000000000000000e+00" cType="1" res="8.9946258813142776e-03" rms="4.1539317369461060e-01" purity="7.7310079336166382e-01" nType="-99"/>
                <Node pos="r" depth="5" NCoef="0" IVar="-1" Cut="0.0000000000000000e+00" cType="1" res="6.1487434431910515e-03" rms="4.4073164463043213e-01" purity="7.2714269161224365e-01" nType="-99"/>
              </Node>
              <Node pos="r" depth="4" NCoef="0" IVar="4" Cut="-1.1198308467864990e+00" cType="1" res="1.1596643179655075e-01" rms="3.6357083916664124e-01" purity="8.4052616357803345e-01" nType="0">
                <Node pos="l" depth="5" NCoef="0" IVar="4" Cut="-1.8836135864257812e+00" cType="1" res="9.6812151372432709e-02" rms="4.0605464577674866e-01" purity="7.8868281841278076e-01" nType="0">
                  <Node pos="l" depth="6" NCoef="0" IVar="-1" Cut="0.0000000000000000e+00" cType="1" res="9.7012398764491081e-03" rms="3.9353600144386292e-01" purity="8.0475306510925293e-01" nType="-99"/>
                  <Node pos="r" depth="6" NCoef="0" IVar="-1" Cut="0.0000000000000000e+00" cType="1" res="6.8509709089994431e-03" rms="4.1610220074653625e-01" purity="7.7517408132553101e-01" nType="-99"/>
                </Node>
                <Node pos="r" depth="5" NCoef="0" IVar="4" Cut="-2.2470912337303162e-01" cType="1" res="1.2162052839994431e-01" rms="3.4984549880027771e-01" purity="8.5582965612411499e-01" nType="0">
                  <Node pos="l" depth="6" NCoef="0" IVar="3" Cut="1.0080837011337280e+00" cType="1" res="1.1780964583158493e-01" rms="3.5538774728775024e-01" purity="8.5010695457458496e-01" nType="0">
                    <Node pos="l" depth="7" NCoef="0" IVar="-1" Cut="0.0000000000000000e+00" cType="1" res="1.0954543948173523e-02" rms="3.5974308848381042e-01" purity="8.4558522701263428e-01" nType="-99"/>
                    <Node pos="r" depth="7" NCoef="0" IVar="-1" Cut="0.0000000000000000e+00" cType="1" res="1.1762128211557865e-02" rms="3.4345647692680359e-01" purity="8.6204087734222412e-01" nType="-99"/>
                  </Node>
                  <Node pos="r" depth="6" NCoef="0" IVar="4" Cut="1.7811290919780731e-02" cType="1" res="1.2791691720485687e-01" rms="3.4039747714996338e-01" purity="8.6528491973876953e-01" nType="0">
                    <Node pos="l" depth="7" NCoef="0" IVar="-1" Cut="0.0000000000000000e+00" cType="1" res="1.3494558632373810e-02" rms="3.3307471871376038e-01" purity="8.7170010805130005e-01" nType="-99"/>
                    <Node pos="r" depth="7" NCoef="0" IVar="-1" Cut="0.0000000000000000e+00" cType="1" res="1.2124162167310715e-02" rms="3.5091498494148254e-01" purity="8.5567778348922729e-01" nType="-99"/>
                  </Node>
                </Node>
              </Node>
            </Node>
            <Node pos="r" depth="3" NCoef="0" IVar="5" Cut="-1.1702449321746826e+00" cType="1" res="7.1986421942710876e-02" rms="4.3712621927261353e-01" purity="7.2442030906677246e-01" nType="0">
              <Node pos="l" depth="4" NCoef="0" IVar="2" Cut="1.7305223083496094e+02" cType="1" res="7.9045437276363373e-02" rms="4.2732256650924683e-01" purity="7.5147396326065063e-01" nType="0">
                <Node pos="l" depth="5" NCoef="0" IVar="0" Cut="2.9101207852363586e-01" cType="1" res="8.2083083689212799e-02" rms="4.2376735806465149e-01" purity="7.5850838422775269e-01" nType="0">
                  <Node pos="l" depth="6" NCoef="0" IVar="3" Cut="8.6547428369522095e-01" cType="1" res="8.6179889738559723e-02" rms="4.1988641023635864e-01" purity="7.6647573709487915e-01" nType="0">
                    <Node pos="l" depth="7" NCoef="0" IVar="-1" Cut="0.0000000000000000e+00" cType="1" res="5.2945800125598907e-03" rms="4.5275211334228516e-01" purity="7.0670777559280396e-01" nType="-99"/>
                    <Node pos="r" depth="7" NCoef="0" IVar="-1" Cut="0.0000000000000000e+00" cType="1" res="8.4499567747116089e-03" rms="4.0917202830314636e-01" purity="7.8459906578063965e-01" nType="-99"/>
                  </Node>
                  <Node pos="r" depth="6" NCoef="0" IVar="-1" Cut="0.0000000000000000e+00" cType="1" res="1.4753957511857152e-03" rms="4.7611159086227417e-01" purity="6.3313049077987671e-01" nType="-99"/>
                </Node>
                <Node pos="r" depth="5" NCoef="0" IVar="-1" Cut="0.0000000000000000e+00" cType="1" res="4.2121191509068012e-03" rms="4.6344524621963501e-01" purity="6.7381685972213745e-01" nType="-99"/>
              </Node>
              <Node pos="r" depth="4" NCoef="0" IVar="4" Cut="-8.8432520627975464e-02" cType="1" res="3.2672625035047531e-02" rms="4.8626610636711121e-01" purity="5.7375001907348633e-01" nType="0">
                <Node pos="l" depth="5" NCoef="0" IVar="-1" Cut="0.0000000000000000e+00" cType="1" res="3.6848308518528938e-03" rms="4.8563227057456970e-01" purity="6.0736852884292603e-01" nType="-99"/>
                <Node pos="r" depth="5" NCoef="0" IVar="4" Cut="6.9849109649658203e-01" cType="1" res="2.1870834752917290e-02" rms="4.8658069968223572e-01" purity="5.4358273744583130e-01" nType="0">
                  <Node pos="l" depth="6" NCoef="0" IVar="-1" Cut="0.0000000000000000e+00" cType="1" res="4.4350032694637775e-03" rms="4.8344263434410095e-01" purity="5.9995168447494507e-01" nType="-99"/>
                  <Node pos="r" depth="6" NCoef="0" IVar="-1" Cut="0.0000000000000000e+00" cType="1" res="-7.9273059964179993e-04" rms="4.8799440264701843e-01" purity="4.8413386940956116e-01" nType="-99"/>
                </Node>
              </Node>
            </Node>
          </Node>
          <Node pos="r" depth="2" NCoef="0" IVar="5" Cut="-2.0824518203735352e+00" cType="1" res="3.6167218349874020e-03" rms="4.6803209185600281e-01" purity="6.2452226877212524e-01" nType="0">
            <Node pos="l" depth="3" NCoef="0" IVar="3" Cut="9.8241198062896729e-01" cType="1" res="2.9454566538333893e-02" rms="4.5792201161384583e-01" purity="6.8002134561538696e-01" nType="0">
              <Node pos="l" depth="4" NCoef="0" IVar="-1" Cut="0.0000000000000000e+00" cType="1" res="-4.1558637167327106e-04" rms="4.8259416222572327e-01" purity="6.0741513967514038e-01" nType="-99"/>
              <Node pos="r" depth="4" NCoef="0" IVar="4" Cut="-3.0354741215705872e-01" cType="1" res="5.3182598203420639e-02" rms="4.3846321105957031e-01" purity="7.3029255867004395e-01" nType="0">
                <Node pos="l" depth="5" NCoef="0" IVar="-1" Cut="0.0000000000000000e+00" cType="1" res="3.0459843110293150e-03" rms="4.5114275813102722e-01" purity="7.0295786857604980e-01" nType="-99"/>
                <Node pos="r" depth="5" NCoef="0" IVar="-1" Cut="0.0000000000000000e+00" cType="1" res="6.3088503666222095e-03" rms="4.2435148358345032e-01" purity="7.5875848531723022e-01" nType="-99"/>
              </Node>
            </Node>
            <Node pos="r" depth="3" NCoef="0" IVar="5" Cut="-1.4559389352798462e+00" cType="1" res="-4.7508534044027328e-02" rms="4.8336613178253174e-01" purity="5.1470643281936646e-01" nType="0">
              <Node pos="l" depth="4" NCoef="0" IVar="-1" Cut="0.0000000000000000e+00" cType="1" res="-7.4212678009644151e-04" rms="4.8355001211166382e-01" purity="5.9416735172271729e-01" nType="-99"/>
              <Node pos="r" depth="4" NCoef="0" IVar="-1" Cut="0.0000000000000000e+00" cType="1" res="-7.8142276033759117e-03" rms="4.7983309626579285e-01" purity="4.3101254105567932e-01" nType="-99"/>
            </Node>
          </Node>
        </Node>
      </Node>
    </BinaryTree>
    <BinaryTree type="DecisionTree" boostWeight="1.0000000000000000e+00" itree="32">
      <Node pos="s" depth="0" NCoef="0" IVar="3" Cut="7.7308648824691772e-01" cType="1" res="1.4497726224362850e-02" rms="4.1275298595428467e-01" purity="5.0009489059448242e-01" nType="0">
        <Node pos="l" depth="1" NCoef="0" IVar="3" Cut="5.7376945018768311e-01" cType="1" res="-4.0319245308637619e-02" rms="3.9054927229881287e-01" purity="2.6404476165771484e-01" nType="0">
          <Node pos="l" depth="2" NCoef="0" IVar="5" Cut="-1.2442203760147095e+00" cType="1" res="-6.3306421041488647e-02" rms="3.2531872391700745e-01" purity="1.3885694742202759e-01" nType="0">
            <Node pos="l" depth="3" NCoef="0" IVar="6" Cut="1.0671886056661606e-01" cType="1" res="-5.4222751408815384e-02" rms="3.5913059115409851e-01" purity="1.7493094503879547e-01" nType="0">
              <Node pos="l" depth="4" NCoef="0" IVar="1" Cut="2.8645029664039612e-01" cType="1" res="-6.7685492336750031e-02" rms="3.2640096545219421e-01" purity="1.3828888535499573e-01" nType="0">
                <Node pos="l" depth="5" NCoef="0" IVar="2" Cut="1.2047846984863281e+02" cType="1" res="-4.5879215002059937e-02" rms="3.7561094760894775e-01" purity="1.9633744657039642e-01" nType="0">
                  <Node pos="l" depth="6" NCoef="0" IVar="6" Cut="4.8646304756402969e-02" cType="1" res="-9.8883127793669701e-03" rms="4.1151508688926697e-01" purity="2.5183168053627014e-01" nType="0">
                    <Node pos="l" depth="7" NCoef="0" IVar="-1" Cut="0.0000000000000000e+00" cType="1" res="-5.6466204114258289e-03" rms="3.8441160321235657e-01" purity="2.0418311655521393e-01" nType="-99"/>
                    <Node pos="r" depth="7" NCoef="0" IVar="-1" Cut="0.0000000000000000e+00" cType="1" res="2.4170274846255779e-03" rms="4.3527209758758545e-01" purity="3.0016839504241943e-01" nType="-99"/>
                  </Node>
                  <Node pos="r" depth="6" NCoef="0" IVar="6" Cut="7.1061514317989349e-02" cType="1" res="-7.3005102574825287e-02" rms="3.4361529350280762e-01" purity="1.5451215207576752e-01" nType="0">
                    <Node pos="l" depth="7" NCoef="0" IVar="-1" Cut="0.0000000000000000e+00" cType="1" res="-1.4996338635683060e-02" rms="3.1081059575080872e-01" purity="1.2010378390550613e-01" nType="-99"/>
                    <Node pos="r" depth="7" NCoef="0" IVar="-1" Cut="0.0000000000000000e+00" cType="1" res="-8.9747570455074310e-03" rms="3.6338093876838684e-01" purity="1.7771564424037933e-01" nType="-99"/>
                  </Node>
                </Node>
                <Node pos="r" depth="5" NCoef="0" IVar="5" Cut="-3.0997192859649658e+00" cType="1" res="-8.6367748677730560e-02" rms="2.7601504325866699e-01" purity="8.8556490838527679e-02" nType="0">
                  <Node pos="l" depth="6" NCoef="0" IVar="-1" Cut="0.0000000000000000e+00" cType="1" res="-2.0808611065149307e-02" rms="2.3803244531154633e-01" purity="6.1928290873765945e-02" nType="-99"/>
                  <Node pos="r" depth="6" NCoef="0" IVar="2" Cut="9.9936614990234375e+01" cType="1" res="-8.1128396093845367e-02" rms="2.9096454381942749e-01" purity="1.0023897886276245e-01" nType="0">
                    <Node pos="l" depth="7" NCoef="0" IVar="-1" Cut="0.0000000000000000e+00" cType="1" res="-1.2234798632562160e-02" rms="3.1209748983383179e-01" purity="1.1950648576021194e-01" nType="-99"/>
                    <Node pos="r" depth="7" NCoef="0" IVar="-1" Cut="0.0000000000000000e+00" cType="1" res="-1.7239341512322426e-02" rms="2.7694055438041687e-01" purity="8.8552758097648621e-02" nType="-99"/>
                  </Node>
                </Node>
              </Node>
              <Node pos="r" depth="4" NCoef="0" IVar="3" Cut="5.0101333856582642e-01" cType="1" res="-3.9241317659616470e-02" rms="3.9181238412857056e-01" purity="2.1570651233196259e-01" nType="0">
                <Node pos="l" depth="5" NCoef="0" IVar="6" Cut="2.0966459810733795e-01" cType="1" res="-4.6118207275867462e-02" rms="3.7289801239967346e-01" purity="1.8258708715438843e-01" nType="0">
                  <Node pos="l" depth="6" NCoef="0" IVar="0" Cut="1.4707262516021729e+00" cType="1" res="-5.6369539350271225e-02" rms="3.5370263457298279e-01" purity="1.6025713086128235e-01" nType="0">
                    <Node pos="l" depth="7" NCoef="0" IVar="-1" Cut="0.0000000000000000e+00" cType="1" res="-5.7774954475462437e-03" rms="3.9785167574882507e-01" purity="2.1055333316326141e-01" nType="-99"/>
                    <Node pos="r" depth="7" NCoef="0" IVar="-1" Cut="0.0000000000000000e+00" cType="1" res="-1.8008243292570114e-02" rms="2.6553872227668762e-01" purity="7.8905783593654633e-02" nType="-99"/>
                  </Node>
                  <Node pos="r" depth="6" NCoef="0" IVar="3" Cut="1.9973845779895782e-01" cType="1" res="-1.6924966126680374e-02" rms="4.2144992947578430e-01" purity="2.4617721140384674e-01" nType="0">
                    <Node pos="l" depth="7" NCoef="0" IVar="-1" Cut="0.0000000000000000e+00" cType="1" res="-4.6279663220047951e-03" rms="4.0567395091056824e-01" purity="2.2237439453601837e-01" nType="-99"/>
                    <Node pos="r" depth="7" NCoef="0" IVar="-1" Cut="0.0000000000000000e+00" cType="1" res="-8.4706029156222939e-05" rms="4.3609669804573059e-01" purity="2.7005323767662048e-01" nType="-99"/>
                  </Node>
                </Node>
                <Node pos="r" depth="5" NCoef="0" IVar="-1" Cut="0.0000000000000000e+00" cType="1" res="4.0940608414530288e-06" rms="4.8407685756683350e-01" purity="4.0490409731864929e-01" nType="-99"/>
              </Node>
            </Node>
            <Node pos="r" depth="3" NCoef="0" IVar="6" Cut="2.0147222280502319e-01" cType="1" res="-7.7881403267383575e-02" rms="2.6144728064537048e-01" purity="8.0975279211997986e-02" nType="0">
              <Node pos="l" depth="4" NCoef="0" IVar="5" Cut="8.1003218889236450e-02" cType="1" res="-8.2936927676200867e-02" rms="2.4363924562931061e-01" purity="6.9954521954059601e-02" nType="0">
                <Node pos="l" depth="5" NCoef="0" IVar="2" Cut="2.5896697998046875e+02" cType="1" res="-7.1435071527957916e-02" rms="3.0729222297668457e-01" purity="1.1517039686441422e-01" nType="0">
                  <Node pos="l" depth="6" NCoef="0" IVar="6" Cut="9.1455817222595215e-02" cType="1" res="-5.8215539902448654e-02" rms="3.1577679514884949e-01" purity="1.2523400783538818e-01" nType="0">
                    <Node pos="l" depth="7" NCoef="0" IVar="-1" Cut="0.0000000000000000e+00" cType="1" res="-1.4704590663313866e-02" rms="2.8380414843559265e-01" purity="9.7646147012710571e-02" nType="-99"/>
                    <Node pos="r" depth="7" NCoef="0" IVar="-1" Cut="0.0000000000000000e+00" cType="1" res="-5.2584675140678883e-03" rms="3.5656353831291199e-01" purity="1.6650837659835815e-01" nType="-99"/>
                  </Node>
                  <Node pos="r" depth="6" NCoef="0" IVar="-1" Cut="0.0000000000000000e+00" cType="1" res="-1.6036836430430412e-02" rms="2.9404774308204651e-01" purity="1.0112163424491882e-01" nType="-99"/>
                </Node>
                <Node pos="r" depth="5" NCoef="0" IVar="5" Cut="2.0760059356689453e+00" cType="1" res="-9.2312984168529510e-02" rms="1.7486371099948883e-01" purity="3.3095527440309525e-02" nType="0">
                  <Node pos="l" depth="6" NCoef="0" IVar="2" Cut="2.2325000000000000e+02" cType="1" res="-8.5732921957969666e-02" rms="2.1491394937038422e-01" purity="5.0968103110790253e-02" nType="0">
                    <Node pos="l" depth="7" NCoef="0" IVar="-1" Cut="0.0000000000000000e+00" cType="1" res="-2.0190495997667313e-02" rms="2.1818606555461884e-01" purity="5.2900247275829315e-02" nType="-99"/>
                    <Node pos="r" depth="7" NCoef="0" IVar="-1" Cut="0.0000000000000000e+00" cType="1" res="-2.0781481638550758e-02" rms="2.1163275837898254e-01" purity="4.9138259142637253e-02" nType="-99"/>
                  </Node>
                  <Node pos="r" depth="6" NCoef="0" IVar="3" Cut="3.3348661661148071e-01" cType="1" res="-1.0112878680229187e-01" rms="9.7605258226394653e-02" purity="9.1503094881772995e-03" nType="0">
                    <Node pos="l" depth="7" NCoef="0" IVar="-1" Cut="0.0000000000000000e+00" cType="1" res="-3.0091453343629837e-02" rms="9.3746744096279144e-02" purity="8.8818762451410294e-03" nType="-99"/>
                    <Node pos="r" depth="7" NCoef="0" IVar="-1" Cut="0.0000000000000000e+00" cType="1" res="-2.8596676886081696e-02" rms="1.0126507282257080e-01" purity="9.5221893861889839e-03" nType="-99"/>
                  </Node>
                </Node>
              </Node>
              <Node pos="r" depth="4" NCoef="0" IVar="3" Cut="2.3859266936779022e-01" cType="1" res="-5.2680786699056625e-02" rms="3.3530324697494507e-01" purity="1.3591130077838898e-01" nType="0">
                <Node pos="l" depth="5" NCoef="0" IVar="-1" Cut="0.0000000000000000e+00" cType="1" res="-5.7689882814884186e-03" rms="3.5977277159690857e-01" purity="1.5885937213897705e-01" nType="-99"/>
                <Node pos="r" depth="5" NCoef="0" IVar="-1" Cut="0.0000000000000000e+00" cType="1" res="-1.3076744973659515e-02" rms="3.0764627456665039e-01" purity="1.1303011327981949e-01" nType="-99"/>
              </Node>
            </Node>
          </Node>
          <Node pos="r" depth="2" NCoef="0" IVar="1" Cut="3.4767001867294312e-01" cType="1" res="-8.1876001786440611e-04" rms="4.7989818453788757e-01" purity="4.7916373610496521e-01" nType="0">
            <Node pos="l" depth="3" NCoef="0" IVar="5" Cut="-1.1996195316314697e+00" cType="1" res="1.5735497698187828e-02" rms="4.8259866237640381e-01" purity="5.1245653629302979e-01" nType="0">
              <Node pos="l" depth="4" NCoef="0" IVar="3" Cut="7.1520024538040161e-01" cType="1" res="3.1098812818527222e-02" rms="4.8626250028610229e-01" purity="5.5397534370422363e-01" nType="0">
                <Node pos="l" depth="5" NCoef="0" IVar="6" Cut="6.0929477214813232e-02" cType="1" res="1.8201386556029320e-02" rms="4.9146071076393127e-01" purity="5.0786691904067993e-01" nType="0">
                  <Node pos="l" depth="6" NCoef="0" IVar="2" Cut="5.7627151489257812e+01" cType="1" res="-8.0367131158709526e-03" rms="4.9006447196006775e-01" purity="4.7024363279342651e-01" nType="0">
                    <Node pos="l" depth="7" NCoef="0" IVar="-1" Cut="0.0000000000000000e+00" cType="1" res="3.1633544713258743e-03" rms="4.9220839142799377e-01" purity="5.2789402008056641e-01" nType="-99"/>
                    <Node pos="r" depth="7" NCoef="0" IVar="-1" Cut="0.0000000000000000e+00" cType="1" res="-3.5157490056008101e-03" rms="4.8632860183715820e-01" purity="4.3311476707458496e-01" nType="-99"/>
                  </Node>
                  <Node pos="r" depth="6" NCoef="0" IVar="2" Cut="2.4473591613769531e+02" cType="1" res="3.4926224499940872e-02" rms="4.9161839485168457e-01" purity="5.3184896707534790e-01" nType="0">
                    <Node pos="l" depth="7" NCoef="0" IVar="-1" Cut="0.0000000000000000e+00" cType="1" res="4.7244718298316002e-03" rms="4.8921456933021545e-01" purity="5.6231194734573364e-01" nType="-99"/>
                    <Node pos="r" depth="7" NCoef="0" IVar="-1" Cut="0.0000000000000000e+00" cType="1" res="5.7011384342331439e-05" rms="4.9319726228713989e-01" purity="4.8637512326240540e-01" nType="-99"/>
                  </Node>
                </Node>
                <Node pos="r" depth="5" NCoef="0" IVar="7" Cut="3.0000000000000000e+00" cType="1" res="5.6123908609151840e-02" rms="4.7425499558448792e-01" purity="6.4151573181152344e-01" nType="0">
                  <Node pos="l" depth="6" NCoef="0" IVar="-1" Cut="0.0000000000000000e+00" cType="1" res="3.0748820863664150e-03" rms="4.8525461554527283e-01" purity="6.0591906309127808e-01" nType="-99"/>
                  <Node pos="r" depth="6" NCoef="0" IVar="-1" Cut="0.0000000000000000e+00" cType="1" res="6.0354755260050297e-03" rms="4.6673664450645447e-01" purity="6.6980528831481934e-01" nType="-99"/>
                </Node>
              </Node>
              <Node pos="r" depth="4" NCoef="0" IVar="2" Cut="1.4590191650390625e+02" cType="1" res="-4.1071727871894836e-02" rms="4.6440941095352173e-01" purity="3.5893693566322327e-01" nType="0">
                <Node pos="l" depth="5" NCoef="0" IVar="-1" Cut="0.0000000000000000e+00" cType="1" res="-7.4459688039496541e-04" rms="4.7874602675437927e-01" purity="4.0423327684402466e-01" nType="-99"/>
                <Node pos="r" depth="5" NCoef="0" IVar="-1" Cut="0.0000000000000000e+00" cType="1" res="-7.2057414799928665e-03" rms="4.4928425550460815e-01" purity="3.1877303123474121e-01" nType="-99"/>
              </Node>
            </Node>
            <Node pos="r" depth="3" NCoef="0" IVar="7" Cut="3.0000000000000000e+00" cType="1" res="-5.0821341574192047e-02" rms="4.6751108765602112e-01" purity="3.7744385004043579e-01" nType="0">
              <Node pos="l" depth="4" NCoef="0" IVar="-1" Cut="0.0000000000000000e+00" cType="1" res="-8.4666814655065536e-03" rms="4.5533257722854614e-01" purity="3.3093747496604919e-01" nType="-99"/>
              <Node pos="r" depth="4" NCoef="0" IVar="4" Cut="-6.8735641241073608e-01" cType="1" res="-2.9748920351266861e-02" rms="4.7374820709228516e-01" purity="4.0441304445266724e-01" nType="0">
                <Node pos="l" depth="5" NCoef="0" IVar="-1" Cut="0.0000000000000000e+00" cType="1" res="-4.6777864918112755e-04" rms="4.8699331283569336e-01" purity="4.6257692575454712e-01" nType="-99"/>
                <Node pos="r" depth="5" NCoef="0" IVar="-1" Cut="0.0000000000000000e+00" cType="1" res="-5.3208386525511742e-03" rms="4.5874360203742981e-01" purity="3.4599426388740540e-01" nType="-99"/>
              </Node>
            </Node>
          </Node>
        </Node>
        <Node pos="r" depth="1" NCoef="0" IVar="1" Cut="5.0322329998016357e-01" cType="1" res="6.9707773625850677e-02" rms="4.2691290378570557e-01" purity="7.3783773183822632e-01" nType="0">
          <Node pos="l" depth="2" NCoef="0" IVar="5" Cut="-2.8391363620758057e+00" cType="1" res="7.9735092818737030e-02" rms="4.1920593380928040e-01" purity="7.5545793771743774e-01" nType="0">
            <Node pos="l" depth="3" NCoef="0" IVar="4" Cut="-1.1146976947784424e+00" cType="1" res="1.0501144826412201e-01" rms="3.7764656543731689e-01" purity="8.2229328155517578e-01" nType="0">
              <Node pos="l" depth="4" NCoef="0" IVar="4" Cut="-2.6450011730194092e+00" cType="1" res="8.6675658822059631e-02" rms="4.1633057594299316e-01" purity="7.7143621444702148e-01" nType="0">
                <Node pos="l" depth="5" NCoef="0" IVar="-1" Cut="0.0000000000000000e+00" cType="1" res="1.0955278761684895e-02" rms="3.8857451081275940e-01" purity="8.1368505954742432e-01" nType="-99"/>
                <Node pos="r" depth="5" NCoef="0" IVar="4" Cut="-2.1020786762237549e+00" cType="1" res="7.5735472142696381e-02" rms="4.2665985226631165e-01" purity="7.5418883562088013e-01" nType="0">
                  <Node pos="l" depth="6" NCoef="0" IVar="-1" Cut="0.0000000000000000e+00" cType="1" res="8.0109061673283577e-03" rms="4.2092683911323547e-01" purity="7.6243507862091064e-01" nType="-99"/>
                  <Node pos="r" depth="6" NCoef="0" IVar="-1" Cut="0.0000000000000000e+00" cType="1" res="5.7763955555856228e-03" rms="4.2947047948837280e-01" purity="7.4994379281997681e-01" nType="-99"/>
                </Node>
              </Node>
              <Node pos="r" depth="4" NCoef="0" IVar="1" Cut="-6.2872054986655712e-03" cType="1" res="1.1490590125322342e-01" rms="3.5463142395019531e-01" purity="8.4973704814910889e-01" nType="0">
                <Node pos="l" depth="5" NCoef="0" IVar="3" Cut="9.9506306648254395e-01" cType="1" res="1.2298548221588135e-01" rms="3.4217396378517151e-01" purity="8.6268103122711182e-01" nType="0">
                  <Node pos="l" depth="6" NCoef="0" IVar="-1" Cut="0.0000000000000000e+00" cType="1" res="1.0818374343216419e-02" rms="3.6489665508270264e-01" purity="8.3907401561737061e-01" nType="-99"/>
                  <Node pos="r" depth="6" NCoef="0" IVar="4" Cut="-3.9952370524406433e-01" cType="1" res="1.3056489825248718e-01" rms="3.2784447073936462e-01" purity="8.7656009197235107e-01" nType="0">
                    <Node pos="l" depth="7" NCoef="0" IVar="-1" Cut="0.0000000000000000e+00" cType="1" res="1.1886481195688248e-02" rms="3.3431228995323181e-01" purity="8.7094515562057495e-01" nType="-99"/>
                    <Node pos="r" depth="7" NCoef="0" IVar="-1" Cut="0.0000000000000000e+00" cType="1" res="1.3522926717996597e-02" rms="3.2304033637046814e-01" purity="8.8063979148864746e-01" nType="-99"/>
                  </Node>
                </Node>
                <Node pos="r" depth="5" NCoef="0" IVar="1" Cut="7.5926348567008972e-02" cType="1" res="1.0574636608362198e-01" rms="3.6803019046783447e-01" purity="8.3506298065185547e-01" nType="0">
                  <Node pos="l" depth="6" NCoef="0" IVar="-1" Cut="0.0000000000000000e+00" cType="1" res="1.1970950290560722e-02" rms="3.4945082664489746e-01" purity="8.5568124055862427e-01" nType="-99"/>
                  <Node pos="r" depth="6" NCoef="0" IVar="1" Cut="2.5512245297431946e-01" cType="1" res="1.0066761076450348e-01" rms="3.7503269314765930e-01" purity="8.2687461376190186e-01" nType="0">
                    <Node pos="l" depth="7" NCoef="0" IVar="-1" Cut="0.0000000000000000e+00" cType="1" res="1.0327634401619434e-02" rms="3.6870497465133667e-01" purity="8.3458352088928223e-01" nType="-99"/>
                    <Node pos="r" depth="7" NCoef="0" IVar="-1" Cut="0.0000000000000000e+00" cType="1" res="9.0331910178065300e-03" rms="3.8358077406883240e-01" purity="8.1618082523345947e-01" nType="-99"/>
                  </Node>
                </Node>
              </Node>
            </Node>
            <Node pos="r" depth="3" NCoef="0" IVar="5" Cut="-1.5874617099761963e+00" cType="1" res="6.7327052354812622e-02" rms="4.3763324618339539e-01" purity="7.2264879941940308e-01" nType="0">
              <Node pos="l" depth="4" NCoef="0" IVar="0" Cut="2.3162467777729034e-01" cType="1" res="7.6494276523590088e-02" rms="4.2274135351181030e-01" purity="7.5977182388305664e-01" nType="0">
                <Node pos="l" depth="5" NCoef="0" IVar="3" Cut="9.7351413965225220e-01" cType="1" res="8.2516312599182129e-02" rms="4.1713616251945496e-01" purity="7.7154922485351562e-01" nType="0">
                  <Node pos="l" depth="6" NCoef="0" IVar="1" Cut="1.0460472851991653e-01" cType="1" res="7.1046799421310425e-02" rms="4.3687108159065247e-01" purity="7.3948967456817627e-01" nType="0">
                    <Node pos="l" depth="7" NCoef="0" IVar="-1" Cut="0.0000000000000000e+00" cType="1" res="7.2298753075301647e-03" rms="4.2885443568229675e-01" purity="7.5461995601654053e-01" nType="-99"/>
                    <Node pos="r" depth="7" NCoef="0" IVar="-1" Cut="0.0000000000000000e+00" cType="1" res="4.2350874282419682e-03" rms="4.5482131838798523e-01" purity="7.0292562246322632e-01" nType="-99"/>
                  </Node>
                  <Node pos="r" depth="6" NCoef="0" IVar="4" Cut="-5.3027427196502686e-01" cType="1" res="9.2950992286205292e-02" rms="3.9804631471633911e-01" purity="8.0071616172790527e-01" nType="0">
                    <Node pos="l" depth="7" NCoef="0" IVar="-1" Cut="0.0000000000000000e+00" cType="1" res="6.8156267516314983e-03" rms="4.1452738642692566e-01" purity="7.7703797817230225e-01" nType="-99"/>
                    <Node pos="r" depth="7" NCoef="0" IVar="-1" Cut="0.0000000000000000e+00" cType="1" res="9.8159164190292358e-03" rms="3.8589277863502502e-01" purity="8.1721574068069458e-01" nType="-99"/>
                  </Node>
                </Node>
                <Node pos="r" depth="5" NCoef="0" IVar="-1" Cut="0.0000000000000000e+00" cType="1" res="9.8139897454530001e-04" rms="4.7456392645835876e-01" purity="6.3173007965087891e-01" nType="-99"/>
              </Node>
              <Node pos="r" depth="4" NCoef="0" IVar="4" Cut="8.2224696874618530e-01" cType="1" res="4.0568504482507706e-02" rms="4.7745221853256226e-01" purity="6.1428892612457275e-01" nType="0">
                <Node pos="l" depth="5" NCoef="0" IVar="4" Cut="-7.8000408411026001e-01" cType="1" res="5.0986386835575104e-02" rms="4.7502931952476501e-01" purity="6.3796025514602661e-01" nType="0">
                  <Node pos="l" depth="6" NCoef="0" IVar="5" Cut="-1.1913660764694214e+00" cType="1" res="3.5188186913728714e-02" rms="4.8009482026100159e-01" purity="6.2648862600326538e-01" nType="0">
                    <Node pos="l" depth="7" NCoef="0" IVar="-1" Cut="0.0000000000000000e+00" cType="1" res="3.7574274465441704e-03" rms="4.7130775451660156e-01" purity="6.6105699539184570e-01" nType="-99"/>
                    <Node pos="r" depth="7" NCoef="0" IVar="-1" Cut="0.0000000000000000e+00" cType="1" res="2.1128356456756592e-03" rms="4.8840191960334778e-01" purity="5.9247350692749023e-01" nType="-99"/>
                  </Node>
                  <Node pos="r" depth="6" NCoef="0" IVar="7" Cut="2.0000000000000000e+00" cType="1" res="6.1993245035409927e-02" rms="4.7101771831512451e-01" purity="6.4555460214614868e-01" nType="0">
                    <Node pos="l" depth="7" NCoef="0" IVar="-1" Cut="0.0000000000000000e+00" cType="1" res="6.6398782655596733e-03" rms="4.5989355444908142e-01" purity="6.8534702062606812e-01" nType="-99"/>
                    <Node pos="r" depth="7" NCoef="0" IVar="-1" Cut="0.0000000000000000e+00" cType="1" res="3.4929218236356974e-03" rms="4.8530259728431702e-01" purity="5.9293872117996216e-01" nType="-99"/>
                  </Node>
                </Node>
                <Node pos="r" depth="5" NCoef="0" IVar="-1" Cut="0.0000000000000000e+00" cType="1" res="-1.4583787415176630e-03" rms="4.8654666543006897e-01" purity="4.8516699671745300e-01" nType="-99"/>
              </Node>
            </Node>
          </Node>
          <Node pos="r" depth="2" NCoef="0" IVar="5" Cut="-2.1259143352508545e+00" cType="1" res="9.1773830354213715e-03" rms="4.6620613336563110e-01" purity="6.3147252798080444e-01" nType="0">
            <Node pos="l" depth="3" NCoef="0" IVar="4" Cut="-7.0819747447967529e-01" cType="1" res="3.9224330335855484e-02" rms="4.5391088724136353e-01" purity="6.9233334064483643e-01" nType="0">
              <Node pos="l" depth="4" NCoef="0" IVar="3" Cut="8.8623738288879395e-01" cType="1" res="1.6576338559389114e-02" rms="4.7284704446792603e-01" purity="6.4640820026397705e-01" nType="0">
                <Node pos="l" depth="5" NCoef="0" IVar="-1" Cut="0.0000000000000000e+00" cType="1" res="8.8716129539534450e-04" rms="4.8412847518920898e-01" purity="6.0863852500915527e-01" nType="-99"/>
                <Node pos="r" depth="5" NCoef="0" IVar="-1" Cut="0.0000000000000000e+00" cType="1" res="1.6758698038756847e-03" rms="4.6371844410896301e-01" purity="6.7614680528640747e-01" nType="-99"/>
              </Node>
              <Node pos="r" depth="4" NCoef="0" IVar="-1" Cut="0.0000000000000000e+00" cType="1" res="5.8965687640011311e-03" rms="4.2917907238006592e-01" purity="7.4607884883880615e-01" nType="-99"/>
            </Node>
            <Node pos="r" depth="3" NCoef="0" IVar="5" Cut="-1.3899705410003662e+00" cType="1" res="-4.8968795686960220e-02" rms="4.8385208845138550e-01" purity="5.1369595527648926e-01" nType="0">
              <Node pos="l" depth="4" NCoef="0" IVar="-1" Cut="0.0000000000000000e+00" cType="1" res="-1.9972620066255331e-03" rms="4.8538511991500854e-01" purity="5.7873231172561646e-01" nType="-99"/>
              <Node pos="r" depth="4" NCoef="0" IVar="-1" Cut="0.0000000000000000e+00" cType="1" res="-7.2598429396748543e-03" rms="4.7974738478660583e-01" purity="4.2700359225273132e-01" nType="-99"/>
            </Node>
          </Node>
        </Node>
      </Node>
    </BinaryTree>
    <BinaryTree type="DecisionTree" boostWeight="1.0000000000000000e+00" itree="33">
      <Node pos="s" depth="0" NCoef="0" IVar="3" Cut="7.7137583494186401e-01" cType="1" res="1.3990542851388454e-02" rms="4.1322842240333557e-01" purity="4.9923297762870789e-01" nType="0">
        <Node pos="l" depth="1" NCoef="0" IVar="3" Cut="6.2217015027999878e-01" cType="1" res="-3.7549205124378204e-02" rms="3.9157932996749878e-01" purity="2.6426532864570618e-01" nType="0">
          <Node pos="l" depth="2" NCoef="0" IVar="5" Cut="-1.4657717943191528e+00" cType="1" res="-5.3338591009378433e-02" rms="3.4686928987503052e-01" purity="1.6784909367561340e-01" nType="0">
            <Node pos="l" depth="3" NCoef="0" IVar="0" Cut="2.5292403697967529e+00" cType="1" res="-4.0729478001594543e-02" rms="3.8250803947448730e-01" purity="2.1205922961235046e-01" nType="0">
              <Node pos="l" depth="4" NCoef="0" IVar="0" Cut="5.7104760408401489e-01" cType="1" res="-3.3935230225324631e-02" rms="4.0015643835067749e-01" purity="2.3511695861816406e-01" nType="0">
                <Node pos="l" depth="5" NCoef="0" IVar="3" Cut="4.0471976995468140e-01" cType="1" res="1.1230237782001495e-02" rms="4.7497406601905823e-01" purity="3.7796631455421448e-01" nType="0">
                  <Node pos="l" depth="6" NCoef="0" IVar="-1" Cut="0.0000000000000000e+00" cType="1" res="7.1541597135365009e-03" rms="4.4990420341491699e-01" purity="3.0116739869117737e-01" nType="-99"/>
                  <Node pos="r" depth="6" NCoef="0" IVar="4" Cut="-1.3948297500610352e-01" cType="1" res="-1.1104043805971742e-03" rms="4.8127639293670654e-01" purity="4.0017628669738770e-01" nType="0">
                    <Node pos="l" depth="7" NCoef="0" IVar="-1" Cut="0.0000000000000000e+00" cType="1" res="-1.9782488234341145e-03" rms="4.7620576620101929e-01" purity="3.8196232914924622e-01" nType="-99"/>
                    <Node pos="r" depth="7" NCoef="0" IVar="-1" Cut="0.0000000000000000e+00" cType="1" res="3.6446971353143454e-03" rms="4.8919954895973206e-01" purity="4.3841361999511719e-01" nType="-99"/>
                  </Node>
                </Node>
                <Node pos="r" depth="5" NCoef="0" IVar="5" Cut="-3.3067328929901123e+00" cType="1" res="-6.2165077775716782e-02" rms="3.4224134683609009e-01" purity="1.4583162963390350e-01" nType="0">
                  <Node pos="l" depth="6" NCoef="0" IVar="-1" Cut="0.0000000000000000e+00" cType="1" res="-2.0030610263347626e-02" rms="2.6505517959594727e-01" purity="8.0390058457851410e-02" nType="-99"/>
                  <Node pos="r" depth="6" NCoef="0" IVar="0" Cut="1.6447614431381226e+00" cType="1" res="-5.4731916636228561e-02" rms="3.5255345702171326e-01" purity="1.5638957917690277e-01" nType="0">
                    <Node pos="l" depth="7" NCoef="0" IVar="-1" Cut="0.0000000000000000e+00" cType="1" res="-7.0389043539762497e-03" rms="3.7582364678382874e-01" purity="1.8119616806507111e-01" nType="-99"/>
                    <Node pos="r" depth="7" NCoef="0" IVar="-1" Cut="0.0000000000000000e+00" cType="1" res="-1.8328795209527016e-02" rms="2.5668460130691528e-01" purity="7.2296597063541412e-02" nType="-99"/>
                  </Node>
                </Node>
              </Node>
              <Node pos="r" depth="4" NCoef="0" IVar="7" Cut="6.0000000000000000e+00" cType="1" res="5.6791905313730240e-02" rms="0.0000000000000000e+00" purity="5.4989967495203018e-02" nType="0">
                <Node pos="l" depth="5" NCoef="0" IVar="-1" Cut="0.0000000000000000e+00" cType="1" res="-1.4520975761115551e-02" rms="2.8174868226051331e-01" purity="9.2184528708457947e-02" nType="-99"/>
                <Node pos="r" depth="5" NCoef="0" IVar="-1" Cut="0.0000000000000000e+00" cType="1" res="-2.6988059282302856e-02" rms="1.7705276608467102e-01" purity="3.2479323446750641e-02" nType="-99"/>
              </Node>
            </Node>
            <Node pos="r" depth="3" NCoef="0" IVar="4" Cut="-3.2117447257041931e-01" cType="1" res="-7.1562364697456360e-02" rms="2.8668361902236938e-01" purity="1.0395283997058868e-01" nType="0">
              <Node pos="l" depth="4" NCoef="0" IVar="-1" Cut="0.0000000000000000e+00" cType="1" res="-3.5430509597063065e-03" rms="3.9596548676490784e-01" purity="2.1998132765293121e-01" nType="-99"/>
              <Node pos="r" depth="4" NCoef="0" IVar="6" Cut="1.5753525495529175e-01" cType="1" res="-7.6498940587043762e-02" rms="2.7219915390014648e-01" purity="9.1760985553264618e-02" nType="0">
                <Node pos="l" depth="5" NCoef="0" IVar="5" Cut="7.2581529617309570e-01" cType="1" res="-8.2311779260635376e-02" rms="2.5754177570343018e-01" purity="8.3321422338485718e-02" nType="0">
                  <Node pos="l" depth="6" NCoef="0" IVar="3" Cut="5.4297846555709839e-01" cType="1" res="-7.5537890195846558e-02" rms="3.0543828010559082e-01" purity="1.2018553167581558e-01" nType="0">
                    <Node pos="l" depth="7" NCoef="0" IVar="-1" Cut="0.0000000000000000e+00" cType="1" res="-1.6966467723250389e-02" rms="2.5959467887878418e-01" purity="7.7959656715393066e-02" nType="-99"/>
                    <Node pos="r" depth="7" NCoef="0" IVar="-1" Cut="0.0000000000000000e+00" cType="1" res="-5.8497255668044090e-03" rms="4.3478623032569885e-01" purity="2.7728971838951111e-01" nType="-99"/>
                  </Node>
                  <Node pos="r" depth="6" NCoef="0" IVar="3" Cut="4.2177641391754150e-01" cType="1" res="-9.3431554734706879e-02" rms="1.4786593616008759e-01" purity="2.2806568071246147e-02" nType="0">
                    <Node pos="l" depth="7" NCoef="0" IVar="-1" Cut="0.0000000000000000e+00" cType="1" res="-2.7685610577464104e-02" rms="1.1380431801080704e-01" purity="1.3246187008917332e-02" nType="-99"/>
                    <Node pos="r" depth="7" NCoef="0" IVar="-1" Cut="0.0000000000000000e+00" cType="1" res="-2.2790124639868736e-02" rms="2.0349164307117462e-01" purity="4.4436495751142502e-02" nType="-99"/>
                  </Node>
                </Node>
                <Node pos="r" depth="5" NCoef="0" IVar="3" Cut="2.2087514400482178e-01" cType="1" res="-6.1434403061866760e-02" rms="3.0643209815025330e-01" purity="1.1363299190998077e-01" nType="0">
                  <Node pos="l" depth="6" NCoef="0" IVar="-1" Cut="0.0000000000000000e+00" cType="1" res="-8.1743700429797173e-03" rms="3.3333769440650940e-01" purity="1.3250409066677094e-01" nType="-99"/>
                  <Node pos="r" depth="6" NCoef="0" IVar="4" Cut="1.4079048633575439e+00" cType="1" res="-7.0071004331111908e-02" rms="2.9372346401214600e-01" purity="1.0554383695125580e-01" nType="0">
                    <Node pos="l" depth="7" NCoef="0" IVar="-1" Cut="0.0000000000000000e+00" cType="1" res="-4.8962500877678394e-03" rms="3.7717199325561523e-01" purity="1.8641500174999237e-01" nType="-99"/>
                    <Node pos="r" depth="7" NCoef="0" IVar="-1" Cut="0.0000000000000000e+00" cType="1" res="-2.1548543125391006e-02" rms="2.1639746427536011e-01" purity="5.0955388695001602e-02" nType="-99"/>
                  </Node>
                </Node>
              </Node>
            </Node>
          </Node>
          <Node pos="r" depth="2" NCoef="0" IVar="5" Cut="-1.1635315418243408e+00" cType="1" res="1.7540266271680593e-03" rms="4.8306655883789062e-01" purity="5.0426638126373291e-01" nType="0">
            <Node pos="l" depth="3" NCoef="0" IVar="1" Cut="5.4197620600461960e-02" cType="1" res="1.6337817534804344e-02" rms="4.8699486255645752e-01" purity="5.4240089654922485e-01" nType="0">
              <Node pos="l" depth="4" NCoef="0" IVar="2" Cut="1.0793966674804688e+02" cType="1" res="3.5689994692802429e-02" rms="4.8511052131652832e-01" purity="5.8552777767181396e-01" nType="0">
                <Node pos="l" depth="5" NCoef="0" IVar="6" Cut="4.3120339512825012e-02" cType="1" res="5.2583042532205582e-02" rms="4.8078152537345886e-01" purity="6.1008620262145996e-01" nType="0">
                  <Node pos="l" depth="6" NCoef="0" IVar="-1" Cut="0.0000000000000000e+00" cType="1" res="2.2301527205854654e-03" rms="4.8485282063484192e-01" purity="5.8117485046386719e-01" nType="-99"/>
                  <Node pos="r" depth="6" NCoef="0" IVar="-1" Cut="0.0000000000000000e+00" cType="1" res="6.1999070458114147e-03" rms="4.7519311308860779e-01" purity="6.3924980163574219e-01" nType="-99"/>
                </Node>
                <Node pos="r" depth="5" NCoef="0" IVar="4" Cut="-1.2798506021499634e+00" cType="1" res="2.1260898560285568e-02" rms="4.8831516504287720e-01" purity="5.6455141305923462e-01" nType="0">
                  <Node pos="l" depth="6" NCoef="0" IVar="-1" Cut="0.0000000000000000e+00" cType="1" res="4.0500331670045853e-04" rms="4.8876568675041199e-01" purity="5.6018632650375366e-01" nType="-99"/>
                  <Node pos="r" depth="6" NCoef="0" IVar="-1" Cut="0.0000000000000000e+00" cType="1" res="3.2486203126609325e-03" rms="4.8740261793136597e-01" purity="5.6855452060699463e-01" nType="-99"/>
                </Node>
              </Node>
              <Node pos="r" depth="4" NCoef="0" IVar="6" Cut="6.3345812261104584e-02" cType="1" res="-2.6265608612447977e-03" rms="4.8809060454368591e-01" purity="5.0013810396194458e-01" nType="0">
                <Node pos="l" depth="5" NCoef="0" IVar="6" Cut="3.3059973269701004e-02" cType="1" res="-2.6292046532034874e-02" rms="4.8512420058250427e-01" purity="4.7265377640724182e-01" nType="0">
                  <Node pos="l" depth="6" NCoef="0" IVar="-1" Cut="0.0000000000000000e+00" cType="1" res="-5.7549495249986649e-03" rms="4.8281532526016235e-01" purity="4.3460875749588013e-01" nType="-99"/>
                  <Node pos="r" depth="6" NCoef="0" IVar="-1" Cut="0.0000000000000000e+00" cType="1" res="-6.3919491367414594e-04" rms="4.8521983623504639e-01" purity="4.9222701787948608e-01" nType="-99"/>
                </Node>
                <Node pos="r" depth="5" NCoef="0" IVar="5" Cut="-2.0937592983245850e+00" cType="1" res="2.3268120363354683e-02" rms="4.9000817537307739e-01" purity="5.3021132946014404e-01" nType="0">
                  <Node pos="l" depth="6" NCoef="0" IVar="-1" Cut="0.0000000000000000e+00" cType="1" res="3.7451235111802816e-03" rms="4.8845532536506653e-01" purity="5.5431503057479858e-01" nType="-99"/>
                  <Node pos="r" depth="6" NCoef="0" IVar="-1" Cut="0.0000000000000000e+00" cType="1" res="-7.1817205753177404e-04" rms="4.9063935875892639e-01" purity="4.9412682652473450e-01" nType="-99"/>
                </Node>
              </Node>
            </Node>
            <Node pos="r" depth="3" NCoef="0" IVar="4" Cut="4.0083655714988708e-01" cType="1" res="-5.6552216410636902e-02" rms="4.6245872974395752e-01" purity="3.5180380940437317e-01" nType="0">
              <Node pos="l" depth="4" NCoef="0" IVar="-1" Cut="0.0000000000000000e+00" cType="1" res="-1.1483950074762106e-03" rms="4.9144327640533447e-01" purity="4.4353982806205750e-01" nType="-99"/>
              <Node pos="r" depth="4" NCoef="0" IVar="-1" Cut="0.0000000000000000e+00" cType="1" res="-9.6172420307993889e-03" rms="4.3442204594612122e-01" purity="2.7765646576881409e-01" nType="-99"/>
            </Node>
          </Node>
        </Node>
        <Node pos="r" depth="1" NCoef="0" IVar="5" Cut="-2.1259143352508545e+00" cType="1" res="6.5953612327575684e-02" rms="4.2772170901298523e-01" purity="7.3613053560256958e-01" nType="0">
          <Node pos="l" depth="2" NCoef="0" IVar="0" Cut="3.6542323231697083e-01" cType="1" res="8.0519139766693115e-02" rms="4.0723764896392822e-01" purity="7.8081339597702026e-01" nType="0">
            <Node pos="l" depth="3" NCoef="0" IVar="1" Cut="5.4311001300811768e-01" cType="1" res="8.5222654044628143e-02" rms="4.0328457951545715e-01" purity="7.8886425495147705e-01" nType="0">
              <Node pos="l" depth="4" NCoef="0" IVar="3" Cut="8.9578133821487427e-01" cType="1" res="9.1822661459445953e-02" rms="3.9503780007362366e-01" purity="8.0193811655044556e-01" nType="0">
                <Node pos="l" depth="5" NCoef="0" IVar="1" Cut="-5.5056693963706493e-03" cType="1" res="7.3863200843334198e-02" rms="4.3432578444480896e-01" purity="7.4317449331283569e-01" nType="0">
                  <Node pos="l" depth="6" NCoef="0" IVar="3" Cut="8.5563957691192627e-01" cType="1" res="9.0887442231178284e-02" rms="4.2030823230743408e-01" purity="7.6825094223022461e-01" nType="0">
                    <Node pos="l" depth="7" NCoef="0" IVar="-1" Cut="0.0000000000000000e+00" cType="1" res="6.6825412213802338e-03" rms="4.3795749545097351e-01" purity="7.4023461341857910e-01" nType="-99"/>
                    <Node pos="r" depth="7" NCoef="0" IVar="-1" Cut="0.0000000000000000e+00" cType="1" res="1.0269085876643658e-02" rms="3.9160102605819702e-01" purity="8.1031155586242676e-01" nType="-99"/>
                  </Node>
                  <Node pos="r" depth="6" NCoef="0" IVar="3" Cut="8.5966372489929199e-01" cType="1" res="5.4304029792547226e-02" rms="4.4909578561782837e-01" purity="7.1436417102813721e-01" nType="0">
                    <Node pos="l" depth="7" NCoef="0" IVar="-1" Cut="0.0000000000000000e+00" cType="1" res="3.4692955669015646e-03" rms="4.6273797750473022e-01" purity="6.8582087755203247e-01" nType="-99"/>
                    <Node pos="r" depth="7" NCoef="0" IVar="-1" Cut="0.0000000000000000e+00" cType="1" res="7.8515587374567986e-03" rms="4.2126968502998352e-01" purity="7.6742577552795410e-01" nType="-99"/>
                  </Node>
                </Node>
                <Node pos="r" depth="5" NCoef="0" IVar="5" Cut="-3.0250973701477051e+00" cType="1" res="9.8844334483146667e-02" rms="3.7833842635154724e-01" purity="8.2491326332092285e-01" nType="0">
                  <Node pos="l" depth="6" NCoef="0" IVar="4" Cut="-9.9863648414611816e-01" cType="1" res="1.1110222339630127e-01" rms="3.5824677348136902e-01" purity="8.4719616174697876e-01" nType="0">
                    <Node pos="l" depth="7" NCoef="0" IVar="-1" Cut="0.0000000000000000e+00" cType="1" res="8.7999403476715088e-03" rms="3.9379233121871948e-01" purity="8.0618679523468018e-01" nType="-99"/>
                    <Node pos="r" depth="7" NCoef="0" IVar="-1" Cut="0.0000000000000000e+00" cType="1" res="1.1701812967658043e-02" rms="3.4321647882461548e-01" purity="8.6330670118331909e-01" nType="-99"/>
                  </Node>
                  <Node pos="r" depth="6" NCoef="0" IVar="5" Cut="-2.3869795799255371e+00" cType="1" res="9.1693498194217682e-02" rms="3.8940277695655823e-01" purity="8.1191408634185791e-01" nType="0">
                    <Node pos="l" depth="7" NCoef="0" IVar="-1" Cut="0.0000000000000000e+00" cType="1" res="9.1565493494272232e-03" rms="3.8272765278816223e-01" purity="8.2041925191879272e-01" nType="-99"/>
                    <Node pos="r" depth="7" NCoef="0" IVar="-1" Cut="0.0000000000000000e+00" cType="1" res="6.7636533640325069e-03" rms="4.1189780831336975e-01" purity="7.8136855363845825e-01" nType="-99"/>
                  </Node>
                </Node>
              </Node>
              <Node pos="r" depth="4" NCoef="0" IVar="3" Cut="9.8272508382797241e-01" cType="1" res="3.7884436547756195e-02" rms="4.5530828833580017e-01" purity="6.9509190320968628e-01" nType="0">
                <Node pos="l" depth="5" NCoef="0" IVar="-1" Cut="0.0000000000000000e+00" cType="1" res="9.5324270660057664e-04" rms="4.8118185997009277e-01" purity="6.2940990924835205e-01" nType="-99"/>
                <Node pos="r" depth="5" NCoef="0" IVar="-1" Cut="0.0000000000000000e+00" cType="1" res="4.7729793004691601e-03" rms="4.3552005290985107e-01" purity="7.4060887098312378e-01" nType="-99"/>
              </Node>
            </Node>
            <Node pos="r" depth="3" NCoef="0" IVar="-1" Cut="0.0000000000000000e+00" cType="1" res="-3.8273746613413095e-03" rms="4.8443868756294250e-01" purity="5.6725287437438965e-01" nType="-99"/>
          </Node>
          <Node pos="r" depth="2" NCoef="0" IVar="5" Cut="-1.0223803520202637e+00" cType="1" res="3.6280822008848190e-02" rms="4.6526983380317688e-01" purity="6.4510291814804077e-01" nType="0">
            <Node pos="l" depth="3" NCoef="0" IVar="7" Cut="2.0000000000000000e+00" cType="1" res="5.1008682698011398e-02" rms="4.5524203777313232e-01" purity="6.9137263298034668e-01" nType="0">
              <Node pos="l" depth="4" NCoef="0" IVar="4" Cut="5.7600468397140503e-02" cType="1" res="6.1398327350616455e-02" rms="4.4105112552642822e-01" purity="7.2646784782409668e-01" nType="0">
                <Node pos="l" depth="5" NCoef="0" IVar="5" Cut="-1.5566042661666870e+00" cType="1" res="5.1934864372014999e-02" rms="4.4735893607139587e-01" purity="7.1345162391662598e-01" nType="0">
                  <Node pos="l" depth="6" NCoef="0" IVar="4" Cut="-4.9725019931793213e-01" cType="1" res="6.2222875654697418e-02" rms="4.3777704238891602e-01" purity="7.3519295454025269e-01" nType="0">
                    <Node pos="l" depth="7" NCoef="0" IVar="-1" Cut="0.0000000000000000e+00" cType="1" res="4.3535013683140278e-03" rms="4.4879546761512756e-01" purity="7.1470838785171509e-01" nType="-99"/>
                    <Node pos="r" depth="7" NCoef="0" IVar="-1" Cut="0.0000000000000000e+00" cType="1" res="6.8400967866182327e-03" rms="4.2200994491577148e-01" purity="7.6300728321075439e-01" nType="-99"/>
                  </Node>
                  <Node pos="r" depth="6" NCoef="0" IVar="-1" Cut="0.0000000000000000e+00" cType="1" res="2.2066440433263779e-03" rms="4.6927005052566528e-01" purity="6.5963250398635864e-01" nType="-99"/>
                </Node>
                <Node pos="r" depth="5" NCoef="0" IVar="-1" Cut="0.0000000000000000e+00" cType="1" res="7.6512945815920830e-03" rms="4.2529550194740295e-01" purity="7.5657784938812256e-01" nType="-99"/>
              </Node>
              <Node pos="r" depth="4" NCoef="0" IVar="1" Cut="-1.0039643198251724e-01" cType="1" res="3.8934990763664246e-02" rms="4.7057133913040161e-01" purity="6.5250778198242188e-01" nType="0">
                <Node pos="l" depth="5" NCoef="0" IVar="-1" Cut="0.0000000000000000e+00" cType="1" res="5.4828980937600136e-03" rms="4.5802906155586243e-01" purity="6.9368070363998413e-01" nType="-99"/>
                <Node pos="r" depth="5" NCoef="0" IVar="4" Cut="-2.0560448169708252e+00" cType="1" res="2.8920810669660568e-02" rms="4.7496163845062256e-01" purity="6.3656282424926758e-01" nType="0">
                  <Node pos="l" depth="6" NCoef="0" IVar="-1" Cut="0.0000000000000000e+00" cType="1" res="4.3692314065992832e-03" rms="4.6477338671684265e-01" purity="6.7441976070404053e-01" nType="-99"/>
                  <Node pos="r" depth="6" NCoef="0" IVar="6" Cut="4.8029370605945587e-02" cType="1" res="2.0224386826157570e-02" rms="4.7892209887504578e-01" purity="6.2061619758605957e-01" nType="0">
                    <Node pos="l" depth="7" NCoef="0" IVar="-1" Cut="0.0000000000000000e+00" cType="1" res="4.8549222992733121e-04" rms="4.8076835274696350e-01" purity="6.1207342147827148e-01" nType="-99"/>
                    <Node pos="r" depth="7" NCoef="0" IVar="-1" Cut="0.0000000000000000e+00" cType="1" res="3.6005058791488409e-03" rms="4.7515124082565308e-01" purity="6.3379800319671631e-01" nType="-99"/>
                  </Node>
                </Node>
              </Node>
            </Node>
            <Node pos="r" depth="3" NCoef="0" IVar="4" Cut="8.4435105323791504e-01" cType="1" res="-2.5233428459614515e-03" rms="4.8857921361923218e-01" purity="5.2092111110687256e-01" nType="0">
              <Node pos="l" depth="4" NCoef="0" IVar="7" Cut="2.0000000000000000e+00" cType="1" res="1.7725465819239616e-02" rms="4.8906940221786499e-01" purity="5.5597436428070068e-01" nType="0">
                <Node pos="l" depth="5" NCoef="0" IVar="-1" Cut="0.0000000000000000e+00" cType="1" res="2.7196905575692654e-03" rms="4.8788878321647644e-01" purity="5.9156709909439087e-01" nType="-99"/>
                <Node pos="r" depth="5" NCoef="0" IVar="-1" Cut="0.0000000000000000e+00" cType="1" res="-1.3704852608498186e-04" rms="4.9209895730018616e-01" purity="5.1869750022888184e-01" nType="-99"/>
              </Node>
              <Node pos="r" depth="4" NCoef="0" IVar="-1" Cut="0.0000000000000000e+00" cType="1" res="-5.5610518902540207e-03" rms="4.7877299785614014e-01" purity="4.1105514764785767e-01" nType="-99"/>
            </Node>
          </Node>
        </Node>
      </Node>
    </BinaryTree>
    <BinaryTree type="DecisionTree" boostWeight="1.0000000000000000e+00" itree="34">
      <Node pos="s" depth="0" NCoef="0" IVar="3" Cut="7.6397395133972168e-01" cType="1" res="1.3428179547190666e-02" rms="4.1247797012329102e-01" purity="4.9956920742988586e-01" nType="0">
        <Node pos="l" depth="1" NCoef="0" IVar="3" Cut="6.1613649129867554e-01" cType="1" res="-3.6165516823530197e-02" rms="3.8877925276756287e-01" purity="2.5874555110931396e-01" nType="0">
          <Node pos="l" depth="2" NCoef="0" IVar="5" Cut="-1.4657717943191528e+00" cType="1" res="-5.1865898072719574e-02" rms="3.4292900562286377e-01" purity="1.6310046613216400e-01" nType="0">
            <Node pos="l" depth="3" NCoef="0" IVar="3" Cut="4.7721064090728760e-01" cType="1" res="-4.0432374924421310e-02" rms="3.7828281521797180e-01" purity="2.0634020864963531e-01" nType="0">
              <Node pos="l" depth="4" NCoef="0" IVar="6" Cut="2.1311327815055847e-01" cType="1" res="-5.2017644047737122e-02" rms="3.2485842704772949e-01" purity="1.3141518831253052e-01" nType="0">
                <Node pos="l" depth="5" NCoef="0" IVar="6" Cut="1.5132850408554077e-01" cType="1" res="-5.7668499648571014e-02" rms="3.0675512552261353e-01" purity="1.1359810084104538e-01" nType="0">
                  <Node pos="l" depth="6" NCoef="0" IVar="2" Cut="1.4179852294921875e+02" cType="1" res="-6.4770609140396118e-02" rms="2.8494000434875488e-01" purity="9.4489395618438721e-02" nType="0">
                    <Node pos="l" depth="7" NCoef="0" IVar="-1" Cut="0.0000000000000000e+00" cType="1" res="-1.1179318651556969e-02" rms="2.9707422852516174e-01" purity="1.0364710539579391e-01" nType="-99"/>
                    <Node pos="r" depth="7" NCoef="0" IVar="-1" Cut="0.0000000000000000e+00" cType="1" res="-1.5316264703869820e-02" rms="2.7590075135231018e-01" purity="8.8171325623989105e-02" nType="-99"/>
                  </Node>
                  <Node pos="r" depth="6" NCoef="0" IVar="2" Cut="4.2355004882812500e+02" cType="1" res="-2.8901541605591774e-02" rms="3.8124799728393555e-01" purity="1.9099754095077515e-01" nType="0">
                    <Node pos="l" depth="7" NCoef="0" IVar="-1" Cut="0.0000000000000000e+00" cType="1" res="1.7887436115415767e-05" rms="4.0575322508811951e-01" purity="2.2545276582241058e-01" nType="-99"/>
                    <Node pos="r" depth="7" NCoef="0" IVar="-1" Cut="0.0000000000000000e+00" cType="1" res="-9.0923514217138290e-03" rms="3.5532012581825256e-01" purity="1.5950970351696014e-01" nType="-99"/>
                  </Node>
                </Node>
                <Node pos="r" depth="5" NCoef="0" IVar="-1" Cut="0.0000000000000000e+00" cType="1" res="-2.1461206488311291e-03" rms="4.2097941040992737e-01" purity="2.4548262357711792e-01" nType="-99"/>
              </Node>
              <Node pos="r" depth="4" NCoef="0" IVar="1" Cut="6.3803589344024658e-01" cType="1" res="-1.8952349200844765e-02" rms="4.6047362685203552e-01" purity="3.4525722265243530e-01" nType="0">
                <Node pos="l" depth="5" NCoef="0" IVar="6" Cut="6.1458889394998550e-02" cType="1" res="-7.7575896866619587e-03" rms="4.6982219815254211e-01" purity="3.6983868479728699e-01" nType="0">
                  <Node pos="l" depth="6" NCoef="0" IVar="-1" Cut="0.0000000000000000e+00" cType="1" res="-4.4527687132358551e-03" rms="4.4478371739387512e-01" purity="3.0129593610763550e-01" nType="-99"/>
                  <Node pos="r" depth="6" NCoef="0" IVar="2" Cut="1.9221939086914062e+02" cType="1" res="7.0231012068688869e-03" rms="4.7961074113845825e-01" purity="3.9980477094650269e-01" nType="0">
                    <Node pos="l" depth="7" NCoef="0" IVar="-1" Cut="0.0000000000000000e+00" cType="1" res="3.6966712214052677e-03" rms="4.8858126997947693e-01" purity="4.4944798946380615e-01" nType="-99"/>
                    <Node pos="r" depth="7" NCoef="0" IVar="-1" Cut="0.0000000000000000e+00" cType="1" res="-1.6852284315973520e-03" rms="4.7188094258308411e-01" purity="3.6561459302902222e-01" nType="-99"/>
                  </Node>
                </Node>
                <Node pos="r" depth="5" NCoef="0" IVar="-1" Cut="0.0000000000000000e+00" cType="1" res="-9.7316727042198181e-03" rms="4.0233519673347473e-01" purity="2.1525619924068451e-01" nType="-99"/>
              </Node>
            </Node>
            <Node pos="r" depth="3" NCoef="0" IVar="6" Cut="2.4798184633255005e-01" cType="1" res="-6.8183653056621552e-02" rms="2.8417897224426270e-01" purity="1.0138934105634689e-01" nType="0">
              <Node pos="l" depth="4" NCoef="0" IVar="4" Cut="1.7312856912612915e+00" cType="1" res="-7.1584120392799377e-02" rms="2.7497974038124084e-01" purity="9.5245704054832458e-02" nType="0">
                <Node pos="l" depth="5" NCoef="0" IVar="3" Cut="3.9753887057304382e-01" cType="1" res="-5.8956768363714218e-02" rms="3.3784911036491394e-01" purity="1.4883470535278320e-01" nType="0">
                  <Node pos="l" depth="6" NCoef="0" IVar="7" Cut="5.0000000000000000e+00" cType="1" res="-7.4156686663627625e-02" rms="2.4857747554779053e-01" purity="6.9081671535968781e-02" nType="0">
                    <Node pos="l" depth="7" NCoef="0" IVar="-1" Cut="0.0000000000000000e+00" cType="1" res="-1.1275181546807289e-02" rms="3.0487251281738281e-01" purity="1.0759708285331726e-01" nType="-99"/>
                    <Node pos="r" depth="7" NCoef="0" IVar="-1" Cut="0.0000000000000000e+00" cType="1" res="-2.0594764500856400e-02" rms="2.1996669471263885e-01" purity="5.2862659096717834e-02" nType="-99"/>
                  </Node>
                  <Node pos="r" depth="6" NCoef="0" IVar="7" Cut="4.0000000000000000e+00" cType="1" res="-4.4957820326089859e-02" rms="4.0112397074699402e-01" purity="2.2088824212551117e-01" nType="0">
                    <Node pos="l" depth="7" NCoef="0" IVar="-1" Cut="0.0000000000000000e+00" cType="1" res="-9.1903470456600189e-03" rms="3.8891145586967468e-01" purity="2.0244109630584717e-01" nType="-99"/>
                    <Node pos="r" depth="7" NCoef="0" IVar="-1" Cut="0.0000000000000000e+00" cType="1" res="-3.8377898745238781e-03" rms="4.0796038508415222e-01" purity="2.3230645060539246e-01" nType="-99"/>
                  </Node>
                </Node>
                <Node pos="r" depth="5" NCoef="0" IVar="3" Cut="4.7898912429809570e-01" cType="1" res="-8.6600817739963531e-02" rms="1.7140679061412811e-01" purity="3.1516622751951218e-02" nType="0">
                  <Node pos="l" depth="6" NCoef="0" IVar="4" Cut="2.6663632392883301e+00" cType="1" res="-8.2416027784347534e-02" rms="1.4697892963886261e-01" purity="2.2575812414288521e-02" nType="0">
                    <Node pos="l" depth="7" NCoef="0" IVar="-1" Cut="0.0000000000000000e+00" cType="1" res="-2.1600374951958656e-02" rms="1.8903997540473938e-01" purity="3.7965856492519379e-02" nType="-99"/>
                    <Node pos="r" depth="7" NCoef="0" IVar="-1" Cut="0.0000000000000000e+00" cType="1" res="-2.7282435446977615e-02" rms="1.1805827915668488e-01" purity="1.4275999739766121e-02" nType="-99"/>
                  </Node>
                  <Node pos="r" depth="6" NCoef="0" IVar="-1" Cut="0.0000000000000000e+00" cType="1" res="-1.8723746761679649e-02" rms="2.5661101937294006e-01" purity="7.3990419507026672e-02" nType="-99"/>
                </Node>
              </Node>
              <Node pos="r" depth="4" NCoef="0" IVar="-1" Cut="0.0000000000000000e+00" cType="1" res="-4.5395274646580219e-03" rms="3.7564614415168762e-01" purity="1.7565755546092987e-01" nType="-99"/>
            </Node>
          </Node>
          <Node pos="r" depth="2" NCoef="0" IVar="5" Cut="-6.1032187938690186e-01" cType="1" res="3.2892988529056311e-03" rms="4.8299202322959900e-01" purity="4.9910014867782593e-01" nType="0">
            <Node pos="l" depth="3" NCoef="0" IVar="6" Cut="8.0624870955944061e-02" cType="1" res="1.2063572183251381e-02" rms="4.8760679364204407e-01" purity="5.2671688795089722e-01" nType="0">
              <Node pos="l" depth="4" NCoef="0" IVar="2" Cut="7.5531959533691406e+01" cType="1" res="-3.5273563116788864e-03" rms="4.8778647184371948e-01" purity="5.0858646631240845e-01" nType="0">
                <Node pos="l" depth="5" NCoef="0" IVar="6" Cut="3.9242368191480637e-02" cType="1" res="2.4418152868747711e-02" rms="4.8677280545234680e-01" purity="5.4523718357086182e-01" nType="0">
                  <Node pos="l" depth="6" NCoef="0" IVar="-1" Cut="0.0000000000000000e+00" cType="1" res="-5.4610683582723141e-04" rms="4.8774626851081848e-01" purity="5.1099681854248047e-01" nType="-99"/>
                  <Node pos="r" depth="6" NCoef="0" IVar="-1" Cut="0.0000000000000000e+00" cType="1" res="5.0259591080248356e-03" rms="4.8267519474029541e-01" purity="5.8917671442031860e-01" nType="-99"/>
                </Node>
                <Node pos="r" depth="5" NCoef="0" IVar="6" Cut="5.2404690533876419e-02" cType="1" res="-2.2225277498364449e-02" rms="4.8756998777389526e-01" purity="4.8406395316123962e-01" nType="0">
                  <Node pos="l" depth="6" NCoef="0" IVar="-1" Cut="0.0000000000000000e+00" cType="1" res="-5.5511198006570339e-03" rms="4.8257121443748474e-01" purity="4.4209218025207520e-01" nType="-99"/>
                  <Node pos="r" depth="6" NCoef="0" IVar="3" Cut="7.2102379798889160e-01" cType="1" res="2.0373533479869366e-03" rms="4.8927694559097290e-01" purity="5.1141011714935303e-01" nType="0">
                    <Node pos="l" depth="7" NCoef="0" IVar="-1" Cut="0.0000000000000000e+00" cType="1" res="-1.0795373236760497e-03" rms="4.9095460772514343e-01" purity="4.7034025192260742e-01" nType="-99"/>
                    <Node pos="r" depth="7" NCoef="0" IVar="-1" Cut="0.0000000000000000e+00" cType="1" res="2.3006091360002756e-03" rms="4.8533397912979126e-01" purity="5.8414846658706665e-01" nType="-99"/>
                  </Node>
                </Node>
              </Node>
              <Node pos="r" depth="4" NCoef="0" IVar="2" Cut="1.5545468139648438e+02" cType="1" res="4.3808501213788986e-02" rms="4.8569625616073608e-01" purity="5.6363248825073242e-01" nType="0">
                <Node pos="l" depth="5" NCoef="0" IVar="-1" Cut="0.0000000000000000e+00" cType="1" res="5.9413444250822067e-03" rms="4.7743466496467590e-01" purity="6.1100840568542480e-01" nType="-99"/>
                <Node pos="r" depth="5" NCoef="0" IVar="3" Cut="6.8290573358535767e-01" cType="1" res="2.8176920488476753e-02" rms="4.8868054151535034e-01" purity="5.4171931743621826e-01" nType="0">
                  <Node pos="l" depth="6" NCoef="0" IVar="-1" Cut="0.0000000000000000e+00" cType="1" res="1.4499800745397806e-03" rms="4.9180269241333008e-01" purity="4.9151471257209778e-01" nType="-99"/>
                  <Node pos="r" depth="6" NCoef="0" IVar="-1" Cut="0.0000000000000000e+00" cType="1" res="3.5685522016137838e-03" rms="4.8474669456481934e-01" purity="5.9882086515426636e-01" nType="-99"/>
                </Node>
              </Node>
            </Node>
            <Node pos="r" depth="3" NCoef="0" IVar="-1" Cut="0.0000000000000000e+00" cType="1" res="-6.8250983022153378e-03" rms="4.4014859199523926e-01" purity="2.8691339492797852e-01" nType="-99"/>
          </Node>
        </Node>
        <Node pos="r" depth="1" NCoef="0" IVar="0" Cut="6.1459439992904663e-01" cType="1" res="6.1464775353670120e-02" rms="4.2876663804054260e-01" purity="7.3283171653747559e-01" nType="0">
          <Node pos="l" depth="2" NCoef="0" IVar="0" Cut="1.9821064546704292e-02" cType="1" res="6.6791214048862457e-02" rms="4.2632770538330078e-01" purity="7.4188441038131714e-01" nType="0">
            <Node pos="l" depth="3" NCoef="0" IVar="1" Cut="1.1329363584518433e+00" cType="1" res="7.3392897844314575e-02" rms="4.1990721225738525e-01" purity="7.5672459602355957e-01" nType="0">
              <Node pos="l" depth="4" NCoef="0" IVar="1" Cut="4.3757778406143188e-01" cType="1" res="7.6946631073951721e-02" rms="4.1689944267272949e-01" purity="7.6272433996200562e-01" nType="0">
                <Node pos="l" depth="5" NCoef="0" IVar="5" Cut="-2.8391363620758057e+00" cType="1" res="8.2399234175682068e-02" rms="4.1121968626976013e-01" purity="7.7305412292480469e-01" nType="0">
                  <Node pos="l" depth="6" NCoef="0" IVar="3" Cut="8.8707309961318970e-01" cType="1" res="9.9854402244091034e-02" rms="3.7171930074691772e-01" purity="8.3156698942184448e-01" nType="0">
                    <Node pos="l" depth="7" NCoef="0" IVar="-1" Cut="0.0000000000000000e+00" cType="1" res="6.4883818849921227e-03" rms="4.2785519361495972e-01" purity="7.5638431310653687e-01" nType="-99"/>
                    <Node pos="r" depth="7" NCoef="0" IVar="-1" Cut="0.0000000000000000e+00" cType="1" res="1.0224518366158009e-02" rms="3.6114400625228882e-01" purity="8.4425449371337891e-01" nType="-99"/>
                  </Node>
                  <Node pos="r" depth="6" NCoef="0" IVar="5" Cut="-1.1702040433883667e+00" cType="1" res="7.3772028088569641e-02" rms="4.2914095520973206e-01" purity="7.4413418769836426e-01" nType="0">
                    <Node pos="l" depth="7" NCoef="0" IVar="-1" Cut="0.0000000000000000e+00" cType="1" res="7.1441517211496830e-03" rms="4.1930520534515381e-01" purity="7.6780796051025391e-01" nType="-99"/>
                    <Node pos="r" depth="7" NCoef="0" IVar="-1" Cut="0.0000000000000000e+00" cType="1" res="3.4422469325363636e-03" rms="4.8436993360519409e-01" purity="5.9732151031494141e-01" nType="-99"/>
                  </Node>
                </Node>
                <Node pos="r" depth="5" NCoef="0" IVar="1" Cut="6.3944023847579956e-01" cType="1" res="3.7528749555349350e-02" rms="4.5391535758972168e-01" purity="6.8804830312728882e-01" nType="0">
                  <Node pos="l" depth="6" NCoef="0" IVar="4" Cut="-9.3846982717514038e-01" cType="1" res="5.1778811961412430e-02" rms="4.4399186968803406e-01" purity="7.1436774730682373e-01" nType="0">
                    <Node pos="l" depth="7" NCoef="0" IVar="-1" Cut="0.0000000000000000e+00" cType="1" res="2.5521775241941214e-03" rms="4.6578699350357056e-01" purity="6.7306530475616455e-01" nType="-99"/>
                    <Node pos="r" depth="7" NCoef="0" IVar="-1" Cut="0.0000000000000000e+00" cType="1" res="6.1508268117904663e-03" rms="4.2454269528388977e-01" purity="7.4823319911956787e-01" nType="-99"/>
                  </Node>
                  <Node pos="r" depth="6" NCoef="0" IVar="1" Cut="8.1449544429779053e-01" cType="1" res="0.0000000000000000e+00" rms="0.0000000000000000e+00" purity="6.5940874814987183e-01" nType="0">
                    <Node pos="l" depth="7" NCoef="0" IVar="-1" Cut="0.0000000000000000e+00" cType="1" res="2.5440873578190804e-03" rms="4.5815384387969971e-01" purity="6.7305994033813477e-01" nType="-99"/>
                    <Node pos="r" depth="7" NCoef="0" IVar="-1" Cut="0.0000000000000000e+00" cType="1" res="1.1174163082614541e-03" rms="4.7025874257087708e-01" purity="6.4411252737045288e-01" nType="-99"/>
                  </Node>
                </Node>
              </Node>
              <Node pos="r" depth="4" NCoef="0" IVar="-1" Cut="0.0000000000000000e+00" cType="1" res="-8.4640504792332649e-04" rms="4.7754591703414917e-01" purity="6.1619496345520020e-01" nType="-99"/>
            </Node>
            <Node pos="r" depth="3" NCoef="0" IVar="5" Cut="-2.3947935104370117e+00" cType="1" res="1.0643866844475269e-02" rms="4.7375300526618958e-01" purity="6.1566901206970215e-01" nType="0">
              <Node pos="l" depth="4" NCoef="0" IVar="0" Cut="2.8274926543235779e-01" cType="1" res="4.0575958788394928e-02" rms="4.5826104283332825e-01" purity="6.8511295318603516e-01" nType="0">
                <Node pos="l" depth="5" NCoef="0" IVar="-1" Cut="0.0000000000000000e+00" cType="1" res="5.4244436323642731e-03" rms="4.5127871632575989e-01" purity="7.0237219333648682e-01" nType="-99"/>
                <Node pos="r" depth="5" NCoef="0" IVar="-1" Cut="0.0000000000000000e+00" cType="1" res="2.2141297813504934e-03" rms="4.6505352854728699e-01" purity="6.6695082187652588e-01" nType="-99"/>
              </Node>
              <Node pos="r" depth="4" NCoef="0" IVar="1" Cut="1.1757136881351471e-01" cType="1" res="-1.5579547733068466e-02" rms="4.8540607094764709e-01" purity="5.5482941865921021e-01" nType="0">
                <Node pos="l" depth="5" NCoef="0" IVar="-1" Cut="0.0000000000000000e+00" cType="1" res="1.8240321660414338e-03" rms="4.7986340522766113e-01" purity="6.0589611530303955e-01" nType="-99"/>
                <Node pos="r" depth="5" NCoef="0" IVar="-1" Cut="0.0000000000000000e+00" cType="1" res="-6.1012813821434975e-03" rms="4.8865059018135071e-01" purity="4.8233157396316528e-01" nType="-99"/>
              </Node>
            </Node>
          </Node>
          <Node pos="r" depth="2" NCoef="0" IVar="-1" Cut="0.0000000000000000e+00" cType="1" res="-1.3248692266643047e-02" rms="4.7007197141647339e-01" purity="3.8286748528480530e-01" nType="-99"/>
        </Node>
      </Node>
    </BinaryTree>
    <BinaryTree type="DecisionTree" boostWeight="1.0000000000000000e+00" itree="35">
      <Node pos="s" depth="0" NCoef="0" IVar="3" Cut="7.7264720201492310e-01" cType="1" res="1.2933744117617607e-02" rms="4.1192853450775146e-01" purity="4.9886336922645569e-01" nType="0">
        <Node pos="l" depth="1" NCoef="0" IVar="3" Cut="6.4805179834365845e-01" cType="1" res="-3.4213941544294357e-02" rms="3.9012074470520020e-01" purity="2.6395520567893982e-01" nType="0">
          <Node pos="l" depth="2" NCoef="0" IVar="1" Cut="1.4958879351615906e-01" cType="1" res="-4.7722518444061279e-02" rms="3.5352402925491333e-01" purity="1.7958563566207886e-01" nType="0">
            <Node pos="l" depth="3" NCoef="0" IVar="4" Cut="1.3881204128265381e+00" cType="1" res="-2.7700787410140038e-02" rms="3.9374083280563354e-01" purity="2.3932959139347076e-01" nType="0">
              <Node pos="l" depth="4" NCoef="0" IVar="3" Cut="3.9747858047485352e-01" cType="1" res="-1.7597727477550507e-02" rms="4.2124721407890320e-01" purity="2.8093937039375305e-01" nType="0">
                <Node pos="l" depth="5" NCoef="0" IVar="7" Cut="5.0000000000000000e+00" cType="1" res="-4.6353366225957870e-02" rms="3.3412146568298340e-01" purity="1.4040102064609528e-01" nType="0">
                  <Node pos="l" depth="6" NCoef="0" IVar="-1" Cut="0.0000000000000000e+00" cType="1" res="-3.2692018430680037e-03" rms="3.7741869688034058e-01" purity="1.9404225051403046e-01" nType="-99"/>
                  <Node pos="r" depth="6" NCoef="0" IVar="3" Cut="3.2068964838981628e-01" cType="1" res="-5.7420622557401657e-02" rms="3.1295609474182129e-01" purity="1.1725981533527374e-01" nType="0">
                    <Node pos="l" depth="7" NCoef="0" IVar="-1" Cut="0.0000000000000000e+00" cType="1" res="-1.4798106625676155e-02" rms="2.9237541556358337e-01" purity="1.0049220919609070e-01" nType="-99"/>
                    <Node pos="r" depth="7" NCoef="0" IVar="-1" Cut="0.0000000000000000e+00" cType="1" res="-4.5811124145984650e-03" rms="3.5043588280677795e-01" purity="1.5276847779750824e-01" nType="-99"/>
                  </Node>
                </Node>
                <Node pos="r" depth="5" NCoef="0" IVar="6" Cut="5.4627373814582825e-02" cType="1" res="-1.9710769411176443e-03" rms="4.6098804473876953e-01" purity="3.5729184746742249e-01" nType="0">
                  <Node pos="l" depth="6" NCoef="0" IVar="-1" Cut="0.0000000000000000e+00" cType="1" res="-4.9597043544054031e-03" rms="4.3802365660667419e-01" purity="2.9556345939636230e-01" nType="-99"/>
                  <Node pos="r" depth="6" NCoef="0" IVar="2" Cut="1.1501815795898438e+02" cType="1" res="9.9018756300210953e-03" rms="4.6652817726135254e-01" purity="3.7458220124244690e-01" nType="0">
                    <Node pos="l" depth="7" NCoef="0" IVar="-1" Cut="0.0000000000000000e+00" cType="1" res="6.4591015689074993e-03" rms="4.8329687118530273e-01" purity="4.6829992532730103e-01" nType="-99"/>
                    <Node pos="r" depth="7" NCoef="0" IVar="-1" Cut="0.0000000000000000e+00" cType="1" res="-6.4137048320844769e-04" rms="4.6084454655647278e-01" purity="3.5104501247406006e-01" nType="-99"/>
                  </Node>
                </Node>
              </Node>
              <Node pos="r" depth="4" NCoef="0" IVar="6" Cut="1.5872742235660553e-01" cType="1" res="-6.6539764404296875e-02" rms="2.5875163078308105e-01" purity="7.9369939863681793e-02" nType="0">
                <Node pos="l" depth="5" NCoef="0" IVar="5" Cut="1.2141143083572388e+00" cType="1" res="-7.5815528631210327e-02" rms="2.3598933219909668e-01" purity="6.6788390278816223e-02" nType="0">
                  <Node pos="l" depth="6" NCoef="0" IVar="-1" Cut="0.0000000000000000e+00" cType="1" res="-1.1384746059775352e-02" rms="2.9426410794258118e-01" purity="1.0789450258016586e-01" nType="-99"/>
                  <Node pos="r" depth="6" NCoef="0" IVar="-1" Cut="0.0000000000000000e+00" cType="1" res="-2.5968305766582489e-02" rms="1.4186833798885345e-01" purity="2.0290758460760117e-02" nType="-99"/>
                </Node>
                <Node pos="r" depth="5" NCoef="0" IVar="-1" Cut="0.0000000000000000e+00" cType="1" res="-1.0663680732250214e-02" rms="2.9413655400276184e-01" purity="1.0170061886310577e-01" nType="-99"/>
              </Node>
            </Node>
            <Node pos="r" depth="3" NCoef="0" IVar="6" Cut="1.0078105330467224e-01" cType="1" res="-6.3629530370235443e-02" rms="3.1706672906875610e-01" purity="1.3211983442306519e-01" nType="0">
              <Node pos="l" depth="4" NCoef="0" IVar="2" Cut="5.7720981597900391e+01" cType="1" res="-7.1251586079597473e-02" rms="3.0108121037483215e-01" purity="1.1705071479082108e-01" nType="0">
                <Node pos="l" depth="5" NCoef="0" IVar="3" Cut="4.1832819581031799e-01" cType="1" res="-5.1937814801931381e-02" rms="3.3581906557083130e-01" purity="1.4598381519317627e-01" nType="0">
                  <Node pos="l" depth="6" NCoef="0" IVar="-1" Cut="0.0000000000000000e+00" cType="1" res="-1.4094299636781216e-02" rms="2.4965362250804901e-01" purity="6.9053679704666138e-02" nType="-99"/>
                  <Node pos="r" depth="6" NCoef="0" IVar="-1" Cut="0.0000000000000000e+00" cType="1" res="-6.9731604307889938e-03" rms="4.0406972169876099e-01" purity="2.2300158441066742e-01" nType="-99"/>
                </Node>
                <Node pos="r" depth="5" NCoef="0" IVar="6" Cut="6.0256324708461761e-02" cType="1" res="-7.5523152947425842e-02" rms="2.9267036914825439e-01" purity="1.1065167188644409e-01" nType="0">
                  <Node pos="l" depth="6" NCoef="0" IVar="3" Cut="4.1854274272918701e-01" cType="1" res="-8.8734582066535950e-02" rms="2.7668523788452148e-01" purity="9.4623409211635590e-02" nType="0">
                    <Node pos="l" depth="7" NCoef="0" IVar="-1" Cut="0.0000000000000000e+00" cType="1" res="-2.1538628265261650e-02" rms="1.8305870890617371e-01" purity="3.5677999258041382e-02" nType="-99"/>
                    <Node pos="r" depth="7" NCoef="0" IVar="-1" Cut="0.0000000000000000e+00" cType="1" res="-1.3819672167301178e-02" rms="3.5007545351982117e-01" purity="1.5800446271896362e-01" nType="-99"/>
                  </Node>
                  <Node pos="r" depth="6" NCoef="0" IVar="2" Cut="2.9639141845703125e+02" cType="1" res="-6.7287474870681763e-02" rms="3.0191519856452942e-01" purity="1.2064329534769058e-01" nType="0">
                    <Node pos="l" depth="7" NCoef="0" IVar="-1" Cut="0.0000000000000000e+00" cType="1" res="-1.1025025509297848e-02" rms="3.1113588809967041e-01" purity="1.3046225905418396e-01" nType="-99"/>
                    <Node pos="r" depth="7" NCoef="0" IVar="-1" Cut="0.0000000000000000e+00" cType="1" res="-1.6253734007477760e-02" rms="2.7384030818939209e-01" purity="9.3608580529689789e-02" nType="-99"/>
                  </Node>
                </Node>
              </Node>
              <Node pos="r" depth="4" NCoef="0" IVar="3" Cut="4.3897309899330139e-01" cType="1" res="-5.4808270186185837e-02" rms="3.3439844846725464e-01" purity="1.4955982565879822e-01" nType="0">
                <Node pos="l" depth="5" NCoef="0" IVar="4" Cut="-4.1787192225456238e-01" cType="1" res="-6.3012197613716125e-02" rms="2.8516793251037598e-01" purity="9.5325708389282227e-02" nType="0">
                  <Node pos="l" depth="6" NCoef="0" IVar="7" Cut="6.0000000000000000e+00" cType="1" res="1.1576169729232788e-01" rms="0.0000000000000000e+00" purity="1.3934829831123352e-01" nType="0">
                    <Node pos="l" depth="7" NCoef="0" IVar="-1" Cut="0.0000000000000000e+00" cType="1" res="-5.1922290585935116e-03" rms="3.7439808249473572e-01" purity="1.7828314006328583e-01" nType="-99"/>
                    <Node pos="r" depth="7" NCoef="0" IVar="-1" Cut="0.0000000000000000e+00" cType="1" res="-1.4459269121289253e-02" rms="2.9087981581687927e-01" purity="9.7341068089008331e-02" nType="-99"/>
                  </Node>
                  <Node pos="r" depth="6" NCoef="0" IVar="5" Cut="-1.6251822710037231e+00" cType="1" res="-6.9867111742496490e-02" rms="2.5548279285430908e-01" purity="7.3754496872425079e-02" nType="0">
                    <Node pos="l" depth="7" NCoef="0" IVar="-1" Cut="0.0000000000000000e+00" cType="1" res="-1.2981250882148743e-02" rms="3.0318504571914673e-01" purity="1.0668122768402100e-01" nType="-99"/>
                    <Node pos="r" depth="7" NCoef="0" IVar="-1" Cut="0.0000000000000000e+00" cType="1" res="-1.8457245081663132e-02" rms="2.3130406439304352e-01" purity="5.9243142604827881e-02" nType="-99"/>
                  </Node>
                </Node>
                <Node pos="r" depth="5" NCoef="0" IVar="5" Cut="-1.8661926984786987e+00" cType="1" res="-3.4205216914415359e-02" rms="4.3339291214942932e-01" purity="2.8576147556304932e-01" nType="0">
                  <Node pos="l" depth="6" NCoef="0" IVar="-1" Cut="0.0000000000000000e+00" cType="1" res="-1.2137254234403372e-03" rms="4.6530032157897949e-01" purity="3.5195249319076538e-01" nType="-99"/>
                  <Node pos="r" depth="6" NCoef="0" IVar="-1" Cut="0.0000000000000000e+00" cType="1" res="-7.4739879928529263e-03" rms="3.9537426829338074e-01" purity="2.1554353833198547e-01" nType="-99"/>
                </Node>
              </Node>
            </Node>
          </Node>
          <Node pos="r" depth="2" NCoef="0" IVar="5" Cut="-1.1635315418243408e+00" cType="1" res="7.6097971759736538e-03" rms="4.8388004302978516e-01" purity="5.2517086267471313e-01" nType="0">
            <Node pos="l" depth="3" NCoef="0" IVar="7" Cut="3.0000000000000000e+00" cType="1" res="1.9617449492216110e-02" rms="4.8579698801040649e-01" purity="5.5939388275146484e-01" nType="0">
              <Node pos="l" depth="4" NCoef="0" IVar="6" Cut="8.0624870955944061e-02" cType="1" res="-7.4647269211709499e-03" rms="4.8954111337661743e-01" purity="5.1447761058807373e-01" nType="0">
                <Node pos="l" depth="5" NCoef="0" IVar="3" Cut="7.3248887062072754e-01" cType="1" res="-2.7082374319434166e-02" rms="4.9055922031402588e-01" purity="4.8311236500740051e-01" nType="0">
                  <Node pos="l" depth="6" NCoef="0" IVar="-1" Cut="0.0000000000000000e+00" cType="1" res="-4.2925071902573109e-03" rms="4.8592609167098999e-01" purity="4.1934424638748169e-01" nType="-99"/>
                  <Node pos="r" depth="6" NCoef="0" IVar="-1" Cut="0.0000000000000000e+00" cType="1" res="-5.7730660773813725e-04" rms="4.9391779303550720e-01" purity="5.4162639379501343e-01" nType="-99"/>
                </Node>
                <Node pos="r" depth="5" NCoef="0" IVar="-1" Cut="0.0000000000000000e+00" cType="1" res="2.4655114393681288e-03" rms="4.8528218269348145e-01" purity="5.7555329799652100e-01" nType="-99"/>
              </Node>
              <Node pos="r" depth="4" NCoef="0" IVar="6" Cut="4.8831675201654434e-02" cType="1" res="3.4898374229669571e-02" rms="4.8392429947853088e-01" purity="5.8681052923202515e-01" nType="0">
                <Node pos="l" depth="5" NCoef="0" IVar="2" Cut="5.5599201202392578e+01" cType="1" res="7.4733784422278404e-03" rms="4.8639339208602905e-01" purity="5.5726611614227295e-01" nType="0">
                  <Node pos="l" depth="6" NCoef="0" IVar="-1" Cut="0.0000000000000000e+00" cType="1" res="3.4837091807276011e-03" rms="4.7984552383422852e-01" purity="6.0075473785400391e-01" nType="-99"/>
                  <Node pos="r" depth="6" NCoef="0" IVar="-1" Cut="0.0000000000000000e+00" cType="1" res="-1.8344137351959944e-03" rms="4.8998296260833740e-01" purity="5.2167391777038574e-01" nType="-99"/>
                </Node>
                <Node pos="r" depth="5" NCoef="0" IVar="2" Cut="2.0319631958007812e+02" cType="1" res="5.2973635494709015e-02" rms="4.8143666982650757e-01" purity="6.0628265142440796e-01" nType="0">
                  <Node pos="l" depth="6" NCoef="0" IVar="-1" Cut="0.0000000000000000e+00" cType="1" res="6.1787962913513184e-03" rms="4.7572731971740723e-01" purity="6.3649004697799683e-01" nType="-99"/>
                  <Node pos="r" depth="6" NCoef="0" IVar="-1" Cut="0.0000000000000000e+00" cType="1" res="2.2185645066201687e-03" rms="4.8738089203834534e-01" purity="5.6661504507064819e-01" nType="-99"/>
                </Node>
              </Node>
            </Node>
            <Node pos="r" depth="3" NCoef="0" IVar="4" Cut="4.0083655714988708e-01" cType="1" res="-4.0091812610626221e-02" rms="4.6962842345237732e-01" purity="3.7982177734375000e-01" nType="0">
              <Node pos="l" depth="4" NCoef="0" IVar="-1" Cut="0.0000000000000000e+00" cType="1" res="-7.2769832331687212e-04" rms="4.9157658219337463e-01" purity="4.5918884873390198e-01" nType="-99"/>
              <Node pos="r" depth="4" NCoef="0" IVar="-1" Cut="0.0000000000000000e+00" cType="1" res="-6.8677864037454128e-03" rms="4.4828206300735474e-01" purity="3.1213390827178955e-01" nType="-99"/>
            </Node>
          </Node>
        </Node>
        <Node pos="r" depth="1" NCoef="0" IVar="0" Cut="5.7448899745941162e-01" cType="1" res="6.0502767562866211e-02" rms="4.2758244276046753e-01" purity="7.3587089776992798e-01" nType="0">
          <Node pos="l" depth="2" NCoef="0" IVar="5" Cut="-2.3947935104370117e+00" cType="1" res="6.5663874149322510e-02" rms="4.2499414086341858e-01" purity="7.4528795480728149e-01" nType="0">
            <Node pos="l" depth="3" NCoef="0" IVar="4" Cut="-1.1317694187164307e+00" cType="1" res="8.0583728849887848e-02" rms="4.0022689104080200e-01" purity="7.9324811697006226e-01" nType="0">
              <Node pos="l" depth="4" NCoef="0" IVar="4" Cut="-2.9026107788085938e+00" cType="1" res="6.7929349839687347e-02" rms="4.2844223976135254e-01" purity="7.5106984376907349e-01" nType="0">
                <Node pos="l" depth="5" NCoef="0" IVar="-1" Cut="0.0000000000000000e+00" cType="1" res="1.0275583714246750e-02" rms="3.8819867372512817e-01" purity="8.1117886304855347e-01" nType="-99"/>
                <Node pos="r" depth="5" NCoef="0" IVar="3" Cut="8.4428989887237549e-01" cType="1" res="6.0549050569534302e-02" rms="4.3542680144309998e-01" purity="7.3942047357559204e-01" nType="0">
                  <Node pos="l" depth="6" NCoef="0" IVar="3" Cut="8.0961972475051880e-01" cType="1" res="4.5261971652507782e-02" rms="4.6203923225402832e-01" purity="6.8569952249526978e-01" nType="0">
                    <Node pos="l" depth="7" NCoef="0" IVar="-1" Cut="0.0000000000000000e+00" cType="1" res="2.8372348751872778e-03" rms="4.7193533182144165e-01" purity="6.5941613912582397e-01" nType="-99"/>
                    <Node pos="r" depth="7" NCoef="0" IVar="-1" Cut="0.0000000000000000e+00" cType="1" res="4.7322101891040802e-03" rms="4.5278117060661316e-01" purity="7.0911580324172974e-01" nType="-99"/>
                  </Node>
                  <Node pos="r" depth="6" NCoef="0" IVar="4" Cut="-2.4455475807189941e+00" cType="1" res="6.5872572362422943e-02" rms="4.2564022541046143e-01" purity="7.5812804698944092e-01" nType="0">
                    <Node pos="l" depth="7" NCoef="0" IVar="-1" Cut="0.0000000000000000e+00" cType="1" res="7.7829584479331970e-03" rms="4.1177162528038025e-01" purity="7.8066533803939819e-01" nType="-99"/>
                    <Node pos="r" depth="7" NCoef="0" IVar="-1" Cut="0.0000000000000000e+00" cType="1" res="5.1292967982590199e-03" rms="4.3012991547584534e-01" purity="7.5047755241394043e-01" nType="-99"/>
                  </Node>
                </Node>
              </Node>
              <Node pos="r" depth="4" NCoef="0" IVar="3" Cut="1.0039488077163696e+00" cType="1" res="8.9204996824264526e-02" rms="3.7956398725509644e-01" purity="8.2198363542556763e-01" nType="0">
                <Node pos="l" depth="5" NCoef="0" IVar="1" Cut="5.8415377140045166e-01" cType="1" res="8.5952021181583405e-02" rms="3.8491082191467285e-01" purity="8.1516772508621216e-01" nType="0">
                  <Node pos="l" depth="6" NCoef="0" IVar="3" Cut="9.7410899400711060e-01" cType="1" res="9.0546242892742157e-02" rms="3.7757974863052368e-01" purity="8.2532870769500732e-01" nType="0">
                    <Node pos="l" depth="7" NCoef="0" IVar="-1" Cut="0.0000000000000000e+00" cType="1" res="7.1236700750887394e-03" rms="4.1512593626976013e-01" purity="7.7574443817138672e-01" nType="-99"/>
                    <Node pos="r" depth="7" NCoef="0" IVar="-1" Cut="0.0000000000000000e+00" cType="1" res="9.7464155405759811e-03" rms="3.6488103866577148e-01" purity="8.4089881181716919e-01" nType="-99"/>
                  </Node>
                  <Node pos="r" depth="6" NCoef="0" IVar="-1" Cut="0.0000000000000000e+00" cType="1" res="4.1653546504676342e-03" rms="4.4157344102859497e-01" purity="7.2680622339248657e-01" nType="-99"/>
                </Node>
                <Node pos="r" depth="5" NCoef="0" IVar="4" Cut="-3.3913537859916687e-01" cType="1" res="9.7991988062858582e-02" rms="3.6458432674407959e-01" purity="8.4039491415023804e-01" nType="0">
                  <Node pos="l" depth="6" NCoef="0" IVar="-1" Cut="0.0000000000000000e+00" cType="1" res="8.8354693725705147e-03" rms="3.6996853351593018e-01" purity="8.3476096391677856e-01" nType="-99"/>
                  <Node pos="r" depth="6" NCoef="0" IVar="-1" Cut="0.0000000000000000e+00" cType="1" res="1.0437262244522572e-02" rms="3.5697692632675171e-01" purity="8.4807807207107544e-01" nType="-99"/>
                </Node>
              </Node>
            </Node>
            <Node pos="r" depth="3" NCoef="0" IVar="0" Cut="1.8530983477830887e-02" cType="1" res="4.5842137187719345e-02" rms="4.5506578683853149e-01" purity="6.8157064914703369e-01" nType="0">
              <Node pos="l" depth="4" NCoef="0" IVar="1" Cut="5.4414439946413040e-02" cType="1" res="5.2343171089887619e-02" rms="4.5065343379974365e-01" purity="6.9661134481430054e-01" nType="0">
                <Node pos="l" depth="5" NCoef="0" IVar="5" Cut="-1.8301892280578613e+00" cType="1" res="6.7203402519226074e-02" rms="4.3994858860969543e-01" purity="7.2306442260742188e-01" nType="0">
                  <Node pos="l" depth="6" NCoef="0" IVar="1" Cut="-1.8554380536079407e-01" cType="1" res="0.0000000000000000e+00" rms="0.0000000000000000e+00" purity="7.7947837114334106e-01" nType="0">
                    <Node pos="l" depth="7" NCoef="0" IVar="-1" Cut="0.0000000000000000e+00" cType="1" res="4.9723852425813675e-03" rms="4.2802637815475464e-01" purity="7.5481945276260376e-01" nType="-99"/>
                    <Node pos="r" depth="7" NCoef="0" IVar="-1" Cut="0.0000000000000000e+00" cType="1" res="8.2674445584416389e-03" rms="4.0713176131248474e-01" purity="7.8822612762451172e-01" nType="-99"/>
                  </Node>
                  <Node pos="r" depth="6" NCoef="0" IVar="4" Cut="2.7657681703567505e-01" cType="1" res="5.3868878632783890e-02" rms="4.6435725688934326e-01" purity="6.6806322336196899e-01" nType="0">
                    <Node pos="l" depth="7" NCoef="0" IVar="-1" Cut="0.0000000000000000e+00" cType="1" res="5.1790331490337849e-03" rms="4.6156018972396851e-01" purity="6.8508291244506836e-01" nType="-99"/>
                    <Node pos="r" depth="7" NCoef="0" IVar="-1" Cut="0.0000000000000000e+00" cType="1" res="2.8990379069000483e-03" rms="4.7301900386810303e-01" purity="6.1066740751266479e-01" nType="-99"/>
                  </Node>
                </Node>
                <Node pos="r" depth="5" NCoef="0" IVar="5" Cut="-1.0963302850723267e+00" cType="1" res="3.4856840968132019e-02" rms="4.6232181787490845e-01" purity="6.6548353433609009e-01" nType="0">
                  <Node pos="l" depth="6" NCoef="0" IVar="3" Cut="9.5729792118072510e-01" cType="1" res="4.3030198663473129e-02" rms="4.5440897345542908e-01" purity="6.9703167676925659e-01" nType="0">
                    <Node pos="l" depth="7" NCoef="0" IVar="-1" Cut="0.0000000000000000e+00" cType="1" res="2.5234369095414877e-03" rms="4.7113317251205444e-01" purity="6.5654045343399048e-01" nType="-99"/>
                    <Node pos="r" depth="7" NCoef="0" IVar="-1" Cut="0.0000000000000000e+00" cType="1" res="4.7979182563722134e-03" rms="4.3964526057243347e-01" purity="7.3080164194107056e-01" nType="-99"/>
                  </Node>
                  <Node pos="r" depth="6" NCoef="0" IVar="-1" Cut="0.0000000000000000e+00" cType="1" res="2.3655666154809296e-04" rms="4.9083960056304932e-01" purity="5.4164922237396240e-01" nType="-99"/>
                </Node>
              </Node>
              <Node pos="r" depth="4" NCoef="0" IVar="1" Cut="1.1757136881351471e-01" cType="1" res="-5.5872101802378893e-04" rms="4.8286014795303345e-01" purity="5.7421833276748657e-01" nType="0">
                <Node pos="l" depth="5" NCoef="0" IVar="-1" Cut="0.0000000000000000e+00" cType="1" res="3.3183768391609192e-03" rms="4.7291678190231323e-01" purity="6.2811100482940674e-01" nType="-99"/>
                <Node pos="r" depth="5" NCoef="0" IVar="-1" Cut="0.0000000000000000e+00" cType="1" res="-4.6564894728362560e-03" rms="4.9162194132804871e-01" purity="5.0068223476409912e-01" nType="-99"/>
              </Node>
            </Node>
          </Node>
          <Node pos="r" depth="2" NCoef="0" IVar="-1" Cut="0.0000000000000000e+00" cType="1" res="-1.0729348286986351e-02" rms="4.7580248117446899e-01" purity="4.0950739383697510e-01" nType="-99"/>
        </Node>
      </Node>
    </BinaryTree>
    <BinaryTree type="DecisionTree" boostWeight="1.0000000000000000e+00" itree="36">
      <Node pos="s" depth="0" NCoef="0" IVar="3" Cut="7.7113348245620728e-01" cType="1" res="1.2749147601425648e-02" rms="4.1205814480781555e-01" purity="4.9973347783088684e-01" nType="0">
        <Node pos="l" depth="1" NCoef="0" IVar="3" Cut="5.7216763496398926e-01" cType="1" res="-3.2820552587509155e-02" rms="3.9040631055831909e-01" purity="2.6256167888641357e-01" nType="0">
          <Node pos="l" depth="2" NCoef="0" IVar="4" Cut="1.7523177862167358e+00" cType="1" res="-4.7507394105195999e-02" rms="3.2810711860656738e-01" purity="1.4235323667526245e-01" nType="0">
            <Node pos="l" depth="3" NCoef="0" IVar="3" Cut="3.8763520121574402e-01" cType="1" res="-4.2019087821245193e-02" rms="3.5368791222572327e-01" purity="1.6771173477172852e-01" nType="0">
              <Node pos="l" depth="4" NCoef="0" IVar="7" Cut="4.0000000000000000e+00" cType="1" res="8.8960886001586914e-02" rms="0.0000000000000000e+00" purity="1.0270109027624130e-01" nType="0">
                <Node pos="l" depth="5" NCoef="0" IVar="-1" Cut="0.0000000000000000e+00" cType="1" res="-1.4106237795203924e-03" rms="3.7848749756813049e-01" purity="1.8777644634246826e-01" nType="-99"/>
                <Node pos="r" depth="5" NCoef="0" IVar="5" Cut="-2.3813505172729492e+00" cType="1" res="-6.0250867158174515e-02" rms="2.7661648392677307e-01" purity="8.8788889348506927e-02" nType="0">
                  <Node pos="l" depth="6" NCoef="0" IVar="6" Cut="1.7955529689788818e-01" cType="1" res="-4.8926394432783127e-02" rms="2.8973773121833801e-01" purity="1.0019145905971527e-01" nType="0">
                    <Node pos="l" depth="7" NCoef="0" IVar="-1" Cut="0.0000000000000000e+00" cType="1" res="-1.6182770952582359e-02" rms="2.4371685087680817e-01" purity="6.5379060804843903e-02" nType="-99"/>
                    <Node pos="r" depth="7" NCoef="0" IVar="-1" Cut="0.0000000000000000e+00" cType="1" res="-1.4741151826456189e-03" rms="3.9834123849868774e-01" purity="2.0906752347946167e-01" nType="-99"/>
                  </Node>
                  <Node pos="r" depth="6" NCoef="0" IVar="5" Cut="-2.1214540004730225e+00" cType="1" res="-6.8826355040073395e-02" rms="2.6592981815338135e-01" purity="8.0154247581958771e-02" nType="0">
                    <Node pos="l" depth="7" NCoef="0" IVar="-1" Cut="0.0000000000000000e+00" cType="1" res="-9.8981577903032303e-03" rms="3.0867666006088257e-01" purity="1.1150837689638138e-01" nType="-99"/>
                    <Node pos="r" depth="7" NCoef="0" IVar="-1" Cut="0.0000000000000000e+00" cType="1" res="-1.7007410526275635e-02" rms="2.5675868988037109e-01" purity="7.4178792536258698e-02" nType="-99"/>
                  </Node>
                </Node>
              </Node>
              <Node pos="r" depth="4" NCoef="0" IVar="0" Cut="7.5524157285690308e-01" cType="1" res="-3.0053785070776939e-02" rms="4.0915781259536743e-01" purity="2.3893806338310242e-01" nType="0">
                <Node pos="l" depth="5" NCoef="0" IVar="1" Cut="-8.1097200512886047e-02" cType="1" res="-9.9758030846714973e-03" rms="4.5173889398574829e-01" purity="3.1268802285194397e-01" nType="0">
                  <Node pos="l" depth="6" NCoef="0" IVar="-1" Cut="0.0000000000000000e+00" cType="1" res="3.4938014578074217e-03" rms="4.7748118638992310e-01" purity="3.8276794552803040e-01" nType="-99"/>
                  <Node pos="r" depth="6" NCoef="0" IVar="4" Cut="-7.9640352725982666e-01" cType="1" res="-2.6170328259468079e-02" rms="4.4086104631423950e-01" purity="2.8711566329002380e-01" nType="0">
                    <Node pos="l" depth="7" NCoef="0" IVar="-1" Cut="0.0000000000000000e+00" cType="1" res="-5.8841970749199390e-03" rms="4.3475040793418884e-01" purity="2.7165597677230835e-01" nType="-99"/>
                    <Node pos="r" depth="7" NCoef="0" IVar="-1" Cut="0.0000000000000000e+00" cType="1" res="-1.6217235242947936e-03" rms="4.4313809275627136e-01" purity="2.9424393177032471e-01" nType="-99"/>
                  </Node>
                </Node>
                <Node pos="r" depth="5" NCoef="0" IVar="2" Cut="1.8930821228027344e+02" cType="1" res="-5.4548181593418121e-02" rms="3.4870770573616028e-01" purity="1.4896586537361145e-01" nType="0">
                  <Node pos="l" depth="6" NCoef="0" IVar="6" Cut="6.4341053366661072e-02" cType="1" res="-3.8745269179344177e-02" rms="3.6185303330421448e-01" purity="1.6420838236808777e-01" nType="0">
                    <Node pos="l" depth="7" NCoef="0" IVar="-1" Cut="0.0000000000000000e+00" cType="1" res="-1.1428031139075756e-02" rms="3.2556951045989990e-01" purity="1.2525847554206848e-01" nType="-99"/>
                    <Node pos="r" depth="7" NCoef="0" IVar="-1" Cut="0.0000000000000000e+00" cType="1" res="-1.8419316620565951e-04" rms="4.0455618500709534e-01" purity="2.1907103061676025e-01" nType="-99"/>
                  </Node>
                  <Node pos="r" depth="6" NCoef="0" IVar="1" Cut="2.8184503316879272e-01" cType="1" res="-7.3374927043914795e-02" rms="3.3138683438301086e-01" purity="1.3080672919750214e-01" nType="0">
                    <Node pos="l" depth="7" NCoef="0" IVar="-1" Cut="0.0000000000000000e+00" cType="1" res="-8.6615178734064102e-03" rms="3.6265754699707031e-01" purity="1.6159890592098236e-01" nType="-99"/>
                    <Node pos="r" depth="7" NCoef="0" IVar="-1" Cut="0.0000000000000000e+00" cType="1" res="-1.6885677352547646e-02" rms="2.8741979598999023e-01" purity="9.3245647847652435e-02" nType="-99"/>
                  </Node>
                </Node>
              </Node>
            </Node>
            <Node pos="r" depth="3" NCoef="0" IVar="3" Cut="2.4753469228744507e-01" cType="1" res="-6.8939641118049622e-02" rms="1.9740669429302216e-01" purity="4.3326396495103836e-02" nType="0">
              <Node pos="l" depth="4" NCoef="0" IVar="-1" Cut="0.0000000000000000e+00" cType="1" res="-1.3063641265034676e-02" rms="2.4402190744876862e-01" purity="6.9884367287158966e-02" nType="-99"/>
              <Node pos="r" depth="4" NCoef="0" IVar="5" Cut="1.5558522939682007e+00" cType="1" res="-7.8608080744743347e-02" rms="1.7425632476806641e-01" purity="3.2642059028148651e-02" nType="0">
                <Node pos="l" depth="5" NCoef="0" IVar="4" Cut="2.4103562831878662e+00" cType="1" res="-6.9843418896198273e-02" rms="2.1744461357593536e-01" purity="5.2109643816947937e-02" nType="0">
                  <Node pos="l" depth="6" NCoef="0" IVar="-1" Cut="0.0000000000000000e+00" cType="1" res="-1.5664264559745789e-02" rms="2.4146668612957001e-01" purity="6.5773136913776398e-02" nType="-99"/>
                  <Node pos="r" depth="6" NCoef="0" IVar="-1" Cut="0.0000000000000000e+00" cType="1" res="-2.0756205543875694e-02" rms="1.8700218200683594e-01" purity="3.6949589848518372e-02" nType="-99"/>
                </Node>
                <Node pos="r" depth="5" NCoef="0" IVar="3" Cut="3.5224476456642151e-01" cType="1" res="-8.6872652173042297e-02" rms="1.1946921795606613e-01" purity="1.4285258948802948e-02" nType="0">
                  <Node pos="l" depth="6" NCoef="0" IVar="-1" Cut="0.0000000000000000e+00" cType="1" res="-2.6331894099712372e-02" rms="1.1937595158815384e-01" purity="1.4521711505949497e-02" nType="-99"/>
                  <Node pos="r" depth="6" NCoef="0" IVar="-1" Cut="0.0000000000000000e+00" cType="1" res="-2.6417581364512444e-02" rms="1.1876168102025986e-01" purity="1.4051795937120914e-02" nType="-99"/>
                </Node>
              </Node>
            </Node>
          </Node>
          <Node pos="r" depth="2" NCoef="0" IVar="5" Cut="3.9631320396438241e-04" cType="1" res="-7.3899198323488235e-03" rms="4.7843998670578003e-01" purity="4.7070559859275818e-01" nType="0">
            <Node pos="l" depth="3" NCoef="0" IVar="0" Cut="4.2297551035881042e-01" cType="1" res="-4.1227115434594452e-04" rms="4.8431545495986938e-01" purity="4.9099937081336975e-01" nType="0">
              <Node pos="l" depth="4" NCoef="0" IVar="0" Cut="1.7736941576004028e-01" cType="1" res="1.2632497586309910e-02" rms="4.8919618129730225e-01" purity="5.3532946109771729e-01" nType="0">
                <Node pos="l" depth="5" NCoef="0" IVar="3" Cut="7.1337097883224487e-01" cType="1" res="2.5111246854066849e-02" rms="4.8714119195938110e-01" purity="5.7390642166137695e-01" nType="0">
                  <Node pos="l" depth="6" NCoef="0" IVar="1" Cut="9.2805735766887665e-02" cType="1" res="1.0941538959741592e-02" rms="4.9437531828880310e-01" purity="5.3021734952926636e-01" nType="0">
                    <Node pos="l" depth="7" NCoef="0" IVar="-1" Cut="0.0000000000000000e+00" cType="1" res="2.3073852062225342e-03" rms="4.9206793308258057e-01" purity="5.6362974643707275e-01" nType="-99"/>
                    <Node pos="r" depth="7" NCoef="0" IVar="-1" Cut="0.0000000000000000e+00" cType="1" res="-9.0752413962036371e-04" rms="4.9644139409065247e-01" purity="4.8790138959884644e-01" nType="-99"/>
                  </Node>
                  <Node pos="r" depth="6" NCoef="0" IVar="5" Cut="-1.9356468915939331e+00" cType="1" res="4.4798154383897781e-02" rms="4.7620892524719238e-01" purity="6.3460648059844971e-01" nType="0">
                    <Node pos="l" depth="7" NCoef="0" IVar="-1" Cut="0.0000000000000000e+00" cType="1" res="4.4497475028038025e-03" rms="4.6913418173789978e-01" purity="6.6669511795043945e-01" nType="-99"/>
                    <Node pos="r" depth="7" NCoef="0" IVar="-1" Cut="0.0000000000000000e+00" cType="1" res="2.4942716117948294e-03" rms="4.8799866437911987e-01" purity="5.7828831672668457e-01" nType="-99"/>
                  </Node>
                </Node>
                <Node pos="r" depth="5" NCoef="0" IVar="5" Cut="-1.9353836774826050e+00" cType="1" res="-4.4613354839384556e-03" rms="4.9148324131965637e-01" purity="4.8248544335365295e-01" nType="0">
                  <Node pos="l" depth="6" NCoef="0" IVar="6" Cut="4.9604121595621109e-02" cType="1" res="8.6500253528356552e-03" rms="4.9373853206634521e-01" purity="5.1029533147811890e-01" nType="0">
                    <Node pos="l" depth="7" NCoef="0" IVar="-1" Cut="0.0000000000000000e+00" cType="1" res="-7.9126009950414300e-04" rms="4.9412050843238831e-01" purity="4.9888411164283752e-01" nType="-99"/>
                    <Node pos="r" depth="7" NCoef="0" IVar="-1" Cut="0.0000000000000000e+00" cType="1" res="2.1365431603044271e-03" rms="4.9287667870521545e-01" purity="5.2047955989837646e-01" nType="-99"/>
                  </Node>
                  <Node pos="r" depth="6" NCoef="0" IVar="-1" Cut="0.0000000000000000e+00" cType="1" res="-2.5928704999387264e-03" rms="4.8647418618202209e-01" purity="4.3212586641311646e-01" nType="-99"/>
                </Node>
              </Node>
              <Node pos="r" depth="4" NCoef="0" IVar="6" Cut="5.4008774459362030e-02" cType="1" res="-4.2972750961780548e-02" rms="4.6550253033638000e-01" purity="3.4636586904525757e-01" nType="0">
                <Node pos="l" depth="5" NCoef="0" IVar="-1" Cut="0.0000000000000000e+00" cType="1" res="-7.8560113906860352e-03" rms="4.5015206933021545e-01" purity="3.0653974413871765e-01" nType="-99"/>
                <Node pos="r" depth="5" NCoef="0" IVar="2" Cut="1.9719638061523438e+02" cType="1" res="-2.0386032760143280e-02" rms="4.7385635972023010e-01" purity="3.7226852774620056e-01" nType="0">
                  <Node pos="l" depth="6" NCoef="0" IVar="-1" Cut="0.0000000000000000e+00" cType="1" res="1.1140346759930253e-03" rms="4.8555374145507812e-01" purity="4.2100316286087036e-01" nType="-99"/>
                  <Node pos="r" depth="6" NCoef="0" IVar="-1" Cut="0.0000000000000000e+00" cType="1" res="-5.7053864002227783e-03" rms="4.5854866504669189e-01" purity="3.2040897011756897e-01" nType="-99"/>
                </Node>
              </Node>
            </Node>
            <Node pos="r" depth="3" NCoef="0" IVar="-1" Cut="0.0000000000000000e+00" cType="1" res="-1.3792792335152626e-02" rms="3.6639413237571716e-01" purity="1.7161734402179718e-01" nType="-99"/>
          </Node>
        </Node>
        <Node pos="r" depth="1" NCoef="0" IVar="1" Cut="1.1755354404449463e+00" cType="1" res="5.8055382221937180e-02" rms="4.2772540450096130e-01" purity="7.3553401231765747e-01" nType="0">
          <Node pos="l" depth="2" NCoef="0" IVar="5" Cut="-1.5457618236541748e+00" cType="1" res="6.2003910541534424e-02" rms="4.2506113648414612e-01" purity="7.4250513315200806e-01" nType="0">
            <Node pos="l" depth="3" NCoef="0" IVar="0" Cut="4.5190793275833130e-01" cType="1" res="6.9326668977737427e-02" rms="4.1286626458168030e-01" purity="7.7176386117935181e-01" nType="0">
              <Node pos="l" depth="4" NCoef="0" IVar="1" Cut="4.8756793141365051e-01" cType="1" res="7.3478683829307556e-02" rms="4.0973624587059021e-01" purity="7.7917218208312988e-01" nType="0">
                <Node pos="l" depth="5" NCoef="0" IVar="3" Cut="9.7170603275299072e-01" cType="1" res="7.7814996242523193e-02" rms="4.0417593717575073e-01" purity="7.8868085145950317e-01" nType="0">
                  <Node pos="l" depth="6" NCoef="0" IVar="3" Cut="8.6171019077301025e-01" cType="1" res="6.5171085298061371e-02" rms="4.3221515417098999e-01" purity="7.4589991569519043e-01" nType="0">
                    <Node pos="l" depth="7" NCoef="0" IVar="-1" Cut="0.0000000000000000e+00" cType="1" res="4.4853175058960915e-03" rms="4.5226413011550903e-01" purity="7.0889210700988770e-01" nType="-99"/>
                    <Node pos="r" depth="7" NCoef="0" IVar="-1" Cut="0.0000000000000000e+00" cType="1" res="7.6936464756727219e-03" rms="4.1130852699279785e-01" purity="7.8196996450424194e-01" nType="-99"/>
                  </Node>
                  <Node pos="r" depth="6" NCoef="0" IVar="5" Cut="-2.4637792110443115e+00" cType="1" res="8.6786732077598572e-02" rms="3.8278400897979736e-01" purity="8.1903696060180664e-01" nType="0">
                    <Node pos="l" depth="7" NCoef="0" IVar="-1" Cut="0.0000000000000000e+00" cType="1" res="8.9657586067914963e-03" rms="3.6918744444847107e-01" purity="8.3541381359100342e-01" nType="-99"/>
                    <Node pos="r" depth="7" NCoef="0" IVar="-1" Cut="0.0000000000000000e+00" cType="1" res="6.9879982620477676e-03" rms="4.1079607605934143e-01" purity="7.8313803672790527e-01" nType="-99"/>
                  </Node>
                </Node>
                <Node pos="r" depth="5" NCoef="0" IVar="4" Cut="-3.3151283860206604e-01" cType="1" res="3.6583118140697479e-02" rms="4.5262426137924194e-01" purity="6.9826745986938477e-01" nType="0">
                  <Node pos="l" depth="6" NCoef="0" IVar="1" Cut="7.0956319570541382e-01" cType="1" res="1.6867717728018761e-02" rms="4.6704262495040894e-01" purity="6.6426193714141846e-01" nType="0">
                    <Node pos="l" depth="7" NCoef="0" IVar="-1" Cut="0.0000000000000000e+00" cType="1" res="3.5853909794241190e-03" rms="4.5280948281288147e-01" purity="7.0127999782562256e-01" nType="-99"/>
                    <Node pos="r" depth="7" NCoef="0" IVar="-1" Cut="0.0000000000000000e+00" cType="1" res="-1.4346188399940729e-03" rms="4.8272073268890381e-01" purity="6.1633634567260742e-01" nType="-99"/>
                  </Node>
                  <Node pos="r" depth="6" NCoef="0" IVar="-1" Cut="0.0000000000000000e+00" cType="1" res="6.7719053477048874e-03" rms="4.2171767354011536e-01" purity="7.6217389106750488e-01" nType="-99"/>
                </Node>
              </Node>
              <Node pos="r" depth="4" NCoef="0" IVar="-1" Cut="0.0000000000000000e+00" cType="1" res="-6.7929290235042572e-03" rms="4.8860782384872437e-01" purity="5.1310712099075317e-01" nType="-99"/>
            </Node>
            <Node pos="r" depth="3" NCoef="0" IVar="1" Cut="-7.7341854572296143e-02" cType="1" res="2.5100488215684891e-02" rms="4.8014694452285767e-01" purity="5.9505397081375122e-01" nType="0">
              <Node pos="l" depth="4" NCoef="0" IVar="5" Cut="-9.6526098251342773e-01" cType="1" res="5.2289865911006927e-02" rms="4.7361844778060913e-01" purity="6.3382023572921753e-01" nType="0">
                <Node pos="l" depth="5" NCoef="0" IVar="-1" Cut="0.0000000000000000e+00" cType="1" res="5.1458370871841908e-03" rms="4.6033447980880737e-01" purity="6.8862551450729370e-01" nType="-99"/>
                <Node pos="r" depth="5" NCoef="0" IVar="-1" Cut="0.0000000000000000e+00" cType="1" res="3.6616460420191288e-03" rms="4.8677185177803040e-01" purity="5.7728058099746704e-01" nType="-99"/>
              </Node>
              <Node pos="r" depth="4" NCoef="0" IVar="1" Cut="2.4603667855262756e-01" cType="1" res="1.1412032879889011e-02" rms="4.8282122611999512e-01" purity="5.7553714513778687e-01" nType="0">
                <Node pos="l" depth="5" NCoef="0" IVar="5" Cut="-7.9476183652877808e-01" cType="1" res="2.6073161512613297e-02" rms="4.7964280843734741e-01" purity="6.0105127096176147e-01" nType="0">
                  <Node pos="l" depth="6" NCoef="0" IVar="-1" Cut="0.0000000000000000e+00" cType="1" res="3.7019334267824888e-03" rms="4.7074446082115173e-01" purity="6.6053050756454468e-01" nType="-99"/>
                  <Node pos="r" depth="6" NCoef="0" IVar="-1" Cut="0.0000000000000000e+00" cType="1" res="1.5844116569496691e-04" rms="4.9141529202461243e-01" purity="5.1367145776748657e-01" nType="-99"/>
                </Node>
                <Node pos="r" depth="5" NCoef="0" IVar="-1" Cut="0.0000000000000000e+00" cType="1" res="-1.0167005239054561e-03" rms="4.8690003156661987e-01" purity="5.3524702787399292e-01" nType="-99"/>
              </Node>
            </Node>
          </Node>
          <Node pos="r" depth="2" NCoef="0" IVar="-1" Cut="0.0000000000000000e+00" cType="1" res="-2.7188877575099468e-03" rms="4.7560822963714600e-01" purity="5.7699227333068848e-01" nType="-99"/>
        </Node>
      </Node>
    </BinaryTree>
    <BinaryTree type="DecisionTree" boostWeight="1.0000000000000000e+00" itree="37">
      <Node pos="s" depth="0" NCoef="0" IVar="3" Cut="6.7608582973480225e-01" cType="1" res="1.3354444876313210e-02" rms="4.1119116544723511e-01" purity="4.9949693679809570e-01" nType="0">
        <Node pos="l" depth="1" NCoef="0" IVar="3" Cut="5.0165224075317383e-01" cType="1" res="-3.8817424327135086e-02" rms="3.6328986287117004e-01" purity="1.9785648584365845e-01" nType="0">
          <Node pos="l" depth="2" NCoef="0" IVar="6" Cut="2.4734622240066528e-01" cType="1" res="-5.1062084734439850e-02" rms="2.9799389839172363e-01" purity="1.0947541892528534e-01" nType="0">
            <Node pos="l" depth="3" NCoef="0" IVar="4" Cut="1.7312856912612915e+00" cType="1" res="-5.4401393979787827e-02" rms="2.8669381141662598e-01" purity="1.0025671124458313e-01" nType="0">
              <Node pos="l" depth="4" NCoef="0" IVar="6" Cut="1.5172237157821655e-01" cType="1" res="-4.9213007092475891e-02" rms="3.1516465544700623e-01" purity="1.2239169329404831e-01" nType="0">
                <Node pos="l" depth="5" NCoef="0" IVar="2" Cut="2.8294049072265625e+02" cType="1" res="-5.6203655898571014e-02" rms="2.9205268621444702e-01" purity="1.0113380104303360e-01" nType="0">
                  <Node pos="l" depth="6" NCoef="0" IVar="3" Cut="3.8850173354148865e-01" cType="1" res="-4.8851501196622849e-02" rms="2.9857644438743591e-01" purity="1.0653645545244217e-01" nType="0">
                    <Node pos="l" depth="7" NCoef="0" IVar="-1" Cut="0.0000000000000000e+00" cType="1" res="-1.6574427485466003e-02" rms="2.3824936151504517e-01" purity="6.1752833425998688e-02" nType="-99"/>
                    <Node pos="r" depth="7" NCoef="0" IVar="-1" Cut="0.0000000000000000e+00" cType="1" res="-5.4338229820132256e-03" rms="3.6737912893295288e-01" purity="1.7045764625072479e-01" nType="-99"/>
                  </Node>
                  <Node pos="r" depth="6" NCoef="0" IVar="6" Cut="1.3196946680545807e-01" cType="1" res="-7.3750741779804230e-02" rms="2.7506685256958008e-01" purity="8.8239513337612152e-02" nType="0">
                    <Node pos="l" depth="7" NCoef="0" IVar="-1" Cut="0.0000000000000000e+00" cType="1" res="-1.6408702358603477e-02" rms="2.6002278923988342e-01" purity="7.7439308166503906e-02" nType="-99"/>
                    <Node pos="r" depth="7" NCoef="0" IVar="-1" Cut="0.0000000000000000e+00" cType="1" res="-1.1370346881449223e-02" rms="3.1618130207061768e-01" purity="1.2115680426359177e-01" nType="-99"/>
                  </Node>
                </Node>
                <Node pos="r" depth="5" NCoef="0" IVar="3" Cut="3.0744755268096924e-01" cType="1" res="-2.8289880603551865e-02" rms="3.7516486644744873e-01" purity="1.8601691722869873e-01" nType="0">
                  <Node pos="l" depth="6" NCoef="0" IVar="7" Cut="7.0000000000000000e+00" cType="1" res="-5.3217615932226181e-02" rms="3.1391096115112305e-01" purity="1.1837822198867798e-01" nType="0">
                    <Node pos="l" depth="7" NCoef="0" IVar="-1" Cut="0.0000000000000000e+00" cType="1" res="-6.1479588039219379e-03" rms="3.5100626945495605e-01" purity="1.5509943664073944e-01" nType="-99"/>
                    <Node pos="r" depth="7" NCoef="0" IVar="-1" Cut="0.0000000000000000e+00" cType="1" res="-1.7401192337274551e-02" rms="2.6238471269607544e-01" purity="7.5672075152397156e-02" nType="-99"/>
                  </Node>
                  <Node pos="r" depth="6" NCoef="0" IVar="7" Cut="5.0000000000000000e+00" cType="1" res="-5.8263591490685940e-03" rms="4.2067906260490417e-01" purity="2.4608041346073151e-01" nType="0">
                    <Node pos="l" depth="7" NCoef="0" IVar="-1" Cut="0.0000000000000000e+00" cType="1" res="-4.1813328862190247e-03" rms="4.1842195391654968e-01" purity="2.4243587255477905e-01" nType="-99"/>
                    <Node pos="r" depth="7" NCoef="0" IVar="-1" Cut="0.0000000000000000e+00" cType="1" res="2.8938194736838341e-03" rms="4.2186731100082397e-01" purity="2.4982027709484100e-01" nType="-99"/>
                  </Node>
                </Node>
              </Node>
              <Node pos="r" depth="4" NCoef="0" IVar="2" Cut="2.2277787780761719e+02" cType="1" res="-7.2412528097629547e-02" rms="1.4930188655853271e-01" purity="2.3416634649038315e-02" nType="0">
                <Node pos="l" depth="5" NCoef="0" IVar="6" Cut="7.2514377534389496e-02" cType="1" res="-6.5789096057415009e-02" rms="1.5298996865749359e-01" purity="2.4919938296079636e-02" nType="0">
                  <Node pos="l" depth="6" NCoef="0" IVar="-1" Cut="0.0000000000000000e+00" cType="1" res="-2.6794435456395149e-02" rms="1.1008957028388977e-01" purity="1.2319916859269142e-02" nType="-99"/>
                  <Node pos="r" depth="6" NCoef="0" IVar="-1" Cut="0.0000000000000000e+00" cType="1" res="-2.0467385649681091e-02" rms="1.8369391560554504e-01" purity="3.6560986191034317e-02" nType="-99"/>
                </Node>
                <Node pos="r" depth="5" NCoef="0" IVar="7" Cut="6.0000000000000000e+00" cType="1" res="-7.7790327370166779e-02" rms="1.4597107470035553e-01" purity="2.2173056378960609e-02" nType="0">
                  <Node pos="l" depth="6" NCoef="0" IVar="-1" Cut="0.0000000000000000e+00" cType="1" res="-2.4649806320667267e-02" rms="1.4410275220870972e-01" purity="2.1782882511615753e-02" nType="-99"/>
                  <Node pos="r" depth="6" NCoef="0" IVar="-1" Cut="0.0000000000000000e+00" cType="1" res="-2.3459952324628830e-02" rms="1.4779543876647949e-01" purity="2.2585913538932800e-02" nType="-99"/>
                </Node>
              </Node>
            </Node>
            <Node pos="r" depth="3" NCoef="0" IVar="7" Cut="7.0000000000000000e+00" cType="1" res="1.5913611650466919e-01" rms="0.0000000000000000e+00" purity="2.0973338186740875e-01" nType="0">
              <Node pos="l" depth="4" NCoef="0" IVar="-1" Cut="0.0000000000000000e+00" cType="1" res="5.7188636856153607e-04" rms="4.2513972520828247e-01" purity="2.5497978925704956e-01" nType="-99"/>
              <Node pos="r" depth="4" NCoef="0" IVar="-1" Cut="0.0000000000000000e+00" cType="1" res="-5.5373474024236202e-03" rms="3.7194889783859253e-01" purity="1.6724257171154022e-01" nType="-99"/>
            </Node>
          </Node>
          <Node pos="r" depth="2" NCoef="0" IVar="7" Cut="3.0000000000000000e+00" cType="1" res="-1.6294119879603386e-02" rms="4.5832383632659912e-01" purity="3.5937926173210144e-01" nType="0">
            <Node pos="l" depth="3" NCoef="0" IVar="6" Cut="7.9871922731399536e-02" cType="1" res="-6.0092650353908539e-02" rms="4.3833181262016296e-01" purity="2.9052314162254333e-01" nType="0">
              <Node pos="l" depth="4" NCoef="0" IVar="-1" Cut="0.0000000000000000e+00" cType="1" res="-1.0902728885412216e-02" rms="4.0777492523193359e-01" purity="2.2174200415611267e-01" nType="-99"/>
              <Node pos="r" depth="4" NCoef="0" IVar="-1" Cut="0.0000000000000000e+00" cType="1" res="-3.3643578644841909e-03" rms="4.5922133326530457e-01" purity="3.4461647272109985e-01" nType="-99"/>
            </Node>
            <Node pos="r" depth="3" NCoef="0" IVar="4" Cut="1.5688302516937256e+00" cType="1" res="-7.2539770044386387e-03" rms="4.6197009086608887e-01" purity="3.7386789917945862e-01" nType="0">
              <Node pos="l" depth="4" NCoef="0" IVar="2" Cut="1.9072390747070312e+02" cType="1" res="-4.4710126530844718e-05" rms="4.7410956025123596e-01" purity="4.0037766098976135e-01" nType="0">
                <Node pos="l" depth="5" NCoef="0" IVar="6" Cut="5.8167584240436554e-02" cType="1" res="1.8230302259325981e-02" rms="4.7784042358398438e-01" purity="4.2490556836128235e-01" nType="0">
                  <Node pos="l" depth="6" NCoef="0" IVar="1" Cut="2.5430008769035339e-01" cType="1" res="-1.1153049767017365e-02" rms="4.6659278869628906e-01" purity="3.7244474887847900e-01" nType="0">
                    <Node pos="l" depth="7" NCoef="0" IVar="-1" Cut="0.0000000000000000e+00" cType="1" res="1.1966039892286062e-03" rms="4.8123487830162048e-01" purity="4.2058080434799194e-01" nType="-99"/>
                    <Node pos="r" depth="7" NCoef="0" IVar="-1" Cut="0.0000000000000000e+00" cType="1" res="-6.2101371586322784e-03" rms="4.3395167589187622e-01" purity="2.8129106760025024e-01" nType="-99"/>
                  </Node>
                  <Node pos="r" depth="6" NCoef="0" IVar="2" Cut="1.1433145904541016e+02" cType="1" res="4.5870024710893631e-02" rms="4.8656722903251648e-01" purity="4.7425335645675659e-01" nType="0">
                    <Node pos="l" depth="7" NCoef="0" IVar="-1" Cut="0.0000000000000000e+00" cType="1" res="5.6410767138004303e-03" rms="4.8781216144561768e-01" purity="5.0074058771133423e-01" nType="-99"/>
                    <Node pos="r" depth="7" NCoef="0" IVar="-1" Cut="0.0000000000000000e+00" cType="1" res="2.3143901489675045e-03" rms="4.8442137241363525e-01" purity="4.4790130853652954e-01" nType="-99"/>
                  </Node>
                </Node>
                <Node pos="r" depth="5" NCoef="0" IVar="3" Cut="6.3107663393020630e-01" cType="1" res="-2.4416413158178329e-02" rms="4.6797871589660645e-01" purity="3.6766698956489563e-01" nType="0">
                  <Node pos="l" depth="6" NCoef="0" IVar="6" Cut="1.0403066873550415e-01" cType="1" res="-3.6616023629903793e-02" rms="4.6042522788047791e-01" purity="3.3610868453979492e-01" nType="0">
                    <Node pos="l" depth="7" NCoef="0" IVar="-1" Cut="0.0000000000000000e+00" cType="1" res="-6.5150596201419830e-03" rms="4.3889054656028748e-01" purity="2.8331780433654785e-01" nType="-99"/>
                    <Node pos="r" depth="7" NCoef="0" IVar="-1" Cut="0.0000000000000000e+00" cType="1" res="-1.5474788378924131e-03" rms="4.7826197743415833e-01" purity="3.8424178957939148e-01" nType="-99"/>
                  </Node>
                  <Node pos="r" depth="6" NCoef="0" IVar="-1" Cut="0.0000000000000000e+00" cType="1" res="1.6279484843835235e-03" rms="4.9078989028930664e-01" purity="4.7633710503578186e-01" nType="-99"/>
                </Node>
              </Node>
              <Node pos="r" depth="4" NCoef="0" IVar="-1" Cut="0.0000000000000000e+00" cType="1" res="-1.1570649221539497e-02" rms="3.2041245698928833e-01" purity="1.2712803483009338e-01" nType="-99"/>
            </Node>
          </Node>
        </Node>
        <Node pos="r" depth="1" NCoef="0" IVar="0" Cut="7.8209787607192993e-01" cType="1" res="4.8957642167806625e-02" rms="4.3734428286552429e-01" purity="7.0534271001815796e-01" nType="0">
          <Node pos="l" depth="2" NCoef="0" IVar="0" Cut="1.7652225494384766e-01" cType="1" res="5.2912123501300812e-02" rms="4.3594291806221008e-01" purity="7.1286404132843018e-01" nType="0">
            <Node pos="l" depth="3" NCoef="0" IVar="1" Cut="1.2154670953750610e+00" cType="1" res="6.2804050743579865e-02" rms="4.2593914270401001e-01" purity="7.4237793684005737e-01" nType="0">
              <Node pos="l" depth="4" NCoef="0" IVar="3" Cut="9.7514730691909790e-01" cType="1" res="6.5829865634441376e-02" rms="4.2356622219085693e-01" purity="7.4784094095230103e-01" nType="0">
                <Node pos="l" depth="5" NCoef="0" IVar="1" Cut="1.5029147267341614e-01" cType="1" res="5.0631113350391388e-02" rms="4.5071327686309814e-01" purity="6.9419193267822266e-01" nType="0">
                  <Node pos="l" depth="6" NCoef="0" IVar="5" Cut="-9.6020638942718506e-01" cType="1" res="6.1419524252414703e-02" rms="4.4174662232398987e-01" purity="7.1690279245376587e-01" nType="0">
                    <Node pos="l" depth="7" NCoef="0" IVar="-1" Cut="0.0000000000000000e+00" cType="1" res="5.9378026053309441e-03" rms="4.3573474884033203e-01" purity="7.3852950334548950e-01" nType="-99"/>
                    <Node pos="r" depth="7" NCoef="0" IVar="-1" Cut="0.0000000000000000e+00" cType="1" res="1.6104556852951646e-03" rms="4.9144202470779419e-01" purity="5.1822137832641602e-01" nType="-99"/>
                  </Node>
                  <Node pos="r" depth="6" NCoef="0" IVar="5" Cut="-1.5457618236541748e+00" cType="1" res="2.7430605143308640e-02" rms="4.6857550740242004e-01" purity="6.4535200595855713e-01" nType="0">
                    <Node pos="l" depth="7" NCoef="0" IVar="-1" Cut="0.0000000000000000e+00" cType="1" res="3.1299933325499296e-03" rms="4.6221908926963806e-01" purity="6.7822861671447754e-01" nType="-99"/>
                    <Node pos="r" depth="7" NCoef="0" IVar="-1" Cut="0.0000000000000000e+00" cType="1" res="-3.6097166594117880e-04" rms="4.8988562822341919e-01" purity="5.2480322122573853e-01" nType="-99"/>
                  </Node>
                </Node>
                <Node pos="r" depth="5" NCoef="0" IVar="1" Cut="3.4789457917213440e-01" cType="1" res="7.9861290752887726e-02" rms="3.9634197950363159e-01" purity="7.9736942052841187e-01" nType="0">
                  <Node pos="l" depth="6" NCoef="0" IVar="5" Cut="-1.1251474618911743e+00" cType="1" res="8.4500908851623535e-02" rms="3.8878443837165833e-01" purity="8.0807393789291382e-01" nType="0">
                    <Node pos="l" depth="7" NCoef="0" IVar="-1" Cut="0.0000000000000000e+00" cType="1" res="8.3897002041339874e-03" rms="3.8107347488403320e-01" purity="8.2102650403976440e-01" nType="-99"/>
                    <Node pos="r" depth="7" NCoef="0" IVar="-1" Cut="0.0000000000000000e+00" cType="1" res="4.3153245933353901e-03" rms="4.7917157411575317e-01" purity="6.3431322574615479e-01" nType="-99"/>
                  </Node>
                  <Node pos="r" depth="6" NCoef="0" IVar="1" Cut="7.1141654253005981e-01" cType="1" res="5.7632472366094589e-02" rms="4.3002125620841980e-01" purity="7.4608308076858521e-01" nType="0">
                    <Node pos="l" depth="7" NCoef="0" IVar="-1" Cut="0.0000000000000000e+00" cType="1" res="5.8524524793028831e-03" rms="4.2085456848144531e-01" purity="7.6377815008163452e-01" nType="-99"/>
                    <Node pos="r" depth="7" NCoef="0" IVar="-1" Cut="0.0000000000000000e+00" cType="1" res="3.0117181595414877e-03" rms="4.5272040367126465e-01" purity="6.9915777444839478e-01" nType="-99"/>
                  </Node>
                </Node>
              </Node>
              <Node pos="r" depth="4" NCoef="0" IVar="-1" Cut="0.0000000000000000e+00" cType="1" res="-1.4892296167090535e-03" rms="4.7767838835716248e-01" purity="5.9758996963500977e-01" nType="-99"/>
            </Node>
            <Node pos="r" depth="3" NCoef="0" IVar="2" Cut="1.6426292419433594e+02" cType="1" res="1.9125653197988868e-03" rms="4.8103368282318115e-01" purity="5.6069982051849365e-01" nType="0">
              <Node pos="l" depth="4" NCoef="0" IVar="4" Cut="-2.0322334766387939e+00" cType="1" res="1.3563249260187149e-02" rms="4.7838634252548218e-01" purity="5.8605384826660156e-01" nType="0">
                <Node pos="l" depth="5" NCoef="0" IVar="-1" Cut="0.0000000000000000e+00" cType="1" res="5.3821909241378307e-03" rms="4.6404132246971130e-01" purity="6.5623885393142700e-01" nType="-99"/>
                <Node pos="r" depth="5" NCoef="0" IVar="6" Cut="4.8787012696266174e-02" cType="1" res="1.2915026163682342e-03" rms="4.8122110962867737e-01" purity="5.6809443235397339e-01" nType="0">
                  <Node pos="l" depth="6" NCoef="0" IVar="2" Cut="5.2910152435302734e+01" cType="1" res="-1.4286207966506481e-02" rms="4.7971853613853455e-01" purity="5.6867671012878418e-01" nType="0">
                    <Node pos="l" depth="7" NCoef="0" IVar="-1" Cut="0.0000000000000000e+00" cType="1" res="3.4766088356263936e-04" rms="4.7531268000602722e-01" purity="6.1074233055114746e-01" nType="-99"/>
                    <Node pos="r" depth="7" NCoef="0" IVar="-1" Cut="0.0000000000000000e+00" cType="1" res="-4.5632543042302132e-03" rms="4.8604020476341248e-01" purity="4.8999300599098206e-01" nType="-99"/>
                  </Node>
                  <Node pos="r" depth="6" NCoef="0" IVar="-1" Cut="0.0000000000000000e+00" cType="1" res="3.9980323053896427e-03" rms="4.8269933462142944e-01" purity="5.6635981798171997e-01" nType="-99"/>
                </Node>
              </Node>
              <Node pos="r" depth="4" NCoef="0" IVar="5" Cut="-2.1259143352508545e+00" cType="1" res="-3.7085168063640594e-02" rms="4.8777034878730774e-01" purity="4.7583341598510742e-01" nType="0">
                <Node pos="l" depth="5" NCoef="0" IVar="-1" Cut="0.0000000000000000e+00" cType="1" res="-8.5224752547219396e-04" rms="4.9247118830680847e-01" purity="5.3342878818511963e-01" nType="-99"/>
                <Node pos="r" depth="5" NCoef="0" IVar="-1" Cut="0.0000000000000000e+00" cType="1" res="-6.0410168953239918e-03" rms="4.8169580101966858e-01" purity="4.2060008645057678e-01" nType="-99"/>
              </Node>
            </Node>
          </Node>
          <Node pos="r" depth="2" NCoef="0" IVar="-1" Cut="0.0000000000000000e+00" cType="1" res="-1.3844794593751431e-02" rms="4.6126249432563782e-01" purity="3.3316996693611145e-01" nType="-99"/>
        </Node>
      </Node>
    </BinaryTree>
    <BinaryTree type="DecisionTree" boostWeight="1.0000000000000000e+00" itree="38">
      <Node pos="s" depth="0" NCoef="0" IVar="3" Cut="7.7288961410522461e-01" cType="1" res="1.4505171217024326e-02" rms="4.1033279895782471e-01" purity="5.0076341629028320e-01" nType="0">
        <Node pos="l" depth="1" NCoef="0" IVar="3" Cut="5.9846854209899902e-01" cType="1" res="-2.7185931801795959e-02" rms="3.8998603820800781e-01" purity="2.6481568813323975e-01" nType="0">
          <Node pos="l" depth="2" NCoef="0" IVar="1" Cut="1.4958879351615906e-01" cType="1" res="-4.2464796453714371e-02" rms="3.3654090762138367e-01" purity="1.5369336307048798e-01" nType="0">
            <Node pos="l" depth="3" NCoef="0" IVar="2" Cut="1.9356190490722656e+02" cType="1" res="-2.5749208405613899e-02" rms="3.7886494398117065e-01" purity="2.0691649615764618e-01" nType="0">
              <Node pos="l" depth="4" NCoef="0" IVar="6" Cut="1.0518826544284821e-01" cType="1" res="-7.7382661402225494e-03" rms="3.9931860566139221e-01" purity="2.4317298829555511e-01" nType="0">
                <Node pos="l" depth="5" NCoef="0" IVar="2" Cut="7.5956649780273438e+01" cType="1" res="-2.3443562909960747e-02" rms="3.8490146398544312e-01" purity="2.1918791532516479e-01" nType="0">
                  <Node pos="l" depth="6" NCoef="0" IVar="-1" Cut="0.0000000000000000e+00" cType="1" res="1.5537861036136746e-03" rms="4.2037579417228699e-01" purity="2.7411851286888123e-01" nType="-99"/>
                  <Node pos="r" depth="6" NCoef="0" IVar="6" Cut="6.1235520988702774e-02" cType="1" res="-4.2619537562131882e-02" rms="3.6272197961807251e-01" purity="1.8930980563163757e-01" nType="0">
                    <Node pos="l" depth="7" NCoef="0" IVar="-1" Cut="0.0000000000000000e+00" cType="1" res="-1.0422201827168465e-02" rms="3.3363342285156250e-01" purity="1.5020182728767395e-01" nType="-99"/>
                    <Node pos="r" depth="7" NCoef="0" IVar="-1" Cut="0.0000000000000000e+00" cType="1" res="-3.4497682936489582e-03" rms="3.8532310724258423e-01" purity="2.2344985604286194e-01" nType="-99"/>
                  </Node>
                </Node>
                <Node pos="r" depth="5" NCoef="0" IVar="-1" Cut="0.0000000000000000e+00" cType="1" res="4.0786252357065678e-03" rms="4.3119996786117554e-01" purity="3.0404147505760193e-01" nType="-99"/>
              </Node>
              <Node pos="r" depth="4" NCoef="0" IVar="6" Cut="1.8937534093856812e-01" cType="1" res="-3.6742269992828369e-02" rms="3.6538332700729370e-01" purity="1.8478716909885406e-01" nType="0">
                <Node pos="l" depth="5" NCoef="0" IVar="6" Cut="9.9130563437938690e-02" cType="1" res="-4.8820137977600098e-02" rms="3.5179373621940613e-01" purity="1.7246982455253601e-01" nType="0">
                  <Node pos="l" depth="6" NCoef="0" IVar="-1" Cut="0.0000000000000000e+00" cType="1" res="-1.3135802000761032e-02" rms="3.0992284417152405e-01" purity="1.2520034611225128e-01" nType="-99"/>
                  <Node pos="r" depth="6" NCoef="0" IVar="5" Cut="-1.5398384332656860e+00" cType="1" res="-3.6573123186826706e-02" rms="3.6730730533599854e-01" purity="1.9236624240875244e-01" nType="0">
                    <Node pos="l" depth="7" NCoef="0" IVar="-1" Cut="0.0000000000000000e+00" cType="1" res="-2.4137699510902166e-03" rms="4.1648650169372559e-01" purity="2.6109635829925537e-01" nType="-99"/>
                    <Node pos="r" depth="7" NCoef="0" IVar="-1" Cut="0.0000000000000000e+00" cType="1" res="-1.1067871935665607e-02" rms="3.0113750696182251e-01" purity="1.1490658670663834e-01" nType="-99"/>
                  </Node>
                </Node>
                <Node pos="r" depth="5" NCoef="0" IVar="4" Cut="3.9402988553047180e-01" cType="1" res="-8.5487468168139458e-03" rms="3.9385288953781128e-01" purity="2.1353973448276520e-01" nType="0">
                  <Node pos="l" depth="6" NCoef="0" IVar="-1" Cut="0.0000000000000000e+00" cType="1" res="1.3068278785794973e-03" rms="4.3216475844383240e-01" purity="2.6989713311195374e-01" nType="-99"/>
                  <Node pos="r" depth="6" NCoef="0" IVar="-1" Cut="0.0000000000000000e+00" cType="1" res="-7.1946741081774235e-03" rms="3.2591727375984192e-01" purity="1.2873572111129761e-01" nType="-99"/>
                </Node>
              </Node>
            </Node>
            <Node pos="r" depth="3" NCoef="0" IVar="5" Cut="-1.2442203760147095e+00" cType="1" res="-5.4845314472913742e-02" rms="3.0078783631324768e-01" purity="1.1427327245473862e-01" nType="0">
              <Node pos="l" depth="4" NCoef="0" IVar="5" Cut="-3.0995032787322998e+00" cType="1" res="-4.8746582120656967e-02" rms="3.3435738086700439e-01" purity="1.4499984681606293e-01" nType="0">
                <Node pos="l" depth="5" NCoef="0" IVar="3" Cut="3.4829398989677429e-01" cType="1" res="-6.7816697061061859e-02" rms="2.7281808853149414e-01" purity="8.7007313966751099e-02" nType="0">
                  <Node pos="l" depth="6" NCoef="0" IVar="-1" Cut="0.0000000000000000e+00" cType="1" res="-1.5270213596522808e-02" rms="2.4217002093791962e-01" purity="6.7668601870536804e-02" nType="-99"/>
                  <Node pos="r" depth="6" NCoef="0" IVar="-1" Cut="0.0000000000000000e+00" cType="1" res="-1.4368561096489429e-02" rms="3.0557504296302795e-01" purity="1.1064164340496063e-01" nType="-99"/>
                </Node>
                <Node pos="r" depth="5" NCoef="0" IVar="5" Cut="-2.1418731212615967e+00" cType="1" res="-4.3385040014982224e-02" rms="3.4952688217163086e-01" purity="1.6130438446998596e-01" nType="0">
                  <Node pos="l" depth="6" NCoef="0" IVar="4" Cut="-4.9490600824356079e-01" cType="1" res="-3.4608740359544754e-02" rms="3.5892748832702637e-01" purity="1.7269827425479889e-01" nType="0">
                    <Node pos="l" depth="7" NCoef="0" IVar="-1" Cut="0.0000000000000000e+00" cType="1" res="-7.1050710976123810e-03" rms="3.6208438873291016e-01" purity="1.7475324869155884e-01" nType="-99"/>
                    <Node pos="r" depth="7" NCoef="0" IVar="-1" Cut="0.0000000000000000e+00" cType="1" res="-4.3141273781657219e-03" rms="3.5533857345581055e-01" purity="1.7055544257164001e-01" nType="-99"/>
                  </Node>
                  <Node pos="r" depth="6" NCoef="0" IVar="2" Cut="2.7830541992187500e+02" cType="1" res="-5.6573990732431412e-02" rms="3.3447107672691345e-01" purity="1.4418175816535950e-01" nType="0">
                    <Node pos="l" depth="7" NCoef="0" IVar="-1" Cut="0.0000000000000000e+00" cType="1" res="-7.8422063961625099e-03" rms="3.3920204639434814e-01" purity="1.4963619410991669e-01" nType="-99"/>
                    <Node pos="r" depth="7" NCoef="0" IVar="-1" Cut="0.0000000000000000e+00" cType="1" res="-1.2450267560780048e-02" rms="3.2680636644363403e-01" purity="1.3633260130882263e-01" nType="-99"/>
                  </Node>
                </Node>
              </Node>
              <Node pos="r" depth="4" NCoef="0" IVar="6" Cut="1.1613680422306061e-01" cType="1" res="-6.4851947128772736e-02" rms="2.3521980643272400e-01" purity="6.3857920467853546e-02" nType="0">
                <Node pos="l" depth="5" NCoef="0" IVar="2" Cut="1.9963768005371094e+02" cType="1" res="-7.1177892386913300e-02" rms="2.0492684841156006e-01" purity="4.8235591500997543e-02" nType="0">
                  <Node pos="l" depth="6" NCoef="0" IVar="7" Cut="5.0000000000000000e+00" cType="1" res="-6.3454456627368927e-02" rms="2.1676467359066010e-01" purity="5.5928897112607956e-02" nType="0">
                    <Node pos="l" depth="7" NCoef="0" IVar="-1" Cut="0.0000000000000000e+00" cType="1" res="-1.1928939260542393e-02" rms="2.7799868583679199e-01" purity="9.2708371579647064e-02" nType="-99"/>
                    <Node pos="r" depth="7" NCoef="0" IVar="-1" Cut="0.0000000000000000e+00" cType="1" res="-2.2950995713472366e-02" rms="1.5904584527015686e-01" purity="2.9771093279123306e-02" nType="-99"/>
                  </Node>
                  <Node pos="r" depth="6" NCoef="0" IVar="-1" Cut="0.0000000000000000e+00" cType="1" res="-2.1926095709204674e-02" rms="1.8362951278686523e-01" purity="3.5865526646375656e-02" nType="-99"/>
                </Node>
                <Node pos="r" depth="5" NCoef="0" IVar="3" Cut="3.1034517288208008e-01" cType="1" res="-5.6756399571895599e-02" rms="2.6883974671363831e-01" purity="8.3850428462028503e-02" nType="0">
                  <Node pos="l" depth="6" NCoef="0" IVar="-1" Cut="0.0000000000000000e+00" cType="1" res="-1.3457049615681171e-02" rms="2.5513923168182373e-01" purity="7.4305862188339233e-02" nType="-99"/>
                  <Node pos="r" depth="6" NCoef="0" IVar="-1" Cut="0.0000000000000000e+00" cType="1" res="-1.3390505686402321e-02" rms="2.8317105770111084e-01" purity="9.4513654708862305e-02" nType="-99"/>
                </Node>
              </Node>
            </Node>
          </Node>
          <Node pos="r" depth="2" NCoef="0" IVar="5" Cut="-6.1032187938690186e-01" cType="1" res="4.5417994260787964e-03" rms="4.8086354136466980e-01" purity="4.9556976556777954e-01" nType="0">
            <Node pos="l" depth="3" NCoef="0" IVar="7" Cut="3.0000000000000000e+00" cType="1" res="1.3433729298412800e-02" rms="4.8529168963432312e-01" purity="5.2361690998077393e-01" nType="0">
              <Node pos="l" depth="4" NCoef="0" IVar="6" Cut="5.4819822311401367e-02" cType="1" res="-1.6486318781971931e-02" rms="4.8524335026741028e-01" purity="4.8125845193862915e-01" nType="0">
                <Node pos="l" depth="5" NCoef="0" IVar="-1" Cut="0.0000000000000000e+00" cType="1" res="-4.4930451549589634e-03" rms="4.7780373692512512e-01" purity="4.3209260702133179e-01" nType="-99"/>
                <Node pos="r" depth="5" NCoef="0" IVar="2" Cut="1.4103126525878906e+02" cType="1" res="2.1462393924593925e-03" rms="4.8819893598556519e-01" purity="5.0779753923416138e-01" nType="0">
                  <Node pos="l" depth="6" NCoef="0" IVar="-1" Cut="0.0000000000000000e+00" cType="1" res="3.0077085830271244e-03" rms="4.8660317063331604e-01" purity="5.5623537302017212e-01" nType="-99"/>
                  <Node pos="r" depth="6" NCoef="0" IVar="-1" Cut="0.0000000000000000e+00" cType="1" res="-1.6374003607779741e-03" rms="4.8790529370307922e-01" purity="4.8019897937774658e-01" nType="-99"/>
                </Node>
              </Node>
              <Node pos="r" depth="4" NCoef="0" IVar="6" Cut="8.6594194173812866e-02" cType="1" res="2.6427004486322403e-02" rms="4.8594000935554504e-01" purity="5.4454016685485840e-01" nType="0">
                <Node pos="l" depth="5" NCoef="0" IVar="2" Cut="1.1571849060058594e+02" cType="1" res="1.7765741795301437e-02" rms="4.8567324876785278e-01" purity="5.3795802593231201e-01" nType="0">
                  <Node pos="l" depth="6" NCoef="0" IVar="1" Cut="-6.2541589140892029e-02" cType="1" res="3.8169197738170624e-02" rms="4.8367032408714294e-01" purity="5.6779611110687256e-01" nType="0">
                    <Node pos="l" depth="7" NCoef="0" IVar="-1" Cut="0.0000000000000000e+00" cType="1" res="5.8592818677425385e-03" rms="4.7579848766326904e-01" purity="6.2854790687561035e-01" nType="-99"/>
                    <Node pos="r" depth="7" NCoef="0" IVar="-1" Cut="0.0000000000000000e+00" cType="1" res="1.8725375412032008e-03" rms="4.8669788241386414e-01" purity="5.3730118274688721e-01" nType="-99"/>
                  </Node>
                  <Node pos="r" depth="6" NCoef="0" IVar="3" Cut="7.1660643815994263e-01" cType="1" res="-8.1387199461460114e-03" rms="4.8697420954704285e-01" purity="5.0007528066635132e-01" nType="0">
                    <Node pos="l" depth="7" NCoef="0" IVar="-1" Cut="0.0000000000000000e+00" cType="1" res="-2.6904279366135597e-03" rms="4.8830562829971313e-01" purity="4.4329971075057983e-01" nType="-99"/>
                    <Node pos="r" depth="7" NCoef="0" IVar="-1" Cut="0.0000000000000000e+00" cType="1" res="2.9460950754582882e-03" rms="4.8181170225143433e-01" purity="6.1174058914184570e-01" nType="-99"/>
                  </Node>
                </Node>
                <Node pos="r" depth="5" NCoef="0" IVar="2" Cut="2.5054507446289062e+02" cType="1" res="5.1355343312025070e-02" rms="4.8584607243537903e-01" purity="5.6348454952239990e-01" nType="0">
                  <Node pos="l" depth="6" NCoef="0" IVar="-1" Cut="0.0000000000000000e+00" cType="1" res="5.9097297489643097e-03" rms="4.8078283667564392e-01" purity="5.9609359502792358e-01" nType="-99"/>
                  <Node pos="r" depth="6" NCoef="0" IVar="-1" Cut="0.0000000000000000e+00" cType="1" res="2.8259465470910072e-03" rms="4.8976507782936096e-01" purity="5.3246551752090454e-01" nType="-99"/>
                </Node>
              </Node>
            </Node>
            <Node pos="r" depth="3" NCoef="0" IVar="-1" Cut="0.0000000000000000e+00" cType="1" res="-5.9702405706048012e-03" rms="4.3357092142105103e-01" purity="2.7927908301353455e-01" nType="-99"/>
          </Node>
        </Node>
        <Node pos="r" depth="1" NCoef="0" IVar="3" Cut="1.0594283342361450e+00" cType="1" res="5.6556798517704010e-02" rms="4.2576545476913452e-01" purity="7.3875153064727783e-01" nType="0">
          <Node pos="l" depth="2" NCoef="0" IVar="0" Cut="5.8072727918624878e-01" cType="1" res="5.9525266289710999e-02" rms="4.2482584714889526e-01" purity="7.4226075410842896e-01" nType="0">
            <Node pos="l" depth="3" NCoef="0" IVar="1" Cut="1.0190397500991821e-01" cType="1" res="6.2705464661121368e-02" rms="4.2271468043327332e-01" purity="7.4941635131835938e-01" nType="0">
              <Node pos="l" depth="4" NCoef="0" IVar="3" Cut="8.7455040216445923e-01" cType="1" res="7.5292788445949554e-02" rms="4.0876027941703796e-01" purity="7.7595824003219604e-01" nType="0">
                <Node pos="l" depth="5" NCoef="0" IVar="5" Cut="-2.0407063961029053e+00" cType="1" res="5.7132553309202194e-02" rms="4.4929832220077515e-01" purity="7.0458745956420898e-01" nType="0">
                  <Node pos="l" depth="6" NCoef="0" IVar="2" Cut="1.0689469146728516e+02" cType="1" res="6.6453255712985992e-02" rms="4.3346944451332092e-01" purity="7.4606448411941528e-01" nType="0">
                    <Node pos="l" depth="7" NCoef="0" IVar="-1" Cut="0.0000000000000000e+00" cType="1" res="6.6279154270887375e-03" rms="4.2594227194786072e-01" purity="7.5896018743515015e-01" nType="-99"/>
                    <Node pos="r" depth="7" NCoef="0" IVar="-1" Cut="0.0000000000000000e+00" cType="1" res="4.5726625248789787e-03" rms="4.4675001502037048e-01" purity="7.2183233499526978e-01" nType="-99"/>
                  </Node>
                  <Node pos="r" depth="6" NCoef="0" IVar="6" Cut="4.5883163809776306e-02" cType="1" res="4.2374756187200546e-02" rms="4.7290372848510742e-01" purity="6.3891535997390747e-01" nType="0">
                    <Node pos="l" depth="7" NCoef="0" IVar="-1" Cut="0.0000000000000000e+00" cType="1" res="1.6079782508313656e-03" rms="4.7972819209098816e-01" purity="6.1977159976959229e-01" nType="-99"/>
                    <Node pos="r" depth="7" NCoef="0" IVar="-1" Cut="0.0000000000000000e+00" cType="1" res="5.4974411614239216e-03" rms="4.6487259864807129e-01" purity="6.5771973133087158e-01" nType="-99"/>
                  </Node>
                </Node>
                <Node pos="r" depth="5" NCoef="0" IVar="3" Cut="9.9976211786270142e-01" cType="1" res="8.1881985068321228e-02" rms="3.9281165599822998e-01" purity="8.0185425281524658e-01" nType="0">
                  <Node pos="l" depth="6" NCoef="0" IVar="7" Cut="2.0000000000000000e+00" cType="1" res="7.1616671979427338e-02" rms="3.8769853115081787e-01" purity="7.8965169191360474e-01" nType="0">
                    <Node pos="l" depth="7" NCoef="0" IVar="-1" Cut="0.0000000000000000e+00" cType="1" res="6.7920414730906487e-03" rms="3.9935222268104553e-01" purity="7.9336225986480713e-01" nType="-99"/>
                    <Node pos="r" depth="7" NCoef="0" IVar="-1" Cut="0.0000000000000000e+00" cType="1" res="9.1020604595541954e-03" rms="4.0918883681297302e-01" purity="7.7922445535659790e-01" nType="-99"/>
                  </Node>
                  <Node pos="r" depth="6" NCoef="0" IVar="5" Cut="-2.5125997066497803e+00" cType="1" res="9.4027444720268250e-02" rms="3.7641841173171997e-01" purity="8.2240760326385498e-01" nType="0">
                    <Node pos="l" depth="7" NCoef="0" IVar="-1" Cut="0.0000000000000000e+00" cType="1" res="1.0439201258122921e-02" rms="3.4361889958381653e-01" purity="8.6222064495086670e-01" nType="-99"/>
                    <Node pos="r" depth="7" NCoef="0" IVar="-1" Cut="0.0000000000000000e+00" cType="1" res="6.8718721158802509e-03" rms="4.1800293326377869e-01" purity="7.6576763391494751e-01" nType="-99"/>
                  </Node>
                </Node>
              </Node>
              <Node pos="r" depth="4" NCoef="0" IVar="3" Cut="9.9471503496170044e-01" cType="1" res="4.3914873152971268e-02" rms="4.4206205010414124e-01" purity="7.0979410409927368e-01" nType="0">
                <Node pos="l" depth="5" NCoef="0" IVar="5" Cut="-1.5457618236541748e+00" cType="1" res="2.6652142405509949e-02" rms="4.5924025774002075e-01" purity="6.6824507713317871e-01" nType="0">
                  <Node pos="l" depth="6" NCoef="0" IVar="4" Cut="-2.4409387111663818e+00" cType="1" res="3.7457231432199478e-02" rms="4.5082139968872070e-01" purity="7.0220220088958740e-01" nType="0">
                    <Node pos="l" depth="7" NCoef="0" IVar="-1" Cut="0.0000000000000000e+00" cType="1" res="5.8933096006512642e-03" rms="4.3890810012817383e-01" purity="7.3153358697891235e-01" nType="-99"/>
                    <Node pos="r" depth="7" NCoef="0" IVar="-1" Cut="0.0000000000000000e+00" cType="1" res="2.5528941769152880e-03" rms="4.5441225171089172e-01" purity="6.9229900836944580e-01" nType="-99"/>
                  </Node>
                  <Node pos="r" depth="6" NCoef="0" IVar="-1" Cut="0.0000000000000000e+00" cType="1" res="-1.6991893062368035e-03" rms="4.9073046445846558e-01" purity="5.2414709329605103e-01" nType="-99"/>
                </Node>
                <Node pos="r" depth="5" NCoef="0" IVar="5" Cut="-2.7127385139465332e+00" cType="1" res="6.6483944654464722e-02" rms="4.1746613383293152e-01" purity="7.6411467790603638e-01" nType="0">
                  <Node pos="l" depth="6" NCoef="0" IVar="3" Cut="1.0009797811508179e+00" cType="1" res="8.2993075251579285e-02" rms="3.8957953453063965e-01" purity="8.0987900495529175e-01" nType="0">
                    <Node pos="l" depth="7" NCoef="0" IVar="-1" Cut="0.0000000000000000e+00" cType="1" res="6.1311232857406139e-03" rms="4.0469560027122498e-01" purity="7.8823959827423096e-01" nType="-99"/>
                    <Node pos="r" depth="7" NCoef="0" IVar="-1" Cut="0.0000000000000000e+00" cType="1" res="8.9238025248050690e-03" rms="3.7436878681182861e-01" purity="8.2981461286544800e-01" nType="-99"/>
                  </Node>
                  <Node pos="r" depth="6" NCoef="0" IVar="5" Cut="-1.9425081014633179e+00" cType="1" res="5.1415134221315384e-02" rms="4.4084507226943970e-01" purity="7.2234302759170532e-01" nType="0">
                    <Node pos="l" depth="7" NCoef="0" IVar="-1" Cut="0.0000000000000000e+00" cType="1" res="5.3133359178900719e-03" rms="4.2326515913009644e-01" purity="7.6154541969299316e-01" nType="-99"/>
                    <Node pos="r" depth="7" NCoef="0" IVar="-1" Cut="0.0000000000000000e+00" cType="1" res="3.5056972410529852e-03" rms="4.6433278918266296e-01" purity="6.6701287031173706e-01" nType="-99"/>
                  </Node>
                </Node>
              </Node>
            </Node>
            <Node pos="r" depth="3" NCoef="0" IVar="-1" Cut="0.0000000000000000e+00" cType="1" res="-6.0620666481554508e-03" rms="4.8531669378280640e-01" purity="4.5552104711532593e-01" nType="-99"/>
          </Node>
          <Node pos="r" depth="2" NCoef="0" IVar="-1" Cut="0.0000000000000000e+00" cType="1" res="-6.8122255615890026e-03" rms="4.4605436921119690e-01" purity="5.8849912881851196e-01" nType="-99"/>
        </Node>
      </Node>
    </BinaryTree>
    <BinaryTree type="DecisionTree" boostWeight="1.0000000000000000e+00" itree="39">
      <Node pos="s" depth="0" NCoef="0" IVar="3" Cut="7.7264720201492310e-01" cType="1" res="1.4554434455931187e-02" rms="4.0928864479064941e-01" purity="5.0110864639282227e-01" nType="0">
        <Node pos="l" depth="1" NCoef="0" IVar="3" Cut="6.2313276529312134e-01" cType="1" res="-2.5647712871432304e-02" rms="3.8901323080062866e-01" purity="2.6474171876907349e-01" nType="0">
          <Node pos="l" depth="2" NCoef="0" IVar="1" Cut="1.4958879351615906e-01" cType="1" res="-3.9345353841781616e-02" rms="3.4438055753707886e-01" purity="1.6668356955051422e-01" nType="0">
            <Node pos="l" depth="3" NCoef="0" IVar="3" Cut="4.8252800107002258e-01" cType="1" res="-2.1540923044085503e-02" rms="3.8650110363960266e-01" purity="2.2489099204540253e-01" nType="0">
              <Node pos="l" depth="4" NCoef="0" IVar="6" Cut="2.4782444536685944e-01" cType="1" res="-3.5512894392013550e-02" rms="3.3204594254493713e-01" purity="1.4049062132835388e-01" nType="0">
                <Node pos="l" depth="5" NCoef="0" IVar="2" Cut="2.2592677307128906e+02" cType="1" res="-4.2028546333312988e-02" rms="3.1648182868957520e-01" purity="1.2551733851432800e-01" nType="0">
                  <Node pos="l" depth="6" NCoef="0" IVar="6" Cut="7.2499953210353851e-02" cType="1" res="-1.9522788003087044e-02" rms="3.3459064364433289e-01" purity="1.4463031291961670e-01" nType="0">
                    <Node pos="l" depth="7" NCoef="0" IVar="-1" Cut="0.0000000000000000e+00" cType="1" res="-1.1701829731464386e-02" rms="2.7829593420028687e-01" purity="9.0003967285156250e-02" nType="-99"/>
                    <Node pos="r" depth="7" NCoef="0" IVar="-1" Cut="0.0000000000000000e+00" cType="1" res="6.9610314676538110e-04" rms="3.7084305286407471e-01" purity="1.8710605800151825e-01" nType="-99"/>
                  </Node>
                  <Node pos="r" depth="6" NCoef="0" IVar="6" Cut="1.9401073455810547e-01" cType="1" res="-5.8160215616226196e-02" rms="3.0180543661117554e-01" purity="1.1181753873825073e-01" nType="0">
                    <Node pos="l" depth="7" NCoef="0" IVar="-1" Cut="0.0000000000000000e+00" cType="1" res="-1.4627808704972267e-02" rms="2.7664270997047424e-01" purity="8.9778929948806763e-02" nType="-99"/>
                    <Node pos="r" depth="7" NCoef="0" IVar="-1" Cut="0.0000000000000000e+00" cType="1" res="-4.1396841406822205e-03" rms="3.6449521780014038e-01" purity="1.7728094756603241e-01" nType="-99"/>
                  </Node>
                </Node>
                <Node pos="r" depth="5" NCoef="0" IVar="-1" Cut="0.0000000000000000e+00" cType="1" res="1.4994752127677202e-03" rms="4.2311865091323853e-01" purity="2.4608896672725677e-01" nType="-99"/>
              </Node>
              <Node pos="r" depth="4" NCoef="0" IVar="5" Cut="-6.4217412471771240e-01" cType="1" res="1.2981609907001257e-03" rms="4.6098083257675171e-01" purity="3.6285483837127686e-01" nType="0">
                <Node pos="l" depth="5" NCoef="0" IVar="6" Cut="1.0119827836751938e-01" cType="1" res="1.3237773440778255e-02" rms="4.7879907488822937e-01" purity="4.0411177277565002e-01" nType="0">
                  <Node pos="l" depth="6" NCoef="0" IVar="2" Cut="1.3068763732910156e+02" cType="1" res="-5.9019215404987335e-03" rms="4.6925207972526550e-01" purity="3.6744347214698792e-01" nType="0">
                    <Node pos="l" depth="7" NCoef="0" IVar="-1" Cut="0.0000000000000000e+00" cType="1" res="2.4266142863780260e-03" rms="4.8274251818656921e-01" purity="4.1513851284980774e-01" nType="-99"/>
                    <Node pos="r" depth="7" NCoef="0" IVar="-1" Cut="0.0000000000000000e+00" cType="1" res="-4.7271023504436016e-03" rms="4.4945371150970459e-01" purity="3.0996286869049072e-01" nType="-99"/>
                  </Node>
                  <Node pos="r" depth="6" NCoef="0" IVar="-1" Cut="0.0000000000000000e+00" cType="1" res="3.8156986702233553e-03" rms="4.9167004227638245e-01" purity="4.6050906181335449e-01" nType="-99"/>
                </Node>
                <Node pos="r" depth="5" NCoef="0" IVar="-1" Cut="0.0000000000000000e+00" cType="1" res="-7.6221614144742489e-03" rms="3.6473947763442993e-01" purity="1.7586699128150940e-01" nType="-99"/>
              </Node>
            </Node>
            <Node pos="r" depth="3" NCoef="0" IVar="6" Cut="1.0366338491439819e-01" cType="1" res="-5.2966926246881485e-02" rms="3.0759915709495544e-01" purity="1.2215100973844528e-01" nType="0">
              <Node pos="l" depth="4" NCoef="0" IVar="7" Cut="3.0000000000000000e+00" cType="1" res="0.0000000000000000e+00" rms="0.0000000000000000e+00" purity="1.0143679380416870e-01" nType="0">
                <Node pos="l" depth="5" NCoef="0" IVar="-1" Cut="0.0000000000000000e+00" cType="1" res="-1.7059408128261566e-02" rms="2.9409372806549072e-01" purity="9.7962327301502228e-02" nType="-99"/>
                <Node pos="r" depth="5" NCoef="0" IVar="2" Cut="7.8297790527343750e+01" cType="1" res="-5.9856228530406952e-02" rms="2.8348860144615173e-01" purity="1.0179048031568527e-01" nType="0">
                  <Node pos="l" depth="6" NCoef="0" IVar="6" Cut="4.3666154146194458e-02" cType="1" res="-4.3601091951131821e-02" rms="3.1317105889320374e-01" purity="1.2943437695503235e-01" nType="0">
                    <Node pos="l" depth="7" NCoef="0" IVar="-1" Cut="0.0000000000000000e+00" cType="1" res="-1.2193216010928154e-02" rms="2.8863716125488281e-01" purity="1.0745704174041748e-01" nType="-99"/>
                    <Node pos="r" depth="7" NCoef="0" IVar="-1" Cut="0.0000000000000000e+00" cType="1" res="-3.6672307178378105e-03" rms="3.4328532218933105e-01" purity="1.6034799814224243e-01" nType="-99"/>
                  </Node>
                  <Node pos="r" depth="6" NCoef="0" IVar="4" Cut="-1.3060423135757446e+00" cType="1" res="-6.6017761826515198e-02" rms="2.7113565802574158e-01" purity="9.1312035918235779e-02" nType="0">
                    <Node pos="l" depth="7" NCoef="0" IVar="-1" Cut="0.0000000000000000e+00" cType="1" res="-9.0800356119871140e-03" rms="3.3445686101913452e-01" purity="1.4520527422428131e-01" nType="-99"/>
                    <Node pos="r" depth="7" NCoef="0" IVar="-1" Cut="0.0000000000000000e+00" cType="1" res="-1.5385830774903297e-02" rms="2.5602784752845764e-01" purity="8.0200247466564178e-02" nType="-99"/>
                  </Node>
                </Node>
              </Node>
              <Node pos="r" depth="4" NCoef="0" IVar="3" Cut="3.8196235895156860e-01" cType="1" res="-4.1007224470376968e-02" rms="3.3244484663009644e-01" purity="1.4679600298404694e-01" nType="0">
                <Node pos="l" depth="5" NCoef="0" IVar="7" Cut="5.0000000000000000e+00" cType="1" res="7.9560525715351105e-02" rms="3.1942072510719299e-01" purity="9.0141654014587402e-02" nType="0">
                  <Node pos="l" depth="6" NCoef="0" IVar="-1" Cut="0.0000000000000000e+00" cType="1" res="-5.0151282921433449e-03" rms="3.3738780021667480e-01" purity="1.4337562024593353e-01" nType="-99"/>
                  <Node pos="r" depth="6" NCoef="0" IVar="3" Cut="2.9567053914070129e-01" cType="1" res="-5.9710673987865448e-02" rms="2.5295373797416687e-01" purity="7.1813367307186127e-02" nType="0">
                    <Node pos="l" depth="7" NCoef="0" IVar="-1" Cut="0.0000000000000000e+00" cType="1" res="-1.7197500914335251e-02" rms="2.4226947128772736e-01" purity="6.5364174544811249e-02" nType="-99"/>
                    <Node pos="r" depth="7" NCoef="0" IVar="-1" Cut="0.0000000000000000e+00" cType="1" res="-1.0750458575785160e-02" rms="2.7970805764198303e-01" purity="8.9587196707725525e-02" nType="-99"/>
                  </Node>
                </Node>
                <Node pos="r" depth="5" NCoef="0" IVar="0" Cut="5.7583469152450562e-01" cType="1" res="-2.4627069011330605e-02" rms="4.0784016251564026e-01" purity="2.4180972576141357e-01" nType="0">
                  <Node pos="l" depth="6" NCoef="0" IVar="-1" Cut="0.0000000000000000e+00" cType="1" res="-8.9202309027314186e-04" rms="4.4534629583358765e-01" purity="3.0651876330375671e-01" nType="-99"/>
                  <Node pos="r" depth="6" NCoef="0" IVar="-1" Cut="0.0000000000000000e+00" cType="1" res="-7.9215504229068756e-03" rms="3.4980523586273193e-01" purity="1.5467797219753265e-01" nType="-99"/>
                </Node>
              </Node>
            </Node>
          </Node>
          <Node pos="r" depth="2" NCoef="0" IVar="4" Cut="9.9802076816558838e-01" cType="1" res="9.0358369052410126e-03" rms="4.8222061991691589e-01" purity="5.1303297281265259e-01" nType="0">
            <Node pos="l" depth="3" NCoef="0" IVar="1" Cut="3.6713078618049622e-01" cType="1" res="1.6190683469176292e-02" rms="4.8581394553184509e-01" purity="5.3478491306304932e-01" nType="0">
              <Node pos="l" depth="4" NCoef="0" IVar="7" Cut="3.0000000000000000e+00" cType="1" res="2.8687642887234688e-02" rms="4.8560103774070740e-01" purity="5.6394785642623901e-01" nType="0">
                <Node pos="l" depth="5" NCoef="0" IVar="3" Cut="7.2442495822906494e-01" cType="1" res="6.7991744726896286e-03" rms="4.8983821272850037e-01" purity="5.2767288684844971e-01" nType="0">
                  <Node pos="l" depth="6" NCoef="0" IVar="-1" Cut="0.0000000000000000e+00" cType="1" res="-1.3187527656555176e-03" rms="4.9094650149345398e-01" purity="4.6524709463119507e-01" nType="-99"/>
                  <Node pos="r" depth="6" NCoef="0" IVar="-1" Cut="0.0000000000000000e+00" cType="1" res="2.3241122253239155e-03" rms="4.8776963353157043e-01" purity="5.8953326940536499e-01" nType="-99"/>
                </Node>
                <Node pos="r" depth="5" NCoef="0" IVar="3" Cut="7.1476066112518311e-01" cType="1" res="3.9724428206682205e-02" rms="4.8328533768653870e-01" purity="5.8263182640075684e-01" nType="0">
                  <Node pos="l" depth="6" NCoef="0" IVar="2" Cut="1.8014537048339844e+02" cType="1" res="2.6382083073258400e-02" rms="4.9076259136199951e-01" purity="5.3933560848236084e-01" nType="0">
                    <Node pos="l" depth="7" NCoef="0" IVar="-1" Cut="0.0000000000000000e+00" cType="1" res="3.2405084930360317e-03" rms="4.8872482776641846e-01" purity="5.5681324005126953e-01" nType="-99"/>
                    <Node pos="r" depth="7" NCoef="0" IVar="-1" Cut="0.0000000000000000e+00" cType="1" res="5.5365503067150712e-04" rms="4.9353408813476562e-01" purity="5.0971716642379761e-01" nType="-99"/>
                  </Node>
                  <Node pos="r" depth="6" NCoef="0" IVar="5" Cut="-2.2816543579101562e+00" cType="1" res="6.2619201838970184e-02" rms="4.6929466724395752e-01" purity="6.5692597627639771e-01" nType="0">
                    <Node pos="l" depth="7" NCoef="0" IVar="-1" Cut="0.0000000000000000e+00" cType="1" res="6.7252251319587231e-03" rms="4.5936474204063416e-01" purity="6.9370889663696289e-01" nType="-99"/>
                    <Node pos="r" depth="7" NCoef="0" IVar="-1" Cut="0.0000000000000000e+00" cType="1" res="4.3260860256850719e-03" rms="4.7836390137672424e-01" purity="6.2113410234451294e-01" nType="-99"/>
                  </Node>
                </Node>
              </Node>
              <Node pos="r" depth="4" NCoef="0" IVar="0" Cut="3.1588450074195862e-01" cType="1" res="-2.5005219504237175e-02" rms="4.8367464542388916e-01" purity="4.3743035197257996e-01" nType="0">
                <Node pos="l" depth="5" NCoef="0" IVar="-1" Cut="0.0000000000000000e+00" cType="1" res="-3.6370198358781636e-05" rms="4.9392685294151306e-01" purity="5.0296604633331299e-01" nType="-99"/>
                <Node pos="r" depth="5" NCoef="0" IVar="-1" Cut="0.0000000000000000e+00" cType="1" res="-5.7809390127658844e-03" rms="4.6625351905822754e-01" purity="3.4309017658233643e-01" nType="-99"/>
              </Node>
            </Node>
            <Node pos="r" depth="3" NCoef="0" IVar="-1" Cut="0.0000000000000000e+00" cType="1" res="-7.4386992491781712e-03" rms="4.3304333090782166e-01" purity="2.7380993962287903e-01" nType="-99"/>
          </Node>
        </Node>
        <Node pos="r" depth="1" NCoef="0" IVar="3" Cut="1.0592179298400879e+00" cType="1" res="5.5124346166849136e-02" rms="4.2494031786918640e-01" purity="7.3963779211044312e-01" nType="0">
          <Node pos="l" depth="2" NCoef="0" IVar="0" Cut="6.1459434032440186e-01" cType="1" res="5.8072444051504135e-02" rms="4.2409273982048035e-01" purity="7.4328714609146118e-01" nType="0">
            <Node pos="l" depth="3" NCoef="0" IVar="1" Cut="1.0190397500991821e-01" cType="1" res="6.1043150722980499e-02" rms="4.2212358117103577e-01" purity="7.5010299682617188e-01" nType="0">
              <Node pos="l" depth="4" NCoef="0" IVar="5" Cut="-3.0267171859741211e+00" cType="1" res="7.3739185929298401e-02" rms="4.0804594755172729e-01" purity="7.7677369117736816e-01" nType="0">
                <Node pos="l" depth="5" NCoef="0" IVar="3" Cut="1.0038357973098755e+00" cType="1" res="9.7528472542762756e-02" rms="3.5520297288894653e-01" purity="8.4887284040451050e-01" nType="0">
                  <Node pos="l" depth="6" NCoef="0" IVar="4" Cut="-1.4639989137649536e+00" cType="1" res="9.3646578490734100e-02" rms="3.6345732212066650e-01" purity="8.4002912044525146e-01" nType="0">
                    <Node pos="l" depth="7" NCoef="0" IVar="-1" Cut="0.0000000000000000e+00" cType="1" res="7.9354308545589447e-03" rms="3.9790177345275879e-01" purity="7.9846370220184326e-01" nType="-99"/>
                    <Node pos="r" depth="7" NCoef="0" IVar="-1" Cut="0.0000000000000000e+00" cType="1" res="1.0305856354534626e-02" rms="3.4825065732002258e-01" purity="8.5711491107940674e-01" nType="-99"/>
                  </Node>
                  <Node pos="r" depth="6" NCoef="0" IVar="-1" Cut="0.0000000000000000e+00" cType="1" res="1.1148322373628616e-02" rms="3.2695916295051575e-01" purity="8.7729239463806152e-01" nType="-99"/>
                </Node>
                <Node pos="r" depth="5" NCoef="0" IVar="5" Cut="-2.1187677383422852e+00" cType="1" res="6.7614287137985229e-02" rms="4.2035987973213196e-01" purity="7.5821071863174438e-01" nType="0">
                  <Node pos="l" depth="6" NCoef="0" IVar="4" Cut="-5.3565853834152222e-01" cType="1" res="7.5335256755352020e-02" rms="3.9723041653633118e-01" purity="8.0019080638885498e-01" nType="0">
                    <Node pos="l" depth="7" NCoef="0" IVar="-1" Cut="0.0000000000000000e+00" cType="1" res="6.2606446444988251e-03" rms="4.1099244356155396e-01" purity="7.8174436092376709e-01" nType="-99"/>
                    <Node pos="r" depth="7" NCoef="0" IVar="-1" Cut="0.0000000000000000e+00" cType="1" res="9.3114804476499557e-03" rms="3.6969503760337830e-01" purity="8.3460742235183716e-01" nType="-99"/>
                  </Node>
                  <Node pos="r" depth="6" NCoef="0" IVar="5" Cut="-7.5196415185928345e-01" cType="1" res="5.5835559964179993e-02" rms="4.5312419533729553e-01" purity="6.9416785240173340e-01" nType="0">
                    <Node pos="l" depth="7" NCoef="0" IVar="-1" Cut="0.0000000000000000e+00" cType="1" res="5.4262527264654636e-03" rms="4.4356203079223633e-01" purity="7.2497111558914185e-01" nType="-99"/>
                    <Node pos="r" depth="7" NCoef="0" IVar="-1" Cut="0.0000000000000000e+00" cType="1" res="3.1039007008075714e-03" rms="4.9149972200393677e-01" purity="5.6216537952423096e-01" nType="-99"/>
                  </Node>
                </Node>
              </Node>
              <Node pos="r" depth="4" NCoef="0" IVar="3" Cut="8.6501699686050415e-01" cType="1" res="4.2095214128494263e-02" rms="4.4162258505821228e-01" purity="7.1029889583587646e-01" nType="0">
                <Node pos="l" depth="5" NCoef="0" IVar="0" Cut="1.9818739965558052e-02" cType="1" res="7.0975362323224545e-03" rms="4.7900426387786865e-01" purity="6.0790175199508667e-01" nType="0">
                  <Node pos="l" depth="6" NCoef="0" IVar="6" Cut="4.0339559316635132e-02" cType="1" res="1.7404226586222649e-02" rms="4.7608229517936707e-01" purity="6.3207328319549561e-01" nType="0">
                    <Node pos="l" depth="7" NCoef="0" IVar="-1" Cut="0.0000000000000000e+00" cType="1" res="1.7777472385205328e-04" rms="4.7605749964714050e-01" purity="6.2937170267105103e-01" nType="-99"/>
                    <Node pos="r" depth="7" NCoef="0" IVar="-1" Cut="0.0000000000000000e+00" cType="1" res="2.3107116576284170e-03" rms="4.7580292820930481e-01" purity="6.3397878408432007e-01" nType="-99"/>
                  </Node>
                  <Node pos="r" depth="6" NCoef="0" IVar="-1" Cut="0.0000000000000000e+00" cType="1" res="-2.5106924585998058e-03" rms="4.8704582452774048e-01" purity="5.2732241153717041e-01" nType="-99"/>
                </Node>
                <Node pos="r" depth="5" NCoef="0" IVar="3" Cut="9.9642556905746460e-01" cType="1" res="5.3429659456014633e-02" rms="4.2820525169372559e-01" purity="7.4346143007278442e-01" nType="0">
                  <Node pos="l" depth="6" NCoef="0" IVar="5" Cut="-1.8918492794036865e+00" cType="1" res="4.0676921606063843e-02" rms="4.3911495804786682e-01" purity="7.2045838832855225e-01" nType="0">
                    <Node pos="l" depth="7" NCoef="0" IVar="-1" Cut="0.0000000000000000e+00" cType="1" res="4.6700448729097843e-03" rms="4.2703568935394287e-01" purity="7.5259655714035034e-01" nType="-99"/>
                    <Node pos="r" depth="7" NCoef="0" IVar="-1" Cut="0.0000000000000000e+00" cType="1" res="1.3435856672003865e-03" rms="4.7599798440933228e-01" purity="6.1410236358642578e-01" nType="-99"/>
                  </Node>
                  <Node pos="r" depth="6" NCoef="0" IVar="3" Cut="1.0004642009735107e+00" cType="1" res="6.5005742013454437e-02" rms="4.1771876811981201e-01" purity="7.6434212923049927e-01" nType="0">
                    <Node pos="l" depth="7" NCoef="0" IVar="-1" Cut="0.0000000000000000e+00" cType="1" res="4.3679536320269108e-03" rms="4.3044698238372803e-01" purity="7.4457466602325439e-01" nType="-99"/>
                    <Node pos="r" depth="7" NCoef="0" IVar="-1" Cut="0.0000000000000000e+00" cType="1" res="6.6759986802935600e-03" rms="4.0924620628356934e-01" purity="7.7667027711868286e-01" nType="-99"/>
                  </Node>
                </Node>
              </Node>
            </Node>
            <Node pos="r" depth="3" NCoef="0" IVar="-1" Cut="0.0000000000000000e+00" cType="1" res="-6.4149843528866768e-03" rms="4.8562154173851013e-01" purity="4.4239166378974915e-01" nType="-99"/>
          </Node>
          <Node pos="r" depth="2" NCoef="0" IVar="-1" Cut="0.0000000000000000e+00" cType="1" res="-6.6967508755624294e-03" rms="4.4169732928276062e-01" purity="5.8544170856475830e-01" nType="-99"/>
        </Node>
      </Node>
    </BinaryTree>
    <BinaryTree type="DecisionTree" boostWeight="1.0000000000000000e+00" itree="40">
      <Node pos="s" depth="0" NCoef="0" IVar="3" Cut="7.7157270908355713e-01" cType="1" res="1.3319880701601505e-02" rms="4.1030693054199219e-01" purity="5.0010132789611816e-01" nType="0">
        <Node pos="l" depth="1" NCoef="0" IVar="3" Cut="5.4777646064758301e-01" cType="1" res="-2.4284956976771355e-02" rms="3.8971328735351562e-01" purity="2.6452639698982239e-01" nType="0">
          <Node pos="l" depth="2" NCoef="0" IVar="6" Cut="2.3024281859397888e-01" cType="1" res="-4.0003024041652679e-02" rms="3.1650683283805847e-01" purity="1.2974905967712402e-01" nType="0">
            <Node pos="l" depth="3" NCoef="0" IVar="3" Cut="3.7131312489509583e-01" cType="1" res="-4.3327435851097107e-02" rms="3.0649933218955994e-01" purity="1.2131630629301071e-01" nType="0">
              <Node pos="l" depth="4" NCoef="0" IVar="7" Cut="4.0000000000000000e+00" cType="1" res="0.0000000000000000e+00" rms="0.0000000000000000e+00" purity="5.9718217700719833e-02" nType="0">
                <Node pos="l" depth="5" NCoef="0" IVar="-1" Cut="0.0000000000000000e+00" cType="1" res="-4.3406407348811626e-03" rms="3.2783183455467224e-01" purity="1.3002653419971466e-01" nType="-99"/>
                <Node pos="r" depth="5" NCoef="0" IVar="3" Cut="3.1153649091720581e-01" cType="1" res="-5.9563506394624710e-02" rms="2.1465374529361725e-01" purity="5.0623476505279541e-02" nType="0">
                  <Node pos="l" depth="6" NCoef="0" IVar="7" Cut="9.0000000000000000e+00" cType="1" res="-6.4787417650222778e-02" rms="1.9403374195098877e-01" purity="4.0447074919939041e-02" nType="0">
                    <Node pos="l" depth="7" NCoef="0" IVar="-1" Cut="0.0000000000000000e+00" cType="1" res="-2.0034678280353546e-02" rms="2.0024566352367401e-01" purity="4.3223354965448380e-02" nType="-99"/>
                    <Node pos="r" depth="7" NCoef="0" IVar="-1" Cut="0.0000000000000000e+00" cType="1" res="-2.3523602634668350e-02" rms="1.6612409055233002e-01" purity="2.9164468869566917e-02" nType="-99"/>
                  </Node>
                  <Node pos="r" depth="6" NCoef="0" IVar="5" Cut="-1.5528256893157959e+00" cType="1" res="-4.7208406031131744e-02" rms="2.5646719336509705e-01" purity="7.4674375355243683e-02" nType="0">
                    <Node pos="l" depth="7" NCoef="0" IVar="-1" Cut="0.0000000000000000e+00" cType="1" res="-8.0380281433463097e-03" rms="3.0201190710067749e-01" purity="1.0560059547424316e-01" nType="-99"/>
                    <Node pos="r" depth="7" NCoef="0" IVar="-1" Cut="0.0000000000000000e+00" cType="1" res="-1.8557360395789146e-02" rms="1.9564537703990936e-01" purity="4.1660483926534653e-02" nType="-99"/>
                  </Node>
                </Node>
              </Node>
              <Node pos="r" depth="4" NCoef="0" IVar="0" Cut="7.0797586441040039e-01" cType="1" res="-3.0964074656367302e-02" rms="3.6980301141738892e-01" purity="1.8660660088062286e-01" nType="0">
                <Node pos="l" depth="5" NCoef="0" IVar="2" Cut="2.1327737426757812e+02" cType="1" res="-1.0149527341127396e-02" rms="4.2481839656829834e-01" purity="2.6763996481895447e-01" nType="0">
                  <Node pos="l" depth="6" NCoef="0" IVar="6" Cut="9.6770234405994415e-02" cType="1" res="1.3924858532845974e-02" rms="4.4220712780952454e-01" purity="3.0351459980010986e-01" nType="0">
                    <Node pos="l" depth="7" NCoef="0" IVar="-1" Cut="0.0000000000000000e+00" cType="1" res="-1.6221849946305156e-03" rms="4.2444455623626709e-01" purity="2.5899651646614075e-01" nType="-99"/>
                    <Node pos="r" depth="7" NCoef="0" IVar="-1" Cut="0.0000000000000000e+00" cType="1" res="4.9675405025482178e-03" rms="4.6055367588996887e-01" purity="3.5694137215614319e-01" nType="-99"/>
                  </Node>
                  <Node pos="r" depth="6" NCoef="0" IVar="6" Cut="1.5633234381675720e-01" cType="1" res="-2.8282614424824715e-02" rms="4.1030424833297729e-01" purity="2.4061882495880127e-01" nType="0">
                    <Node pos="l" depth="7" NCoef="0" IVar="-1" Cut="0.0000000000000000e+00" cType="1" res="-6.3886395655572414e-03" rms="3.9657345414161682e-01" purity="2.1547892689704895e-01" nType="-99"/>
                    <Node pos="r" depth="7" NCoef="0" IVar="-1" Cut="0.0000000000000000e+00" cType="1" res="7.8182565630413592e-05" rms="4.2773666977882385e-01" purity="2.7697461843490601e-01" nType="-99"/>
                  </Node>
                </Node>
                <Node pos="r" depth="5" NCoef="0" IVar="7" Cut="4.0000000000000000e+00" cType="1" res="-4.7173220664262772e-02" rms="3.1790366768836975e-01" purity="1.2182097882032394e-01" nType="0">
                  <Node pos="l" depth="6" NCoef="0" IVar="6" Cut="7.3822677135467529e-02" cType="1" res="-6.8228319287300110e-02" rms="3.1104102730751038e-01" purity="1.1622745543718338e-01" nType="0">
                    <Node pos="l" depth="7" NCoef="0" IVar="-1" Cut="0.0000000000000000e+00" cType="1" res="-1.6024753451347351e-02" rms="2.7734714746475220e-01" purity="8.8988326489925385e-02" nType="-99"/>
                    <Node pos="r" depth="7" NCoef="0" IVar="-1" Cut="0.0000000000000000e+00" cType="1" res="-1.0264935903251171e-02" rms="3.3421841263771057e-01" purity="1.3712906837463379e-01" nType="-99"/>
                  </Node>
                  <Node pos="r" depth="6" NCoef="0" IVar="5" Cut="-1.6406629085540771e+00" cType="1" res="-3.5037226974964142e-02" rms="3.2165920734405518e-01" purity="1.2522974610328674e-01" nType="0">
                    <Node pos="l" depth="7" NCoef="0" IVar="-1" Cut="0.0000000000000000e+00" cType="1" res="-3.3133379183709621e-03" rms="3.6236223578453064e-01" purity="1.6361677646636963e-01" nType="-99"/>
                    <Node pos="r" depth="7" NCoef="0" IVar="-1" Cut="0.0000000000000000e+00" cType="1" res="-1.3272873125970364e-02" rms="2.5633558630943298e-01" purity="7.4236944317817688e-02" nType="-99"/>
                  </Node>
                </Node>
              </Node>
            </Node>
            <Node pos="r" depth="3" NCoef="0" IVar="7" Cut="8.0000000000000000e+00" cType="1" res="-9.0417414903640747e-03" rms="3.9646059274673462e-01" purity="2.0828579366207123e-01" nType="0">
              <Node pos="l" depth="4" NCoef="0" IVar="-1" Cut="0.0000000000000000e+00" cType="1" res="6.1892489611636847e-05" rms="4.1028591990470886e-01" purity="2.3216749727725983e-01" nType="-99"/>
              <Node pos="r" depth="4" NCoef="0" IVar="-1" Cut="0.0000000000000000e+00" cType="1" res="-4.7370959073305130e-03" rms="3.6872100830078125e-01" purity="1.6385672986507416e-01" nType="-99"/>
            </Node>
          </Node>
          <Node pos="r" depth="2" NCoef="0" IVar="1" Cut="4.8374661803245544e-01" cType="1" res="-1.2267291313037276e-03" rms="4.7626194357872009e-01" purity="4.6224319934844971e-01" nType="0">
            <Node pos="l" depth="3" NCoef="0" IVar="5" Cut="-3.1751357018947601e-02" cType="1" res="1.0778849013149738e-02" rms="4.7993242740631104e-01" purity="4.9061861634254456e-01" nType="0">
              <Node pos="l" depth="4" NCoef="0" IVar="7" Cut="3.0000000000000000e+00" cType="1" res="1.6287699341773987e-02" rms="4.8523727059364319e-01" purity="5.1132917404174805e-01" nType="0">
                <Node pos="l" depth="5" NCoef="0" IVar="3" Cut="6.6328769922256470e-01" cType="1" res="-5.2723744884133339e-03" rms="4.8595654964447021e-01" purity="4.8891890048980713e-01" nType="0">
                  <Node pos="l" depth="6" NCoef="0" IVar="-1" Cut="0.0000000000000000e+00" cType="1" res="-3.9055109955370426e-03" rms="4.6759068965911865e-01" purity="3.5342311859130859e-01" nType="-99"/>
                  <Node pos="r" depth="6" NCoef="0" IVar="3" Cut="7.3664295673370361e-01" cType="1" res="8.1374756991863251e-03" rms="4.9194738268852234e-01" purity="5.3937351703643799e-01" nType="0">
                    <Node pos="l" depth="7" NCoef="0" IVar="-1" Cut="0.0000000000000000e+00" cType="1" res="-4.7725561671541072e-06" rms="4.9430754780769348e-01" purity="5.0692582130432129e-01" nType="-99"/>
                    <Node pos="r" depth="7" NCoef="0" IVar="-1" Cut="0.0000000000000000e+00" cType="1" res="1.4841917436569929e-03" rms="4.8886626958847046e-01" purity="5.7896417379379272e-01" nType="-99"/>
                  </Node>
                </Node>
                <Node pos="r" depth="5" NCoef="0" IVar="5" Cut="-1.9663797616958618e+00" cType="1" res="2.4520071223378181e-02" rms="4.8496830463409424e-01" purity="5.2001857757568359e-01" nType="0">
                  <Node pos="l" depth="6" NCoef="0" IVar="3" Cut="7.1379208564758301e-01" cType="1" res="3.8139484822750092e-02" rms="4.8351502418518066e-01" purity="5.5406057834625244e-01" nType="0">
                    <Node pos="l" depth="7" NCoef="0" IVar="-1" Cut="0.0000000000000000e+00" cType="1" res="2.5423325132578611e-03" rms="4.9013993144035339e-01" purity="5.1052486896514893e-01" nType="-99"/>
                    <Node pos="r" depth="7" NCoef="0" IVar="-1" Cut="0.0000000000000000e+00" cType="1" res="5.7788547128438950e-03" rms="4.6267583966255188e-01" purity="6.8058598041534424e-01" nType="-99"/>
                  </Node>
                  <Node pos="r" depth="6" NCoef="0" IVar="6" Cut="9.6425123512744904e-02" cType="1" res="4.1320794261991978e-03" rms="4.8642352223396301e-01" purity="4.6905830502510071e-01" nType="0">
                    <Node pos="l" depth="7" NCoef="0" IVar="-1" Cut="0.0000000000000000e+00" cType="1" res="-7.1050768019631505e-04" rms="4.8455768823623657e-01" purity="4.6136587858200073e-01" nType="-99"/>
                    <Node pos="r" depth="7" NCoef="0" IVar="-1" Cut="0.0000000000000000e+00" cType="1" res="3.3461120910942554e-03" rms="4.9004551768302917e-01" purity="4.9039936065673828e-01" nType="-99"/>
                  </Node>
                </Node>
              </Node>
              <Node pos="r" depth="4" NCoef="0" IVar="-1" Cut="0.0000000000000000e+00" cType="1" res="-8.3197783678770065e-03" rms="3.8709515333175659e-01" purity="2.0051200687885284e-01" nType="-99"/>
            </Node>
            <Node pos="r" depth="3" NCoef="0" IVar="7" Cut="3.0000000000000000e+00" cType="1" res="-5.2493184804916382e-02" rms="4.5477402210235596e-01" purity="3.3792927861213684e-01" nType="0">
              <Node pos="l" depth="4" NCoef="0" IVar="-1" Cut="0.0000000000000000e+00" cType="1" res="-8.2461638376116753e-03" rms="4.4467628002166748e-01" purity="3.0352371931076050e-01" nType="-99"/>
              <Node pos="r" depth="4" NCoef="0" IVar="5" Cut="-2.2741942405700684e+00" cType="1" res="-3.8480531424283981e-02" rms="4.6160733699798584e-01" purity="3.5691547393798828e-01" nType="0">
                <Node pos="l" depth="5" NCoef="0" IVar="-1" Cut="0.0000000000000000e+00" cType="1" res="-1.1348893167451024e-03" rms="4.7665399312973022e-01" purity="4.0639007091522217e-01" nType="-99"/>
                <Node pos="r" depth="5" NCoef="0" IVar="-1" Cut="0.0000000000000000e+00" cType="1" res="-6.0542649589478970e-03" rms="4.4830441474914551e-01" purity="3.1799718737602234e-01" nType="-99"/>
              </Node>
            </Node>
          </Node>
        </Node>
        <Node pos="r" depth="1" NCoef="0" IVar="3" Cut="1.0575314760208130e+00" cType="1" res="5.1191974431276321e-02" rms="4.2671504616737366e-01" purity="7.3735040426254272e-01" nType="0">
          <Node pos="l" depth="2" NCoef="0" IVar="0" Cut="5.8072727918624878e-01" cType="1" res="5.3846269845962524e-02" rms="4.2596259713172913e-01" purity="7.4084633588790894e-01" nType="0">
            <Node pos="l" depth="3" NCoef="0" IVar="1" Cut="1.0935702323913574e+00" cType="1" res="5.6744992733001709e-02" rms="4.2395716905593872e-01" purity="7.4786025285720825e-01" nType="0">
              <Node pos="l" depth="4" NCoef="0" IVar="3" Cut="8.7304753065109253e-01" cType="1" res="6.0235664248466492e-02" rms="4.2099967598915100e-01" purity="7.5458633899688721e-01" nType="0">
                <Node pos="l" depth="5" NCoef="0" IVar="1" Cut="2.4118448793888092e-01" cType="1" res="4.1122581809759140e-02" rms="4.5986050367355347e-01" purity="6.7699801921844482e-01" nType="0">
                  <Node pos="l" depth="6" NCoef="0" IVar="5" Cut="-2.1217980384826660e+00" cType="1" res="4.7881126403808594e-02" rms="4.5352876186370850e-01" purity="6.9506835937500000e-01" nType="0">
                    <Node pos="l" depth="7" NCoef="0" IVar="-1" Cut="0.0000000000000000e+00" cType="1" res="5.0152782350778580e-03" rms="4.3852812051773071e-01" purity="7.3680657148361206e-01" nType="-99"/>
                    <Node pos="r" depth="7" NCoef="0" IVar="-1" Cut="0.0000000000000000e+00" cType="1" res="3.2284602057188749e-03" rms="4.7293069958686829e-01" purity="6.3842660188674927e-01" nType="-99"/>
                  </Node>
                  <Node pos="r" depth="6" NCoef="0" IVar="6" Cut="3.9905097335577011e-02" cType="1" res="2.0800681784749031e-02" rms="4.7781902551651001e-01" purity="6.2266355752944946e-01" nType="0">
                    <Node pos="l" depth="7" NCoef="0" IVar="-1" Cut="0.0000000000000000e+00" cType="1" res="3.2809450203785673e-05" rms="4.7980800271034241e-01" purity="6.1301755905151367e-01" nType="-99"/>
                    <Node pos="r" depth="7" NCoef="0" IVar="-1" Cut="0.0000000000000000e+00" cType="1" res="2.9968889430165291e-03" rms="4.7568172216415405e-01" purity="6.3010150194168091e-01" nType="-99"/>
                  </Node>
                </Node>
                <Node pos="r" depth="5" NCoef="0" IVar="5" Cut="-1.8539657592773438e+00" cType="1" res="6.7202560603618622e-02" rms="4.0568649768829346e-01" purity="7.8286796808242798e-01" nType="0">
                  <Node pos="l" depth="6" NCoef="0" IVar="0" Cut="2.0572242140769958e-01" cType="1" res="7.2027549147605896e-02" rms="3.9042049646377563e-01" purity="8.0916249752044678e-01" nType="0">
                    <Node pos="l" depth="7" NCoef="0" IVar="-1" Cut="0.0000000000000000e+00" cType="1" res="7.3364796116948128e-03" rms="3.8760724663734436e-01" purity="8.1310397386550903e-01" nType="-99"/>
                    <Node pos="r" depth="7" NCoef="0" IVar="-1" Cut="0.0000000000000000e+00" cType="1" res="2.7098003774881363e-03" rms="4.4348162412643433e-01" purity="7.2591680288314819e-01" nType="-99"/>
                  </Node>
                  <Node pos="r" depth="6" NCoef="0" IVar="3" Cut="9.9206328392028809e-01" cType="1" res="4.8214249312877655e-02" rms="4.6038883924484253e-01" purity="6.7938828468322754e-01" nType="0">
                    <Node pos="l" depth="7" NCoef="0" IVar="-1" Cut="0.0000000000000000e+00" cType="1" res="2.6333255227655172e-03" rms="4.7330340743064880e-01" purity="6.4560890197753906e-01" nType="-99"/>
                    <Node pos="r" depth="7" NCoef="0" IVar="-1" Cut="0.0000000000000000e+00" cType="1" res="5.3739319555461407e-03" rms="4.5011565089225769e-01" purity="7.0426255464553833e-01" nType="-99"/>
                  </Node>
                </Node>
              </Node>
              <Node pos="r" depth="4" NCoef="0" IVar="-1" Cut="0.0000000000000000e+00" cType="1" res="-1.5721574891358614e-03" rms="4.7703573107719421e-01" purity="6.0328310728073120e-01" nType="-99"/>
            </Node>
            <Node pos="r" depth="3" NCoef="0" IVar="-1" Cut="0.0000000000000000e+00" cType="1" res="-5.6367209181189537e-03" rms="4.8642212152481079e-01" purity="4.5501515269279480e-01" nType="-99"/>
          </Node>
          <Node pos="r" depth="2" NCoef="0" IVar="-1" Cut="0.0000000000000000e+00" cType="1" res="-5.4601398296654224e-03" rms="4.4301384687423706e-01" purity="5.9391075372695923e-01" nType="-99"/>
        </Node>
      </Node>
    </BinaryTree>
    <BinaryTree type="DecisionTree" boostWeight="1.0000000000000000e+00" itree="41">
      <Node pos="s" depth="0" NCoef="0" IVar="3" Cut="7.7137583494186401e-01" cType="1" res="1.3484710827469826e-02" rms="4.0980878472328186e-01" purity="4.9997246265411377e-01" nType="0">
        <Node pos="l" depth="1" NCoef="0" IVar="3" Cut="5.7243353128433228e-01" cType="1" res="-2.1474195644259453e-02" rms="3.8914343714714050e-01" purity="2.6541820168495178e-01" nType="0">
          <Node pos="l" depth="2" NCoef="0" IVar="5" Cut="-1.3629549741744995e+00" cType="1" res="-3.6660663783550262e-02" rms="3.2621377706527710e-01" purity="1.4093145728111267e-01" nType="0">
            <Node pos="l" depth="3" NCoef="0" IVar="1" Cut="7.5091958045959473e-01" cType="1" res="-2.7161480858922005e-02" rms="3.6268121004104614e-01" purity="1.8072569370269775e-01" nType="0">
              <Node pos="l" depth="4" NCoef="0" IVar="3" Cut="4.8026046156883240e-01" cType="1" res="-1.8735283985733986e-02" rms="3.8442915678024292e-01" purity="2.0880024135112762e-01" nType="0">
                <Node pos="l" depth="5" NCoef="0" IVar="6" Cut="1.0775002837181091e-01" cType="1" res="-2.7532970532774925e-02" rms="3.4610423445701599e-01" purity="1.5352711081504822e-01" nType="0">
                  <Node pos="l" depth="6" NCoef="0" IVar="2" Cut="8.0521224975585938e+01" cType="1" res="-4.2211845517158508e-02" rms="2.9001408815383911e-01" purity="9.7187615931034088e-02" nType="0">
                    <Node pos="l" depth="7" NCoef="0" IVar="-1" Cut="0.0000000000000000e+00" cType="1" res="-2.9221768490970135e-03" rms="3.3440160751342773e-01" purity="1.3487966358661652e-01" nType="-99"/>
                    <Node pos="r" depth="7" NCoef="0" IVar="-1" Cut="0.0000000000000000e+00" cType="1" res="-1.2098574079573154e-02" rms="2.7420848608016968e-01" purity="8.5520438849925995e-02" nType="-99"/>
                  </Node>
                  <Node pos="r" depth="6" NCoef="0" IVar="2" Cut="2.3120263671875000e+02" cType="1" res="-1.5822887420654297e-02" rms="3.8463339209556580e-01" purity="1.9847197830677032e-01" nType="0">
                    <Node pos="l" depth="7" NCoef="0" IVar="-1" Cut="0.0000000000000000e+00" cType="1" res="1.9696401432156563e-03" rms="3.9962613582611084e-01" purity="2.2937282919883728e-01" nType="-99"/>
                    <Node pos="r" depth="7" NCoef="0" IVar="-1" Cut="0.0000000000000000e+00" cType="1" res="-3.9061701390892267e-03" rms="3.7970593571662903e-01" purity="1.8940427899360657e-01" nType="-99"/>
                  </Node>
                </Node>
                <Node pos="r" depth="5" NCoef="0" IVar="7" Cut="4.0000000000000000e+00" cType="1" res="2.4949794169515371e-03" rms="4.6266528964042664e-01" purity="3.4110549092292786e-01" nType="0">
                  <Node pos="l" depth="6" NCoef="0" IVar="-1" Cut="0.0000000000000000e+00" cType="1" res="-2.2778266575187445e-03" rms="4.4954070448875427e-01" purity="3.0205506086349487e-01" nType="-99"/>
                  <Node pos="r" depth="6" NCoef="0" IVar="2" Cut="1.9644268798828125e+02" cType="1" res="1.7829906195402145e-02" rms="4.7091349959373474e-01" purity="3.6753731966018677e-01" nType="0">
                    <Node pos="l" depth="7" NCoef="0" IVar="-1" Cut="0.0000000000000000e+00" cType="1" res="4.3239309452474117e-03" rms="4.7653853893280029e-01" purity="3.9516589045524597e-01" nType="-99"/>
                    <Node pos="r" depth="7" NCoef="0" IVar="-1" Cut="0.0000000000000000e+00" cType="1" res="-1.3012606650590897e-03" rms="4.6249082684516907e-01" purity="3.3558434247970581e-01" nType="-99"/>
                  </Node>
                </Node>
              </Node>
              <Node pos="r" depth="4" NCoef="0" IVar="5" Cut="-3.2107632160186768e+00" cType="1" res="-5.3433805704116821e-02" rms="2.8278177976608276e-01" purity="9.3191109597682953e-02" nType="0">
                <Node pos="l" depth="5" NCoef="0" IVar="-1" Cut="0.0000000000000000e+00" cType="1" res="-1.9975220784544945e-02" rms="2.1556457877159119e-01" purity="4.9736969172954559e-02" nType="-99"/>
                <Node pos="r" depth="5" NCoef="0" IVar="4" Cut="-1.0464316606521606e+00" cType="1" res="-4.7640495002269745e-02" rms="2.9923620820045471e-01" purity="1.0580793023109436e-01" nType="0">
                  <Node pos="l" depth="6" NCoef="0" IVar="-1" Cut="0.0000000000000000e+00" cType="1" res="-4.5486376620829105e-03" rms="3.4520500898361206e-01" purity="1.4624907076358795e-01" nType="-99"/>
                  <Node pos="r" depth="6" NCoef="0" IVar="5" Cut="-2.1980249881744385e+00" cType="1" res="-5.9122592210769653e-02" rms="2.7482160925865173e-01" purity="8.7247110903263092e-02" nType="0">
                    <Node pos="l" depth="7" NCoef="0" IVar="-1" Cut="0.0000000000000000e+00" cType="1" res="-1.1160128749907017e-02" rms="2.8839579224586487e-01" purity="9.8380662500858307e-02" nType="-99"/>
                    <Node pos="r" depth="7" NCoef="0" IVar="-1" Cut="0.0000000000000000e+00" cType="1" res="-1.6986351460218430e-02" rms="2.5579750537872314e-01" purity="7.2961233556270599e-02" nType="-99"/>
                  </Node>
                </Node>
              </Node>
            </Node>
            <Node pos="r" depth="3" NCoef="0" IVar="3" Cut="1.6652908921241760e-01" cType="1" res="-5.0485614687204361e-02" rms="2.6368626952171326e-01" purity="8.3015576004981995e-02" nType="0">
              <Node pos="l" depth="4" NCoef="0" IVar="-1" Cut="0.0000000000000000e+00" cType="1" res="-6.0962093994021416e-03" rms="2.9912084341049194e-01" purity="1.0901045799255371e-01" nType="-99"/>
              <Node pos="r" depth="4" NCoef="0" IVar="0" Cut="6.7811453342437744e-01" cType="1" res="-5.3107596933841705e-02" rms="2.5971308350563049e-01" purity="8.0403029918670654e-02" nType="0">
                <Node pos="l" depth="5" NCoef="0" IVar="4" Cut="1.7962846755981445e+00" cType="1" res="-3.8392886519432068e-02" rms="3.5099145770072937e-01" purity="1.5647742152214050e-01" nType="0">
                  <Node pos="l" depth="6" NCoef="0" IVar="4" Cut="4.2904517054557800e-01" cType="1" res="-2.5316582992672920e-02" rms="4.0344789624214172e-01" purity="2.1409237384796143e-01" nType="0">
                    <Node pos="l" depth="7" NCoef="0" IVar="-1" Cut="0.0000000000000000e+00" cType="1" res="-5.4494873620569706e-03" rms="4.0863886475563049e-01" purity="2.2055289149284363e-01" nType="-99"/>
                    <Node pos="r" depth="7" NCoef="0" IVar="-1" Cut="0.0000000000000000e+00" cType="1" res="-1.6484854277223349e-03" rms="3.9798793196678162e-01" purity="2.0802310109138489e-01" nType="-99"/>
                  </Node>
                  <Node pos="r" depth="6" NCoef="0" IVar="-1" Cut="0.0000000000000000e+00" cType="1" res="-1.3763895258307457e-02" rms="2.5325155258178711e-01" purity="7.1408033370971680e-02" nType="-99"/>
                </Node>
                <Node pos="r" depth="5" NCoef="0" IVar="5" Cut="-9.2291289567947388e-01" cType="1" res="-5.9228979051113129e-02" rms="2.1007981896400452e-01" purity="4.8755753785371780e-02" nType="0">
                  <Node pos="l" depth="6" NCoef="0" IVar="-1" Cut="0.0000000000000000e+00" cType="1" res="-1.0322563350200653e-02" rms="2.8670054674148560e-01" purity="9.6205919981002808e-02" nType="-99"/>
                  <Node pos="r" depth="6" NCoef="0" IVar="7" Cut="4.0000000000000000e+00" cType="1" res="-6.2038052827119827e-02" rms="1.9164080917835236e-01" purity="3.9582561701536179e-02" nType="0">
                    <Node pos="l" depth="7" NCoef="0" IVar="-1" Cut="0.0000000000000000e+00" cType="1" res="-1.8678080290555954e-02" rms="2.2861951589584351e-01" purity="5.7715583592653275e-02" nType="-99"/>
                    <Node pos="r" depth="7" NCoef="0" IVar="-1" Cut="0.0000000000000000e+00" cType="1" res="-1.9673185423016548e-02" rms="1.8296125531196594e-01" purity="3.5828545689582825e-02" nType="-99"/>
                  </Node>
                </Node>
              </Node>
            </Node>
          </Node>
          <Node pos="r" depth="2" NCoef="0" IVar="5" Cut="3.7987999618053436e-02" cType="1" res="4.9384390003979206e-03" rms="4.7815141081809998e-01" purity="4.8192822933197021e-01" nType="0">
            <Node pos="l" depth="3" NCoef="0" IVar="1" Cut="1.4690676331520081e-01" cType="1" res="1.0428491979837418e-02" rms="4.8341587185859680e-01" purity="5.0154745578765869e-01" nType="0">
              <Node pos="l" depth="4" NCoef="0" IVar="0" Cut="1.8475055694580078e-01" cType="1" res="2.7108555659651756e-02" rms="4.8542648553848267e-01" purity="5.4397392272949219e-01" nType="0">
                <Node pos="l" depth="5" NCoef="0" IVar="7" Cut="3.0000000000000000e+00" cType="1" res="4.3602779507637024e-02" rms="4.7716012597084045e-01" purity="6.1487853527069092e-01" nType="0">
                  <Node pos="l" depth="6" NCoef="0" IVar="-1" Cut="0.0000000000000000e+00" cType="1" res="1.8061298178508878e-03" rms="4.8483505845069885e-01" purity="5.9596353769302368e-01" nType="-99"/>
                  <Node pos="r" depth="6" NCoef="0" IVar="3" Cut="7.2646337747573853e-01" cType="1" res="5.0348699092864990e-02" rms="4.7815766930580139e-01" purity="6.2071341276168823e-01" nType="0">
                    <Node pos="l" depth="7" NCoef="0" IVar="-1" Cut="0.0000000000000000e+00" cType="1" res="3.6727958358824253e-03" rms="4.8659914731979370e-01" purity="5.8975327014923096e-01" nType="-99"/>
                    <Node pos="r" depth="7" NCoef="0" IVar="-1" Cut="0.0000000000000000e+00" cType="1" res="5.5980752222239971e-03" rms="4.5923534035682678e-01" purity="6.8714272975921631e-01" nType="-99"/>
                  </Node>
                </Node>
                <Node pos="r" depth="5" NCoef="0" IVar="2" Cut="1.2108796691894531e+02" cType="1" res="1.2003703042864799e-02" rms="4.8987782001495361e-01" purity="4.8008275032043457e-01" nType="0">
                  <Node pos="l" depth="6" NCoef="0" IVar="6" Cut="5.1513668149709702e-02" cType="1" res="3.7776727229356766e-02" rms="4.9027559161186218e-01" purity="5.2145040035247803e-01" nType="0">
                    <Node pos="l" depth="7" NCoef="0" IVar="-1" Cut="0.0000000000000000e+00" cType="1" res="1.2741908431053162e-03" rms="4.9008083343505859e-01" purity="4.9528044462203979e-01" nType="-99"/>
                    <Node pos="r" depth="7" NCoef="0" IVar="-1" Cut="0.0000000000000000e+00" cType="1" res="6.1057326383888721e-03" rms="4.8829030990600586e-01" purity="5.6241333484649658e-01" nType="-99"/>
                  </Node>
                  <Node pos="r" depth="6" NCoef="0" IVar="6" Cut="6.7131765186786652e-02" cType="1" res="-1.5134908258914948e-02" rms="4.8798954486846924e-01" purity="4.3652328848838806e-01" nType="0">
                    <Node pos="l" depth="7" NCoef="0" IVar="-1" Cut="0.0000000000000000e+00" cType="1" res="-3.7888262886554003e-03" rms="4.8325869441032410e-01" purity="4.2222222685813904e-01" nType="-99"/>
                    <Node pos="r" depth="7" NCoef="0" IVar="-1" Cut="0.0000000000000000e+00" cType="1" res="2.8194391052238643e-04" rms="4.9071016907691956e-01" purity="4.4721484184265137e-01" nType="-99"/>
                  </Node>
                </Node>
              </Node>
              <Node pos="r" depth="4" NCoef="0" IVar="0" Cut="3.9748445153236389e-01" cType="1" res="-1.3982712291181087e-02" rms="4.7941312193870544e-01" purity="4.3945637345314026e-01" nType="0">
                <Node pos="l" depth="5" NCoef="0" IVar="0" Cut="1.7948348820209503e-01" cType="1" res="1.4139135600998998e-03" rms="4.9062022566795349e-01" purity="4.9805614352226257e-01" nType="0">
                  <Node pos="l" depth="6" NCoef="0" IVar="5" Cut="-1.9053679704666138e+00" cType="1" res="1.9423985853791237e-02" rms="4.9020558595657349e-01" purity="5.3827893733978271e-01" nType="0">
                    <Node pos="l" depth="7" NCoef="0" IVar="-1" Cut="0.0000000000000000e+00" cType="1" res="2.7085877954959869e-03" rms="4.8978701233863831e-01" purity="5.7469600439071655e-01" nType="-99"/>
                    <Node pos="r" depth="7" NCoef="0" IVar="-1" Cut="0.0000000000000000e+00" cType="1" res="-2.1898350678384304e-04" rms="4.9009826779365540e-01" purity="4.7849148511886597e-01" nType="-99"/>
                  </Node>
                  <Node pos="r" depth="6" NCoef="0" IVar="-1" Cut="0.0000000000000000e+00" cType="1" res="-2.2286085877567530e-03" rms="4.9006086587905884e-01" purity="4.4039598107337952e-01" nType="-99"/>
                </Node>
                <Node pos="r" depth="5" NCoef="0" IVar="7" Cut="3.0000000000000000e+00" cType="1" res="-4.7570619732141495e-02" rms="4.4909727573394775e-01" purity="3.0719581246376038e-01" nType="0">
                  <Node pos="l" depth="6" NCoef="0" IVar="-1" Cut="0.0000000000000000e+00" cType="1" res="-6.0462658293545246e-03" rms="4.5142659544944763e-01" purity="3.0243358016014099e-01" nType="-99"/>
                  <Node pos="r" depth="6" NCoef="0" IVar="-1" Cut="0.0000000000000000e+00" cType="1" res="-4.1430499404668808e-03" rms="4.5075821876525879e-01" purity="3.1158447265625000e-01" nType="-99"/>
                </Node>
              </Node>
            </Node>
            <Node pos="r" depth="3" NCoef="0" IVar="-1" Cut="0.0000000000000000e+00" cType="1" res="-9.7768576815724373e-03" rms="3.8217678666114807e-01" purity="1.8959143757820129e-01" nType="-99"/>
          </Node>
        </Node>
        <Node pos="r" depth="1" NCoef="0" IVar="1" Cut="5.6762593984603882e-01" cType="1" res="4.8765011131763458e-02" rms="4.2676410079002380e-01" purity="7.3668307065963745e-01" nType="0">
          <Node pos="l" depth="2" NCoef="0" IVar="4" Cut="7.8525334596633911e-01" cType="1" res="5.5581826716661453e-02" rms="4.2043215036392212e-01" purity="7.5215721130371094e-01" nType="0">
            <Node pos="l" depth="3" NCoef="0" IVar="5" Cut="-2.5238091945648193e+00" cType="1" res="5.8235481381416321e-02" rms="4.1798031330108643e-01" purity="7.6033914089202881e-01" nType="0">
              <Node pos="l" depth="4" NCoef="0" IVar="3" Cut="8.3813399076461792e-01" cType="1" res="6.9246590137481689e-02" rms="3.9166301488876343e-01" purity="8.0487859249114990e-01" nType="0">
                <Node pos="l" depth="5" NCoef="0" IVar="1" Cut="1.7944451421499252e-02" cType="1" res="4.8149134963750839e-02" rms="4.5179304480552673e-01" purity="7.0696949958801270e-01" nType="0">
                  <Node pos="l" depth="6" NCoef="0" IVar="-1" Cut="0.0000000000000000e+00" cType="1" res="5.6249275803565979e-03" rms="4.3857285380363464e-01" purity="7.3471474647521973e-01" nType="-99"/>
                  <Node pos="r" depth="6" NCoef="0" IVar="-1" Cut="0.0000000000000000e+00" cType="1" res="2.5537647306919098e-03" rms="4.6663379669189453e-01" purity="6.7330127954483032e-01" nType="-99"/>
                </Node>
                <Node pos="r" depth="5" NCoef="0" IVar="3" Cut="9.6737122535705566e-01" cType="1" res="7.1932516992092133e-02" rms="3.8324826955795288e-01" purity="8.1734341382980347e-01" nType="0">
                  <Node pos="l" depth="6" NCoef="0" IVar="7" Cut="2.0000000000000000e+00" cType="1" res="6.5441720187664032e-02" rms="4.0637052059173584e-01" purity="7.8551405668258667e-01" nType="0">
                    <Node pos="l" depth="7" NCoef="0" IVar="-1" Cut="0.0000000000000000e+00" cType="1" res="3.3589871600270271e-03" rms="4.1866987943649292e-01" purity="7.6852673292160034e-01" nType="-99"/>
                    <Node pos="r" depth="7" NCoef="0" IVar="-1" Cut="0.0000000000000000e+00" cType="1" res="7.6026553288102150e-03" rms="4.0422075986862183e-01" purity="7.9093515872955322e-01" nType="-99"/>
                  </Node>
                  <Node pos="r" depth="6" NCoef="0" IVar="4" Cut="-1.0836905241012573e+00" cType="1" res="7.4431493878364563e-02" rms="3.7358763813972473e-01" purity="8.2911932468414307e-01" nType="0">
                    <Node pos="l" depth="7" NCoef="0" IVar="-1" Cut="0.0000000000000000e+00" cType="1" res="5.2648414857685566e-03" rms="4.1183176636695862e-01" purity="7.7984797954559326e-01" nType="-99"/>
                    <Node pos="r" depth="7" NCoef="0" IVar="-1" Cut="0.0000000000000000e+00" cType="1" res="8.1616016104817390e-03" rms="3.6345469951629639e-01" purity="8.4129184484481812e-01" nType="-99"/>
                  </Node>
                </Node>
              </Node>
              <Node pos="r" depth="4" NCoef="0" IVar="2" Cut="1.8824549865722656e+02" cType="1" res="4.6307638287544250e-02" rms="4.4442719221115112e-01" purity="7.1209150552749634e-01" nType="0">
                <Node pos="l" depth="5" NCoef="0" IVar="5" Cut="-1.9347257614135742e+00" cType="1" res="4.9476265907287598e-02" rms="4.4132903218269348e-01" purity="7.2049039602279663e-01" nType="0">
                  <Node pos="l" depth="6" NCoef="0" IVar="4" Cut="-6.7520391941070557e-01" cType="1" res="5.9103339910507202e-02" rms="4.1892394423484802e-01" purity="7.6670879125595093e-01" nType="0">
                    <Node pos="l" depth="7" NCoef="0" IVar="-1" Cut="0.0000000000000000e+00" cType="1" res="4.5275152660906315e-03" rms="4.3284618854522705e-01" purity="7.4420201778411865e-01" nType="-99"/>
                    <Node pos="r" depth="7" NCoef="0" IVar="-1" Cut="0.0000000000000000e+00" cType="1" res="6.8243332207202911e-03" rms="4.0172594785690308e-01" purity="7.9309785366058350e-01" nType="-99"/>
                  </Node>
                  <Node pos="r" depth="6" NCoef="0" IVar="0" Cut="2.3829798400402069e-01" cType="1" res="3.9492193609476089e-02" rms="4.6321082115173340e-01" purity="6.7255818843841553e-01" nType="0">
                    <Node pos="l" depth="7" NCoef="0" IVar="-1" Cut="0.0000000000000000e+00" cType="1" res="3.9066737517714500e-03" rms="4.5949885249137878e-01" purity="6.8618214130401611e-01" nType="-99"/>
                    <Node pos="r" depth="7" NCoef="0" IVar="-1" Cut="0.0000000000000000e+00" cType="1" res="2.3139164841268212e-04" rms="4.8920130729675293e-01" purity="5.6800991296768188e-01" nType="-99"/>
                  </Node>
                </Node>
                <Node pos="r" depth="5" NCoef="0" IVar="-1" Cut="0.0000000000000000e+00" cType="1" res="9.4232102856040001e-04" rms="4.7693446278572083e-01" purity="6.1605501174926758e-01" nType="-99"/>
              </Node>
            </Node>
            <Node pos="r" depth="3" NCoef="0" IVar="-1" Cut="0.0000000000000000e+00" cType="1" res="-1.8314116168767214e-03" rms="4.7915163636207581e-01" purity="5.1818931102752686e-01" nType="-99"/>
          </Node>
          <Node pos="r" depth="2" NCoef="0" IVar="5" Cut="-1.7516005039215088e+00" cType="1" res="-7.4945908272638917e-04" rms="4.6722930669784546e-01" purity="6.2428557872772217e-01" nType="0">
            <Node pos="l" depth="3" NCoef="0" IVar="3" Cut="9.9489295482635498e-01" cType="1" res="1.9848644733428955e-02" rms="4.6108493208885193e-01" purity="6.7305278778076172e-01" nType="0">
              <Node pos="l" depth="4" NCoef="0" IVar="4" Cut="-1.4653517007827759e+00" cType="1" res="2.9616795945912600e-03" rms="4.7845283150672913e-01" purity="6.2681555747985840e-01" nType="0">
                <Node pos="l" depth="5" NCoef="0" IVar="-1" Cut="0.0000000000000000e+00" cType="1" res="1.2490700464695692e-03" rms="4.8066872358322144e-01" purity="6.3060551881790161e-01" nType="-99"/>
                <Node pos="r" depth="5" NCoef="0" IVar="-1" Cut="0.0000000000000000e+00" cType="1" res="-9.2388706980273128e-04" rms="4.7555294632911682e-01" purity="6.2248492240905762e-01" nType="-99"/>
              </Node>
              <Node pos="r" depth="4" NCoef="0" IVar="-1" Cut="0.0000000000000000e+00" cType="1" res="3.2233856618404388e-03" rms="4.4106134772300720e-01" purity="7.2245299816131592e-01" nType="-99"/>
            </Node>
            <Node pos="r" depth="3" NCoef="0" IVar="-1" Cut="0.0000000000000000e+00" cType="1" res="-6.2432158738374710e-03" rms="4.8092520236968994e-01" purity="4.5969730615615845e-01" nType="-99"/>
          </Node>
        </Node>
      </Node>
    </BinaryTree>
    <BinaryTree type="DecisionTree" boostWeight="1.0000000000000000e+00" itree="42">
      <Node pos="s" depth="0" NCoef="0" IVar="3" Cut="7.7288961410522461e-01" cType="1" res="1.2487825937569141e-02" rms="4.0951138734817505e-01" purity="4.9948468804359436e-01" nType="0">
        <Node pos="l" depth="1" NCoef="0" IVar="3" Cut="5.9846854209899902e-01" cType="1" res="-2.1324824541807175e-02" rms="3.8931196928024292e-01" purity="2.6537317037582397e-01" nType="0">
          <Node pos="l" depth="2" NCoef="0" IVar="6" Cut="1.5685297548770905e-01" cType="1" res="-3.3291921019554138e-02" rms="3.3685737848281860e-01" purity="1.5485449135303497e-01" nType="0">
            <Node pos="l" depth="3" NCoef="0" IVar="2" Cut="1.4598002624511719e+02" cType="1" res="-3.9746228605508804e-02" rms="3.2430520653724670e-01" purity="1.4329297840595245e-01" nType="0">
              <Node pos="l" depth="4" NCoef="0" IVar="6" Cut="5.0822924822568893e-02" cType="1" res="-2.5753872469067574e-02" rms="3.4221538901329041e-01" purity="1.6510033607482910e-01" nType="0">
                <Node pos="l" depth="5" NCoef="0" IVar="2" Cut="7.5466156005859375e+01" cType="1" res="-4.5698970556259155e-02" rms="3.1330052018165588e-01" purity="1.2880617380142212e-01" nType="0">
                  <Node pos="l" depth="6" NCoef="0" IVar="6" Cut="2.4768462404608727e-02" cType="1" res="-3.3629823476076126e-02" rms="3.3231297135353088e-01" purity="1.4802494645118713e-01" nType="0">
                    <Node pos="l" depth="7" NCoef="0" IVar="-1" Cut="0.0000000000000000e+00" cType="1" res="-1.1501844041049480e-02" rms="3.0837106704711914e-01" purity="1.1869136989116669e-01" nType="-99"/>
                    <Node pos="r" depth="7" NCoef="0" IVar="-1" Cut="0.0000000000000000e+00" cType="1" res="-2.3127847816795111e-03" rms="3.4859380125999451e-01" purity="1.7113776504993439e-01" nType="-99"/>
                  </Node>
                  <Node pos="r" depth="6" NCoef="0" IVar="-1" Cut="0.0000000000000000e+00" cType="1" res="-1.3799794018268585e-02" rms="2.7657264471054077e-01" purity="9.5942012965679169e-02" nType="-99"/>
                </Node>
                <Node pos="r" depth="5" NCoef="0" IVar="1" Cut="-6.3716582953929901e-02" cType="1" res="-1.0470292530953884e-02" rms="3.6207342147827148e-01" purity="1.9291189312934875e-01" nType="0">
                  <Node pos="l" depth="6" NCoef="0" IVar="-1" Cut="0.0000000000000000e+00" cType="1" res="5.5214730091392994e-03" rms="4.3959674239158630e-01" purity="3.2806825637817383e-01" nType="-99"/>
                  <Node pos="r" depth="6" NCoef="0" IVar="3" Cut="3.8647183775901794e-01" cType="1" res="-2.3035798221826553e-02" rms="3.4132748842239380e-01" purity="1.6307526826858521e-01" nType="0">
                    <Node pos="l" depth="7" NCoef="0" IVar="-1" Cut="0.0000000000000000e+00" cType="1" res="-1.5702983364462852e-02" rms="2.2179466485977173e-01" purity="5.4258909076452255e-02" nType="-99"/>
                    <Node pos="r" depth="7" NCoef="0" IVar="-1" Cut="0.0000000000000000e+00" cType="1" res="-4.1682625305838883e-04" rms="4.1486269235610962e-01" purity="2.5437018275260925e-01" nType="-99"/>
                  </Node>
                </Node>
              </Node>
              <Node pos="r" depth="4" NCoef="0" IVar="6" Cut="9.3492828309535980e-02" cType="1" res="-4.9159683287143707e-02" rms="3.1132382154464722e-01" purity="1.2862193584442139e-01" nType="0">
                <Node pos="l" depth="5" NCoef="0" IVar="6" Cut="5.4253816604614258e-02" cType="1" res="-6.2698245048522949e-02" rms="2.7702495455741882e-01" purity="9.4826050102710724e-02" nType="0">
                  <Node pos="l" depth="6" NCoef="0" IVar="-1" Cut="0.0000000000000000e+00" cType="1" res="-1.6590634360909462e-02" rms="2.5006774067878723e-01" purity="7.2135232388973236e-02" nType="-99"/>
                  <Node pos="r" depth="6" NCoef="0" IVar="2" Cut="3.0081918334960938e+02" cType="1" res="-5.8744549751281738e-02" rms="2.8359180688858032e-01" purity="1.0082455724477768e-01" nType="0">
                    <Node pos="l" depth="7" NCoef="0" IVar="-1" Cut="0.0000000000000000e+00" cType="1" res="-1.0848830454051495e-02" rms="2.9376512765884399e-01" purity="1.1018715798854828e-01" nType="-99"/>
                    <Node pos="r" depth="7" NCoef="0" IVar="-1" Cut="0.0000000000000000e+00" cType="1" res="-1.5268219634890556e-02" rms="2.5871270895004272e-01" purity="7.9889595508575439e-02" nType="-99"/>
                  </Node>
                </Node>
                <Node pos="r" depth="5" NCoef="0" IVar="2" Cut="3.6598306274414062e+02" cType="1" res="-3.9921980351209641e-02" rms="3.3238717913627625e-01" purity="1.5168170630931854e-01" nType="0">
                  <Node pos="l" depth="6" NCoef="0" IVar="3" Cut="3.8851657509803772e-01" cType="1" res="-2.6870414614677429e-02" rms="3.4516867995262146e-01" purity="1.6826912760734558e-01" nType="0">
                    <Node pos="l" depth="7" NCoef="0" IVar="-1" Cut="0.0000000000000000e+00" cType="1" res="-1.5105107799172401e-02" rms="2.3063397407531738e-01" purity="5.8262694627046585e-02" nType="-99"/>
                    <Node pos="r" depth="7" NCoef="0" IVar="-1" Cut="0.0000000000000000e+00" cType="1" res="-9.6814910648390651e-04" rms="4.2208617925643921e-01" purity="2.6802030205726624e-01" nType="-99"/>
                  </Node>
                  <Node pos="r" depth="6" NCoef="0" IVar="6" Cut="1.2210259586572647e-01" cType="1" res="-5.4466780275106430e-02" rms="3.1690511107444763e-01" purity="1.3319648802280426e-01" nType="0">
                    <Node pos="l" depth="7" NCoef="0" IVar="-1" Cut="0.0000000000000000e+00" cType="1" res="-1.3015323318541050e-02" rms="2.9902651906013489e-01" purity="1.1150801926851273e-01" nType="-99"/>
                    <Node pos="r" depth="7" NCoef="0" IVar="-1" Cut="0.0000000000000000e+00" cType="1" res="-8.0030076205730438e-03" rms="3.2863366603851318e-01" purity="1.4857307076454163e-01" nType="-99"/>
                  </Node>
                </Node>
              </Node>
            </Node>
            <Node pos="r" depth="3" NCoef="0" IVar="5" Cut="-1.4630157947540283e+00" cType="1" res="-1.4067545533180237e-02" rms="3.7107703089714050e-01" purity="1.8929088115692139e-01" nType="0">
              <Node pos="l" depth="4" NCoef="0" IVar="0" Cut="1.6960133314132690e+00" cType="1" res="5.3064152598381042e-03" rms="4.1665682196617126e-01" purity="2.5350117683410645e-01" nType="0">
                <Node pos="l" depth="5" NCoef="0" IVar="0" Cut="5.4678612947463989e-01" cType="1" res="2.4309299886226654e-02" rms="4.4213280081748962e-01" purity="2.9691115021705627e-01" nType="0">
                  <Node pos="l" depth="6" NCoef="0" IVar="3" Cut="3.7081134319305420e-01" cType="1" res="6.3380643725395203e-02" rms="4.7473621368408203e-01" purity="3.7358689308166504e-01" nType="0">
                    <Node pos="l" depth="7" NCoef="0" IVar="-1" Cut="0.0000000000000000e+00" cType="1" res="9.0577732771635056e-03" rms="4.6145746111869812e-01" purity="3.2860517501831055e-01" nType="-99"/>
                    <Node pos="r" depth="7" NCoef="0" IVar="-1" Cut="0.0000000000000000e+00" cType="1" res="5.4556010290980339e-03" rms="4.8692676424980164e-01" purity="4.1642963886260986e-01" nType="-99"/>
                  </Node>
                  <Node pos="r" depth="6" NCoef="0" IVar="-1" Cut="0.0000000000000000e+00" cType="1" res="-6.3527598977088928e-03" rms="3.7563231587409973e-01" purity="1.7380268871784210e-01" nType="-99"/>
                </Node>
                <Node pos="r" depth="5" NCoef="0" IVar="-1" Cut="0.0000000000000000e+00" cType="1" res="-1.1811113916337490e-02" rms="3.1241056323051453e-01" purity="1.1257848888635635e-01" nType="-99"/>
              </Node>
              <Node pos="r" depth="4" NCoef="0" IVar="3" Cut="2.3191305994987488e-01" cType="1" res="-3.4906808286905289e-02" rms="3.1343239545822144e-01" purity="1.2022418528795242e-01" nType="0">
                <Node pos="l" depth="5" NCoef="0" IVar="-1" Cut="0.0000000000000000e+00" cType="1" res="-2.8810268267989159e-03" rms="3.3878728747367859e-01" purity="1.3993045687675476e-01" nType="-99"/>
                <Node pos="r" depth="5" NCoef="0" IVar="5" Cut="4.7361460328102112e-01" cType="1" res="-4.6325217932462692e-02" rms="2.9857164621353149e-01" purity="1.0983643680810928e-01" nType="0">
                  <Node pos="l" depth="6" NCoef="0" IVar="-1" Cut="0.0000000000000000e+00" cType="1" res="-5.4925242438912392e-03" rms="3.5396558046340942e-01" purity="1.5999013185501099e-01" nType="-99"/>
                  <Node pos="r" depth="6" NCoef="0" IVar="-1" Cut="0.0000000000000000e+00" cType="1" res="-1.7446970567107201e-02" rms="2.1529367566108704e-01" purity="5.1270931959152222e-02" nType="-99"/>
                </Node>
              </Node>
            </Node>
          </Node>
          <Node pos="r" depth="2" NCoef="0" IVar="4" Cut="9.9802076816558838e-01" cType="1" res="3.5175611265003681e-03" rms="4.7929319739341736e-01" purity="4.9479788541793823e-01" nType="0">
            <Node pos="l" depth="3" NCoef="0" IVar="7" Cut="3.0000000000000000e+00" cType="1" res="1.1346843093633652e-02" rms="4.8433822393417358e-01" purity="5.1911270618438721e-01" nType="0">
              <Node pos="l" depth="4" NCoef="0" IVar="1" Cut="3.6713078618049622e-01" cType="1" res="-1.5188339166343212e-02" rms="4.8197898268699646e-01" purity="4.7578263282775879e-01" nType="0">
                <Node pos="l" depth="5" NCoef="0" IVar="5" Cut="-1.9003326892852783e+00" cType="1" res="3.7339280825108290e-03" rms="4.8709082603454590e-01" purity="5.1849466562271118e-01" nType="0">
                  <Node pos="l" depth="6" NCoef="0" IVar="3" Cut="7.1101254224777222e-01" cType="1" res="1.7653461545705795e-02" rms="4.8804169893264771e-01" purity="5.4496413469314575e-01" nType="0">
                    <Node pos="l" depth="7" NCoef="0" IVar="-1" Cut="0.0000000000000000e+00" cType="1" res="6.8024179199710488e-04" rms="4.8884248733520508e-01" purity="4.7463491559028625e-01" nType="-99"/>
                    <Node pos="r" depth="7" NCoef="0" IVar="-1" Cut="0.0000000000000000e+00" cType="1" res="2.0689032971858978e-03" rms="4.8729214072227478e-01" purity="5.9904432296752930e-01" nType="-99"/>
                  </Node>
                  <Node pos="r" depth="6" NCoef="0" IVar="-1" Cut="0.0000000000000000e+00" cType="1" res="-2.0093205384910107e-03" rms="4.8412662744522095e-01" purity="4.6749755740165710e-01" nType="-99"/>
                </Node>
                <Node pos="r" depth="5" NCoef="0" IVar="-1" Cut="0.0000000000000000e+00" cType="1" res="-6.3607301563024521e-03" rms="4.6388962864875793e-01" purity="3.5952913761138916e-01" nType="-99"/>
              </Node>
              <Node pos="r" depth="4" NCoef="0" IVar="3" Cut="7.1658420562744141e-01" cType="1" res="2.3722013458609581e-02" rms="4.8555007576942444e-01" purity="5.4082000255584717e-01" nType="0">
                <Node pos="l" depth="5" NCoef="0" IVar="6" Cut="6.4604081213474274e-02" cType="1" res="1.3950620777904987e-02" rms="4.9090838432312012e-01" purity="5.0206822156906128e-01" nType="0">
                  <Node pos="l" depth="6" NCoef="0" IVar="7" Cut="4.0000000000000000e+00" cType="1" res="-1.7024350818246603e-03" rms="4.8950922489166260e-01" purity="4.7494336962699890e-01" nType="0">
                    <Node pos="l" depth="7" NCoef="0" IVar="-1" Cut="0.0000000000000000e+00" cType="1" res="-1.6121281078085303e-03" rms="4.8907136917114258e-01" purity="4.5158112049102783e-01" nType="-99"/>
                    <Node pos="r" depth="7" NCoef="0" IVar="-1" Cut="0.0000000000000000e+00" cType="1" res="2.1904350724071264e-03" rms="4.9285009503364563e-01" purity="5.1547414064407349e-01" nType="-99"/>
                  </Node>
                  <Node pos="r" depth="6" NCoef="0" IVar="2" Cut="1.6532188415527344e+02" cType="1" res="2.8404533863067627e-02" rms="4.9048030376434326e-01" purity="5.2565687894821167e-01" nType="0">
                    <Node pos="l" depth="7" NCoef="0" IVar="-1" Cut="0.0000000000000000e+00" cType="1" res="5.6492169387638569e-03" rms="4.8686859011650085e-01" purity="5.9068101644515991e-01" nType="-99"/>
                    <Node pos="r" depth="7" NCoef="0" IVar="-1" Cut="0.0000000000000000e+00" cType="1" res="1.9674705981742591e-04" rms="4.9082416296005249e-01" purity="4.8595851659774780e-01" nType="-99"/>
                  </Node>
                </Node>
                <Node pos="r" depth="5" NCoef="0" IVar="5" Cut="-2.1701829433441162e+00" cType="1" res="4.7065280377864838e-02" rms="4.7168481349945068e-01" purity="6.3339561223983765e-01" nType="0">
                  <Node pos="l" depth="6" NCoef="0" IVar="-1" Cut="0.0000000000000000e+00" cType="1" res="5.6997169740498066e-03" rms="4.6200078725814819e-01" purity="6.7505908012390137e-01" nType="-99"/>
                  <Node pos="r" depth="6" NCoef="0" IVar="-1" Cut="0.0000000000000000e+00" cType="1" res="2.2859594319015741e-03" rms="4.8249849677085876e-01" purity="5.8214288949966431e-01" nType="-99"/>
                </Node>
              </Node>
            </Node>
            <Node pos="r" depth="3" NCoef="0" IVar="-1" Cut="0.0000000000000000e+00" cType="1" res="-7.9086869955062866e-03" rms="4.1382196545600891e-01" purity="2.4957266449928284e-01" nType="-99"/>
          </Node>
        </Node>
        <Node pos="r" depth="1" NCoef="0" IVar="1" Cut="9.8882097005844116e-01" cType="1" res="4.6695664525032043e-02" rms="4.2625939846038818e-01" purity="7.3633241653442383e-01" nType="0">
          <Node pos="l" depth="2" NCoef="0" IVar="5" Cut="-1.8113971948623657e+00" cType="1" res="5.1134426146745682e-02" rms="4.2286011576652527e-01" purity="7.4542880058288574e-01" nType="0">
            <Node pos="l" depth="3" NCoef="0" IVar="0" Cut="4.5190787315368652e-01" cType="1" res="5.8804631233215332e-02" rms="4.0728136897087097e-01" purity="7.8060632944107056e-01" nType="0">
              <Node pos="l" depth="4" NCoef="0" IVar="1" Cut="3.0685076117515564e-01" cType="1" res="6.1893548816442490e-02" rms="4.0437147021293640e-01" purity="7.8751260042190552e-01" nType="0">
                <Node pos="l" depth="5" NCoef="0" IVar="0" Cut="1.4570052735507488e-02" cType="1" res="6.8062536418437958e-02" rms="3.9599406719207764e-01" purity="8.0060106515884399e-01" nType="0">
                  <Node pos="l" depth="6" NCoef="0" IVar="3" Cut="8.4453272819519043e-01" cType="1" res="7.0521801710128784e-02" rms="3.9132237434387207e-01" purity="8.0769085884094238e-01" nType="0">
                    <Node pos="l" depth="7" NCoef="0" IVar="-1" Cut="0.0000000000000000e+00" cType="1" res="4.3398346751928329e-03" rms="4.4280767440795898e-01" purity="7.3071783781051636e-01" nType="-99"/>
                    <Node pos="r" depth="7" NCoef="0" IVar="-1" Cut="0.0000000000000000e+00" cType="1" res="7.4170897714793682e-03" rms="3.8329371809959412e-01" purity="8.1872016191482544e-01" nType="-99"/>
                  </Node>
                  <Node pos="r" depth="6" NCoef="0" IVar="-1" Cut="0.0000000000000000e+00" cType="1" res="3.5487920977175236e-03" rms="4.5058128237724304e-01" purity="7.0944768190383911e-01" nType="-99"/>
                </Node>
                <Node pos="r" depth="5" NCoef="0" IVar="3" Cut="9.6444648504257202e-01" cType="1" res="3.3486574888229370e-02" rms="4.3978309631347656e-01" purity="7.2724288702011108e-01" nType="0">
                  <Node pos="l" depth="6" NCoef="0" IVar="1" Cut="4.8292014002799988e-01" cType="1" res="1.4216014184057713e-02" rms="4.6783906221389771e-01" purity="6.6491246223449707e-01" nType="0">
                    <Node pos="l" depth="7" NCoef="0" IVar="-1" Cut="0.0000000000000000e+00" cType="1" res="2.9641056898981333e-03" rms="4.5453569293022156e-01" purity="7.0010733604431152e-01" nType="-99"/>
                    <Node pos="r" depth="7" NCoef="0" IVar="-1" Cut="0.0000000000000000e+00" cType="1" res="-2.3115104704629630e-04" rms="4.7912144660949707e-01" purity="6.3256448507308960e-01" nType="-99"/>
                  </Node>
                  <Node pos="r" depth="6" NCoef="0" IVar="1" Cut="5.2669727802276611e-01" cType="1" res="4.5224849134683609e-02" rms="4.2134806513786316e-01" purity="7.6521021127700806e-01" nType="0">
                    <Node pos="l" depth="7" NCoef="0" IVar="-1" Cut="0.0000000000000000e+00" cType="1" res="5.0843413919210434e-03" rms="4.0893396735191345e-01" purity="7.8522980213165283e-01" nType="-99"/>
                    <Node pos="r" depth="7" NCoef="0" IVar="-1" Cut="0.0000000000000000e+00" cType="1" res="2.9910064768046141e-03" rms="4.3699729442596436e-01" purity="7.3868793249130249e-01" nType="-99"/>
                  </Node>
                </Node>
              </Node>
              <Node pos="r" depth="4" NCoef="0" IVar="-1" Cut="0.0000000000000000e+00" cType="1" res="-4.3244506232440472e-03" rms="4.8607477545738220e-01" purity="5.3991770744323730e-01" nType="-99"/>
            </Node>
            <Node pos="r" depth="3" NCoef="0" IVar="5" Cut="-2.2992379963397980e-01" cType="1" res="2.4923315271735191e-02" rms="4.7129237651824951e-01" purity="6.2521797418594360e-01" nType="0">
              <Node pos="l" depth="4" NCoef="0" IVar="0" Cut="2.6106795668601990e-01" cType="1" res="3.2393559813499451e-02" rms="4.6936360001564026e-01" purity="6.5134501457214355e-01" nType="0">
                <Node pos="l" depth="5" NCoef="0" IVar="3" Cut="9.7176069021224976e-01" cType="1" res="4.0498498827219009e-02" rms="4.6589344739913940e-01" purity="6.6794788837432861e-01" nType="0">
                  <Node pos="l" depth="6" NCoef="0" IVar="2" Cut="1.4579109191894531e+02" cType="1" res="3.0391823500394821e-02" rms="4.7728893160820007e-01" purity="6.3557553291320801e-01" nType="0">
                    <Node pos="l" depth="7" NCoef="0" IVar="-1" Cut="0.0000000000000000e+00" cType="1" res="1.5672271838411689e-03" rms="4.7903996706008911e-01" purity="6.2772428989410400e-01" nType="-99"/>
                    <Node pos="r" depth="7" NCoef="0" IVar="-1" Cut="0.0000000000000000e+00" cType="1" res="5.7693049311637878e-03" rms="4.7061201930046082e-01" purity="6.5765517950057983e-01" nType="-99"/>
                  </Node>
                  <Node pos="r" depth="6" NCoef="0" IVar="4" Cut="7.7104647643864155e-03" cType="1" res="5.1821123808622360e-02" rms="4.5251843333244324e-01" purity="7.0421499013900757e-01" nType="0">
                    <Node pos="l" depth="7" NCoef="0" IVar="-1" Cut="0.0000000000000000e+00" cType="1" res="3.4658499062061310e-03" rms="4.5868280529975891e-01" purity="6.9080042839050293e-01" nType="-99"/>
                    <Node pos="r" depth="7" NCoef="0" IVar="-1" Cut="0.0000000000000000e+00" cType="1" res="6.3269520178437233e-03" rms="4.4208699464797974e-01" purity="7.2530388832092285e-01" nType="-99"/>
                  </Node>
                </Node>
                <Node pos="r" depth="5" NCoef="0" IVar="-1" Cut="0.0000000000000000e+00" cType="1" res="-2.7705046813935041e-03" rms="4.9131327867507935e-01" purity="5.1967185735702515e-01" nType="-99"/>
              </Node>
              <Node pos="r" depth="4" NCoef="0" IVar="-1" Cut="0.0000000000000000e+00" cType="1" res="-2.8949067927896976e-03" rms="4.8190459609031677e-01" purity="4.2739045619964600e-01" nType="-99"/>
            </Node>
          </Node>
          <Node pos="r" depth="2" NCoef="0" IVar="7" Cut="2.0000000000000000e+00" cType="1" res="-2.8479900211095810e-02" rms="4.7411197423934937e-01" purity="5.7932275533676147e-01" nType="0">
            <Node pos="l" depth="3" NCoef="0" IVar="-1" Cut="0.0000000000000000e+00" cType="1" res="-1.3876227603759617e-04" rms="4.6518120169639587e-01" purity="6.4508318901062012e-01" nType="-99"/>
            <Node pos="r" depth="3" NCoef="0" IVar="-1" Cut="0.0000000000000000e+00" cType="1" res="-6.2105758115649223e-03" rms="4.8519268631935120e-01" purity="4.8375916481018066e-01" nType="-99"/>
          </Node>
        </Node>
      </Node>
    </BinaryTree>
    <BinaryTree type="DecisionTree" boostWeight="1.0000000000000000e+00" itree="43">
      <Node pos="s" depth="0" NCoef="0" IVar="3" Cut="7.7137583494186401e-01" cType="1" res="1.1176829226315022e-02" rms="4.0835022926330566e-01" purity="4.9877777695655823e-01" nType="0">
        <Node pos="l" depth="1" NCoef="0" IVar="1" Cut="1.4958879351615906e-01" cType="1" res="-2.2546941414475441e-02" rms="3.8776502013206482e-01" purity="2.6199835538864136e-01" nType="0">
          <Node pos="l" depth="2" NCoef="0" IVar="3" Cut="5.7242929935455322e-01" cType="1" res="-3.8196488749235868e-03" rms="4.2224404215812683e-01" purity="3.3750653266906738e-01" nType="0">
            <Node pos="l" depth="3" NCoef="0" IVar="5" Cut="-1.4302112162113190e-01" cType="1" res="-2.1171214058995247e-02" rms="3.6633253097534180e-01" purity="1.8862128257751465e-01" nType="0">
              <Node pos="l" depth="4" NCoef="0" IVar="3" Cut="3.6946177482604980e-01" cType="1" res="-1.4249394647777081e-02" rms="3.9437153935432434e-01" purity="2.2346682846546173e-01" nType="0">
                <Node pos="l" depth="5" NCoef="0" IVar="7" Cut="5.0000000000000000e+00" cType="1" res="-3.0705729499459267e-02" rms="3.2654815912246704e-01" purity="1.3382785022258759e-01" nType="0">
                  <Node pos="l" depth="6" NCoef="0" IVar="-1" Cut="0.0000000000000000e+00" cType="1" res="8.4135151701048017e-04" rms="3.8515317440032959e-01" purity="2.0643934607505798e-01" nType="-99"/>
                  <Node pos="r" depth="6" NCoef="0" IVar="3" Cut="2.9834997653961182e-01" cType="1" res="-4.3827824294567108e-02" rms="3.0119046568870544e-01" purity="1.0721726715564728e-01" nType="0">
                    <Node pos="l" depth="7" NCoef="0" IVar="-1" Cut="0.0000000000000000e+00" cType="1" res="-1.3098542578518391e-02" rms="2.8538045287132263e-01" purity="9.6218280494213104e-02" nType="-99"/>
                    <Node pos="r" depth="7" NCoef="0" IVar="-1" Cut="0.0000000000000000e+00" cType="1" res="-3.8561229594051838e-03" rms="3.2733485102653503e-01" purity="1.2795701622962952e-01" nType="-99"/>
                  </Node>
                </Node>
                <Node pos="r" depth="5" NCoef="0" IVar="7" Cut="4.0000000000000000e+00" cType="1" res="-3.0668007675558329e-03" rms="4.3328863382339478e-01" purity="2.8315484523773193e-01" nType="0">
                  <Node pos="l" depth="6" NCoef="0" IVar="-1" Cut="0.0000000000000000e+00" cType="1" res="-2.9221547301858664e-03" rms="4.2666622996330261e-01" purity="2.7248471975326538e-01" nType="-99"/>
                  <Node pos="r" depth="6" NCoef="0" IVar="2" Cut="1.5727632141113281e+02" cType="1" res="6.5016788430511951e-03" rms="4.3599656224250793e-01" purity="2.8802037239074707e-01" nType="0">
                    <Node pos="l" depth="7" NCoef="0" IVar="-1" Cut="0.0000000000000000e+00" cType="1" res="3.2981811091303825e-03" rms="4.4752615690231323e-01" purity="3.2094916701316833e-01" nType="-99"/>
                    <Node pos="r" depth="7" NCoef="0" IVar="-1" Cut="0.0000000000000000e+00" cType="1" res="-9.2842295998707414e-04" rms="4.2799222469329834e-01" purity="2.6724046468734741e-01" nType="-99"/>
                  </Node>
                </Node>
              </Node>
              <Node pos="r" depth="4" NCoef="0" IVar="3" Cut="2.7752044796943665e-01" cType="1" res="-4.3655391782522202e-02" rms="2.5348383188247681e-01" purity="7.5432278215885162e-02" nType="0">
                <Node pos="l" depth="5" NCoef="0" IVar="-1" Cut="0.0000000000000000e+00" cType="1" res="-6.6330428235232830e-03" rms="2.8049996495246887e-01" purity="9.6137337386608124e-02" nType="-99"/>
                <Node pos="r" depth="5" NCoef="0" IVar="0" Cut="8.0078417062759399e-01" cType="1" res="-5.2733030170202255e-02" rms="2.3874667286872864e-01" purity="6.5382868051528931e-02" nType="0">
                  <Node pos="l" depth="6" NCoef="0" IVar="-1" Cut="0.0000000000000000e+00" cType="1" res="-8.7938504293560982e-03" rms="2.9596331715583801e-01" purity="1.0350337624549866e-01" nType="-99"/>
                  <Node pos="r" depth="6" NCoef="0" IVar="-1" Cut="0.0000000000000000e+00" cType="1" res="-2.0828410983085632e-02" rms="1.6933931410312653e-01" purity="3.0378127470612526e-02" nType="-99"/>
                </Node>
              </Node>
            </Node>
            <Node pos="r" depth="3" NCoef="0" IVar="0" Cut="4.3360722064971924e-01" cType="1" res="1.7500832676887512e-02" rms="4.8129102587699890e-01" purity="5.2044713497161865e-01" nType="0">
              <Node pos="l" depth="4" NCoef="0" IVar="2" Cut="2.9054129028320312e+02" cType="1" res="2.5605149567127228e-02" rms="4.8328700661659241e-01" purity="5.5567604303359985e-01" nType="0">
                <Node pos="l" depth="5" NCoef="0" IVar="6" Cut="8.8867001235485077e-02" cType="1" res="3.3338524401187897e-02" rms="4.8318192362785339e-01" purity="5.7055133581161499e-01" nType="0">
                  <Node pos="l" depth="6" NCoef="0" IVar="2" Cut="8.5038131713867188e+01" cType="1" res="2.3034766316413879e-02" rms="4.8411107063293457e-01" purity="5.6362855434417725e-01" nType="0">
                    <Node pos="l" depth="7" NCoef="0" IVar="-1" Cut="0.0000000000000000e+00" cType="1" res="3.6349094007164240e-03" rms="4.8106381297111511e-01" purity="5.9618359804153442e-01" nType="-99"/>
                    <Node pos="r" depth="7" NCoef="0" IVar="-1" Cut="0.0000000000000000e+00" cType="1" res="4.0386457112617791e-04" rms="4.8606941103935242e-01" purity="5.3451555967330933e-01" nType="-99"/>
                  </Node>
                  <Node pos="r" depth="6" NCoef="0" IVar="-1" Cut="0.0000000000000000e+00" cType="1" res="5.7207695208489895e-03" rms="4.7796761989593506e-01" purity="5.9554380178451538e-01" nType="-99"/>
                </Node>
                <Node pos="r" depth="5" NCoef="0" IVar="-1" Cut="0.0000000000000000e+00" cType="1" res="-9.1456517111510038e-04" rms="4.8218986392021179e-01" purity="4.8766756057739258e-01" nType="-99"/>
              </Node>
              <Node pos="r" depth="4" NCoef="0" IVar="3" Cut="6.3657468557357788e-01" cType="1" res="-1.5306938439607620e-02" rms="4.7170439362525940e-01" purity="3.7783405184745789e-01" nType="0">
                <Node pos="l" depth="5" NCoef="0" IVar="-1" Cut="0.0000000000000000e+00" cType="1" res="-2.6946223806589842e-03" rms="4.5954182744026184e-01" purity="3.3475390076637268e-01" nType="-99"/>
                <Node pos="r" depth="5" NCoef="0" IVar="-1" Cut="0.0000000000000000e+00" cType="1" res="-3.0969604267738760e-04" rms="4.8381811380386353e-01" purity="4.2291852831840515e-01" nType="-99"/>
              </Node>
            </Node>
          </Node>
          <Node pos="r" depth="2" NCoef="0" IVar="5" Cut="-1.2442203760147095e+00" cType="1" res="-3.9976984262466431e-02" rms="3.5176384449005127e-01" purity="1.9172063469886780e-01" nType="0">
            <Node pos="l" depth="3" NCoef="0" IVar="3" Cut="6.9685047864913940e-01" cType="1" res="-3.1724922358989716e-02" rms="3.8353326916694641e-01" purity="2.3775139451026917e-01" nType="0">
              <Node pos="l" depth="4" NCoef="0" IVar="5" Cut="-3.0997192859649658e+00" cType="1" res="-3.7484489381313324e-02" rms="3.6391702294349670e-01" purity="1.9076207280158997e-01" nType="0">
                <Node pos="l" depth="5" NCoef="0" IVar="3" Cut="2.7633234858512878e-01" cType="1" res="-5.9804856777191162e-02" rms="2.9560297727584839e-01" purity="1.0812030732631683e-01" nType="0">
                  <Node pos="l" depth="6" NCoef="0" IVar="-1" Cut="0.0000000000000000e+00" cType="1" res="-1.0296382009983063e-02" rms="2.5873729586601257e-01" purity="7.7526181936264038e-02" nType="-99"/>
                  <Node pos="r" depth="6" NCoef="0" IVar="-1" Cut="0.0000000000000000e+00" cType="1" res="-1.3014763593673706e-02" rms="3.1214371323585510e-01" purity="1.2383509427309036e-01" nType="-99"/>
                </Node>
                <Node pos="r" depth="5" NCoef="0" IVar="3" Cut="2.7068078517913818e-01" cType="1" res="-3.1886521726846695e-02" rms="3.7891823053359985e-01" purity="2.1148867905139923e-01" nType="0">
                  <Node pos="l" depth="6" NCoef="0" IVar="7" Cut="7.0000000000000000e+00" cType="1" res="0.0000000000000000e+00" rms="0.0000000000000000e+00" purity="7.2591900825500488e-02" nType="0">
                    <Node pos="l" depth="7" NCoef="0" IVar="-1" Cut="0.0000000000000000e+00" cType="1" res="-7.5093647465109825e-03" rms="3.0204033851623535e-01" purity="1.0815059393644333e-01" nType="-99"/>
                    <Node pos="r" depth="7" NCoef="0" IVar="-1" Cut="0.0000000000000000e+00" cType="1" res="-2.1976565942168236e-02" rms="1.9747485220432281e-01" purity="4.1504602879285812e-02" nType="-99"/>
                  </Node>
                  <Node pos="r" depth="6" NCoef="0" IVar="1" Cut="1.0075515508651733e+00" cType="1" res="-2.6306435465812683e-02" rms="4.0520036220550537e-01" purity="2.4764144420623779e-01" nType="0">
                    <Node pos="l" depth="7" NCoef="0" IVar="-1" Cut="0.0000000000000000e+00" cType="1" res="-2.3880067747086287e-03" rms="4.1492253541946411e-01" purity="2.6600655913352966e-01" nType="-99"/>
                    <Node pos="r" depth="7" NCoef="0" IVar="-1" Cut="0.0000000000000000e+00" cType="1" res="-9.7011672332882881e-03" rms="3.5740733146667480e-01" purity="1.6700105369091034e-01" nType="-99"/>
                  </Node>
                </Node>
              </Node>
              <Node pos="r" depth="4" NCoef="0" IVar="7" Cut="3.0000000000000000e+00" cType="1" res="5.7412753812968731e-03" rms="4.8831012845039368e-01" purity="5.3751420974731445e-01" nType="0">
                <Node pos="l" depth="5" NCoef="0" IVar="-1" Cut="0.0000000000000000e+00" cType="1" res="-1.2197061441838741e-03" rms="4.9017810821533203e-01" purity="4.9207416176795959e-01" nType="-99"/>
                <Node pos="r" depth="5" NCoef="0" IVar="-1" Cut="0.0000000000000000e+00" cType="1" res="1.8639996415004134e-03" rms="4.8731079697608948e-01" purity="5.7533496618270874e-01" nType="-99"/>
              </Node>
            </Node>
            <Node pos="r" depth="3" NCoef="0" IVar="3" Cut="6.4716082811355591e-01" cType="1" res="-5.6183718144893646e-02" rms="2.7832227945327759e-01" purity="1.0131799429655075e-01" nType="0">
              <Node pos="l" depth="4" NCoef="0" IVar="4" Cut="9.0485650300979614e-01" cType="1" res="-5.2319917827844620e-02" rms="2.4818286299705505e-01" purity="7.4375636875629425e-02" nType="0">
                <Node pos="l" depth="5" NCoef="0" IVar="4" Cut="1.1384629458189011e-01" cType="1" res="-4.0905199944972992e-02" rms="3.2763200998306274e-01" purity="1.3685153424739838e-01" nType="0">
                  <Node pos="l" depth="6" NCoef="0" IVar="-1" Cut="0.0000000000000000e+00" cType="1" res="-3.4312077332288027e-03" rms="3.5789412260055542e-01" purity="1.6930328309535980e-01" nType="-99"/>
                  <Node pos="r" depth="6" NCoef="0" IVar="-1" Cut="0.0000000000000000e+00" cType="1" res="-1.1058513075113297e-02" rms="3.0386716127395630e-01" purity="1.1425303667783737e-01" nType="-99"/>
                </Node>
                <Node pos="r" depth="5" NCoef="0" IVar="3" Cut="3.8407418131828308e-01" cType="1" res="-5.7750318199396133e-02" rms="1.9934709370136261e-01" purity="4.4653587043285370e-02" nType="0">
                  <Node pos="l" depth="6" NCoef="0" IVar="6" Cut="1.4660933613777161e-01" cType="1" res="-4.9638636410236359e-02" rms="1.7598044872283936e-01" purity="3.3990275114774704e-02" nType="0">
                    <Node pos="l" depth="7" NCoef="0" IVar="-1" Cut="0.0000000000000000e+00" cType="1" res="-2.4857703596353531e-02" rms="1.2014336884021759e-01" purity="1.4782249927520752e-02" nType="-99"/>
                    <Node pos="r" depth="7" NCoef="0" IVar="-1" Cut="0.0000000000000000e+00" cType="1" res="-1.0750082321465015e-02" rms="2.5300252437591553e-01" purity="7.2670817375183105e-02" nType="-99"/>
                  </Node>
                  <Node pos="r" depth="6" NCoef="0" IVar="-1" Cut="0.0000000000000000e+00" cType="1" res="-1.6729284077882767e-02" rms="2.3651617765426636e-01" purity="6.4787656068801880e-02" nType="-99"/>
                </Node>
              </Node>
              <Node pos="r" depth="4" NCoef="0" IVar="-1" Cut="0.0000000000000000e+00" cType="1" res="-8.5937194526195526e-03" rms="4.4544839859008789e-01" purity="3.0838304758071899e-01" nType="-99"/>
            </Node>
          </Node>
        </Node>
        <Node pos="r" depth="1" NCoef="0" IVar="5" Cut="-8.5891050100326538e-01" cType="1" res="4.5173086225986481e-02" rms="4.2540365457534790e-01" purity="7.3747038841247559e-01" nType="0">
          <Node pos="l" depth="2" NCoef="0" IVar="7" Cut="2.0000000000000000e+00" cType="1" res="4.9839135259389877e-02" rms="4.1987514495849609e-01" purity="7.5568765401840210e-01" nType="0">
            <Node pos="l" depth="3" NCoef="0" IVar="5" Cut="-2.7392151355743408e+00" cType="1" res="5.9594433754682541e-02" rms="3.9969399571418762e-01" purity="7.9131811857223511e-01" nType="0">
              <Node pos="l" depth="4" NCoef="0" IVar="4" Cut="-1.0647424459457397e+00" cType="1" res="7.1623690426349640e-02" rms="3.7511846423149109e-01" purity="8.2524520158767700e-01" nType="0">
                <Node pos="l" depth="5" NCoef="0" IVar="1" Cut="-2.2259619086980820e-02" cType="1" res="4.6060640364885330e-02" rms="4.2089381814002991e-01" purity="7.6207190752029419e-01" nType="0">
                  <Node pos="l" depth="6" NCoef="0" IVar="-1" Cut="0.0000000000000000e+00" cType="1" res="4.9688774161040783e-03" rms="4.0606454014778137e-01" purity="7.8857660293579102e-01" nType="-99"/>
                  <Node pos="r" depth="6" NCoef="0" IVar="-1" Cut="0.0000000000000000e+00" cType="1" res="3.2670293003320694e-03" rms="4.3110784888267517e-01" purity="7.4296957254409790e-01" nType="-99"/>
                </Node>
                <Node pos="r" depth="5" NCoef="0" IVar="3" Cut="9.8554372787475586e-01" cType="1" res="7.9274229705333710e-02" rms="3.5993698239326477e-01" purity="8.4415173530578613e-01" nType="0">
                  <Node pos="l" depth="6" NCoef="0" IVar="-1" Cut="0.0000000000000000e+00" cType="1" res="6.5246000885963440e-03" rms="3.8310688734054565e-01" purity="8.1711983680725098e-01" nType="-99"/>
                  <Node pos="r" depth="6" NCoef="0" IVar="4" Cut="1.2528519146144390e-02" cType="1" res="8.1861950457096100e-02" rms="3.5590612888336182e-01" purity="8.4860795736312866e-01" nType="0">
                    <Node pos="l" depth="7" NCoef="0" IVar="-1" Cut="0.0000000000000000e+00" cType="1" res="8.9616999030113220e-03" rms="3.5254058241844177e-01" purity="8.5214734077453613e-01" nType="-99"/>
                    <Node pos="r" depth="7" NCoef="0" IVar="-1" Cut="0.0000000000000000e+00" cType="1" res="7.5724232010543346e-03" rms="3.6962300539016724e-01" purity="8.3350032567977905e-01" nType="-99"/>
                  </Node>
                </Node>
              </Node>
              <Node pos="r" depth="4" NCoef="0" IVar="5" Cut="-1.3443356752395630e+00" cType="1" res="4.7853153198957443e-02" rms="4.2197367548942566e-01" purity="7.5820326805114746e-01" nType="0">
                <Node pos="l" depth="5" NCoef="0" IVar="3" Cut="9.7339642047882080e-01" cType="1" res="5.1029115915298462e-02" rms="4.1692551970481873e-01" purity="7.6807743310928345e-01" nType="0">
                  <Node pos="l" depth="6" NCoef="0" IVar="-1" Cut="0.0000000000000000e+00" cType="1" res="1.8773166229948401e-03" rms="4.4251427054405212e-01" purity="7.2581410408020020e-01" nType="-99"/>
                  <Node pos="r" depth="6" NCoef="0" IVar="1" Cut="-9.5076404511928558e-02" cType="1" res="5.4355364292860031e-02" rms="4.1392517089843750e-01" purity="7.7265030145645142e-01" nType="0">
                    <Node pos="l" depth="7" NCoef="0" IVar="-1" Cut="0.0000000000000000e+00" cType="1" res="6.2609482556581497e-03" rms="3.9827761054039001e-01" purity="7.9885995388031006e-01" nType="-99"/>
                    <Node pos="r" depth="7" NCoef="0" IVar="-1" Cut="0.0000000000000000e+00" cType="1" res="4.6614692546427250e-03" rms="4.2009472846984863e-01" purity="7.6187664270401001e-01" nType="-99"/>
                  </Node>
                </Node>
                <Node pos="r" depth="5" NCoef="0" IVar="-1" Cut="0.0000000000000000e+00" cType="1" res="1.3522426597774029e-03" rms="4.6918016672134399e-01" purity="6.5742605924606323e-01" nType="-99"/>
              </Node>
            </Node>
            <Node pos="r" depth="3" NCoef="0" IVar="1" Cut="4.8326480388641357e-01" cType="1" res="3.3266600221395493e-02" rms="4.5135286450386047e-01" purity="6.9604068994522095e-01" nType="0">
              <Node pos="l" depth="4" NCoef="0" IVar="2" Cut="1.7370501708984375e+02" cType="1" res="4.0459580719470978e-02" rms="4.4505724310874939e-01" purity="7.1544188261032104e-01" nType="0">
                <Node pos="l" depth="5" NCoef="0" IVar="3" Cut="8.7546968460083008e-01" cType="1" res="4.5361205935478210e-02" rms="4.4081446528434753e-01" purity="7.2516185045242310e-01" nType="0">
                  <Node pos="l" depth="6" NCoef="0" IVar="6" Cut="4.1729439049959183e-02" cType="1" res="3.4972604364156723e-02" rms="4.5305308699607849e-01" purity="7.0096737146377563e-01" nType="0">
                    <Node pos="l" depth="7" NCoef="0" IVar="-1" Cut="0.0000000000000000e+00" cType="1" res="1.4930811012163758e-03" rms="4.5898661017417908e-01" purity="6.8483954668045044e-01" nType="-99"/>
                    <Node pos="r" depth="7" NCoef="0" IVar="-1" Cut="0.0000000000000000e+00" cType="1" res="5.1256646402180195e-03" rms="4.4304457306861877e-01" purity="7.2406417131423950e-01" nType="-99"/>
                  </Node>
                  <Node pos="r" depth="6" NCoef="0" IVar="5" Cut="-2.7408256530761719e+00" cType="1" res="6.6467680037021637e-02" rms="4.1403684020042419e-01" purity="7.7431768178939819e-01" nType="0">
                    <Node pos="l" depth="7" NCoef="0" IVar="-1" Cut="0.0000000000000000e+00" cType="1" res="9.8661640658974648e-03" rms="3.7780204415321350e-01" purity="8.2605344057083130e-01" nType="-99"/>
                    <Node pos="r" depth="7" NCoef="0" IVar="-1" Cut="0.0000000000000000e+00" cType="1" res="5.6263394653797150e-03" rms="4.3124815821647644e-01" purity="7.4736875295639038e-01" nType="-99"/>
                  </Node>
                </Node>
                <Node pos="r" depth="5" NCoef="0" IVar="3" Cut="8.3752906322479248e-01" cType="1" res="1.5460900962352753e-02" rms="4.6529284119606018e-01" purity="6.6586899757385254e-01" nType="0">
                  <Node pos="l" depth="6" NCoef="0" IVar="-1" Cut="0.0000000000000000e+00" cType="1" res="2.7917001862078905e-03" rms="4.6858701109886169e-01" purity="6.6564935445785522e-01" nType="-99"/>
                  <Node pos="r" depth="6" NCoef="0" IVar="-1" Cut="0.0000000000000000e+00" cType="1" res="-1.7852550081443042e-04" rms="4.6081063151359558e-01" purity="6.6612601280212402e-01" nType="-99"/>
                </Node>
              </Node>
              <Node pos="r" depth="4" NCoef="0" IVar="4" Cut="-1.6921883821487427e+00" cType="1" res="-7.2507211007177830e-03" rms="4.8329630494117737e-01" purity="5.8675622940063477e-01" nType="0">
                <Node pos="l" depth="5" NCoef="0" IVar="-1" Cut="0.0000000000000000e+00" cType="1" res="3.2730741077102721e-04" rms="4.7901880741119385e-01" purity="6.1742520332336426e-01" nType="-99"/>
                <Node pos="r" depth="5" NCoef="0" IVar="-1" Cut="0.0000000000000000e+00" cType="1" res="-2.0116094965487719e-03" rms="4.8895645141601562e-01" purity="5.4253411293029785e-01" nType="-99"/>
              </Node>
            </Node>
          </Node>
          <Node pos="r" depth="2" NCoef="0" IVar="5" Cut="-2.0492126047611237e-01" cType="1" res="-1.4260739088058472e-02" rms="4.8686701059341431e-01" purity="5.0084352493286133e-01" nType="0">
            <Node pos="l" depth="3" NCoef="0" IVar="3" Cut="9.5759385824203491e-01" cType="1" res="4.4137849472463131e-03" rms="4.9183356761932373e-01" purity="5.5442678928375244e-01" nType="0">
              <Node pos="l" depth="4" NCoef="0" IVar="-1" Cut="0.0000000000000000e+00" cType="1" res="1.3213047059252858e-03" rms="4.9311897158622742e-01" purity="5.4258203506469727e-01" nType="-99"/>
              <Node pos="r" depth="4" NCoef="0" IVar="-1" Cut="0.0000000000000000e+00" cType="1" res="-6.2174507183954120e-04" rms="4.9019354581832886e-01" purity="5.6709015369415283e-01" nType="-99"/>
            </Node>
            <Node pos="r" depth="3" NCoef="0" IVar="-1" Cut="0.0000000000000000e+00" cType="1" res="-4.5434930361807346e-03" rms="4.7554486989974976e-01" purity="4.0117567777633667e-01" nType="-99"/>
          </Node>
        </Node>
      </Node>
    </BinaryTree>
    <BinaryTree type="DecisionTree" boostWeight="1.0000000000000000e+00" itree="44">
      <Node pos="s" depth="0" NCoef="0" IVar="3" Cut="6.7521965503692627e-01" cType="1" res="1.3627821579575539e-02" rms="4.0872901678085327e-01" purity="5.0325524806976318e-01" nType="0">
        <Node pos="l" depth="1" NCoef="0" IVar="3" Cut="5.0116175413131714e-01" cType="1" res="-2.5204118341207504e-02" rms="3.6376577615737915e-01" purity="1.9940029084682465e-01" nType="0">
          <Node pos="l" depth="2" NCoef="0" IVar="6" Cut="1.1743576824665070e-01" cType="1" res="-3.3690158277750015e-02" rms="2.9975172877311707e-01" purity="1.1161261796951294e-01" nType="0">
            <Node pos="l" depth="3" NCoef="0" IVar="2" Cut="6.8547851562500000e+01" cType="1" res="-4.6172335743904114e-02" rms="2.5205320119857788e-01" purity="7.3414355516433716e-02" nType="0">
              <Node pos="l" depth="4" NCoef="0" IVar="6" Cut="3.3786006271839142e-02" cType="1" res="-2.3828873410820961e-02" rms="2.9296398162841797e-01" purity="1.0245470702648163e-01" nType="0">
                <Node pos="l" depth="5" NCoef="0" IVar="-1" Cut="0.0000000000000000e+00" cType="1" res="-1.3778877444565296e-02" rms="2.5166735053062439e-01" purity="7.1332134306430817e-02" nType="-99"/>
                <Node pos="r" depth="5" NCoef="0" IVar="-1" Cut="0.0000000000000000e+00" cType="1" res="6.9614819949492812e-05" rms="3.2383501529693604e-01" purity="1.3050009310245514e-01" nType="-99"/>
              </Node>
              <Node pos="r" depth="4" NCoef="0" IVar="4" Cut="-1.6108394861221313e+00" cType="1" res="-5.0942149013280869e-02" rms="2.4216024577617645e-01" purity="6.7214913666248322e-02" nType="0">
                <Node pos="l" depth="5" NCoef="0" IVar="-1" Cut="0.0000000000000000e+00" cType="1" res="-6.5106200054287910e-03" rms="3.0604404211044312e-01" purity="1.1218188703060150e-01" nType="-99"/>
                <Node pos="r" depth="5" NCoef="0" IVar="7" Cut="4.0000000000000000e+00" cType="1" res="-5.3661532700061798e-02" rms="2.3359918594360352e-01" purity="6.2078066170215607e-02" nType="0">
                  <Node pos="l" depth="6" NCoef="0" IVar="-1" Cut="0.0000000000000000e+00" cType="1" res="-1.7472911626100540e-02" rms="2.4272871017456055e-01" purity="6.5026178956031799e-02" nType="-99"/>
                  <Node pos="r" depth="6" NCoef="0" IVar="6" Cut="9.0301617980003357e-02" cType="1" res="-5.0713937729597092e-02" rms="2.3172511160373688e-01" purity="6.1524279415607452e-02" nType="0">
                    <Node pos="l" depth="7" NCoef="0" IVar="-1" Cut="0.0000000000000000e+00" cType="1" res="-1.6454508528113365e-02" rms="2.1239390969276428e-01" purity="5.0471313297748566e-02" nType="-99"/>
                    <Node pos="r" depth="7" NCoef="0" IVar="-1" Cut="0.0000000000000000e+00" cType="1" res="-1.0611450299620628e-02" rms="2.6298320293426514e-01" purity="8.1659235060214996e-02" nType="-99"/>
                  </Node>
                </Node>
              </Node>
            </Node>
            <Node pos="r" depth="3" NCoef="0" IVar="6" Cut="2.3074807226657867e-01" cType="1" res="-2.0303444936871529e-02" rms="3.4312155842781067e-01" purity="1.5257894992828369e-01" nType="0">
              <Node pos="l" depth="4" NCoef="0" IVar="4" Cut="2.3601691722869873e+00" cType="1" res="-2.7365306392312050e-02" rms="3.2441964745521545e-01" purity="1.3452030718326569e-01" nType="0">
                <Node pos="l" depth="5" NCoef="0" IVar="3" Cut="3.5586753487586975e-01" cType="1" res="-2.0904202014207840e-02" rms="3.5037150979042053e-01" purity="1.5856589376926422e-01" nType="0">
                  <Node pos="l" depth="6" NCoef="0" IVar="7" Cut="5.0000000000000000e+00" cType="1" res="8.6236447095870972e-02" rms="1.6959911584854126e-01" purity="9.9042624235153198e-02" nType="0">
                    <Node pos="l" depth="7" NCoef="0" IVar="-1" Cut="0.0000000000000000e+00" cType="1" res="-8.9757268142420799e-05" rms="3.6432296037673950e-01" purity="1.6615192592144012e-01" nType="-99"/>
                    <Node pos="r" depth="7" NCoef="0" IVar="-1" Cut="0.0000000000000000e+00" cType="1" res="-1.2770648114383221e-02" rms="2.6047906279563904e-01" purity="7.5670346617698669e-02" nType="-99"/>
                  </Node>
                  <Node pos="r" depth="6" NCoef="0" IVar="6" Cut="1.4301431179046631e-01" cType="1" res="-3.4022773616015911e-03" rms="4.1170683503150940e-01" purity="2.3315881192684174e-01" nType="0">
                    <Node pos="l" depth="7" NCoef="0" IVar="-1" Cut="0.0000000000000000e+00" cType="1" res="-5.5534252896904945e-03" rms="3.7432247400283813e-01" purity="1.8080483376979828e-01" nType="-99"/>
                    <Node pos="r" depth="7" NCoef="0" IVar="-1" Cut="0.0000000000000000e+00" cType="1" res="2.1067715715616941e-03" rms="4.3160593509674072e-01" purity="2.6478031277656555e-01" nType="-99"/>
                  </Node>
                </Node>
                <Node pos="r" depth="5" NCoef="0" IVar="-1" Cut="0.0000000000000000e+00" cType="1" res="-2.1242124959826469e-02" rms="1.5863253176212311e-01" purity="2.5985082611441612e-02" nType="-99"/>
              </Node>
              <Node pos="r" depth="4" NCoef="0" IVar="7" Cut="6.0000000000000000e+00" cType="1" res="1.5969067811965942e-01" rms="0.0000000000000000e+00" purity="2.1466520428657532e-01" nType="0">
                <Node pos="l" depth="5" NCoef="0" IVar="-1" Cut="0.0000000000000000e+00" cType="1" res="4.4144652783870697e-03" rms="4.3881574273109436e-01" purity="2.8546127676963806e-01" nType="-99"/>
                <Node pos="r" depth="5" NCoef="0" IVar="-1" Cut="0.0000000000000000e+00" cType="1" res="-2.7068825438618660e-03" rms="3.7180128693580627e-01" purity="1.6969752311706543e-01" nType="-99"/>
              </Node>
            </Node>
          </Node>
          <Node pos="r" depth="2" NCoef="0" IVar="2" Cut="1.5582026672363281e+02" cType="1" res="-9.6815703436732292e-03" rms="4.5787176489830017e-01" purity="3.5998028516769409e-01" nType="0">
            <Node pos="l" depth="3" NCoef="0" IVar="6" Cut="5.6216780096292496e-02" cType="1" res="9.5577007159590721e-03" rms="4.6541899442672729e-01" purity="3.9106395840644836e-01" nType="0">
              <Node pos="l" depth="4" NCoef="0" IVar="2" Cut="7.0584907531738281e+01" cType="1" res="-2.3110529407858849e-02" rms="4.5206162333488464e-01" purity="3.3271148800849915e-01" nType="0">
                <Node pos="l" depth="5" NCoef="0" IVar="-1" Cut="0.0000000000000000e+00" cType="1" res="1.1671677930280566e-04" rms="4.6591076254844666e-01" purity="3.6897924542427063e-01" nType="-99"/>
                <Node pos="r" depth="5" NCoef="0" IVar="-1" Cut="0.0000000000000000e+00" cType="1" res="-6.4625698141753674e-03" rms="4.2921063303947449e-01" purity="2.8105938434600830e-01" nType="-99"/>
              </Node>
              <Node pos="r" depth="4" NCoef="0" IVar="7" Cut="4.0000000000000000e+00" cType="1" res="4.1093066334724426e-02" rms="4.7313421964645386e-01" purity="4.4528964161872864e-01" nType="0">
                <Node pos="l" depth="5" NCoef="0" IVar="2" Cut="9.9126777648925781e+01" cType="1" res="1.7814373597502708e-02" rms="4.7447359561920166e-01" purity="4.2005985975265503e-01" nType="0">
                  <Node pos="l" depth="6" NCoef="0" IVar="-1" Cut="0.0000000000000000e+00" cType="1" res="2.7290598955005407e-03" rms="4.7847530245780945e-01" purity="4.3704834580421448e-01" nType="-99"/>
                  <Node pos="r" depth="6" NCoef="0" IVar="-1" Cut="0.0000000000000000e+00" cType="1" res="3.5559112438932061e-04" rms="4.6998652815818787e-01" purity="4.0293005108833313e-01" nType="-99"/>
                </Node>
                <Node pos="r" depth="5" NCoef="0" IVar="-1" Cut="0.0000000000000000e+00" cType="1" res="6.5618474036455154e-03" rms="4.7514614462852478e-01" purity="4.8159214854240417e-01" nType="-99"/>
              </Node>
            </Node>
            <Node pos="r" depth="3" NCoef="0" IVar="4" Cut="3.3032964915037155e-02" cType="1" res="-2.6810156181454659e-02" rms="4.5035523176193237e-01" purity="3.3230677247047424e-01" nType="0">
              <Node pos="l" depth="4" NCoef="0" IVar="0" Cut="3.6567077040672302e-01" cType="1" res="-1.4304462820291519e-02" rms="4.7047516703605652e-01" purity="3.7888440489768982e-01" nType="0">
                <Node pos="l" depth="5" NCoef="0" IVar="3" Cut="6.1343902349472046e-01" cType="1" res="1.8637094763107598e-04" rms="4.9229493737220764e-01" purity="4.5832994580268860e-01" nType="0">
                  <Node pos="l" depth="6" NCoef="0" IVar="-1" Cut="0.0000000000000000e+00" cType="1" res="-1.7628795467317104e-03" rms="4.8740944266319275e-01" purity="4.0502461791038513e-01" nType="-99"/>
                  <Node pos="r" depth="6" NCoef="0" IVar="-1" Cut="0.0000000000000000e+00" cType="1" res="1.9020726904273033e-03" rms="4.9697342514991760e-01" purity="5.1968032121658325e-01" nType="-99"/>
                </Node>
                <Node pos="r" depth="5" NCoef="0" IVar="2" Cut="2.5698300170898438e+02" cType="1" res="-3.1230676919221878e-02" rms="4.4303175806999207e-01" purity="2.8608706593513489e-01" nType="0">
                  <Node pos="l" depth="6" NCoef="0" IVar="-1" Cut="0.0000000000000000e+00" cType="1" res="-2.0328168757259846e-03" rms="4.4743794202804565e-01" purity="2.9804214835166931e-01" nType="-99"/>
                  <Node pos="r" depth="6" NCoef="0" IVar="-1" Cut="0.0000000000000000e+00" cType="1" res="-4.8543293960392475e-03" rms="4.3884640932083130e-01" purity="2.7568399906158447e-01" nType="-99"/>
                </Node>
              </Node>
              <Node pos="r" depth="4" NCoef="0" IVar="7" Cut="4.0000000000000000e+00" cType="1" res="-5.0182785838842392e-02" rms="4.0868687629699707e-01" purity="2.4477192759513855e-01" nType="0">
                <Node pos="l" depth="5" NCoef="0" IVar="-1" Cut="0.0000000000000000e+00" cType="1" res="-8.3165084943175316e-03" rms="3.9924654364585876e-01" purity="2.2625614702701569e-01" nType="-99"/>
                <Node pos="r" depth="5" NCoef="0" IVar="-1" Cut="0.0000000000000000e+00" cType="1" res="-3.9960760623216629e-03" rms="4.1840031743049622e-01" purity="2.6499778032302856e-01" nType="-99"/>
              </Node>
            </Node>
          </Node>
        </Node>
        <Node pos="r" depth="1" NCoef="0" IVar="4" Cut="1.1901841163635254e+00" cType="1" res="3.9828173816204071e-02" rms="4.3450072407722473e-01" purity="7.0826959609985352e-01" nType="0">
          <Node pos="l" depth="2" NCoef="0" IVar="1" Cut="1.1755354404449463e+00" cType="1" res="4.3079875409603119e-02" rms="4.3361079692840576e-01" purity="7.1725064516067505e-01" nType="0">
            <Node pos="l" depth="3" NCoef="0" IVar="2" Cut="1.7538034057617188e+02" cType="1" res="4.6105593442916870e-02" rms="4.3157538771629333e-01" purity="7.2399389743804932e-01" nType="0">
              <Node pos="l" depth="4" NCoef="0" IVar="3" Cut="9.7300243377685547e-01" cType="1" res="5.0467479974031448e-02" rms="4.2543536424636841e-01" purity="7.4007052183151245e-01" nType="0">
                <Node pos="l" depth="5" NCoef="0" IVar="6" Cut="4.1540287435054779e-02" cType="1" res="3.7818711251020432e-02" rms="4.5395204424858093e-01" purity="6.8107980489730835e-01" nType="0">
                  <Node pos="l" depth="6" NCoef="0" IVar="3" Cut="8.3853143453598022e-01" cType="1" res="2.4362929165363312e-02" rms="4.5158508419990540e-01" purity="6.8321329355239868e-01" nType="0">
                    <Node pos="l" depth="7" NCoef="0" IVar="-1" Cut="0.0000000000000000e+00" cType="1" res="2.8662416298175231e-05" rms="4.8061129450798035e-01" purity="5.9403264522552490e-01" nType="-99"/>
                    <Node pos="r" depth="7" NCoef="0" IVar="-1" Cut="0.0000000000000000e+00" cType="1" res="3.6940816789865494e-03" rms="4.3433427810668945e-01" purity="7.3197305202484131e-01" nType="-99"/>
                  </Node>
                  <Node pos="r" depth="6" NCoef="0" IVar="1" Cut="3.2254043221473694e-01" cType="1" res="6.2664724886417389e-02" rms="4.5725104212760925e-01" purity="6.7714041471481323e-01" nType="0">
                    <Node pos="l" depth="7" NCoef="0" IVar="-1" Cut="0.0000000000000000e+00" cType="1" res="5.8895465917885303e-03" rms="4.5182326436042786e-01" purity="6.9604784250259399e-01" nType="-99"/>
                    <Node pos="r" depth="7" NCoef="0" IVar="-1" Cut="0.0000000000000000e+00" cType="1" res="1.7922037513926625e-03" rms="4.8083770275115967e-01" purity="5.8482736349105835e-01" nType="-99"/>
                  </Node>
                </Node>
                <Node pos="r" depth="5" NCoef="0" IVar="0" Cut="2.6235932111740112e-01" cType="1" res="6.1602577567100525e-02" rms="3.9831414818763733e-01" purity="7.9200190305709839e-01" nType="0">
                  <Node pos="l" depth="6" NCoef="0" IVar="4" Cut="-1.0156053304672241e+00" cType="1" res="6.6021606326103210e-02" rms="3.9322867989540100e-01" purity="8.0188304185867310e-01" nType="0">
                    <Node pos="l" depth="7" NCoef="0" IVar="-1" Cut="0.0000000000000000e+00" cType="1" res="4.1533065959811211e-03" rms="4.2665755748748779e-01" purity="7.5449407100677490e-01" nType="-99"/>
                    <Node pos="r" depth="7" NCoef="0" IVar="-1" Cut="0.0000000000000000e+00" cType="1" res="7.2637470439076424e-03" rms="3.8298004865646362e-01" purity="8.1545788049697876e-01" nType="-99"/>
                  </Node>
                  <Node pos="r" depth="6" NCoef="0" IVar="-1" Cut="0.0000000000000000e+00" cType="1" res="-1.2719025835394859e-03" rms="4.7105738520622253e-01" purity="6.2169802188873291e-01" nType="-99"/>
                </Node>
              </Node>
              <Node pos="r" depth="4" NCoef="0" IVar="4" Cut="-4.5544320344924927e-01" cType="1" res="1.0614849627017975e-02" rms="4.7713539004325867e-01" purity="5.9318542480468750e-01" nType="0">
                <Node pos="l" depth="5" NCoef="0" IVar="1" Cut="2.8027266263961792e-01" cType="1" res="2.6268551126122475e-02" rms="4.7285929322242737e-01" purity="6.2863796949386597e-01" nType="0">
                  <Node pos="l" depth="6" NCoef="0" IVar="3" Cut="8.0949914455413818e-01" cType="1" res="3.4456975758075714e-02" rms="4.6933773159980774e-01" purity="6.5212363004684448e-01" nType="0">
                    <Node pos="l" depth="7" NCoef="0" IVar="-1" Cut="0.0000000000000000e+00" cType="1" res="3.9402595721185207e-03" rms="4.7513303160667419e-01" purity="6.3514238595962524e-01" nType="-99"/>
                    <Node pos="r" depth="7" NCoef="0" IVar="-1" Cut="0.0000000000000000e+00" cType="1" res="1.7859570216387510e-03" rms="4.5918956398963928e-01" purity="6.8004041910171509e-01" nType="-99"/>
                  </Node>
                  <Node pos="r" depth="6" NCoef="0" IVar="-1" Cut="0.0000000000000000e+00" cType="1" res="4.8450764734297991e-04" rms="4.8109620809555054e-01" purity="5.6871956586837769e-01" nType="-99"/>
                </Node>
                <Node pos="r" depth="5" NCoef="0" IVar="-1" Cut="0.0000000000000000e+00" cType="1" res="-3.6055813543498516e-03" rms="4.8701119422912598e-01" purity="4.8261517286300659e-01" nType="-99"/>
              </Node>
            </Node>
            <Node pos="r" depth="3" NCoef="0" IVar="3" Cut="9.7364240884780884e-01" cType="1" res="-2.6955334469676018e-02" rms="4.7293019294738770e-01" purity="5.6116664409637451e-01" nType="0">
              <Node pos="l" depth="4" NCoef="0" IVar="-1" Cut="0.0000000000000000e+00" cType="1" res="-4.5623620972037315e-03" rms="4.8156419396400452e-01" purity="4.8130685091018677e-01" nType="-99"/>
              <Node pos="r" depth="4" NCoef="0" IVar="-1" Cut="0.0000000000000000e+00" cType="1" res="1.6594347835052758e-04" rms="4.6124693751335144e-01" purity="6.5170949697494507e-01" nType="-99"/>
            </Node>
          </Node>
          <Node pos="r" depth="2" NCoef="0" IVar="-1" Cut="0.0000000000000000e+00" cType="1" res="-8.5110245272517204e-03" rms="4.4989752769470215e-01" purity="3.5561698675155640e-01" nType="-99"/>
        </Node>
      </Node>
    </BinaryTree>
    <BinaryTree type="DecisionTree" boostWeight="1.0000000000000000e+00" itree="45">
      <Node pos="s" depth="0" NCoef="0" IVar="3" Cut="6.6849672794342041e-01" cType="1" res="9.9798664450645447e-03" rms="4.0915158390998840e-01" purity="4.9870717525482178e-01" nType="0">
        <Node pos="l" depth="1" NCoef="0" IVar="4" Cut="9.0485650300979614e-01" cType="1" res="-2.6652840897440910e-02" rms="3.5956570506095886e-01" purity="1.9222205877304077e-01" nType="0">
          <Node pos="l" depth="2" NCoef="0" IVar="6" Cut="1.0713616758584976e-01" cType="1" res="-2.0473578944802284e-02" rms="3.8990780711174011e-01" purity="2.3204031586647034e-01" nType="0">
            <Node pos="l" depth="3" NCoef="0" IVar="2" Cut="1.2038014984130859e+02" cType="1" res="-2.9347917065024376e-02" rms="3.7927195429801941e-01" purity="2.2103445231914520e-01" nType="0">
              <Node pos="l" depth="4" NCoef="0" IVar="6" Cut="2.4542687460780144e-02" cType="1" res="-1.3055579736828804e-02" rms="3.9751705527305603e-01" purity="2.5611066818237305e-01" nType="0">
                <Node pos="l" depth="5" NCoef="0" IVar="-1" Cut="0.0000000000000000e+00" cType="1" res="-8.2601504400372505e-03" rms="3.6549088358879089e-01" purity="1.8894448876380920e-01" nType="-99"/>
                <Node pos="r" depth="5" NCoef="0" IVar="1" Cut="6.3944661617279053e-01" cType="1" res="-2.8720824047923088e-03" rms="4.0429720282554626e-01" purity="2.7250614762306213e-01" nType="0">
                  <Node pos="l" depth="6" NCoef="0" IVar="3" Cut="4.7466969490051270e-01" cType="1" res="1.3881035149097443e-02" rms="4.3488326668739319e-01" purity="3.3065003156661987e-01" nType="0">
                    <Node pos="l" depth="7" NCoef="0" IVar="-1" Cut="0.0000000000000000e+00" cType="1" res="-5.3118024952709675e-03" rms="3.1621780991554260e-01" purity="1.1838180571794510e-01" nType="-99"/>
                    <Node pos="r" depth="7" NCoef="0" IVar="-1" Cut="0.0000000000000000e+00" cType="1" res="2.9083651024848223e-03" rms="4.8094445466995239e-01" purity="4.3337151408195496e-01" nType="-99"/>
                  </Node>
                  <Node pos="r" depth="6" NCoef="0" IVar="-1" Cut="0.0000000000000000e+00" cType="1" res="-1.0382222943007946e-02" rms="3.0130258202552795e-01" purity="1.1431602388620377e-01" nType="-99"/>
                </Node>
              </Node>
              <Node pos="r" depth="4" NCoef="0" IVar="6" Cut="5.1814120262861252e-02" cType="1" res="-4.2727556079626083e-02" rms="3.6305832862854004e-01" purity="1.9222904741764069e-01" nType="0">
                <Node pos="l" depth="5" NCoef="0" IVar="-1" Cut="0.0000000000000000e+00" cType="1" res="-1.2224201112985611e-02" rms="3.2659652829170227e-01" purity="1.4239056408405304e-01" nType="-99"/>
                <Node pos="r" depth="5" NCoef="0" IVar="3" Cut="6.2617599964141846e-01" cType="1" res="-3.6302726715803146e-02" rms="3.6964586377143860e-01" purity="2.0228274166584015e-01" nType="0">
                  <Node pos="l" depth="6" NCoef="0" IVar="2" Cut="3.6228045654296875e+02" cType="1" res="-4.1696798056364059e-02" rms="3.4597897529602051e-01" purity="1.6319550573825836e-01" nType="0">
                    <Node pos="l" depth="7" NCoef="0" IVar="-1" Cut="0.0000000000000000e+00" cType="1" res="-6.0991500504314899e-03" rms="3.4912100434303284e-01" purity="1.6919769346714020e-01" nType="-99"/>
                    <Node pos="r" depth="7" NCoef="0" IVar="-1" Cut="0.0000000000000000e+00" cType="1" res="-1.1745856143534184e-02" rms="3.2869711518287659e-01" purity="1.3398104906082153e-01" nType="-99"/>
                  </Node>
                  <Node pos="r" depth="6" NCoef="0" IVar="-1" Cut="0.0000000000000000e+00" cType="1" res="-3.8888090057298541e-04" rms="4.8629587888717651e-01" purity="4.3550309538841248e-01" nType="-99"/>
                </Node>
              </Node>
            </Node>
            <Node pos="r" depth="3" NCoef="0" IVar="2" Cut="2.4640281677246094e+02" cType="1" res="-8.9941667392849922e-03" rms="4.0296012163162231e-01" purity="2.4627701938152313e-01" nType="0">
              <Node pos="l" depth="4" NCoef="0" IVar="3" Cut="4.3360573053359985e-01" cType="1" res="1.9792923703789711e-02" rms="4.2393079400062561e-01" purity="3.0350825190544128e-01" nType="0">
                <Node pos="l" depth="5" NCoef="0" IVar="-1" Cut="0.0000000000000000e+00" cType="1" res="-7.1846472565084696e-05" rms="3.6020725965499878e-01" purity="1.6636009514331818e-01" nType="-99"/>
                <Node pos="r" depth="5" NCoef="0" IVar="-1" Cut="0.0000000000000000e+00" cType="1" res="3.6846762523055077e-03" rms="4.8081123828887939e-01" purity="4.4714885950088501e-01" nType="-99"/>
              </Node>
              <Node pos="r" depth="4" NCoef="0" IVar="7" Cut="5.0000000000000000e+00" cType="1" res="1.5539729595184326e-01" rms="2.4573022127151489e-01" purity="2.2338569164276123e-01" nType="0">
                <Node pos="l" depth="5" NCoef="0" IVar="3" Cut="3.4525123238563538e-01" cType="1" res="-8.3896610885858536e-03" rms="4.3973886966705322e-01" purity="2.9940900206565857e-01" nType="0">
                  <Node pos="l" depth="6" NCoef="0" IVar="-1" Cut="0.0000000000000000e+00" cType="1" res="4.8395553603768349e-03" rms="4.2523732781410217e-01" purity="2.6113778352737427e-01" nType="-99"/>
                  <Node pos="r" depth="6" NCoef="0" IVar="5" Cut="-1.6760346889495850e+00" cType="1" res="-2.2463154047727585e-02" rms="4.4377103447914124e-01" purity="3.1263169646263123e-01" nType="0">
                    <Node pos="l" depth="7" NCoef="0" IVar="-1" Cut="0.0000000000000000e+00" cType="1" res="-8.0696376971900463e-04" rms="4.5581117272377014e-01" purity="3.4627500176429749e-01" nType="-99"/>
                    <Node pos="r" depth="7" NCoef="0" IVar="-1" Cut="0.0000000000000000e+00" cType="1" res="-6.9156056270003319e-03" rms="4.1554155945777893e-01" purity="2.4185137450695038e-01" nType="-99"/>
                  </Node>
                </Node>
                <Node pos="r" depth="5" NCoef="0" IVar="3" Cut="1.9354996085166931e-01" cType="1" res="-3.1728029251098633e-02" rms="3.4521061182022095e-01" purity="1.5300279855728149e-01" nType="0">
                  <Node pos="l" depth="6" NCoef="0" IVar="-1" Cut="0.0000000000000000e+00" cType="1" res="-1.5646608546376228e-02" rms="2.7968889474868774e-01" purity="9.0612746775150299e-02" nType="-99"/>
                  <Node pos="r" depth="6" NCoef="0" IVar="0" Cut="8.2720482349395752e-01" cType="1" res="-1.6069203615188599e-02" rms="3.6640536785125732e-01" purity="1.7731747031211853e-01" nType="0">
                    <Node pos="l" depth="7" NCoef="0" IVar="-1" Cut="0.0000000000000000e+00" cType="1" res="1.3080273056402802e-03" rms="4.2888924479484558e-01" purity="2.6102814078330994e-01" nType="-99"/>
                    <Node pos="r" depth="7" NCoef="0" IVar="-1" Cut="0.0000000000000000e+00" cType="1" res="-1.0050868615508080e-02" rms="2.8919595479965210e-01" purity="9.4221413135528564e-02" nType="-99"/>
                  </Node>
                </Node>
              </Node>
            </Node>
          </Node>
          <Node pos="r" depth="2" NCoef="0" IVar="6" Cut="9.3617394566535950e-02" cType="1" res="-4.4227130711078644e-02" rms="2.5336545705795288e-01" purity="7.8975930809974670e-02" nType="0">
            <Node pos="l" depth="3" NCoef="0" IVar="6" Cut="6.9726295769214630e-02" cType="1" res="-5.6699514389038086e-02" rms="2.2726623713970184e-01" purity="6.3479036092758179e-02" nType="0">
              <Node pos="l" depth="4" NCoef="0" IVar="3" Cut="4.1475105285644531e-01" cType="1" res="-6.5066367387771606e-02" rms="2.0881904661655426e-01" purity="5.1643952727317810e-02" nType="0">
                <Node pos="l" depth="5" NCoef="0" IVar="-1" Cut="0.0000000000000000e+00" cType="1" res="-2.3803036659955978e-02" rms="1.2521342933177948e-01" purity="1.6451682895421982e-02" nType="-99"/>
                <Node pos="r" depth="5" NCoef="0" IVar="-1" Cut="0.0000000000000000e+00" cType="1" res="-1.4553226530551910e-02" rms="2.8263959288597107e-01" purity="9.7826726734638214e-02" nType="-99"/>
              </Node>
              <Node pos="r" depth="4" NCoef="0" IVar="-1" Cut="0.0000000000000000e+00" cType="1" res="-1.1043430306017399e-02" rms="2.5230187177658081e-01" purity="8.1539615988731384e-02" nType="-99"/>
            </Node>
            <Node pos="r" depth="3" NCoef="0" IVar="4" Cut="1.9331870079040527e+00" cType="1" res="-3.5910289734601974e-02" rms="2.6904612779617310e-01" purity="8.9309565722942352e-02" nType="0">
              <Node pos="l" depth="4" NCoef="0" IVar="0" Cut="7.9437744617462158e-01" cType="1" res="-2.0778587087988853e-02" rms="3.3196806907653809e-01" purity="1.4673246443271637e-01" nType="0">
                <Node pos="l" depth="5" NCoef="0" IVar="-1" Cut="0.0000000000000000e+00" cType="1" res="1.2533931294456124e-03" rms="4.0366342663764954e-01" purity="2.3340243101119995e-01" nType="-99"/>
                <Node pos="r" depth="5" NCoef="0" IVar="-1" Cut="0.0000000000000000e+00" cType="1" res="-1.2527215294539928e-02" rms="2.5201785564422607e-01" purity="7.2261758148670197e-02" nType="-99"/>
              </Node>
              <Node pos="r" depth="4" NCoef="0" IVar="3" Cut="2.6413792371749878e-01" cType="1" res="-4.4361669570207596e-02" rms="2.2597546875476837e-01" purity="5.7237647473812103e-02" nType="0">
                <Node pos="l" depth="5" NCoef="0" IVar="-1" Cut="0.0000000000000000e+00" cType="1" res="-7.6722120866179466e-03" rms="2.6030772924423218e-01" purity="7.9038560390472412e-02" nType="-99"/>
                <Node pos="r" depth="5" NCoef="0" IVar="5" Cut="1.3884422779083252e+00" cType="1" res="-5.5163212120532990e-02" rms="2.0459158718585968e-01" purity="4.5653808861970901e-02" nType="0">
                  <Node pos="l" depth="6" NCoef="0" IVar="-1" Cut="0.0000000000000000e+00" cType="1" res="-1.0519611649215221e-02" rms="2.5959274172782898e-01" purity="7.6679818332195282e-02" nType="-99"/>
                  <Node pos="r" depth="6" NCoef="0" IVar="-1" Cut="0.0000000000000000e+00" cType="1" res="-2.2698415443301201e-02" rms="1.5102946758270264e-01" purity="2.2885767742991447e-02" nType="-99"/>
                </Node>
              </Node>
            </Node>
          </Node>
        </Node>
        <Node pos="r" depth="1" NCoef="0" IVar="0" Cut="7.9670566320419312e-01" cType="1" res="3.4139651805162430e-02" rms="4.3712159991264343e-01" purity="7.0083844661712646e-01" nType="0">
          <Node pos="l" depth="2" NCoef="0" IVar="0" Cut="2.5691373273730278e-02" cType="1" res="3.7537630647420883e-02" rms="4.3608397245407104e-01" purity="7.0852833986282349e-01" nType="0">
            <Node pos="l" depth="3" NCoef="0" IVar="1" Cut="1.1840436458587646e+00" cType="1" res="4.5642778277397156e-02" rms="4.2613333463668823e-01" purity="7.3995643854141235e-01" nType="0">
              <Node pos="l" depth="4" NCoef="0" IVar="3" Cut="8.7747544050216675e-01" cType="1" res="4.8203662037849426e-02" rms="4.2361161112785339e-01" purity="7.4579662084579468e-01" nType="0">
                <Node pos="l" depth="5" NCoef="0" IVar="1" Cut="4.6300119720399380e-04" cType="1" res="3.0931556597352028e-02" rms="4.6351864933967590e-01" purity="6.6167110204696655e-01" nType="0">
                  <Node pos="l" depth="6" NCoef="0" IVar="2" Cut="8.8184532165527344e+01" cType="1" res="4.4974200427532196e-02" rms="4.5257499814033508e-01" purity="6.9408774375915527e-01" nType="0">
                    <Node pos="l" depth="7" NCoef="0" IVar="-1" Cut="0.0000000000000000e+00" cType="1" res="5.1332297734916210e-03" rms="4.3969723582267761e-01" purity="7.2689390182495117e-01" nType="-99"/>
                    <Node pos="r" depth="7" NCoef="0" IVar="-1" Cut="0.0000000000000000e+00" cType="1" res="2.6296381838619709e-03" rms="4.6387061476707458e-01" purity="6.6306531429290771e-01" nType="-99"/>
                  </Node>
                  <Node pos="r" depth="6" NCoef="0" IVar="4" Cut="-3.5027927160263062e-01" cType="1" res="1.7532899975776672e-02" rms="4.7333657741546631e-01" purity="6.3074100017547607e-01" nType="0">
                    <Node pos="l" depth="7" NCoef="0" IVar="-1" Cut="0.0000000000000000e+00" cType="1" res="1.9439932657405734e-03" rms="4.7074040770530701e-01" purity="6.5589028596878052e-01" nType="-99"/>
                    <Node pos="r" depth="7" NCoef="0" IVar="-1" Cut="0.0000000000000000e+00" cType="1" res="8.9492255938239396e-05" rms="4.8111984133720398e-01" purity="5.5083400011062622e-01" nType="-99"/>
                  </Node>
                </Node>
                <Node pos="r" depth="5" NCoef="0" IVar="5" Cut="-1.0067622661590576e+00" cType="1" res="5.6539908051490784e-02" rms="4.0267416834831238e-01" purity="7.8639912605285645e-01" nType="0">
                  <Node pos="l" depth="6" NCoef="0" IVar="1" Cut="7.1660947799682617e-01" cType="1" res="5.9558115899562836e-02" rms="3.9598953723907471e-01" purity="8.0025726556777954e-01" nType="0">
                    <Node pos="l" depth="7" NCoef="0" IVar="-1" Cut="0.0000000000000000e+00" cType="1" res="6.2064751982688904e-03" rms="3.9304086565971375e-01" purity="8.0488896369934082e-01" nType="-99"/>
                    <Node pos="r" depth="7" NCoef="0" IVar="-1" Cut="0.0000000000000000e+00" cType="1" res="1.3526595430448651e-03" rms="4.5437148213386536e-01" purity="6.9737005233764648e-01" nType="-99"/>
                  </Node>
                  <Node pos="r" depth="6" NCoef="0" IVar="-1" Cut="0.0000000000000000e+00" cType="1" res="1.1034467024728656e-03" rms="4.8762938380241394e-01" purity="5.8471459150314331e-01" nType="-99"/>
                </Node>
              </Node>
              <Node pos="r" depth="4" NCoef="0" IVar="-1" Cut="0.0000000000000000e+00" cType="1" res="-1.4875972410663962e-03" rms="4.7988593578338623e-01" purity="5.9590935707092285e-01" nType="-99"/>
            </Node>
            <Node pos="r" depth="3" NCoef="0" IVar="0" Cut="3.9031970500946045e-01" cType="1" res="-2.4805802386254072e-03" rms="4.8021274805068970e-01" purity="5.5335551500320435e-01" nType="0">
              <Node pos="l" depth="4" NCoef="0" IVar="4" Cut="-2.5117689743638039e-02" cType="1" res="7.4586840346455574e-03" rms="4.7917762398719788e-01" purity="5.7812994718551636e-01" nType="0">
                <Node pos="l" depth="5" NCoef="0" IVar="4" Cut="-2.0836112499237061e+00" cType="1" res="1.4087761752307415e-02" rms="4.7929817438125610e-01" purity="6.0269474983215332e-01" nType="0">
                  <Node pos="l" depth="6" NCoef="0" IVar="-1" Cut="0.0000000000000000e+00" cType="1" res="4.0689092129468918e-03" rms="4.6833014488220215e-01" purity="6.4456695318222046e-01" nType="-99"/>
                  <Node pos="r" depth="6" NCoef="0" IVar="4" Cut="-1.3532309532165527e+00" cType="1" res="3.1597760971635580e-03" rms="4.8272016644477844e-01" purity="5.8761531114578247e-01" nType="0">
                    <Node pos="l" depth="7" NCoef="0" IVar="-1" Cut="0.0000000000000000e+00" cType="1" res="-2.7299229986965656e-03" rms="4.9062076210975647e-01" purity="5.4652351140975952e-01" nType="-99"/>
                    <Node pos="r" depth="7" NCoef="0" IVar="-1" Cut="0.0000000000000000e+00" cType="1" res="1.5404038131237030e-03" rms="4.7882813215255737e-01" purity="6.0424321889877319e-01" nType="-99"/>
                  </Node>
                </Node>
                <Node pos="r" depth="5" NCoef="0" IVar="-1" Cut="0.0000000000000000e+00" cType="1" res="-9.5325912116095424e-04" rms="4.7841328382492065e-01" purity="5.1299285888671875e-01" nType="-99"/>
              </Node>
              <Node pos="r" depth="4" NCoef="0" IVar="5" Cut="-2.1259143352508545e+00" cType="1" res="-2.7121894061565399e-02" rms="4.8188617825508118e-01" purity="4.9193498492240906e-01" nType="0">
                <Node pos="l" depth="5" NCoef="0" IVar="-1" Cut="0.0000000000000000e+00" cType="1" res="-1.2724907137453556e-03" rms="4.8476487398147583e-01" purity="5.3653293848037720e-01" nType="-99"/>
                <Node pos="r" depth="5" NCoef="0" IVar="-1" Cut="0.0000000000000000e+00" cType="1" res="-3.6228706594556570e-03" rms="4.7844269871711731e-01" purity="4.4452205300331116e-01" nType="-99"/>
              </Node>
            </Node>
          </Node>
          <Node pos="r" depth="2" NCoef="0" IVar="-1" Cut="0.0000000000000000e+00" cType="1" res="-1.2358923442661762e-02" rms="4.5531877875328064e-01" purity="3.2839265465736389e-01" nType="-99"/>
        </Node>
      </Node>
    </BinaryTree>
    <BinaryTree type="DecisionTree" boostWeight="1.0000000000000000e+00" itree="46">
      <Node pos="s" depth="0" NCoef="0" IVar="3" Cut="7.7301573753356934e-01" cType="1" res="1.1732464656233788e-02" rms="4.0822005271911621e-01" purity="5.0055843591690063e-01" nType="0">
        <Node pos="l" depth="1" NCoef="0" IVar="3" Cut="4.7403499484062195e-01" cType="1" res="-1.7356278374791145e-02" rms="3.8801592588424683e-01" purity="2.6545321941375732e-01" nType="0">
          <Node pos="l" depth="2" NCoef="0" IVar="6" Cut="2.4780762195587158e-01" cType="1" res="-3.3924974501132965e-02" rms="2.8713679313659668e-01" purity="1.0048788040876389e-01" nType="0">
            <Node pos="l" depth="3" NCoef="0" IVar="7" Cut="3.0000000000000000e+00" cType="1" res="0.0000000000000000e+00" rms="0.0000000000000000e+00" purity="8.8494360446929932e-02" nType="0">
              <Node pos="l" depth="4" NCoef="0" IVar="-1" Cut="0.0000000000000000e+00" cType="1" res="3.9839267265051603e-04" rms="3.5244819521903992e-01" purity="1.6251103579998016e-01" nType="-99"/>
              <Node pos="r" depth="4" NCoef="0" IVar="3" Cut="3.0605623126029968e-01" cType="1" res="-4.0193736553192139e-02" rms="2.6734718680381775e-01" purity="8.4522955119609833e-02" nType="0">
                <Node pos="l" depth="5" NCoef="0" IVar="2" Cut="5.0715744018554688e+02" cType="1" res="-4.8873424530029297e-02" rms="2.1183456480503082e-01" purity="4.8966109752655029e-02" nType="0">
                  <Node pos="l" depth="6" NCoef="0" IVar="7" Cut="5.0000000000000000e+00" cType="1" res="-4.4994216412305832e-02" rms="2.0815755426883698e-01" purity="4.7275900840759277e-02" nType="0">
                    <Node pos="l" depth="7" NCoef="0" IVar="-1" Cut="0.0000000000000000e+00" cType="1" res="-9.1829439625144005e-03" rms="2.6921752095222473e-01" purity="8.2585901021957397e-02" nType="-99"/>
                    <Node pos="r" depth="7" NCoef="0" IVar="-1" Cut="0.0000000000000000e+00" cType="1" res="-1.8490457907319069e-02" rms="1.9164460897445679e-01" purity="3.9349541068077087e-02" nType="-99"/>
                  </Node>
                  <Node pos="r" depth="6" NCoef="0" IVar="-1" Cut="0.0000000000000000e+00" cType="1" res="-1.7581630498170853e-02" rms="2.2680656611919403e-01" purity="5.6559342890977859e-02" nType="-99"/>
                </Node>
                <Node pos="r" depth="5" NCoef="0" IVar="0" Cut="8.2720476388931274e-01" cType="1" res="-3.3441726118326187e-02" rms="3.0341917276382446e-01" purity="1.1218296736478806e-01" nType="0">
                  <Node pos="l" depth="6" NCoef="0" IVar="5" Cut="-1.2950043678283691e+00" cType="1" res="-1.2032439000904560e-02" rms="3.7635028362274170e-01" purity="1.8601326644420624e-01" nType="0">
                    <Node pos="l" depth="7" NCoef="0" IVar="-1" Cut="0.0000000000000000e+00" cType="1" res="8.1477907951921225e-04" rms="4.2240554094314575e-01" purity="2.4432896077632904e-01" nType="-99"/>
                    <Node pos="r" depth="7" NCoef="0" IVar="-1" Cut="0.0000000000000000e+00" cType="1" res="-8.8404500856995583e-03" rms="2.9341688752174377e-01" purity="9.9798962473869324e-02" nType="-99"/>
                  </Node>
                  <Node pos="r" depth="6" NCoef="0" IVar="2" Cut="2.8699713134765625e+02" cType="1" res="-4.4106103479862213e-02" rms="2.5889423489570618e-01" purity="7.5406670570373535e-02" nType="0">
                    <Node pos="l" depth="7" NCoef="0" IVar="-1" Cut="0.0000000000000000e+00" cType="1" res="-9.6590118482708931e-03" rms="2.6891845464706421e-01" purity="8.2394793629646301e-02" nType="-99"/>
                    <Node pos="r" depth="7" NCoef="0" IVar="-1" Cut="0.0000000000000000e+00" cType="1" res="-1.5911547467112541e-02" rms="2.3556035757064819e-01" purity="6.0738123953342438e-02" nType="-99"/>
                  </Node>
                </Node>
              </Node>
            </Node>
            <Node pos="r" depth="3" NCoef="0" IVar="7" Cut="7.0000000000000000e+00" cType="1" res="1.6228026151657104e-01" rms="0.0000000000000000e+00" purity="2.1989144384860992e-01" nType="0">
              <Node pos="l" depth="4" NCoef="0" IVar="-1" Cut="0.0000000000000000e+00" cType="1" res="4.5420131646096706e-03" rms="4.3445506691932678e-01" purity="2.7725929021835327e-01" nType="-99"/>
              <Node pos="r" depth="4" NCoef="0" IVar="-1" Cut="0.0000000000000000e+00" cType="1" res="-3.4754932858049870e-03" rms="3.6707270145416260e-01" purity="1.6328901052474976e-01" nType="-99"/>
            </Node>
          </Node>
          <Node pos="r" depth="2" NCoef="0" IVar="1" Cut="5.8496166020631790e-02" cType="1" res="-1.9305618479847908e-03" rms="4.6203160285949707e-01" purity="4.1903853416442871e-01" nType="0">
            <Node pos="l" depth="3" NCoef="0" IVar="2" Cut="1.5582026672363281e+02" cType="1" res="2.1193888038396835e-02" rms="4.7312310338020325e-01" purity="4.8092657327651978e-01" nType="0">
              <Node pos="l" depth="4" NCoef="0" IVar="6" Cut="6.3212826848030090e-02" cType="1" res="3.7130590528249741e-02" rms="4.7764986753463745e-01" purity="5.2665114402770996e-01" nType="0">
                <Node pos="l" depth="5" NCoef="0" IVar="2" Cut="5.5545459747314453e+01" cType="1" res="1.6051344573497772e-02" rms="4.7736725211143494e-01" purity="5.0473457574844360e-01" nType="0">
                  <Node pos="l" depth="6" NCoef="0" IVar="-1" Cut="0.0000000000000000e+00" cType="1" res="4.2001069523394108e-03" rms="4.8145458102226257e-01" purity="5.5588024854660034e-01" nType="-99"/>
                  <Node pos="r" depth="6" NCoef="0" IVar="6" Cut="4.2909834533929825e-02" cType="1" res="-1.0955399833619595e-02" rms="4.7224780917167664e-01" purity="4.6227249503135681e-01" nType="0">
                    <Node pos="l" depth="7" NCoef="0" IVar="-1" Cut="0.0000000000000000e+00" cType="1" res="-3.8188423495739698e-03" rms="4.7360131144523621e-01" purity="4.2860460281372070e-01" nType="-99"/>
                    <Node pos="r" depth="7" NCoef="0" IVar="-1" Cut="0.0000000000000000e+00" cType="1" res="1.4557278482243419e-03" rms="4.6936571598052979e-01" purity="4.9540281295776367e-01" nType="-99"/>
                  </Node>
                </Node>
                <Node pos="r" depth="5" NCoef="0" IVar="4" Cut="-7.1950361132621765e-02" cType="1" res="6.9486320018768311e-02" rms="4.7627171874046326e-01" purity="5.6029230356216431e-01" nType="0">
                  <Node pos="l" depth="6" NCoef="0" IVar="-1" Cut="0.0000000000000000e+00" cType="1" res="6.5091224387288094e-03" rms="4.7366666793823242e-01" purity="6.1993235349655151e-01" nType="-99"/>
                  <Node pos="r" depth="6" NCoef="0" IVar="-1" Cut="0.0000000000000000e+00" cType="1" res="4.9883434548974037e-03" rms="4.7813779115676880e-01" purity="5.0983965396881104e-01" nType="-99"/>
                </Node>
              </Node>
              <Node pos="r" depth="4" NCoef="0" IVar="5" Cut="-1.8654168844223022e+00" cType="1" res="3.4635509364306927e-03" rms="4.6739727258682251e-01" purity="4.3005570769309998e-01" nType="0">
                <Node pos="l" depth="5" NCoef="0" IVar="3" Cut="5.8977371454238892e-01" cType="1" res="2.1649772301316261e-02" rms="4.8104387521743774e-01" purity="4.9460634589195251e-01" nType="0">
                  <Node pos="l" depth="6" NCoef="0" IVar="-1" Cut="0.0000000000000000e+00" cType="1" res="-8.4622464783024043e-05" rms="4.7243508696556091e-01" purity="3.6482375860214233e-01" nType="-99"/>
                  <Node pos="r" depth="6" NCoef="0" IVar="-1" Cut="0.0000000000000000e+00" cType="1" res="3.0637921299785376e-03" rms="4.8546537756919861e-01" purity="5.6943237781524658e-01" nType="-99"/>
                </Node>
                <Node pos="r" depth="5" NCoef="0" IVar="4" Cut="-5.4129961878061295e-02" cType="1" res="-1.8460098654031754e-02" rms="4.4941955804824829e-01" purity="3.5223937034606934e-01" nType="0">
                  <Node pos="l" depth="6" NCoef="0" IVar="-1" Cut="0.0000000000000000e+00" cType="1" res="7.9618749441578984e-04" rms="4.8556616902351379e-01" purity="4.7393441200256348e-01" nType="-99"/>
                  <Node pos="r" depth="6" NCoef="0" IVar="-1" Cut="0.0000000000000000e+00" cType="1" res="-4.4481391087174416e-03" rms="4.2243281006813049e-01" purity="2.7047175168991089e-01" nType="-99"/>
                </Node>
              </Node>
            </Node>
            <Node pos="r" depth="3" NCoef="0" IVar="1" Cut="1.2218048572540283e+00" cType="1" res="-2.2553071379661560e-02" rms="4.5091131329536438e-01" purity="3.6384648084640503e-01" nType="0">
              <Node pos="l" depth="4" NCoef="0" IVar="4" Cut="9.6867382526397705e-01" cType="1" res="-1.5560448169708252e-02" rms="4.5467752218246460e-01" purity="3.7643083930015564e-01" nType="0">
                <Node pos="l" depth="5" NCoef="0" IVar="3" Cut="7.0550447702407837e-01" cType="1" res="-8.4257014095783234e-03" rms="4.6857178211212158e-01" purity="4.0886831283569336e-01" nType="0">
                  <Node pos="l" depth="6" NCoef="0" IVar="6" Cut="7.5106181204319000e-02" cType="1" res="-1.7050014808773994e-02" rms="4.6134859323501587e-01" purity="3.5593467950820923e-01" nType="0">
                    <Node pos="l" depth="7" NCoef="0" IVar="-1" Cut="0.0000000000000000e+00" cType="1" res="-3.9383559487760067e-03" rms="4.5061782002449036e-01" purity="3.2112437486648560e-01" nType="-99"/>
                    <Node pos="r" depth="7" NCoef="0" IVar="-1" Cut="0.0000000000000000e+00" cType="1" res="1.1282772902632132e-04" rms="4.7029629349708557e-01" purity="3.8804158568382263e-01" nType="-99"/>
                  </Node>
                  <Node pos="r" depth="6" NCoef="0" IVar="7" Cut="3.0000000000000000e+00" cType="1" res="1.6136223450303078e-02" rms="4.8693132400512695e-01" purity="5.5824124813079834e-01" nType="0">
                    <Node pos="l" depth="7" NCoef="0" IVar="-1" Cut="0.0000000000000000e+00" cType="1" res="-2.4972385290311649e-05" rms="4.9212586879730225e-01" purity="5.1665776968002319e-01" nType="-99"/>
                    <Node pos="r" depth="7" NCoef="0" IVar="-1" Cut="0.0000000000000000e+00" cType="1" res="2.5121145881712437e-03" rms="4.8352625966072083e-01" purity="5.9114688634872437e-01" nType="-99"/>
                  </Node>
                </Node>
                <Node pos="r" depth="5" NCoef="0" IVar="-1" Cut="0.0000000000000000e+00" cType="1" res="-9.3450183048844337e-03" rms="3.4610050916671753e-01" purity="1.6299293935298920e-01" nType="-99"/>
              </Node>
              <Node pos="r" depth="4" NCoef="0" IVar="-1" Cut="0.0000000000000000e+00" cType="1" res="-1.0814282111823559e-02" rms="4.0368974208831787e-01" purity="2.3553891479969025e-01" nType="-99"/>
            </Node>
          </Node>
        </Node>
        <Node pos="r" depth="1" NCoef="0" IVar="3" Cut="1.0595389604568481e+00" cType="1" res="4.1096389293670654e-02" rms="4.2563673853874207e-01" purity="7.3788774013519287e-01" nType="0">
          <Node pos="l" depth="2" NCoef="0" IVar="0" Cut="4.9305471777915955e-01" cType="1" res="4.3343551456928253e-02" rms="4.2510750889778137e-01" purity="7.4111872911453247e-01" nType="0">
            <Node pos="l" depth="3" NCoef="0" IVar="1" Cut="6.6480696201324463e-01" cType="1" res="4.6124957501888275e-02" rms="4.2281851172447205e-01" purity="7.4931180477142334e-01" nType="0">
              <Node pos="l" depth="4" NCoef="0" IVar="3" Cut="8.8391888141632080e-01" cType="1" res="5.0384767353534698e-02" rms="4.1762998700141907e-01" purity="7.6086169481277466e-01" nType="0">
                <Node pos="l" depth="5" NCoef="0" IVar="7" Cut="3.0000000000000000e+00" cType="1" res="2.9651779681444168e-02" rms="4.0883961319923401e-01" purity="6.8860000371932983e-01" nType="0">
                  <Node pos="l" depth="6" NCoef="0" IVar="1" Cut="7.7854827046394348e-02" cType="1" res="2.9488490894436836e-02" rms="4.5722705125808716e-01" purity="6.8580985069274902e-01" nType="0">
                    <Node pos="l" depth="7" NCoef="0" IVar="-1" Cut="0.0000000000000000e+00" cType="1" res="3.1918005552142859e-03" rms="4.4988018274307251e-01" purity="7.0454436540603638e-01" nType="-99"/>
                    <Node pos="r" depth="7" NCoef="0" IVar="-1" Cut="0.0000000000000000e+00" cType="1" res="1.6893252031877637e-03" rms="4.6905454993247986e-01" purity="6.5454566478729248e-01" nType="-99"/>
                  </Node>
                  <Node pos="r" depth="6" NCoef="0" IVar="-1" Cut="0.0000000000000000e+00" cType="1" res="6.0050874017179012e-03" rms="4.4533655047416687e-01" purity="7.0590513944625854e-01" nType="-99"/>
                </Node>
                <Node pos="r" depth="5" NCoef="0" IVar="5" Cut="-3.0267171859741211e+00" cType="1" res="5.7415232062339783e-02" rms="4.0027123689651489e-01" purity="7.9134380817413330e-01" nType="0">
                  <Node pos="l" depth="6" NCoef="0" IVar="1" Cut="6.9801690988242626e-03" cType="1" res="7.0526257157325745e-02" rms="3.6212944984436035e-01" purity="8.4240823984146118e-01" nType="0">
                    <Node pos="l" depth="7" NCoef="0" IVar="-1" Cut="0.0000000000000000e+00" cType="1" res="8.6122713983058929e-03" rms="3.4695488214492798e-01" purity="8.5820752382278442e-01" nType="-99"/>
                    <Node pos="r" depth="7" NCoef="0" IVar="-1" Cut="0.0000000000000000e+00" cType="1" res="6.4649563282728195e-03" rms="3.7797349691390991e-01" purity="8.2493507862091064e-01" nType="-99"/>
                  </Node>
                  <Node pos="r" depth="6" NCoef="0" IVar="5" Cut="-2.4214084148406982e+00" cType="1" res="5.2899561822414398e-02" rms="4.1249594092369080e-01" purity="7.7375632524490356e-01" nType="0">
                    <Node pos="l" depth="7" NCoef="0" IVar="-1" Cut="0.0000000000000000e+00" cType="1" res="6.2397038564085960e-03" rms="3.8498708605766296e-01" purity="8.1710350513458252e-01" nType="-99"/>
                    <Node pos="r" depth="7" NCoef="0" IVar="-1" Cut="0.0000000000000000e+00" cType="1" res="4.3619791977107525e-03" rms="4.3529039621353149e-01" purity="7.3539543151855469e-01" nType="-99"/>
                  </Node>
                </Node>
              </Node>
              <Node pos="r" depth="4" NCoef="0" IVar="5" Cut="-2.3957686424255371e+00" cType="1" res="4.6926382929086685e-03" rms="4.6829029917716980e-01" purity="6.3697367906570435e-01" nType="0">
                <Node pos="l" depth="5" NCoef="0" IVar="3" Cut="9.9458086490631104e-01" cType="1" res="3.4250836819410324e-02" rms="4.5170596241950989e-01" purity="7.0053660869598389e-01" nType="0">
                  <Node pos="l" depth="6" NCoef="0" IVar="-1" Cut="0.0000000000000000e+00" cType="1" res="1.5315210912376642e-03" rms="4.7084012627601624e-01" purity="6.5148186683654785e-01" nType="-99"/>
                  <Node pos="r" depth="6" NCoef="0" IVar="-1" Cut="0.0000000000000000e+00" cType="1" res="4.2817858047783375e-03" rms="4.3178194761276245e-01" purity="7.4802941083908081e-01" nType="-99"/>
                </Node>
                <Node pos="r" depth="5" NCoef="0" IVar="-1" Cut="0.0000000000000000e+00" cType="1" res="-2.9558031819760799e-03" rms="4.8670798540115356e-01" purity="5.5241513252258301e-01" nType="-99"/>
              </Node>
            </Node>
            <Node pos="r" depth="3" NCoef="0" IVar="-1" Cut="0.0000000000000000e+00" cType="1" res="-3.7382782902568579e-03" rms="4.8289671540260315e-01" purity="4.8724985122680664e-01" nType="-99"/>
          </Node>
          <Node pos="r" depth="2" NCoef="0" IVar="-1" Cut="0.0000000000000000e+00" cType="1" res="-5.3139124065637589e-03" rms="4.3700084090232849e-01" purity="5.9985780715942383e-01" nType="-99"/>
        </Node>
      </Node>
    </BinaryTree>
    <BinaryTree type="DecisionTree" boostWeight="1.0000000000000000e+00" itree="47">
      <Node pos="s" depth="0" NCoef="0" IVar="3" Cut="7.7288961410522461e-01" cType="1" res="1.1261652223765850e-02" rms="4.0772166848182678e-01" purity="5.0045418739318848e-01" nType="0">
        <Node pos="l" depth="1" NCoef="0" IVar="3" Cut="4.4897216558456421e-01" cType="1" res="-1.7551453784108162e-02" rms="3.8805025815963745e-01" purity="2.6440545916557312e-01" nType="0">
          <Node pos="l" depth="2" NCoef="0" IVar="7" Cut="3.0000000000000000e+00" cType="1" res="7.9253293573856354e-02" rms="0.0000000000000000e+00" purity="9.4499118626117706e-02" nType="0">
            <Node pos="l" depth="3" NCoef="0" IVar="-1" Cut="0.0000000000000000e+00" cType="1" res="2.5968232657760382e-03" rms="3.7220114469528198e-01" purity="1.9337621331214905e-01" nType="-99"/>
            <Node pos="r" depth="3" NCoef="0" IVar="6" Cut="2.0697842538356781e-01" cType="1" res="-3.5580441355705261e-02" rms="2.7399793267250061e-01" purity="8.9540898799896240e-02" nType="0">
              <Node pos="l" depth="4" NCoef="0" IVar="3" Cut="3.9119169116020203e-01" cType="1" res="-3.9087243378162384e-02" rms="2.4981164932250977e-01" purity="7.2296001017093658e-02" nType="0">
                <Node pos="l" depth="5" NCoef="0" IVar="2" Cut="5.1340051269531250e+02" cType="1" res="-4.3969314545392990e-02" rms="2.2033590078353882e-01" purity="5.3640101104974747e-02" nType="0">
                  <Node pos="l" depth="6" NCoef="0" IVar="6" Cut="1.4698372781276703e-01" cType="1" res="-4.1767165064811707e-02" rms="2.1934755146503448e-01" purity="5.3324013948440552e-02" nType="0">
                    <Node pos="l" depth="7" NCoef="0" IVar="-1" Cut="0.0000000000000000e+00" cType="1" res="-1.6580116003751755e-02" rms="2.0066748559474945e-01" purity="4.3402753770351410e-02" nType="-99"/>
                    <Node pos="r" depth="7" NCoef="0" IVar="-1" Cut="0.0000000000000000e+00" cType="1" res="-6.6846576519310474e-03" rms="2.9288113117218018e-01" purity="1.0137965530157089e-01" nType="-99"/>
                  </Node>
                  <Node pos="r" depth="6" NCoef="0" IVar="-1" Cut="0.0000000000000000e+00" cType="1" res="-1.5871394425630569e-02" rms="2.2587591409683228e-01" purity="5.5594880133867264e-02" nType="-99"/>
                </Node>
                <Node pos="r" depth="5" NCoef="0" IVar="6" Cut="7.4068680405616760e-02" cType="1" res="-2.2127373144030571e-02" rms="3.3192878961563110e-01" purity="1.3710492849349976e-01" nType="0">
                  <Node pos="l" depth="6" NCoef="0" IVar="-1" Cut="0.0000000000000000e+00" cType="1" res="-1.1821869760751724e-02" rms="2.6036822795867920e-01" purity="7.5933016836643219e-02" nType="-99"/>
                  <Node pos="r" depth="6" NCoef="0" IVar="2" Cut="2.8876412963867188e+02" cType="1" res="-1.0493029840290546e-02" rms="3.6031728982925415e-01" purity="1.6607511043548584e-01" nType="0">
                    <Node pos="l" depth="7" NCoef="0" IVar="-1" Cut="0.0000000000000000e+00" cType="1" res="3.5446081310510635e-03" rms="3.9049318432807922e-01" purity="2.0186170935630798e-01" nType="-99"/>
                    <Node pos="r" depth="7" NCoef="0" IVar="-1" Cut="0.0000000000000000e+00" cType="1" res="-7.6280040666460991e-03" rms="3.2600459456443787e-01" purity="1.3167974352836609e-01" nType="-99"/>
                  </Node>
                </Node>
              </Node>
              <Node pos="r" depth="4" NCoef="0" IVar="5" Cut="3.8703611493110657e-01" cType="1" res="-1.8616672605276108e-02" rms="3.6879873275756836e-01" purity="1.7296119034290314e-01" nType="0">
                <Node pos="l" depth="5" NCoef="0" IVar="7" Cut="6.0000000000000000e+00" cType="1" res="1.4483733475208282e-01" rms="0.0000000000000000e+00" purity="1.8630930781364441e-01" nType="0">
                  <Node pos="l" depth="6" NCoef="0" IVar="-1" Cut="0.0000000000000000e+00" cType="1" res="-5.0212047062814236e-04" rms="4.2383173108100891e-01" purity="2.5229582190513611e-01" nType="-99"/>
                  <Node pos="r" depth="6" NCoef="0" IVar="-1" Cut="0.0000000000000000e+00" cType="1" res="-7.4571780860424042e-03" rms="3.4804305434226990e-01" purity="1.4373199641704559e-01" nType="-99"/>
                </Node>
                <Node pos="r" depth="5" NCoef="0" IVar="-1" Cut="0.0000000000000000e+00" cType="1" res="1.0592447506496683e-04" rms="3.3679458498954773e-01" purity="1.3779465854167938e-01" nType="-99"/>
              </Node>
            </Node>
          </Node>
          <Node pos="r" depth="2" NCoef="0" IVar="4" Cut="2.2352414131164551e+00" cType="1" res="-5.0634262152016163e-03" rms="4.5600417256355286e-01" purity="3.9989739656448364e-01" nType="0">
            <Node pos="l" depth="3" NCoef="0" IVar="1" Cut="1.3742886781692505e+00" cType="1" res="-8.4422278450801969e-04" rms="4.6328407526016235e-01" purity="4.1580131649971008e-01" nType="0">
              <Node pos="l" depth="4" NCoef="0" IVar="2" Cut="1.9464172363281250e+02" cType="1" res="2.9286269564181566e-03" rms="4.6547973155975342e-01" purity="4.2375686764717102e-01" nType="0">
                <Node pos="l" depth="5" NCoef="0" IVar="6" Cut="5.5101688951253891e-02" cType="1" res="1.6099546104669571e-02" rms="4.7064855694770813e-01" purity="4.5618483424186707e-01" nType="0">
                  <Node pos="l" depth="6" NCoef="0" IVar="2" Cut="5.0948711395263672e+01" cType="1" res="-4.6254117041826248e-03" rms="4.6614095568656921e-01" purity="4.3357446789741516e-01" nType="0">
                    <Node pos="l" depth="7" NCoef="0" IVar="-1" Cut="0.0000000000000000e+00" cType="1" res="2.1679091732949018e-03" rms="4.7190275788307190e-01" purity="4.8341113328933716e-01" nType="-99"/>
                    <Node pos="r" depth="7" NCoef="0" IVar="-1" Cut="0.0000000000000000e+00" cType="1" res="-2.2678344976156950e-03" rms="4.6159794926643372e-01" purity="4.0222153067588806e-01" nType="-99"/>
                  </Node>
                  <Node pos="r" depth="6" NCoef="0" IVar="1" Cut="1.8477803468704224e-01" cType="1" res="3.6402750760316849e-02" rms="4.7414535284042358e-01" purity="4.7833511233329773e-01" nType="0">
                    <Node pos="l" depth="7" NCoef="0" IVar="-1" Cut="0.0000000000000000e+00" cType="1" res="4.3793921358883381e-03" rms="4.7835189104080200e-01" purity="5.2286744117736816e-01" nType="-99"/>
                    <Node pos="r" depth="7" NCoef="0" IVar="-1" Cut="0.0000000000000000e+00" cType="1" res="9.5741532277315855e-04" rms="4.6466434001922607e-01" purity="3.9135894179344177e-01" nType="-99"/>
                  </Node>
                </Node>
                <Node pos="r" depth="5" NCoef="0" IVar="0" Cut="8.4595108032226562e-01" cType="1" res="-1.7347063869237900e-02" rms="4.5666664838790894e-01" purity="3.7383636832237244e-01" nType="0">
                  <Node pos="l" depth="6" NCoef="0" IVar="6" Cut="1.1909376829862595e-01" cType="1" res="-1.0613225400447845e-02" rms="4.6780350804328918e-01" purity="4.0123412013053894e-01" nType="0">
                    <Node pos="l" depth="7" NCoef="0" IVar="-1" Cut="0.0000000000000000e+00" cType="1" res="-2.3195503745228052e-03" rms="4.6524772047996521e-01" purity="4.0167695283889771e-01" nType="-99"/>
                    <Node pos="r" depth="7" NCoef="0" IVar="-1" Cut="0.0000000000000000e+00" cType="1" res="1.8169563263654709e-03" rms="4.7247949242591858e-01" purity="4.0020030736923218e-01" nType="-99"/>
                  </Node>
                  <Node pos="r" depth="6" NCoef="0" IVar="-1" Cut="0.0000000000000000e+00" cType="1" res="-1.1559804901480675e-02" rms="3.4484544396400452e-01" purity="1.4477652311325073e-01" nType="-99"/>
                </Node>
              </Node>
              <Node pos="r" depth="4" NCoef="0" IVar="-1" Cut="0.0000000000000000e+00" cType="1" res="-1.1946619488298893e-02" rms="3.9233797788619995e-01" purity="2.1556161344051361e-01" nType="-99"/>
            </Node>
            <Node pos="r" depth="3" NCoef="0" IVar="-1" Cut="0.0000000000000000e+00" cType="1" res="-1.9679781049489975e-02" rms="2.3657989501953125e-01" purity="5.9085153043270111e-02" nType="-99"/>
          </Node>
        </Node>
        <Node pos="r" depth="1" NCoef="0" IVar="3" Cut="1.0594283342361450e+00" cType="1" res="4.0369447320699692e-02" rms="4.2469409108161926e-01" purity="7.3891717195510864e-01" nType="0">
          <Node pos="l" depth="2" NCoef="0" IVar="5" Cut="-2.0810399055480957e+00" cType="1" res="4.2800724506378174e-02" rms="4.2405319213867188e-01" purity="7.4237924814224243e-01" nType="0">
            <Node pos="l" depth="3" NCoef="0" IVar="1" Cut="1.0190397500991821e-01" cType="1" res="5.1895704120397568e-02" rms="4.0425121784210205e-01" purity="7.8376066684722900e-01" nType="0">
              <Node pos="l" depth="4" NCoef="0" IVar="5" Cut="-2.9817023277282715e+00" cType="1" res="6.1240173876285553e-02" rms="3.8836023211479187e-01" purity="8.0987083911895752e-01" nType="0">
                <Node pos="l" depth="5" NCoef="0" IVar="3" Cut="9.3926739692687988e-01" cType="1" res="7.4238382279872894e-02" rms="3.6068826913833618e-01" purity="8.4221404790878296e-01" nType="0">
                  <Node pos="l" depth="6" NCoef="0" IVar="-1" Cut="0.0000000000000000e+00" cType="1" res="5.6447386741638184e-03" rms="4.1367253661155701e-01" purity="7.7446639537811279e-01" nType="-99"/>
                  <Node pos="r" depth="6" NCoef="0" IVar="3" Cut="1.0012698173522949e+00" cType="1" res="7.9329818487167358e-02" rms="3.4559914469718933e-01" purity="8.5960185527801514e-01" nType="0">
                    <Node pos="l" depth="7" NCoef="0" IVar="-1" Cut="0.0000000000000000e+00" cType="1" res="7.9630557447671890e-03" rms="3.5474801063537598e-01" purity="8.5007661581039429e-01" nType="-99"/>
                    <Node pos="r" depth="7" NCoef="0" IVar="-1" Cut="0.0000000000000000e+00" cType="1" res="9.5773264765739441e-03" rms="3.2988211512565613e-01" purity="8.7509834766387939e-01" nType="-99"/>
                  </Node>
                </Node>
                <Node pos="r" depth="5" NCoef="0" IVar="4" Cut="-7.3488706350326538e-01" cType="1" res="5.4626386612653732e-02" rms="4.0154781937599182e-01" purity="7.9341393709182739e-01" nType="0">
                  <Node pos="l" depth="6" NCoef="0" IVar="7" Cut="2.0000000000000000e+00" cType="1" res="4.7886222600936890e-02" rms="4.1689014434814453e-01" purity="7.7009934186935425e-01" nType="0">
                    <Node pos="l" depth="7" NCoef="0" IVar="-1" Cut="0.0000000000000000e+00" cType="1" res="3.2592455390840769e-03" rms="4.1377177834510803e-01" purity="7.7696025371551514e-01" nType="-99"/>
                    <Node pos="r" depth="7" NCoef="0" IVar="-1" Cut="0.0000000000000000e+00" cType="1" res="5.3765806369483471e-03" rms="4.2033666372299194e-01" purity="7.6602172851562500e-01" nType="-99"/>
                  </Node>
                  <Node pos="r" depth="6" NCoef="0" IVar="3" Cut="1.0038219690322876e+00" cType="1" res="6.3137330114841461e-02" rms="3.8020718097686768e-01" purity="8.2198840379714966e-01" nType="0">
                    <Node pos="l" depth="7" NCoef="0" IVar="-1" Cut="0.0000000000000000e+00" cType="1" res="6.4235311001539230e-03" rms="3.8519191741943359e-01" purity="8.1557822227478027e-01" nType="-99"/>
                    <Node pos="r" depth="7" NCoef="0" IVar="-1" Cut="0.0000000000000000e+00" cType="1" res="7.5125172734260559e-03" rms="3.6372587084770203e-01" purity="8.4241974353790283e-01" nType="-99"/>
                  </Node>
                </Node>
              </Node>
              <Node pos="r" depth="4" NCoef="0" IVar="3" Cut="9.9469304084777832e-01" cType="1" res="3.7966061383485794e-02" rms="4.2646288871765137e-01" purity="7.4483877420425415e-01" nType="0">
                <Node pos="l" depth="5" NCoef="0" IVar="4" Cut="-2.5301299095153809e+00" cType="1" res="1.9169410690665245e-02" rms="4.4835853576660156e-01" purity="7.0105296373367310e-01" nType="0">
                  <Node pos="l" depth="6" NCoef="0" IVar="-1" Cut="0.0000000000000000e+00" cType="1" res="4.7499812208116055e-03" rms="4.3763211369514465e-01" purity="7.3364830017089844e-01" nType="-99"/>
                  <Node pos="r" depth="6" NCoef="0" IVar="4" Cut="-9.4484966993331909e-01" cType="1" res="9.9245198071002960e-03" rms="4.5115512609481812e-01" purity="6.9116550683975220e-01" nType="0">
                    <Node pos="l" depth="7" NCoef="0" IVar="-1" Cut="0.0000000000000000e+00" cType="1" res="-7.6182186603546143e-04" rms="4.7001054883003235e-01" purity="6.4810293912887573e-01" nType="-99"/>
                    <Node pos="r" depth="7" NCoef="0" IVar="-1" Cut="0.0000000000000000e+00" cType="1" res="3.0541655141860247e-03" rms="4.2731383442878723e-01" purity="7.4100816249847412e-01" nType="-99"/>
                  </Node>
                </Node>
                <Node pos="r" depth="5" NCoef="0" IVar="3" Cut="9.9886673688888550e-01" cType="1" res="5.9106733649969101e-02" rms="3.9935299754142761e-01" purity="7.9408484697341919e-01" nType="0">
                  <Node pos="l" depth="6" NCoef="0" IVar="-1" Cut="0.0000000000000000e+00" cType="1" res="4.0442328900098801e-03" rms="4.1100460290908813e-01" purity="7.7540791034698486e-01" nType="-99"/>
                  <Node pos="r" depth="6" NCoef="0" IVar="5" Cut="-2.9816658496856689e+00" cType="1" res="6.6668868064880371e-02" rms="3.9430466294288635e-01" purity="8.0161660909652710e-01" nType="0">
                    <Node pos="l" depth="7" NCoef="0" IVar="-1" Cut="0.0000000000000000e+00" cType="1" res="7.6574492268264294e-03" rms="3.7424987554550171e-01" purity="8.2791996002197266e-01" nType="-99"/>
                    <Node pos="r" depth="7" NCoef="0" IVar="-1" Cut="0.0000000000000000e+00" cType="1" res="5.1358919590711594e-03" rms="4.0778428316116333e-01" purity="7.8268784284591675e-01" nType="-99"/>
                  </Node>
                </Node>
              </Node>
            </Node>
            <Node pos="r" depth="3" NCoef="0" IVar="1" Cut="4.3182909488677979e-01" cType="1" res="2.2378548979759216e-02" rms="4.6480971574783325e-01" purity="6.4945977926254272e-01" nType="0">
              <Node pos="l" depth="4" NCoef="0" IVar="3" Cut="9.9466747045516968e-01" cType="1" res="3.2403782010078430e-02" rms="4.6029093861579895e-01" purity="6.7121237516403198e-01" nType="0">
                <Node pos="l" depth="5" NCoef="0" IVar="0" Cut="2.3563750088214874e-01" cType="1" res="2.5000659748911858e-02" rms="4.6952566504478455e-01" purity="6.4565914869308472e-01" nType="0">
                  <Node pos="l" depth="6" NCoef="0" IVar="3" Cut="8.8021618127822876e-01" cType="1" res="2.8327060863375664e-02" rms="4.6648490428924561e-01" purity="6.6168737411499023e-01" nType="0">
                    <Node pos="l" depth="7" NCoef="0" IVar="-1" Cut="0.0000000000000000e+00" cType="1" res="1.6927121905609965e-03" rms="4.7692522406578064e-01" purity="6.3297885656356812e-01" nType="-99"/>
                    <Node pos="r" depth="7" NCoef="0" IVar="-1" Cut="0.0000000000000000e+00" cType="1" res="3.7771728821098804e-03" rms="4.5264852046966553e-01" purity="6.9806694984436035e-01" nType="-99"/>
                  </Node>
                  <Node pos="r" depth="6" NCoef="0" IVar="-1" Cut="0.0000000000000000e+00" cType="1" res="4.3060246389359236e-04" rms="4.8708239197731018e-01" purity="5.4840677976608276e-01" nType="-99"/>
                </Node>
                <Node pos="r" depth="5" NCoef="0" IVar="3" Cut="1.0092749595642090e+00" cType="1" res="4.6414285898208618e-02" rms="4.4194737076759338e-01" purity="7.1957224607467651e-01" nType="0">
                  <Node pos="l" depth="6" NCoef="0" IVar="3" Cut="9.9891066551208496e-01" cType="1" res="5.3682718425989151e-02" rms="4.3630403280258179e-01" purity="7.2925269603729248e-01" nType="0">
                    <Node pos="l" depth="7" NCoef="0" IVar="-1" Cut="0.0000000000000000e+00" cType="1" res="3.2298376318067312e-03" rms="4.4285064935684204e-01" purity="7.1349889039993286e-01" nType="-99"/>
                    <Node pos="r" depth="7" NCoef="0" IVar="-1" Cut="0.0000000000000000e+00" cType="1" res="5.7910205796360970e-03" rms="4.3195354938507080e-01" purity="7.3859691619873047e-01" nType="-99"/>
                  </Node>
                  <Node pos="r" depth="6" NCoef="0" IVar="-1" Cut="0.0000000000000000e+00" cType="1" res="2.3808090481907129e-03" rms="4.5654439926147461e-01" purity="6.9288736581802368e-01" nType="-99"/>
                </Node>
              </Node>
              <Node pos="r" depth="4" NCoef="0" IVar="5" Cut="-1.4816547632217407e+00" cType="1" res="-2.4119246751070023e-02" rms="4.8250243067741394e-01" purity="5.4856950044631958e-01" nType="0">
                <Node pos="l" depth="5" NCoef="0" IVar="-1" Cut="0.0000000000000000e+00" cType="1" res="-3.5236557596363127e-04" rms="4.7815024852752686e-01" purity="6.1568748950958252e-01" nType="-99"/>
                <Node pos="r" depth="5" NCoef="0" IVar="-1" Cut="0.0000000000000000e+00" cType="1" res="-3.9080264978110790e-03" rms="4.8611676692962646e-01" purity="4.7888246178627014e-01" nType="-99"/>
              </Node>
            </Node>
          </Node>
          <Node pos="r" depth="2" NCoef="0" IVar="-1" Cut="0.0000000000000000e+00" cType="1" res="-6.3240081071853638e-03" rms="4.3883821368217468e-01" purity="5.8906126022338867e-01" nType="-99"/>
        </Node>
      </Node>
    </BinaryTree>
    <BinaryTree type="DecisionTree" boostWeight="1.0000000000000000e+00" itree="48">
      <Node pos="s" depth="0" NCoef="0" IVar="3" Cut="7.7113348245620728e-01" cType="1" res="1.0867232456803322e-02" rms="4.0882840752601624e-01" purity="4.9973329901695251e-01" nType="0">
        <Node pos="l" depth="1" NCoef="0" IVar="3" Cut="5.9703773260116577e-01" cType="1" res="-1.4097423292696476e-02" rms="3.8871172070503235e-01" purity="2.6549777388572693e-01" nType="0">
          <Node pos="l" depth="2" NCoef="0" IVar="4" Cut="2.1308875083923340e+00" cType="1" res="-2.3749005049467087e-02" rms="3.3542147278785706e-01" purity="1.5409916639328003e-01" nType="0">
            <Node pos="l" depth="3" NCoef="0" IVar="4" Cut="-2.3777558803558350e+00" cType="1" res="-2.0293856039643288e-02" rms="3.5649800300598145e-01" purity="1.7596714198589325e-01" nType="0">
              <Node pos="l" depth="4" NCoef="0" IVar="-1" Cut="0.0000000000000000e+00" cType="1" res="2.5094770826399326e-03" rms="4.0486836433410645e-01" purity="2.4638170003890991e-01" nType="-99"/>
              <Node pos="r" depth="4" NCoef="0" IVar="6" Cut="1.0671886056661606e-01" cType="1" res="-2.2566899657249451e-02" rms="3.5321590304374695e-01" purity="1.7168577015399933e-01" nType="0">
                <Node pos="l" depth="5" NCoef="0" IVar="2" Cut="1.0026184082031250e+02" cType="1" res="-3.0401401221752167e-02" rms="3.2998636364936829e-01" purity="1.4596678316593170e-01" nType="0">
                  <Node pos="l" depth="6" NCoef="0" IVar="6" Cut="2.7798218652606010e-02" cType="1" res="-8.6391381919384003e-03" rms="3.6321842670440674e-01" purity="1.8538777530193329e-01" nType="0">
                    <Node pos="l" depth="7" NCoef="0" IVar="-1" Cut="0.0000000000000000e+00" cType="1" res="-1.0356671176850796e-02" rms="3.0515512824058533e-01" purity="1.1836010217666626e-01" nType="-99"/>
                    <Node pos="r" depth="7" NCoef="0" IVar="-1" Cut="0.0000000000000000e+00" cType="1" res="9.7793829627335072e-04" rms="3.7986084818840027e-01" purity="2.0818082988262177e-01" nType="-99"/>
                  </Node>
                  <Node pos="r" depth="6" NCoef="0" IVar="6" Cut="8.3787985146045685e-02" cType="1" res="-4.2832940816879272e-02" rms="3.0871734023094177e-01" purity="1.2344782799482346e-01" nType="0">
                    <Node pos="l" depth="7" NCoef="0" IVar="-1" Cut="0.0000000000000000e+00" cType="1" res="-1.1041111312806606e-02" rms="2.8938439488410950e-01" purity="1.0504687577486038e-01" nType="-99"/>
                    <Node pos="r" depth="7" NCoef="0" IVar="-1" Cut="0.0000000000000000e+00" cType="1" res="-4.8759304918348789e-03" rms="3.3768385648727417e-01" purity="1.5397889912128448e-01" nType="-99"/>
                  </Node>
                </Node>
                <Node pos="r" depth="5" NCoef="0" IVar="2" Cut="2.4917048645019531e+02" cType="1" res="-1.4005762524902821e-02" rms="3.7678050994873047e-01" purity="1.9979013502597809e-01" nType="0">
                  <Node pos="l" depth="6" NCoef="0" IVar="3" Cut="4.2564758658409119e-01" cType="1" res="6.3767479732632637e-03" rms="3.9601507782936096e-01" purity="2.3965869843959808e-01" nType="0">
                    <Node pos="l" depth="7" NCoef="0" IVar="-1" Cut="0.0000000000000000e+00" cType="1" res="-2.9845617245882750e-03" rms="3.3081176877021790e-01" purity="1.3573612272739410e-01" nType="-99"/>
                    <Node pos="r" depth="7" NCoef="0" IVar="-1" Cut="0.0000000000000000e+00" cType="1" res="3.4169883001595736e-03" rms="4.7014865279197693e-01" purity="3.8322836160659790e-01" nType="-99"/>
                  </Node>
                  <Node pos="r" depth="6" NCoef="0" IVar="4" Cut="5.3109419345855713e-01" cType="1" res="-2.2881882265210152e-02" rms="3.6773732304573059e-01" purity="1.8242831528186798e-01" nType="0">
                    <Node pos="l" depth="7" NCoef="0" IVar="-1" Cut="0.0000000000000000e+00" cType="1" res="-2.8754451777786016e-03" rms="3.8330960273742676e-01" purity="2.0237948000431061e-01" nType="-99"/>
                    <Node pos="r" depth="7" NCoef="0" IVar="-1" Cut="0.0000000000000000e+00" cType="1" res="-8.7529607117176056e-03" rms="3.0368754267692566e-01" purity="1.0972467064857483e-01" nType="-99"/>
                  </Node>
                </Node>
              </Node>
            </Node>
            <Node pos="r" depth="3" NCoef="0" IVar="3" Cut="2.5544255971908569e-01" cType="1" res="-4.1503760963678360e-02" rms="1.9285483658313751e-01" purity="4.1727639734745026e-02" nType="0">
              <Node pos="l" depth="4" NCoef="0" IVar="-1" Cut="0.0000000000000000e+00" cType="1" res="-8.2999402657151222e-03" rms="2.3312810063362122e-01" purity="6.4617417752742767e-02" nType="-99"/>
              <Node pos="r" depth="4" NCoef="0" IVar="4" Cut="2.9774520397186279e+00" cType="1" res="-5.0754994153976440e-02" rms="1.6927070915699005e-01" purity="3.0683569610118866e-02" nType="0">
                <Node pos="l" depth="5" NCoef="0" IVar="-1" Cut="0.0000000000000000e+00" cType="1" res="-1.3594957068562508e-02" rms="2.1444205939769745e-01" purity="5.0899934023618698e-02" nType="-99"/>
                <Node pos="r" depth="5" NCoef="0" IVar="0" Cut="1.1184777021408081e+00" cType="1" res="-5.7448726147413254e-02" rms="1.3153505325317383e-01" purity="1.7576934769749641e-02" nType="0">
                  <Node pos="l" depth="6" NCoef="0" IVar="-1" Cut="0.0000000000000000e+00" cType="1" res="-2.0965062081813812e-02" rms="1.6331532597541809e-01" purity="2.7394928038120270e-02" nType="-99"/>
                  <Node pos="r" depth="6" NCoef="0" IVar="-1" Cut="0.0000000000000000e+00" cType="1" res="-2.5160823017358780e-02" rms="9.1817967593669891e-02" purity="8.3724772557616234e-03" nType="-99"/>
                </Node>
              </Node>
            </Node>
          </Node>
          <Node pos="r" depth="2" NCoef="0" IVar="4" Cut="9.1758835315704346e-01" cType="1" res="5.7488423772156239e-03" rms="4.7943848371505737e-01" purity="4.9456346035003662e-01" nType="0">
            <Node pos="l" depth="3" NCoef="0" IVar="6" Cut="8.0591253936290741e-02" cType="1" res="1.1357614770531654e-02" rms="4.8485472798347473e-01" purity="5.1846724748611450e-01" nType="0">
              <Node pos="l" depth="4" NCoef="0" IVar="6" Cut="3.9207782596349716e-02" cType="1" res="1.7936285585165024e-03" rms="4.8419040441513062e-01" purity="5.0676560401916504e-01" nType="0">
                <Node pos="l" depth="5" NCoef="0" IVar="2" Cut="4.3630889892578125e+01" cType="1" res="-2.7186540886759758e-02" rms="4.8182353377342224e-01" purity="4.7743058204650879e-01" nType="0">
                  <Node pos="l" depth="6" NCoef="0" IVar="-1" Cut="0.0000000000000000e+00" cType="1" res="9.6185685833916068e-05" rms="4.8208984732627869e-01" purity="5.2143442630767822e-01" nType="-99"/>
                  <Node pos="r" depth="6" NCoef="0" IVar="-1" Cut="0.0000000000000000e+00" cType="1" res="-4.6096104197204113e-03" rms="4.8045352101325989e-01" purity="4.4299754500389099e-01" nType="-99"/>
                </Node>
                <Node pos="r" depth="5" NCoef="0" IVar="2" Cut="9.3367759704589844e+01" cType="1" res="1.5985710546374321e-02" rms="4.8471367359161377e-01" purity="5.2113145589828491e-01" nType="0">
                  <Node pos="l" depth="6" NCoef="0" IVar="5" Cut="-2.3211166858673096e+00" cType="1" res="5.4331071674823761e-02" rms="4.8329433798789978e-01" purity="5.8177870512008667e-01" nType="0">
                    <Node pos="l" depth="7" NCoef="0" IVar="-1" Cut="0.0000000000000000e+00" cType="1" res="6.4279539510607719e-03" rms="4.7726324200630188e-01" purity="6.1809325218200684e-01" nType="-99"/>
                    <Node pos="r" depth="7" NCoef="0" IVar="-1" Cut="0.0000000000000000e+00" cType="1" res="2.5555330794304609e-03" rms="4.8763447999954224e-01" purity="5.4838442802429199e-01" nType="-99"/>
                  </Node>
                  <Node pos="r" depth="6" NCoef="0" IVar="6" Cut="5.2557013928890228e-02" cType="1" res="-4.7687604092061520e-03" rms="4.8421522974967957e-01" purity="4.8830607533454895e-01" nType="0">
                    <Node pos="l" depth="7" NCoef="0" IVar="-1" Cut="0.0000000000000000e+00" cType="1" res="-3.7792227230966091e-03" rms="4.7942352294921875e-01" purity="4.4258430600166321e-01" nType="-99"/>
                    <Node pos="r" depth="7" NCoef="0" IVar="-1" Cut="0.0000000000000000e+00" cType="1" res="7.2922086110338569e-04" rms="4.8527115583419800e-01" purity="5.0451505184173584e-01" nType="-99"/>
                  </Node>
                </Node>
              </Node>
              <Node pos="r" depth="4" NCoef="0" IVar="2" Cut="3.4150961303710938e+02" cType="1" res="3.0397007241845131e-02" rms="4.8561412096023560e-01" purity="5.4176211357116699e-01" nType="0">
                <Node pos="l" depth="5" NCoef="0" IVar="4" Cut="-1.1262970417737961e-01" cType="1" res="4.2181074619293213e-02" rms="4.8355764150619507e-01" purity="5.6359726190567017e-01" nType="0">
                  <Node pos="l" depth="6" NCoef="0" IVar="3" Cut="6.7564010620117188e-01" cType="1" res="5.6157439947128296e-02" rms="4.8058047890663147e-01" purity="5.8922183513641357e-01" nType="0">
                    <Node pos="l" depth="7" NCoef="0" IVar="-1" Cut="0.0000000000000000e+00" cType="1" res="3.2505649141967297e-03" rms="4.9245932698249817e-01" purity="5.2119380235671997e-01" nType="-99"/>
                    <Node pos="r" depth="7" NCoef="0" IVar="-1" Cut="0.0000000000000000e+00" cType="1" res="5.6291245855391026e-03" rms="4.6887382864952087e-01" purity="6.5154343843460083e-01" nType="-99"/>
                  </Node>
                  <Node pos="r" depth="6" NCoef="0" IVar="-1" Cut="0.0000000000000000e+00" cType="1" res="1.5173046849668026e-03" rms="4.8774853348731995e-01" purity="5.1891410350799561e-01" nType="-99"/>
                </Node>
                <Node pos="r" depth="5" NCoef="0" IVar="-1" Cut="0.0000000000000000e+00" cType="1" res="3.6970735527575016e-04" rms="4.8916700482368469e-01" purity="4.9273571372032166e-01" nType="-99"/>
              </Node>
            </Node>
            <Node pos="r" depth="3" NCoef="0" IVar="-1" Cut="0.0000000000000000e+00" cType="1" res="-5.3314887918531895e-03" rms="4.2193058133125305e-01" purity="2.7123585343360901e-01" nType="-99"/>
          </Node>
        </Node>
        <Node pos="r" depth="1" NCoef="0" IVar="0" Cut="5.8072727918624878e-01" cType="1" res="3.5997875034809113e-02" rms="4.2665240168571472e-01" purity="7.3552620410919189e-01" nType="0">
          <Node pos="l" depth="2" NCoef="0" IVar="5" Cut="-2.5070264339447021e+00" cType="1" res="3.9346132427453995e-02" rms="4.2466944456100464e-01" purity="7.4436527490615845e-01" nType="0">
            <Node pos="l" depth="3" NCoef="0" IVar="0" Cut="1.8733042478561401e-01" cType="1" res="5.3770948201417923e-02" rms="3.9614710211753845e-01" purity="7.9757845401763916e-01" nType="0">
              <Node pos="l" depth="4" NCoef="0" IVar="4" Cut="-1.0739719867706299e+00" cType="1" res="5.7382136583328247e-02" rms="3.9017459750175476e-01" purity="8.0726611614227295e-01" nType="0">
                <Node pos="l" depth="5" NCoef="0" IVar="4" Cut="-2.4384996891021729e+00" cType="1" res="4.8933416604995728e-02" rms="4.1957524418830872e-01" purity="7.6605969667434692e-01" nType="0">
                  <Node pos="l" depth="6" NCoef="0" IVar="4" Cut="-2.8661224842071533e+00" cType="1" res="6.4186528325080872e-02" rms="4.0515351295471191e-01" purity="7.8768587112426758e-01" nType="0">
                    <Node pos="l" depth="7" NCoef="0" IVar="-1" Cut="0.0000000000000000e+00" cType="1" res="7.2910175658762455e-03" rms="3.9203724265098572e-01" purity="8.0662357807159424e-01" nType="-99"/>
                    <Node pos="r" depth="7" NCoef="0" IVar="-1" Cut="0.0000000000000000e+00" cType="1" res="5.7426849380135536e-03" rms="4.1543975472450256e-01" purity="7.7229261398315430e-01" nType="-99"/>
                  </Node>
                  <Node pos="r" depth="6" NCoef="0" IVar="4" Cut="-1.8663041591644287e+00" cType="1" res="3.8706485182046890e-02" rms="4.2866951227188110e-01" purity="7.5155973434448242e-01" nType="0">
                    <Node pos="l" depth="7" NCoef="0" IVar="-1" Cut="0.0000000000000000e+00" cType="1" res="3.0988354701548815e-03" rms="4.3410891294479370e-01" purity="7.4023759365081787e-01" nType="-99"/>
                    <Node pos="r" depth="7" NCoef="0" IVar="-1" Cut="0.0000000000000000e+00" cType="1" res="3.6722549702972174e-03" rms="4.2412990331649780e-01" purity="7.6082509756088257e-01" nType="-99"/>
                  </Node>
                </Node>
                <Node pos="r" depth="5" NCoef="0" IVar="1" Cut="2.2531087696552277e-01" cType="1" res="6.3056036829948425e-02" rms="3.6900940537452698e-01" purity="8.3493906259536743e-01" nType="0">
                  <Node pos="l" depth="6" NCoef="0" IVar="3" Cut="9.9555903673171997e-01" cType="1" res="6.7327126860618591e-02" rms="3.5639193654060364e-01" purity="8.4983342885971069e-01" nType="0">
                    <Node pos="l" depth="7" NCoef="0" IVar="-1" Cut="0.0000000000000000e+00" cType="1" res="6.5560843795537949e-03" rms="3.7272521853446960e-01" purity="8.3243501186370850e-01" nType="-99"/>
                    <Node pos="r" depth="7" NCoef="0" IVar="-1" Cut="0.0000000000000000e+00" cType="1" res="8.1803910434246063e-03" rms="3.4571921825408936e-01" purity="8.6071074008941650e-01" nType="-99"/>
                  </Node>
                  <Node pos="r" depth="6" NCoef="0" IVar="4" Cut="-3.9897850155830383e-01" cType="1" res="5.1575917750597000e-02" rms="4.0073484182357788e-01" purity="7.9490482807159424e-01" nType="0">
                    <Node pos="l" depth="7" NCoef="0" IVar="-1" Cut="0.0000000000000000e+00" cType="1" res="4.1689411737024784e-03" rms="4.1079676151275635e-01" purity="7.8107297420501709e-01" nType="-99"/>
                    <Node pos="r" depth="7" NCoef="0" IVar="-1" Cut="0.0000000000000000e+00" cType="1" res="5.7603875175118446e-03" rms="3.9512553811073303e-01" purity="8.0238348245620728e-01" nType="-99"/>
                  </Node>
                </Node>
              </Node>
              <Node pos="r" depth="4" NCoef="0" IVar="-1" Cut="0.0000000000000000e+00" cType="1" res="1.0309771168977022e-03" rms="4.5922201871871948e-01" purity="6.8214499950408936e-01" nType="-99"/>
            </Node>
            <Node pos="r" depth="3" NCoef="0" IVar="0" Cut="1.6856615245342255e-01" cType="1" res="2.3913826793432236e-02" rms="4.5269209146499634e-01" purity="6.8743538856506348e-01" nType="0">
              <Node pos="l" depth="4" NCoef="0" IVar="5" Cut="-1.1333886384963989e+00" cType="1" res="2.7231683954596519e-02" rms="4.4881418347358704e-01" purity="7.0084929466247559e-01" nType="0">
                <Node pos="l" depth="5" NCoef="0" IVar="4" Cut="-2.0354662835597992e-01" cType="1" res="3.1523920595645905e-02" rms="4.3932089209556580e-01" purity="7.2991073131561279e-01" nType="0">
                  <Node pos="l" depth="6" NCoef="0" IVar="1" Cut="2.6108595728874207e-01" cType="1" res="2.5395838543772697e-02" rms="4.4640845060348511e-01" purity="7.1651715040206909e-01" nType="0">
                    <Node pos="l" depth="7" NCoef="0" IVar="-1" Cut="0.0000000000000000e+00" cType="1" res="2.9011424630880356e-03" rms="4.3787160515785217e-01" purity="7.3623377084732056e-01" nType="-99"/>
                    <Node pos="r" depth="7" NCoef="0" IVar="-1" Cut="0.0000000000000000e+00" cType="1" res="7.4271083576604724e-04" rms="4.7045561671257019e-01" purity="6.5795975923538208e-01" nType="-99"/>
                  </Node>
                  <Node pos="r" depth="6" NCoef="0" IVar="3" Cut="1.0004105567932129e+00" cType="1" res="4.6053599566221237e-02" rms="4.2168518900871277e-01" purity="7.6166689395904541e-01" nType="0">
                    <Node pos="l" depth="7" NCoef="0" IVar="-1" Cut="0.0000000000000000e+00" cType="1" res="3.8808409590274096e-03" rms="4.3038851022720337e-01" purity="7.4632132053375244e-01" nType="-99"/>
                    <Node pos="r" depth="7" NCoef="0" IVar="-1" Cut="0.0000000000000000e+00" cType="1" res="5.7739461772143841e-03" rms="4.0525454282760620e-01" purity="7.8931283950805664e-01" nType="-99"/>
                  </Node>
                </Node>
                <Node pos="r" depth="5" NCoef="0" IVar="3" Cut="9.7258484363555908e-01" cType="1" res="8.4995171055197716e-03" rms="4.8764610290527344e-01" purity="5.7401949167251587e-01" nType="0">
                  <Node pos="l" depth="6" NCoef="0" IVar="-1" Cut="0.0000000000000000e+00" cType="1" res="1.5794456703588367e-04" rms="4.9124300479888916e-01" purity="5.4542654752731323e-01" nType="-99"/>
                  <Node pos="r" depth="6" NCoef="0" IVar="-1" Cut="0.0000000000000000e+00" cType="1" res="1.3872978743165731e-03" rms="4.8337286710739136e-01" purity="6.0682046413421631e-01" nType="-99"/>
                </Node>
              </Node>
              <Node pos="r" depth="4" NCoef="0" IVar="0" Cut="2.8848934173583984e-01" cType="1" res="-8.8209193199872971e-04" rms="4.7995850443840027e-01" purity="5.8718663454055786e-01" nType="0">
                <Node pos="l" depth="5" NCoef="0" IVar="-1" Cut="0.0000000000000000e+00" cType="1" res="1.0614563943818212e-03" rms="4.7401708364486694e-01" purity="6.0040503740310669e-01" nType="-99"/>
                <Node pos="r" depth="5" NCoef="0" IVar="-1" Cut="0.0000000000000000e+00" cType="1" res="-1.3074342859908938e-03" rms="4.8658135533332825e-01" purity="5.7139128446578979e-01" nType="-99"/>
              </Node>
            </Node>
          </Node>
          <Node pos="r" depth="2" NCoef="0" IVar="-1" Cut="0.0000000000000000e+00" cType="1" res="-7.4623897671699524e-03" rms="4.7705021500587463e-01" purity="4.2030617594718933e-01" nType="-99"/>
        </Node>
      </Node>
    </BinaryTree>
    <BinaryTree type="DecisionTree" boostWeight="1.0000000000000000e+00" itree="49">
      <Node pos="s" depth="0" NCoef="0" IVar="3" Cut="7.7301573753356934e-01" cType="1" res="9.8259299993515015e-03" rms="4.0771788358688354e-01" purity="4.9925598502159119e-01" nType="0">
        <Node pos="l" depth="1" NCoef="0" IVar="4" Cut="1.9289697408676147e+00" cType="1" res="-1.6407709568738937e-02" rms="3.8743031024932861e-01" purity="2.6339432597160339e-01" nType="0">
          <Node pos="l" depth="2" NCoef="0" IVar="3" Cut="5.9860956668853760e-01" cType="1" res="-1.1492150835692883e-02" rms="4.0753474831581116e-01" purity="2.9589512944221497e-01" nType="0">
            <Node pos="l" depth="3" NCoef="0" IVar="4" Cut="-2.2251956462860107e+00" cType="1" res="-2.1405668929219246e-02" rms="3.5769274830818176e-01" purity="1.7695838212966919e-01" nType="0">
              <Node pos="l" depth="4" NCoef="0" IVar="3" Cut="4.0568336844444275e-01" cType="1" res="1.1049586348235607e-02" rms="4.0498182177543640e-01" purity="2.4622420966625214e-01" nType="0">
                <Node pos="l" depth="5" NCoef="0" IVar="-1" Cut="0.0000000000000000e+00" cType="1" res="-3.0399125535041094e-04" rms="3.5715237259864807e-01" purity="1.6926759481430054e-01" nType="-99"/>
                <Node pos="r" depth="5" NCoef="0" IVar="-1" Cut="0.0000000000000000e+00" cType="1" res="2.6668359059840441e-03" rms="4.4724556803703308e-01" purity="3.2292675971984863e-01" nType="-99"/>
              </Node>
              <Node pos="r" depth="4" NCoef="0" IVar="3" Cut="3.2883238792419434e-01" cType="1" res="-2.4146517738699913e-02" rms="3.5327303409576416e-01" purity="1.7110888659954071e-01" nType="0">
                <Node pos="l" depth="5" NCoef="0" IVar="7" Cut="4.0000000000000000e+00" cType="1" res="7.5051106512546539e-02" rms="5.5092971771955490e-02" purity="8.7414391338825226e-02" nType="0">
                  <Node pos="l" depth="6" NCoef="0" IVar="-1" Cut="0.0000000000000000e+00" cType="1" res="5.8189281262457371e-03" rms="3.8444903492927551e-01" purity="2.0223614573478699e-01" nType="-99"/>
                  <Node pos="r" depth="6" NCoef="0" IVar="5" Cut="-2.3813505172729492e+00" cType="1" res="-4.2120516300201416e-02" rms="2.5331348180770874e-01" purity="7.3106802999973297e-02" nType="0">
                    <Node pos="l" depth="7" NCoef="0" IVar="-1" Cut="0.0000000000000000e+00" cType="1" res="-9.0218167752027512e-03" rms="2.6760071516036987e-01" purity="8.4059849381446838e-02" nType="-99"/>
                    <Node pos="r" depth="7" NCoef="0" IVar="-1" Cut="0.0000000000000000e+00" cType="1" res="-1.4410859905183315e-02" rms="2.4322016537189484e-01" purity="6.5910838544368744e-02" nType="-99"/>
                  </Node>
                </Node>
                <Node pos="r" depth="5" NCoef="0" IVar="7" Cut="4.0000000000000000e+00" cType="1" res="-1.8441751599311829e-02" rms="3.9130416512489319e-01" purity="2.1790020167827606e-01" nType="0">
                  <Node pos="l" depth="6" NCoef="0" IVar="5" Cut="-2.8089933395385742e+00" cType="1" res="-4.3687056750059128e-02" rms="3.8710325956344604e-01" purity="2.0944136381149292e-01" nType="0">
                    <Node pos="l" depth="7" NCoef="0" IVar="-1" Cut="0.0000000000000000e+00" cType="1" res="-1.1779517866671085e-02" rms="3.4601783752441406e-01" purity="1.5664109587669373e-01" nType="-99"/>
                    <Node pos="r" depth="7" NCoef="0" IVar="-1" Cut="0.0000000000000000e+00" cType="1" res="-4.5543047599494457e-03" rms="3.9850035309791565e-01" purity="2.2591854631900787e-01" nType="-99"/>
                  </Node>
                  <Node pos="r" depth="6" NCoef="0" IVar="0" Cut="4.1360232234001160e-01" cType="1" res="-6.3768029212951660e-03" rms="3.9280065894126892e-01" purity="2.2202374041080475e-01" nType="0">
                    <Node pos="l" depth="7" NCoef="0" IVar="-1" Cut="0.0000000000000000e+00" cType="1" res="2.1595018915832043e-03" rms="4.6648973226547241e-01" purity="3.5985535383224487e-01" nType="-99"/>
                    <Node pos="r" depth="7" NCoef="0" IVar="-1" Cut="0.0000000000000000e+00" cType="1" res="-3.1984173692762852e-03" rms="3.5579517483711243e-01" purity="1.6265712678432465e-01" nType="-99"/>
                  </Node>
                </Node>
              </Node>
            </Node>
            <Node pos="r" depth="3" NCoef="0" IVar="7" Cut="3.0000000000000000e+00" cType="1" res="6.3495887443423271e-03" rms="4.8204606771469116e-01" purity="5.0474458932876587e-01" nType="0">
              <Node pos="l" depth="4" NCoef="0" IVar="0" Cut="2.8662616014480591e-01" cType="1" res="-1.9476253539323807e-02" rms="4.8013347387313843e-01" purity="4.6232330799102783e-01" nType="0">
                <Node pos="l" depth="5" NCoef="0" IVar="-1" Cut="0.0000000000000000e+00" cType="1" res="6.9899455411359668e-04" rms="4.8544946312904358e-01" purity="5.5836677551269531e-01" nType="-99"/>
                <Node pos="r" depth="5" NCoef="0" IVar="6" Cut="5.6416973471641541e-02" cType="1" res="-3.6276049911975861e-02" rms="4.7612512111663818e-01" purity="4.0468427538871765e-01" nType="0">
                  <Node pos="l" depth="6" NCoef="0" IVar="-1" Cut="0.0000000000000000e+00" cType="1" res="-6.2085138633847237e-03" rms="4.6871158480644226e-01" purity="3.8558325171470642e-01" nType="-99"/>
                  <Node pos="r" depth="6" NCoef="0" IVar="-1" Cut="0.0000000000000000e+00" cType="1" res="-5.5122573394328356e-04" rms="4.8126098513603210e-01" purity="4.2316129803657532e-01" nType="-99"/>
                </Node>
              </Node>
              <Node pos="r" depth="4" NCoef="0" IVar="6" Cut="5.1281012594699860e-02" cType="1" res="1.8473828211426735e-02" rms="4.8282703757286072e-01" purity="5.2572494745254517e-01" nType="0">
                <Node pos="l" depth="5" NCoef="0" IVar="2" Cut="7.6833343505859375e+01" cType="1" res="-4.5879757963120937e-03" rms="4.8353230953216553e-01" purity="5.0260442495346069e-01" nType="0">
                  <Node pos="l" depth="6" NCoef="0" IVar="6" Cut="2.6838738471269608e-02" cType="1" res="2.2170484066009521e-02" rms="4.8581740260124207e-01" purity="5.4434448480606079e-01" nType="0">
                    <Node pos="l" depth="7" NCoef="0" IVar="-1" Cut="0.0000000000000000e+00" cType="1" res="2.4842345737852156e-04" rms="4.8666423559188843e-01" purity="5.2475953102111816e-01" nType="-99"/>
                    <Node pos="r" depth="7" NCoef="0" IVar="-1" Cut="0.0000000000000000e+00" cType="1" res="3.4397176932543516e-03" rms="4.8436111211776733e-01" purity="5.6227469444274902e-01" nType="-99"/>
                  </Node>
                  <Node pos="r" depth="6" NCoef="0" IVar="-1" Cut="0.0000000000000000e+00" cType="1" res="-3.7091018166393042e-03" rms="4.7836163640022278e-01" purity="4.4875076413154602e-01" nType="-99"/>
                </Node>
                <Node pos="r" depth="5" NCoef="0" IVar="2" Cut="2.3186540222167969e+02" cType="1" res="3.1837958842515945e-02" rms="4.8191305994987488e-01" purity="5.3912299871444702e-01" nType="0">
                  <Node pos="l" depth="6" NCoef="0" IVar="2" Cut="1.4597126770019531e+02" cType="1" res="5.0894945859909058e-02" rms="4.8064756393432617e-01" purity="5.7196688652038574e-01" nType="0">
                    <Node pos="l" depth="7" NCoef="0" IVar="-1" Cut="0.0000000000000000e+00" cType="1" res="5.3057470358908176e-03" rms="4.7741106152534485e-01" purity="5.9451133012771606e-01" nType="-99"/>
                    <Node pos="r" depth="7" NCoef="0" IVar="-1" Cut="0.0000000000000000e+00" cType="1" res="2.6194497477263212e-03" rms="4.8527151346206665e-01" purity="5.3387826681137085e-01" nType="-99"/>
                  </Node>
                  <Node pos="r" depth="6" NCoef="0" IVar="4" Cut="-1.3243877887725830e+00" cType="1" res="2.1849048789590597e-03" rms="4.8238080739974976e-01" purity="4.8801732063293457e-01" nType="0">
                    <Node pos="l" depth="7" NCoef="0" IVar="-1" Cut="0.0000000000000000e+00" cType="1" res="2.7180057950317860e-03" rms="4.8165127635002136e-01" purity="5.6145262718200684e-01" nType="-99"/>
                    <Node pos="r" depth="7" NCoef="0" IVar="-1" Cut="0.0000000000000000e+00" cType="1" res="-1.5956666320562363e-03" rms="4.8195439577102661e-01" purity="4.3991634249687195e-01" nType="-99"/>
                  </Node>
                </Node>
              </Node>
            </Node>
          </Node>
          <Node pos="r" depth="2" NCoef="0" IVar="3" Cut="5.0353032350540161e-01" cType="1" res="-4.9028277397155762e-02" rms="2.0692069828510284e-01" purity="4.7712843865156174e-02" nType="0">
            <Node pos="l" depth="3" NCoef="0" IVar="2" Cut="5.6133520507812500e+02" cType="1" res="-3.7785038352012634e-02" rms="1.8687196075916290e-01" purity="3.8909621536731720e-02" nType="0">
              <Node pos="l" depth="4" NCoef="0" IVar="7" Cut="7.0000000000000000e+00" cType="1" res="-4.6071000397205353e-02" rms="1.4884078502655029e-01" purity="2.3372679948806763e-02" nType="0">
                <Node pos="l" depth="5" NCoef="0" IVar="2" Cut="2.1919758605957031e+02" cType="1" res="-5.1041644066572189e-02" rms="1.3586707413196564e-01" purity="1.9151465967297554e-02" nType="0">
                  <Node pos="l" depth="6" NCoef="0" IVar="-1" Cut="0.0000000000000000e+00" cType="1" res="-2.0874828100204468e-02" rms="1.4761382341384888e-01" purity="2.3228000849485397e-02" nType="-99"/>
                  <Node pos="r" depth="6" NCoef="0" IVar="-1" Cut="0.0000000000000000e+00" cType="1" res="-2.5164699181914330e-02" rms="1.2190862745046616e-01" purity="1.4883507974445820e-02" nType="-99"/>
                </Node>
                <Node pos="r" depth="5" NCoef="0" IVar="-1" Cut="0.0000000000000000e+00" cType="1" res="-1.6123916953802109e-02" rms="1.7368026077747345e-01" purity="3.2725702971220016e-02" nType="-99"/>
              </Node>
              <Node pos="r" depth="4" NCoef="0" IVar="-1" Cut="0.0000000000000000e+00" cType="1" res="-1.9456702284514904e-03" rms="2.8496864438056946e-01" purity="9.6716076135635376e-02" nType="-99"/>
            </Node>
            <Node pos="r" depth="3" NCoef="0" IVar="-1" Cut="0.0000000000000000e+00" cType="1" res="-1.7603773623704910e-02" rms="2.7707022428512573e-01" purity="8.9398019015789032e-02" nType="-99"/>
          </Node>
        </Node>
        <Node pos="r" depth="1" NCoef="0" IVar="3" Cut="1.0595389604568481e+00" cType="1" res="3.6312907934188843e-02" rms="4.2558765411376953e-01" purity="7.3739546537399292e-01" nType="0">
          <Node pos="l" depth="2" NCoef="0" IVar="0" Cut="5.5945098400115967e-01" cType="1" res="3.8583450019359589e-02" rms="4.2497375607490540e-01" purity="7.4085932970046997e-01" nType="0">
            <Node pos="l" depth="3" NCoef="0" IVar="1" Cut="5.3110039234161377e-01" cType="1" res="4.0770757943391800e-02" rms="4.2301028966903687e-01" purity="7.4815005064010620e-01" nType="0">
              <Node pos="l" depth="4" NCoef="0" IVar="3" Cut="8.7468373775482178e-01" cType="1" res="4.6281415969133377e-02" rms="4.1626775264739990e-01" purity="7.6288443803787231e-01" nType="0">
                <Node pos="l" depth="5" NCoef="0" IVar="5" Cut="-9.6020638942718506e-01" cType="1" res="3.0498761683702469e-02" rms="4.5661905407905579e-01" purity="6.8581396341323853e-01" nType="0">
                  <Node pos="l" depth="6" NCoef="0" IVar="4" Cut="-2.6470830440521240e+00" cType="1" res="3.3220518380403519e-02" rms="4.5175001025199890e-01" purity="7.0742881298065186e-01" nType="0">
                    <Node pos="l" depth="7" NCoef="0" IVar="-1" Cut="0.0000000000000000e+00" cType="1" res="5.2086762152612209e-03" rms="4.2673298716545105e-01" purity="7.5718629360198975e-01" nType="-99"/>
                    <Node pos="r" depth="7" NCoef="0" IVar="-1" Cut="0.0000000000000000e+00" cType="1" res="2.5600418448448181e-03" rms="4.5662298798561096e-01" purity="6.9715863466262817e-01" nType="-99"/>
                  </Node>
                  <Node pos="r" depth="6" NCoef="0" IVar="-1" Cut="0.0000000000000000e+00" cType="1" res="7.9814309719949961e-04" rms="4.9263089895248413e-01" purity="5.1624089479446411e-01" nType="-99"/>
                </Node>
                <Node pos="r" depth="5" NCoef="0" IVar="3" Cut="9.9990463256835938e-01" cType="1" res="5.2100129425525665e-02" rms="4.0020939707756042e-01" purity="7.9129868745803833e-01" nType="0">
                  <Node pos="l" depth="6" NCoef="0" IVar="4" Cut="-2.1636345386505127e+00" cType="1" res="4.6678435057401657e-02" rms="4.0796437859535217e-01" purity="7.8016173839569092e-01" nType="0">
                    <Node pos="l" depth="7" NCoef="0" IVar="-1" Cut="0.0000000000000000e+00" cType="1" res="6.9334409199655056e-03" rms="4.0136170387268066e-01" purity="7.9304492473602295e-01" nType="-99"/>
                    <Node pos="r" depth="7" NCoef="0" IVar="-1" Cut="0.0000000000000000e+00" cType="1" res="4.4187768362462521e-03" rms="4.0923026204109192e-01" purity="7.7746975421905518e-01" nType="-99"/>
                  </Node>
                  <Node pos="r" depth="6" NCoef="0" IVar="5" Cut="-2.9993817806243896e+00" cType="1" res="6.1570353806018829e-02" rms="3.8610768318176270e-01" purity="8.1075185537338257e-01" nType="0">
                    <Node pos="l" depth="7" NCoef="0" IVar="-1" Cut="0.0000000000000000e+00" cType="1" res="8.4294956177473068e-03" rms="3.4037393331527710e-01" purity="8.6500698328018188e-01" nType="-99"/>
                    <Node pos="r" depth="7" NCoef="0" IVar="-1" Cut="0.0000000000000000e+00" cType="1" res="5.2371812053024769e-03" rms="4.0406981110572815e-01" purity="7.8726875782012939e-01" nType="-99"/>
                  </Node>
                </Node>
              </Node>
              <Node pos="r" depth="4" NCoef="0" IVar="5" Cut="-1.8830500841140747e+00" cType="1" res="2.9759809840470552e-03" rms="4.6487870812416077e-01" purity="6.4709424972534180e-01" nType="0">
                <Node pos="l" depth="5" NCoef="0" IVar="3" Cut="9.9476563930511475e-01" cType="1" res="2.1771229803562164e-02" rms="4.5470318198204041e-01" purity="6.9332253932952881e-01" nType="0">
                  <Node pos="l" depth="6" NCoef="0" IVar="4" Cut="-1.8959529399871826e+00" cType="1" res="-1.0851399274542928e-03" rms="4.7717270255088806e-01" purity="6.3766086101531982e-01" nType="0">
                    <Node pos="l" depth="7" NCoef="0" IVar="-1" Cut="0.0000000000000000e+00" cType="1" res="1.2299037771299481e-03" rms="4.7752898931503296e-01" purity="6.4281910657882690e-01" nType="-99"/>
                    <Node pos="r" depth="7" NCoef="0" IVar="-1" Cut="0.0000000000000000e+00" cType="1" res="-1.4002693351358175e-03" rms="4.7637093067169189e-01" purity="6.3271033763885498e-01" nType="-99"/>
                  </Node>
                  <Node pos="r" depth="6" NCoef="0" IVar="-1" Cut="0.0000000000000000e+00" cType="1" res="4.0651364251971245e-03" rms="4.2769044637680054e-01" purity="7.5355637073516846e-01" nType="-99"/>
                </Node>
                <Node pos="r" depth="5" NCoef="0" IVar="-1" Cut="0.0000000000000000e+00" cType="1" res="-4.7603156417608261e-03" rms="4.9052420258522034e-01" purity="5.0389254093170166e-01" nType="-99"/>
              </Node>
            </Node>
            <Node pos="r" depth="3" NCoef="0" IVar="-1" Cut="0.0000000000000000e+00" cType="1" res="-3.7956426385790110e-03" rms="4.8593014478683472e-01" purity="4.6747833490371704e-01" nType="-99"/>
          </Node>
          <Node pos="r" depth="2" NCoef="0" IVar="-1" Cut="0.0000000000000000e+00" cType="1" res="-5.5357767269015312e-03" rms="4.4011840224266052e-01" purity="5.9356886148452759e-01" nType="-99"/>
        </Node>
      </Node>
    </BinaryTree>
    <BinaryTree type="DecisionTree" boostWeight="1.0000000000000000e+00" itree="50">
      <Node pos="s" depth="0" NCoef="0" IVar="3" Cut="7.7264720201492310e-01" cType="1" res="9.7191715613007545e-03" rms="4.0790444612503052e-01" purity="4.9930483102798462e-01" nType="0">
        <Node pos="l" depth="1" NCoef="0" IVar="3" Cut="7.2280895709991455e-01" cType="1" res="-1.3938207179307938e-02" rms="3.8796895742416382e-01" purity="2.6512083411216736e-01" nType="0">
          <Node pos="l" depth="2" NCoef="0" IVar="1" Cut="1.1591551303863525e+00" cType="1" res="-1.8145537003874779e-02" rms="3.7560230493545532e-01" purity="2.2849117219448090e-01" nType="0">
            <Node pos="l" depth="3" NCoef="0" IVar="4" Cut="1.9535233974456787e+00" cType="1" res="-1.4664307236671448e-02" rms="3.8538849353790283e-01" purity="2.4419867992401123e-01" nType="0">
              <Node pos="l" depth="4" NCoef="0" IVar="3" Cut="4.4305735826492310e-01" cType="1" res="-1.0182948783040047e-02" rms="4.0687614679336548e-01" purity="2.7614575624465942e-01" nType="0">
                <Node pos="l" depth="5" NCoef="0" IVar="6" Cut="2.2114205360412598e-01" cType="1" res="-2.3909220471978188e-02" rms="3.0901414155960083e-01" purity="1.1824987083673477e-01" nType="0">
                  <Node pos="l" depth="6" NCoef="0" IVar="6" Cut="1.7127874493598938e-01" cType="1" res="-2.9716780409216881e-02" rms="2.8653809428215027e-01" purity="9.7137771546840668e-02" nType="0">
                    <Node pos="l" depth="7" NCoef="0" IVar="-1" Cut="0.0000000000000000e+00" cType="1" res="-9.7600976005196571e-03" rms="2.6733189821243286e-01" purity="8.1809759140014648e-02" nType="-99"/>
                    <Node pos="r" depth="7" NCoef="0" IVar="-1" Cut="0.0000000000000000e+00" cType="1" res="-3.1246163416653872e-04" rms="3.6574003100395203e-01" purity="1.7294292151927948e-01" nType="-99"/>
                  </Node>
                  <Node pos="r" depth="6" NCoef="0" IVar="4" Cut="-7.2436851263046265e-01" cType="1" res="7.0659127086400986e-03" rms="4.0711677074432373e-01" purity="2.3085309565067291e-01" nType="0">
                    <Node pos="l" depth="7" NCoef="0" IVar="-1" Cut="0.0000000000000000e+00" cType="1" res="3.0724103562533855e-03" rms="4.2969390749931335e-01" purity="2.6967728137969971e-01" nType="-99"/>
                    <Node pos="r" depth="7" NCoef="0" IVar="-1" Cut="0.0000000000000000e+00" cType="1" res="-1.1535494122654200e-03" rms="3.8452053070068359e-01" purity="1.9494907557964325e-01" nType="-99"/>
                  </Node>
                </Node>
                <Node pos="r" depth="5" NCoef="0" IVar="6" Cut="1.5820470452308655e-01" cType="1" res="-6.8222574191167951e-04" rms="4.6240556240081787e-01" purity="3.8543435931205750e-01" nType="0">
                  <Node pos="l" depth="6" NCoef="0" IVar="2" Cut="1.1467338562011719e+02" cType="1" res="-3.7061802577227354e-03" rms="4.6125519275665283e-01" purity="3.8384914398193359e-01" nType="0">
                    <Node pos="l" depth="7" NCoef="0" IVar="-1" Cut="0.0000000000000000e+00" cType="1" res="1.5495526604354382e-03" rms="4.7115021944046021e-01" purity="4.2705410718917847e-01" nType="-99"/>
                    <Node pos="r" depth="7" NCoef="0" IVar="-1" Cut="0.0000000000000000e+00" cType="1" res="-1.6858752351254225e-03" rms="4.5477095246315002e-01" purity="3.5785400867462158e-01" nType="-99"/>
                  </Node>
                  <Node pos="r" depth="6" NCoef="0" IVar="-1" Cut="0.0000000000000000e+00" cType="1" res="5.2008065395057201e-03" rms="4.7923076152801514e-01" purity="4.1362982988357544e-01" nType="-99"/>
                </Node>
              </Node>
              <Node pos="r" depth="4" NCoef="0" IVar="3" Cut="2.6557189226150513e-01" cType="1" res="-4.1885420680046082e-02" rms="2.1036422252655029e-01" purity="5.0142496824264526e-02" nType="0">
                <Node pos="l" depth="5" NCoef="0" IVar="-1" Cut="0.0000000000000000e+00" cType="1" res="-7.5272601097822189e-03" rms="2.3617962002754211e-01" purity="6.5604977309703827e-02" nType="-99"/>
                <Node pos="r" depth="5" NCoef="0" IVar="5" Cut="1.8038702011108398e+00" cType="1" res="-5.1281984895467758e-02" rms="1.9751943647861481e-01" purity="4.3509546667337418e-02" nType="0">
                  <Node pos="l" depth="6" NCoef="0" IVar="1" Cut="1.9351783394813538e-01" cType="1" res="-3.9709616452455521e-02" rms="2.4780876934528351e-01" purity="7.0824831724166870e-02" nType="0">
                    <Node pos="l" depth="7" NCoef="0" IVar="-1" Cut="0.0000000000000000e+00" cType="1" res="-7.9359430819749832e-03" rms="2.8101959824562073e-01" purity="9.2809833586215973e-02" nType="-99"/>
                    <Node pos="r" depth="7" NCoef="0" IVar="-1" Cut="0.0000000000000000e+00" cType="1" res="-1.5479799360036850e-02" rms="2.0456406474113464e-01" purity="4.6518407762050629e-02" nType="-99"/>
                  </Node>
                  <Node pos="r" depth="6" NCoef="0" IVar="-1" Cut="0.0000000000000000e+00" cType="1" res="-2.4916525930166245e-02" rms="1.1565260589122772e-01" purity="1.2631977908313274e-02" nType="-99"/>
                </Node>
              </Node>
            </Node>
            <Node pos="r" depth="3" NCoef="0" IVar="3" Cut="4.2292863130569458e-01" cType="1" res="-4.7251779586076736e-02" rms="2.7903968095779419e-01" purity="9.7162157297134399e-02" nType="0">
              <Node pos="l" depth="4" NCoef="0" IVar="7" Cut="5.0000000000000000e+00" cType="1" res="4.3025210499763489e-02" rms="0.0000000000000000e+00" purity="5.9661552309989929e-02" nType="0">
                <Node pos="l" depth="5" NCoef="0" IVar="-1" Cut="0.0000000000000000e+00" cType="1" res="-3.1139107886701822e-03" rms="3.0178046226501465e-01" purity="1.0435827821493149e-01" nType="-99"/>
                <Node pos="r" depth="5" NCoef="0" IVar="7" Cut="7.0000000000000000e+00" cType="1" res="-4.9130931496620178e-02" rms="1.8314217031002045e-01" purity="3.6253515630960464e-02" nType="0">
                  <Node pos="l" depth="6" NCoef="0" IVar="-1" Cut="0.0000000000000000e+00" cType="1" res="-1.7224960029125214e-02" rms="1.9627805054187775e-01" purity="4.2400594800710678e-02" nType="-99"/>
                  <Node pos="r" depth="6" NCoef="0" IVar="-1" Cut="0.0000000000000000e+00" cType="1" res="-2.0615428686141968e-02" rms="1.7134593427181244e-01" purity="3.1130935996770859e-02" nType="-99"/>
                </Node>
              </Node>
              <Node pos="r" depth="4" NCoef="0" IVar="-1" Cut="0.0000000000000000e+00" cType="1" res="-1.0386725887656212e-02" rms="3.6809426546096802e-01" purity="1.8800586462020874e-01" nType="-99"/>
            </Node>
          </Node>
          <Node pos="r" depth="2" NCoef="0" IVar="5" Cut="-2.1939063072204590e+00" cType="1" res="2.2202480584383011e-02" rms="4.7976562380790710e-01" purity="5.7976740598678589e-01" nType="0">
            <Node pos="l" depth="3" NCoef="0" IVar="7" Cut="3.0000000000000000e+00" cType="1" res="4.0411438792943954e-02" rms="4.7276496887207031e-01" purity="6.2834870815277100e-01" nType="0">
              <Node pos="l" depth="4" NCoef="0" IVar="-1" Cut="0.0000000000000000e+00" cType="1" res="1.8760561943054199e-03" rms="4.8750814795494080e-01" purity="5.7996135950088501e-01" nType="-99"/>
              <Node pos="r" depth="4" NCoef="0" IVar="-1" Cut="0.0000000000000000e+00" cType="1" res="4.6506747603416443e-03" rms="4.6245986223220825e-01" purity="6.7250448465347290e-01" nType="-99"/>
            </Node>
            <Node pos="r" depth="3" NCoef="0" IVar="3" Cut="7.5174790620803833e-01" cType="1" res="5.6844349019229412e-03" rms="4.8429632186889648e-01" purity="5.2955639362335205e-01" nType="0">
              <Node pos="l" depth="4" NCoef="0" IVar="-1" Cut="0.0000000000000000e+00" cType="1" res="1.4516381779685616e-03" rms="4.8267829418182373e-01" purity="5.3240925073623657e-01" nType="-99"/>
              <Node pos="r" depth="4" NCoef="0" IVar="-1" Cut="0.0000000000000000e+00" cType="1" res="-9.0462109073996544e-04" rms="4.8617702722549438e-01" purity="5.2545720338821411e-01" nType="-99"/>
            </Node>
          </Node>
        </Node>
        <Node pos="r" depth="1" NCoef="0" IVar="3" Cut="1.0592179298400879e+00" cType="1" res="3.3686839044094086e-02" rms="4.2581543326377869e-01" purity="7.3656040430068970e-01" nType="0">
          <Node pos="l" depth="2" NCoef="0" IVar="0" Cut="5.8072727918624878e-01" cType="1" res="3.5767827183008194e-02" rms="4.2522919178009033e-01" purity="7.3990362882614136e-01" nType="0">
            <Node pos="l" depth="3" NCoef="0" IVar="1" Cut="2.2283615544438362e-02" cType="1" res="3.8072686642408371e-02" rms="4.2332527041435242e-01" purity="7.4728590250015259e-01" nType="0">
              <Node pos="l" depth="4" NCoef="0" IVar="5" Cut="-3.0267171859741211e+00" cType="1" res="4.9209691584110260e-02" rms="4.0917456150054932e-01" purity="7.7588230371475220e-01" nType="0">
                <Node pos="l" depth="5" NCoef="0" IVar="4" Cut="-1.5192120075225830e+00" cType="1" res="6.5016157925128937e-02" rms="3.5931286215782166e-01" purity="8.4425014257431030e-01" nType="0">
                  <Node pos="l" depth="6" NCoef="0" IVar="-1" Cut="0.0000000000000000e+00" cType="1" res="4.8532020300626755e-03" rms="4.0416118502616882e-01" purity="7.9011726379394531e-01" nType="-99"/>
                  <Node pos="r" depth="6" NCoef="0" IVar="3" Cut="9.9463057518005371e-01" cType="1" res="7.0050120353698730e-02" rms="3.4380093216896057e-01" purity="8.6132603883743286e-01" nType="0">
                    <Node pos="l" depth="7" NCoef="0" IVar="-1" Cut="0.0000000000000000e+00" cType="1" res="7.0247198455035686e-03" rms="3.6498105525970459e-01" purity="8.3826154470443726e-01" nType="-99"/>
                    <Node pos="r" depth="7" NCoef="0" IVar="-1" Cut="0.0000000000000000e+00" cType="1" res="8.6635109037160873e-03" rms="3.2973641157150269e-01" purity="8.7582445144653320e-01" nType="-99"/>
                  </Node>
                </Node>
                <Node pos="r" depth="5" NCoef="0" IVar="5" Cut="-9.0818387269973755e-01" cType="1" res="4.5116961002349854e-02" rms="4.2102730274200439e-01" purity="7.5818002223968506e-01" nType="0">
                  <Node pos="l" depth="6" NCoef="0" IVar="0" Cut="2.2473517060279846e-01" cType="1" res="4.7077000141143799e-02" rms="4.1380161046981812e-01" purity="7.7546727657318115e-01" nType="0">
                    <Node pos="l" depth="7" NCoef="0" IVar="-1" Cut="0.0000000000000000e+00" cType="1" res="4.8295664601027966e-03" rms="4.0989023447036743e-01" purity="7.8218007087707520e-01" nType="-99"/>
                    <Node pos="r" depth="7" NCoef="0" IVar="-1" Cut="0.0000000000000000e+00" cType="1" res="2.3287283256649971e-03" rms="4.6321141719818115e-01" purity="6.8415284156799316e-01" nType="-99"/>
                  </Node>
                  <Node pos="r" depth="6" NCoef="0" IVar="-1" Cut="0.0000000000000000e+00" cType="1" res="2.1423131693154573e-03" rms="4.8957937955856323e-01" purity="5.7797324657440186e-01" nType="-99"/>
                </Node>
              </Node>
              <Node pos="r" depth="4" NCoef="0" IVar="3" Cut="9.6667820215225220e-01" cType="1" res="2.7070842683315277e-02" rms="4.3657556176185608e-01" purity="7.1903651952743530e-01" nType="0">
                <Node pos="l" depth="5" NCoef="0" IVar="4" Cut="-3.5027927160263062e-01" cType="1" res="8.7999990209937096e-03" rms="4.6428686380386353e-01" purity="6.5350544452667236e-01" nType="0">
                  <Node pos="l" depth="6" NCoef="0" IVar="4" Cut="-2.6599037647247314e+00" cType="1" res="1.6606874763965607e-02" rms="4.5988041162490845e-01" purity="6.7740046977996826e-01" nType="0">
                    <Node pos="l" depth="7" NCoef="0" IVar="-1" Cut="0.0000000000000000e+00" cType="1" res="4.0562348440289497e-03" rms="4.3509763479232788e-01" purity="7.3536700010299683e-01" nType="-99"/>
                    <Node pos="r" depth="7" NCoef="0" IVar="-1" Cut="0.0000000000000000e+00" cType="1" res="9.5235562184825540e-04" rms="4.6577769517898560e-01" purity="6.6265183687210083e-01" nType="-99"/>
                  </Node>
                  <Node pos="r" depth="6" NCoef="0" IVar="-1" Cut="0.0000000000000000e+00" cType="1" res="-2.0554256625473499e-03" rms="4.8032388091087341e-01" purity="5.5739331245422363e-01" nType="-99"/>
                </Node>
                <Node pos="r" depth="5" NCoef="0" IVar="3" Cut="9.9947071075439453e-01" cType="1" res="4.0837686508893967e-02" rms="4.1394087672233582e-01" purity="7.6841324567794800e-01" nType="0">
                  <Node pos="l" depth="6" NCoef="0" IVar="4" Cut="-1.0268783569335938e+00" cType="1" res="3.1570751219987869e-02" rms="4.2111998796463013e-01" purity="7.5710111856460571e-01" nType="0">
                    <Node pos="l" depth="7" NCoef="0" IVar="-1" Cut="0.0000000000000000e+00" cType="1" res="7.3802890256047249e-04" rms="4.5104578137397766e-01" purity="7.0438361167907715e-01" nType="-99"/>
                    <Node pos="r" depth="7" NCoef="0" IVar="-1" Cut="0.0000000000000000e+00" cType="1" res="3.9523574523627758e-03" rms="4.1187152266502380e-01" purity="7.7225762605667114e-01" nType="-99"/>
                  </Node>
                  <Node pos="r" depth="6" NCoef="0" IVar="5" Cut="-1.8575742244720459e+00" cType="1" res="4.9973811954259872e-02" rms="4.0653234720230103e-01" purity="7.7956575155258179e-01" nType="0">
                    <Node pos="l" depth="7" NCoef="0" IVar="-1" Cut="0.0000000000000000e+00" cType="1" res="5.5601727217435837e-03" rms="3.9166596531867981e-01" purity="8.0702936649322510e-01" nType="-99"/>
                    <Node pos="r" depth="7" NCoef="0" IVar="-1" Cut="0.0000000000000000e+00" cType="1" res="1.5350611647590995e-03" rms="4.6520587801933289e-01" purity="6.5825074911117554e-01" nType="-99"/>
                  </Node>
                </Node>
              </Node>
            </Node>
            <Node pos="r" depth="3" NCoef="0" IVar="-1" Cut="0.0000000000000000e+00" cType="1" res="-4.7864154912531376e-03" rms="4.8579451441764832e-01" purity="4.4917398691177368e-01" nType="-99"/>
          </Node>
          <Node pos="r" depth="2" NCoef="0" IVar="-1" Cut="0.0000000000000000e+00" cType="1" res="-5.1470659673213959e-03" rms="4.4095751643180847e-01" purity="5.9636121988296509e-01" nType="-99"/>
        </Node>
      </Node>
    </BinaryTree>
    <BinaryTree type="DecisionTree" boostWeight="1.0000000000000000e+00" itree="51">
      <Node pos="s" depth="0" NCoef="0" IVar="3" Cut="6.7654424905776978e-01" cType="1" res="9.7700040787458420e-03" rms="4.0706673264503479e-01" purity="4.9896764755249023e-01" nType="0">
        <Node pos="l" depth="1" NCoef="0" IVar="1" Cut="7.5091958045959473e-01" cType="1" res="-1.9965594634413719e-02" rms="3.6063325405120850e-01" purity="1.9522123038768768e-01" nType="0">
          <Node pos="l" depth="2" NCoef="0" IVar="5" Cut="-1.2442203760147095e+00" cType="1" res="-1.3796201907098293e-02" rms="3.7915027141571045e-01" purity="2.2175212204456329e-01" nType="0">
            <Node pos="l" depth="3" NCoef="0" IVar="6" Cut="1.0693603008985519e-01" cType="1" res="-6.4786029979586601e-03" rms="4.1259878873825073e-01" purity="2.7448770403862000e-01" nType="0">
              <Node pos="l" depth="4" NCoef="0" IVar="5" Cut="-3.0994672775268555e+00" cType="1" res="-1.8256036564707756e-02" rms="4.0408182144165039e-01" purity="2.6511514186859131e-01" nType="0">
                <Node pos="l" depth="5" NCoef="0" IVar="4" Cut="-9.0003907680511475e-01" cType="1" res="-4.8683635890483856e-02" rms="3.4728470444679260e-01" purity="1.6506223380565643e-01" nType="0">
                  <Node pos="l" depth="6" NCoef="0" IVar="-1" Cut="0.0000000000000000e+00" cType="1" res="-1.1486459523439407e-02" rms="3.4267145395278931e-01" purity="1.5514330565929413e-01" nType="-99"/>
                  <Node pos="r" depth="6" NCoef="0" IVar="-1" Cut="0.0000000000000000e+00" cType="1" res="-3.5891507286578417e-03" rms="3.5108494758605957e-01" purity="1.7766304314136505e-01" nType="-99"/>
                </Node>
                <Node pos="r" depth="5" NCoef="0" IVar="2" Cut="1.2014253997802734e+02" cType="1" res="-1.0578962974250317e-02" rms="4.1684153676033020e-01" purity="2.9035907983779907e-01" nType="0">
                  <Node pos="l" depth="6" NCoef="0" IVar="6" Cut="3.1202452257275581e-02" cType="1" res="8.8321641087532043e-03" rms="4.3594738841056824e-01" purity="3.3975782990455627e-01" nType="0">
                    <Node pos="l" depth="7" NCoef="0" IVar="-1" Cut="0.0000000000000000e+00" cType="1" res="-3.4047109074890614e-03" rms="4.1089919209480286e-01" purity="2.7062281966209412e-01" nType="-99"/>
                    <Node pos="r" depth="7" NCoef="0" IVar="-1" Cut="0.0000000000000000e+00" cType="1" res="2.2078817710280418e-03" rms="4.4289803504943848e-01" purity="3.6137402057647705e-01" nType="-99"/>
                  </Node>
                  <Node pos="r" depth="6" NCoef="0" IVar="6" Cut="6.0350455343723297e-02" cType="1" res="-2.6340246200561523e-02" rms="3.9996606111526489e-01" purity="2.5024875998497009e-01" nType="0">
                    <Node pos="l" depth="7" NCoef="0" IVar="-1" Cut="0.0000000000000000e+00" cType="1" res="-7.7934227883815765e-03" rms="3.7200629711151123e-01" purity="2.0490399003028870e-01" nType="-99"/>
                    <Node pos="r" depth="7" NCoef="0" IVar="-1" Cut="0.0000000000000000e+00" cType="1" res="-2.3399977944791317e-03" rms="4.0769603848457336e-01" purity="2.6405826210975647e-01" nType="-99"/>
                  </Node>
                </Node>
              </Node>
              <Node pos="r" depth="4" NCoef="0" IVar="2" Cut="2.5207603454589844e+02" cType="1" res="9.2378193512558937e-03" rms="4.2318746447563171e-01" purity="2.8699496388435364e-01" nType="0">
                <Node pos="l" depth="5" NCoef="0" IVar="6" Cut="1.4214524626731873e-01" cType="1" res="3.4077569842338562e-02" rms="4.4537255167961121e-01" purity="3.5002261400222778e-01" nType="0">
                  <Node pos="l" depth="6" NCoef="0" IVar="-1" Cut="0.0000000000000000e+00" cType="1" res="2.2400105372071266e-03" rms="4.4061338901519775e-01" purity="3.5457608103752136e-01" nType="-99"/>
                  <Node pos="r" depth="6" NCoef="0" IVar="-1" Cut="0.0000000000000000e+00" cType="1" res="6.4903018064796925e-03" rms="4.5144164562225342e-01" purity="3.4334358572959900e-01" nType="-99"/>
                </Node>
                <Node pos="r" depth="5" NCoef="0" IVar="6" Cut="2.1018244326114655e-01" cType="1" res="-2.0476810168474913e-03" rms="4.1222006082534790e-01" purity="2.5835946202278137e-01" nType="0">
                  <Node pos="l" depth="6" NCoef="0" IVar="0" Cut="7.6205438375473022e-01" cType="1" res="-8.7060984224081039e-03" rms="4.0624082088470459e-01" purity="2.5629144906997681e-01" nType="0">
                    <Node pos="l" depth="7" NCoef="0" IVar="-1" Cut="0.0000000000000000e+00" cType="1" res="1.0894882725551724e-03" rms="4.6562826633453369e-01" purity="3.6628895998001099e-01" nType="-99"/>
                    <Node pos="r" depth="7" NCoef="0" IVar="-1" Cut="0.0000000000000000e+00" cType="1" res="-7.4711516499519348e-03" rms="3.1187129020690918e-01" purity="1.1456133425235748e-01" nType="-99"/>
                  </Node>
                  <Node pos="r" depth="6" NCoef="0" IVar="-1" Cut="0.0000000000000000e+00" cType="1" res="2.3706543724983931e-03" rms="4.2841517925262451e-01" purity="2.6432231068611145e-01" nType="-99"/>
                </Node>
              </Node>
            </Node>
            <Node pos="r" depth="3" NCoef="0" IVar="3" Cut="1.9693803787231445e-01" cType="1" res="-2.7165614068508148e-02" rms="3.0837261676788330e-01" purity="1.2540301680564880e-01" nType="0">
              <Node pos="l" depth="4" NCoef="0" IVar="-1" Cut="0.0000000000000000e+00" cType="1" res="1.5294437762349844e-03" rms="3.1732138991355896e-01" purity="1.2707072496414185e-01" nType="-99"/>
              <Node pos="r" depth="4" NCoef="0" IVar="5" Cut="9.6446573734283447e-01" cType="1" res="-3.0653797090053558e-02" rms="3.0720001459121704e-01" purity="1.2522573769092560e-01" nType="0">
                <Node pos="l" depth="5" NCoef="0" IVar="0" Cut="1.1794707775115967e+00" cType="1" res="-2.2651098668575287e-02" rms="3.5210910439491272e-01" purity="1.6905154287815094e-01" nType="0">
                  <Node pos="l" depth="6" NCoef="0" IVar="2" Cut="1.5847029113769531e+02" cType="1" res="-1.4152012765407562e-02" rms="3.9320760965347290e-01" purity="2.1612760424613953e-01" nType="0">
                    <Node pos="l" depth="7" NCoef="0" IVar="-1" Cut="0.0000000000000000e+00" cType="1" res="5.2546965889632702e-04" rms="4.2341160774230957e-01" purity="2.6750543713569641e-01" nType="-99"/>
                    <Node pos="r" depth="7" NCoef="0" IVar="-1" Cut="0.0000000000000000e+00" cType="1" res="-3.6758580245077610e-03" rms="3.7703397870063782e-01" purity="1.9068719446659088e-01" nType="-99"/>
                  </Node>
                  <Node pos="r" depth="6" NCoef="0" IVar="-1" Cut="0.0000000000000000e+00" cType="1" res="-1.5234568156301975e-02" rms="2.1318058669567108e-01" purity="4.9354657530784607e-02" nType="-99"/>
                </Node>
                <Node pos="r" depth="5" NCoef="0" IVar="3" Cut="4.1351032257080078e-01" cType="1" res="-4.6744108200073242e-02" rms="1.8561264872550964e-01" purity="3.7109136581420898e-02" nType="0">
                  <Node pos="l" depth="6" NCoef="0" IVar="4" Cut="4.1494464874267578e+00" cType="1" res="-3.6021649837493896e-02" rms="1.7290925979614258e-01" purity="3.2761398702859879e-02" nType="0">
                    <Node pos="l" depth="7" NCoef="0" IVar="-1" Cut="0.0000000000000000e+00" cType="1" res="-1.2656493112444878e-02" rms="1.9545127451419830e-01" purity="4.2323220521211624e-02" nType="-99"/>
                    <Node pos="r" depth="7" NCoef="0" IVar="-1" Cut="0.0000000000000000e+00" cType="1" res="-1.9521074369549751e-02" rms="1.4566667377948761e-01" purity="2.2876095026731491e-02" nType="-99"/>
                  </Node>
                  <Node pos="r" depth="6" NCoef="0" IVar="-1" Cut="0.0000000000000000e+00" cType="1" res="-1.8207008019089699e-02" rms="2.0656073093414307e-01" purity="4.5582313090562820e-02" nType="-99"/>
                </Node>
              </Node>
            </Node>
          </Node>
          <Node pos="r" depth="2" NCoef="0" IVar="3" Cut="5.4578131437301636e-01" cType="1" res="-4.3559070676565170e-02" rms="2.7742913365364075e-01" purity="9.3759767711162567e-02" nType="0">
            <Node pos="l" depth="3" NCoef="0" IVar="4" Cut="-3.9085695147514343e-01" cType="1" res="-3.8785941898822784e-02" rms="2.4776327610015869e-01" purity="7.0621952414512634e-02" nType="0">
              <Node pos="l" depth="4" NCoef="0" IVar="7" Cut="5.0000000000000000e+00" cType="1" res="-2.9530091211199760e-02" rms="2.9314613342285156e-01" purity="1.0135202109813690e-01" nType="0">
                <Node pos="l" depth="5" NCoef="0" IVar="-1" Cut="0.0000000000000000e+00" cType="1" res="-3.1500842887908220e-03" rms="3.4130743145942688e-01" purity="1.4000868797302246e-01" nType="-99"/>
                <Node pos="r" depth="5" NCoef="0" IVar="-1" Cut="0.0000000000000000e+00" cType="1" res="-1.3082941994071007e-02" rms="2.4141375720500946e-01" purity="6.6830806434154510e-02" nType="-99"/>
              </Node>
              <Node pos="r" depth="4" NCoef="0" IVar="5" Cut="-1.7988274097442627e+00" cType="1" res="-4.3776161968708038e-02" rms="2.1925128996372223e-01" purity="5.4042138159275055e-02" nType="0">
                <Node pos="l" depth="5" NCoef="0" IVar="-1" Cut="0.0000000000000000e+00" cType="1" res="-1.5048610977828503e-02" rms="2.3333992063999176e-01" purity="6.2409918755292892e-02" nType="-99"/>
                <Node pos="r" depth="5" NCoef="0" IVar="3" Cut="3.1737068295478821e-01" cType="1" res="-3.9173815399408340e-02" rms="2.1106655895709991e-01" purity="4.9499146640300751e-02" nType="0">
                  <Node pos="l" depth="6" NCoef="0" IVar="-1" Cut="0.0000000000000000e+00" cType="1" res="-1.4931571669876575e-02" rms="1.9504193961620331e-01" purity="4.1207443922758102e-02" nType="-99"/>
                  <Node pos="r" depth="6" NCoef="0" IVar="-1" Cut="0.0000000000000000e+00" cType="1" res="-1.3607379049062729e-02" rms="2.3268078267574310e-01" purity="6.1826393008232117e-02" nType="-99"/>
                </Node>
              </Node>
            </Node>
            <Node pos="r" depth="3" NCoef="0" IVar="-1" Cut="0.0000000000000000e+00" cType="1" res="-8.6574293673038483e-03" rms="4.1153836250305176e-01" purity="2.3239296674728394e-01" nType="-99"/>
          </Node>
        </Node>
        <Node pos="r" depth="1" NCoef="0" IVar="1" Cut="1.1786408424377441e+00" cType="1" res="3.0109930783510208e-02" rms="4.3481978774070740e-01" purity="7.0673817396163940e-01" nType="0">
          <Node pos="l" depth="2" NCoef="0" IVar="4" Cut="9.2400217056274414e-01" cType="1" res="3.3692739903926849e-02" rms="4.3265420198440552e-01" purity="7.1480524539947510e-01" nType="0">
            <Node pos="l" depth="3" NCoef="0" IVar="6" Cut="1.0242024064064026e-01" cType="1" res="3.6212105304002762e-02" rms="4.3101793527603149e-01" purity="7.2523576021194458e-01" nType="0">
              <Node pos="l" depth="4" NCoef="0" IVar="3" Cut="9.6483081579208374e-01" cType="1" res="3.7745147943496704e-02" rms="4.2978954315185547e-01" purity="7.2936987876892090e-01" nType="0">
                <Node pos="l" depth="5" NCoef="0" IVar="3" Cut="7.2304224967956543e-01" cType="1" res="2.7051093056797981e-02" rms="4.5867052674293518e-01" purity="6.6749602556228638e-01" nType="0">
                  <Node pos="l" depth="6" NCoef="0" IVar="6" Cut="4.3820571154356003e-02" cType="1" res="-2.3045751731842756e-03" rms="4.9042049050331116e-01" purity="5.3006684780120850e-01" nType="0">
                    <Node pos="l" depth="7" NCoef="0" IVar="-1" Cut="0.0000000000000000e+00" cType="1" res="-2.8429452795535326e-03" rms="4.9360811710357666e-01" purity="4.8792275786399841e-01" nType="-99"/>
                    <Node pos="r" depth="7" NCoef="0" IVar="-1" Cut="0.0000000000000000e+00" cType="1" res="9.6218578983098269e-04" rms="4.8838520050048828e-01" purity="5.4896050691604614e-01" nType="-99"/>
                  </Node>
                  <Node pos="r" depth="6" NCoef="0" IVar="6" Cut="1.9950293004512787e-02" cType="1" res="3.1248664483428001e-02" rms="4.5379403233528137e-01" purity="6.8714702129364014e-01" nType="0">
                    <Node pos="l" depth="7" NCoef="0" IVar="-1" Cut="0.0000000000000000e+00" cType="1" res="6.6241028252989054e-04" rms="4.4820412993431091e-01" purity="6.9992154836654663e-01" nType="-99"/>
                    <Node pos="r" depth="7" NCoef="0" IVar="-1" Cut="0.0000000000000000e+00" cType="1" res="3.4594472963362932e-03" rms="4.5509159564971924e-01" purity="6.8362140655517578e-01" nType="-99"/>
                  </Node>
                </Node>
                <Node pos="r" depth="5" NCoef="0" IVar="0" Cut="2.9101207852363586e-01" cType="1" res="4.8567753285169601e-02" rms="3.9814335107803345e-01" purity="7.9198747873306274e-01" nType="0">
                  <Node pos="l" depth="6" NCoef="0" IVar="5" Cut="-3.0049989223480225e+00" cType="1" res="5.2125535905361176e-02" rms="3.9340481162071228e-01" purity="8.0153691768646240e-01" nType="0">
                    <Node pos="l" depth="7" NCoef="0" IVar="-1" Cut="0.0000000000000000e+00" cType="1" res="7.3759034276008606e-03" rms="3.5462614893913269e-01" purity="8.5010904073715210e-01" nType="-99"/>
                    <Node pos="r" depth="7" NCoef="0" IVar="-1" Cut="0.0000000000000000e+00" cType="1" res="4.5155878178775311e-03" rms="4.0858903527259827e-01" purity="7.8090769052505493e-01" nType="-99"/>
                  </Node>
                  <Node pos="r" depth="6" NCoef="0" IVar="-1" Cut="0.0000000000000000e+00" cType="1" res="-1.6717705875635147e-03" rms="4.7452244162559509e-01" purity="6.0996818542480469e-01" nType="-99"/>
                </Node>
              </Node>
              <Node pos="r" depth="4" NCoef="0" IVar="-1" Cut="0.0000000000000000e+00" cType="1" res="-3.6414309870451689e-03" rms="4.8304882645606995e-01" purity="5.1508063077926636e-01" nType="-99"/>
            </Node>
            <Node pos="r" depth="3" NCoef="0" IVar="-1" Cut="0.0000000000000000e+00" cType="1" res="-3.2807369716465473e-03" rms="4.6969220042228699e-01" purity="4.3256381154060364e-01" nType="-99"/>
          </Node>
          <Node pos="r" depth="2" NCoef="0" IVar="7" Cut="2.0000000000000000e+00" cType="1" res="-4.5777402818202972e-02" rms="4.7147741913795471e-01" purity="5.2824586629867554e-01" nType="0">
            <Node pos="l" depth="3" NCoef="0" IVar="-1" Cut="0.0000000000000000e+00" cType="1" res="-3.1561125069856644e-03" rms="4.6787169575691223e-01" purity="6.1228847503662109e-01" nType="-99"/>
            <Node pos="r" depth="3" NCoef="0" IVar="-1" Cut="0.0000000000000000e+00" cType="1" res="-5.4856287315487862e-03" rms="4.7824168205261230e-01" purity="4.4713625311851501e-01" nType="-99"/>
          </Node>
        </Node>
      </Node>
    </BinaryTree>
    <BinaryTree type="DecisionTree" boostWeight="1.0000000000000000e+00" itree="52">
      <Node pos="s" depth="0" NCoef="0" IVar="3" Cut="7.7288961410522461e-01" cType="1" res="9.8275318741798401e-03" rms="4.0721401572227478e-01" purity="5.0050878524780273e-01" nType="0">
        <Node pos="l" depth="1" NCoef="0" IVar="1" Cut="1.4958879351615906e-01" cType="1" res="-1.3113223947584629e-02" rms="3.8805317878723145e-01" purity="2.6447913050651550e-01" nType="0">
          <Node pos="l" depth="2" NCoef="0" IVar="5" Cut="-1.3629549741744995e+00" cType="1" res="3.0511855147778988e-03" rms="4.2311352491378784e-01" purity="3.4085243940353394e-01" nType="0">
            <Node pos="l" depth="3" NCoef="0" IVar="5" Cut="-3.2105298042297363e+00" cType="1" res="1.4297506771981716e-02" rms="4.4903263449668884e-01" purity="4.0895101428031921e-01" nType="0">
              <Node pos="l" depth="4" NCoef="0" IVar="-1" Cut="0.0000000000000000e+00" cType="1" res="-5.2432776428759098e-03" rms="4.0634989738464355e-01" purity="2.6019519567489624e-01" nType="-99"/>
              <Node pos="r" depth="4" NCoef="0" IVar="2" Cut="1.6550805664062500e+02" cType="1" res="1.9864542409777641e-02" rms="4.5289319753646851e-01" purity="4.2447409033775330e-01" nType="0">
                <Node pos="l" depth="5" NCoef="0" IVar="6" Cut="6.3432589173316956e-02" cType="1" res="3.5676844418048859e-02" rms="4.6673601865768433e-01" purity="4.9979946017265320e-01" nType="0">
                  <Node pos="l" depth="6" NCoef="0" IVar="2" Cut="5.9350940704345703e+01" cType="1" res="1.5552401542663574e-02" rms="4.6515077352523804e-01" purity="4.8718941211700439e-01" nType="0">
                    <Node pos="l" depth="7" NCoef="0" IVar="-1" Cut="0.0000000000000000e+00" cType="1" res="4.1570463217794895e-03" rms="4.7241514921188354e-01" purity="5.4545187950134277e-01" nType="-99"/>
                    <Node pos="r" depth="7" NCoef="0" IVar="-1" Cut="0.0000000000000000e+00" cType="1" res="-1.1550608323886991e-03" rms="4.5707792043685913e-01" purity="4.3658760190010071e-01" nType="-99"/>
                  </Node>
                  <Node pos="r" depth="6" NCoef="0" IVar="6" Cut="1.0474883019924164e-01" cType="1" res="5.9697948396205902e-02" rms="4.6748834848403931e-01" purity="5.1485121250152588e-01" nType="0">
                    <Node pos="l" depth="7" NCoef="0" IVar="-1" Cut="0.0000000000000000e+00" cType="1" res="4.7791549004614353e-03" rms="4.6749356389045715e-01" purity="5.2930968999862671e-01" nType="-99"/>
                    <Node pos="r" depth="7" NCoef="0" IVar="-1" Cut="0.0000000000000000e+00" cType="1" res="6.8255658261477947e-03" rms="4.6703895926475525e-01" purity="4.8437041044235229e-01" nType="-99"/>
                  </Node>
                </Node>
                <Node pos="r" depth="5" NCoef="0" IVar="0" Cut="1.4707262516021729e+00" cType="1" res="5.6860744953155518e-03" rms="4.3962725996971130e-01" purity="3.5693186521530151e-01" nType="0">
                  <Node pos="l" depth="6" NCoef="0" IVar="0" Cut="4.7437438368797302e-01" cType="1" res="1.2846081517636776e-02" rms="4.5835116505622864e-01" purity="3.9775705337524414e-01" nType="0">
                    <Node pos="l" depth="7" NCoef="0" IVar="-1" Cut="0.0000000000000000e+00" cType="1" res="2.5984924286603928e-03" rms="4.8370736837387085e-01" purity="4.9052515625953674e-01" nType="-99"/>
                    <Node pos="r" depth="7" NCoef="0" IVar="-1" Cut="0.0000000000000000e+00" cType="1" res="-1.8678264459595084e-03" rms="4.0723606944084167e-01" purity="2.2999219596385956e-01" nType="-99"/>
                  </Node>
                  <Node pos="r" depth="6" NCoef="0" IVar="-1" Cut="0.0000000000000000e+00" cType="1" res="-9.9920965731143951e-03" rms="2.8907155990600586e-01" purity="9.6409551799297333e-02" nType="-99"/>
                </Node>
              </Node>
            </Node>
            <Node pos="r" depth="3" NCoef="0" IVar="4" Cut="1.9021157026290894e+00" cType="1" res="-1.9276781007647514e-02" rms="3.6523410677909851e-01" purity="2.0565240085124969e-01" nType="0">
              <Node pos="l" depth="4" NCoef="0" IVar="3" Cut="4.9877148866653442e-01" cType="1" res="-9.7641404718160629e-03" rms="4.1541734337806702e-01" purity="2.7824130654335022e-01" nType="0">
                <Node pos="l" depth="5" NCoef="0" IVar="5" Cut="-5.6112480163574219e-01" cType="1" res="-2.1663814783096313e-02" rms="3.2286545634269714e-01" purity="1.2537302076816559e-01" nType="0">
                  <Node pos="l" depth="6" NCoef="0" IVar="-1" Cut="0.0000000000000000e+00" cType="1" res="-2.6143854483962059e-03" rms="3.4595036506652832e-01" purity="1.4752642810344696e-01" nType="-99"/>
                  <Node pos="r" depth="6" NCoef="0" IVar="-1" Cut="0.0000000000000000e+00" cType="1" res="-7.2110895998775959e-03" rms="2.9818186163902283e-01" purity="1.0359344631433487e-01" nType="-99"/>
                </Node>
                <Node pos="r" depth="5" NCoef="0" IVar="6" Cut="8.1537447869777679e-02" cType="1" res="-7.5908825965598226e-04" rms="4.7338303923606873e-01" purity="3.9392405748367310e-01" nType="0">
                  <Node pos="l" depth="6" NCoef="0" IVar="-1" Cut="0.0000000000000000e+00" cType="1" res="-2.2037108428776264e-03" rms="4.7160553932189941e-01" purity="3.8574564456939697e-01" nType="-99"/>
                  <Node pos="r" depth="6" NCoef="0" IVar="-1" Cut="0.0000000000000000e+00" cType="1" res="2.4158312007784843e-03" rms="4.7422322630882263e-01" purity="4.0343612432479858e-01" nType="-99"/>
                </Node>
              </Node>
              <Node pos="r" depth="4" NCoef="0" IVar="6" Cut="1.5980806946754456e-01" cType="1" res="-3.7482470273971558e-02" rms="2.4065613746643066e-01" purity="6.6728681325912476e-02" nType="0">
                <Node pos="l" depth="5" NCoef="0" IVar="-1" Cut="0.0000000000000000e+00" cType="1" res="-1.5331321395933628e-02" rms="2.1417942643165588e-01" purity="5.2268143743276596e-02" nType="-99"/>
                <Node pos="r" depth="5" NCoef="0" IVar="-1" Cut="0.0000000000000000e+00" cType="1" res="-4.3038106523454189e-03" rms="2.8003045916557312e-01" purity="9.2307165265083313e-02" nType="-99"/>
              </Node>
            </Node>
          </Node>
          <Node pos="r" depth="2" NCoef="0" IVar="4" Cut="-1.5994672775268555e+00" cType="1" res="-2.8277734294533730e-02" rms="3.5132554173469543e-01" purity="1.9283017516136169e-01" nType="0">
            <Node pos="l" depth="3" NCoef="0" IVar="5" Cut="-2.4410719871520996e+00" cType="1" res="-1.0000136680901051e-02" rms="4.2086452245712280e-01" purity="3.1844022870063782e-01" nType="0">
              <Node pos="l" depth="4" NCoef="0" IVar="3" Cut="6.2638413906097412e-01" cType="1" res="-2.6404824107885361e-02" rms="4.0107944607734680e-01" purity="2.8141811490058899e-01" nType="0">
                <Node pos="l" depth="5" NCoef="0" IVar="-1" Cut="0.0000000000000000e+00" cType="1" res="-6.9368910044431686e-03" rms="3.4352448582649231e-01" purity="1.5710963308811188e-01" nType="-99"/>
                <Node pos="r" depth="5" NCoef="0" IVar="-1" Cut="0.0000000000000000e+00" cType="1" res="-4.5971828512847424e-04" rms="4.8570042848587036e-01" purity="5.0113707780838013e-01" nType="-99"/>
              </Node>
              <Node pos="r" depth="4" NCoef="0" IVar="-1" Cut="0.0000000000000000e+00" cType="1" res="2.0286494400352240e-03" rms="4.5192870497703552e-01" purity="3.8310304284095764e-01" nType="-99"/>
            </Node>
            <Node pos="r" depth="3" NCoef="0" IVar="7" Cut="3.0000000000000000e+00" cType="1" res="1.1342477798461914e-01" rms="0.0000000000000000e+00" purity="1.6727153956890106e-01" nType="0">
              <Node pos="l" depth="4" NCoef="0" IVar="3" Cut="6.5002191066741943e-01" cType="1" res="-5.0168108195066452e-02" rms="4.0950834751129150e-01" purity="2.7260345220565796e-01" nType="0">
                <Node pos="l" depth="5" NCoef="0" IVar="-1" Cut="0.0000000000000000e+00" cType="1" res="-1.1124527081847191e-02" rms="3.3295756578445435e-01" purity="1.4258465170860291e-01" nType="-99"/>
                <Node pos="r" depth="5" NCoef="0" IVar="-1" Cut="0.0000000000000000e+00" cType="1" res="-3.1168223358690739e-03" rms="4.7652426362037659e-01" purity="4.0958175063133240e-01" nType="-99"/>
              </Node>
              <Node pos="r" depth="4" NCoef="0" IVar="3" Cut="3.7475273013114929e-01" cType="1" res="-2.9303982853889465e-02" rms="3.2276040315628052e-01" purity="1.5166243910789490e-01" nType="0">
                <Node pos="l" depth="5" NCoef="0" IVar="6" Cut="1.1597786098718643e-01" cType="1" res="-3.6956295371055603e-02" rms="2.1857760846614838e-01" purity="5.2916310727596283e-02" nType="0">
                  <Node pos="l" depth="6" NCoef="0" IVar="6" Cut="9.0023323893547058e-02" cType="1" res="-4.1923619806766510e-02" rms="1.6886149346828461e-01" purity="2.9909523203969002e-02" nType="0">
                    <Node pos="l" depth="7" NCoef="0" IVar="-1" Cut="0.0000000000000000e+00" cType="1" res="-2.0059296861290932e-02" rms="1.5815044939517975e-01" purity="2.6111451908946037e-02" nType="-99"/>
                    <Node pos="r" depth="7" NCoef="0" IVar="-1" Cut="0.0000000000000000e+00" cType="1" res="-1.4668622985482216e-02" rms="1.9401682913303375e-01" purity="3.9905723184347153e-02" nType="-99"/>
                  </Node>
                  <Node pos="r" depth="6" NCoef="0" IVar="3" Cut="2.3132690787315369e-01" cType="1" res="-3.0817683786153793e-02" rms="2.6741710305213928e-01" purity="8.1348069012165070e-02" nType="0">
                    <Node pos="l" depth="7" NCoef="0" IVar="-1" Cut="0.0000000000000000e+00" cType="1" res="-1.3136181980371475e-02" rms="2.5240576267242432e-01" purity="7.0134148001670837e-02" nType="-99"/>
                    <Node pos="r" depth="7" NCoef="0" IVar="-1" Cut="0.0000000000000000e+00" cType="1" res="-6.1233094893395901e-03" rms="2.7778676152229309e-01" purity="8.9791238307952881e-02" nType="-99"/>
                  </Node>
                </Node>
                <Node pos="r" depth="5" NCoef="0" IVar="1" Cut="9.7593796253204346e-01" cType="1" res="-2.1888434886932373e-02" rms="3.9839136600494385e-01" purity="2.4735333025455475e-01" nType="0">
                  <Node pos="l" depth="6" NCoef="0" IVar="7" Cut="4.0000000000000000e+00" cType="1" res="-1.7189886420965195e-02" rms="4.0506300330162048e-01" purity="2.6030993461608887e-01" nType="0">
                    <Node pos="l" depth="7" NCoef="0" IVar="-1" Cut="0.0000000000000000e+00" cType="1" res="-3.7074617575854063e-03" rms="4.3036541342735291e-01" purity="3.0945351719856262e-01" nType="-99"/>
                    <Node pos="r" depth="7" NCoef="0" IVar="-1" Cut="0.0000000000000000e+00" cType="1" res="-1.0906105162575841e-03" rms="3.8619756698608398e-01" purity="2.2578814625740051e-01" nType="-99"/>
                  </Node>
                  <Node pos="r" depth="6" NCoef="0" IVar="-1" Cut="0.0000000000000000e+00" cType="1" res="-7.4653467163443565e-03" rms="3.5674217343330383e-01" purity="1.7453300952911377e-01" nType="-99"/>
                </Node>
              </Node>
            </Node>
          </Node>
        </Node>
        <Node pos="r" depth="1" NCoef="0" IVar="1" Cut="1.4580154418945312e-01" cType="1" res="3.2963853329420090e-02" rms="4.2441144585609436e-01" purity="7.3855066299438477e-01" nType="0">
          <Node pos="l" depth="2" NCoef="0" IVar="5" Cut="-2.1362674236297607e+00" cType="1" res="4.3253961950540543e-02" rms="4.1200956702232361e-01" purity="7.6672726869583130e-01" nType="0">
            <Node pos="l" depth="3" NCoef="0" IVar="3" Cut="9.8780059814453125e-01" cType="1" res="5.0578951835632324e-02" rms="3.8935726881027222e-01" purity="8.0800884962081909e-01" nType="0">
              <Node pos="l" depth="4" NCoef="0" IVar="2" Cut="8.7782150268554688e+01" cType="1" res="4.4704284518957138e-02" rms="4.1287013888359070e-01" purity="7.7667194604873657e-01" nType="0">
                <Node pos="l" depth="5" NCoef="0" IVar="6" Cut="2.6342470198869705e-02" cType="1" res="5.1135752350091934e-02" rms="4.0382441878318787e-01" purity="7.9127609729766846e-01" nType="0">
                  <Node pos="l" depth="6" NCoef="0" IVar="2" Cut="2.5490713119506836e+01" cType="1" res="4.1787147521972656e-02" rms="4.0243887901306152e-01" purity="7.9249316453933716e-01" nType="0">
                    <Node pos="l" depth="7" NCoef="0" IVar="-1" Cut="0.0000000000000000e+00" cType="1" res="4.9041421152651310e-03" rms="3.9476856589317322e-01" purity="8.0388438701629639e-01" nType="-99"/>
                    <Node pos="r" depth="7" NCoef="0" IVar="-1" Cut="0.0000000000000000e+00" cType="1" res="2.8366805054247379e-03" rms="4.2567235231399536e-01" purity="7.5603491067886353e-01" nType="-99"/>
                  </Node>
                  <Node pos="r" depth="6" NCoef="0" IVar="-1" Cut="0.0000000000000000e+00" cType="1" res="6.5113385207951069e-03" rms="4.0603381395339966e-01" purity="7.8869760036468506e-01" nType="-99"/>
                </Node>
                <Node pos="r" depth="5" NCoef="0" IVar="3" Cut="8.6290895938873291e-01" cType="1" res="2.8790403157472610e-02" rms="4.3403434753417969e-01" purity="7.4053567647933960e-01" nType="0">
                  <Node pos="l" depth="6" NCoef="0" IVar="-1" Cut="0.0000000000000000e+00" cType="1" res="1.3998630456626415e-03" rms="4.5303726196289062e-01" purity="7.0519375801086426e-01" nType="-99"/>
                  <Node pos="r" depth="6" NCoef="0" IVar="-1" Cut="0.0000000000000000e+00" cType="1" res="5.6472760625183582e-03" rms="4.0267446637153625e-01" purity="7.9393637180328369e-01" nType="-99"/>
                </Node>
              </Node>
              <Node pos="r" depth="4" NCoef="0" IVar="4" Cut="-1.6744095087051392e+00" cType="1" res="5.5629622191190720e-02" rms="3.6786815524101257e-01" purity="8.3495032787322998e-01" nType="0">
                <Node pos="l" depth="5" NCoef="0" IVar="-1" Cut="0.0000000000000000e+00" cType="1" res="3.2844594679772854e-03" rms="4.1004246473312378e-01" purity="7.7955502271652222e-01" nType="-99"/>
                <Node pos="r" depth="5" NCoef="0" IVar="5" Cut="-3.0352475643157959e+00" cType="1" res="5.8638487011194229e-02" rms="3.6088800430297852e-01" purity="8.4342408180236816e-01" nType="0">
                  <Node pos="l" depth="6" NCoef="0" IVar="4" Cut="-6.0029989480972290e-01" cType="1" res="6.5688699483871460e-02" rms="3.3926120400428772e-01" purity="8.6624509096145630e-01" nType="0">
                    <Node pos="l" depth="7" NCoef="0" IVar="-1" Cut="0.0000000000000000e+00" cType="1" res="7.9030217602849007e-03" rms="3.4130665659904480e-01" purity="8.6386466026306152e-01" nType="-99"/>
                    <Node pos="r" depth="7" NCoef="0" IVar="-1" Cut="0.0000000000000000e+00" cType="1" res="7.7031874097883701e-03" rms="3.3807989954948425e-01" purity="8.6753940582275391e-01" nType="-99"/>
                  </Node>
                  <Node pos="r" depth="6" NCoef="0" IVar="5" Cut="-2.8902728557586670e+00" cType="1" res="5.4545361548662186e-02" rms="3.7280759215354919e-01" purity="8.3017498254776001e-01" nType="0">
                    <Node pos="l" depth="7" NCoef="0" IVar="-1" Cut="0.0000000000000000e+00" cType="1" res="7.3121190071105957e-03" rms="3.5079213976860046e-01" purity="8.5426938533782959e-01" nType="-99"/>
                    <Node pos="r" depth="7" NCoef="0" IVar="-1" Cut="0.0000000000000000e+00" cType="1" res="5.5269887670874596e-03" rms="3.7900292873382568e-01" purity="8.2307338714599609e-01" nType="-99"/>
                  </Node>
                </Node>
              </Node>
            </Node>
            <Node pos="r" depth="3" NCoef="0" IVar="5" Cut="-8.8571953773498535e-01" cType="1" res="2.8019487857818604e-02" rms="4.5515081286430359e-01" purity="6.8087023496627808e-01" nType="0">
              <Node pos="l" depth="4" NCoef="0" IVar="2" Cut="1.4126383972167969e+02" cType="1" res="3.3447694033384323e-02" rms="4.4392272830009460e-01" purity="7.1872234344482422e-01" nType="0">
                <Node pos="l" depth="5" NCoef="0" IVar="6" Cut="3.4607019275426865e-02" cType="1" res="3.6166131496429443e-02" rms="4.4058236479759216e-01" purity="7.2828209400177002e-01" nType="0">
                  <Node pos="l" depth="6" NCoef="0" IVar="4" Cut="-1.1565887928009033e+00" cType="1" res="3.0395047739148140e-02" rms="4.3863442540168762e-01" purity="7.3032337427139282e-01" nType="0">
                    <Node pos="l" depth="7" NCoef="0" IVar="-1" Cut="0.0000000000000000e+00" cType="1" res="1.5384780708700418e-03" rms="4.5512196421623230e-01" purity="6.9974023103713989e-01" nType="-99"/>
                    <Node pos="r" depth="7" NCoef="0" IVar="-1" Cut="0.0000000000000000e+00" cType="1" res="3.5491450689733028e-03" rms="4.3081188201904297e-01" purity="7.4418097734451294e-01" nType="-99"/>
                  </Node>
                  <Node pos="r" depth="6" NCoef="0" IVar="-1" Cut="0.0000000000000000e+00" cType="1" res="5.0199991092085838e-03" rms="4.4767993688583374e-01" purity="7.1994358301162720e-01" nType="-99"/>
                </Node>
                <Node pos="r" depth="5" NCoef="0" IVar="-1" Cut="0.0000000000000000e+00" cType="1" res="1.5030065551400185e-03" rms="4.6436184644699097e-01" purity="6.5752160549163818e-01" nType="-99"/>
              </Node>
              <Node pos="r" depth="4" NCoef="0" IVar="3" Cut="9.0708160400390625e-01" cType="1" res="9.3007329851388931e-03" rms="4.9144861102104187e-01" purity="5.5033999681472778e-01" nType="0">
                <Node pos="l" depth="5" NCoef="0" IVar="-1" Cut="0.0000000000000000e+00" cType="1" res="1.6773462994024158e-03" rms="4.9532893300056458e-01" purity="5.3110867738723755e-01" nType="-99"/>
                <Node pos="r" depth="5" NCoef="0" IVar="-1" Cut="0.0000000000000000e+00" cType="1" res="7.7344193414319307e-05" rms="4.8787859082221985e-01" purity="5.6713479757308960e-01" nType="-99"/>
              </Node>
            </Node>
          </Node>
          <Node pos="r" depth="2" NCoef="0" IVar="5" Cut="-9.7360891103744507e-01" cType="1" res="1.4625845476984978e-02" rms="4.4506874680519104e-01" purity="6.8833702802658081e-01" nType="0">
            <Node pos="l" depth="3" NCoef="0" IVar="5" Cut="-1.9100122451782227e+00" cType="1" res="1.9996209070086479e-02" rms="4.4099372625350952e-01" purity="7.1073287725448608e-01" nType="0">
              <Node pos="l" depth="4" NCoef="0" IVar="4" Cut="-3.0805757641792297e-01" cType="1" res="2.6176512241363525e-02" rms="4.3261215090751648e-01" purity="7.3266386985778809e-01" nType="0">
                <Node pos="l" depth="5" NCoef="0" IVar="4" Cut="-2.3404324054718018e+00" cType="1" res="1.7819689586758614e-02" rms="4.4434353709220886e-01" purity="7.1054667234420776e-01" nType="0">
                  <Node pos="l" depth="6" NCoef="0" IVar="4" Cut="-2.7186424732208252e+00" cType="1" res="3.4591220319271088e-02" rms="4.4503638148307800e-01" purity="7.1610021591186523e-01" nType="0">
                    <Node pos="l" depth="7" NCoef="0" IVar="-1" Cut="0.0000000000000000e+00" cType="1" res="3.6500347778201103e-03" rms="4.3512234091758728e-01" purity="7.3701274394989014e-01" nType="-99"/>
                    <Node pos="r" depth="7" NCoef="0" IVar="-1" Cut="0.0000000000000000e+00" cType="1" res="2.9265519697219133e-03" rms="4.5414021611213684e-01" purity="6.9646775722503662e-01" nType="-99"/>
                  </Node>
                  <Node pos="r" depth="6" NCoef="0" IVar="4" Cut="-1.8154449462890625e+00" cType="1" res="1.1945856735110283e-02" rms="4.4395086169242859e-01" purity="7.0860171318054199e-01" nType="0">
                    <Node pos="l" depth="7" NCoef="0" IVar="-1" Cut="0.0000000000000000e+00" cType="1" res="-1.4815012691542506e-03" rms="4.7073206305503845e-01" purity="6.4509868621826172e-01" nType="-99"/>
                    <Node pos="r" depth="7" NCoef="0" IVar="-1" Cut="0.0000000000000000e+00" cType="1" res="1.9851555116474628e-03" rms="4.3427467346191406e-01" purity="7.2966355085372925e-01" nType="-99"/>
                  </Node>
                </Node>
                <Node pos="r" depth="5" NCoef="0" IVar="4" Cut="-8.3860859274864197e-02" cType="1" res="4.4258415699005127e-02" rms="4.0548118948936462e-01" purity="7.8051954507827759e-01" nType="0">
                  <Node pos="l" depth="6" NCoef="0" IVar="-1" Cut="0.0000000000000000e+00" cType="1" res="6.4946739003062248e-03" rms="3.9050260186195374e-01" purity="8.0386883020401001e-01" nType="-99"/>
                  <Node pos="r" depth="6" NCoef="0" IVar="4" Cut="1.2592825293540955e-01" cType="1" res="3.1869728118181229e-02" rms="4.1408380866050720e-01" purity="7.6593041419982910e-01" nType="0">
                    <Node pos="l" depth="7" NCoef="0" IVar="-1" Cut="0.0000000000000000e+00" cType="1" res="3.5284240730106831e-03" rms="4.0839961171150208e-01" purity="7.7564334869384766e-01" nType="-99"/>
                    <Node pos="r" depth="7" NCoef="0" IVar="-1" Cut="0.0000000000000000e+00" cType="1" res="3.1551304273307323e-03" rms="4.2032849788665771e-01" purity="7.5510162115097046e-01" nType="-99"/>
                  </Node>
                </Node>
              </Node>
              <Node pos="r" depth="4" NCoef="0" IVar="7" Cut="2.0000000000000000e+00" cType="1" res="-3.5974297206848860e-03" rms="4.7191736102104187e-01" purity="6.2086820602416992e-01" nType="0">
                <Node pos="l" depth="5" NCoef="0" IVar="-1" Cut="0.0000000000000000e+00" cType="1" res="5.9027178213000298e-04" rms="4.6201694011688232e-01" purity="6.6479980945587158e-01" nType="-99"/>
                <Node pos="r" depth="5" NCoef="0" IVar="-1" Cut="0.0000000000000000e+00" cType="1" res="-1.5711137093603611e-03" rms="4.8391041159629822e-01" purity="5.7445025444030762e-01" nType="-99"/>
              </Node>
            </Node>
            <Node pos="r" depth="3" NCoef="0" IVar="-1" Cut="0.0000000000000000e+00" cType="1" res="-3.5578259266912937e-03" rms="4.8126140236854553e-01" purity="4.5995974540710449e-01" nType="-99"/>
          </Node>
        </Node>
      </Node>
    </BinaryTree>
    <BinaryTree type="DecisionTree" boostWeight="1.0000000000000000e+00" itree="53">
      <Node pos="s" depth="0" NCoef="0" IVar="3" Cut="7.7150195837020874e-01" cType="1" res="1.0770190507173538e-02" rms="4.0699607133865356e-01" purity="5.0179916620254517e-01" nType="0">
        <Node pos="l" depth="1" NCoef="0" IVar="3" Cut="6.4716839790344238e-01" cType="1" res="-1.1789033189415932e-02" rms="3.8767194747924805e-01" purity="2.6371654868125916e-01" nType="0">
          <Node pos="l" depth="2" NCoef="0" IVar="6" Cut="1.1733905225992203e-01" cType="1" res="-1.7889421433210373e-02" rms="3.5216352343559265e-01" purity="1.7982532083988190e-01" nType="0">
            <Node pos="l" depth="3" NCoef="0" IVar="2" Cut="8.8461433410644531e+01" cType="1" res="-2.5327865034341812e-02" rms="3.4141585230827332e-01" purity="1.7051525413990021e-01" nType="0">
              <Node pos="l" depth="4" NCoef="0" IVar="3" Cut="5.2203595638275146e-01" cType="1" res="-6.0506192967295647e-03" rms="3.7037470936775208e-01" purity="2.1393625438213348e-01" nType="0">
                <Node pos="l" depth="5" NCoef="0" IVar="6" Cut="4.9610119313001633e-02" cType="1" res="-2.0922007039189339e-02" rms="2.8948283195495605e-01" purity="1.0279089212417603e-01" nType="0">
                  <Node pos="l" depth="6" NCoef="0" IVar="6" Cut="2.9090324416756630e-02" cType="1" res="-3.1355254352092743e-02" rms="2.6690101623535156e-01" purity="8.3324559032917023e-02" nType="0">
                    <Node pos="l" depth="7" NCoef="0" IVar="-1" Cut="0.0000000000000000e+00" cType="1" res="-1.0107218287885189e-02" rms="2.6006767153739929e-01" purity="7.7248208224773407e-02" nType="-99"/>
                    <Node pos="r" depth="7" NCoef="0" IVar="-1" Cut="0.0000000000000000e+00" cType="1" res="-7.5349984690546989e-03" rms="2.7465260028839111e-01" purity="9.0472884476184845e-02" nType="-99"/>
                  </Node>
                  <Node pos="r" depth="6" NCoef="0" IVar="-1" Cut="0.0000000000000000e+00" cType="1" res="-1.1840363731607795e-03" rms="3.2040470838546753e-01" purity="1.3266596198081970e-01" nType="-99"/>
                </Node>
                <Node pos="r" depth="5" NCoef="0" IVar="6" Cut="4.9296766519546509e-02" cType="1" res="1.6926899552345276e-02" rms="4.6773901581764221e-01" purity="3.8566496968269348e-01" nType="0">
                  <Node pos="l" depth="6" NCoef="0" IVar="-1" Cut="0.0000000000000000e+00" cType="1" res="-3.2414690940640867e-04" rms="4.5486927032470703e-01" purity="3.4225901961326599e-01" nType="-99"/>
                  <Node pos="r" depth="6" NCoef="0" IVar="-1" Cut="0.0000000000000000e+00" cType="1" res="3.8127817679196596e-03" rms="4.8228019475936890e-01" purity="4.4031572341918945e-01" nType="-99"/>
                </Node>
              </Node>
              <Node pos="r" depth="4" NCoef="0" IVar="6" Cut="7.4617095291614532e-02" cType="1" res="-3.2800748944282532e-02" rms="3.2920253276824951e-01" purity="1.5368296205997467e-01" nType="0">
                <Node pos="l" depth="5" NCoef="0" IVar="5" Cut="-3.0529103279113770e+00" cType="1" res="-4.8010613769292831e-02" rms="3.0404368042945862e-01" purity="1.2560354173183441e-01" nType="0">
                  <Node pos="l" depth="6" NCoef="0" IVar="-1" Cut="0.0000000000000000e+00" cType="1" res="-1.3981807976961136e-02" rms="2.7921274304389954e-01" purity="9.5926739275455475e-02" nType="-99"/>
                  <Node pos="r" depth="6" NCoef="0" IVar="4" Cut="-5.8699971437454224e-01" cType="1" res="-4.2669560760259628e-02" rms="3.1035166978836060e-01" purity="1.3381475210189819e-01" nType="0">
                    <Node pos="l" depth="7" NCoef="0" IVar="-1" Cut="0.0000000000000000e+00" cType="1" res="-3.9900979027152061e-03" rms="3.8479864597320557e-01" purity="2.2136370837688446e-01" nType="-99"/>
                    <Node pos="r" depth="7" NCoef="0" IVar="-1" Cut="0.0000000000000000e+00" cType="1" res="-1.1002416722476482e-02" rms="2.7532055974006653e-01" purity="9.9313966929912567e-02" nType="-99"/>
                  </Node>
                </Node>
                <Node pos="r" depth="5" NCoef="0" IVar="7" Cut="4.0000000000000000e+00" cType="1" res="-2.1762657910585403e-02" rms="3.4589487314224243e-01" purity="1.7405486106872559e-01" nType="0">
                  <Node pos="l" depth="6" NCoef="0" IVar="5" Cut="-1.7990317344665527e+00" cType="1" res="-4.2026314884424210e-02" rms="3.8544949889183044e-01" purity="2.1662731468677521e-01" nType="0">
                    <Node pos="l" depth="7" NCoef="0" IVar="-1" Cut="0.0000000000000000e+00" cType="1" res="-3.6930709611624479e-03" rms="4.1383472084999084e-01" purity="2.6041364669799805e-01" nType="-99"/>
                    <Node pos="r" depth="7" NCoef="0" IVar="-1" Cut="0.0000000000000000e+00" cType="1" res="-9.8177539184689522e-03" rms="3.4447619318962097e-01" purity="1.5997526049613953e-01" nType="-99"/>
                  </Node>
                  <Node pos="r" depth="6" NCoef="0" IVar="3" Cut="4.0198317170143127e-01" cType="1" res="-1.2898752465844154e-02" rms="3.2668733596801758e-01" purity="1.5542280673980713e-01" nType="0">
                    <Node pos="l" depth="7" NCoef="0" IVar="-1" Cut="0.0000000000000000e+00" cType="1" res="-1.3285856693983078e-02" rms="2.0392747223377228e-01" purity="4.4758938252925873e-02" nType="-99"/>
                    <Node pos="r" depth="7" NCoef="0" IVar="-1" Cut="0.0000000000000000e+00" cType="1" res="1.2071960372850299e-03" rms="4.2125600576400757e-01" purity="2.7715262770652771e-01" nType="-99"/>
                  </Node>
                </Node>
              </Node>
            </Node>
            <Node pos="r" depth="3" NCoef="0" IVar="2" Cut="2.4704655456542969e+02" cType="1" res="-7.0953872054815292e-03" rms="3.6693254113197327e-01" purity="1.9333526492118835e-01" nType="0">
              <Node pos="l" depth="4" NCoef="0" IVar="3" Cut="3.5787120461463928e-01" cType="1" res="1.7484478652477264e-02" rms="3.9330607652664185e-01" purity="2.4355258047580719e-01" nType="0">
                <Node pos="l" depth="5" NCoef="0" IVar="-1" Cut="0.0000000000000000e+00" cType="1" res="-1.3886494562029839e-03" rms="3.0442026257514954e-01" purity="1.1173135787248611e-01" nType="-99"/>
                <Node pos="r" depth="5" NCoef="0" IVar="5" Cut="-1.9623795747756958e+00" cType="1" res="3.4009844064712524e-02" rms="4.4692873954772949e-01" purity="3.4068796038627625e-01" nType="0">
                  <Node pos="l" depth="6" NCoef="0" IVar="-1" Cut="0.0000000000000000e+00" cType="1" res="5.5721723474562168e-03" rms="4.7771266102790833e-01" purity="4.2384636402130127e-01" nType="-99"/>
                  <Node pos="r" depth="6" NCoef="0" IVar="-1" Cut="0.0000000000000000e+00" cType="1" res="1.7582967411726713e-03" rms="4.1583567857742310e-01" purity="2.6508843898773193e-01" nType="-99"/>
                </Node>
              </Node>
              <Node pos="r" depth="4" NCoef="0" IVar="3" Cut="1.2583483755588531e-01" cType="1" res="-1.5650389716029167e-02" rms="3.5689994692802429e-01" purity="1.7585718631744385e-01" nType="0">
                <Node pos="l" depth="5" NCoef="0" IVar="-1" Cut="0.0000000000000000e+00" cType="1" res="2.7753873728215694e-03" rms="3.8144209980964661e-01" purity="1.9469000399112701e-01" nType="-99"/>
                <Node pos="r" depth="5" NCoef="0" IVar="0" Cut="6.2314200401306152e-01" cType="1" res="-1.9170500338077545e-02" rms="3.5380613803863525e-01" purity="1.7369712889194489e-01" nType="0">
                  <Node pos="l" depth="6" NCoef="0" IVar="5" Cut="-1.7048649787902832e+00" cType="1" res="-2.0187038462609053e-03" rms="4.1898193955421448e-01" purity="2.6553866267204285e-01" nType="0">
                    <Node pos="l" depth="7" NCoef="0" IVar="-1" Cut="0.0000000000000000e+00" cType="1" res="1.7958612879738212e-03" rms="4.6581977605819702e-01" purity="3.5146880149841309e-01" nType="-99"/>
                    <Node pos="r" depth="7" NCoef="0" IVar="-1" Cut="0.0000000000000000e+00" cType="1" res="-3.3594067208468914e-03" rms="3.6697739362716675e-01" purity="1.8212161958217621e-01" nType="-99"/>
                  </Node>
                  <Node pos="r" depth="6" NCoef="0" IVar="5" Cut="-1.8373522758483887e+00" cType="1" res="-3.3773154020309448e-02" rms="2.8606587648391724e-01" purity="9.5505312085151672e-02" nType="0">
                    <Node pos="l" depth="7" NCoef="0" IVar="-1" Cut="0.0000000000000000e+00" cType="1" res="-4.1427579708397388e-03" rms="3.4052762389183044e-01" purity="1.4086252450942993e-01" nType="-99"/>
                    <Node pos="r" depth="7" NCoef="0" IVar="-1" Cut="0.0000000000000000e+00" cType="1" res="-1.3062575832009315e-02" rms="2.4163655936717987e-01" purity="6.4645476639270782e-02" nType="-99"/>
                  </Node>
                </Node>
              </Node>
            </Node>
          </Node>
          <Node pos="r" depth="2" NCoef="0" IVar="1" Cut="5.1668083667755127e-01" cType="1" res="7.1684219874441624e-03" rms="4.8109444975852966e-01" purity="5.2441543340682983e-01" nType="0">
            <Node pos="l" depth="3" NCoef="0" IVar="5" Cut="-1.1997860670089722e+00" cType="1" res="1.5050169080495834e-02" rms="4.8182928562164307e-01" purity="5.4815685749053955e-01" nType="0">
              <Node pos="l" depth="4" NCoef="0" IVar="2" Cut="2.1490950012207031e+02" cType="1" res="2.4621130898594856e-02" rms="4.8403182625770569e-01" purity="5.8758401870727539e-01" nType="0">
                <Node pos="l" depth="5" NCoef="0" IVar="6" Cut="6.2460549175739288e-02" cType="1" res="3.2921407371759415e-02" rms="4.8195907473564148e-01" purity="5.9895342588424683e-01" nType="0">
                  <Node pos="l" depth="6" NCoef="0" IVar="2" Cut="7.6849914550781250e+01" cType="1" res="1.9333103671669960e-02" rms="4.8564720153808594e-01" purity="5.7567799091339111e-01" nType="0">
                    <Node pos="l" depth="7" NCoef="0" IVar="-1" Cut="0.0000000000000000e+00" cType="1" res="3.2572050113230944e-03" rms="4.8166358470916748e-01" purity="6.0875904560089111e-01" nType="-99"/>
                    <Node pos="r" depth="7" NCoef="0" IVar="-1" Cut="0.0000000000000000e+00" cType="1" res="-6.0492398915812373e-04" rms="4.8965054750442505e-01" purity="5.3197729587554932e-01" nType="-99"/>
                  </Node>
                  <Node pos="r" depth="6" NCoef="0" IVar="-1" Cut="0.0000000000000000e+00" cType="1" res="4.5806975103914738e-03" rms="4.7432538866996765e-01" purity="6.4056384563446045e-01" nType="-99"/>
                </Node>
                <Node pos="r" depth="5" NCoef="0" IVar="-1" Cut="0.0000000000000000e+00" cType="1" res="-9.3134040071163327e-06" rms="4.8932036757469177e-01" purity="5.5371814966201782e-01" nType="-99"/>
              </Node>
              <Node pos="r" depth="4" NCoef="0" IVar="6" Cut="7.0692643523216248e-02" cType="1" res="-2.2924259305000305e-02" rms="4.7107672691345215e-01" purity="3.9172273874282837e-01" nType="0">
                <Node pos="l" depth="5" NCoef="0" IVar="-1" Cut="0.0000000000000000e+00" cType="1" res="-3.8016685284674168e-03" rms="4.7012510895729065e-01" purity="3.7552326917648315e-01" nType="-99"/>
                <Node pos="r" depth="5" NCoef="0" IVar="-1" Cut="0.0000000000000000e+00" cType="1" res="-5.7112338254228234e-04" rms="4.7148647904396057e-01" purity="4.0882179141044617e-01" nType="-99"/>
              </Node>
            </Node>
            <Node pos="r" depth="3" NCoef="0" IVar="-1" Cut="0.0000000000000000e+00" cType="1" res="-3.1436828430742025e-03" rms="4.7499278187751770e-01" purity="3.9843162894248962e-01" nType="-99"/>
          </Node>
        </Node>
        <Node pos="r" depth="1" NCoef="0" IVar="2" Cut="1.8824555969238281e+02" cType="1" res="3.3278971910476685e-02" rms="4.2420905828475952e-01" purity="7.3934936523437500e-01" nType="0">
          <Node pos="l" depth="2" NCoef="0" IVar="1" Cut="1.1786408424377441e+00" cType="1" res="3.6406781524419785e-02" rms="4.2075276374816895e-01" purity="7.4913215637207031e-01" nType="0">
            <Node pos="l" depth="3" NCoef="0" IVar="0" Cut="4.9305471777915955e-01" cType="1" res="3.9198160171508789e-02" rms="4.1810521483421326e-01" purity="7.5594800710678101e-01" nType="0">
              <Node pos="l" depth="4" NCoef="0" IVar="3" Cut="9.1106396913528442e-01" cType="1" res="4.0876861661672592e-02" rms="4.1587305068969727e-01" purity="7.6279562711715698e-01" nType="0">
                <Node pos="l" depth="5" NCoef="0" IVar="6" Cut="4.4800888746976852e-02" cType="1" res="2.8829889371991158e-02" rms="4.4827607274055481e-01" purity="7.0128631591796875e-01" nType="0">
                  <Node pos="l" depth="6" NCoef="0" IVar="5" Cut="-1.6947140693664551e+00" cType="1" res="1.7600433900952339e-02" rms="4.4963079690933228e-01" purity="6.9662469625473022e-01" nType="0">
                    <Node pos="l" depth="7" NCoef="0" IVar="-1" Cut="0.0000000000000000e+00" cType="1" res="2.7699631173163652e-03" rms="4.3750989437103271e-01" purity="7.3364597558975220e-01" nType="-99"/>
                    <Node pos="r" depth="7" NCoef="0" IVar="-1" Cut="0.0000000000000000e+00" cType="1" res="-1.7351848073303699e-03" rms="4.8771929740905762e-01" purity="5.6775599718093872e-01" nType="-99"/>
                  </Node>
                  <Node pos="r" depth="6" NCoef="0" IVar="1" Cut="1.8287020921707153e-01" cType="1" res="5.6608688086271286e-02" rms="4.4368758797645569e-01" purity="7.1281808614730835e-01" nType="0">
                    <Node pos="l" depth="7" NCoef="0" IVar="-1" Cut="0.0000000000000000e+00" cType="1" res="5.7144742459058762e-03" rms="4.3265902996063232e-01" purity="7.3821383714675903e-01" nType="-99"/>
                    <Node pos="r" depth="7" NCoef="0" IVar="-1" Cut="0.0000000000000000e+00" cType="1" res="2.3708266671746969e-03" rms="4.6997839212417603e-01" purity="6.4708077907562256e-01" nType="-99"/>
                  </Node>
                </Node>
                <Node pos="r" depth="5" NCoef="0" IVar="3" Cut="9.9509310722351074e-01" cType="1" res="4.6841669827699661e-02" rms="3.9872148633003235e-01" purity="7.9325073957443237e-01" nType="0">
                  <Node pos="l" depth="6" NCoef="0" IVar="5" Cut="-2.8718321323394775e+00" cType="1" res="3.5159572958946228e-02" rms="4.1093024611473083e-01" purity="7.7577733993530273e-01" nType="0">
                    <Node pos="l" depth="7" NCoef="0" IVar="-1" Cut="0.0000000000000000e+00" cType="1" res="5.4307957179844379e-03" rms="3.7764313817024231e-01" purity="8.2546371221542358e-01" nType="-99"/>
                    <Node pos="r" depth="7" NCoef="0" IVar="-1" Cut="0.0000000000000000e+00" cType="1" res="2.7014527004212141e-03" rms="4.2962512373924255e-01" purity="7.4569427967071533e-01" nType="-99"/>
                  </Node>
                  <Node pos="r" depth="6" NCoef="0" IVar="5" Cut="-3.1890530586242676e+00" cType="1" res="5.2699506282806396e-02" rms="3.9232569932937622e-01" purity="8.0201250314712524e-01" nType="0">
                    <Node pos="l" depth="7" NCoef="0" IVar="-1" Cut="0.0000000000000000e+00" cType="1" res="7.5946915894746780e-03" rms="3.4733092784881592e-01" purity="8.5724431276321411e-01" nType="-99"/>
                    <Node pos="r" depth="7" NCoef="0" IVar="-1" Cut="0.0000000000000000e+00" cType="1" res="4.9199643544852734e-03" rms="3.9980226755142212e-01" purity="7.9208165407180786e-01" nType="-99"/>
                  </Node>
                </Node>
              </Node>
              <Node pos="r" depth="4" NCoef="0" IVar="-1" Cut="0.0000000000000000e+00" cType="1" res="-1.5706378035247326e-03" rms="4.8493164777755737e-01" purity="5.2145743370056152e-01" nType="-99"/>
            </Node>
            <Node pos="r" depth="3" NCoef="0" IVar="-1" Cut="0.0000000000000000e+00" cType="1" res="-2.5012269616127014e-03" rms="4.7386178374290466e-01" purity="5.8967196941375732e-01" nType="-99"/>
          </Node>
          <Node pos="r" depth="2" NCoef="0" IVar="3" Cut="8.4301120042800903e-01" cType="1" res="-1.4313638210296631e-02" rms="4.7114402055740356e-01" purity="5.9049677848815918e-01" nType="0">
            <Node pos="l" depth="3" NCoef="0" IVar="-1" Cut="0.0000000000000000e+00" cType="1" res="1.8033003434538841e-03" rms="4.7398972511291504e-01" purity="6.2003678083419800e-01" nType="-99"/>
            <Node pos="r" depth="3" NCoef="0" IVar="-1" Cut="0.0000000000000000e+00" cType="1" res="-6.3456236384809017e-03" rms="4.6279954910278320e-01" purity="5.4838955402374268e-01" nType="-99"/>
          </Node>
        </Node>
      </Node>
    </BinaryTree>
    <BinaryTree type="DecisionTree" boostWeight="1.0000000000000000e+00" itree="54">
      <Node pos="s" depth="0" NCoef="0" IVar="3" Cut="7.7157270908355713e-01" cType="1" res="9.6102571114897728e-03" rms="4.0721559524536133e-01" purity="4.9952489137649536e-01" nType="0">
        <Node pos="l" depth="1" NCoef="0" IVar="1" Cut="1.4958879351615906e-01" cType="1" res="-1.0237128473818302e-02" rms="3.8780114054679871e-01" purity="2.6371031999588013e-01" nType="0">
          <Node pos="l" depth="2" NCoef="0" IVar="2" Cut="1.9409106445312500e+02" cType="1" res="4.4470238499343395e-03" rms="4.2206352949142456e-01" purity="3.4000802040100098e-01" nType="0">
            <Node pos="l" depth="3" NCoef="0" IVar="6" Cut="5.3286947309970856e-02" cType="1" res="1.8181700259447098e-02" rms="4.4486424326896667e-01" purity="4.1480305790901184e-01" nType="0">
              <Node pos="l" depth="4" NCoef="0" IVar="2" Cut="5.6612186431884766e+01" cType="1" res="-2.7635255828499794e-03" rms="4.4500589370727539e-01" purity="4.0557321906089783e-01" nType="0">
                <Node pos="l" depth="5" NCoef="0" IVar="6" Cut="2.7721952646970749e-02" cType="1" res="3.0970098450779915e-02" rms="4.6411779522895813e-01" purity="4.7997719049453735e-01" nType="0">
                  <Node pos="l" depth="6" NCoef="0" IVar="-1" Cut="0.0000000000000000e+00" cType="1" res="9.3582167755812407e-04" rms="4.5612972974777222e-01" purity="4.4533836841583252e-01" nType="-99"/>
                  <Node pos="r" depth="6" NCoef="0" IVar="-1" Cut="0.0000000000000000e+00" cType="1" res="4.9967025406658649e-03" rms="4.7132691740989685e-01" purity="5.1660150289535522e-01" nType="-99"/>
                </Node>
                <Node pos="r" depth="5" NCoef="0" IVar="6" Cut="3.8206499069929123e-02" cType="1" res="-2.9498532414436340e-02" rms="4.2736786603927612e-01" purity="3.4660559892654419e-01" nType="0">
                  <Node pos="l" depth="6" NCoef="0" IVar="-1" Cut="0.0000000000000000e+00" cType="1" res="-5.9095495380461216e-03" rms="4.2104321718215942e-01" purity="3.2159143686294556e-01" nType="-99"/>
                  <Node pos="r" depth="6" NCoef="0" IVar="-1" Cut="0.0000000000000000e+00" cType="1" res="-1.2160835321992636e-03" rms="4.3218678236007690e-01" purity="3.6943179368972778e-01" nType="-99"/>
                </Node>
              </Node>
              <Node pos="r" depth="4" NCoef="0" IVar="5" Cut="-1.3823854923248291e+00" cType="1" res="3.3858694136142731e-02" rms="4.4411227107048035e-01" purity="4.2171135544776917e-01" nType="0">
                <Node pos="l" depth="5" NCoef="0" IVar="0" Cut="6.6594278812408447e-01" cType="1" res="4.6456322073936462e-02" rms="4.5992720127105713e-01" purity="4.8549270629882812e-01" nType="0">
                  <Node pos="l" depth="6" NCoef="0" IVar="6" Cut="7.9875446856021881e-02" cType="1" res="5.6254316121339798e-02" rms="4.7910445928573608e-01" purity="5.7702779769897461e-01" nType="0">
                    <Node pos="l" depth="7" NCoef="0" IVar="-1" Cut="0.0000000000000000e+00" cType="1" res="3.4315004013478756e-03" rms="4.8099166154861450e-01" purity="5.7823508977890015e-01" nType="-99"/>
                    <Node pos="r" depth="7" NCoef="0" IVar="-1" Cut="0.0000000000000000e+00" cType="1" res="5.7154768146574497e-03" rms="4.7702848911285400e-01" purity="5.7598155736923218e-01" nType="-99"/>
                  </Node>
                  <Node pos="r" depth="6" NCoef="0" IVar="-1" Cut="0.0000000000000000e+00" cType="1" res="3.0909636989235878e-03" rms="4.0283903479576111e-01" purity="2.3995590209960938e-01" nType="-99"/>
                </Node>
                <Node pos="r" depth="5" NCoef="0" IVar="3" Cut="5.7256788015365601e-01" cType="1" res="6.4725512638688087e-03" rms="4.0627530217170715e-01" purity="2.8305628895759583e-01" nType="0">
                  <Node pos="l" depth="6" NCoef="0" IVar="-1" Cut="0.0000000000000000e+00" cType="1" res="-3.0859317630529404e-03" rms="3.2700482010841370e-01" purity="1.3602979481220245e-01" nType="-99"/>
                  <Node pos="r" depth="6" NCoef="0" IVar="-1" Cut="0.0000000000000000e+00" cType="1" res="2.7443442959338427e-03" rms="4.8055109381675720e-01" purity="4.5223554968833923e-01" nType="-99"/>
                </Node>
              </Node>
            </Node>
            <Node pos="r" depth="3" NCoef="0" IVar="6" Cut="2.4515542387962341e-01" cType="1" res="-9.2754131183028221e-03" rms="3.9750710129737854e-01" purity="2.6527968049049377e-01" nType="0">
              <Node pos="l" depth="4" NCoef="0" IVar="2" Cut="3.0602969360351562e+02" cType="1" res="-1.2516432441771030e-02" rms="3.9464318752288818e-01" purity="2.6777380704879761e-01" nType="0">
                <Node pos="l" depth="5" NCoef="0" IVar="6" Cut="8.8424801826477051e-02" cType="1" res="3.7502441555261612e-03" rms="4.1489493846893311e-01" purity="3.1681558489799500e-01" nType="0">
                  <Node pos="l" depth="6" NCoef="0" IVar="2" Cut="2.3741860961914062e+02" cType="1" res="-2.5419704616069794e-02" rms="4.1319811344146729e-01" purity="3.2630532979965210e-01" nType="0">
                    <Node pos="l" depth="7" NCoef="0" IVar="-1" Cut="0.0000000000000000e+00" cType="1" res="-2.1534690167754889e-03" rms="4.1602608561515808e-01" purity="3.3174157142639160e-01" nType="-99"/>
                    <Node pos="r" depth="7" NCoef="0" IVar="-1" Cut="0.0000000000000000e+00" cType="1" res="-4.0875603444874287e-03" rms="4.1033434867858887e-01" purity="3.2109847664833069e-01" nType="-99"/>
                  </Node>
                  <Node pos="r" depth="6" NCoef="0" IVar="3" Cut="4.7695374488830566e-01" cType="1" res="2.9021890833973885e-02" rms="4.1470390558242798e-01" purity="3.0859407782554626e-01" nType="0">
                    <Node pos="l" depth="7" NCoef="0" IVar="-1" Cut="0.0000000000000000e+00" cType="1" res="2.2227840963751078e-03" rms="3.5144743323326111e-01" purity="1.6318286955356598e-01" nType="-99"/>
                    <Node pos="r" depth="7" NCoef="0" IVar="-1" Cut="0.0000000000000000e+00" cType="1" res="4.7608050517737865e-03" rms="4.7106826305389404e-01" purity="4.6062842011451721e-01" nType="-99"/>
                  </Node>
                </Node>
                <Node pos="r" depth="5" NCoef="0" IVar="4" Cut="1.3368035554885864e+00" cType="1" res="-2.3683123290538788e-02" rms="3.7971359491348267e-01" purity="2.3410779237747192e-01" nType="0">
                  <Node pos="l" depth="6" NCoef="0" IVar="6" Cut="1.2188444286584854e-01" cType="1" res="-1.7608491703867912e-02" rms="4.1325196623802185e-01" purity="2.8414818644523621e-01" nType="0">
                    <Node pos="l" depth="7" NCoef="0" IVar="-1" Cut="0.0000000000000000e+00" cType="1" res="-3.5125573631376028e-03" rms="4.2442762851715088e-01" purity="3.2912775874137878e-01" nType="-99"/>
                    <Node pos="r" depth="7" NCoef="0" IVar="-1" Cut="0.0000000000000000e+00" cType="1" res="-1.2322951806709170e-03" rms="4.0396797657012939e-01" purity="2.4858587980270386e-01" nType="-99"/>
                  </Node>
                  <Node pos="r" depth="6" NCoef="0" IVar="-1" Cut="0.0000000000000000e+00" cType="1" res="-1.3465249910950661e-02" rms="2.2288818657398224e-01" purity="5.7402394711971283e-02" nType="-99"/>
                </Node>
              </Node>
              <Node pos="r" depth="4" NCoef="0" IVar="-1" Cut="0.0000000000000000e+00" cType="1" res="2.7197052258998156e-03" rms="4.1998106241226196e-01" purity="2.4415542185306549e-01" nType="-99"/>
            </Node>
          </Node>
          <Node pos="r" depth="2" NCoef="0" IVar="5" Cut="-3.1687231063842773e+00" cType="1" res="-2.3903548717498779e-02" rms="3.5238832235336304e-01" purity="1.9270062446594238e-01" nType="0">
            <Node pos="l" depth="3" NCoef="0" IVar="3" Cut="3.2971259951591492e-01" cType="1" res="-4.8775162547826767e-02" rms="3.0187916755676270e-01" purity="1.1934112757444382e-01" nType="0">
              <Node pos="l" depth="4" NCoef="0" IVar="-1" Cut="0.0000000000000000e+00" cType="1" res="-8.2348054274916649e-03" rms="2.4734315276145935e-01" purity="7.0138111710548401e-02" nType="-99"/>
              <Node pos="r" depth="4" NCoef="0" IVar="-1" Cut="0.0000000000000000e+00" cType="1" res="-1.1151617392897606e-02" rms="3.3625072240829468e-01" purity="1.5673634409904480e-01" nType="-99"/>
            </Node>
            <Node pos="r" depth="3" NCoef="0" IVar="4" Cut="-1.6181758642196655e+00" cType="1" res="-2.0978065207600594e-02" rms="3.5774746537208557e-01" purity="2.0132939517498016e-01" nType="0">
              <Node pos="l" depth="4" NCoef="0" IVar="4" Cut="-2.4345450401306152e+00" cType="1" res="6.6303308121860027e-03" rms="4.4639572501182556e-01" purity="3.6504310369491577e-01" nType="0">
                <Node pos="l" depth="5" NCoef="0" IVar="-1" Cut="0.0000000000000000e+00" cType="1" res="3.3730007708072662e-03" rms="4.5716819167137146e-01" purity="4.1412541270256042e-01" nType="-99"/>
                <Node pos="r" depth="5" NCoef="0" IVar="5" Cut="-2.3049821853637695e+00" cType="1" res="-6.1802244745194912e-03" rms="4.4024997949600220e-01" purity="3.4001618623733521e-01" nType="0">
                  <Node pos="l" depth="6" NCoef="0" IVar="-1" Cut="0.0000000000000000e+00" cType="1" res="-2.7923684101551771e-03" rms="4.2716786265373230e-01" purity="3.2043340802192688e-01" nType="-99"/>
                  <Node pos="r" depth="6" NCoef="0" IVar="-1" Cut="0.0000000000000000e+00" cType="1" res="1.7574282828718424e-03" rms="4.5534393191337585e-01" purity="3.6485797166824341e-01" nType="-99"/>
                </Node>
              </Node>
              <Node pos="r" depth="4" NCoef="0" IVar="5" Cut="-2.2166385650634766e+00" cType="1" res="-2.5798367336392403e-02" rms="3.3967742323875427e-01" purity="1.7274573445320129e-01" nType="0">
                <Node pos="l" depth="5" NCoef="0" IVar="6" Cut="7.0785455405712128e-02" cType="1" res="-1.1244559660553932e-02" rms="3.8376319408416748e-01" purity="2.3231449723243713e-01" nType="0">
                  <Node pos="l" depth="6" NCoef="0" IVar="6" Cut="4.5817229896783829e-02" cType="1" res="-2.3608524352312088e-02" rms="3.7786459922790527e-01" purity="2.2887508571147919e-01" nType="0">
                    <Node pos="l" depth="7" NCoef="0" IVar="-1" Cut="0.0000000000000000e+00" cType="1" res="-6.2846001237630844e-03" rms="3.6304908990859985e-01" purity="2.0725266635417938e-01" nType="-99"/>
                    <Node pos="r" depth="7" NCoef="0" IVar="-1" Cut="0.0000000000000000e+00" cType="1" res="-1.3659277465194464e-03" rms="3.8941434025764465e-01" purity="2.4721007049083710e-01" nType="-99"/>
                  </Node>
                  <Node pos="r" depth="6" NCoef="0" IVar="0" Cut="1.4964239597320557e+00" cType="1" res="-3.7591981235891581e-03" rms="3.8709875941276550e-01" purity="2.3439680039882660e-01" nType="0">
                    <Node pos="l" depth="7" NCoef="0" IVar="-1" Cut="0.0000000000000000e+00" cType="1" res="1.5960641903802752e-03" rms="4.3396669626235962e-01" purity="3.0768129229545593e-01" nType="-99"/>
                    <Node pos="r" depth="7" NCoef="0" IVar="-1" Cut="0.0000000000000000e+00" cType="1" res="-1.3781753368675709e-02" rms="2.3815406858921051e-01" purity="6.1128456145524979e-02" nType="-99"/>
                  </Node>
                </Node>
                <Node pos="r" depth="5" NCoef="0" IVar="5" Cut="-8.8054186105728149e-01" cType="1" res="-3.1944680958986282e-02" rms="3.1903666257858276e-01" purity="1.4758883416652679e-01" nType="0">
                  <Node pos="l" depth="6" NCoef="0" IVar="4" Cut="3.2660037279129028e-01" cType="1" res="-2.4959482252597809e-02" rms="3.7516418099403381e-01" purity="2.1701478958129883e-01" nType="0">
                    <Node pos="l" depth="7" NCoef="0" IVar="-1" Cut="0.0000000000000000e+00" cType="1" res="-4.2247851379215717e-03" rms="3.8784113526344299e-01" purity="2.3947696387767792e-01" nType="-99"/>
                    <Node pos="r" depth="7" NCoef="0" IVar="-1" Cut="0.0000000000000000e+00" cType="1" res="-2.8055878356099129e-03" rms="3.5002151131629944e-01" purity="1.7499047517776489e-01" nType="-99"/>
                  </Node>
                  <Node pos="r" depth="6" NCoef="0" IVar="3" Cut="2.7455022931098938e-01" cType="1" res="-3.8492888212203979e-02" rms="2.5528329610824585e-01" purity="8.2506157457828522e-02" nType="0">
                    <Node pos="l" depth="7" NCoef="0" IVar="-1" Cut="0.0000000000000000e+00" cType="1" res="-1.0400858707726002e-02" rms="2.1186299622058868e-01" purity="5.0497628748416901e-02" nType="-99"/>
                    <Node pos="r" depth="7" NCoef="0" IVar="-1" Cut="0.0000000000000000e+00" cType="1" res="-1.0454765520989895e-02" rms="2.7197620272636414e-01" purity="9.6605464816093445e-02" nType="-99"/>
                  </Node>
                </Node>
              </Node>
            </Node>
          </Node>
        </Node>
        <Node pos="r" depth="1" NCoef="0" IVar="5" Cut="-1.5457618236541748e+00" cType="1" res="2.9598394408822060e-02" rms="4.2493832111358643e-01" purity="7.3701190948486328e-01" nType="0">
          <Node pos="l" depth="2" NCoef="0" IVar="5" Cut="-2.4636433124542236e+00" cType="1" res="3.4572269767522812e-02" rms="4.1367605328559875e-01" purity="7.6700687408447266e-01" nType="0">
            <Node pos="l" depth="3" NCoef="0" IVar="1" Cut="7.3203808069229126e-01" cType="1" res="4.2239110916852951e-02" rms="3.9867159724235535e-01" purity="7.9166299104690552e-01" nType="0">
              <Node pos="l" depth="4" NCoef="0" IVar="3" Cut="8.3764272928237915e-01" cType="1" res="4.5829400420188904e-02" rms="3.9242988824844360e-01" purity="8.0255371332168579e-01" nType="0">
                <Node pos="l" depth="5" NCoef="0" IVar="4" Cut="-2.3176200389862061e+00" cType="1" res="2.8088226914405823e-02" rms="4.5457482337951660e-01" purity="7.0062297582626343e-01" nType="0">
                  <Node pos="l" depth="6" NCoef="0" IVar="-1" Cut="0.0000000000000000e+00" cType="1" res="3.1242009717971087e-03" rms="4.4873675704002380e-01" purity="7.1795171499252319e-01" nType="-99"/>
                  <Node pos="r" depth="6" NCoef="0" IVar="-1" Cut="0.0000000000000000e+00" cType="1" res="2.1608443930745125e-03" rms="4.5866879820823669e-01" purity="6.8818634748458862e-01" nType="-99"/>
                </Node>
                <Node pos="r" depth="5" NCoef="0" IVar="4" Cut="-2.4468739032745361e+00" cType="1" res="4.8120271414518356e-02" rms="3.8361236453056335e-01" purity="8.1571578979492188e-01" nType="0">
                  <Node pos="l" depth="6" NCoef="0" IVar="3" Cut="8.9321511983871460e-01" cType="1" res="6.0205429792404175e-02" rms="3.9176699519157410e-01" purity="8.0796700716018677e-01" nType="0">
                    <Node pos="l" depth="7" NCoef="0" IVar="-1" Cut="0.0000000000000000e+00" cType="1" res="5.1328060217201710e-03" rms="4.0831017494201660e-01" purity="7.8664499521255493e-01" nType="-99"/>
                    <Node pos="r" depth="7" NCoef="0" IVar="-1" Cut="0.0000000000000000e+00" cType="1" res="8.0058909952640533e-03" rms="3.7113857269287109e-01" purity="8.3288234472274780e-01" nType="-99"/>
                  </Node>
                  <Node pos="r" depth="6" NCoef="0" IVar="4" Cut="-1.3714189529418945e+00" cType="1" res="4.6169757843017578e-02" rms="3.8224413990974426e-01" purity="8.1696641445159912e-01" nType="0">
                    <Node pos="l" depth="7" NCoef="0" IVar="-1" Cut="0.0000000000000000e+00" cType="1" res="2.7730467263609171e-03" rms="4.2388752102851868e-01" purity="7.5963699817657471e-01" nType="-99"/>
                    <Node pos="r" depth="7" NCoef="0" IVar="-1" Cut="0.0000000000000000e+00" cType="1" res="5.6101069785654545e-03" rms="3.7094688415527344e-01" purity="8.3136808872222900e-01" nType="-99"/>
                  </Node>
                </Node>
              </Node>
              <Node pos="r" depth="4" NCoef="0" IVar="-1" Cut="0.0000000000000000e+00" cType="1" res="1.6638846136629581e-04" rms="4.6116805076599121e-01" purity="6.6922938823699951e-01" nType="-99"/>
            </Node>
            <Node pos="r" depth="3" NCoef="0" IVar="1" Cut="3.5911634564399719e-01" cType="1" res="2.1110728383064270e-02" rms="4.3845725059509277e-01" purity="7.2371536493301392e-01" nType="0">
              <Node pos="l" depth="4" NCoef="0" IVar="2" Cut="1.4490660095214844e+02" cType="1" res="2.7790499851107597e-02" rms="4.3073338270187378e-01" purity="7.4402517080307007e-01" nType="0">
                <Node pos="l" depth="5" NCoef="0" IVar="3" Cut="8.6591166257858276e-01" cType="1" res="3.0718386173248291e-02" rms="4.2654210329055786e-01" purity="7.5329625606536865e-01" nType="0">
                  <Node pos="l" depth="6" NCoef="0" IVar="5" Cut="-2.0787160396575928e+00" cType="1" res="1.0177505202591419e-02" rms="4.6123340725898743e-01" purity="6.8630051612854004e-01" nType="0">
                    <Node pos="l" depth="7" NCoef="0" IVar="-1" Cut="0.0000000000000000e+00" cType="1" res="1.6075967578217387e-03" rms="4.5303699374198914e-01" purity="7.0666402578353882e-01" nType="-99"/>
                    <Node pos="r" depth="7" NCoef="0" IVar="-1" Cut="0.0000000000000000e+00" cType="1" res="1.8100767920259386e-04" rms="4.6912157535552979e-01" purity="6.6600066423416138e-01" nType="-99"/>
                  </Node>
                  <Node pos="r" depth="6" NCoef="0" IVar="4" Cut="-3.0563387274742126e-01" cType="1" res="3.6589030176401138e-02" rms="4.1590976715087891e-01" purity="7.7244383096694946e-01" nType="0">
                    <Node pos="l" depth="7" NCoef="0" IVar="-1" Cut="0.0000000000000000e+00" cType="1" res="2.7213844005018473e-03" rms="4.2711111903190613e-01" purity="7.5457167625427246e-01" nType="-99"/>
                    <Node pos="r" depth="7" NCoef="0" IVar="-1" Cut="0.0000000000000000e+00" cType="1" res="5.3661935962736607e-03" rms="3.9784193038940430e-01" purity="7.9970061779022217e-01" nType="-99"/>
                  </Node>
                </Node>
                <Node pos="r" depth="5" NCoef="0" IVar="-1" Cut="0.0000000000000000e+00" cType="1" res="5.8687134878709912e-04" rms="4.6009051799774170e-01" purity="6.7516064643859863e-01" nType="-99"/>
              </Node>
              <Node pos="r" depth="4" NCoef="0" IVar="4" Cut="-4.1709899902343750e-01" cType="1" res="-5.6178765371441841e-03" rms="4.6713539958000183e-01" purity="6.4244741201400757e-01" nType="0">
                <Node pos="l" depth="5" NCoef="0" IVar="-1" Cut="0.0000000000000000e+00" cType="1" res="-1.0936940088868141e-03" rms="4.7585892677307129e-01" purity="6.2067013978958130e-01" nType="-99"/>
                <Node pos="r" depth="5" NCoef="0" IVar="-1" Cut="0.0000000000000000e+00" cType="1" res="5.6261941790580750e-04" rms="4.5261335372924805e-01" purity="6.7722862958908081e-01" nType="-99"/>
              </Node>
            </Node>
          </Node>
          <Node pos="r" depth="2" NCoef="0" IVar="4" Cut="8.1966650485992432e-01" cType="1" res="4.7103948891162872e-03" rms="4.7653776407241821e-01" purity="5.8692467212677002e-01" nType="0">
            <Node pos="l" depth="3" NCoef="0" IVar="5" Cut="-8.6232411861419678e-01" cType="1" res="1.3162814080715179e-02" rms="4.7622236609458923e-01" purity="6.1315953731536865e-01" nType="0">
              <Node pos="l" depth="4" NCoef="0" IVar="3" Cut="9.5190906524658203e-01" cType="1" res="2.1406717598438263e-02" rms="4.6686592698097229e-01" purity="6.5592807531356812e-01" nType="0">
                <Node pos="l" depth="5" NCoef="0" IVar="4" Cut="-1.0683623552322388e+00" cType="1" res="3.2738395035266876e-02" rms="4.7286489605903625e-01" purity="6.4073812961578369e-01" nType="0">
                  <Node pos="l" depth="6" NCoef="0" IVar="-1" Cut="0.0000000000000000e+00" cType="1" res="1.9175458000972867e-03" rms="4.7434976696968079e-01" purity="6.3893699645996094e-01" nType="-99"/>
                  <Node pos="r" depth="6" NCoef="0" IVar="-1" Cut="0.0000000000000000e+00" cType="1" res="3.6698407493531704e-03" rms="4.7129133343696594e-01" purity="6.4238601922988892e-01" nType="-99"/>
                </Node>
                <Node pos="r" depth="5" NCoef="0" IVar="-1" Cut="0.0000000000000000e+00" cType="1" res="7.9539150465279818e-04" rms="4.5982331037521362e-01" purity="6.7270857095718384e-01" nType="-99"/>
              </Node>
              <Node pos="r" depth="4" NCoef="0" IVar="3" Cut="9.1454946994781494e-01" cType="1" res="-4.1266399784944952e-04" rms="4.9094012379646301e-01" purity="5.4273134469985962e-01" nType="0">
                <Node pos="l" depth="5" NCoef="0" IVar="-1" Cut="0.0000000000000000e+00" cType="1" res="3.9434956852346659e-04" rms="4.9543425440788269e-01" purity="5.1994818449020386e-01" nType="-99"/>
                <Node pos="r" depth="5" NCoef="0" IVar="-1" Cut="0.0000000000000000e+00" cType="1" res="-3.8305146154016256e-04" rms="4.8714044690132141e-01" purity="5.6164854764938354e-01" nType="-99"/>
              </Node>
            </Node>
            <Node pos="r" depth="3" NCoef="0" IVar="-1" Cut="0.0000000000000000e+00" cType="1" res="-3.6263319198042154e-03" rms="4.7577112913131714e-01" purity="4.5105215907096863e-01" nType="-99"/>
          </Node>
        </Node>
      </Node>
    </BinaryTree>
    <BinaryTree type="DecisionTree" boostWeight="1.0000000000000000e+00" itree="55">
      <Node pos="s" depth="0" NCoef="0" IVar="3" Cut="6.6849672794342041e-01" cType="1" res="9.1013284400105476e-03" rms="4.0641200542449951e-01" purity="5.0024306774139404e-01" nType="0">
        <Node pos="l" depth="1" NCoef="0" IVar="5" Cut="-1.2442203760147095e+00" cType="1" res="-1.6296548768877983e-02" rms="3.5694575309753418e-01" purity="1.9079452753067017e-01" nType="0">
          <Node pos="l" depth="2" NCoef="0" IVar="5" Cut="-3.0994343757629395e+00" cType="1" res="-1.0727925226092339e-02" rms="3.9015936851501465e-01" purity="2.3701564967632294e-01" nType="0">
            <Node pos="l" depth="3" NCoef="0" IVar="4" Cut="-8.1659257411956787e-01" cType="1" res="-3.9395753294229507e-02" rms="3.1680598855018616e-01" purity="1.3265070319175720e-01" nType="0">
              <Node pos="l" depth="4" NCoef="0" IVar="3" Cut="3.0777221918106079e-01" cType="1" res="-5.3849514573812485e-02" rms="3.0960103869438171e-01" purity="1.2698729336261749e-01" nType="0">
                <Node pos="l" depth="5" NCoef="0" IVar="-1" Cut="0.0000000000000000e+00" cType="1" res="-7.8299716114997864e-03" rms="2.6854279637336731e-01" purity="9.4779998064041138e-02" nType="-99"/>
                <Node pos="r" depth="5" NCoef="0" IVar="-1" Cut="0.0000000000000000e+00" cType="1" res="-1.1453789658844471e-02" rms="3.3178064227104187e-01" purity="1.4714600145816803e-01" nType="-99"/>
              </Node>
              <Node pos="r" depth="4" NCoef="0" IVar="-1" Cut="0.0000000000000000e+00" cType="1" res="-3.7854725960642099e-03" rms="3.2602772116661072e-01" purity="1.4105594158172607e-01" nType="-99"/>
            </Node>
            <Node pos="r" depth="3" NCoef="0" IVar="2" Cut="1.9247677612304688e+02" cType="1" res="-4.7002392821013927e-03" rms="4.0363213419914246e-01" purity="2.5895935297012329e-01" nType="0">
              <Node pos="l" depth="4" NCoef="0" IVar="6" Cut="7.7773183584213257e-02" cType="1" res="7.8155463561415672e-03" rms="4.1411671042442322e-01" purity="2.8928777575492859e-01" nType="0">
                <Node pos="l" depth="5" NCoef="0" IVar="2" Cut="5.6275962829589844e+01" cType="1" res="-3.4591003786772490e-03" rms="4.0221306681632996e-01" purity="2.5996655225753784e-01" nType="0">
                  <Node pos="l" depth="6" NCoef="0" IVar="-1" Cut="0.0000000000000000e+00" cType="1" res="2.9281335882842541e-03" rms="4.2596778273582458e-01" purity="3.0708393454551697e-01" nType="-99"/>
                  <Node pos="r" depth="6" NCoef="0" IVar="1" Cut="1.3634023070335388e-01" cType="1" res="-1.5847243368625641e-02" rms="3.9015352725982666e-01" purity="2.3824575543403625e-01" nType="0">
                    <Node pos="l" depth="7" NCoef="0" IVar="-1" Cut="0.0000000000000000e+00" cType="1" res="5.7299650507047772e-04" rms="4.3673655390739441e-01" purity="3.3414617180824280e-01" nType="-99"/>
                    <Node pos="r" depth="7" NCoef="0" IVar="-1" Cut="0.0000000000000000e+00" cType="1" res="-5.5121737532317638e-03" rms="3.5132128000259399e-01" purity="1.6792461276054382e-01" nType="-99"/>
                  </Node>
                </Node>
                <Node pos="r" depth="5" NCoef="0" IVar="0" Cut="1.0780948400497437e+00" cType="1" res="2.3811068385839462e-02" rms="4.2993319034576416e-01" purity="3.3088627457618713e-01" nType="0">
                  <Node pos="l" depth="6" NCoef="0" IVar="7" Cut="4.0000000000000000e+00" cType="1" res="1.6401059925556183e-02" rms="3.6968633532524109e-01" purity="4.2315474152565002e-01" nType="0">
                    <Node pos="l" depth="7" NCoef="0" IVar="-1" Cut="0.0000000000000000e+00" cType="1" res="3.2478940556757152e-04" rms="4.8173210024833679e-01" purity="4.3497833609580994e-01" nType="-99"/>
                    <Node pos="r" depth="7" NCoef="0" IVar="-1" Cut="0.0000000000000000e+00" cType="1" res="6.6567608155310154e-03" rms="4.6234259009361267e-01" purity="4.1430243849754333e-01" nType="-99"/>
                  </Node>
                  <Node pos="r" depth="6" NCoef="0" IVar="-1" Cut="0.0000000000000000e+00" cType="1" res="-2.1279244683682919e-03" rms="3.1322997808456421e-01" purity="1.2193628400564194e-01" nType="-99"/>
                </Node>
              </Node>
              <Node pos="r" depth="4" NCoef="0" IVar="6" Cut="1.4300376176834106e-01" cType="1" res="-1.5227232128381729e-02" rms="3.9429044723510742e-01" purity="2.3345023393630981e-01" nType="0">
                <Node pos="l" depth="5" NCoef="0" IVar="3" Cut="5.4162693023681641e-01" cType="1" res="-2.5845924392342567e-02" rms="3.8517194986343384e-01" purity="2.2720912098884583e-01" nType="0">
                  <Node pos="l" depth="6" NCoef="0" IVar="6" Cut="7.9533807933330536e-02" cType="1" res="-3.5542752593755722e-02" rms="3.1560549139976501e-01" purity="1.2305219471454620e-01" nType="0">
                    <Node pos="l" depth="7" NCoef="0" IVar="-1" Cut="0.0000000000000000e+00" cType="1" res="-1.2386997230350971e-02" rms="2.5814172625541687e-01" purity="7.5119584798812866e-02" nType="-99"/>
                    <Node pos="r" depth="7" NCoef="0" IVar="-1" Cut="0.0000000000000000e+00" cType="1" res="-6.1124204657971859e-03" rms="3.3172059059143066e-01" purity="1.3835839927196503e-01" nType="-99"/>
                  </Node>
                  <Node pos="r" depth="6" NCoef="0" IVar="6" Cut="9.0324476361274719e-02" cType="1" res="-1.0126906447112560e-02" rms="4.7642940282821655e-01" purity="3.9605242013931274e-01" nType="0">
                    <Node pos="l" depth="7" NCoef="0" IVar="-1" Cut="0.0000000000000000e+00" cType="1" res="-3.3531798981130123e-03" rms="4.6094340085983276e-01" purity="3.3867400884628296e-01" nType="-99"/>
                    <Node pos="r" depth="7" NCoef="0" IVar="-1" Cut="0.0000000000000000e+00" cType="1" res="4.5839563244953752e-04" rms="4.8606476187705994e-01" purity="4.3488389253616333e-01" nType="-99"/>
                  </Node>
                </Node>
                <Node pos="r" depth="5" NCoef="0" IVar="0" Cut="1.4964231252670288e+00" cType="1" res="4.0355126839131117e-04" rms="4.0683773159980774e-01" purity="2.4263717234134674e-01" nType="0">
                  <Node pos="l" depth="6" NCoef="0" IVar="0" Cut="5.3081762790679932e-01" cType="1" res="1.2533837929368019e-02" rms="4.3545669317245483e-01" purity="2.8859531879425049e-01" nType="0">
                    <Node pos="l" depth="7" NCoef="0" IVar="-1" Cut="0.0000000000000000e+00" cType="1" res="4.0694689378142357e-03" rms="4.6885311603546143e-01" purity="3.5934901237487793e-01" nType="-99"/>
                    <Node pos="r" depth="7" NCoef="0" IVar="-1" Cut="0.0000000000000000e+00" cType="1" res="-5.1541309803724289e-03" rms="3.6615160107612610e-01" purity="1.6494828462600708e-01" nType="-99"/>
                  </Node>
                  <Node pos="r" depth="6" NCoef="0" IVar="-1" Cut="0.0000000000000000e+00" cType="1" res="-8.6117302998900414e-03" rms="3.0442330241203308e-01" purity="1.0702899843454361e-01" nType="-99"/>
                </Node>
              </Node>
            </Node>
          </Node>
          <Node pos="r" depth="2" NCoef="0" IVar="4" Cut="-3.2117447257041931e-01" cType="1" res="-2.6250429451465607e-02" rms="2.8792500495910645e-01" purity="1.0817454755306244e-01" nType="0">
            <Node pos="l" depth="3" NCoef="0" IVar="-1" Cut="0.0000000000000000e+00" cType="1" res="1.4262016629800200e-03" rms="3.9464294910430908e-01" purity="2.2991280257701874e-01" nType="-99"/>
            <Node pos="r" depth="3" NCoef="0" IVar="6" Cut="9.3617394566535950e-02" cType="1" res="-2.9424816370010376e-02" rms="2.7618414163589478e-01" purity="9.7311146557331085e-02" nType="0">
              <Node pos="l" depth="4" NCoef="0" IVar="2" Cut="7.1772277832031250e+01" cType="1" res="-4.0683619678020477e-02" rms="2.5364154577255249e-01" purity="8.4491066634654999e-02" nType="0">
                <Node pos="l" depth="5" NCoef="0" IVar="-1" Cut="0.0000000000000000e+00" cType="1" res="-4.8147779889404774e-03" rms="2.9226773977279663e-01" purity="1.1944736540317535e-01" nType="-99"/>
                <Node pos="r" depth="5" NCoef="0" IVar="7" Cut="4.0000000000000000e+00" cType="1" res="-4.6763900667428970e-02" rms="2.4069538712501526e-01" purity="7.4150502681732178e-02" nType="0">
                  <Node pos="l" depth="6" NCoef="0" IVar="-1" Cut="0.0000000000000000e+00" cType="1" res="-1.1863496154546738e-02" rms="2.9793873429298401e-01" purity="1.1430329829454422e-01" nType="-99"/>
                  <Node pos="r" depth="6" NCoef="0" IVar="6" Cut="6.5251439809799194e-02" cType="1" res="-4.1232917457818985e-02" rms="2.1679429709911346e-01" purity="6.0065012425184250e-02" nType="0">
                    <Node pos="l" depth="7" NCoef="0" IVar="-1" Cut="0.0000000000000000e+00" cType="1" res="-1.4886435121297836e-02" rms="2.0093423128128052e-01" purity="5.2309796214103699e-02" nType="-99"/>
                    <Node pos="r" depth="7" NCoef="0" IVar="-1" Cut="0.0000000000000000e+00" cType="1" res="-1.1436603963375092e-02" rms="2.2917816042900085e-01" purity="6.6578552126884460e-02" nType="-99"/>
                  </Node>
                </Node>
              </Node>
              <Node pos="r" depth="4" NCoef="0" IVar="5" Cut="-3.6073333024978638e-01" cType="1" res="-2.2261420264840126e-02" rms="2.8938698768615723e-01" purity="1.0546790063381195e-01" nType="0">
                <Node pos="l" depth="5" NCoef="0" IVar="3" Cut="3.6664140224456787e-01" cType="1" res="-9.7786262631416321e-03" rms="3.6056962609291077e-01" purity="1.7658299207687378e-01" nType="0">
                  <Node pos="l" depth="6" NCoef="0" IVar="-1" Cut="0.0000000000000000e+00" cType="1" res="-8.0729871988296509e-03" rms="2.6630654931068420e-01" purity="8.2625269889831543e-02" nType="-99"/>
                  <Node pos="r" depth="6" NCoef="0" IVar="-1" Cut="0.0000000000000000e+00" cType="1" res="7.0949725341051817e-04" rms="4.2260575294494629e-01" purity="2.5462046265602112e-01" nType="-99"/>
                </Node>
                <Node pos="r" depth="5" NCoef="0" IVar="3" Cut="2.3897473514080048e-01" cType="1" res="-2.7497200295329094e-02" rms="2.5346878170967102e-01" purity="7.5639419257640839e-02" nType="0">
                  <Node pos="l" depth="6" NCoef="0" IVar="-1" Cut="0.0000000000000000e+00" cType="1" res="-2.7276275213807821e-03" rms="2.7791565656661987e-01" purity="9.2145085334777832e-02" nType="-99"/>
                  <Node pos="r" depth="6" NCoef="0" IVar="2" Cut="2.2548910522460938e+02" cType="1" res="-3.4269750118255615e-02" rms="2.4380244314670563e-01" purity="6.9753736257553101e-02" nType="0">
                    <Node pos="l" depth="7" NCoef="0" IVar="-1" Cut="0.0000000000000000e+00" cType="1" res="-4.5969244092702866e-03" rms="2.8202098608016968e-01" purity="9.6360921859741211e-02" nType="-99"/>
                    <Node pos="r" depth="7" NCoef="0" IVar="-1" Cut="0.0000000000000000e+00" cType="1" res="-1.2403477914631367e-02" rms="2.2862881422042847e-01" purity="6.0467816889286041e-02" nType="-99"/>
                  </Node>
                </Node>
              </Node>
            </Node>
          </Node>
        </Node>
        <Node pos="r" depth="1" NCoef="0" IVar="0" Cut="5.8072733879089355e-01" cType="1" res="2.5860823690891266e-02" rms="4.3517979979515076e-01" purity="7.0444124937057495e-01" nType="0">
          <Node pos="l" depth="2" NCoef="0" IVar="0" Cut="1.6859735548496246e-01" cType="1" res="2.8785886242985725e-02" rms="4.3349891901016235e-01" purity="7.1423274278640747e-01" nType="0">
            <Node pos="l" depth="3" NCoef="0" IVar="1" Cut="9.2064899206161499e-01" cType="1" res="3.4728709608316422e-02" rms="4.2433366179466248e-01" purity="7.4310523271560669e-01" nType="0">
              <Node pos="l" depth="4" NCoef="0" IVar="3" Cut="8.7872761487960815e-01" cType="1" res="3.7402965128421783e-02" rms="4.2092007398605347e-01" purity="7.5108695030212402e-01" nType="0">
                <Node pos="l" depth="5" NCoef="0" IVar="5" Cut="-9.6020638942718506e-01" cType="1" res="2.6535285636782646e-02" rms="4.6040269732475281e-01" purity="6.6931557655334473e-01" nType="0">
                  <Node pos="l" depth="6" NCoef="0" IVar="7" Cut="3.0000000000000000e+00" cType="1" res="2.9964782297611237e-02" rms="4.5631280541419983e-01" purity="6.9378775358200073e-01" nType="0">
                    <Node pos="l" depth="7" NCoef="0" IVar="-1" Cut="0.0000000000000000e+00" cType="1" res="2.0311572588980198e-03" rms="4.5339706540107727e-01" purity="7.0179241895675659e-01" nType="-99"/>
                    <Node pos="r" depth="7" NCoef="0" IVar="-1" Cut="0.0000000000000000e+00" cType="1" res="3.8685284089297056e-03" rms="4.6183526515960693e-01" purity="6.7842608690261841e-01" nType="-99"/>
                  </Node>
                  <Node pos="r" depth="6" NCoef="0" IVar="-1" Cut="0.0000000000000000e+00" cType="1" res="-2.2460491891251877e-05" rms="4.8962956666946411e-01" purity="4.7889780998229980e-01" nType="-99"/>
                </Node>
                <Node pos="r" depth="5" NCoef="0" IVar="1" Cut="4.2619425058364868e-01" cType="1" res="4.2737614363431931e-02" rms="4.0000799298286438e-01" purity="7.9122632741928101e-01" nType="0">
                  <Node pos="l" depth="6" NCoef="0" IVar="5" Cut="-3.0267171859741211e+00" cType="1" res="4.5329626649618149e-02" rms="3.9528322219848633e-01" purity="7.9852694272994995e-01" nType="0">
                    <Node pos="l" depth="7" NCoef="0" IVar="-1" Cut="0.0000000000000000e+00" cType="1" res="6.3506141304969788e-03" rms="3.5656672716140747e-01" purity="8.4898275136947632e-01" nType="-99"/>
                    <Node pos="r" depth="7" NCoef="0" IVar="-1" Cut="0.0000000000000000e+00" cType="1" res="4.2820083908736706e-03" rms="4.0781471133232117e-01" purity="7.8099393844604492e-01" nType="-99"/>
                  </Node>
                  <Node pos="r" depth="6" NCoef="0" IVar="4" Cut="-3.8818398118019104e-01" cType="1" res="2.1568868309259415e-02" rms="4.3610912561416626e-01" purity="7.3160272836685181e-01" nType="0">
                    <Node pos="l" depth="7" NCoef="0" IVar="-1" Cut="0.0000000000000000e+00" cType="1" res="5.1155942492187023e-04" rms="4.5040479302406311e-01" purity="7.0535331964492798e-01" nType="-99"/>
                    <Node pos="r" depth="7" NCoef="0" IVar="-1" Cut="0.0000000000000000e+00" cType="1" res="3.9273421280086040e-03" rms="4.1845822334289551e-01" purity="7.6157599687576294e-01" nType="-99"/>
                  </Node>
                </Node>
              </Node>
              <Node pos="r" depth="4" NCoef="0" IVar="7" Cut="2.0000000000000000e+00" cType="1" res="-3.6230452678864822e-05" rms="3.9568701758980751e-03" purity="6.0884541273117065e-01" nType="0">
                <Node pos="l" depth="5" NCoef="0" IVar="-1" Cut="0.0000000000000000e+00" cType="1" res="-1.7403971869498491e-03" rms="4.6573740243911743e-01" purity="6.5177768468856812e-01" nType="-99"/>
                <Node pos="r" depth="5" NCoef="0" IVar="-1" Cut="0.0000000000000000e+00" cType="1" res="1.2734050687868148e-04" rms="4.8815602064132690e-01" purity="5.5440866947174072e-01" nType="-99"/>
              </Node>
            </Node>
            <Node pos="r" depth="3" NCoef="0" IVar="4" Cut="-2.1507132053375244e+00" cType="1" res="-3.0784558039158583e-03" rms="4.7840622067451477e-01" purity="5.5942350625991821e-01" nType="0">
              <Node pos="l" depth="4" NCoef="0" IVar="-1" Cut="0.0000000000000000e+00" cType="1" res="3.1288552563637495e-03" rms="4.7010987997055054e-01" purity="6.3098990917205811e-01" nType="-99"/>
              <Node pos="r" depth="4" NCoef="0" IVar="1" Cut="4.2833489179611206e-01" cType="1" res="-1.0848896577954292e-02" rms="4.7974866628646851e-01" purity="5.4453659057617188e-01" nType="0">
                <Node pos="l" depth="5" NCoef="0" IVar="5" Cut="-1.0071064233779907e+00" cType="1" res="4.3585533276200294e-03" rms="4.7895333170890808e-01" purity="5.7521480321884155e-01" nType="0">
                  <Node pos="l" depth="6" NCoef="0" IVar="7" Cut="3.0000000000000000e+00" cType="1" res="4.3321838602423668e-03" rms="2.4657510221004486e-01" purity="6.1089938879013062e-01" nType="0">
                    <Node pos="l" depth="7" NCoef="0" IVar="-1" Cut="0.0000000000000000e+00" cType="1" res="8.9897264842875302e-05" rms="4.7587874531745911e-01" purity="6.2173217535018921e-01" nType="-99"/>
                    <Node pos="r" depth="7" NCoef="0" IVar="-1" Cut="0.0000000000000000e+00" cType="1" res="3.3324034884572029e-03" rms="4.8962864279747009e-01" purity="5.8169496059417725e-01" nType="-99"/>
                  </Node>
                  <Node pos="r" depth="6" NCoef="0" IVar="-1" Cut="0.0000000000000000e+00" cType="1" res="-2.1915696561336517e-03" rms="4.7383821010589600e-01" purity="4.2021387815475464e-01" nType="-99"/>
                </Node>
                <Node pos="r" depth="5" NCoef="0" IVar="-1" Cut="0.0000000000000000e+00" cType="1" res="-7.0062424056231976e-03" rms="4.7783777117729187e-01" purity="4.1609394550323486e-01" nType="-99"/>
              </Node>
            </Node>
          </Node>
          <Node pos="r" depth="2" NCoef="0" IVar="-1" Cut="0.0000000000000000e+00" cType="1" res="-5.6774388067424297e-03" rms="4.7462555766105652e-01" purity="4.1027477383613586e-01" nType="-99"/>
        </Node>
      </Node>
    </BinaryTree>
    <BinaryTree type="DecisionTree" boostWeight="1.0000000000000000e+00" itree="56">
      <Node pos="s" depth="0" NCoef="0" IVar="3" Cut="6.7670965194702148e-01" cType="1" res="6.3971844501793385e-03" rms="4.0720096230506897e-01" purity="4.9764019250869751e-01" nType="0">
        <Node pos="l" depth="1" NCoef="0" IVar="3" Cut="5.8951586484909058e-01" cType="1" res="-1.5388494357466698e-02" rms="3.5946616530418396e-01" purity="1.9624535739421844e-01" nType="0">
          <Node pos="l" depth="2" NCoef="0" IVar="6" Cut="1.1075796931982040e-01" cType="1" res="-1.9169092178344727e-02" rms="3.2850524783134460e-01" purity="1.4661082625389099e-01" nType="0">
            <Node pos="l" depth="3" NCoef="0" IVar="7" Cut="4.0000000000000000e+00" cType="1" res="0.0000000000000000e+00" rms="0.0000000000000000e+00" purity="1.2114247679710388e-01" nType="0">
              <Node pos="l" depth="4" NCoef="0" IVar="3" Cut="4.0293541550636292e-01" cType="1" res="-4.7663476318120956e-02" rms="3.2464319467544556e-01" purity="1.3254407048225403e-01" nType="0">
                <Node pos="l" depth="5" NCoef="0" IVar="-1" Cut="0.0000000000000000e+00" cType="1" res="-8.4469206631183624e-03" rms="2.5648021697998047e-01" purity="7.2841405868530273e-02" nType="-99"/>
                <Node pos="r" depth="5" NCoef="0" IVar="3" Cut="5.4738146066665649e-01" cType="1" res="-5.5257726460695267e-02" rms="3.4528440237045288e-01" purity="1.5371809899806976e-01" nType="0">
                  <Node pos="l" depth="6" NCoef="0" IVar="2" Cut="1.4074003601074219e+02" cType="1" res="-4.7451995313167572e-02" rms="3.1320402026176453e-01" purity="1.2212298065423965e-01" nType="0">
                    <Node pos="l" depth="7" NCoef="0" IVar="-1" Cut="0.0000000000000000e+00" cType="1" res="-6.1347400769591331e-03" rms="3.4139543771743774e-01" purity="1.5010993182659149e-01" nType="-99"/>
                    <Node pos="r" depth="7" NCoef="0" IVar="-1" Cut="0.0000000000000000e+00" cType="1" res="-1.3092218898236752e-02" rms="2.7911898493766785e-01" purity="9.2071607708930969e-02" nType="-99"/>
                  </Node>
                  <Node pos="r" depth="6" NCoef="0" IVar="-1" Cut="0.0000000000000000e+00" cType="1" res="-8.8591072708368301e-03" rms="3.9855709671974182e-01" purity="2.1348413825035095e-01" nType="-99"/>
                </Node>
              </Node>
              <Node pos="r" depth="4" NCoef="0" IVar="3" Cut="3.6171504855155945e-01" cType="1" res="-2.0994650200009346e-02" rms="2.9383170604705811e-01" purity="1.1731492727994919e-01" nType="0">
                <Node pos="l" depth="5" NCoef="0" IVar="2" Cut="1.8874142456054688e+02" cType="1" res="-3.8154009729623795e-02" rms="1.6739995777606964e-01" purity="2.9318971559405327e-02" nType="0">
                  <Node pos="l" depth="6" NCoef="0" IVar="4" Cut="-1.5489254891872406e-01" cType="1" res="-4.0986828505992889e-02" rms="1.6255696117877960e-01" purity="2.7667695656418800e-02" nType="0">
                    <Node pos="l" depth="7" NCoef="0" IVar="-1" Cut="0.0000000000000000e+00" cType="1" res="-2.0858604460954666e-02" rms="1.7239701747894287e-01" purity="3.0865615233778954e-02" nType="-99"/>
                    <Node pos="r" depth="7" NCoef="0" IVar="-1" Cut="0.0000000000000000e+00" cType="1" res="-1.9203184172511101e-02" rms="1.5775392949581146e-01" purity="2.6203488931059837e-02" nType="-99"/>
                  </Node>
                  <Node pos="r" depth="6" NCoef="0" IVar="0" Cut="2.2594337463378906e+00" cType="1" res="-3.3641934394836426e-02" rms="1.7474223673343658e-01" purity="3.1949087977409363e-02" nType="0">
                    <Node pos="l" depth="7" NCoef="0" IVar="-1" Cut="0.0000000000000000e+00" cType="1" res="-1.1154079809784889e-02" rms="2.0195251703262329e-01" purity="4.3186206370592117e-02" nType="-99"/>
                    <Node pos="r" depth="7" NCoef="0" IVar="-1" Cut="0.0000000000000000e+00" cType="1" res="-2.1054873242974281e-02" rms="1.3994246721267700e-01" purity="2.0072238519787788e-02" nType="-99"/>
                  </Node>
                </Node>
                <Node pos="r" depth="5" NCoef="0" IVar="2" Cut="1.4514013671875000e+02" cType="1" res="-6.3311299309134483e-03" rms="3.6837878823280334e-01" purity="1.9251182675361633e-01" nType="0">
                  <Node pos="l" depth="6" NCoef="0" IVar="6" Cut="3.6321211606264114e-02" cType="1" res="1.1536667123436928e-02" rms="3.9057195186614990e-01" purity="2.2804273664951324e-01" nType="0">
                    <Node pos="l" depth="7" NCoef="0" IVar="-1" Cut="0.0000000000000000e+00" cType="1" res="-5.2810353226959705e-03" rms="3.5176062583923340e-01" purity="1.6457957029342651e-01" nType="-99"/>
                    <Node pos="r" depth="7" NCoef="0" IVar="-1" Cut="0.0000000000000000e+00" cType="1" res="4.3226652778685093e-03" rms="4.0439090132713318e-01" purity="2.5456702709197998e-01" nType="-99"/>
                  </Node>
                  <Node pos="r" depth="6" NCoef="0" IVar="0" Cut="9.4634348154067993e-01" cType="1" res="-2.4809964001178741e-02" rms="3.4294569492340088e-01" purity="1.5576583147048950e-01" nType="0">
                    <Node pos="l" depth="7" NCoef="0" IVar="-1" Cut="0.0000000000000000e+00" cType="1" res="-1.8852959619835019e-03" rms="3.9072635769844055e-01" purity="2.1003948152065277e-01" nType="-99"/>
                    <Node pos="r" depth="7" NCoef="0" IVar="-1" Cut="0.0000000000000000e+00" cType="1" res="-1.3361072167754173e-02" rms="2.3284558951854706e-01" purity="5.8763813227415085e-02" nType="-99"/>
                  </Node>
                </Node>
              </Node>
            </Node>
            <Node pos="r" depth="3" NCoef="0" IVar="7" Cut="3.0000000000000000e+00" cType="1" res="1.2611429393291473e-01" rms="0.0000000000000000e+00" purity="1.7455166578292847e-01" nType="0">
              <Node pos="l" depth="4" NCoef="0" IVar="-1" Cut="0.0000000000000000e+00" cType="1" res="4.5191617682576180e-03" rms="4.3497663736343384e-01" purity="2.9547807574272156e-01" nType="-99"/>
              <Node pos="r" depth="4" NCoef="0" IVar="2" Cut="2.5185119628906250e+02" cType="1" res="-1.2949086725711823e-02" rms="3.4844025969505310e-01" purity="1.6601394116878510e-01" nType="0">
                <Node pos="l" depth="5" NCoef="0" IVar="6" Cut="1.4090161025524139e-01" cType="1" res="5.5194199085235596e-03" rms="3.7328892946243286e-01" purity="2.0410034060478210e-01" nType="0">
                  <Node pos="l" depth="6" NCoef="0" IVar="-1" Cut="0.0000000000000000e+00" cType="1" res="-2.7643360663205385e-03" rms="3.5854464769363403e-01" purity="1.8471364676952362e-01" nType="-99"/>
                  <Node pos="r" depth="6" NCoef="0" IVar="5" Cut="-1.6398961544036865e+00" cType="1" res="2.5775730609893799e-02" rms="3.8603860139846802e-01" purity="2.2298809885978699e-01" nType="0">
                    <Node pos="l" depth="7" NCoef="0" IVar="-1" Cut="0.0000000000000000e+00" cType="1" res="4.9142176285386086e-03" rms="4.2729726433753967e-01" purity="2.8802567720413208e-01" nType="-99"/>
                    <Node pos="r" depth="7" NCoef="0" IVar="-1" Cut="0.0000000000000000e+00" cType="1" res="3.3666931558400393e-03" rms="3.4016326069831848e-01" purity="1.5886840224266052e-01" nType="-99"/>
                  </Node>
                </Node>
                <Node pos="r" depth="5" NCoef="0" IVar="5" Cut="-2.6135432720184326e+00" cType="1" res="-1.9813220947980881e-02" rms="3.3848375082015991e-01" purity="1.5185847878456116e-01" nType="0">
                  <Node pos="l" depth="6" NCoef="0" IVar="3" Cut="3.0512064695358276e-01" cType="1" res="-7.0231496356427670e-03" rms="3.7791258096694946e-01" purity="1.9800245761871338e-01" nType="0">
                    <Node pos="l" depth="7" NCoef="0" IVar="-1" Cut="0.0000000000000000e+00" cType="1" res="-3.9249043911695480e-03" rms="3.3265304565429688e-01" purity="1.4028190076351166e-01" nType="-99"/>
                    <Node pos="r" depth="7" NCoef="0" IVar="-1" Cut="0.0000000000000000e+00" cType="1" res="9.6589187160134315e-04" rms="4.2601841688156128e-01" purity="2.6807340979576111e-01" nType="-99"/>
                  </Node>
                  <Node pos="r" depth="6" NCoef="0" IVar="3" Cut="1.5527889132499695e-01" cType="1" res="-2.3214971646666527e-02" rms="3.2711380720138550e-01" purity="1.3958564400672913e-01" nType="0">
                    <Node pos="l" depth="7" NCoef="0" IVar="-1" Cut="0.0000000000000000e+00" cType="1" res="4.6009404468350112e-04" rms="3.4774008393287659e-01" purity="1.5187489986419678e-01" nType="-99"/>
                    <Node pos="r" depth="7" NCoef="0" IVar="-1" Cut="0.0000000000000000e+00" cType="1" res="-5.5172280408442020e-03" rms="3.2405152916908264e-01" purity="1.3791248202323914e-01" nType="-99"/>
                  </Node>
                </Node>
              </Node>
            </Node>
          </Node>
          <Node pos="r" depth="2" NCoef="0" IVar="7" Cut="4.0000000000000000e+00" cType="1" res="1.6080818604677916e-03" rms="4.7120913863182068e-01" purity="4.1422197222709656e-01" nType="0">
            <Node pos="l" depth="3" NCoef="0" IVar="3" Cut="6.6264575719833374e-01" cType="1" res="-1.1932712048292160e-02" rms="4.6791449189186096e-01" purity="3.8595345616340637e-01" nType="0">
              <Node pos="l" depth="4" NCoef="0" IVar="6" Cut="6.5148085355758667e-02" cType="1" res="-2.2925339639186859e-02" rms="4.6276330947875977e-01" purity="3.6594384908676147e-01" nType="0">
                <Node pos="l" depth="5" NCoef="0" IVar="-1" Cut="0.0000000000000000e+00" cType="1" res="-5.7875262573361397e-03" rms="4.4055059552192688e-01" purity="3.0090430378913879e-01" nType="-99"/>
                <Node pos="r" depth="5" NCoef="0" IVar="3" Cut="6.2016880512237549e-01" cType="1" res="-4.8752650618553162e-03" rms="4.7386828064918518e-01" purity="4.0258929133415222e-01" nType="0">
                  <Node pos="l" depth="6" NCoef="0" IVar="-1" Cut="0.0000000000000000e+00" cType="1" res="1.4254536945372820e-03" rms="4.6759980916976929e-01" purity="3.9133849740028381e-01" nType="-99"/>
                  <Node pos="r" depth="6" NCoef="0" IVar="-1" Cut="0.0000000000000000e+00" cType="1" res="-1.6859215684235096e-03" rms="4.7745940089225769e-01" purity="4.0993198752403259e-01" nType="-99"/>
                </Node>
              </Node>
              <Node pos="r" depth="4" NCoef="0" IVar="-1" Cut="0.0000000000000000e+00" cType="1" res="2.8835753910243511e-03" rms="4.8568925261497498e-01" purity="4.6702185273170471e-01" nType="-99"/>
            </Node>
            <Node pos="r" depth="3" NCoef="0" IVar="2" Cut="1.2795988464355469e+02" cType="1" res="2.9011033475399017e-02" rms="4.7815451025962830e-01" purity="4.7398877143859863e-01" nType="0">
              <Node pos="l" depth="4" NCoef="0" IVar="-1" Cut="0.0000000000000000e+00" cType="1" res="4.4123358093202114e-03" rms="4.7813487052917480e-01" purity="5.1660513877868652e-01" nType="-99"/>
              <Node pos="r" depth="4" NCoef="0" IVar="-1" Cut="0.0000000000000000e+00" cType="1" res="1.2614717707037926e-03" rms="4.7755181789398193e-01" purity="4.4035592675209045e-01" nType="-99"/>
            </Node>
          </Node>
        </Node>
        <Node pos="r" depth="1" NCoef="0" IVar="0" Cut="7.9670566320419312e-01" cType="1" res="2.1264437586069107e-02" rms="4.3616792559623718e-01" purity="7.0332169532775879e-01" nType="0">
          <Node pos="l" depth="2" NCoef="0" IVar="0" Cut="2.5684410706162453e-02" cType="1" res="2.4083616212010384e-02" rms="4.3531063199043274e-01" purity="7.1076756715774536e-01" nType="0">
            <Node pos="l" depth="3" NCoef="0" IVar="1" Cut="9.2764824628829956e-01" cType="1" res="2.9906788840889931e-02" rms="4.2590904235839844e-01" purity="7.4051350355148315e-01" nType="0">
              <Node pos="l" depth="4" NCoef="0" IVar="5" Cut="-2.2148137092590332e+00" cType="1" res="3.2457243651151657e-02" rms="4.2269352078437805e-01" purity="7.4840301275253296e-01" nType="0">
                <Node pos="l" depth="5" NCoef="0" IVar="4" Cut="-1.1741940975189209e+00" cType="1" res="3.9458692073822021e-02" rms="4.0014243125915527e-01" purity="7.9234552383422852e-01" nType="0">
                  <Node pos="l" depth="6" NCoef="0" IVar="4" Cut="-2.7332959175109863e+00" cType="1" res="2.8170619159936905e-02" rms="4.3102192878723145e-01" purity="7.4613177776336670e-01" nType="0">
                    <Node pos="l" depth="7" NCoef="0" IVar="-1" Cut="0.0000000000000000e+00" cType="1" res="4.8485570587217808e-03" rms="4.0810444951057434e-01" purity="7.8456711769104004e-01" nType="-99"/>
                    <Node pos="r" depth="7" NCoef="0" IVar="-1" Cut="0.0000000000000000e+00" cType="1" res="2.1029252093285322e-03" rms="4.3747824430465698e-01" purity="7.3468393087387085e-01" nType="-99"/>
                  </Node>
                  <Node pos="r" depth="6" NCoef="0" IVar="1" Cut="2.9014170169830322e-01" cType="1" res="4.7400072216987610e-02" rms="3.7670251727104187e-01" purity="8.2485777139663696e-01" nType="0">
                    <Node pos="l" depth="7" NCoef="0" IVar="-1" Cut="0.0000000000000000e+00" cType="1" res="5.7122386060655117e-03" rms="3.6943164467811584e-01" purity="8.3421266078948975e-01" nType="-99"/>
                    <Node pos="r" depth="7" NCoef="0" IVar="-1" Cut="0.0000000000000000e+00" cType="1" res="3.3896206878125668e-03" rms="4.0768122673034668e-01" purity="7.8254991769790649e-01" nType="-99"/>
                  </Node>
                </Node>
                <Node pos="r" depth="5" NCoef="0" IVar="1" Cut="9.4406856223940849e-03" cType="1" res="2.0143574103713036e-02" rms="4.5941996574401855e-01" purity="6.7111986875534058e-01" nType="0">
                  <Node pos="l" depth="6" NCoef="0" IVar="5" Cut="-1.2795134782791138e+00" cType="1" res="2.6792751625180244e-02" rms="4.5246633887290955e-01" purity="6.9185668230056763e-01" nType="0">
                    <Node pos="l" depth="7" NCoef="0" IVar="-1" Cut="0.0000000000000000e+00" cType="1" res="2.9616099782288074e-03" rms="4.3778222799301147e-01" purity="7.3579823970794678e-01" nType="-99"/>
                    <Node pos="r" depth="7" NCoef="0" IVar="-1" Cut="0.0000000000000000e+00" cType="1" res="1.4673303812742233e-03" rms="4.8260214924812317e-01" purity="5.9664034843444824e-01" nType="-99"/>
                  </Node>
                  <Node pos="r" depth="6" NCoef="0" IVar="7" Cut="2.0000000000000000e+00" cType="1" res="-2.6585958039504476e-05" rms="3.9422241970896721e-03" purity="6.4994776248931885e-01" nType="0">
                    <Node pos="l" depth="7" NCoef="0" IVar="-1" Cut="0.0000000000000000e+00" cType="1" res="1.9900358747690916e-03" rms="4.4932517409324646e-01" purity="7.0612907409667969e-01" nType="-99"/>
                    <Node pos="r" depth="7" NCoef="0" IVar="-1" Cut="0.0000000000000000e+00" cType="1" res="5.5065291235223413e-04" rms="4.8025274276733398e-01" purity="6.0189664363861084e-01" nType="-99"/>
                  </Node>
                </Node>
              </Node>
              <Node pos="r" depth="4" NCoef="0" IVar="4" Cut="-1.2921855449676514e+00" cType="1" res="-1.4185646548867226e-02" rms="4.7593691945075989e-01" purity="6.0411858558654785e-01" nType="0">
                <Node pos="l" depth="5" NCoef="0" IVar="-1" Cut="0.0000000000000000e+00" cType="1" res="-1.1507880844874308e-04" rms="4.8661372065544128e-01" purity="5.9812074899673462e-01" nType="-99"/>
                <Node pos="r" depth="5" NCoef="0" IVar="-1" Cut="0.0000000000000000e+00" cType="1" res="-2.1090111695230007e-03" rms="4.6798709034919739e-01" purity="6.0838317871093750e-01" nType="-99"/>
              </Node>
            </Node>
            <Node pos="r" depth="3" NCoef="0" IVar="5" Cut="-9.2480075359344482e-01" cType="1" res="-5.7741324417293072e-03" rms="4.7952657938003540e-01" purity="5.5824834108352661e-01" nType="0">
              <Node pos="l" depth="4" NCoef="0" IVar="4" Cut="-2.2609653472900391e+00" cType="1" res="-4.5878451783210039e-04" rms="4.8107197880744934e-01" purity="5.8748537302017212e-01" nType="0">
                <Node pos="l" depth="5" NCoef="0" IVar="-1" Cut="0.0000000000000000e+00" cType="1" res="2.5043720379471779e-03" rms="4.6761366724967957e-01" purity="6.3473314046859741e-01" nType="-99"/>
                <Node pos="r" depth="5" NCoef="0" IVar="3" Cut="8.1127393245697021e-01" cType="1" res="-6.1633358709514141e-03" rms="4.8358044028282166e-01" purity="5.7782161235809326e-01" nType="0">
                  <Node pos="l" depth="6" NCoef="0" IVar="6" Cut="5.4056182503700256e-02" cType="1" res="4.2774202302098274e-03" rms="4.9042007327079773e-01" purity="5.3598868846893311e-01" nType="0">
                    <Node pos="l" depth="7" NCoef="0" IVar="-1" Cut="0.0000000000000000e+00" cType="1" res="-1.2640457134693861e-03" rms="4.9022126197814941e-01" purity="5.2035278081893921e-01" nType="-99"/>
                    <Node pos="r" depth="7" NCoef="0" IVar="-1" Cut="0.0000000000000000e+00" cType="1" res="2.5110596325248480e-03" rms="4.8957821726799011e-01" purity="5.5743086338043213e-01" nType="-99"/>
                  </Node>
                  <Node pos="r" depth="6" NCoef="0" IVar="0" Cut="2.8889372944831848e-01" cType="1" res="-2.2023357450962067e-02" rms="4.7256037592887878e-01" purity="6.4136779308319092e-01" nType="0">
                    <Node pos="l" depth="7" NCoef="0" IVar="-1" Cut="0.0000000000000000e+00" cType="1" res="-1.3048714026808739e-03" rms="4.6242082118988037e-01" purity="6.6617906093597412e-01" nType="-99"/>
                    <Node pos="r" depth="7" NCoef="0" IVar="-1" Cut="0.0000000000000000e+00" cType="1" res="-2.6756315492093563e-03" rms="4.8051699995994568e-01" purity="6.2116158008575439e-01" nType="-99"/>
                  </Node>
                </Node>
              </Node>
              <Node pos="r" depth="4" NCoef="0" IVar="-1" Cut="0.0000000000000000e+00" cType="1" res="-3.5598648246377707e-03" rms="4.6921771764755249e-01" purity="3.8778439164161682e-01" nType="-99"/>
            </Node>
          </Node>
          <Node pos="r" depth="2" NCoef="0" IVar="-1" Cut="0.0000000000000000e+00" cType="1" res="-1.1478450149297714e-02" rms="4.5532292127609253e-01" purity="3.2942789793014526e-01" nType="-99"/>
        </Node>
      </Node>
    </BinaryTree>
    <BinaryTree type="DecisionTree" boostWeight="1.0000000000000000e+00" itree="57">
      <Node pos="s" depth="0" NCoef="0" IVar="3" Cut="6.7476129531860352e-01" cType="1" res="7.3369261808693409e-03" rms="4.0676105022430420e-01" purity="4.9852943420410156e-01" nType="0">
        <Node pos="l" depth="1" NCoef="0" IVar="1" Cut="1.4958879351615906e-01" cType="1" res="-1.4572138898074627e-02" rms="3.5945072770118713e-01" purity="1.9557437300682068e-01" nType="0">
          <Node pos="l" depth="2" NCoef="0" IVar="4" Cut="2.5858497619628906e+00" cType="1" res="7.4194837361574173e-04" rms="4.0112170577049255e-01" purity="2.6212468743324280e-01" nType="0">
            <Node pos="l" depth="3" NCoef="0" IVar="2" Cut="1.9409106445312500e+02" cType="1" res="4.4005033560097218e-03" rms="4.1724491119384766e-01" purity="2.8621685504913330e-01" nType="0">
              <Node pos="l" depth="4" NCoef="0" IVar="6" Cut="5.2502680569887161e-02" cType="1" res="1.5963679179549217e-02" rms="4.3635544180870056e-01" purity="3.3680084347724915e-01" nType="0">
                <Node pos="l" depth="5" NCoef="0" IVar="2" Cut="5.6629837036132812e+01" cType="1" res="-1.3830169104039669e-02" rms="4.1643211245536804e-01" purity="2.7706018090248108e-01" nType="0">
                  <Node pos="l" depth="6" NCoef="0" IVar="-1" Cut="0.0000000000000000e+00" cType="1" res="1.6872723354026675e-03" rms="4.5170706510543823e-01" purity="3.4189328551292419e-01" nType="-99"/>
                  <Node pos="r" depth="6" NCoef="0" IVar="-1" Cut="0.0000000000000000e+00" cType="1" res="-4.6565141528844833e-03" rms="3.8896447420120239e-01" purity="2.3219555616378784e-01" nType="-99"/>
                </Node>
                <Node pos="r" depth="5" NCoef="0" IVar="2" Cut="1.3504403686523438e+02" cType="1" res="3.1730346381664276e-02" rms="4.4573411345481873e-01" purity="3.6841508746147156e-01" nType="0">
                  <Node pos="l" depth="6" NCoef="0" IVar="6" Cut="9.3294262886047363e-02" cType="1" res="4.9310304224491119e-02" rms="4.5857092738151550e-01" purity="4.0940618515014648e-01" nType="0">
                    <Node pos="l" depth="7" NCoef="0" IVar="-1" Cut="0.0000000000000000e+00" cType="1" res="3.9342730306088924e-03" rms="4.5478969812393188e-01" purity="3.9806908369064331e-01" nType="-99"/>
                    <Node pos="r" depth="7" NCoef="0" IVar="-1" Cut="0.0000000000000000e+00" cType="1" res="6.5544769167900085e-03" rms="4.6377328038215637e-01" purity="4.2695024609565735e-01" nType="-99"/>
                  </Node>
                  <Node pos="r" depth="6" NCoef="0" IVar="-1" Cut="0.0000000000000000e+00" cType="1" res="7.0404668804258108e-04" rms="4.2459228634834290e-01" purity="3.0747520923614502e-01" nType="-99"/>
                </Node>
              </Node>
              <Node pos="r" depth="4" NCoef="0" IVar="6" Cut="1.5750792622566223e-01" cType="1" res="-5.1636300049722195e-03" rms="4.0049803256988525e-01" purity="2.4437785148620605e-01" nType="0">
                <Node pos="l" depth="5" NCoef="0" IVar="6" Cut="1.3381724059581757e-01" cType="1" res="-1.5634091570973396e-02" rms="3.9798575639724731e-01" purity="2.4681624770164490e-01" nType="0">
                  <Node pos="l" depth="6" NCoef="0" IVar="6" Cut="7.6517798006534576e-02" cType="1" res="-2.4608755484223366e-02" rms="3.9289012551307678e-01" purity="2.4013055860996246e-01" nType="0">
                    <Node pos="l" depth="7" NCoef="0" IVar="-1" Cut="0.0000000000000000e+00" cType="1" res="-7.6027587056159973e-03" rms="3.6808669567108154e-01" purity="1.9153764843940735e-01" nType="-99"/>
                    <Node pos="r" depth="7" NCoef="0" IVar="-1" Cut="0.0000000000000000e+00" cType="1" res="-2.3137130774557590e-03" rms="3.9979165792465210e-01" purity="2.5489941239356995e-01" nType="-99"/>
                  </Node>
                  <Node pos="r" depth="6" NCoef="0" IVar="-1" Cut="0.0000000000000000e+00" cType="1" res="2.4778470396995544e-03" rms="4.1456809639930725e-01" purity="2.7148103713989258e-01" nType="-99"/>
                </Node>
                <Node pos="r" depth="5" NCoef="0" IVar="7" Cut="5.0000000000000000e+00" cType="1" res="1.2708648107945919e-02" rms="4.0412101149559021e-01" purity="2.4021759629249573e-01" nType="0">
                  <Node pos="l" depth="6" NCoef="0" IVar="-1" Cut="0.0000000000000000e+00" cType="1" res="4.8040398396551609e-03" rms="4.5191439986228943e-01" purity="3.3073100447654724e-01" nType="-99"/>
                  <Node pos="r" depth="6" NCoef="0" IVar="3" Cut="2.5993752479553223e-01" cType="1" res="-3.7842793390154839e-03" rms="3.7050014734268188e-01" purity="1.8416802585124969e-01" nType="0">
                    <Node pos="l" depth="7" NCoef="0" IVar="-1" Cut="0.0000000000000000e+00" cType="1" res="-3.6765753757208586e-03" rms="3.5126063227653503e-01" purity="1.5064586699008942e-01" nType="-99"/>
                    <Node pos="r" depth="7" NCoef="0" IVar="-1" Cut="0.0000000000000000e+00" cType="1" res="1.8672980368137360e-03" rms="3.8896855711936951e-01" purity="2.1913121640682220e-01" nType="-99"/>
                  </Node>
                </Node>
              </Node>
            </Node>
            <Node pos="r" depth="3" NCoef="0" IVar="-1" Cut="0.0000000000000000e+00" cType="1" res="-1.1461267247796059e-02" rms="2.1029815077781677e-01" purity="5.1178496330976486e-02" nType="-99"/>
          </Node>
          <Node pos="r" depth="2" NCoef="0" IVar="4" Cut="-1.5835968255996704e+00" cType="1" res="-2.7344023808836937e-02" rms="3.2002124190330505e-01" purity="1.4007169008255005e-01" nType="0">
            <Node pos="l" depth="3" NCoef="0" IVar="5" Cut="-2.4410719871520996e+00" cType="1" res="-9.7282966598868370e-03" rms="3.9045134186744690e-01" purity="2.2452227771282196e-01" nType="0">
              <Node pos="l" depth="4" NCoef="0" IVar="3" Cut="4.3914079666137695e-01" cType="1" res="-2.6158688589930534e-02" rms="3.6615768074989319e-01" purity="1.9127637147903442e-01" nType="0">
                <Node pos="l" depth="5" NCoef="0" IVar="-1" Cut="0.0000000000000000e+00" cType="1" res="-7.1251164190471172e-03" rms="2.9205870628356934e-01" purity="1.0450624674558640e-01" nType="-99"/>
                <Node pos="r" depth="5" NCoef="0" IVar="-1" Cut="0.0000000000000000e+00" cType="1" res="-2.9075522907078266e-03" rms="4.2983901500701904e-01" purity="2.8146544098854065e-01" nType="-99"/>
              </Node>
              <Node pos="r" depth="4" NCoef="0" IVar="-1" Cut="0.0000000000000000e+00" cType="1" res="3.0936934053897858e-03" rms="4.3383491039276123e-01" purity="2.9222235083580017e-01" nType="-99"/>
            </Node>
            <Node pos="r" depth="3" NCoef="0" IVar="6" Cut="1.1529558151960373e-01" cType="1" res="-3.0266288667917252e-02" rms="3.0668011307716370e-01" purity="1.2606221437454224e-01" nType="0">
              <Node pos="l" depth="4" NCoef="0" IVar="2" Cut="8.6581604003906250e+01" cType="1" res="-3.4526761621236801e-02" rms="2.9597851634025574e-01" purity="1.1807423084974289e-01" nType="0">
                <Node pos="l" depth="5" NCoef="0" IVar="6" Cut="5.5921010673046112e-02" cType="1" res="-2.0353732630610466e-02" rms="3.2483813166618347e-01" purity="1.4659324288368225e-01" nType="0">
                  <Node pos="l" depth="6" NCoef="0" IVar="2" Cut="4.7575546264648438e+01" cType="1" res="-3.0706832185387611e-02" rms="3.0593851208686829e-01" purity="1.2495049089193344e-01" nType="0">
                    <Node pos="l" depth="7" NCoef="0" IVar="-1" Cut="0.0000000000000000e+00" cType="1" res="-5.5432212539017200e-03" rms="3.1532454490661621e-01" purity="1.3346430659294128e-01" nType="-99"/>
                    <Node pos="r" depth="7" NCoef="0" IVar="-1" Cut="0.0000000000000000e+00" cType="1" res="-8.0559449270367622e-03" rms="2.9519250988960266e-01" purity="1.1560282111167908e-01" nType="-99"/>
                  </Node>
                  <Node pos="r" depth="6" NCoef="0" IVar="-1" Cut="0.0000000000000000e+00" cType="1" res="-3.4691278415266424e-05" rms="3.5794234275817871e-01" purity="1.8874475359916687e-01" nType="-99"/>
                </Node>
                <Node pos="r" depth="5" NCoef="0" IVar="6" Cut="8.9585535228252411e-02" cType="1" res="-4.0329482406377792e-02" rms="2.8311124444007874e-01" purity="1.0639797151088715e-01" nType="0">
                  <Node pos="l" depth="6" NCoef="0" IVar="3" Cut="5.2272683382034302e-01" cType="1" res="-4.6901874244213104e-02" rms="2.6936525106430054e-01" purity="9.3301720917224884e-02" nType="0">
                    <Node pos="l" depth="7" NCoef="0" IVar="-1" Cut="0.0000000000000000e+00" cType="1" res="-1.4049191027879715e-02" rms="2.0134879648685455e-01" purity="4.4756092131137848e-02" nType="-99"/>
                    <Node pos="r" depth="7" NCoef="0" IVar="-1" Cut="0.0000000000000000e+00" cType="1" res="-8.6172865703701973e-03" rms="3.9120849967002869e-01" purity="2.1628960967063904e-01" nType="-99"/>
                  </Node>
                  <Node pos="r" depth="6" NCoef="0" IVar="2" Cut="2.9338497924804688e+02" cType="1" res="-2.7935316786170006e-02" rms="3.0698248744010925e-01" purity="1.3109481334686279e-01" nType="0">
                    <Node pos="l" depth="7" NCoef="0" IVar="-1" Cut="0.0000000000000000e+00" cType="1" res="-3.4639923833310604e-03" rms="3.2378226518630981e-01" purity="1.5054036676883698e-01" nType="-99"/>
                    <Node pos="r" depth="7" NCoef="0" IVar="-1" Cut="0.0000000000000000e+00" cType="1" res="-1.0193815454840660e-02" rms="2.8121811151504517e-01" purity="1.0406899452209473e-01" nType="-99"/>
                  </Node>
                </Node>
              </Node>
              <Node pos="r" depth="4" NCoef="0" IVar="2" Cut="2.3504240417480469e+02" cType="1" res="-2.2909844294190407e-02" rms="3.2419633865356445e-01" purity="1.3985486328601837e-01" nType="0">
                <Node pos="l" depth="5" NCoef="0" IVar="-1" Cut="0.0000000000000000e+00" cType="1" res="-2.4725552648305893e-03" rms="3.4628885984420776e-01" purity="1.6993807256221771e-01" nType="-99"/>
                <Node pos="r" depth="5" NCoef="0" IVar="2" Cut="7.3354656982421875e+02" cType="1" res="-2.6846965774893761e-02" rms="3.1520250439643860e-01" purity="1.2828919291496277e-01" nType="0">
                  <Node pos="l" depth="6" NCoef="0" IVar="2" Cut="5.0842440795898438e+02" cType="1" res="-3.0081134289503098e-02" rms="3.0944868922233582e-01" purity="1.2590102851390839e-01" nType="0">
                    <Node pos="l" depth="7" NCoef="0" IVar="-1" Cut="0.0000000000000000e+00" cType="1" res="-4.7406521625816822e-03" rms="3.1794410943984985e-01" purity="1.3471832871437073e-01" nType="-99"/>
                    <Node pos="r" depth="7" NCoef="0" IVar="-1" Cut="0.0000000000000000e+00" cType="1" res="-1.0211145505309105e-02" rms="2.9276666045188904e-01" purity="1.0992626100778580e-01" nType="-99"/>
                  </Node>
                  <Node pos="r" depth="6" NCoef="0" IVar="-1" Cut="0.0000000000000000e+00" cType="1" res="-3.2055517658591270e-03" rms="3.3460691571235657e-01" purity="1.3678011298179626e-01" nType="-99"/>
                </Node>
              </Node>
            </Node>
          </Node>
        </Node>
        <Node pos="r" depth="1" NCoef="0" IVar="5" Cut="-2.1259143352508545e+00" cType="1" res="2.2190298885107040e-02" rms="4.3529784679412842e-01" purity="7.0391952991485596e-01" nType="0">
          <Node pos="l" depth="2" NCoef="0" IVar="4" Cut="-9.3235057592391968e-01" cType="1" res="3.2302543520927429e-02" rms="4.1654062271118164e-01" purity="7.5568652153015137e-01" nType="0">
            <Node pos="l" depth="3" NCoef="0" IVar="4" Cut="-2.6377673149108887e+00" cType="1" res="2.3317886516451836e-02" rms="4.3995112180709839e-01" purity="7.1403843164443970e-01" nType="0">
              <Node pos="l" depth="4" NCoef="0" IVar="4" Cut="-3.1361260414123535e+00" cType="1" res="4.6947602182626724e-02" rms="4.1887849569320679e-01" purity="7.6543074846267700e-01" nType="0">
                <Node pos="l" depth="5" NCoef="0" IVar="-1" Cut="0.0000000000000000e+00" cType="1" res="6.0267876833677292e-03" rms="4.0130129456520081e-01" purity="7.9529118537902832e-01" nType="-99"/>
                <Node pos="r" depth="5" NCoef="0" IVar="4" Cut="-2.7824375629425049e+00" cType="1" res="4.2779996991157532e-02" rms="4.2558926343917847e-01" purity="7.5356620550155640e-01" nType="0">
                  <Node pos="l" depth="6" NCoef="0" IVar="-1" Cut="0.0000000000000000e+00" cType="1" res="4.0432722307741642e-03" rms="4.2263519763946533e-01" purity="7.5898337364196777e-01" nType="-99"/>
                  <Node pos="r" depth="6" NCoef="0" IVar="-1" Cut="0.0000000000000000e+00" cType="1" res="4.6823569573462009e-03" rms="4.3003469705581665e-01" purity="7.4523478746414185e-01" nType="-99"/>
                </Node>
              </Node>
              <Node pos="r" depth="4" NCoef="0" IVar="3" Cut="8.8438534736633301e-01" cType="1" res="1.6592534258961678e-02" rms="4.4553759694099426e-01" purity="6.9941139221191406e-01" nType="0">
                <Node pos="l" depth="5" NCoef="0" IVar="3" Cut="7.1533393859863281e-01" cType="1" res="9.3930149450898170e-03" rms="4.6509310603141785e-01" purity="6.4840078353881836e-01" nType="0">
                  <Node pos="l" depth="6" NCoef="0" IVar="-1" Cut="0.0000000000000000e+00" cType="1" res="-2.2834516130387783e-03" rms="4.8902496695518494e-01" purity="5.1188564300537109e-01" nType="-99"/>
                  <Node pos="r" depth="6" NCoef="0" IVar="7" Cut="3.0000000000000000e+00" cType="1" res="1.6210930421948433e-02" rms="4.5940986275672913e-01" purity="6.7074739933013916e-01" nType="0">
                    <Node pos="l" depth="7" NCoef="0" IVar="-1" Cut="0.0000000000000000e+00" cType="1" res="8.3276093937456608e-04" rms="4.6085828542709351e-01" purity="6.6900652647018433e-01" nType="-99"/>
                    <Node pos="r" depth="7" NCoef="0" IVar="-1" Cut="0.0000000000000000e+00" cType="1" res="3.3090643119066954e-03" rms="4.6003320813179016e-01" purity="6.7662078142166138e-01" nType="-99"/>
                  </Node>
                </Node>
                <Node pos="r" depth="5" NCoef="0" IVar="3" Cut="9.4749987125396729e-01" cType="1" res="2.5117795914411545e-02" rms="4.2104944586753845e-01" purity="7.5981533527374268e-01" nType="0">
                  <Node pos="l" depth="6" NCoef="0" IVar="-1" Cut="0.0000000000000000e+00" cType="1" res="4.9755880609154701e-03" rms="4.0787923336029053e-01" purity="7.8198534250259399e-01" nType="-99"/>
                  <Node pos="r" depth="6" NCoef="0" IVar="4" Cut="-1.8667110204696655e+00" cType="1" res="1.6670020297169685e-02" rms="4.2602720856666565e-01" purity="7.5075316429138184e-01" nType="0">
                    <Node pos="l" depth="7" NCoef="0" IVar="-1" Cut="0.0000000000000000e+00" cType="1" res="-6.6085363505408168e-04" rms="4.4389104843139648e-01" purity="7.1380710601806641e-01" nType="-99"/>
                    <Node pos="r" depth="7" NCoef="0" IVar="-1" Cut="0.0000000000000000e+00" cType="1" res="2.1905964240431786e-03" rms="4.1966009140014648e-01" purity="7.6295274496078491e-01" nType="-99"/>
                  </Node>
                </Node>
              </Node>
            </Node>
            <Node pos="r" depth="3" NCoef="0" IVar="7" Cut="3.0000000000000000e+00" cType="1" res="4.1062820702791214e-02" rms="3.9220264554023743e-01" purity="7.9603290557861328e-01" nType="0">
              <Node pos="l" depth="4" NCoef="0" IVar="5" Cut="-3.0251188278198242e+00" cType="1" res="3.9440758526325226e-02" rms="3.8738062977790833e-01" purity="8.0451601743698120e-01" nType="0">
                <Node pos="l" depth="5" NCoef="0" IVar="3" Cut="1.0089569091796875e+00" cType="1" res="4.8474874347448349e-02" rms="3.6301821470260620e-01" purity="8.3642685413360596e-01" nType="0">
                  <Node pos="l" depth="6" NCoef="0" IVar="3" Cut="9.9816679954528809e-01" cType="1" res="4.7174725681543350e-02" rms="3.6619096994400024e-01" purity="8.3184689283370972e-01" nType="0">
                    <Node pos="l" depth="7" NCoef="0" IVar="-1" Cut="0.0000000000000000e+00" cType="1" res="4.7388351522386074e-03" rms="3.7828481197357178e-01" purity="8.1416046619415283e-01" nType="-99"/>
                    <Node pos="r" depth="7" NCoef="0" IVar="-1" Cut="0.0000000000000000e+00" cType="1" res="6.8848496302962303e-03" rms="3.4798333048820496e-01" purity="8.5709589719772339e-01" nType="-99"/>
                  </Node>
                  <Node pos="r" depth="6" NCoef="0" IVar="-1" Cut="0.0000000000000000e+00" cType="1" res="6.1288825236260891e-03" rms="3.5131022334098816e-01" purity="8.5292738676071167e-01" nType="-99"/>
                </Node>
                <Node pos="r" depth="5" NCoef="0" IVar="5" Cut="-2.5900361537933350e+00" cType="1" res="3.4634947776794434e-02" rms="3.9965277910232544e-01" purity="7.8754061460494995e-01" nType="0">
                  <Node pos="l" depth="6" NCoef="0" IVar="3" Cut="1.0065926313400269e+00" cType="1" res="4.2674425989389420e-02" rms="3.8679805397987366e-01" purity="8.0716633796691895e-01" nType="0">
                    <Node pos="l" depth="7" NCoef="0" IVar="-1" Cut="0.0000000000000000e+00" cType="1" res="4.2876321822404861e-03" rms="3.9277660846710205e-01" purity="7.9864025115966797e-01" nType="-99"/>
                    <Node pos="r" depth="7" NCoef="0" IVar="-1" Cut="0.0000000000000000e+00" cType="1" res="5.9590600430965424e-03" rms="3.6450088024139404e-01" purity="8.3747762441635132e-01" nType="-99"/>
                  </Node>
                  <Node pos="r" depth="6" NCoef="0" IVar="3" Cut="9.5023298263549805e-01" cType="1" res="2.4353522807359695e-02" rms="4.1528645157814026e-01" purity="7.6244181394577026e-01" nType="0">
                    <Node pos="l" depth="7" NCoef="0" IVar="-1" Cut="0.0000000000000000e+00" cType="1" res="8.0759072443470359e-04" rms="4.5785814523696899e-01" purity="6.6219866275787354e-01" nType="-99"/>
                    <Node pos="r" depth="7" NCoef="0" IVar="-1" Cut="0.0000000000000000e+00" cType="1" res="3.0818490777164698e-03" rms="4.0254992246627808e-01" purity="7.9030221700668335e-01" nType="-99"/>
                  </Node>
                </Node>
              </Node>
              <Node pos="r" depth="4" NCoef="0" IVar="-1" Cut="0.0000000000000000e+00" cType="1" res="5.8789886534214020e-03" rms="4.6095958352088928e-01" purity="6.6613966226577759e-01" nType="-99"/>
            </Node>
          </Node>
          <Node pos="r" depth="2" NCoef="0" IVar="5" Cut="8.1130646169185638e-02" cType="1" res="3.5967158619314432e-03" rms="4.6725770831108093e-01" purity="6.0873448848724365e-01" nType="0">
            <Node pos="l" depth="3" NCoef="0" IVar="5" Cut="-1.4140155315399170e+00" cType="1" res="7.9351644963026047e-03" rms="4.6801832318305969e-01" purity="6.2729072570800781e-01" nType="0">
              <Node pos="l" depth="4" NCoef="0" IVar="5" Cut="-1.9422280788421631e+00" cType="1" res="1.6418315470218658e-02" rms="4.5569923520088196e-01" purity="6.7653459310531616e-01" nType="0">
                <Node pos="l" depth="5" NCoef="0" IVar="4" Cut="-9.1680854558944702e-01" cType="1" res="2.7140414342284203e-02" rms="4.4444757699966431e-01" purity="7.0704013109207153e-01" nType="0">
                  <Node pos="l" depth="6" NCoef="0" IVar="-1" Cut="0.0000000000000000e+00" cType="1" res="3.1692346092313528e-03" rms="4.5003566145896912e-01" purity="6.9992685317993164e-01" nType="-99"/>
                  <Node pos="r" depth="6" NCoef="0" IVar="-1" Cut="0.0000000000000000e+00" cType="1" res="1.8101861933246255e-03" rms="4.3882125616073608e-01" purity="7.1389281749725342e-01" nType="-99"/>
                </Node>
                <Node pos="r" depth="5" NCoef="0" IVar="7" Cut="2.0000000000000000e+00" cType="1" res="1.1403260752558708e-02" rms="4.6086797118186951e-01" purity="6.6123408079147339e-01" nType="0">
                  <Node pos="l" depth="6" NCoef="0" IVar="4" Cut="-4.8668265342712402e-01" cType="1" res="1.9077723845839500e-02" rms="4.4049230217933655e-01" purity="7.2426486015319824e-01" nType="0">
                    <Node pos="l" depth="7" NCoef="0" IVar="-1" Cut="0.0000000000000000e+00" cType="1" res="5.7630011724540964e-05" rms="4.5745390653610229e-01" purity="6.9078910350799561e-01" nType="-99"/>
                    <Node pos="r" depth="7" NCoef="0" IVar="-1" Cut="0.0000000000000000e+00" cType="1" res="3.2736205030232668e-03" rms="4.2715317010879517e-01" purity="7.4875801801681519e-01" nType="-99"/>
                  </Node>
                  <Node pos="r" depth="6" NCoef="0" IVar="4" Cut="-3.6858171224594116e-01" cType="1" res="5.2618584595620632e-03" rms="4.7535663843154907e-01" purity="6.1591631174087524e-01" nType="0">
                    <Node pos="l" depth="7" NCoef="0" IVar="-1" Cut="0.0000000000000000e+00" cType="1" res="1.8100687302649021e-03" rms="4.7007548809051514e-01" purity="6.4234209060668945e-01" nType="-99"/>
                    <Node pos="r" depth="7" NCoef="0" IVar="-1" Cut="0.0000000000000000e+00" cType="1" res="-2.6524933055043221e-03" rms="4.8539981245994568e-01" purity="5.5573749542236328e-01" nType="-99"/>
                  </Node>
                </Node>
              </Node>
              <Node pos="r" depth="4" NCoef="0" IVar="1" Cut="9.6132405102252960e-02" cType="1" res="-4.0373401716351509e-03" rms="4.8461967706680298e-01" purity="5.5779141187667847e-01" nType="0">
                <Node pos="l" depth="5" NCoef="0" IVar="5" Cut="-9.3176567554473877e-01" cType="1" res="1.0602427646517754e-02" rms="4.8258748650550842e-01" purity="5.9421437978744507e-01" nType="0">
                  <Node pos="l" depth="6" NCoef="0" IVar="5" Cut="-1.1964215040206909e+00" cType="1" res="2.8063589707016945e-03" rms="4.7611671686172485e-01" purity="6.3149791955947876e-01" nType="0">
                    <Node pos="l" depth="7" NCoef="0" IVar="-1" Cut="0.0000000000000000e+00" cType="1" res="-2.8982051298953593e-04" rms="4.7673773765563965e-01" purity="6.3471281528472900e-01" nType="-99"/>
                    <Node pos="r" depth="7" NCoef="0" IVar="-1" Cut="0.0000000000000000e+00" cType="1" res="7.8869028948247433e-04" rms="4.7539573907852173e-01" purity="6.2818193435668945e-01" nType="-99"/>
                  </Node>
                  <Node pos="r" depth="6" NCoef="0" IVar="5" Cut="-5.7240146398544312e-01" cType="1" res="1.8157547339797020e-02" rms="4.8865789175033569e-01" purity="5.5808311700820923e-01" nType="0">
                    <Node pos="l" depth="7" NCoef="0" IVar="-1" Cut="0.0000000000000000e+00" cType="1" res="1.8066096818074584e-03" rms="4.8318284749984741e-01" purity="6.0069656372070312e-01" nType="-99"/>
                    <Node pos="r" depth="7" NCoef="0" IVar="-1" Cut="0.0000000000000000e+00" cType="1" res="1.4088223688304424e-03" rms="4.9411642551422119e-01" purity="5.1501089334487915e-01" nType="-99"/>
                  </Node>
                </Node>
                <Node pos="r" depth="5" NCoef="0" IVar="5" Cut="-7.3885011672973633e-01" cType="1" res="-2.3429000750184059e-02" rms="4.8662084341049194e-01" purity="5.0954598188400269e-01" nType="0">
                  <Node pos="l" depth="6" NCoef="0" IVar="3" Cut="8.6719530820846558e-01" cType="1" res="-3.1212393194437027e-02" rms="4.8667278885841370e-01" purity="5.3554469347000122e-01" nType="0">
                    <Node pos="l" depth="7" NCoef="0" IVar="-1" Cut="0.0000000000000000e+00" cType="1" res="-2.1845079027116299e-03" rms="4.8993995785713196e-01" purity="4.9688929319381714e-01" nType="-99"/>
                    <Node pos="r" depth="7" NCoef="0" IVar="-1" Cut="0.0000000000000000e+00" cType="1" res="-3.4642608370631933e-03" rms="4.8300099372863770e-01" purity="5.7754248380661011e-01" nType="-99"/>
                  </Node>
                  <Node pos="r" depth="6" NCoef="0" IVar="-1" Cut="0.0000000000000000e+00" cType="1" res="-9.5079262973740697e-04" rms="4.8626428842544556e-01" purity="4.6676939725875854e-01" nType="-99"/>
                </Node>
              </Node>
            </Node>
            <Node pos="r" depth="3" NCoef="0" IVar="-1" Cut="0.0000000000000000e+00" cType="1" res="-6.5143359825015068e-03" rms="4.4986695051193237e-01" purity="3.1956991553306580e-01" nType="-99"/>
          </Node>
        </Node>
      </Node>
    </BinaryTree>
    <BinaryTree type="DecisionTree" boostWeight="1.0000000000000000e+00" itree="58">
      <Node pos="s" depth="0" NCoef="0" IVar="3" Cut="7.7288961410522461e-01" cType="1" res="7.7270097099244595e-03" rms="4.0742304921150208e-01" purity="4.9916559457778931e-01" nType="0">
        <Node pos="l" depth="1" NCoef="0" IVar="5" Cut="-1.2442203760147095e+00" cType="1" res="-8.1847123801708221e-03" rms="3.8737264275550842e-01" purity="2.6519808173179626e-01" nType="0">
          <Node pos="l" depth="2" NCoef="0" IVar="5" Cut="-3.0994651317596436e+00" cType="1" res="-1.3809853699058294e-03" rms="4.1600883007049561e-01" purity="3.2185471057891846e-01" nType="0">
            <Node pos="l" depth="3" NCoef="0" IVar="7" Cut="3.0000000000000000e+00" cType="1" res="0.0000000000000000e+00" rms="0.0000000000000000e+00" purity="1.8803116679191589e-01" nType="0">
              <Node pos="l" depth="4" NCoef="0" IVar="-1" Cut="0.0000000000000000e+00" cType="1" res="-6.9391843862831593e-03" rms="3.9789295196533203e-01" purity="2.6064464449882507e-01" nType="-99"/>
              <Node pos="r" depth="4" NCoef="0" IVar="4" Cut="-1.2316591739654541e+00" cType="1" res="-2.2084547206759453e-02" rms="3.3827999234199524e-01" purity="1.6872216761112213e-01" nType="0">
                <Node pos="l" depth="5" NCoef="0" IVar="-1" Cut="0.0000000000000000e+00" cType="1" res="-6.7316447384655476e-03" rms="3.3919674158096313e-01" purity="1.7450939118862152e-01" nType="-99"/>
                <Node pos="r" depth="5" NCoef="0" IVar="4" Cut="-3.7905231118202209e-01" cType="1" res="-1.0105765424668789e-02" rms="3.3708119392395020e-01" purity="1.6424272954463959e-01" nType="0">
                  <Node pos="l" depth="6" NCoef="0" IVar="-1" Cut="0.0000000000000000e+00" cType="1" res="-3.0363500118255615e-03" rms="3.3712410926818848e-01" purity="1.6692617535591125e-01" nType="-99"/>
                  <Node pos="r" depth="6" NCoef="0" IVar="-1" Cut="0.0000000000000000e+00" cType="1" res="-1.0547582060098648e-03" rms="3.3696207404136658e-01" purity="1.6169695556163788e-01" nType="-99"/>
                </Node>
              </Node>
            </Node>
            <Node pos="r" depth="3" NCoef="0" IVar="4" Cut="-2.4410994052886963e+00" cType="1" res="3.6641468759626150e-03" rms="4.2645689845085144e-01" purity="3.4623208642005920e-01" nType="0">
              <Node pos="l" depth="4" NCoef="0" IVar="2" Cut="1.9356755065917969e+02" cType="1" res="4.1089702397584915e-02" rms="4.6165588498115540e-01" purity="4.8839259147644043e-01" nType="0">
                <Node pos="l" depth="5" NCoef="0" IVar="-1" Cut="0.0000000000000000e+00" cType="1" res="6.2833027914166451e-03" rms="4.7666093707084656e-01" purity="5.9816336631774902e-01" nType="-99"/>
                <Node pos="r" depth="5" NCoef="0" IVar="-1" Cut="0.0000000000000000e+00" cType="1" res="1.8316145287826657e-03" rms="4.4752469658851624e-01" purity="3.9827921986579895e-01" nType="-99"/>
              </Node>
              <Node pos="r" depth="4" NCoef="0" IVar="2" Cut="1.5285295104980469e+02" cType="1" res="3.5110389580950141e-04" rms="4.2304044961929321e-01" purity="3.3364751935005188e-01" nType="0">
                <Node pos="l" depth="5" NCoef="0" IVar="1" Cut="1.3634023070335388e-01" cType="1" res="1.1075116693973541e-02" rms="4.3589505553245544e-01" purity="3.9330172538757324e-01" nType="0">
                  <Node pos="l" depth="6" NCoef="0" IVar="6" Cut="6.6511623561382294e-02" cType="1" res="3.0973384156823158e-02" rms="4.6291941404342651e-01" purity="4.9804148077964783e-01" nType="0">
                    <Node pos="l" depth="7" NCoef="0" IVar="-1" Cut="0.0000000000000000e+00" cType="1" res="1.1933293426409364e-03" rms="4.6283283829689026e-01" purity="4.7781100869178772e-01" nType="-99"/>
                    <Node pos="r" depth="7" NCoef="0" IVar="-1" Cut="0.0000000000000000e+00" cType="1" res="4.8269224353134632e-03" rms="4.6193823218345642e-01" purity="5.2387619018554688e-01" nType="-99"/>
                  </Node>
                  <Node pos="r" depth="6" NCoef="0" IVar="6" Cut="3.9532113820314407e-02" cType="1" res="-1.0030213743448257e-02" rms="4.0419763326644897e-01" purity="2.8220832347869873e-01" nType="0">
                    <Node pos="l" depth="7" NCoef="0" IVar="-1" Cut="0.0000000000000000e+00" cType="1" res="-3.8289995864033699e-03" rms="3.9087733626365662e-01" purity="2.5861427187919617e-01" nType="-99"/>
                    <Node pos="r" depth="7" NCoef="0" IVar="-1" Cut="0.0000000000000000e+00" cType="1" res="-2.8649781597778201e-04" rms="4.0959516167640686e-01" purity="2.9244774580001831e-01" nType="-99"/>
                  </Node>
                </Node>
                <Node pos="r" depth="5" NCoef="0" IVar="6" Cut="1.3633662462234497e-01" cType="1" res="-7.5656850822269917e-03" rms="4.1311579942703247e-01" purity="2.8960895538330078e-01" nType="0">
                  <Node pos="l" depth="6" NCoef="0" IVar="6" Cut="6.2137566506862640e-02" cType="1" res="-1.8265165388584137e-02" rms="4.1218400001525879e-01" purity="3.0500909686088562e-01" nType="0">
                    <Node pos="l" depth="7" NCoef="0" IVar="-1" Cut="0.0000000000000000e+00" cType="1" res="-5.9663010761141777e-03" rms="4.0926477313041687e-01" purity="2.8301826119422913e-01" nType="-99"/>
                    <Node pos="r" depth="7" NCoef="0" IVar="-1" Cut="0.0000000000000000e+00" cType="1" res="-1.6148033319041133e-03" rms="4.1256639361381531e-01" purity="3.0963119864463806e-01" nType="-99"/>
                  </Node>
                  <Node pos="r" depth="6" NCoef="0" IVar="0" Cut="1.3106312751770020e+00" cType="1" res="1.3266908936202526e-02" rms="4.1413170099258423e-01" purity="2.5962391495704651e-01" nType="0">
                    <Node pos="l" depth="7" NCoef="0" IVar="-1" Cut="0.0000000000000000e+00" cType="1" res="3.8122639525681734e-03" rms="4.4843623042106628e-01" purity="3.1940191984176636e-01" nType="-99"/>
                    <Node pos="r" depth="7" NCoef="0" IVar="-1" Cut="0.0000000000000000e+00" cType="1" res="-7.6118158176541328e-03" rms="3.0729615688323975e-01" purity="1.0945887863636017e-01" nType="-99"/>
                  </Node>
                </Node>
              </Node>
            </Node>
          </Node>
          <Node pos="r" depth="2" NCoef="0" IVar="3" Cut="1.7489545047283173e-01" cType="1" res="-2.2386979311704636e-02" rms="3.1896141171455383e-01" purity="1.4693167805671692e-01" nType="0">
            <Node pos="l" depth="3" NCoef="0" IVar="-1" Cut="0.0000000000000000e+00" cType="1" res="2.3273653350770473e-03" rms="3.0483543872833252e-01" purity="1.1538538336753845e-01" nType="-99"/>
            <Node pos="r" depth="3" NCoef="0" IVar="0" Cut="4.3019026517868042e-01" cType="1" res="-2.4942805990576744e-02" rms="3.2000097632408142e-01" purity="1.4960865676403046e-01" nType="0">
              <Node pos="l" depth="4" NCoef="0" IVar="5" Cut="6.1645698547363281e-01" cType="1" res="-4.8075853846967220e-03" rms="4.2843803763389587e-01" purity="2.9922780394554138e-01" nType="0">
                <Node pos="l" depth="5" NCoef="0" IVar="2" Cut="2.0536550903320312e+02" cType="1" res="4.5425044372677803e-03" rms="4.5806071162223816e-01" purity="3.5389196872711182e-01" nType="0">
                  <Node pos="l" depth="6" NCoef="0" IVar="2" Cut="1.0650222015380859e+02" cType="1" res="1.4330348931252956e-02" rms="4.7699090838432312e-01" purity="4.0633597970008850e-01" nType="0">
                    <Node pos="l" depth="7" NCoef="0" IVar="-1" Cut="0.0000000000000000e+00" cType="1" res="1.0318614076822996e-03" rms="4.7964489459991455e-01" purity="4.2516329884529114e-01" nType="-99"/>
                    <Node pos="r" depth="7" NCoef="0" IVar="-1" Cut="0.0000000000000000e+00" cType="1" res="1.8561608158051968e-03" rms="4.7430673241615295e-01" purity="3.8758361339569092e-01" nType="-99"/>
                  </Node>
                  <Node pos="r" depth="6" NCoef="0" IVar="-1" Cut="0.0000000000000000e+00" cType="1" res="-6.7354826023802161e-04" rms="4.3741145730018616e-01" purity="2.9970321059226990e-01" nType="-99"/>
                </Node>
                <Node pos="r" depth="5" NCoef="0" IVar="-1" Cut="0.0000000000000000e+00" cType="1" res="-7.4569853022694588e-03" rms="3.0646508932113647e-01" purity="1.1530796438455582e-01" nType="-99"/>
              </Node>
              <Node pos="r" depth="4" NCoef="0" IVar="3" Cut="5.2207201719284058e-01" cType="1" res="-3.5375695675611496e-02" rms="2.4501049518585205e-01" purity="7.2084829211235046e-02" nType="0">
                <Node pos="l" depth="5" NCoef="0" IVar="5" Cut="-8.0242568254470825e-01" cType="1" res="-3.2314352691173553e-02" rms="2.0850266516208649e-01" purity="4.8295885324478149e-02" nType="0">
                  <Node pos="l" depth="6" NCoef="0" IVar="-1" Cut="0.0000000000000000e+00" cType="1" res="-5.0125727429986000e-03" rms="2.8766614198684692e-01" purity="9.7304120659828186e-02" nType="-99"/>
                  <Node pos="r" depth="6" NCoef="0" IVar="2" Cut="3.4558551025390625e+02" cType="1" res="-3.5008069127798080e-02" rms="1.8877206742763519e-01" purity="3.8570400327444077e-02" nType="0">
                    <Node pos="l" depth="7" NCoef="0" IVar="-1" Cut="0.0000000000000000e+00" cType="1" res="-1.4015736058354378e-02" rms="1.8811079859733582e-01" purity="3.8721177726984024e-02" nType="-99"/>
                    <Node pos="r" depth="7" NCoef="0" IVar="-1" Cut="0.0000000000000000e+00" cType="1" res="-1.5933874994516373e-02" rms="1.8978337943553925e-01" purity="3.8297496736049652e-02" nType="-99"/>
                  </Node>
                </Node>
                <Node pos="r" depth="5" NCoef="0" IVar="-1" Cut="0.0000000000000000e+00" cType="1" res="-7.1978108026087284e-03" rms="3.7384799122810364e-01" purity="1.8702419102191925e-01" nType="-99"/>
              </Node>
            </Node>
          </Node>
        </Node>
        <Node pos="r" depth="1" NCoef="0" IVar="1" Cut="5.0322329998016357e-01" cType="1" res="2.3801617324352264e-02" rms="4.2612028121948242e-01" purity="7.3552811145782471e-01" nType="0">
          <Node pos="l" depth="2" NCoef="0" IVar="2" Cut="1.8824549865722656e+02" cType="1" res="2.9250277206301689e-02" rms="4.1945293545722961e-01" purity="7.5308090448379517e-01" nType="0">
            <Node pos="l" depth="3" NCoef="0" IVar="2" Cut="6.6794761657714844e+01" cType="1" res="3.1095243990421295e-02" rms="4.1657567024230957e-01" purity="7.6063615083694458e-01" nType="0">
              <Node pos="l" depth="4" NCoef="0" IVar="6" Cut="2.6613971218466759e-02" cType="1" res="3.4818381071090698e-02" rms="4.0825518965721130e-01" purity="7.7576470375061035e-01" nType="0">
                <Node pos="l" depth="5" NCoef="0" IVar="4" Cut="-6.4285427331924438e-01" cType="1" res="3.1380474567413330e-02" rms="4.0581727027893066e-01" purity="7.7958023548126221e-01" nType="0">
                  <Node pos="l" depth="6" NCoef="0" IVar="5" Cut="-2.3241999149322510e+00" cType="1" res="2.1854860708117485e-02" rms="4.1948989033699036e-01" purity="7.6110112667083740e-01" nType="0">
                    <Node pos="l" depth="7" NCoef="0" IVar="-1" Cut="0.0000000000000000e+00" cType="1" res="3.1399896834045649e-03" rms="4.0188515186309814e-01" purity="7.9231703281402588e-01" nType="-99"/>
                    <Node pos="r" depth="7" NCoef="0" IVar="-1" Cut="0.0000000000000000e+00" cType="1" res="9.6486757684033364e-05" rms="4.5766693353652954e-01" purity="6.8748134374618530e-01" nType="-99"/>
                  </Node>
                  <Node pos="r" depth="6" NCoef="0" IVar="3" Cut="9.6839964389801025e-01" cType="1" res="3.9503213018178940e-02" rms="3.9360138773918152e-01" purity="7.9533785581588745e-01" nType="0">
                    <Node pos="l" depth="7" NCoef="0" IVar="-1" Cut="0.0000000000000000e+00" cType="1" res="8.9798675617203116e-04" rms="4.5627242326736450e-01" purity="6.6624647378921509e-01" nType="-99"/>
                    <Node pos="r" depth="7" NCoef="0" IVar="-1" Cut="0.0000000000000000e+00" cType="1" res="4.6604922972619534e-03" rms="3.8845455646514893e-01" purity="8.0491703748703003e-01" nType="-99"/>
                  </Node>
                </Node>
                <Node pos="r" depth="5" NCoef="0" IVar="5" Cut="-2.4308381080627441e+00" cType="1" res="6.4001038670539856e-02" rms="4.2727845907211304e-01" purity="7.4337667226791382e-01" nType="0">
                  <Node pos="l" depth="6" NCoef="0" IVar="-1" Cut="0.0000000000000000e+00" cType="1" res="7.1648187004029751e-03" rms="3.9621844887733459e-01" purity="7.9959928989410400e-01" nType="-99"/>
                  <Node pos="r" depth="6" NCoef="0" IVar="-1" Cut="0.0000000000000000e+00" cType="1" res="4.3210876174271107e-03" rms="4.5053249597549438e-01" purity="6.9772499799728394e-01" nType="-99"/>
                </Node>
              </Node>
              <Node pos="r" depth="4" NCoef="0" IVar="3" Cut="8.6584502458572388e-01" cType="1" res="1.4003512449562550e-02" rms="4.5242169499397278e-01" purity="6.9118583202362061e-01" nType="0">
                <Node pos="l" depth="5" NCoef="0" IVar="6" Cut="4.4882528483867645e-02" cType="1" res="1.1786745162680745e-03" rms="4.6727603673934937e-01" purity="6.5660858154296875e-01" nType="0">
                  <Node pos="l" depth="6" NCoef="0" IVar="-1" Cut="0.0000000000000000e+00" cType="1" res="-2.4405382573604584e-03" rms="4.7431865334510803e-01" purity="6.3029974699020386e-01" nType="-99"/>
                  <Node pos="r" depth="6" NCoef="0" IVar="2" Cut="1.1771697998046875e+02" cType="1" res="2.3365132510662079e-02" rms="4.6015098690986633e-01" purity="6.7852795124053955e-01" nType="0">
                    <Node pos="l" depth="7" NCoef="0" IVar="-1" Cut="0.0000000000000000e+00" cType="1" res="3.3434370998293161e-03" rms="4.5185011625289917e-01" purity="6.9555801153182983e-01" nType="-99"/>
                    <Node pos="r" depth="7" NCoef="0" IVar="-1" Cut="0.0000000000000000e+00" cType="1" res="7.4600212974473834e-04" rms="4.6790233254432678e-01" purity="6.6132569313049316e-01" nType="-99"/>
                  </Node>
                </Node>
                <Node pos="r" depth="5" NCoef="0" IVar="2" Cut="1.0593952941894531e+02" cType="1" res="3.3067930489778519e-02" rms="4.2868322134017944e-01" purity="7.4258565902709961e-01" nType="0">
                  <Node pos="l" depth="6" NCoef="0" IVar="-1" Cut="0.0000000000000000e+00" cType="1" res="2.8188566211611032e-03" rms="4.3125790357589722e-01" purity="7.3833751678466797e-01" nType="-99"/>
                  <Node pos="r" depth="6" NCoef="0" IVar="-1" Cut="0.0000000000000000e+00" cType="1" res="4.1471533477306366e-03" rms="4.2645451426506042e-01" purity="7.4609398841857910e-01" nType="-99"/>
                </Node>
              </Node>
            </Node>
            <Node pos="r" depth="3" NCoef="0" IVar="5" Cut="-2.1362674236297607e+00" cType="1" res="-2.4763604160398245e-03" rms="4.6501687169075012e-01" purity="6.2315815687179565e-01" nType="0">
              <Node pos="l" depth="4" NCoef="0" IVar="-1" Cut="0.0000000000000000e+00" cType="1" res="1.1994786327704787e-03" rms="4.5136815309524536e-01" purity="6.9736260175704956e-01" nType="-99"/>
              <Node pos="r" depth="4" NCoef="0" IVar="-1" Cut="0.0000000000000000e+00" cType="1" res="-1.4361748471856117e-03" rms="4.7661778330802917e-01" purity="5.5630612373352051e-01" nType="-99"/>
            </Node>
          </Node>
          <Node pos="r" depth="2" NCoef="0" IVar="5" Cut="-1.8355113267898560e+00" cType="1" res="-9.6755325794219971e-03" rms="4.6358847618103027e-01" purity="6.2768197059631348e-01" nType="0">
            <Node pos="l" depth="3" NCoef="0" IVar="4" Cut="-1.2692338228225708e-01" cType="1" res="3.3441456034779549e-03" rms="4.5710471272468567e-01" purity="6.7624706029891968e-01" nType="0">
              <Node pos="l" depth="4" NCoef="0" IVar="3" Cut="9.6447443962097168e-01" cType="1" res="-6.2254075892269611e-03" rms="4.6512711048126221e-01" purity="6.5584629774093628e-01" nType="0">
                <Node pos="l" depth="5" NCoef="0" IVar="-1" Cut="0.0000000000000000e+00" cType="1" res="-1.3880241895094514e-03" rms="4.8269417881965637e-01" purity="6.0269004106521606e-01" nType="-99"/>
                <Node pos="r" depth="5" NCoef="0" IVar="-1" Cut="0.0000000000000000e+00" cType="1" res="1.7300547915510833e-04" rms="4.4961228966712952e-01" purity="7.0068049430847168e-01" nType="-99"/>
              </Node>
              <Node pos="r" depth="4" NCoef="0" IVar="-1" Cut="0.0000000000000000e+00" cType="1" res="3.3116370905190706e-03" rms="4.2906689643859863e-01" purity="7.4137878417968750e-01" nType="-99"/>
            </Node>
            <Node pos="r" depth="3" NCoef="0" IVar="-1" Cut="0.0000000000000000e+00" cType="1" res="-4.2119389399886131e-03" rms="4.8012208938598633e-01" purity="4.8473915457725525e-01" nType="-99"/>
          </Node>
        </Node>
      </Node>
    </BinaryTree>
    <BinaryTree type="DecisionTree" boostWeight="1.0000000000000000e+00" itree="59">
      <Node pos="s" depth="0" NCoef="0" IVar="3" Cut="7.7288961410522461e-01" cType="1" res="8.7390523403882980e-03" rms="4.0646958351135254e-01" purity="5.0076931715011597e-01" nType="0">
        <Node pos="l" depth="1" NCoef="0" IVar="1" Cut="1.4958879351615906e-01" cType="1" res="-8.1116296350955963e-03" rms="3.8679334521293640e-01" purity="2.6429790258407593e-01" nType="0">
          <Node pos="l" depth="2" NCoef="0" IVar="2" Cut="1.8722917175292969e+02" cType="1" res="3.9017389062792063e-03" rms="4.2153373360633850e-01" purity="3.3921298384666443e-01" nType="0">
            <Node pos="l" depth="3" NCoef="0" IVar="6" Cut="4.9346812069416046e-02" cType="1" res="1.6781074926257133e-02" rms="4.4707757234573364e-01" purity="4.2048284411430359e-01" nType="0">
              <Node pos="l" depth="4" NCoef="0" IVar="2" Cut="3.7004409790039062e+01" cType="1" res="-4.2355414479970932e-03" rms="4.4660869240760803e-01" purity="4.0993967652320862e-01" nType="0">
                <Node pos="l" depth="5" NCoef="0" IVar="-1" Cut="0.0000000000000000e+00" cType="1" res="2.9279107693582773e-03" rms="4.6673163771629333e-01" purity="4.9240157008171082e-01" nType="-99"/>
                <Node pos="r" depth="5" NCoef="0" IVar="6" Cut="3.1503807753324509e-02" cType="1" res="-1.7598304897546768e-02" rms="4.3800595402717590e-01" purity="3.7871205806732178e-01" nType="0">
                  <Node pos="l" depth="6" NCoef="0" IVar="-1" Cut="0.0000000000000000e+00" cType="1" res="-6.0917078517377377e-03" rms="4.3091428279876709e-01" purity="3.3786392211914062e-01" nType="-99"/>
                  <Node pos="r" depth="6" NCoef="0" IVar="2" Cut="9.5132369995117188e+01" cType="1" res="3.0785317067056894e-03" rms="4.4077271223068237e-01" purity="4.0252500772476196e-01" nType="0">
                    <Node pos="l" depth="7" NCoef="0" IVar="-1" Cut="0.0000000000000000e+00" cType="1" res="2.5736922398209572e-03" rms="4.5607826113700867e-01" purity="4.5832589268684387e-01" nType="-99"/>
                    <Node pos="r" depth="7" NCoef="0" IVar="-1" Cut="0.0000000000000000e+00" cType="1" res="-2.4897903203964233e-03" rms="4.2210337519645691e-01" purity="3.4143134951591492e-01" nType="-99"/>
                  </Node>
                </Node>
              </Node>
              <Node pos="r" depth="4" NCoef="0" IVar="2" Cut="9.2999031066894531e+01" cType="1" res="3.0355893075466156e-02" rms="4.4685506820678711e-01" purity="4.2729273438453674e-01" nType="0">
                <Node pos="l" depth="5" NCoef="0" IVar="3" Cut="6.0702115297317505e-01" cType="1" res="5.3821764886379242e-02" rms="4.6784266829490662e-01" purity="5.0429832935333252e-01" nType="0">
                  <Node pos="l" depth="6" NCoef="0" IVar="-1" Cut="0.0000000000000000e+00" cType="1" res="7.5524281710386276e-03" rms="4.5590743422508240e-01" purity="3.7304484844207764e-01" nType="-99"/>
                  <Node pos="r" depth="6" NCoef="0" IVar="-1" Cut="0.0000000000000000e+00" cType="1" res="3.3923822920769453e-03" rms="4.7629877924919128e-01" purity="6.0329085588455200e-01" nType="-99"/>
                </Node>
                <Node pos="r" depth="5" NCoef="0" IVar="6" Cut="9.0528972446918488e-02" cType="1" res="1.7944319173693657e-02" rms="4.3483364582061768e-01" purity="3.8656288385391235e-01" nType="0">
                  <Node pos="l" depth="6" NCoef="0" IVar="3" Cut="6.2349486351013184e-01" cType="1" res="1.6842277254909277e-03" rms="4.3250867724418640e-01" purity="3.8771644234657288e-01" nType="0">
                    <Node pos="l" depth="7" NCoef="0" IVar="-1" Cut="0.0000000000000000e+00" cType="1" res="-2.0077165681868792e-03" rms="3.7798359990119934e-01" purity="2.1801942586898804e-01" nType="-99"/>
                    <Node pos="r" depth="7" NCoef="0" IVar="-1" Cut="0.0000000000000000e+00" cType="1" res="1.4594696694985032e-03" rms="4.8020675778388977e-01" purity="5.5648559331893921e-01" nType="-99"/>
                  </Node>
                  <Node pos="r" depth="6" NCoef="0" IVar="3" Cut="4.9959066510200500e-01" cType="1" res="3.4349363297224045e-02" rms="4.3655350804328918e-01" purity="3.8539907336235046e-01" nType="0">
                    <Node pos="l" depth="7" NCoef="0" IVar="-1" Cut="0.0000000000000000e+00" cType="1" res="3.0604426283389330e-03" rms="3.8209208846092224e-01" purity="2.0637375116348267e-01" nType="-99"/>
                    <Node pos="r" depth="7" NCoef="0" IVar="-1" Cut="0.0000000000000000e+00" cType="1" res="4.2441715486347675e-03" rms="4.7760987281799316e-01" purity="5.3793650865554810e-01" nType="-99"/>
                  </Node>
                </Node>
              </Node>
            </Node>
            <Node pos="r" depth="3" NCoef="0" IVar="4" Cut="1.3881204128265381e+00" cType="1" res="-8.1540737301111221e-03" rms="3.9575386047363281e-01" purity="2.6313960552215576e-01" nType="0">
              <Node pos="l" depth="4" NCoef="0" IVar="2" Cut="3.3819564819335938e+02" cType="1" res="-2.1523667965084314e-03" rms="4.2465713620185852e-01" purity="3.1191787123680115e-01" nType="0">
                <Node pos="l" depth="5" NCoef="0" IVar="6" Cut="1.0144919902086258e-01" cType="1" res="6.6941641271114349e-03" rms="4.3701335787773132e-01" purity="3.5021787881851196e-01" nType="0">
                  <Node pos="l" depth="6" NCoef="0" IVar="3" Cut="6.5198510885238647e-01" cType="1" res="-7.0133288390934467e-03" rms="4.3509289622306824e-01" purity="3.6170235276222229e-01" nType="0">
                    <Node pos="l" depth="7" NCoef="0" IVar="-1" Cut="0.0000000000000000e+00" cType="1" res="-3.2018569763749838e-03" rms="3.9040580391883850e-01" purity="2.2073720395565033e-01" nType="-99"/>
                    <Node pos="r" depth="7" NCoef="0" IVar="-1" Cut="0.0000000000000000e+00" cType="1" res="1.1315313167870045e-03" rms="4.8843890428543091e-01" purity="5.5247157812118530e-01" nType="-99"/>
                  </Node>
                  <Node pos="r" depth="6" NCoef="0" IVar="-1" Cut="0.0000000000000000e+00" cType="1" res="3.2738645095378160e-03" rms="4.3902033567428589e-01" purity="3.3360061049461365e-01" nType="-99"/>
                </Node>
                <Node pos="r" depth="5" NCoef="0" IVar="7" Cut="6.0000000000000000e+00" cType="1" res="-1.0642965324223042e-02" rms="4.1225096583366394e-01" purity="2.7510672807693481e-01" nType="0">
                  <Node pos="l" depth="6" NCoef="0" IVar="6" Cut="1.6254025697708130e-01" cType="1" res="-4.5697833411395550e-03" rms="4.3796548247337341e-01" purity="3.2838365435600281e-01" nType="0">
                    <Node pos="l" depth="7" NCoef="0" IVar="-1" Cut="0.0000000000000000e+00" cType="1" res="-1.3477414613589644e-03" rms="4.3676671385765076e-01" purity="3.4470102190971375e-01" nType="-99"/>
                    <Node pos="r" depth="7" NCoef="0" IVar="-1" Cut="0.0000000000000000e+00" cType="1" res="1.2463069288060069e-03" rms="4.4008103013038635e-01" purity="2.9465097188949585e-01" nType="-99"/>
                  </Node>
                  <Node pos="r" depth="6" NCoef="0" IVar="-1" Cut="0.0000000000000000e+00" cType="1" res="-5.0095976330339909e-03" rms="3.4097585082054138e-01" purity="1.4502017199993134e-01" nType="-99"/>
                </Node>
              </Node>
              <Node pos="r" depth="4" NCoef="0" IVar="6" Cut="1.5485492348670959e-01" cType="1" res="-3.1208848580718040e-02" rms="2.5468108057975769e-01" purity="7.5764425098896027e-02" nType="0">
                <Node pos="l" depth="5" NCoef="0" IVar="-1" Cut="0.0000000000000000e+00" cType="1" res="-1.2712030671536922e-02" rms="2.3174376785755157e-01" purity="6.3064970076084137e-02" nType="-99"/>
                <Node pos="r" depth="5" NCoef="0" IVar="-1" Cut="0.0000000000000000e+00" cType="1" res="-4.5784651301801205e-03" rms="2.7874442934989929e-01" purity="9.0869851410388947e-02" nType="-99"/>
              </Node>
            </Node>
          </Node>
          <Node pos="r" depth="2" NCoef="0" IVar="3" Cut="7.2305524349212646e-01" cType="1" res="-1.9276197999715805e-02" rms="3.5107380151748657e-01" purity="1.9467592239379883e-01" nType="0">
            <Node pos="l" depth="3" NCoef="0" IVar="5" Cut="-1.2442203760147095e+00" cType="1" res="-2.1936906501650810e-02" rms="3.3799493312835693e-01" purity="1.6725550591945648e-01" nType="0">
              <Node pos="l" depth="4" NCoef="0" IVar="5" Cut="-3.0995016098022461e+00" cType="1" res="-1.6365258023142815e-02" rms="3.7094587087631226e-01" purity="2.0927087962627411e-01" nType="0">
                <Node pos="l" depth="5" NCoef="0" IVar="4" Cut="-1.1074321269989014e+00" cType="1" res="-4.1666261851787567e-02" rms="2.9152387380599976e-01" purity="1.1076964437961578e-01" nType="0">
                  <Node pos="l" depth="6" NCoef="0" IVar="-1" Cut="0.0000000000000000e+00" cType="1" res="-1.2155907228589058e-02" rms="2.9293337464332581e-01" purity="1.0956273227930069e-01" nType="-99"/>
                  <Node pos="r" depth="6" NCoef="0" IVar="-1" Cut="0.0000000000000000e+00" cType="1" res="-6.4653363078832626e-03" rms="2.8929558396339417e-01" purity="1.1200278997421265e-01" nType="-99"/>
                </Node>
                <Node pos="r" depth="5" NCoef="0" IVar="5" Cut="-1.9025664329528809e+00" cType="1" res="-1.0200747288763523e-02" rms="3.8759031891822815e-01" purity="2.3327039182186127e-01" nType="0">
                  <Node pos="l" depth="6" NCoef="0" IVar="4" Cut="-1.4323821067810059e+00" cType="1" res="-4.6389233320951462e-03" rms="3.9376324415206909e-01" purity="2.4358321726322174e-01" nType="0">
                    <Node pos="l" depth="7" NCoef="0" IVar="-1" Cut="0.0000000000000000e+00" cType="1" res="1.3714464148506522e-03" rms="4.3392297625541687e-01" purity="3.2435837388038635e-01" nType="-99"/>
                    <Node pos="r" depth="7" NCoef="0" IVar="-1" Cut="0.0000000000000000e+00" cType="1" res="-1.6776762204244733e-03" rms="3.7799558043479919e-01" purity="2.1432405710220337e-01" nType="-99"/>
                  </Node>
                  <Node pos="r" depth="6" NCoef="0" IVar="3" Cut="4.2488220334053040e-01" cType="1" res="-2.5148209184408188e-02" rms="3.7007734179496765e-01" purity="2.0555460453033447e-01" nType="0">
                    <Node pos="l" depth="7" NCoef="0" IVar="-1" Cut="0.0000000000000000e+00" cType="1" res="-1.0609628632664680e-02" rms="2.5643679499626160e-01" purity="7.4544794857501984e-02" nType="-99"/>
                    <Node pos="r" depth="7" NCoef="0" IVar="-1" Cut="0.0000000000000000e+00" cType="1" res="-1.7989677144214511e-03" rms="4.4447645545005798e-01" purity="3.1739395856857300e-01" nType="-99"/>
                  </Node>
                </Node>
              </Node>
              <Node pos="r" depth="4" NCoef="0" IVar="3" Cut="5.3661847114562988e-01" cType="1" res="-3.2365199178457260e-02" rms="2.6523771882057190e-01" purity="8.8616579771041870e-02" nType="0">
                <Node pos="l" depth="5" NCoef="0" IVar="7" Cut="4.0000000000000000e+00" cType="1" res="4.8468489199876785e-02" rms="8.7360225617885590e-02" purity="5.3959168493747711e-02" nType="0">
                  <Node pos="l" depth="6" NCoef="0" IVar="-1" Cut="0.0000000000000000e+00" cType="1" res="-3.0676221940666437e-03" rms="2.8665530681610107e-01" purity="9.5898054540157318e-02" nType="-99"/>
                  <Node pos="r" depth="6" NCoef="0" IVar="3" Cut="2.7724602818489075e-01" cType="1" res="-3.1196400523185730e-02" rms="2.0282161235809326e-01" purity="4.6071190387010574e-02" nType="0">
                    <Node pos="l" depth="7" NCoef="0" IVar="-1" Cut="0.0000000000000000e+00" cType="1" res="-1.6409352421760559e-02" rms="1.7833276093006134e-01" purity="3.4693676978349686e-02" nType="-99"/>
                    <Node pos="r" depth="7" NCoef="0" IVar="-1" Cut="0.0000000000000000e+00" cType="1" res="-1.0376417078077793e-02" rms="2.1955926716327667e-01" purity="5.4709736257791519e-02" nType="-99"/>
                  </Node>
                </Node>
                <Node pos="r" depth="5" NCoef="0" IVar="-1" Cut="0.0000000000000000e+00" cType="1" res="-6.4149908721446991e-03" rms="4.0119162201881409e-01" purity="2.2780328989028931e-01" nType="-99"/>
              </Node>
            </Node>
            <Node pos="r" depth="3" NCoef="0" IVar="-1" Cut="0.0000000000000000e+00" cType="1" res="1.1523391585797071e-03" rms="4.8252454400062561e-01" purity="5.3158915042877197e-01" nType="-99"/>
          </Node>
        </Node>
        <Node pos="r" depth="1" NCoef="0" IVar="3" Cut="1.0594278573989868e+00" cType="1" res="2.5687567889690399e-02" rms="4.2466893792152405e-01" purity="7.3861366510391235e-01" nType="0">
          <Node pos="l" depth="2" NCoef="0" IVar="0" Cut="6.1459439992904663e-01" cType="1" res="2.7550632134079933e-02" rms="4.2427888512611389e-01" purity="7.4187320470809937e-01" nType="0">
            <Node pos="l" depth="3" NCoef="0" IVar="0" Cut="1.7838127911090851e-01" cType="1" res="2.9204210266470909e-02" rms="4.2268142104148865e-01" purity="7.4844408035278320e-01" nType="0">
              <Node pos="l" depth="4" NCoef="0" IVar="1" Cut="9.2064899206161499e-01" cType="1" res="3.2392740249633789e-02" rms="4.1703027486801147e-01" purity="7.6116245985031128e-01" nType="0">
                <Node pos="l" depth="5" NCoef="0" IVar="5" Cut="-2.8391363620758057e+00" cType="1" res="3.4767329692840576e-02" rms="4.1340363025665283e-01" purity="7.6894694566726685e-01" nType="0">
                  <Node pos="l" depth="6" NCoef="0" IVar="3" Cut="9.9470365047454834e-01" cType="1" res="4.4145412743091583e-02" rms="3.7563520669937134e-01" purity="8.2620269060134888e-01" nType="0">
                    <Node pos="l" depth="7" NCoef="0" IVar="-1" Cut="0.0000000000000000e+00" cType="1" res="3.9650928229093552e-03" rms="3.9576041698455811e-01" purity="8.0128002166748047e-01" nType="-99"/>
                    <Node pos="r" depth="7" NCoef="0" IVar="-1" Cut="0.0000000000000000e+00" cType="1" res="5.7734446600079536e-03" rms="3.5726085305213928e-01" purity="8.4765601158142090e-01" nType="-99"/>
                  </Node>
                  <Node pos="r" depth="6" NCoef="0" IVar="5" Cut="-1.1701674461364746e+00" cType="1" res="3.0127039179205894e-02" rms="4.3079343438148499e-01" purity="7.4061673879623413e-01" nType="0">
                    <Node pos="l" depth="7" NCoef="0" IVar="-1" Cut="0.0000000000000000e+00" cType="1" res="3.1772258225828409e-03" rms="4.2135372757911682e-01" purity="7.6338082551956177e-01" nType="-99"/>
                    <Node pos="r" depth="7" NCoef="0" IVar="-1" Cut="0.0000000000000000e+00" cType="1" res="1.4478246448561549e-03" rms="4.8551005125045776e-01" purity="5.9813511371612549e-01" nType="-99"/>
                  </Node>
                </Node>
                <Node pos="r" depth="5" NCoef="0" IVar="3" Cut="9.8532402515411377e-01" cType="1" res="-8.0680586397647858e-03" rms="4.7275495529174805e-01" purity="6.2852245569229126e-01" nType="0">
                  <Node pos="l" depth="6" NCoef="0" IVar="-1" Cut="0.0000000000000000e+00" cType="1" res="-1.9418492447584867e-03" rms="4.8894566297531128e-01" purity="5.6439679861068726e-01" nType="-99"/>
                  <Node pos="r" depth="6" NCoef="0" IVar="-1" Cut="0.0000000000000000e+00" cType="1" res="3.4571034484542906e-04" rms="4.5893129706382751e-01" purity="6.8022125959396362e-01" nType="-99"/>
                </Node>
              </Node>
              <Node pos="r" depth="4" NCoef="0" IVar="2" Cut="1.0553221130371094e+02" cType="1" res="-1.4097064558882266e-04" rms="4.7050797939300537e-01" purity="6.3139206171035767e-01" nType="0">
                <Node pos="l" depth="5" NCoef="0" IVar="6" Cut="2.2798541933298111e-02" cType="1" res="5.9143942780792713e-03" rms="4.6482414007186890e-01" purity="6.5345287322998047e-01" nType="0">
                  <Node pos="l" depth="6" NCoef="0" IVar="-1" Cut="0.0000000000000000e+00" cType="1" res="-3.8864839007146657e-04" rms="4.6235957741737366e-01" purity="6.6446220874786377e-01" nType="-99"/>
                  <Node pos="r" depth="6" NCoef="0" IVar="-1" Cut="0.0000000000000000e+00" cType="1" res="2.1771574392914772e-03" rms="4.6866387128829956e-01" purity="6.3379818201065063e-01" nType="-99"/>
                </Node>
                <Node pos="r" depth="5" NCoef="0" IVar="-1" Cut="0.0000000000000000e+00" cType="1" res="-1.5957638388499618e-03" rms="4.8542398214340210e-01" purity="5.7065075635910034e-01" nType="-99"/>
              </Node>
            </Node>
            <Node pos="r" depth="3" NCoef="0" IVar="-1" Cut="0.0000000000000000e+00" cType="1" res="-4.1538686491549015e-03" rms="4.8492678999900818e-01" purity="4.4667848944664001e-01" nType="-99"/>
          </Node>
          <Node pos="r" depth="2" NCoef="0" IVar="-1" Cut="0.0000000000000000e+00" cType="1" res="-5.3370674140751362e-03" rms="4.3361482024192810e-01" purity="5.9777224063873291e-01" nType="-99"/>
        </Node>
      </Node>
    </BinaryTree>
    <BinaryTree type="DecisionTree" boostWeight="1.0000000000000000e+00" itree="60">
      <Node pos="s" depth="0" NCoef="0" IVar="3" Cut="7.7150195837020874e-01" cType="1" res="7.1847243234515190e-03" rms="4.0679448843002319e-01" purity="4.9860411882400513e-01" nType="0">
        <Node pos="l" depth="1" NCoef="0" IVar="5" Cut="-1.2442203760147095e+00" cType="1" res="-8.1368619576096535e-03" rms="3.8699686527252197e-01" purity="2.6383107900619507e-01" nType="0">
          <Node pos="l" depth="2" NCoef="0" IVar="5" Cut="-3.0994400978088379e+00" cType="1" res="-2.0163992885500193e-03" rms="4.1532298922538757e-01" purity="3.2009923458099365e-01" nType="0">
            <Node pos="l" depth="3" NCoef="0" IVar="4" Cut="-5.8916145563125610e-01" cType="1" res="-2.5849759578704834e-02" rms="3.4992891550064087e-01" purity="1.9058966636657715e-01" nType="0">
              <Node pos="l" depth="4" NCoef="0" IVar="3" Cut="3.0676913261413574e-01" cType="1" res="-3.7227686494588852e-02" rms="3.5431957244873047e-01" purity="1.9499343633651733e-01" nType="0">
                <Node pos="l" depth="5" NCoef="0" IVar="-1" Cut="0.0000000000000000e+00" cType="1" res="-4.8474241048097610e-03" rms="2.8378689289093018e-01" purity="9.8089843988418579e-02" nType="-99"/>
                <Node pos="r" depth="5" NCoef="0" IVar="1" Cut="3.1900075078010559e-01" cType="1" res="-4.6270482242107391e-02" rms="3.8073727488517761e-01" purity="2.3738123476505280e-01" nType="0">
                  <Node pos="l" depth="6" NCoef="0" IVar="-1" Cut="0.0000000000000000e+00" cType="1" res="-3.8530444726347923e-03" rms="4.1773068904876709e-01" purity="3.0543223023414612e-01" nType="-99"/>
                  <Node pos="r" depth="6" NCoef="0" IVar="-1" Cut="0.0000000000000000e+00" cType="1" res="-1.1727075092494488e-02" rms="3.1966173648834229e-01" purity="1.4044962823390961e-01" nType="-99"/>
                </Node>
              </Node>
              <Node pos="r" depth="4" NCoef="0" IVar="-1" Cut="0.0000000000000000e+00" cType="1" res="-1.8096170970238745e-04" rms="3.3878991007804871e-01" purity="1.8095059692859650e-01" nType="-99"/>
            </Node>
            <Node pos="r" depth="3" NCoef="0" IVar="4" Cut="-2.4092457294464111e+00" cType="1" res="2.3749910760670900e-03" rms="4.2613360285758972e-01" purity="3.4396189451217651e-01" nType="0">
              <Node pos="l" depth="4" NCoef="0" IVar="4" Cut="-2.5739476680755615e+00" cType="1" res="3.4629777073860168e-02" rms="4.6192926168441772e-01" purity="4.8765188455581665e-01" nType="0">
                <Node pos="l" depth="5" NCoef="0" IVar="-1" Cut="0.0000000000000000e+00" cType="1" res="5.7947635650634766e-03" rms="4.5967027544975281e-01" purity="5.2260953187942505e-01" nType="-99"/>
                <Node pos="r" depth="5" NCoef="0" IVar="-1" Cut="0.0000000000000000e+00" cType="1" res="-1.5661882935091853e-04" rms="4.6269655227661133e-01" purity="4.3819376826286316e-01" nType="-99"/>
              </Node>
              <Node pos="r" depth="4" NCoef="0" IVar="5" Cut="-2.2017488479614258e+00" cType="1" res="-8.0125255044549704e-04" rms="4.2231142520904541e-01" purity="3.2981222867965698e-01" nType="0">
                <Node pos="l" depth="5" NCoef="0" IVar="3" Cut="6.4729970693588257e-01" cType="1" res="7.2355871088802814e-03" rms="4.2500910162925720e-01" purity="3.4179207682609558e-01" nType="0">
                  <Node pos="l" depth="6" NCoef="0" IVar="6" Cut="1.8875567615032196e-01" cType="1" res="3.1180810765363276e-04" rms="4.0043678879737854e-01" purity="2.4809351563453674e-01" nType="0">
                    <Node pos="l" depth="7" NCoef="0" IVar="-1" Cut="0.0000000000000000e+00" cType="1" res="-6.8684871075674891e-04" rms="3.9633837342262268e-01" purity="2.4462391436100006e-01" nType="-99"/>
                    <Node pos="r" depth="7" NCoef="0" IVar="-1" Cut="0.0000000000000000e+00" cType="1" res="5.5678910575807095e-03" rms="4.2867690324783325e-01" purity="2.7477252483367920e-01" nType="-99"/>
                  </Node>
                  <Node pos="r" depth="6" NCoef="0" IVar="4" Cut="-9.1230982542037964e-01" cType="1" res="2.4999447166919708e-02" rms="4.8190584778785706e-01" purity="5.8218795061111450e-01" nType="0">
                    <Node pos="l" depth="7" NCoef="0" IVar="-1" Cut="0.0000000000000000e+00" cType="1" res="1.1683367192745209e-03" rms="4.8532480001449585e-01" purity="5.7288712263107300e-01" nType="-99"/>
                    <Node pos="r" depth="7" NCoef="0" IVar="-1" Cut="0.0000000000000000e+00" cType="1" res="3.4745084121823311e-03" rms="4.7689276933670044e-01" purity="5.9458661079406738e-01" nType="-99"/>
                  </Node>
                </Node>
                <Node pos="r" depth="5" NCoef="0" IVar="4" Cut="-1.6130549907684326e+00" cType="1" res="-1.0397930629551411e-02" rms="4.1886547207832336e-01" purity="3.1550720334053040e-01" nType="0">
                  <Node pos="l" depth="6" NCoef="0" IVar="-1" Cut="0.0000000000000000e+00" cType="1" res="2.0088176243007183e-03" rms="4.6516031026840210e-01" purity="4.3502715229988098e-01" nType="-99"/>
                  <Node pos="r" depth="6" NCoef="0" IVar="1" Cut="9.3428336083889008e-02" cType="1" res="-1.4939683489501476e-02" rms="4.1142874956130981e-01" purity="2.9794490337371826e-01" nType="0">
                    <Node pos="l" depth="7" NCoef="0" IVar="-1" Cut="0.0000000000000000e+00" cType="1" res="3.9809208828955889e-04" rms="4.4430923461914062e-01" purity="3.8489103317260742e-01" nType="-99"/>
                    <Node pos="r" depth="7" NCoef="0" IVar="-1" Cut="0.0000000000000000e+00" cType="1" res="-4.4663865119218826e-03" rms="3.8199761509895325e-01" purity="2.2735267877578735e-01" nType="-99"/>
                  </Node>
                </Node>
              </Node>
            </Node>
          </Node>
          <Node pos="r" depth="2" NCoef="0" IVar="5" Cut="9.6441233158111572e-01" cType="1" res="-2.0845569670200348e-02" rms="3.1990170478820801e-01" purity="1.4699430763721466e-01" nType="0">
            <Node pos="l" depth="3" NCoef="0" IVar="3" Cut="3.7472429871559143e-01" cType="1" res="-1.4558827504515648e-02" rms="3.6217540502548218e-01" purity="1.9472014904022217e-01" nType="0">
              <Node pos="l" depth="4" NCoef="0" IVar="7" Cut="6.0000000000000000e+00" cType="1" res="-2.7285370975732803e-02" rms="2.3342037200927734e-01" purity="6.2265712767839432e-02" nType="0">
                <Node pos="l" depth="5" NCoef="0" IVar="-1" Cut="0.0000000000000000e+00" cType="1" res="-4.3567940592765808e-03" rms="2.6830086112022400e-01" purity="8.4855198860168457e-02" nType="-99"/>
                <Node pos="r" depth="5" NCoef="0" IVar="3" Cut="2.4447835981845856e-01" cType="1" res="-3.7739329040050507e-02" rms="2.0245064795017242e-01" purity="4.4585950672626495e-02" nType="0">
                  <Node pos="l" depth="6" NCoef="0" IVar="-1" Cut="0.0000000000000000e+00" cType="1" res="-1.6509201377630234e-02" rms="2.0139083266258240e-01" purity="4.4852282851934433e-02" nType="-99"/>
                  <Node pos="r" depth="6" NCoef="0" IVar="-1" Cut="0.0000000000000000e+00" cType="1" res="-1.2587415054440498e-02" rms="2.0326289534568787e-01" purity="4.4331025332212448e-02" nType="-99"/>
                </Node>
              </Node>
              <Node pos="r" depth="4" NCoef="0" IVar="7" Cut="3.0000000000000000e+00" cType="1" res="-7.5489580631256104e-03" rms="4.1602101922035217e-01" purity="2.6805192232131958e-01" nType="0">
                <Node pos="l" depth="5" NCoef="0" IVar="-1" Cut="0.0000000000000000e+00" cType="1" res="-3.7238495424389839e-03" rms="4.3449199199676514e-01" purity="3.0350592732429504e-01" nType="-99"/>
                <Node pos="r" depth="5" NCoef="0" IVar="7" Cut="5.0000000000000000e+00" cType="1" res="-1.5732588944956660e-03" rms="4.1095626354217529e-01" purity="2.5957334041595459e-01" nType="0">
                  <Node pos="l" depth="6" NCoef="0" IVar="2" Cut="1.5689862060546875e+02" cType="1" res="-6.8216514773666859e-03" rms="4.2449668049812317e-01" purity="2.8406035900115967e-01" nType="0">
                    <Node pos="l" depth="7" NCoef="0" IVar="-1" Cut="0.0000000000000000e+00" cType="1" res="8.1499322550371289e-04" rms="4.4440340995788574e-01" purity="3.2822924852371216e-01" nType="-99"/>
                    <Node pos="r" depth="7" NCoef="0" IVar="-1" Cut="0.0000000000000000e+00" cType="1" res="-2.4070756044238806e-03" rms="4.0766394138336182e-01" purity="2.4898338317871094e-01" nType="-99"/>
                  </Node>
                  <Node pos="r" depth="6" NCoef="0" IVar="-1" Cut="0.0000000000000000e+00" cType="1" res="2.6650351937860250e-03" rms="3.7045651674270630e-01" purity="1.8683673441410065e-01" nType="-99"/>
                </Node>
              </Node>
            </Node>
            <Node pos="r" depth="3" NCoef="0" IVar="3" Cut="4.7303900122642517e-01" cType="1" res="-3.4254610538482666e-02" rms="2.0142717659473419e-01" purity="4.5199487358331680e-02" nType="0">
              <Node pos="l" depth="4" NCoef="0" IVar="3" Cut="2.1392896771430969e-01" cType="1" res="-2.1752204746007919e-02" rms="1.9026745855808258e-01" purity="4.1268795728683472e-02" nType="0">
                <Node pos="l" depth="5" NCoef="0" IVar="-1" Cut="0.0000000000000000e+00" cType="1" res="3.0412524938583374e-03" rms="2.7240645885467529e-01" purity="9.1172657907009125e-02" nType="-99"/>
                <Node pos="r" depth="5" NCoef="0" IVar="5" Cut="3.1874084472656250e+00" cType="1" res="-3.1123092398047447e-02" rms="1.5437979996204376e-01" purity="2.5507569313049316e-02" nType="0">
                  <Node pos="l" depth="6" NCoef="0" IVar="-1" Cut="0.0000000000000000e+00" cType="1" res="-1.3453430496156216e-02" rms="1.7785416543483734e-01" purity="3.3817008137702942e-02" nType="-99"/>
                  <Node pos="r" depth="6" NCoef="0" IVar="-1" Cut="0.0000000000000000e+00" cType="1" res="-2.2225022315979004e-02" rms="1.0889808088541031e-01" purity="1.2831306084990501e-02" nType="-99"/>
                </Node>
              </Node>
              <Node pos="r" depth="4" NCoef="0" IVar="-1" Cut="0.0000000000000000e+00" cType="1" res="-1.8772242590785027e-02" rms="2.3530194163322449e-01" purity="6.1504267156124115e-02" nType="-99"/>
            </Node>
          </Node>
        </Node>
        <Node pos="r" depth="1" NCoef="0" IVar="1" Cut="4.8326480388641357e-01" cType="1" res="2.2678850218653679e-02" rms="4.2531922459602356e-01" purity="7.3602104187011719e-01" nType="0">
          <Node pos="l" depth="2" NCoef="0" IVar="5" Cut="-2.0810399055480957e+00" cType="1" res="2.8190355747938156e-02" rms="4.1834649443626404e-01" purity="7.5411200523376465e-01" nType="0">
            <Node pos="l" depth="3" NCoef="0" IVar="2" Cut="1.4126348876953125e+02" cType="1" res="3.3889129757881165e-02" rms="3.9835917949676514e-01" purity="7.9452472925186157e-01" nType="0">
              <Node pos="l" depth="4" NCoef="0" IVar="2" Cut="1.0936303710937500e+02" cType="1" res="3.5948198288679123e-02" rms="3.9380136132240295e-01" purity="8.0181318521499634e-01" nType="0">
                <Node pos="l" depth="5" NCoef="0" IVar="6" Cut="3.0165275558829308e-02" cType="1" res="3.7552922964096069e-02" rms="3.9151534438133240e-01" purity="8.0545347929000854e-01" nType="0">
                  <Node pos="l" depth="6" NCoef="0" IVar="3" Cut="8.4726470708847046e-01" cType="1" res="3.4367989748716354e-02" rms="3.8838821649551392e-01" purity="8.0917012691497803e-01" nType="0">
                    <Node pos="l" depth="7" NCoef="0" IVar="-1" Cut="0.0000000000000000e+00" cType="1" res="-8.3702628035098314e-04" rms="4.6179771423339844e-01" purity="6.7974263429641724e-01" nType="-99"/>
                    <Node pos="r" depth="7" NCoef="0" IVar="-1" Cut="0.0000000000000000e+00" cType="1" res="4.0823915041983128e-03" rms="3.8370347023010254e-01" purity="8.1644153594970703e-01" nType="-99"/>
                  </Node>
                  <Node pos="r" depth="6" NCoef="0" IVar="2" Cut="6.7527191162109375e+01" cType="1" res="6.0482785105705261e-02" rms="4.1260626912117004e-01" purity="7.7869582176208496e-01" nType="0">
                    <Node pos="l" depth="7" NCoef="0" IVar="-1" Cut="0.0000000000000000e+00" cType="1" res="6.4789378084242344e-03" rms="4.0315091609954834e-01" purity="7.9170846939086914e-01" nType="-99"/>
                    <Node pos="r" depth="7" NCoef="0" IVar="-1" Cut="0.0000000000000000e+00" cType="1" res="4.4275247491896152e-03" rms="4.2439073324203491e-01" purity="7.6138699054718018e-01" nType="-99"/>
                  </Node>
                </Node>
                <Node pos="r" depth="5" NCoef="0" IVar="-1" Cut="0.0000000000000000e+00" cType="1" res="-1.8183467545895837e-05" rms="4.4060057401657104e-01" purity="7.1986621618270874e-01" nType="-99"/>
              </Node>
              <Node pos="r" depth="4" NCoef="0" IVar="-1" Cut="0.0000000000000000e+00" cType="1" res="9.3736482085660100e-04" rms="4.4861009716987610e-01" purity="7.0727902650833130e-01" nType="-99"/>
            </Node>
            <Node pos="r" depth="3" NCoef="0" IVar="4" Cut="5.1660734415054321e-01" cType="1" res="1.5376991592347622e-02" rms="4.5986917614936829e-01" purity="6.6324651241302490e-01" nType="0">
              <Node pos="l" depth="4" NCoef="0" IVar="4" Cut="2.2753553092479706e-01" cType="1" res="1.9164253026247025e-02" rms="4.5734006166458130e-01" purity="6.8210768699645996e-01" nType="0">
                <Node pos="l" depth="5" NCoef="0" IVar="3" Cut="9.7205024957656860e-01" cType="1" res="1.6449959948658943e-02" rms="4.5894715189933777e-01" purity="6.8007910251617432e-01" nType="0">
                  <Node pos="l" depth="6" NCoef="0" IVar="6" Cut="3.5748820751905441e-02" cType="1" res="2.3059219121932983e-02" rms="4.6602872014045715e-01" purity="6.6538894176483154e-01" nType="0">
                    <Node pos="l" depth="7" NCoef="0" IVar="-1" Cut="0.0000000000000000e+00" cType="1" res="3.1027494696900249e-04" rms="4.6809780597686768e-01" purity="6.5336686372756958e-01" nType="-99"/>
                    <Node pos="r" depth="7" NCoef="0" IVar="-1" Cut="0.0000000000000000e+00" cType="1" res="3.5035877954214811e-03" rms="4.6356564760208130e-01" purity="6.7573159933090210e-01" nType="-99"/>
                  </Node>
                  <Node pos="r" depth="6" NCoef="0" IVar="4" Cut="-3.1357049942016602e-01" cType="1" res="8.5473768413066864e-03" rms="4.5020633935928345e-01" purity="6.9764399528503418e-01" nType="0">
                    <Node pos="l" depth="7" NCoef="0" IVar="-1" Cut="0.0000000000000000e+00" cType="1" res="1.0422774357721210e-04" rms="4.5842364430427551e-01" purity="6.7969846725463867e-01" nType="-99"/>
                    <Node pos="r" depth="7" NCoef="0" IVar="-1" Cut="0.0000000000000000e+00" cType="1" res="2.0874817855656147e-03" rms="4.3616735935211182e-01" purity="7.2698813676834106e-01" nType="-99"/>
                  </Node>
                </Node>
                <Node pos="r" depth="5" NCoef="0" IVar="-1" Cut="0.0000000000000000e+00" cType="1" res="3.9297337643802166e-03" rms="4.4373220205307007e-01" purity="6.9827336072921753e-01" nType="-99"/>
              </Node>
              <Node pos="r" depth="4" NCoef="0" IVar="-1" Cut="0.0000000000000000e+00" cType="1" res="-7.4774556560441852e-04" rms="4.7463354468345642e-01" purity="5.4581689834594727e-01" nType="-99"/>
            </Node>
          </Node>
          <Node pos="r" depth="2" NCoef="0" IVar="5" Cut="-1.7516005039215088e+00" cType="1" res="-9.2734824866056442e-03" rms="4.6238875389099121e-01" purity="6.3114035129547119e-01" nType="0">
            <Node pos="l" depth="3" NCoef="0" IVar="4" Cut="-7.3162841796875000e-01" cType="1" res="3.4659402444958687e-03" rms="4.5646327733993530e-01" purity="6.7711257934570312e-01" nType="0">
              <Node pos="l" depth="4" NCoef="0" IVar="4" Cut="-1.9744443893432617e+00" cType="1" res="-9.5658721402287483e-03" rms="4.7450283169746399e-01" purity="6.3409328460693359e-01" nType="0">
                <Node pos="l" depth="5" NCoef="0" IVar="-1" Cut="0.0000000000000000e+00" cType="1" res="5.5940402671694756e-04" rms="4.7292074561119080e-01" purity="6.4342540502548218e-01" nType="-99"/>
                <Node pos="r" depth="5" NCoef="0" IVar="-1" Cut="0.0000000000000000e+00" cType="1" res="-2.0085580181330442e-03" rms="4.7548648715019226e-01" purity="6.2539017200469971e-01" nType="-99"/>
              </Node>
              <Node pos="r" depth="4" NCoef="0" IVar="5" Cut="-2.6630549430847168e+00" cType="1" res="1.7974955961108208e-02" rms="4.3504163622856140e-01" purity="7.2500836849212646e-01" nType="0">
                <Node pos="l" depth="5" NCoef="0" IVar="-1" Cut="0.0000000000000000e+00" cType="1" res="4.0683671832084656e-03" rms="4.1399294137954712e-01" purity="7.7069145441055298e-01" nType="-99"/>
                <Node pos="r" depth="5" NCoef="0" IVar="-1" Cut="0.0000000000000000e+00" cType="1" res="-1.0909197153523564e-03" rms="4.5896530151367188e-01" purity="6.6634219884872437e-01" nType="-99"/>
              </Node>
            </Node>
            <Node pos="r" depth="3" NCoef="0" IVar="-1" Cut="0.0000000000000000e+00" cType="1" res="-4.6530836261808872e-03" rms="4.7948205471038818e-01" purity="4.7466048598289490e-01" nType="-99"/>
          </Node>
        </Node>
      </Node>
    </BinaryTree>
    <BinaryTree type="DecisionTree" boostWeight="1.0000000000000000e+00" itree="61">
      <Node pos="s" depth="0" NCoef="0" IVar="3" Cut="7.7301573753356934e-01" cType="1" res="7.0615354925394058e-03" rms="4.0560823678970337e-01" purity="4.9937850236892700e-01" nType="0">
        <Node pos="l" depth="1" NCoef="0" IVar="4" Cut="2.0263638496398926e+00" cType="1" res="-9.1406805440783501e-03" rms="3.8605248928070068e-01" purity="2.6305735111236572e-01" nType="0">
          <Node pos="l" depth="2" NCoef="0" IVar="3" Cut="4.7403013706207275e-01" cType="1" res="-6.0136425308883190e-03" rms="4.0505310893058777e-01" purity="2.9348221421241760e-01" nType="0">
            <Node pos="l" depth="3" NCoef="0" IVar="7" Cut="3.0000000000000000e+00" cType="1" res="9.4265520572662354e-02" rms="2.5460010394454002e-02" purity="1.1649242788553238e-01" nType="0">
              <Node pos="l" depth="4" NCoef="0" IVar="-1" Cut="0.0000000000000000e+00" cType="1" res="4.3193912133574486e-03" rms="3.7605690956115723e-01" purity="1.9825141131877899e-01" nType="-99"/>
              <Node pos="r" depth="4" NCoef="0" IVar="3" Cut="2.9078605771064758e-01" cType="1" res="-1.8827086314558983e-02" rms="3.0140486359596252e-01" purity="1.1123447865247726e-01" nType="0">
                <Node pos="l" depth="5" NCoef="0" IVar="7" Cut="5.0000000000000000e+00" cType="1" res="6.8800717592239380e-02" rms="1.2381786853075027e-01" purity="7.9967781901359558e-02" nType="0">
                  <Node pos="l" depth="6" NCoef="0" IVar="-1" Cut="0.0000000000000000e+00" cType="1" res="1.7579642417331343e-06" rms="3.4060013294219971e-01" purity="1.4923404157161713e-01" nType="-99"/>
                  <Node pos="r" depth="6" NCoef="0" IVar="3" Cut="2.2526967525482178e-01" cType="1" res="-3.5351093858480453e-02" rms="2.3835751414299011e-01" purity="6.4203724265098572e-02" nType="0">
                    <Node pos="l" depth="7" NCoef="0" IVar="-1" Cut="0.0000000000000000e+00" cType="1" res="-1.3415285386145115e-02" rms="2.3549097776412964e-01" purity="6.3075073063373566e-02" nType="-99"/>
                    <Node pos="r" depth="7" NCoef="0" IVar="-1" Cut="0.0000000000000000e+00" cType="1" res="-9.4188461080193520e-03" rms="2.4216279387474060e-01" purity="6.5834864974021912e-02" nType="-99"/>
                  </Node>
                </Node>
                <Node pos="r" depth="5" NCoef="0" IVar="0" Cut="3.9385244250297546e-01" cType="1" res="-1.1790551245212555e-02" rms="3.2690453529357910e-01" purity="1.3330447673797607e-01" nType="0">
                  <Node pos="l" depth="6" NCoef="0" IVar="-1" Cut="0.0000000000000000e+00" cType="1" res="4.7210804186761379e-03" rms="4.3960833549499512e-01" purity="2.7909326553344727e-01" nType="-99"/>
                  <Node pos="r" depth="6" NCoef="0" IVar="7" Cut="5.0000000000000000e+00" cType="1" res="-2.0132817327976227e-02" rms="3.0093634128570557e-01" purity="1.0659831017255783e-01" nType="0">
                    <Node pos="l" depth="7" NCoef="0" IVar="-1" Cut="0.0000000000000000e+00" cType="1" res="-7.6735280454158783e-03" rms="2.9737496376037598e-01" purity="1.0404942184686661e-01" nType="-99"/>
                    <Node pos="r" depth="7" NCoef="0" IVar="-1" Cut="0.0000000000000000e+00" cType="1" res="-3.0063716694712639e-03" rms="3.0334755778312683e-01" purity="1.0851885378360748e-01" nType="-99"/>
                  </Node>
                </Node>
              </Node>
            </Node>
            <Node pos="r" depth="3" NCoef="0" IVar="6" Cut="7.7540501952171326e-02" cType="1" res="1.9571362063288689e-03" rms="4.6721979975700378e-01" purity="4.3082606792449951e-01" nType="0">
              <Node pos="l" depth="4" NCoef="0" IVar="2" Cut="9.0020530700683594e+01" cType="1" res="-7.3275454342365265e-03" rms="4.6354231238365173e-01" purity="4.2701369524002075e-01" nType="0">
                <Node pos="l" depth="5" NCoef="0" IVar="6" Cut="2.2803770378232002e-02" cType="1" res="1.1201078072190285e-02" rms="4.7293570637702942e-01" purity="4.7127076983451843e-01" nType="0">
                  <Node pos="l" depth="6" NCoef="0" IVar="-1" Cut="0.0000000000000000e+00" cType="1" res="-3.3365981653332710e-03" rms="4.6540093421936035e-01" purity="4.0974071621894836e-01" nType="-99"/>
                  <Node pos="r" depth="6" NCoef="0" IVar="6" Cut="4.3992836028337479e-02" cType="1" res="2.5720417499542236e-02" rms="4.7446155548095703e-01" purity="4.9131730198860168e-01" nType="0">
                    <Node pos="l" depth="7" NCoef="0" IVar="-1" Cut="0.0000000000000000e+00" cType="1" res="1.0193311609327793e-03" rms="4.7349679470062256e-01" purity="4.6686762571334839e-01" nType="-99"/>
                    <Node pos="r" depth="7" NCoef="0" IVar="-1" Cut="0.0000000000000000e+00" cType="1" res="3.4065812360495329e-03" rms="4.7490975260734558e-01" purity="5.1211655139923096e-01" nType="-99"/>
                  </Node>
                </Node>
                <Node pos="r" depth="5" NCoef="0" IVar="6" Cut="5.9790402650833130e-02" cType="1" res="-2.4148821830749512e-02" rms="4.5419239997863770e-01" purity="3.8683480024337769e-01" nType="0">
                  <Node pos="l" depth="6" NCoef="0" IVar="5" Cut="-2.2516460418701172e+00" cType="1" res="-4.0319353342056274e-02" rms="4.4805678725242615e-01" purity="3.6196169257164001e-01" nType="0">
                    <Node pos="l" depth="7" NCoef="0" IVar="-1" Cut="0.0000000000000000e+00" cType="1" res="-2.7082508895546198e-03" rms="4.5212197303771973e-01" purity="3.8801190257072449e-01" nType="-99"/>
                    <Node pos="r" depth="7" NCoef="0" IVar="-1" Cut="0.0000000000000000e+00" cType="1" res="-6.1514792032539845e-03" rms="4.4261327385902405e-01" purity="3.3130976557731628e-01" nType="-99"/>
                  </Node>
                  <Node pos="r" depth="6" NCoef="0" IVar="2" Cut="2.3472825622558594e+02" cType="1" res="-3.8355153519660234e-03" rms="4.6098127961158752e-01" purity="4.1808009147644043e-01" nType="0">
                    <Node pos="l" depth="7" NCoef="0" IVar="-1" Cut="0.0000000000000000e+00" cType="1" res="1.5850088093429804e-03" rms="4.6886593103408813e-01" purity="4.5117554068565369e-01" nType="-99"/>
                    <Node pos="r" depth="7" NCoef="0" IVar="-1" Cut="0.0000000000000000e+00" cType="1" res="-3.9459881372749805e-03" rms="4.4602221250534058e-01" purity="3.6437836289405823e-01" nType="-99"/>
                  </Node>
                </Node>
              </Node>
              <Node pos="r" depth="4" NCoef="0" IVar="2" Cut="3.4970086669921875e+02" cType="1" res="1.3372707180678844e-02" rms="4.7145143151283264e-01" purity="4.3551340699195862e-01" nType="0">
                <Node pos="l" depth="5" NCoef="0" IVar="3" Cut="6.9586104154586792e-01" cType="1" res="2.5245744735002518e-02" rms="4.7460874915122986e-01" purity="4.6411100029945374e-01" nType="0">
                  <Node pos="l" depth="6" NCoef="0" IVar="7" Cut="4.0000000000000000e+00" cType="1" res="1.7863163724541664e-02" rms="4.7365546226501465e-01" purity="4.2073708772659302e-01" nType="0">
                    <Node pos="l" depth="7" NCoef="0" IVar="-1" Cut="0.0000000000000000e+00" cType="1" res="2.0243356993887573e-04" rms="4.7241863608360291e-01" purity="4.1128739714622498e-01" nType="-99"/>
                    <Node pos="r" depth="7" NCoef="0" IVar="-1" Cut="0.0000000000000000e+00" cType="1" res="3.8963526021689177e-03" rms="4.7672575712203979e-01" purity="4.3465697765350342e-01" nType="-99"/>
                  </Node>
                  <Node pos="r" depth="6" NCoef="0" IVar="-1" Cut="0.0000000000000000e+00" cType="1" res="4.4738915748894215e-03" rms="4.7377717494964600e-01" purity="6.2408453226089478e-01" nType="-99"/>
                </Node>
                <Node pos="r" depth="5" NCoef="0" IVar="7" Cut="4.0000000000000000e+00" cType="1" res="-1.0669793002307415e-02" rms="4.6319055557250977e-01" purity="3.7618365883827209e-01" nType="0">
                  <Node pos="l" depth="6" NCoef="0" IVar="3" Cut="6.2834697961807251e-01" cType="1" res="-2.5137409567832947e-02" rms="4.6403482556343079e-01" purity="3.8384935259819031e-01" nType="0">
                    <Node pos="l" depth="7" NCoef="0" IVar="-1" Cut="0.0000000000000000e+00" cType="1" res="-3.9773541502654552e-03" rms="4.4244885444641113e-01" purity="2.9576036334037781e-01" nType="-99"/>
                    <Node pos="r" depth="7" NCoef="0" IVar="-1" Cut="0.0000000000000000e+00" cType="1" res="-1.4011426828801632e-03" rms="4.8565492033958435e-01" purity="4.7724807262420654e-01" nType="-99"/>
                  </Node>
                  <Node pos="r" depth="6" NCoef="0" IVar="-1" Cut="0.0000000000000000e+00" cType="1" res="1.1885736603289843e-03" rms="4.6273091435432434e-01" purity="3.6394786834716797e-01" nType="-99"/>
                </Node>
              </Node>
            </Node>
          </Node>
          <Node pos="r" depth="2" NCoef="0" IVar="3" Cut="5.0182020664215088e-01" cType="1" res="-3.1374290585517883e-02" rms="2.0395325124263763e-01" purity="4.6732980757951736e-02" nType="0">
            <Node pos="l" depth="3" NCoef="0" IVar="2" Cut="5.6019500732421875e+02" cType="1" res="-2.2716602310538292e-02" rms="1.8422822654247284e-01" purity="3.8307979702949524e-02" nType="0">
              <Node pos="l" depth="4" NCoef="0" IVar="7" Cut="7.0000000000000000e+00" cType="1" res="-3.0274575576186180e-02" rms="1.4890854060649872e-01" purity="2.3777933791279793e-02" nType="0">
                <Node pos="l" depth="5" NCoef="0" IVar="5" Cut="2.4739735126495361e+00" cType="1" res="-3.4628640860319138e-02" rms="1.3830323517322540e-01" purity="1.9849717617034912e-02" nType="0">
                  <Node pos="l" depth="6" NCoef="0" IVar="-1" Cut="0.0000000000000000e+00" cType="1" res="-1.5946915373206139e-02" rms="1.6647270321846008e-01" purity="2.9027106240391731e-02" nType="-99"/>
                  <Node pos="r" depth="6" NCoef="0" IVar="-1" Cut="0.0000000000000000e+00" cType="1" res="-2.6741746813058853e-02" rms="8.2722991704940796e-02" purity="6.7753349430859089e-03" nType="-99"/>
                </Node>
                <Node pos="r" depth="5" NCoef="0" IVar="-1" Cut="0.0000000000000000e+00" cType="1" res="-1.1987471953034401e-02" rms="1.6901886463165283e-01" purity="3.2186411321163177e-02" nType="-99"/>
              </Node>
              <Node pos="r" depth="4" NCoef="0" IVar="-1" Cut="0.0000000000000000e+00" cType="1" res="1.8393616192042828e-03" rms="2.7720087766647339e-01" purity="9.2535048723220825e-02" nType="-99"/>
            </Node>
            <Node pos="r" depth="3" NCoef="0" IVar="-1" Cut="0.0000000000000000e+00" cType="1" res="-1.4463280327618122e-02" rms="2.7716761827468872e-01" purity="8.7859489023685455e-02" nType="-99"/>
          </Node>
        </Node>
        <Node pos="r" depth="1" NCoef="0" IVar="3" Cut="1.0595389604568481e+00" cType="1" res="2.3463748395442963e-02" rms="4.2385834455490112e-01" purity="7.3861670494079590e-01" nType="0">
          <Node pos="l" depth="2" NCoef="0" IVar="0" Cut="4.7289630770683289e-01" cType="1" res="2.5551747530698776e-02" rms="4.2328873276710510e-01" purity="7.4216884374618530e-01" nType="0">
            <Node pos="l" depth="3" NCoef="0" IVar="5" Cut="-2.8391363620758057e+00" cType="1" res="2.7598146349191666e-02" rms="4.2099153995513916e-01" purity="7.5066679716110229e-01" nType="0">
              <Node pos="l" depth="4" NCoef="0" IVar="0" Cut="1.6747622191905975e-01" cType="1" res="4.0180984884500504e-02" rms="3.8338643312454224e-01" purity="8.1395787000656128e-01" nType="0">
                <Node pos="l" depth="5" NCoef="0" IVar="4" Cut="-1.2966339588165283e+00" cType="1" res="4.2825341224670410e-02" rms="3.7761834263801575e-01" purity="8.2288640737533569e-01" nType="0">
                  <Node pos="l" depth="6" NCoef="0" IVar="4" Cut="-2.0148143768310547e+00" cType="1" res="0.0000000000000000e+00" rms="0.0000000000000000e+00" purity="7.7417027950286865e-01" nType="0">
                    <Node pos="l" depth="7" NCoef="0" IVar="-1" Cut="0.0000000000000000e+00" cType="1" res="4.7744731418788433e-03" rms="4.0366092324256897e-01" purity="7.8900820016860962e-01" nType="-99"/>
                    <Node pos="r" depth="7" NCoef="0" IVar="-1" Cut="0.0000000000000000e+00" cType="1" res="1.3978092465549707e-03" rms="4.2922750115394592e-01" purity="7.5240498781204224e-01" nType="-99"/>
                  </Node>
                  <Node pos="r" depth="6" NCoef="0" IVar="3" Cut="9.9481928348541260e-01" cType="1" res="4.7335516661405563e-02" rms="3.5835039615631104e-01" purity="8.4644919633865356e-01" nType="0">
                    <Node pos="l" depth="7" NCoef="0" IVar="-1" Cut="0.0000000000000000e+00" cType="1" res="4.6304329298436642e-03" rms="3.7632191181182861e-01" purity="8.2610404491424561e-01" nType="-99"/>
                    <Node pos="r" depth="7" NCoef="0" IVar="-1" Cut="0.0000000000000000e+00" cType="1" res="6.2522110529243946e-03" rms="3.4759932756423950e-01" purity="8.5808354616165161e-01" nType="-99"/>
                  </Node>
                </Node>
                <Node pos="r" depth="5" NCoef="0" IVar="-1" Cut="0.0000000000000000e+00" cType="1" res="6.1205716338008642e-04" rms="4.4997411966323853e-01" purity="6.9852465391159058e-01" nType="-99"/>
              </Node>
              <Node pos="r" depth="4" NCoef="0" IVar="5" Cut="-1.1702156066894531e+00" cType="1" res="2.1418944001197815e-02" rms="4.3814668059349060e-01" purity="7.1958571672439575e-01" nType="0">
                <Node pos="l" depth="5" NCoef="0" IVar="0" Cut="2.2878786921501160e-01" cType="1" res="2.4251619353890419e-02" rms="4.2974644899368286e-01" purity="7.4496370553970337e-01" nType="0">
                  <Node pos="l" depth="6" NCoef="0" IVar="1" Cut="1.0265552997589111e+00" cType="1" res="2.6582425460219383e-02" rms="4.2637333273887634e-01" purity="7.5253838300704956e-01" nType="0">
                    <Node pos="l" depth="7" NCoef="0" IVar="-1" Cut="0.0000000000000000e+00" cType="1" res="2.9106456786394119e-03" rms="4.2299011349678040e-01" purity="7.6037174463272095e-01" nType="-99"/>
                    <Node pos="r" depth="7" NCoef="0" IVar="-1" Cut="0.0000000000000000e+00" cType="1" res="-2.3599453270435333e-03" rms="4.8581007122993469e-01" purity="5.9636217355728149e-01" nType="-99"/>
                  </Node>
                  <Node pos="r" depth="6" NCoef="0" IVar="-1" Cut="0.0000000000000000e+00" cType="1" res="-8.2994881086051464e-04" rms="4.7398751974105835e-01" purity="6.3699293136596680e-01" nType="-99"/>
                </Node>
                <Node pos="r" depth="5" NCoef="0" IVar="4" Cut="6.5776473283767700e-01" cType="1" res="4.7161644324660301e-03" rms="4.8439082503318787e-01" purity="5.6994521617889404e-01" nType="0">
                  <Node pos="l" depth="6" NCoef="0" IVar="4" Cut="-6.0545712709426880e-02" cType="1" res="1.0568271391093731e-02" rms="4.8500591516494751e-01" purity="5.9678107500076294e-01" nType="0">
                    <Node pos="l" depth="7" NCoef="0" IVar="-1" Cut="0.0000000000000000e+00" cType="1" res="2.7091914671473205e-04" rms="4.8641577363014221e-01" purity="5.9287852048873901e-01" nType="-99"/>
                    <Node pos="r" depth="7" NCoef="0" IVar="-1" Cut="0.0000000000000000e+00" cType="1" res="2.1978639997541904e-03" rms="4.8208484053611755e-01" purity="6.0400205850601196e-01" nType="-99"/>
                  </Node>
                  <Node pos="r" depth="6" NCoef="0" IVar="-1" Cut="0.0000000000000000e+00" cType="1" res="-1.1583185987547040e-03" rms="4.8212978243827820e-01" purity="4.8990267515182495e-01" nType="-99"/>
                </Node>
              </Node>
            </Node>
            <Node pos="r" depth="3" NCoef="0" IVar="-1" Cut="0.0000000000000000e+00" cType="1" res="-3.0695886816829443e-03" rms="4.8236402869224548e-01" purity="4.9120149016380310e-01" nType="-99"/>
          </Node>
          <Node pos="r" depth="2" NCoef="0" IVar="-1" Cut="0.0000000000000000e+00" cType="1" res="-6.9779022596776485e-03" rms="4.3857163190841675e-01" purity="5.7879340648651123e-01" nType="-99"/>
        </Node>
      </Node>
    </BinaryTree>
    <BinaryTree type="DecisionTree" boostWeight="1.0000000000000000e+00" itree="62">
      <Node pos="s" depth="0" NCoef="0" IVar="3" Cut="6.7501425743103027e-01" cType="1" res="8.4792794659733772e-03" rms="4.0466570854187012e-01" purity="5.0121068954467773e-01" nType="0">
        <Node pos="l" depth="1" NCoef="0" IVar="3" Cut="6.5325337648391724e-01" cType="1" res="-1.1634946800768375e-02" rms="3.5872709751129150e-01" purity="1.9498665630817413e-01" nType="0">
          <Node pos="l" depth="2" NCoef="0" IVar="6" Cut="1.5685297548770905e-01" cType="1" res="-1.3632560148835182e-02" rms="3.5116454958915710e-01" purity="1.8072417378425598e-01" nType="0">
            <Node pos="l" depth="3" NCoef="0" IVar="7" Cut="3.0000000000000000e+00" cType="1" res="-1.7015464603900909e-02" rms="3.4752139449119568e-01" purity="1.7997629940509796e-01" nType="0">
              <Node pos="l" depth="4" NCoef="0" IVar="4" Cut="-9.2306381464004517e-01" cType="1" res="-4.2276758700609207e-02" rms="3.7960401177406311e-01" purity="2.0080375671386719e-01" nType="0">
                <Node pos="l" depth="5" NCoef="0" IVar="-1" Cut="0.0000000000000000e+00" cType="1" res="-3.1549541745334864e-03" rms="4.0426406264305115e-01" purity="2.3093970119953156e-01" nType="-99"/>
                <Node pos="r" depth="5" NCoef="0" IVar="-1" Cut="0.0000000000000000e+00" cType="1" res="-8.7098414078354836e-03" rms="3.6040213704109192e-01" purity="1.7937512695789337e-01" nType="-99"/>
              </Node>
              <Node pos="r" depth="4" NCoef="0" IVar="3" Cut="4.4292852282524109e-01" cType="1" res="-1.4415870420634747e-02" rms="3.4394407272338867e-01" purity="1.7783251404762268e-01" nType="0">
                <Node pos="l" depth="5" NCoef="0" IVar="3" Cut="3.2894599437713623e-01" cType="1" res="-2.4412071332335472e-02" rms="2.3089922964572906e-01" purity="6.0133852064609528e-02" nType="0">
                  <Node pos="l" depth="6" NCoef="0" IVar="7" Cut="6.0000000000000000e+00" cType="1" res="-2.9741229489445686e-02" rms="1.8276897072792053e-01" purity="3.5528030246496201e-02" nType="0">
                    <Node pos="l" depth="7" NCoef="0" IVar="-1" Cut="0.0000000000000000e+00" cType="1" res="-9.6490010619163513e-03" rms="2.1744801104068756e-01" purity="5.1293842494487762e-02" nType="-99"/>
                    <Node pos="r" depth="7" NCoef="0" IVar="-1" Cut="0.0000000000000000e+00" cType="1" res="-1.8217168748378754e-02" rms="1.5770626068115234e-01" purity="2.5907935574650764e-02" nType="-99"/>
                  </Node>
                  <Node pos="r" depth="6" NCoef="0" IVar="7" Cut="6.0000000000000000e+00" cType="1" res="-1.7570175230503082e-02" rms="2.7819070219993591e-01" purity="9.0119376778602600e-02" nType="0">
                    <Node pos="l" depth="7" NCoef="0" IVar="-1" Cut="0.0000000000000000e+00" cType="1" res="-7.8769307583570480e-03" rms="2.6887571811676025e-01" purity="8.2507364451885223e-02" nType="-99"/>
                    <Node pos="r" depth="7" NCoef="0" IVar="-1" Cut="0.0000000000000000e+00" cType="1" res="5.3381425095722079e-04" rms="2.9750770330429077e-01" purity="1.0704671591520309e-01" nType="-99"/>
                  </Node>
                </Node>
                <Node pos="r" depth="5" NCoef="0" IVar="2" Cut="2.2946296691894531e+02" cType="1" res="-3.7090252153575420e-03" rms="4.3321898579597473e-01" purity="3.0389857292175293e-01" nType="0">
                  <Node pos="l" depth="6" NCoef="0" IVar="6" Cut="6.1446081846952438e-02" cType="1" res="6.2512625008821487e-03" rms="4.4192227721214294e-01" purity="3.2598108053207397e-01" nType="0">
                    <Node pos="l" depth="7" NCoef="0" IVar="-1" Cut="0.0000000000000000e+00" cType="1" res="-1.7971012275665998e-03" rms="4.2185920476913452e-01" purity="2.7475211024284363e-01" nType="-99"/>
                    <Node pos="r" depth="7" NCoef="0" IVar="-1" Cut="0.0000000000000000e+00" cType="1" res="2.6557180099189281e-03" rms="4.5824983716011047e-01" purity="3.7158119678497314e-01" nType="-99"/>
                  </Node>
                  <Node pos="r" depth="6" NCoef="0" IVar="6" Cut="1.1495583504438400e-01" cType="1" res="-2.1358944475650787e-02" rms="4.1676670312881470e-01" purity="2.6476770639419556e-01" nType="0">
                    <Node pos="l" depth="7" NCoef="0" IVar="-1" Cut="0.0000000000000000e+00" cType="1" res="-4.8712594434618950e-03" rms="4.0046572685241699e-01" purity="2.3196031153202057e-01" nType="-99"/>
                    <Node pos="r" depth="7" NCoef="0" IVar="-1" Cut="0.0000000000000000e+00" cType="1" res="3.5158518585376441e-04" rms="4.4037273526191711e-01" purity="3.1697389483451843e-01" nType="-99"/>
                  </Node>
                </Node>
              </Node>
            </Node>
            <Node pos="r" depth="3" NCoef="0" IVar="2" Cut="2.6530874633789062e+02" cType="1" res="-1.9382585305720568e-03" rms="3.6323282122612000e-01" purity="1.8330907821655273e-01" nType="0">
              <Node pos="l" depth="4" NCoef="0" IVar="-1" Cut="0.0000000000000000e+00" cType="1" res="3.7021224852651358e-03" rms="3.8562139868736267e-01" purity="2.2940859198570251e-01" nType="-99"/>
              <Node pos="r" depth="4" NCoef="0" IVar="2" Cut="9.7630078125000000e+02" cType="1" res="-7.9601723700761795e-03" rms="3.5731944441795349e-01" purity="1.7210318148136139e-01" nType="0">
                <Node pos="l" depth="5" NCoef="0" IVar="2" Cut="3.8001293945312500e+02" cType="1" res="-1.1116359382867813e-02" rms="3.5143601894378662e-01" purity="1.6707737743854523e-01" nType="0">
                  <Node pos="l" depth="6" NCoef="0" IVar="-1" Cut="0.0000000000000000e+00" cType="1" res="1.3734833337366581e-03" rms="3.6274251341819763e-01" purity="1.8235871195793152e-01" nType="-99"/>
                  <Node pos="r" depth="6" NCoef="0" IVar="6" Cut="1.9978308677673340e-01" cType="1" res="-1.5995798632502556e-02" rms="3.4818318486213684e-01" purity="1.6298390924930573e-01" nType="0">
                    <Node pos="l" depth="7" NCoef="0" IVar="-1" Cut="0.0000000000000000e+00" cType="1" res="-4.9206824041903019e-03" rms="3.3109554648399353e-01" purity="1.5220773220062256e-01" nType="-99"/>
                    <Node pos="r" depth="7" NCoef="0" IVar="-1" Cut="0.0000000000000000e+00" cType="1" res="-1.3567035784944892e-03" rms="3.6384069919586182e-01" purity="1.7348250746726990e-01" nType="-99"/>
                  </Node>
                </Node>
                <Node pos="r" depth="5" NCoef="0" IVar="-1" Cut="0.0000000000000000e+00" cType="1" res="1.2460942380130291e-03" rms="3.8433656096458435e-01" purity="1.9659696519374847e-01" nType="-99"/>
              </Node>
            </Node>
          </Node>
          <Node pos="r" depth="2" NCoef="0" IVar="-1" Cut="0.0000000000000000e+00" cType="1" res="2.4310408625751734e-03" rms="4.7932311892509460e-01" purity="4.6755674481391907e-01" nType="-99"/>
        </Node>
        <Node pos="r" depth="1" NCoef="0" IVar="0" Cut="7.8209787607192993e-01" cType="1" res="2.2139981389045715e-02" rms="4.3256261944770813e-01" purity="7.0918470621109009e-01" nType="0">
          <Node pos="l" depth="2" NCoef="0" IVar="4" Cut="1.4139055013656616e+00" cType="1" res="2.4578798562288284e-02" rms="4.3170326948165894e-01" purity="7.1662777662277222e-01" nType="0">
            <Node pos="l" depth="3" NCoef="0" IVar="1" Cut="1.0935702323913574e+00" cType="1" res="2.6250703260302544e-02" rms="4.3113735318183899e-01" purity="7.2335523366928101e-01" nType="0">
              <Node pos="l" depth="4" NCoef="0" IVar="0" Cut="2.5217389687895775e-02" cType="1" res="2.8632309287786484e-02" rms="4.2875635623931885e-01" purity="7.3084104061126709e-01" nType="0">
                <Node pos="l" depth="5" NCoef="0" IVar="5" Cut="-2.5375316143035889e+00" cType="1" res="3.1967256218194962e-02" rms="4.1889709234237671e-01" purity="7.5675082206726074e-01" nType="0">
                  <Node pos="l" depth="6" NCoef="0" IVar="1" Cut="1.0576950758695602e-01" cType="1" res="3.8892120122909546e-02" rms="3.8954475522041321e-01" purity="8.0657511949539185e-01" nType="0">
                    <Node pos="l" depth="7" NCoef="0" IVar="-1" Cut="0.0000000000000000e+00" cType="1" res="4.9069779925048351e-03" rms="3.7653389573097229e-01" purity="8.2444792985916138e-01" nType="-99"/>
                    <Node pos="r" depth="7" NCoef="0" IVar="-1" Cut="0.0000000000000000e+00" cType="1" res="3.0042438302189112e-03" rms="4.1095891594886780e-01" purity="7.7559041976928711e-01" nType="-99"/>
                  </Node>
                  <Node pos="r" depth="6" NCoef="0" IVar="4" Cut="-1.5494010448455811e+00" cType="1" res="2.5142407044768333e-02" rms="4.4583386182785034e-01" purity="7.0764601230621338e-01" nType="0">
                    <Node pos="l" depth="7" NCoef="0" IVar="-1" Cut="0.0000000000000000e+00" cType="1" res="1.5753307379782200e-03" rms="4.5408710837364197e-01" purity="6.9704115390777588e-01" nType="-99"/>
                    <Node pos="r" depth="7" NCoef="0" IVar="-1" Cut="0.0000000000000000e+00" cType="1" res="2.7251059655100107e-03" rms="4.4201153516769409e-01" purity="7.1243035793304443e-01" nType="-99"/>
                  </Node>
                </Node>
                <Node pos="r" depth="5" NCoef="0" IVar="4" Cut="-2.2631208896636963e+00" cType="1" res="1.0695577599108219e-02" rms="4.7791132330894470e-01" purity="5.9148776531219482e-01" nType="0">
                  <Node pos="l" depth="6" NCoef="0" IVar="-1" Cut="0.0000000000000000e+00" cType="1" res="5.5747157894074917e-03" rms="4.5542722940444946e-01" purity="6.7481076717376709e-01" nType="-99"/>
                  <Node pos="r" depth="6" NCoef="0" IVar="1" Cut="2.4335366487503052e-01" cType="1" res="1.5417299000546336e-03" rms="4.8131591081619263e-01" purity="5.7635611295700073e-01" nType="0">
                    <Node pos="l" depth="7" NCoef="0" IVar="-1" Cut="0.0000000000000000e+00" cType="1" res="8.1525580026209354e-04" rms="4.7904348373413086e-01" purity="6.0037899017333984e-01" nType="-99"/>
                    <Node pos="r" depth="7" NCoef="0" IVar="-1" Cut="0.0000000000000000e+00" cType="1" res="-1.7120152479037642e-03" rms="4.8700895905494690e-01" purity="5.0943225622177124e-01" nType="-99"/>
                  </Node>
                </Node>
              </Node>
              <Node pos="r" depth="4" NCoef="0" IVar="5" Cut="-2.3780663013458252e+00" cType="1" res="-2.3780195042490959e-02" rms="4.7567582130432129e-01" purity="5.6609916687011719e-01" nType="0">
                <Node pos="l" depth="5" NCoef="0" IVar="-1" Cut="0.0000000000000000e+00" cType="1" res="8.2684954395517707e-04" rms="4.6590811014175415e-01" purity="6.3987284898757935e-01" nType="-99"/>
                <Node pos="r" depth="5" NCoef="0" IVar="-1" Cut="0.0000000000000000e+00" cType="1" res="-5.9332563541829586e-03" rms="4.8483788967132568e-01" purity="4.6782064437866211e-01" nType="-99"/>
              </Node>
            </Node>
            <Node pos="r" depth="3" NCoef="0" IVar="-1" Cut="0.0000000000000000e+00" cType="1" res="-6.8931248970329762e-03" rms="4.5242115855216980e-01" purity="3.4395360946655273e-01" nType="-99"/>
          </Node>
          <Node pos="r" depth="2" NCoef="0" IVar="-1" Cut="0.0000000000000000e+00" cType="1" res="-9.6794199198484421e-03" rms="4.5726898312568665e-01" purity="3.3614322543144226e-01" nType="-99"/>
        </Node>
      </Node>
    </BinaryTree>
    <BinaryTree type="DecisionTree" boostWeight="1.0000000000000000e+00" itree="63">
      <Node pos="s" depth="0" NCoef="0" IVar="3" Cut="7.7264720201492310e-01" cType="1" res="6.9365715608000755e-03" rms="4.0570631623268127e-01" purity="4.9987837672233582e-01" nType="0">
        <Node pos="l" depth="1" NCoef="0" IVar="5" Cut="-1.4630157947540283e+00" cType="1" res="-8.1758284941315651e-03" rms="3.8593390583992004e-01" purity="2.6218956708908081e-01" nType="0">
          <Node pos="l" depth="2" NCoef="0" IVar="1" Cut="2.8645029664039612e-01" cType="1" res="-1.5693379100412130e-03" rms="4.1524031758308411e-01" purity="3.2087296247482300e-01" nType="0">
            <Node pos="l" depth="3" NCoef="0" IVar="5" Cut="-3.3041453361511230e+00" cType="1" res="7.7474783174693584e-03" rms="4.4232183694839478e-01" purity="3.9150109887123108e-01" nType="0">
              <Node pos="l" depth="4" NCoef="0" IVar="-1" Cut="0.0000000000000000e+00" cType="1" res="-4.1637807153165340e-03" rms="3.8598221540451050e-01" purity="2.3885434865951538e-01" nType="-99"/>
              <Node pos="r" depth="4" NCoef="0" IVar="0" Cut="1.2448108196258545e+00" cType="1" res="1.0970888659358025e-02" rms="4.4681131839752197e-01" purity="4.0497720241546631e-01" nType="0">
                <Node pos="l" depth="5" NCoef="0" IVar="7" Cut="4.0000000000000000e+00" cType="1" res="1.4724420383572578e-02" rms="4.3251466751098633e-01" purity="4.5494577288627625e-01" nType="0">
                  <Node pos="l" depth="6" NCoef="0" IVar="4" Cut="-2.3974180221557617e+00" cType="1" res="6.8963663652539253e-03" rms="4.7618085145950317e-01" purity="5.1461160182952881e-01" nType="0">
                    <Node pos="l" depth="7" NCoef="0" IVar="-1" Cut="0.0000000000000000e+00" cType="1" res="3.6749702412635088e-03" rms="4.7449225187301636e-01" purity="5.9542846679687500e-01" nType="-99"/>
                    <Node pos="r" depth="7" NCoef="0" IVar="-1" Cut="0.0000000000000000e+00" cType="1" res="1.2358186359051615e-04" rms="4.7620370984077454e-01" purity="5.0204396247863770e-01" nType="-99"/>
                  </Node>
                  <Node pos="r" depth="6" NCoef="0" IVar="2" Cut="1.2974533081054688e+02" cType="1" res="2.7756089344620705e-02" rms="4.5348483324050903e-01" purity="3.7598940730094910e-01" nType="0">
                    <Node pos="l" depth="7" NCoef="0" IVar="-1" Cut="0.0000000000000000e+00" cType="1" res="5.5429534986615181e-03" rms="4.6972006559371948e-01" purity="4.6792107820510864e-01" nType="-99"/>
                    <Node pos="r" depth="7" NCoef="0" IVar="-1" Cut="0.0000000000000000e+00" cType="1" res="1.7808291595429182e-03" rms="4.4496941566467285e-01" purity="3.3232426643371582e-01" nType="-99"/>
                  </Node>
                </Node>
                <Node pos="r" depth="5" NCoef="0" IVar="7" Cut="6.0000000000000000e+00" cType="1" res="-1.7842460423707962e-02" rms="3.0344912409782410e-01" purity="1.1125713586807251e-01" nType="0">
                  <Node pos="l" depth="6" NCoef="0" IVar="-1" Cut="0.0000000000000000e+00" cType="1" res="-9.0324197662994266e-04" rms="3.4210053086280823e-01" purity="1.4832724630832672e-01" nType="-99"/>
                  <Node pos="r" depth="6" NCoef="0" IVar="-1" Cut="0.0000000000000000e+00" cType="1" res="-1.0971019044518471e-02" rms="2.4920180439949036e-01" purity="6.7436017096042633e-02" nType="-99"/>
                </Node>
              </Node>
            </Node>
            <Node pos="r" depth="3" NCoef="0" IVar="3" Cut="6.4832592010498047e-01" cType="1" res="-1.5602013096213341e-02" rms="3.7029385566711426e-01" purity="2.1449521183967590e-01" nType="0">
              <Node pos="l" depth="4" NCoef="0" IVar="5" Cut="-3.3042531013488770e+00" cType="1" res="-2.0405579358339310e-02" rms="3.3398512005805969e-01" purity="1.4784951508045197e-01" nType="0">
                <Node pos="l" depth="5" NCoef="0" IVar="-1" Cut="0.0000000000000000e+00" cType="1" res="-1.1634151451289654e-02" rms="2.4629320204257965e-01" purity="6.8684622645378113e-02" nType="-99"/>
                <Node pos="r" depth="5" NCoef="0" IVar="5" Cut="-1.8788725137710571e+00" cType="1" res="-1.6924770548939705e-02" rms="3.4786432981491089e-01" purity="1.6269166767597198e-01" nType="0">
                  <Node pos="l" depth="6" NCoef="0" IVar="5" Cut="-2.3846325874328613e+00" cType="1" res="-1.2686242349445820e-02" rms="3.5104012489318848e-01" purity="1.6764673590660095e-01" nType="0">
                    <Node pos="l" depth="7" NCoef="0" IVar="-1" Cut="0.0000000000000000e+00" cType="1" res="-4.0582753717899323e-03" rms="3.4286943078041077e-01" purity="1.5616227686405182e-01" nType="-99"/>
                    <Node pos="r" depth="7" NCoef="0" IVar="-1" Cut="0.0000000000000000e+00" cType="1" res="5.2958680316805840e-04" rms="3.6600688099861145e-01" purity="1.9013090431690216e-01" nType="-99"/>
                  </Node>
                  <Node pos="r" depth="6" NCoef="0" IVar="-1" Cut="0.0000000000000000e+00" cType="1" res="-7.2758034802973270e-03" rms="3.3188456296920776e-01" purity="1.3950790464878082e-01" nType="-99"/>
                </Node>
              </Node>
              <Node pos="r" depth="4" NCoef="0" IVar="6" Cut="5.9731744229793549e-02" cType="1" res="3.9795269258320332e-03" rms="4.9079638719558716e-01" purity="4.8617371916770935e-01" nType="0">
                <Node pos="l" depth="5" NCoef="0" IVar="-1" Cut="0.0000000000000000e+00" cType="1" res="-1.0570401791483164e-03" rms="4.8763522505760193e-01" purity="4.5736941695213318e-01" nType="-99"/>
                <Node pos="r" depth="5" NCoef="0" IVar="-1" Cut="0.0000000000000000e+00" cType="1" res="1.7295132856816053e-03" rms="4.9348580837249756e-01" purity="5.1574307680130005e-01" nType="-99"/>
              </Node>
            </Node>
          </Node>
          <Node pos="r" depth="2" NCoef="0" IVar="4" Cut="-4.5578628778457642e-01" cType="1" res="-1.9440310075879097e-02" rms="3.2971131801605225e-01" purity="1.6213063895702362e-01" nType="0">
            <Node pos="l" depth="3" NCoef="0" IVar="4" Cut="-1.2254110574722290e+00" cType="1" res="7.3465253226459026e-03" rms="4.3190672993659973e-01" purity="3.2961785793304443e-01" nType="0">
              <Node pos="l" depth="4" NCoef="0" IVar="-1" Cut="0.0000000000000000e+00" cType="1" res="1.9424570491537452e-03" rms="4.4963800907135010e-01" purity="3.6648344993591309e-01" nType="-99"/>
              <Node pos="r" depth="4" NCoef="0" IVar="-1" Cut="0.0000000000000000e+00" cType="1" res="-3.5501096863299608e-04" rms="4.1344985365867615e-01" purity="2.9329812526702881e-01" nType="-99"/>
            </Node>
            <Node pos="r" depth="3" NCoef="0" IVar="7" Cut="3.0000000000000000e+00" cType="1" res="9.9378995597362518e-02" rms="8.5285879671573639e-02" purity="1.4115317165851593e-01" nType="0">
              <Node pos="l" depth="4" NCoef="0" IVar="-1" Cut="0.0000000000000000e+00" cType="1" res="-6.3035050407052040e-03" rms="3.9549300074577332e-01" purity="2.4022343754768372e-01" nType="-99"/>
              <Node pos="r" depth="4" NCoef="0" IVar="6" Cut="2.3030287027359009e-01" cType="1" res="-1.9814122468233109e-02" rms="3.0324557423591614e-01" purity="1.2941704690456390e-01" nType="0">
                <Node pos="l" depth="5" NCoef="0" IVar="3" Cut="3.9885291457176208e-01" cType="1" res="-2.2440752014517784e-02" rms="2.9829940199851990e-01" purity="1.2747317552566528e-01" nType="0">
                  <Node pos="l" depth="6" NCoef="0" IVar="3" Cut="2.0591346919536591e-01" cType="1" res="-3.1886834651231766e-02" rms="1.6927513480186462e-01" purity="3.0634580180048943e-02" nType="0">
                    <Node pos="l" depth="7" NCoef="0" IVar="-1" Cut="0.0000000000000000e+00" cType="1" res="-2.3510480299592018e-02" rms="1.3149313628673553e-01" purity="1.8048757687211037e-02" nType="-99"/>
                    <Node pos="r" depth="7" NCoef="0" IVar="-1" Cut="0.0000000000000000e+00" cType="1" res="-1.4517532661557198e-02" rms="1.7676796019077301e-01" purity="3.3540803939104080e-02" nType="-99"/>
                  </Node>
                  <Node pos="r" depth="6" NCoef="0" IVar="5" Cut="1.1166719198226929e+00" cType="1" res="-1.3169390149414539e-02" rms="3.8473573327064514e-01" purity="2.2252060472965240e-01" nType="0">
                    <Node pos="l" depth="7" NCoef="0" IVar="-1" Cut="0.0000000000000000e+00" cType="1" res="-6.3948729075491428e-04" rms="4.1458952426910400e-01" purity="2.6255226135253906e-01" nType="-99"/>
                    <Node pos="r" depth="7" NCoef="0" IVar="-1" Cut="0.0000000000000000e+00" cType="1" res="-1.6540605574846268e-02" rms="1.9431044161319733e-01" purity="4.0543861687183380e-02" nType="-99"/>
                  </Node>
                </Node>
                <Node pos="r" depth="5" NCoef="0" IVar="-1" Cut="0.0000000000000000e+00" cType="1" res="2.1794470958411694e-03" rms="3.5269361734390259e-01" purity="1.5122555196285248e-01" nType="-99"/>
              </Node>
            </Node>
          </Node>
        </Node>
        <Node pos="r" depth="1" NCoef="0" IVar="3" Cut="1.0592187643051147e+00" cType="1" res="2.2089648991823196e-02" rms="4.2406809329986572e-01" purity="7.3820698261260986e-01" nType="0">
          <Node pos="l" depth="2" NCoef="0" IVar="0" Cut="4.5190787315368652e-01" cType="1" res="2.3795515298843384e-02" rms="4.2372053861618042e-01" purity="7.4161112308502197e-01" nType="0">
            <Node pos="l" depth="3" NCoef="0" IVar="0" Cut="1.7490948736667633e-01" cType="1" res="2.5858286768198013e-02" rms="4.2120507359504700e-01" purity="7.5065571069717407e-01" nType="0">
              <Node pos="l" depth="4" NCoef="0" IVar="1" Cut="9.2764824628829956e-01" cType="1" res="2.8255909681320190e-02" rms="4.1652208566665649e-01" purity="7.6133185625076294e-01" nType="0">
                <Node pos="l" depth="5" NCoef="0" IVar="3" Cut="8.7433677911758423e-01" cType="1" res="2.9922045767307281e-02" rms="4.1304814815521240e-01" purity="7.6889711618423462e-01" nType="0">
                  <Node pos="l" depth="6" NCoef="0" IVar="1" Cut="-6.1167195439338684e-02" cType="1" res="2.0153138786554337e-02" rms="4.5280730724334717e-01" purity="6.9655418395996094e-01" nType="0">
                    <Node pos="l" depth="7" NCoef="0" IVar="-1" Cut="0.0000000000000000e+00" cType="1" res="2.5567540433257818e-03" rms="4.4084486365318298e-01" purity="7.2318303585052490e-01" nType="-99"/>
                    <Node pos="r" depth="7" NCoef="0" IVar="-1" Cut="0.0000000000000000e+00" cType="1" res="1.3701380230486393e-03" rms="4.6001380681991577e-01" purity="6.8001049757003784e-01" nType="-99"/>
                  </Node>
                  <Node pos="r" depth="6" NCoef="0" IVar="1" Cut="6.4947217702865601e-01" cType="1" res="3.2956454902887344e-02" rms="3.9984577894210815e-01" purity="7.9136818647384644e-01" nType="0">
                    <Node pos="l" depth="7" NCoef="0" IVar="-1" Cut="0.0000000000000000e+00" cType="1" res="3.7161496002227068e-03" rms="3.9734131097793579e-01" purity="7.9542249441146851e-01" nType="-99"/>
                    <Node pos="r" depth="7" NCoef="0" IVar="-1" Cut="0.0000000000000000e+00" cType="1" res="-1.2562140182126313e-04" rms="4.5326614379882812e-01" purity="6.9632875919342041e-01" nType="-99"/>
                  </Node>
                </Node>
                <Node pos="r" depth="5" NCoef="0" IVar="3" Cut="9.9448168277740479e-01" cType="1" res="8.4563251584768295e-04" rms="4.6915313601493835e-01" purity="6.3687419891357422e-01" nType="0">
                  <Node pos="l" depth="6" NCoef="0" IVar="-1" Cut="0.0000000000000000e+00" cType="1" res="-1.8314251210540533e-03" rms="4.8474326729774475e-01" purity="5.7865023612976074e-01" nType="-99"/>
                  <Node pos="r" depth="6" NCoef="0" IVar="-1" Cut="0.0000000000000000e+00" cType="1" res="2.0227683708071709e-03" rms="4.5109212398529053e-01" purity="6.9789379835128784e-01" nType="-99"/>
                </Node>
              </Node>
              <Node pos="r" depth="4" NCoef="0" IVar="5" Cut="-2.0773682594299316e+00" cType="1" res="9.5548530225642025e-05" rms="4.6780553460121155e-01" purity="6.3593882322311401e-01" nType="0">
                <Node pos="l" depth="5" NCoef="0" IVar="0" Cut="2.6435831189155579e-01" cType="1" res="7.6787364669144154e-03" rms="4.5569321513175964e-01" purity="6.8963474035263062e-01" nType="0">
                  <Node pos="l" depth="6" NCoef="0" IVar="-1" Cut="0.0000000000000000e+00" cType="1" res="1.4772217255085707e-03" rms="4.5117002725601196e-01" purity="6.9807386398315430e-01" nType="-99"/>
                  <Node pos="r" depth="6" NCoef="0" IVar="-1" Cut="0.0000000000000000e+00" cType="1" res="1.7620172002352774e-04" rms="4.5982262492179871e-01" purity="6.8171447515487671e-01" nType="-99"/>
                </Node>
                <Node pos="r" depth="5" NCoef="0" IVar="-1" Cut="0.0000000000000000e+00" cType="1" res="-1.0128985159099102e-03" rms="4.8476627469062805e-01" purity="5.5738765001296997e-01" nType="-99"/>
              </Node>
            </Node>
            <Node pos="r" depth="3" NCoef="0" IVar="-1" Cut="0.0000000000000000e+00" cType="1" res="-2.8653438203036785e-03" rms="4.8392650485038757e-01" purity="4.9512404203414917e-01" nType="-99"/>
          </Node>
          <Node pos="r" depth="2" NCoef="0" IVar="-1" Cut="0.0000000000000000e+00" cType="1" res="-4.8886104486882687e-03" rms="4.3240839242935181e-01" purity="5.9352719783782959e-01" nType="-99"/>
        </Node>
      </Node>
    </BinaryTree>
    <BinaryTree type="DecisionTree" boostWeight="1.0000000000000000e+00" itree="64">
      <Node pos="s" depth="0" NCoef="0" IVar="3" Cut="7.7264720201492310e-01" cType="1" res="6.2353913672268391e-03" rms="4.0621569752693176e-01" purity="4.9902325868606567e-01" nType="0">
        <Node pos="l" depth="1" NCoef="0" IVar="4" Cut="-1.7308377027511597e+00" cType="1" res="-7.0978114381432533e-03" rms="3.8638299703598022e-01" purity="2.6259437203407288e-01" nType="0">
          <Node pos="l" depth="2" NCoef="0" IVar="5" Cut="-2.9670865535736084e+00" cType="1" res="1.1842775158584118e-02" rms="4.4504025578498840e-01" purity="4.0487036108970642e-01" nType="0">
            <Node pos="l" depth="3" NCoef="0" IVar="3" Cut="5.5144941806793213e-01" cType="1" res="-2.0998686552047729e-02" rms="3.9037463068962097e-01" purity="2.6423853635787964e-01" nType="0">
              <Node pos="l" depth="4" NCoef="0" IVar="-1" Cut="0.0000000000000000e+00" cType="1" res="-6.5054437145590782e-03" rms="3.0691289901733398e-01" purity="1.2142685055732727e-01" nType="-99"/>
              <Node pos="r" depth="4" NCoef="0" IVar="-1" Cut="0.0000000000000000e+00" cType="1" res="-1.0579911759123206e-03" rms="4.7289371490478516e-01" purity="4.3947309255599976e-01" nType="-99"/>
            </Node>
            <Node pos="r" depth="3" NCoef="0" IVar="4" Cut="-2.6052184104919434e+00" cType="1" res="2.3634012788534164e-02" rms="4.6252691745758057e-01" purity="4.5536217093467712e-01" nType="0">
              <Node pos="l" depth="4" NCoef="0" IVar="-1" Cut="0.0000000000000000e+00" cType="1" res="5.7449568994343281e-03" rms="4.6652758121490479e-01" purity="5.3799277544021606e-01" nType="-99"/>
              <Node pos="r" depth="4" NCoef="0" IVar="4" Cut="-2.0974602699279785e+00" cType="1" res="1.5016223303973675e-02" rms="4.6115168929100037e-01" purity="4.3571886420249939e-01" nType="0">
                <Node pos="l" depth="5" NCoef="0" IVar="3" Cut="6.7303413152694702e-01" cType="1" res="2.4460991844534874e-02" rms="4.6833753585815430e-01" purity="4.5978096127510071e-01" nType="0">
                  <Node pos="l" depth="6" NCoef="0" IVar="-1" Cut="0.0000000000000000e+00" cType="1" res="4.3669738806784153e-03" rms="4.5624291896820068e-01" purity="3.6193558573722839e-01" nType="-99"/>
                  <Node pos="r" depth="6" NCoef="0" IVar="-1" Cut="0.0000000000000000e+00" cType="1" res="3.9044240838848054e-04" rms="4.8357272148132324e-01" purity="5.9268081188201904e-01" nType="-99"/>
                </Node>
                <Node pos="r" depth="5" NCoef="0" IVar="6" Cut="8.1414930522441864e-02" cType="1" res="6.2056357273831964e-04" rms="4.4959688186645508e-01" purity="3.9904358983039856e-01" nType="0">
                  <Node pos="l" depth="6" NCoef="0" IVar="-1" Cut="0.0000000000000000e+00" cType="1" res="-6.2342250021174550e-04" rms="4.6599441766738892e-01" purity="4.4817563891410828e-01" nType="-99"/>
                  <Node pos="r" depth="6" NCoef="0" IVar="-1" Cut="0.0000000000000000e+00" cType="1" res="8.9078949531540275e-04" rms="4.3259108066558838e-01" purity="3.5025891661643982e-01" nType="-99"/>
                </Node>
              </Node>
            </Node>
          </Node>
          <Node pos="r" depth="2" NCoef="0" IVar="3" Cut="6.2312513589859009e-01" cType="1" res="-1.1008554138243198e-02" rms="3.7300524115562439e-01" purity="2.3321805894374847e-01" nType="0">
            <Node pos="l" depth="3" NCoef="0" IVar="6" Cut="1.5675626695156097e-01" cType="1" res="-1.4557329006493092e-02" rms="3.3160415291786194e-01" purity="1.5306094288825989e-01" nType="0">
              <Node pos="l" depth="4" NCoef="0" IVar="7" Cut="3.0000000000000000e+00" cType="1" res="1.0477869212627411e-01" rms="0.0000000000000000e+00" purity="1.4612536132335663e-01" nType="0">
                <Node pos="l" depth="5" NCoef="0" IVar="-1" Cut="0.0000000000000000e+00" cType="1" res="-8.7630394846200943e-03" rms="3.4824115037918091e-01" purity="1.5401269495487213e-01" nType="-99"/>
                <Node pos="r" depth="5" NCoef="0" IVar="3" Cut="5.4285687208175659e-01" cType="1" res="-1.7348367720842361e-02" rms="3.2096749544143677e-01" purity="1.4551381766796112e-01" nType="0">
                  <Node pos="l" depth="6" NCoef="0" IVar="6" Cut="1.4160914719104767e-01" cType="1" res="-2.0896213129162788e-02" rms="2.7931779623031616e-01" purity="9.8073370754718781e-02" nType="0">
                    <Node pos="l" depth="7" NCoef="0" IVar="-1" Cut="0.0000000000000000e+00" cType="1" res="-6.3904025591909885e-03" rms="2.7367070317268372e-01" purity="9.3141511082649231e-02" nType="-99"/>
                    <Node pos="r" depth="7" NCoef="0" IVar="-1" Cut="0.0000000000000000e+00" cType="1" res="6.6734763095155358e-05" rms="3.3198195695877075e-01" purity="1.4969471096992493e-01" nType="-99"/>
                  </Node>
                  <Node pos="r" depth="6" NCoef="0" IVar="7" Cut="4.0000000000000000e+00" cType="1" res="-2.0668758079409599e-03" rms="4.5615774393081665e-01" purity="3.4800451993942261e-01" nType="0">
                    <Node pos="l" depth="7" NCoef="0" IVar="-1" Cut="0.0000000000000000e+00" cType="1" res="-1.5359994722530246e-03" rms="4.4841927289962769e-01" purity="3.1684550642967224e-01" nType="-99"/>
                    <Node pos="r" depth="7" NCoef="0" IVar="-1" Cut="0.0000000000000000e+00" cType="1" res="8.0759602133184671e-04" rms="4.6501359343528748e-01" purity="3.7405407428741455e-01" nType="-99"/>
                  </Node>
                </Node>
              </Node>
              <Node pos="r" depth="4" NCoef="0" IVar="3" Cut="4.4187721610069275e-01" cType="1" res="2.2728263866156340e-03" rms="3.5720330476760864e-01" purity="1.7554490268230438e-01" nType="0">
                <Node pos="l" depth="5" NCoef="0" IVar="2" Cut="2.6274896240234375e+02" cType="1" res="-4.5144413597881794e-03" rms="3.3780398964881897e-01" purity="1.4442728459835052e-01" nType="0">
                  <Node pos="l" depth="6" NCoef="0" IVar="-1" Cut="0.0000000000000000e+00" cType="1" res="2.8520990163087845e-03" rms="3.6124423146247864e-01" purity="1.7501567304134369e-01" nType="-99"/>
                  <Node pos="r" depth="6" NCoef="0" IVar="3" Cut="2.4237719178199768e-01" cType="1" res="-9.1445418074727058e-03" rms="3.3156639337539673e-01" purity="1.3683438301086426e-01" nType="0">
                    <Node pos="l" depth="7" NCoef="0" IVar="-1" Cut="0.0000000000000000e+00" cType="1" res="8.1117701483890414e-04" rms="3.4281456470489502e-01" purity="1.4775432646274567e-01" nType="-99"/>
                    <Node pos="r" depth="7" NCoef="0" IVar="-1" Cut="0.0000000000000000e+00" cType="1" res="-4.4589964672923088e-03" rms="3.2130822539329529e-01" purity="1.2755933403968811e-01" nType="-99"/>
                  </Node>
                </Node>
                <Node pos="r" depth="5" NCoef="0" IVar="-1" Cut="0.0000000000000000e+00" cType="1" res="4.6772076748311520e-03" rms="4.5019674301147461e-01" purity="3.5289329290390015e-01" nType="-99"/>
              </Node>
            </Node>
            <Node pos="r" depth="3" NCoef="0" IVar="6" Cut="6.4661771059036255e-02" cType="1" res="1.4419906619878020e-05" rms="4.7914838790893555e-01" purity="4.8219689726829529e-01" nType="0">
              <Node pos="l" depth="4" NCoef="0" IVar="6" Cut="3.9946071803569794e-02" cType="1" res="-1.6437351703643799e-02" rms="4.7788327932357788e-01" purity="4.5487585663795471e-01" nType="0">
                <Node pos="l" depth="5" NCoef="0" IVar="-1" Cut="0.0000000000000000e+00" cType="1" res="-3.8528034929186106e-03" rms="4.7673067450523376e-01" purity="4.2380025982856750e-01" nType="-99"/>
                <Node pos="r" depth="5" NCoef="0" IVar="2" Cut="7.8931594848632812e+01" cType="1" res="7.2655244730412960e-04" rms="4.7796809673309326e-01" purity="4.7711348533630371e-01" nType="0">
                  <Node pos="l" depth="6" NCoef="0" IVar="-1" Cut="0.0000000000000000e+00" cType="1" res="3.0124487821012735e-03" rms="4.8100000619888306e-01" purity="5.4599624872207642e-01" nType="-99"/>
                  <Node pos="r" depth="6" NCoef="0" IVar="-1" Cut="0.0000000000000000e+00" cType="1" res="-1.9661737605929375e-03" rms="4.7492516040802002e-01" purity="4.3537551164627075e-01" nType="-99"/>
                </Node>
              </Node>
              <Node pos="r" depth="4" NCoef="0" IVar="2" Cut="2.9657116699218750e+02" cType="1" res="1.4235656708478928e-02" rms="4.7978493571281433e-01" purity="5.0581377744674683e-01" nType="0">
                <Node pos="l" depth="5" NCoef="0" IVar="6" Cut="8.6466968059539795e-02" cType="1" res="2.9790963977575302e-02" rms="4.7953659296035767e-01" purity="5.3780335187911987e-01" nType="0">
                  <Node pos="l" depth="6" NCoef="0" IVar="2" Cut="1.2087621307373047e+02" cType="1" res="1.6079450026154518e-02" rms="4.7834229469299316e-01" purity="5.2220702171325684e-01" nType="0">
                    <Node pos="l" depth="7" NCoef="0" IVar="-1" Cut="0.0000000000000000e+00" cType="1" res="2.7011819183826447e-03" rms="4.7323423624038696e-01" purity="5.6363213062286377e-01" nType="-99"/>
                    <Node pos="r" depth="7" NCoef="0" IVar="-1" Cut="0.0000000000000000e+00" cType="1" res="1.0637535888236016e-04" rms="4.8280146718025208e-01" purity="4.8182618618011475e-01" nType="-99"/>
                  </Node>
                  <Node pos="r" depth="6" NCoef="0" IVar="-1" Cut="0.0000000000000000e+00" cType="1" res="3.8591977208852768e-03" rms="4.8041847348213196e-01" purity="5.5561542510986328e-01" nType="-99"/>
                </Node>
                <Node pos="r" depth="5" NCoef="0" IVar="-1" Cut="0.0000000000000000e+00" cType="1" res="-2.6966356672346592e-03" rms="4.7801315784454346e-01" purity="4.2134132981300354e-01" nType="-99"/>
              </Node>
            </Node>
          </Node>
        </Node>
        <Node pos="r" depth="1" NCoef="0" IVar="1" Cut="4.7126254439353943e-01" cType="1" res="1.9641418009996414e-02" rms="4.2480343580245972e-01" purity="7.3674350976943970e-01" nType="0">
          <Node pos="l" depth="2" NCoef="0" IVar="2" Cut="1.7538034057617188e+02" cType="1" res="2.5285013020038605e-02" rms="4.1724777221679688e-01" purity="7.5599437952041626e-01" nType="0">
            <Node pos="l" depth="3" NCoef="0" IVar="3" Cut="9.0298223495483398e-01" cType="1" res="2.8032636269927025e-02" rms="4.1352412104606628e-01" purity="7.6532405614852905e-01" nType="0">
              <Node pos="l" depth="4" NCoef="0" IVar="6" Cut="2.5101374834775925e-02" cType="1" res="1.8149802461266518e-02" rms="4.4702914357185364e-01" purity="7.0266473293304443e-01" nType="0">
                <Node pos="l" depth="5" NCoef="0" IVar="3" Cut="8.6095076799392700e-01" cType="1" res="-4.2669796384871006e-03" rms="4.5241531729698181e-01" purity="6.9072109460830688e-01" nType="0">
                  <Node pos="l" depth="6" NCoef="0" IVar="-1" Cut="0.0000000000000000e+00" cType="1" res="-2.2835852578282356e-03" rms="4.6999955177307129e-01" purity="6.4537781476974487e-01" nType="-99"/>
                  <Node pos="r" depth="6" NCoef="0" IVar="-1" Cut="0.0000000000000000e+00" cType="1" res="1.5730226878076792e-03" rms="4.3379950523376465e-01" purity="7.3481547832489014e-01" nType="-99"/>
                </Node>
                <Node pos="r" depth="5" NCoef="0" IVar="2" Cut="6.1049144744873047e+01" cType="1" res="2.7182810008525848e-02" rms="4.4452089071273804e-01" purity="7.0747750997543335e-01" nType="0">
                  <Node pos="l" depth="6" NCoef="0" IVar="4" Cut="-1.2329211235046387e+00" cType="1" res="4.5383263379335403e-02" rms="4.3456104397773743e-01" purity="7.2867804765701294e-01" nType="0">
                    <Node pos="l" depth="7" NCoef="0" IVar="-1" Cut="0.0000000000000000e+00" cType="1" res="5.4227984510362148e-03" rms="4.1467186808586121e-01" purity="7.7081298828125000e-01" nType="-99"/>
                    <Node pos="r" depth="7" NCoef="0" IVar="-1" Cut="0.0000000000000000e+00" cType="1" res="2.4115440901368856e-03" rms="4.5519661903381348e-01" purity="6.8148851394653320e-01" nType="-99"/>
                  </Node>
                  <Node pos="r" depth="6" NCoef="0" IVar="6" Cut="4.0072552859783173e-02" cType="1" res="1.8028412014245987e-02" rms="4.4916835427284241e-01" purity="6.9681417942047119e-01" nType="0">
                    <Node pos="l" depth="7" NCoef="0" IVar="-1" Cut="0.0000000000000000e+00" cType="1" res="2.8335247770883143e-04" rms="4.5293158292770386e-01" purity="6.9059365987777710e-01" nType="-99"/>
                    <Node pos="r" depth="7" NCoef="0" IVar="-1" Cut="0.0000000000000000e+00" cType="1" res="2.6143519207835197e-03" rms="4.4631099700927734e-01" purity="7.0101875066757202e-01" nType="-99"/>
                  </Node>
                </Node>
              </Node>
              <Node pos="r" depth="4" NCoef="0" IVar="1" Cut="-2.8813779354095459e-01" cType="1" res="3.2442893832921982e-02" rms="3.9758315682411194e-01" purity="7.9328614473342896e-01" nType="0">
                <Node pos="l" depth="5" NCoef="0" IVar="-1" Cut="0.0000000000000000e+00" cType="1" res="7.7847705688327551e-04" rms="4.1220080852508545e-01" purity="7.7122676372528076e-01" nType="-99"/>
                <Node pos="r" depth="5" NCoef="0" IVar="5" Cut="-2.7085900306701660e+00" cType="1" res="3.4142229706048965e-02" rms="3.9649727940559387e-01" purity="7.9480963945388794e-01" nType="0">
                  <Node pos="l" depth="6" NCoef="0" IVar="3" Cut="9.9846333265304565e-01" cType="1" res="3.9842069149017334e-02" rms="3.6626988649368286e-01" purity="8.3721023797988892e-01" nType="0">
                    <Node pos="l" depth="7" NCoef="0" IVar="-1" Cut="0.0000000000000000e+00" cType="1" res="3.7979092448949814e-03" rms="3.7646725773811340e-01" purity="8.2491123676300049e-01" nType="-99"/>
                    <Node pos="r" depth="7" NCoef="0" IVar="-1" Cut="0.0000000000000000e+00" cType="1" res="5.4714591242372990e-03" rms="3.5601925849914551e-01" purity="8.4903913736343384e-01" nType="-99"/>
                  </Node>
                  <Node pos="r" depth="6" NCoef="0" IVar="4" Cut="-5.2948749065399170e-01" cType="1" res="2.8942421078681946e-02" rms="4.2212226986885071e-01" purity="7.5612878799438477e-01" nType="0">
                    <Node pos="l" depth="7" NCoef="0" IVar="-1" Cut="0.0000000000000000e+00" cType="1" res="1.8578463932499290e-03" rms="4.3127930164337158e-01" purity="7.4279284477233887e-01" nType="-99"/>
                    <Node pos="r" depth="7" NCoef="0" IVar="-1" Cut="0.0000000000000000e+00" cType="1" res="3.8799238391220570e-03" rms="4.1438409686088562e-01" purity="7.6694136857986450e-01" nType="-99"/>
                  </Node>
                </Node>
              </Node>
            </Node>
            <Node pos="r" depth="3" NCoef="0" IVar="3" Cut="8.4439975023269653e-01" cType="1" res="-1.3980680145323277e-02" rms="4.6546193957328796e-01" purity="6.2266600131988525e-01" nType="0">
              <Node pos="l" depth="4" NCoef="0" IVar="-1" Cut="0.0000000000000000e+00" cType="1" res="1.1714390711858869e-03" rms="4.6987512707710266e-01" purity="6.4314574003219604e-01" nType="-99"/>
              <Node pos="r" depth="4" NCoef="0" IVar="-1" Cut="0.0000000000000000e+00" cType="1" res="-5.0366129726171494e-03" rms="4.5720180869102478e-01" purity="5.9546083211898804e-01" nType="-99"/>
            </Node>
          </Node>
          <Node pos="r" depth="2" NCoef="0" IVar="5" Cut="-1.7516005039215088e+00" cType="1" res="-1.1623742990195751e-02" rms="4.6319586038589478e-01" purity="6.3009482622146606e-01" nType="0">
            <Node pos="l" depth="3" NCoef="0" IVar="5" Cut="-2.6629574298858643e+00" cType="1" res="-9.6786452922970057e-04" rms="4.5823156833648682e-01" purity="6.7497038841247559e-01" nType="0">
              <Node pos="l" depth="4" NCoef="0" IVar="4" Cut="-4.8473212122917175e-01" cType="1" res="1.1492545716464520e-02" rms="4.4287160038948059e-01" purity="7.1095114946365356e-01" nType="0">
                <Node pos="l" depth="5" NCoef="0" IVar="-1" Cut="0.0000000000000000e+00" cType="1" res="-1.5474027895834297e-04" rms="4.6102753281593323e-01" purity="6.7216265201568604e-01" nType="-99"/>
                <Node pos="r" depth="5" NCoef="0" IVar="-1" Cut="0.0000000000000000e+00" cType="1" res="3.3313320018351078e-03" rms="4.1199985146522522e-01" purity="7.7165567874908447e-01" nType="-99"/>
              </Node>
              <Node pos="r" depth="4" NCoef="0" IVar="4" Cut="-1.3856463432312012e+00" cType="1" res="-1.5100677497684956e-02" rms="4.7465667128562927e-01" purity="6.3416045904159546e-01" nType="0">
                <Node pos="l" depth="5" NCoef="0" IVar="-1" Cut="0.0000000000000000e+00" cType="1" res="1.8914884421974421e-03" rms="4.7434204816818237e-01" purity="6.5173017978668213e-01" nType="-99"/>
                <Node pos="r" depth="5" NCoef="0" IVar="-1" Cut="0.0000000000000000e+00" cType="1" res="-4.3472521938383579e-03" rms="4.7259032726287842e-01" purity="6.1999785900115967e-01" nType="-99"/>
              </Node>
            </Node>
            <Node pos="r" depth="3" NCoef="0" IVar="-1" Cut="0.0000000000000000e+00" cType="1" res="-4.1640587151050568e-03" rms="4.7783777117729187e-01" purity="4.7843223810195923e-01" nType="-99"/>
          </Node>
        </Node>
      </Node>
    </BinaryTree>
    <BinaryTree type="DecisionTree" boostWeight="1.0000000000000000e+00" itree="65">
      <Node pos="s" depth="0" NCoef="0" IVar="3" Cut="7.7137583494186401e-01" cType="1" res="6.9312769919633865e-03" rms="4.0531355142593384e-01" purity="4.9992439150810242e-01" nType="0">
        <Node pos="l" depth="1" NCoef="0" IVar="1" Cut="1.4958879351615906e-01" cType="1" res="-6.4879036508500576e-03" rms="3.8558298349380493e-01" purity="2.6277425885200500e-01" nType="0">
          <Node pos="l" depth="2" NCoef="0" IVar="2" Cut="1.9232142639160156e+02" cType="1" res="3.6914290394634008e-03" rms="4.1961196064949036e-01" purity="3.3725336194038391e-01" nType="0">
            <Node pos="l" depth="3" NCoef="0" IVar="6" Cut="3.1787768006324768e-02" cType="1" res="1.4104045927524567e-02" rms="4.4267722964286804e-01" purity="4.1439655423164368e-01" nType="0">
              <Node pos="l" depth="4" NCoef="0" IVar="2" Cut="4.0656261444091797e+01" cType="1" res="-1.8878629431128502e-02" rms="4.3848317861557007e-01" purity="3.9389300346374512e-01" nType="0">
                <Node pos="l" depth="5" NCoef="0" IVar="-1" Cut="0.0000000000000000e+00" cType="1" res="1.9320371793583035e-03" rms="4.5595008134841919e-01" purity="4.7035405039787292e-01" nType="-99"/>
                <Node pos="r" depth="5" NCoef="0" IVar="-1" Cut="0.0000000000000000e+00" cType="1" res="-6.6295284777879715e-03" rms="4.1774964332580566e-01" purity="3.2044419646263123e-01" nType="-99"/>
              </Node>
              <Node pos="r" depth="4" NCoef="0" IVar="2" Cut="9.6545013427734375e+01" cType="1" res="2.1535230800509453e-02" rms="4.4327807426452637e-01" purity="4.1901609301567078e-01" nType="0">
                <Node pos="l" depth="5" NCoef="0" IVar="5" Cut="-2.3825316429138184e+00" cType="1" res="4.1086573153734207e-02" rms="4.6009975671768188e-01" purity="4.8861768841743469e-01" nType="0">
                  <Node pos="l" depth="6" NCoef="0" IVar="-1" Cut="0.0000000000000000e+00" cType="1" res="5.6557995267212391e-03" rms="4.6113604307174683e-01" purity="5.4752868413925171e-01" nType="-99"/>
                  <Node pos="r" depth="6" NCoef="0" IVar="6" Cut="5.7893354445695877e-02" cType="1" res="2.5416703894734383e-02" rms="4.5871171355247498e-01" purity="4.4602951407432556e-01" nType="0">
                    <Node pos="l" depth="7" NCoef="0" IVar="-1" Cut="0.0000000000000000e+00" cType="1" res="2.3367143876384944e-04" rms="4.5867967605590820e-01" purity="4.0960085391998291e-01" nType="-99"/>
                    <Node pos="r" depth="7" NCoef="0" IVar="-1" Cut="0.0000000000000000e+00" cType="1" res="4.1720457375049591e-03" rms="4.5789048075675964e-01" purity="4.7520419955253601e-01" nType="-99"/>
                  </Node>
                </Node>
                <Node pos="r" depth="5" NCoef="0" IVar="6" Cut="5.0663422793149948e-02" cType="1" res="7.8390045091509819e-03" rms="4.3057480454444885e-01" purity="3.7025842070579529e-01" nType="0">
                  <Node pos="l" depth="6" NCoef="0" IVar="-1" Cut="0.0000000000000000e+00" cType="1" res="-3.1171196606010199e-03" rms="4.2101648449897766e-01" purity="3.2881230115890503e-01" nType="-99"/>
                  <Node pos="r" depth="6" NCoef="0" IVar="3" Cut="5.7255482673645020e-01" cType="1" res="1.5665823593735695e-02" rms="4.3241292238235474e-01" purity="3.7997749447822571e-01" nType="0">
                    <Node pos="l" depth="7" NCoef="0" IVar="-1" Cut="0.0000000000000000e+00" cType="1" res="1.3678790128324181e-04" rms="3.7972056865692139e-01" purity="2.1407398581504822e-01" nType="-99"/>
                    <Node pos="r" depth="7" NCoef="0" IVar="-1" Cut="0.0000000000000000e+00" cType="1" res="2.7591157704591751e-03" rms="4.8033690452575684e-01" purity="5.5135285854339600e-01" nType="-99"/>
                  </Node>
                </Node>
              </Node>
            </Node>
            <Node pos="r" depth="3" NCoef="0" IVar="6" Cut="1.8962113559246063e-01" cType="1" res="-6.5104551613330841e-03" rms="3.9544588327407837e-01" purity="2.6167142391204834e-01" nType="0">
              <Node pos="l" depth="4" NCoef="0" IVar="4" Cut="4.0886637568473816e-01" cType="1" res="-1.3414729386568069e-02" rms="3.9577102661132812e-01" purity="2.7451679110527039e-01" nType="0">
                <Node pos="l" depth="5" NCoef="0" IVar="6" Cut="7.9320818185806274e-02" cType="1" res="-5.2128965035080910e-03" rms="4.3089053034782410e-01" purity="3.4079024195671082e-01" nType="0">
                  <Node pos="l" depth="6" NCoef="0" IVar="-1" Cut="0.0000000000000000e+00" cType="1" res="-3.1299619004130363e-03" rms="4.2935395240783691e-01" purity="3.5216453671455383e-01" nType="-99"/>
                  <Node pos="r" depth="6" NCoef="0" IVar="2" Cut="3.0702801513671875e+02" cType="1" res="1.6628676094114780e-03" rms="4.3116006255149841e-01" purity="3.3712252974510193e-01" nType="0">
                    <Node pos="l" depth="7" NCoef="0" IVar="-1" Cut="0.0000000000000000e+00" cType="1" res="2.9908895958214998e-03" rms="4.4863274693489075e-01" purity="3.8685539364814758e-01" nType="-99"/>
                    <Node pos="r" depth="7" NCoef="0" IVar="-1" Cut="0.0000000000000000e+00" cType="1" res="-1.4753015711903572e-03" rms="4.2095974087715149e-01" purity="3.1063675880432129e-01" nType="-99"/>
                  </Node>
                </Node>
                <Node pos="r" depth="5" NCoef="0" IVar="6" Cut="1.0461139678955078e-01" cType="1" res="-3.2871406525373459e-02" rms="2.9534044861793518e-01" purity="1.1730055510997772e-01" nType="0">
                  <Node pos="l" depth="6" NCoef="0" IVar="-1" Cut="0.0000000000000000e+00" cType="1" res="-1.1210555210709572e-02" rms="2.9738041758537292e-01" purity="1.1918311566114426e-01" nType="-99"/>
                  <Node pos="r" depth="6" NCoef="0" IVar="-1" Cut="0.0000000000000000e+00" cType="1" res="-4.6461406163871288e-03" rms="2.9325839877128601e-01" purity="1.1618538200855255e-01" nType="-99"/>
                </Node>
              </Node>
              <Node pos="r" depth="4" NCoef="0" IVar="5" Cut="-1.2149786949157715e+00" cType="1" res="1.7269777134060860e-02" rms="3.9339768886566162e-01" purity="2.1742849051952362e-01" nType="0">
                <Node pos="l" depth="5" NCoef="0" IVar="-1" Cut="0.0000000000000000e+00" cType="1" res="4.3498012237250805e-03" rms="4.3899548053741455e-01" purity="2.8805166482925415e-01" nType="-99"/>
                <Node pos="r" depth="5" NCoef="0" IVar="-1" Cut="0.0000000000000000e+00" cType="1" res="1.1287113738944754e-04" rms="3.3478876948356628e-01" purity="1.3901321589946747e-01" nType="-99"/>
              </Node>
            </Node>
          </Node>
          <Node pos="r" depth="2" NCoef="0" IVar="4" Cut="-1.6481642723083496e+00" cType="1" res="-1.5936359763145447e-02" rms="3.5079360008239746e-01" purity="1.9364276528358459e-01" nType="0">
            <Node pos="l" depth="3" NCoef="0" IVar="5" Cut="-2.9670865535736084e+00" cType="1" res="6.3314195722341537e-04" rms="4.2194861173629761e-01" purity="3.2764717936515808e-01" nType="0">
              <Node pos="l" depth="4" NCoef="0" IVar="-1" Cut="0.0000000000000000e+00" cType="1" res="-5.0414060242474079e-03" rms="3.5582992434501648e-01" purity="1.9320526719093323e-01" nType="-99"/>
              <Node pos="r" depth="4" NCoef="0" IVar="7" Cut="4.0000000000000000e+00" cType="1" res="1.4019713737070560e-02" rms="4.4739061594009399e-01" purity="3.8699918985366821e-01" nType="0">
                <Node pos="l" depth="5" NCoef="0" IVar="-1" Cut="0.0000000000000000e+00" cType="1" res="2.9205500613898039e-03" rms="4.7657588124275208e-01" purity="4.6970066428184509e-01" nType="-99"/>
                <Node pos="r" depth="5" NCoef="0" IVar="-1" Cut="0.0000000000000000e+00" cType="1" res="-2.1810415200889111e-03" rms="3.9289006590843201e-01" purity="2.5056740641593933e-01" nType="-99"/>
              </Node>
            </Node>
            <Node pos="r" depth="3" NCoef="0" IVar="4" Cut="1.5828734636306763e+00" cType="1" res="-1.9185068085789680e-02" rms="3.3497938513755798e-01" purity="1.6736911237239838e-01" nType="0">
              <Node pos="l" depth="4" NCoef="0" IVar="4" Cut="-1.0227724313735962e+00" cType="1" res="-1.5577178448438644e-02" rms="3.6437204480171204e-01" purity="2.0163111388683319e-01" nType="0">
                <Node pos="l" depth="5" NCoef="0" IVar="4" Cut="-1.3455803394317627e+00" cType="1" res="-3.0402751639485359e-02" rms="3.7370109558105469e-01" purity="2.1947239339351654e-01" nType="0">
                  <Node pos="l" depth="6" NCoef="0" IVar="-1" Cut="0.0000000000000000e+00" cType="1" res="-2.8455127030611038e-03" rms="3.8860520720481873e-01" purity="2.4053376913070679e-01" nType="-99"/>
                  <Node pos="r" depth="6" NCoef="0" IVar="-1" Cut="0.0000000000000000e+00" cType="1" res="-5.7904934510588646e-03" rms="3.6450746655464172e-01" purity="2.0710043609142303e-01" nType="-99"/>
                </Node>
                <Node pos="r" depth="5" NCoef="0" IVar="5" Cut="-2.3813505172729492e+00" cType="1" res="-1.2312619015574455e-02" rms="3.6220404505729675e-01" purity="1.9770249724388123e-01" nType="0">
                  <Node pos="l" depth="6" NCoef="0" IVar="6" Cut="9.4481788575649261e-02" cType="1" res="-2.4676807224750519e-03" rms="3.6247229576110840e-01" purity="2.0157615840435028e-01" nType="0">
                    <Node pos="l" depth="7" NCoef="0" IVar="-1" Cut="0.0000000000000000e+00" cType="1" res="-1.9232169725000858e-03" rms="3.5063984990119934e-01" purity="1.9193001091480255e-01" nType="-99"/>
                    <Node pos="r" depth="7" NCoef="0" IVar="-1" Cut="0.0000000000000000e+00" cType="1" res="1.9014124991372228e-03" rms="3.8058146834373474e-01" purity="2.1729245781898499e-01" nType="-99"/>
                  </Node>
                  <Node pos="r" depth="6" NCoef="0" IVar="5" Cut="-4.2664896696805954e-02" cType="1" res="-1.7482951283454895e-02" rms="3.6195585131645203e-01" purity="1.9566814601421356e-01" nType="0">
                    <Node pos="l" depth="7" NCoef="0" IVar="-1" Cut="0.0000000000000000e+00" cType="1" res="-3.1686977017670870e-03" rms="3.6695608496665955e-01" purity="2.0347708463668823e-01" nType="-99"/>
                    <Node pos="r" depth="7" NCoef="0" IVar="-1" Cut="0.0000000000000000e+00" cType="1" res="-3.9455850492231548e-04" rms="3.1900069117546082e-01" purity="1.3360139727592468e-01" nType="-99"/>
                  </Node>
                </Node>
              </Node>
              <Node pos="r" depth="4" NCoef="0" IVar="3" Cut="4.5610925555229187e-01" cType="1" res="-3.2538022845983505e-02" rms="1.8949086964130402e-01" purity="4.0564022958278656e-02" nType="0">
                <Node pos="l" depth="5" NCoef="0" IVar="6" Cut="7.4110947549343109e-02" cType="1" res="-2.5724846869707108e-02" rms="1.5887984633445740e-01" purity="2.7329914271831512e-02" nType="0">
                  <Node pos="l" depth="6" NCoef="0" IVar="-1" Cut="0.0000000000000000e+00" cType="1" res="-2.7071997523307800e-02" rms="6.2640629708766937e-02" purity="3.8580475375056267e-03" nType="-99"/>
                  <Node pos="r" depth="6" NCoef="0" IVar="3" Cut="2.7305668592453003e-01" cType="1" res="-2.1882224828004837e-02" rms="1.8396018445491791e-01" purity="3.6853112280368805e-02" nType="0">
                    <Node pos="l" depth="7" NCoef="0" IVar="-1" Cut="0.0000000000000000e+00" cType="1" res="-7.7452529221773148e-03" rms="2.0937013626098633e-01" purity="4.8337358981370926e-02" nType="-99"/>
                    <Node pos="r" depth="7" NCoef="0" IVar="-1" Cut="0.0000000000000000e+00" cType="1" res="-1.5241053886711597e-02" rms="1.5751719474792480e-01" purity="2.6562107726931572e-02" nType="-99"/>
                  </Node>
                </Node>
                <Node pos="r" depth="5" NCoef="0" IVar="-1" Cut="0.0000000000000000e+00" cType="1" res="-1.2330485507845879e-02" rms="2.6614320278167725e-01" purity="8.4741063416004181e-02" nType="-99"/>
              </Node>
            </Node>
          </Node>
        </Node>
        <Node pos="r" depth="1" NCoef="0" IVar="0" Cut="6.1459439992904663e-01" cType="1" res="2.0395034924149513e-02" rms="4.2376151680946350e-01" purity="7.3786228895187378e-01" nType="0">
          <Node pos="l" depth="2" NCoef="0" IVar="1" Cut="1.0935702323913574e+00" cType="1" res="2.2929074242711067e-02" rms="4.2217969894409180e-01" purity="7.4674129486083984e-01" nType="0">
            <Node pos="l" depth="3" NCoef="0" IVar="4" Cut="9.0158122777938843e-01" cType="1" res="2.5468101724982262e-02" rms="4.1928470134735107e-01" purity="7.5419735908508301e-01" nType="0">
              <Node pos="l" depth="4" NCoef="0" IVar="5" Cut="-2.5375316143035889e+00" cType="1" res="2.7015680447220802e-02" rms="4.1738337278366089e-01" purity="7.6096194982528687e-01" nType="0">
                <Node pos="l" depth="5" NCoef="0" IVar="4" Cut="-1.1962517499923706e+00" cType="1" res="3.4828163683414459e-02" rms="3.8937476277351379e-01" purity="8.0712938308715820e-01" nType="0">
                  <Node pos="l" depth="6" NCoef="0" IVar="4" Cut="-2.5054707527160645e+00" cType="1" res="2.6460723951458931e-02" rms="4.2126399278640747e-01" purity="7.6223003864288330e-01" nType="0">
                    <Node pos="l" depth="7" NCoef="0" IVar="-1" Cut="0.0000000000000000e+00" cType="1" res="4.6162046492099762e-03" rms="4.0324914455413818e-01" purity="7.9168307781219482e-01" nType="-99"/>
                    <Node pos="r" depth="7" NCoef="0" IVar="-1" Cut="0.0000000000000000e+00" cType="1" res="1.5573864802718163e-03" rms="4.3157452344894409e-01" purity="7.4429434537887573e-01" nType="-99"/>
                  </Node>
                  <Node pos="r" depth="6" NCoef="0" IVar="1" Cut="3.6334849894046783e-02" cType="1" res="4.0024057030677795e-02" rms="3.6808946728706360e-01" purity="8.3501029014587402e-01" nType="0">
                    <Node pos="l" depth="7" NCoef="0" IVar="-1" Cut="0.0000000000000000e+00" cType="1" res="5.9160455130040646e-03" rms="3.5098347067832947e-01" purity="8.5492551326751709e-01" nType="-99"/>
                    <Node pos="r" depth="7" NCoef="0" IVar="-1" Cut="0.0000000000000000e+00" cType="1" res="3.3318928908556700e-03" rms="3.8775685429573059e-01" purity="8.1059968471527100e-01" nType="-99"/>
                  </Node>
                </Node>
                <Node pos="r" depth="5" NCoef="0" IVar="3" Cut="9.7279620170593262e-01" cType="1" res="1.8682647496461868e-02" rms="4.4516974687576294e-01" purity="7.1171832084655762e-01" nType="0">
                  <Node pos="l" depth="6" NCoef="0" IVar="7" Cut="2.0000000000000000e+00" cType="1" res="1.0276805609464645e-02" rms="4.2148551344871521e-01" purity="6.7634612321853638e-01" nType="0">
                    <Node pos="l" depth="7" NCoef="0" IVar="-1" Cut="0.0000000000000000e+00" cType="1" res="-7.8537804074585438e-04" rms="4.5544397830963135e-01" purity="6.9464606046676636e-01" nType="-99"/>
                    <Node pos="r" depth="7" NCoef="0" IVar="-1" Cut="0.0000000000000000e+00" cType="1" res="1.3380590826272964e-03" rms="4.6201530098915100e-01" purity="6.7425721883773804e-01" nType="-99"/>
                  </Node>
                  <Node pos="r" depth="6" NCoef="0" IVar="4" Cut="-3.6218324303627014e-01" cType="1" res="2.5455823168158531e-02" rms="4.2749282717704773e-01" purity="7.4859237670898438e-01" nType="0">
                    <Node pos="l" depth="7" NCoef="0" IVar="-1" Cut="0.0000000000000000e+00" cType="1" res="1.4629472279921174e-03" rms="4.3861407041549683e-01" purity="7.2935223579406738e-01" nType="-99"/>
                    <Node pos="r" depth="7" NCoef="0" IVar="-1" Cut="0.0000000000000000e+00" cType="1" res="3.6058095283806324e-03" rms="4.1676270961761475e-01" purity="7.6635110378265381e-01" nType="-99"/>
                  </Node>
                </Node>
              </Node>
              <Node pos="r" depth="4" NCoef="0" IVar="-1" Cut="0.0000000000000000e+00" cType="1" res="-2.9419760685414076e-03" rms="4.8059380054473877e-01" purity="5.0544422864913940e-01" nType="-99"/>
            </Node>
            <Node pos="r" depth="3" NCoef="0" IVar="-1" Cut="0.0000000000000000e+00" cType="1" res="-2.7758949436247349e-03" rms="4.7693419456481934e-01" purity="5.8652490377426147e-01" nType="-99"/>
          </Node>
          <Node pos="r" depth="2" NCoef="0" IVar="-1" Cut="0.0000000000000000e+00" cType="1" res="-7.0285010151565075e-03" rms="4.7028076648712158e-01" purity="3.9774450659751892e-01" nType="-99"/>
        </Node>
      </Node>
    </BinaryTree>
    <BinaryTree type="DecisionTree" boostWeight="1.0000000000000000e+00" itree="66">
      <Node pos="s" depth="0" NCoef="0" IVar="4" Cut="1.5459530353546143e+00" cType="1" res="7.2697768919169903e-03" rms="4.0648657083511353e-01" purity="5.0042456388473511e-01" nType="0">
        <Node pos="l" depth="1" NCoef="0" IVar="3" Cut="4.8371478915214539e-01" cType="1" res="1.0930657386779785e-02" rms="4.1859933733940125e-01" purity="5.4146981239318848e-01" nType="0">
          <Node pos="l" depth="2" NCoef="0" IVar="7" Cut="3.0000000000000000e+00" cType="1" res="1.0196480154991150e-01" rms="0.0000000000000000e+00" purity="1.2761390209197998e-01" nType="0">
            <Node pos="l" depth="3" NCoef="0" IVar="-1" Cut="0.0000000000000000e+00" cType="1" res="6.6677317954599857e-03" rms="3.8951784372329712e-01" purity="2.1529342234134674e-01" nType="-99"/>
            <Node pos="r" depth="3" NCoef="0" IVar="7" Cut="9.0000000000000000e+00" cType="1" res="9.8518192768096924e-02" rms="0.0000000000000000e+00" purity="1.2170260399580002e-01" nType="0">
              <Node pos="l" depth="4" NCoef="0" IVar="3" Cut="1.5674519538879395e-01" cType="1" res="-8.7259169667959213e-03" rms="3.2047358155250549e-01" purity="1.2776058912277222e-01" nType="0">
                <Node pos="l" depth="5" NCoef="0" IVar="-1" Cut="0.0000000000000000e+00" cType="1" res="4.9357414245605469e-03" rms="3.5484370589256287e-01" purity="1.5975454449653625e-01" nType="-99"/>
                <Node pos="r" depth="5" NCoef="0" IVar="0" Cut="6.7811471223831177e-01" cType="1" res="-1.1065341532230377e-02" rms="3.1749558448791504e-01" purity="1.2524528801441193e-01" nType="0">
                  <Node pos="l" depth="6" NCoef="0" IVar="7" Cut="6.0000000000000000e+00" cType="1" res="5.4175602272152901e-03" rms="2.5921201705932617e-01" purity="2.4384790658950806e-01" nType="0">
                    <Node pos="l" depth="7" NCoef="0" IVar="-1" Cut="0.0000000000000000e+00" cType="1" res="6.3957332167774439e-04" rms="4.2239218950271606e-01" purity="2.5156152248382568e-01" nType="-99"/>
                    <Node pos="r" depth="7" NCoef="0" IVar="-1" Cut="0.0000000000000000e+00" cType="1" res="4.7374330461025238e-03" rms="4.1343203186988831e-01" purity="2.2929856181144714e-01" nType="-99"/>
                  </Node>
                  <Node pos="r" depth="6" NCoef="0" IVar="0" Cut="1.3343673944473267e+00" cType="1" res="-1.8431305885314941e-02" rms="2.7865329384803772e-01" purity="8.9067265391349792e-02" nType="0">
                    <Node pos="l" depth="7" NCoef="0" IVar="-1" Cut="0.0000000000000000e+00" cType="1" res="-2.3251678794622421e-03" rms="3.2787513732910156e-01" purity="1.2728975713253021e-01" nType="-99"/>
                    <Node pos="r" depth="7" NCoef="0" IVar="-1" Cut="0.0000000000000000e+00" cType="1" res="-9.0371379628777504e-03" rms="2.3889164626598358e-01" purity="6.2824390828609467e-02" nType="-99"/>
                  </Node>
                </Node>
              </Node>
              <Node pos="r" depth="4" NCoef="0" IVar="-1" Cut="0.0000000000000000e+00" cType="1" res="-1.0527462698519230e-02" rms="2.4655967950820923e-01" purity="6.8592630326747894e-02" nType="-99"/>
            </Node>
          </Node>
          <Node pos="r" depth="2" NCoef="0" IVar="2" Cut="3.4610458374023438e+02" cType="1" res="1.5789242461323738e-02" rms="4.4019278883934021e-01" purity="6.4688640832901001e-01" nType="0">
            <Node pos="l" depth="3" NCoef="0" IVar="1" Cut="5.4197620600461960e-02" cType="1" res="1.8038118258118629e-02" rms="4.3841326236724854e-01" purity="6.6180443763732910e-01" nType="0">
              <Node pos="l" depth="4" NCoef="0" IVar="4" Cut="-2.4575507640838623e+00" cType="1" res="2.6069054380059242e-02" rms="4.3029054999351501e-01" purity="7.0413637161254883e-01" nType="0">
                <Node pos="l" depth="5" NCoef="0" IVar="6" Cut="2.5588493794202805e-02" cType="1" res="4.2494814842939377e-02" rms="4.2120522260665894e-01" purity="7.5136363506317139e-01" nType="0">
                  <Node pos="l" depth="6" NCoef="0" IVar="-1" Cut="0.0000000000000000e+00" cType="1" res="3.4868149086833000e-03" rms="4.1521853208541870e-01" purity="7.6610851287841797e-01" nType="-99"/>
                  <Node pos="r" depth="6" NCoef="0" IVar="2" Cut="1.2203072357177734e+02" cType="1" res="5.0399113446474075e-02" rms="4.2592182755470276e-01" purity="7.3919153213500977e-01" nType="0">
                    <Node pos="l" depth="7" NCoef="0" IVar="-1" Cut="0.0000000000000000e+00" cType="1" res="5.9935795143246651e-03" rms="4.1107878088951111e-01" purity="7.7270996570587158e-01" nType="-99"/>
                    <Node pos="r" depth="7" NCoef="0" IVar="-1" Cut="0.0000000000000000e+00" cType="1" res="3.8539411034435034e-03" rms="4.4047567248344421e-01" purity="7.0441645383834839e-01" nType="-99"/>
                  </Node>
                </Node>
                <Node pos="r" depth="5" NCoef="0" IVar="4" Cut="-1.1661747694015503e+00" cType="1" res="2.3747751489281654e-02" rms="4.3150866031646729e-01" purity="6.9746220111846924e-01" nType="0">
                  <Node pos="l" depth="6" NCoef="0" IVar="6" Cut="3.5454992204904556e-02" cType="1" res="1.3473068363964558e-02" rms="4.5224291086196899e-01" purity="6.7113596200942993e-01" nType="0">
                    <Node pos="l" depth="7" NCoef="0" IVar="-1" Cut="0.0000000000000000e+00" cType="1" res="-1.2621171663340647e-05" rms="4.4532641768455505e-01" purity="6.9877427816390991e-01" nType="-99"/>
                    <Node pos="r" depth="7" NCoef="0" IVar="-1" Cut="0.0000000000000000e+00" cType="1" res="2.6143440045416355e-03" rms="4.5963633060455322e-01" purity="6.3905382156372070e-01" nType="-99"/>
                  </Node>
                  <Node pos="r" depth="6" NCoef="0" IVar="5" Cut="-2.4533557891845703e+00" cType="1" res="2.7859844267368317e-02" rms="4.2285582423210144e-01" purity="7.0799845457077026e-01" nType="0">
                    <Node pos="l" depth="7" NCoef="0" IVar="-1" Cut="0.0000000000000000e+00" cType="1" res="4.1858125478029251e-03" rms="3.8597148656845093e-01" purity="7.8745996952056885e-01" nType="-99"/>
                    <Node pos="r" depth="7" NCoef="0" IVar="-1" Cut="0.0000000000000000e+00" cType="1" res="1.9240268738940358e-03" rms="4.5401567220687866e-01" purity="6.3487607240676880e-01" nType="-99"/>
                  </Node>
                </Node>
              </Node>
              <Node pos="r" depth="4" NCoef="0" IVar="0" Cut="5.5945092439651489e-01" cType="1" res="9.3496395274996758e-03" rms="4.4687235355377197e-01" purity="6.1600649356842041e-01" nType="0">
                <Node pos="l" depth="5" NCoef="0" IVar="0" Cut="1.8046693876385689e-02" cType="1" res="1.2641204521059990e-02" rms="4.4857478141784668e-01" purity="6.5440088510513306e-01" nType="0">
                  <Node pos="l" depth="6" NCoef="0" IVar="3" Cut="9.7871977090835571e-01" cType="1" res="1.8644444644451141e-02" rms="4.3988984823226929e-01" purity="7.0646381378173828e-01" nType="0">
                    <Node pos="l" depth="7" NCoef="0" IVar="-1" Cut="0.0000000000000000e+00" cType="1" res="9.9633843638002872e-04" rms="4.6637097001075745e-01" purity="6.4006835222244263e-01" nType="-99"/>
                    <Node pos="r" depth="7" NCoef="0" IVar="-1" Cut="0.0000000000000000e+00" cType="1" res="2.6647127233445644e-03" rms="4.1134530305862427e-01" purity="7.7336472272872925e-01" nType="-99"/>
                  </Node>
                  <Node pos="r" depth="6" NCoef="0" IVar="6" Cut="5.6244246661663055e-02" cType="1" res="-8.4117436781525612e-03" rms="4.7718980908393860e-01" purity="4.7181984782218933e-01" nType="0">
                    <Node pos="l" depth="7" NCoef="0" IVar="-1" Cut="0.0000000000000000e+00" cType="1" res="-2.5129960849881172e-03" rms="4.7435489296913147e-01" purity="4.8869633674621582e-01" nType="-99"/>
                    <Node pos="r" depth="7" NCoef="0" IVar="-1" Cut="0.0000000000000000e+00" cType="1" res="2.0539294928312302e-03" rms="4.8049828410148621e-01" purity="4.4289705157279968e-01" nType="-99"/>
                  </Node>
                </Node>
                <Node pos="r" depth="5" NCoef="0" IVar="7" Cut="3.0000000000000000e+00" cType="1" res="-1.7377359792590141e-02" rms="4.2974111437797546e-01" purity="2.8135994076728821e-01" nType="0">
                  <Node pos="l" depth="6" NCoef="0" IVar="-1" Cut="0.0000000000000000e+00" cType="1" res="-5.3236791864037514e-03" rms="4.3907806277275085e-01" purity="3.1285938620567322e-01" nType="-99"/>
                  <Node pos="r" depth="6" NCoef="0" IVar="-1" Cut="0.0000000000000000e+00" cType="1" res="7.2740431642159820e-04" rms="4.2185559868812561e-01" purity="2.5467279553413391e-01" nType="-99"/>
                </Node>
              </Node>
            </Node>
            <Node pos="r" depth="3" NCoef="0" IVar="2" Cut="5.0799789428710938e+02" cType="1" res="-2.2290822118520737e-02" rms="4.6766257286071777e-01" purity="3.9427989721298218e-01" nType="0">
              <Node pos="l" depth="4" NCoef="0" IVar="4" Cut="-1.0888972282409668e+00" cType="1" res="-8.4206350147724152e-03" rms="4.6712371706962585e-01" purity="4.0823385119438171e-01" nType="0">
                <Node pos="l" depth="5" NCoef="0" IVar="-1" Cut="0.0000000000000000e+00" cType="1" res="-2.6767284143716097e-03" rms="4.7102686762809753e-01" purity="4.3521973490715027e-01" nType="-99"/>
                <Node pos="r" depth="5" NCoef="0" IVar="-1" Cut="0.0000000000000000e+00" cType="1" res="6.7234056768938899e-04" rms="4.6344944834709167e-01" purity="3.8661146163940430e-01" nType="-99"/>
              </Node>
              <Node pos="r" depth="4" NCoef="0" IVar="-1" Cut="0.0000000000000000e+00" cType="1" res="-5.1897484809160233e-03" rms="4.6750146150588989e-01" purity="3.6625602841377258e-01" nType="-99"/>
            </Node>
          </Node>
        </Node>
        <Node pos="r" depth="1" NCoef="0" IVar="3" Cut="5.7997512817382812e-01" cType="1" res="-3.0352823436260223e-02" rms="2.4692063033580780e-01" purity="7.8605554997920990e-02" nType="0">
          <Node pos="l" depth="2" NCoef="0" IVar="6" Cut="1.5753525495529175e-01" cType="1" res="-2.1175628527998924e-02" rms="2.0235720276832581e-01" purity="4.6712215989828110e-02" nType="0">
            <Node pos="l" depth="3" NCoef="0" IVar="6" Cut="8.6865060031414032e-02" cType="1" res="-2.7670277282595634e-02" rms="1.6336064040660858e-01" purity="2.9814155772328377e-02" nType="0">
              <Node pos="l" depth="4" NCoef="0" IVar="3" Cut="3.6035439372062683e-01" cType="1" res="-3.4396674484014511e-02" rms="1.3053011894226074e-01" purity="1.7969816923141479e-02" nType="0">
                <Node pos="l" depth="5" NCoef="0" IVar="-1" Cut="0.0000000000000000e+00" cType="1" res="-2.2971434518694878e-02" rms="9.5705576241016388e-02" purity="9.1985203325748444e-03" nType="-99"/>
                <Node pos="r" depth="5" NCoef="0" IVar="-1" Cut="0.0000000000000000e+00" cType="1" res="-1.7476344481110573e-02" rms="1.6365829110145569e-01" purity="2.8954334557056427e-02" nType="-99"/>
              </Node>
              <Node pos="r" depth="4" NCoef="0" IVar="2" Cut="2.1355984497070312e+02" cType="1" res="-2.1966444328427315e-02" rms="1.8654111027717590e-01" purity="3.9857886731624603e-02" nType="0">
                <Node pos="l" depth="5" NCoef="0" IVar="-1" Cut="0.0000000000000000e+00" cType="1" res="-2.9339340981096029e-03" rms="2.2959145903587341e-01" purity="6.3846759498119354e-02" nType="-99"/>
                <Node pos="r" depth="5" NCoef="0" IVar="-1" Cut="0.0000000000000000e+00" cType="1" res="-1.5762867406010628e-02" rms="1.5560287237167358e-01" purity="2.5967271998524666e-02" nType="-99"/>
              </Node>
            </Node>
            <Node pos="r" depth="3" NCoef="0" IVar="7" Cut="6.0000000000000000e+00" cType="1" res="0.0000000000000000e+00" rms="0.0000000000000000e+00" purity="8.5775785148143768e-02" nType="0">
              <Node pos="l" depth="4" NCoef="0" IVar="-1" Cut="0.0000000000000000e+00" cType="1" res="-7.4594356119632721e-03" rms="2.4433501064777374e-01" purity="6.9579802453517914e-02" nType="-99"/>
              <Node pos="r" depth="4" NCoef="0" IVar="-1" Cut="0.0000000000000000e+00" cType="1" res="2.2810590453445911e-03" rms="2.9196751117706299e-01" purity="9.9788978695869446e-02" nType="-99"/>
            </Node>
          </Node>
          <Node pos="r" depth="2" NCoef="0" IVar="-1" Cut="0.0000000000000000e+00" cType="1" res="-9.4475783407688141e-03" rms="3.9279919862747192e-01" purity="2.3096597194671631e-01" nType="-99"/>
        </Node>
      </Node>
    </BinaryTree>
    <BinaryTree type="DecisionTree" boostWeight="1.0000000000000000e+00" itree="67">
      <Node pos="s" depth="0" NCoef="0" IVar="3" Cut="7.7301573753356934e-01" cType="1" res="7.6338029466569424e-03" rms="4.0655183792114258e-01" purity="4.9977859854698181e-01" nType="0">
        <Node pos="l" depth="1" NCoef="0" IVar="4" Cut="2.0263638496398926e+00" cType="1" res="-2.7151231188327074e-03" rms="3.8807198405265808e-01" purity="2.6631551980972290e-01" nType="0">
          <Node pos="l" depth="2" NCoef="0" IVar="4" Cut="-2.6521320343017578e+00" cType="1" res="2.8107213438488543e-04" rms="4.0722814202308655e-01" purity="2.9725557565689087e-01" nType="0">
            <Node pos="l" depth="3" NCoef="0" IVar="-1" Cut="0.0000000000000000e+00" cType="1" res="5.1154419779777527e-03" rms="4.4379791617393494e-01" purity="4.5572939515113831e-01" nType="-99"/>
            <Node pos="r" depth="3" NCoef="0" IVar="1" Cut="1.5562982559204102e+00" cType="1" res="-1.3335986295714974e-03" rms="4.0579882264137268e-01" purity="2.9173243045806885e-01" nType="0">
              <Node pos="l" depth="4" NCoef="0" IVar="1" Cut="-8.6764618754386902e-02" cType="1" res="3.2512770849280059e-04" rms="4.1159486770629883e-01" purity="3.0350205302238464e-01" nType="0">
                <Node pos="l" depth="5" NCoef="0" IVar="2" Cut="3.3188012695312500e+02" cType="1" res="1.8014835193753242e-02" rms="4.3948769569396973e-01" purity="3.8005837798118591e-01" nType="0">
                  <Node pos="l" depth="6" NCoef="0" IVar="6" Cut="8.5551694035530090e-02" cType="1" res="2.9908832162618637e-02" rms="4.5240640640258789e-01" purity="4.2707049846649170e-01" nType="0">
                    <Node pos="l" depth="7" NCoef="0" IVar="-1" Cut="0.0000000000000000e+00" cType="1" res="1.8404985312372446e-03" rms="4.5201259851455688e-01" purity="4.3461257219314575e-01" nType="-99"/>
                    <Node pos="r" depth="7" NCoef="0" IVar="-1" Cut="0.0000000000000000e+00" cType="1" res="5.4790475405752659e-03" rms="4.5232120156288147e-01" purity="4.1378647089004517e-01" nType="-99"/>
                  </Node>
                  <Node pos="r" depth="6" NCoef="0" IVar="3" Cut="5.0386947393417358e-01" cType="1" res="-1.1924508959054947e-02" rms="4.0360099077224731e-01" purity="2.6172038912773132e-01" nType="0">
                    <Node pos="l" depth="7" NCoef="0" IVar="-1" Cut="0.0000000000000000e+00" cType="1" res="-4.1050589643418789e-03" rms="3.5232719779014587e-01" purity="1.6078390181064606e-01" nType="-99"/>
                    <Node pos="r" depth="7" NCoef="0" IVar="-1" Cut="0.0000000000000000e+00" cType="1" res="6.3338596373796463e-04" rms="4.8130387067794800e-01" purity="4.4214966893196106e-01" nType="-99"/>
                  </Node>
                </Node>
                <Node pos="r" depth="5" NCoef="0" IVar="6" Cut="1.0674358904361725e-01" cType="1" res="-5.4529351182281971e-03" rms="4.0189641714096069e-01" purity="2.7849614620208740e-01" nType="0">
                  <Node pos="l" depth="6" NCoef="0" IVar="6" Cut="3.1253751367330551e-02" cType="1" res="-1.1524711735546589e-02" rms="4.0482777357101440e-01" purity="2.9805585741996765e-01" nType="0">
                    <Node pos="l" depth="7" NCoef="0" IVar="-1" Cut="0.0000000000000000e+00" cType="1" res="-4.8671178519725800e-03" rms="4.0186560153961182e-01" purity="2.7763605117797852e-01" nType="-99"/>
                    <Node pos="r" depth="7" NCoef="0" IVar="-1" Cut="0.0000000000000000e+00" cType="1" res="-9.3157461378723383e-04" rms="4.0515723824501038e-01" purity="3.0149874091148376e-01" nType="-99"/>
                  </Node>
                  <Node pos="r" depth="6" NCoef="0" IVar="1" Cut="1.2517113983631134e-01" cType="1" res="5.7833353057503700e-03" rms="3.9616921544075012e-01" purity="2.4229957163333893e-01" nType="0">
                    <Node pos="l" depth="7" NCoef="0" IVar="-1" Cut="0.0000000000000000e+00" cType="1" res="2.8559351339936256e-03" rms="4.2686316370964050e-01" purity="3.1005412340164185e-01" nType="-99"/>
                    <Node pos="r" depth="7" NCoef="0" IVar="-1" Cut="0.0000000000000000e+00" cType="1" res="-4.1802675696089864e-04" rms="3.7929877638816833e-01" purity="2.0775581896305084e-01" nType="-99"/>
                  </Node>
                </Node>
              </Node>
              <Node pos="r" depth="4" NCoef="0" IVar="3" Cut="3.2439762353897095e-01" cType="1" res="-2.6235831901431084e-02" rms="3.0477118492126465e-01" purity="1.1503597348928452e-01" nType="0">
                <Node pos="l" depth="5" NCoef="0" IVar="-1" Cut="0.0000000000000000e+00" cType="1" res="5.3160270908847451e-04" rms="2.6242277026176453e-01" purity="7.8036345541477203e-02" nType="-99"/>
                <Node pos="r" depth="5" NCoef="0" IVar="-1" Cut="0.0000000000000000e+00" cType="1" res="-1.0331047698855400e-02" rms="3.5218200087547302e-01" purity="1.6695000231266022e-01" nType="-99"/>
              </Node>
            </Node>
          </Node>
          <Node pos="r" depth="2" NCoef="0" IVar="3" Cut="5.0182020664215088e-01" cType="1" res="-2.3880036547780037e-02" rms="2.0608325302600861e-01" purity="4.7757174819707870e-02" nType="0">
            <Node pos="l" depth="3" NCoef="0" IVar="2" Cut="5.6133520507812500e+02" cType="1" res="-1.6985585913062096e-02" rms="1.8763943016529083e-01" purity="3.9169859141111374e-02" nType="0">
              <Node pos="l" depth="4" NCoef="0" IVar="4" Cut="2.9101040363311768e+00" cType="1" res="-2.1591328084468842e-02" rms="1.5894129872322083e-01" purity="2.6797022670507431e-02" nType="0">
                <Node pos="l" depth="5" NCoef="0" IVar="-1" Cut="0.0000000000000000e+00" cType="1" res="-7.5341546908020973e-03" rms="1.9736886024475098e-01" purity="4.1669882833957672e-02" nType="-99"/>
                <Node pos="r" depth="5" NCoef="0" IVar="3" Cut="3.1757241487503052e-01" cType="1" res="-2.5877064093947411e-02" rms="1.3349938392639160e-01" purity="1.8772095441818237e-02" nType="0">
                  <Node pos="l" depth="6" NCoef="0" IVar="-1" Cut="0.0000000000000000e+00" cType="1" res="-1.4484807848930359e-02" rms="1.5197430551052094e-01" purity="2.4639155715703964e-02" nType="-99"/>
                  <Node pos="r" depth="6" NCoef="0" IVar="-1" Cut="0.0000000000000000e+00" cType="1" res="-2.2069400176405907e-02" rms="9.9664501845836639e-02" purity="1.0116793215274811e-02" nType="-99"/>
                </Node>
              </Node>
              <Node pos="r" depth="4" NCoef="0" IVar="-1" Cut="0.0000000000000000e+00" cType="1" res="2.6058292132802308e-04" rms="2.7041584253311157e-01" purity="8.6829781532287598e-02" nType="-99"/>
            </Node>
            <Node pos="r" depth="3" NCoef="0" IVar="-1" Cut="0.0000000000000000e+00" cType="1" res="-1.2045816518366337e-02" rms="2.7749568223953247e-01" purity="9.0248897671699524e-02" nType="-99"/>
          </Node>
        </Node>
        <Node pos="r" depth="1" NCoef="0" IVar="3" Cut="1.0595389604568481e+00" cType="1" res="1.8170308321714401e-02" rms="4.2428174614906311e-01" purity="7.3747330904006958e-01" nType="0">
          <Node pos="l" depth="2" NCoef="0" IVar="5" Cut="-2.8391363620758057e+00" cType="1" res="1.9654275849461555e-02" rms="4.2399355769157410e-01" purity="7.4063318967819214e-01" nType="0">
            <Node pos="l" depth="3" NCoef="0" IVar="3" Cut="9.9482029676437378e-01" cType="1" res="3.2156698405742645e-02" rms="3.8585227727890015e-01" purity="8.0824828147888184e-01" nType="0">
              <Node pos="l" depth="4" NCoef="0" IVar="4" Cut="-2.6917967796325684e+00" cType="1" res="2.2752007469534874e-02" rms="4.0733167529106140e-01" purity="7.7661573886871338e-01" nType="0">
                <Node pos="l" depth="5" NCoef="0" IVar="-1" Cut="0.0000000000000000e+00" cType="1" res="4.5758993364870548e-03" rms="4.0098789334297180e-01" purity="7.9312574863433838e-01" nType="-99"/>
                <Node pos="r" depth="5" NCoef="0" IVar="4" Cut="-1.3103463649749756e+00" cType="1" res="1.8954094499349594e-02" rms="4.0853366255760193e-01" purity="7.7318805456161499e-01" nType="0">
                  <Node pos="l" depth="6" NCoef="0" IVar="3" Cut="8.6602902412414551e-01" cType="1" res="5.6390245445072651e-03" rms="4.3878784775733948e-01" purity="7.2204911708831787e-01" nType="0">
                    <Node pos="l" depth="7" NCoef="0" IVar="-1" Cut="0.0000000000000000e+00" cType="1" res="6.3074250647332519e-05" rms="4.5728272199630737e-01" purity="6.8475848436355591e-01" nType="-99"/>
                    <Node pos="r" depth="7" NCoef="0" IVar="-1" Cut="0.0000000000000000e+00" cType="1" res="1.1702806223183870e-03" rms="4.1972300410270691e-01" purity="7.5876927375793457e-01" nType="-99"/>
                  </Node>
                  <Node pos="r" depth="6" NCoef="0" IVar="1" Cut="7.7236846089363098e-02" cType="1" res="2.6670146733522415e-02" rms="3.8972046971321106e-01" purity="8.0282306671142578e-01" nType="0">
                    <Node pos="l" depth="7" NCoef="0" IVar="-1" Cut="0.0000000000000000e+00" cType="1" res="4.7876755706965923e-03" rms="3.6726284027099609e-01" purity="8.3552968502044678e-01" nType="-99"/>
                    <Node pos="r" depth="7" NCoef="0" IVar="-1" Cut="0.0000000000000000e+00" cType="1" res="7.7610672451555729e-04" rms="4.2000326514244080e-01" purity="7.5442546606063843e-01" nType="-99"/>
                  </Node>
                </Node>
              </Node>
              <Node pos="r" depth="4" NCoef="0" IVar="3" Cut="9.9899631738662720e-01" cType="1" res="4.0777444839477539e-02" rms="3.6484193801879883e-01" purity="8.3724409341812134e-01" nType="0">
                <Node pos="l" depth="5" NCoef="0" IVar="-1" Cut="0.0000000000000000e+00" cType="1" res="3.0794956255704165e-03" rms="3.7740111351013184e-01" purity="8.1925290822982788e-01" nType="-99"/>
                <Node pos="r" depth="5" NCoef="0" IVar="5" Cut="-2.9790725708007812e+00" cType="1" res="4.6313002705574036e-02" rms="3.5993131995201111e-01" purity="8.4389382600784302e-01" nType="0">
                  <Node pos="l" depth="6" NCoef="0" IVar="5" Cut="-3.1473095417022705e+00" cType="1" res="4.9858018755912781e-02" rms="3.5519140958786011e-01" purity="8.4958231449127197e-01" nType="0">
                    <Node pos="l" depth="7" NCoef="0" IVar="-1" Cut="0.0000000000000000e+00" cType="1" res="4.8364093527197838e-03" rms="3.5815864801406860e-01" purity="8.4488385915756226e-01" nType="-99"/>
                    <Node pos="r" depth="7" NCoef="0" IVar="-1" Cut="0.0000000000000000e+00" cType="1" res="6.6836830228567123e-03" rms="3.5067790746688843e-01" purity="8.5621029138565063e-01" nType="-99"/>
                  </Node>
                  <Node pos="r" depth="6" NCoef="0" IVar="-1" Cut="0.0000000000000000e+00" cType="1" res="3.7209400907158852e-03" rms="3.7544232606887817e-01" purity="8.2443273067474365e-01" nType="-99"/>
                </Node>
              </Node>
            </Node>
            <Node pos="r" depth="3" NCoef="0" IVar="1" Cut="1.1354933977127075e+00" cType="1" res="1.3692380860447884e-02" rms="4.4089674949645996e-01" purity="7.0839035511016846e-01" nType="0">
              <Node pos="l" depth="4" NCoef="0" IVar="0" Cut="4.9305471777915955e-01" cType="1" res="1.6532406210899353e-02" rms="4.3859872221946716e-01" purity="7.1666574478149414e-01" nType="0">
                <Node pos="l" depth="5" NCoef="0" IVar="3" Cut="9.9483758211135864e-01" cType="1" res="1.7588272690773010e-02" rms="4.3690010905265808e-01" purity="7.2478383779525757e-01" nType="0">
                  <Node pos="l" depth="6" NCoef="0" IVar="1" Cut="2.8375396132469177e-01" cType="1" res="1.3543467968702316e-02" rms="4.4802731275558472e-01" purity="7.0046341419219971e-01" nType="0">
                    <Node pos="l" depth="7" NCoef="0" IVar="-1" Cut="0.0000000000000000e+00" cType="1" res="1.8308593425899744e-03" rms="4.4164991378784180e-01" purity="7.1774059534072876e-01" nType="-99"/>
                    <Node pos="r" depth="7" NCoef="0" IVar="-1" Cut="0.0000000000000000e+00" cType="1" res="-5.5707333376631141e-04" rms="4.7182342410087585e-01" purity="6.3232219219207764e-01" nType="-99"/>
                  </Node>
                  <Node pos="r" depth="6" NCoef="0" IVar="3" Cut="9.9901163578033447e-01" cType="1" res="2.4510821327567101e-02" rms="4.1707715392112732e-01" purity="7.6640737056732178e-01" nType="0">
                    <Node pos="l" depth="7" NCoef="0" IVar="-1" Cut="0.0000000000000000e+00" cType="1" res="8.7016937322914600e-04" rms="4.2666611075401306e-01" purity="7.5148385763168335e-01" nType="-99"/>
                    <Node pos="r" depth="7" NCoef="0" IVar="-1" Cut="0.0000000000000000e+00" cType="1" res="3.1053200364112854e-03" rms="4.1300401091575623e-01" purity="7.7237373590469360e-01" nType="-99"/>
                  </Node>
                </Node>
                <Node pos="r" depth="5" NCoef="0" IVar="-1" Cut="0.0000000000000000e+00" cType="1" res="-1.1048328597098589e-03" rms="4.8231682181358337e-01" purity="4.9206122756004333e-01" nType="-99"/>
              </Node>
              <Node pos="r" depth="4" NCoef="0" IVar="-1" Cut="0.0000000000000000e+00" cType="1" res="-4.1601420380175114e-03" rms="4.8424351215362549e-01" purity="5.2773410081863403e-01" nType="-99"/>
            </Node>
          </Node>
          <Node pos="r" depth="2" NCoef="0" IVar="-1" Cut="0.0000000000000000e+00" cType="1" res="-4.5897122472524643e-03" rms="4.3172395229339600e-01" purity="6.0010373592376709e-01" nType="-99"/>
        </Node>
      </Node>
    </BinaryTree>
    <BinaryTree type="DecisionTree" boostWeight="1.0000000000000000e+00" itree="68">
      <Node pos="s" depth="0" NCoef="0" IVar="3" Cut="8.5980367660522461e-01" cType="1" res="5.4963226430118084e-03" rms="4.0594631433486938e-01" purity="4.9877446889877319e-01" nType="0">
        <Node pos="l" depth="1" NCoef="0" IVar="4" Cut="2.0263638496398926e+00" cType="1" res="-3.7039727903902531e-03" rms="4.0147078037261963e-01" purity="3.3211803436279297e-01" nType="0">
          <Node pos="l" depth="2" NCoef="0" IVar="3" Cut="4.4408515095710754e-01" cType="1" res="-1.2901223963126540e-03" rms="4.1780936717987061e-01" purity="3.6451515555381775e-01" nType="0">
            <Node pos="l" depth="3" NCoef="0" IVar="6" Cut="2.2111813724040985e-01" cType="1" res="-1.1964487843215466e-02" rms="2.9807341098785400e-01" purity="1.0914322733879089e-01" nType="0">
              <Node pos="l" depth="4" NCoef="0" IVar="3" Cut="1.4369490742683411e-01" cType="1" res="-1.5951473265886307e-02" rms="2.7694520354270935e-01" purity="9.0312473475933075e-02" nType="0">
                <Node pos="l" depth="5" NCoef="0" IVar="-1" Cut="0.0000000000000000e+00" cType="1" res="4.8071197234094143e-03" rms="2.8175979852676392e-01" purity="9.6760913729667664e-02" nType="-99"/>
                <Node pos="r" depth="5" NCoef="0" IVar="0" Cut="6.7811453342437744e-01" cType="1" res="-1.8339935690164566e-02" rms="2.7641052007675171e-01" purity="8.9783623814582825e-02" nType="0">
                  <Node pos="l" depth="6" NCoef="0" IVar="3" Cut="3.8600352406501770e-01" cType="1" res="1.1916782706975937e-02" rms="3.9532783627510071e-01" purity="2.0580863952636719e-01" nType="0">
                    <Node pos="l" depth="7" NCoef="0" IVar="-1" Cut="0.0000000000000000e+00" cType="1" res="3.3455139491707087e-03" rms="3.6708301305770874e-01" purity="1.7106999456882477e-01" nType="-99"/>
                    <Node pos="r" depth="7" NCoef="0" IVar="-1" Cut="0.0000000000000000e+00" cType="1" res="1.1314076837152243e-03" rms="4.2108461260795593e-01" purity="2.3978723585605621e-01" nType="-99"/>
                  </Node>
                  <Node pos="r" depth="6" NCoef="0" IVar="2" Cut="1.1814280700683594e+02" cType="1" res="-2.3591792210936546e-02" rms="2.4970133602619171e-01" purity="6.9644413888454437e-02" nType="0">
                    <Node pos="l" depth="7" NCoef="0" IVar="-1" Cut="0.0000000000000000e+00" cType="1" res="-4.9036908894777298e-03" rms="2.5655004382133484e-01" purity="7.4725233018398285e-02" nType="-99"/>
                    <Node pos="r" depth="7" NCoef="0" IVar="-1" Cut="0.0000000000000000e+00" cType="1" res="-9.2205833643674850e-03" rms="2.4699203670024872e-01" purity="6.7748099565505981e-02" nType="-99"/>
                  </Node>
                </Node>
              </Node>
              <Node pos="r" depth="4" NCoef="0" IVar="4" Cut="-4.9753260612487793e-01" cType="1" res="1.2092224322259426e-02" rms="4.0184399485588074e-01" purity="2.2276440262794495e-01" nType="0">
                <Node pos="l" depth="5" NCoef="0" IVar="-1" Cut="0.0000000000000000e+00" cType="1" res="4.4874111190438271e-03" rms="4.2773616313934326e-01" purity="2.6511219143867493e-01" nType="-99"/>
                <Node pos="r" depth="5" NCoef="0" IVar="-1" Cut="0.0000000000000000e+00" cType="1" res="-1.9711744971573353e-03" rms="3.6641007661819458e-01" purity="1.7097753286361694e-01" nType="-99"/>
              </Node>
            </Node>
            <Node pos="r" depth="3" NCoef="0" IVar="0" Cut="9.4579273462295532e-01" cType="1" res="3.6282206419855356e-03" rms="4.6258306503295898e-01" purity="4.8218080401420593e-01" nType="0">
              <Node pos="l" depth="4" NCoef="0" IVar="1" Cut="8.4461134672164917e-01" cType="1" res="6.0791871510446072e-03" rms="4.6757939457893372e-01" purity="5.0110387802124023e-01" nType="0">
                <Node pos="l" depth="5" NCoef="0" IVar="5" Cut="-2.0407063961029053e+00" cType="1" res="9.7922515124082565e-03" rms="4.6916276216506958e-01" purity="5.1516622304916382e-01" nType="0">
                  <Node pos="l" depth="6" NCoef="0" IVar="4" Cut="9.4408653676509857e-02" cType="1" res="1.6159119084477425e-02" rms="4.6886777877807617e-01" purity="5.5595803260803223e-01" nType="0">
                    <Node pos="l" depth="7" NCoef="0" IVar="-1" Cut="0.0000000000000000e+00" cType="1" res="1.0877925669774413e-03" rms="4.6788749098777771e-01" purity="5.5775481462478638e-01" nType="-99"/>
                    <Node pos="r" depth="7" NCoef="0" IVar="-1" Cut="0.0000000000000000e+00" cType="1" res="4.6855797991156578e-03" rms="4.7497671842575073e-01" purity="5.4196023941040039e-01" nType="-99"/>
                  </Node>
                  <Node pos="r" depth="6" NCoef="0" IVar="0" Cut="3.0499136075377464e-02" cType="1" res="1.2585740769281983e-03" rms="4.6942242980003357e-01" purity="4.6049183607101440e-01" nType="0">
                    <Node pos="l" depth="7" NCoef="0" IVar="-1" Cut="0.0000000000000000e+00" cType="1" res="9.8905269987881184e-04" rms="4.8086708784103394e-01" purity="5.5662631988525391e-01" nType="-99"/>
                    <Node pos="r" depth="7" NCoef="0" IVar="-1" Cut="0.0000000000000000e+00" cType="1" res="-9.4338099006563425e-04" rms="4.5728862285614014e-01" purity="3.6288976669311523e-01" nType="-99"/>
                  </Node>
                </Node>
                <Node pos="r" depth="5" NCoef="0" IVar="0" Cut="3.0484156683087349e-02" cType="1" res="-3.5117596387863159e-02" rms="4.4757586717605591e-01" purity="3.4508126974105835e-01" nType="0">
                  <Node pos="l" depth="6" NCoef="0" IVar="-1" Cut="0.0000000000000000e+00" cType="1" res="2.8098237817175686e-04" rms="4.8712939023971558e-01" purity="4.8636803030967712e-01" nType="-99"/>
                  <Node pos="r" depth="6" NCoef="0" IVar="-1" Cut="0.0000000000000000e+00" cType="1" res="-8.4330271929502487e-03" rms="4.1010096669197083e-01" purity="2.3053921759128571e-01" nType="-99"/>
                </Node>
              </Node>
              <Node pos="r" depth="4" NCoef="0" IVar="2" Cut="1.6287409973144531e+02" cType="1" res="-3.4844841808080673e-02" rms="3.7344044446945190e-01" purity="1.8514399230480194e-01" nType="0">
                <Node pos="l" depth="5" NCoef="0" IVar="-1" Cut="0.0000000000000000e+00" cType="1" res="-2.3006948176771402e-03" rms="3.9453309774398804e-01" purity="2.2075633704662323e-01" nType="-99"/>
                <Node pos="r" depth="5" NCoef="0" IVar="-1" Cut="0.0000000000000000e+00" cType="1" res="-9.6328910440206528e-03" rms="3.4686270356178284e-01" purity="1.4493878185749054e-01" nType="-99"/>
              </Node>
            </Node>
          </Node>
          <Node pos="r" depth="2" NCoef="0" IVar="3" Cut="5.0510394573211670e-01" cType="1" res="-2.4568868800997734e-02" rms="2.1210339665412903e-01" purity="5.2083030343055725e-02" nType="0">
            <Node pos="l" depth="3" NCoef="0" IVar="3" Cut="2.2000247240066528e-01" cType="1" res="-1.5258143655955791e-02" rms="1.8817424774169922e-01" purity="4.0196735411882401e-02" nType="0">
              <Node pos="l" depth="4" NCoef="0" IVar="-1" Cut="0.0000000000000000e+00" cType="1" res="3.3363858237862587e-03" rms="2.5869083404541016e-01" purity="8.1802353262901306e-02" nType="-99"/>
              <Node pos="r" depth="4" NCoef="0" IVar="4" Cut="2.9097588062286377e+00" cType="1" res="-2.2315515205264091e-02" rms="1.5982906520366669e-01" purity="2.7453120797872543e-02" nType="0">
                <Node pos="l" depth="5" NCoef="0" IVar="-1" Cut="0.0000000000000000e+00" cType="1" res="-6.1792819760739803e-03" rms="2.0514439046382904e-01" purity="4.5837491750717163e-02" nType="-99"/>
                <Node pos="r" depth="5" NCoef="0" IVar="3" Cut="3.4879511594772339e-01" cType="1" res="-2.8036624193191528e-02" rms="1.2731879949569702e-01" purity="1.7177684232592583e-02" nType="0">
                  <Node pos="l" depth="6" NCoef="0" IVar="-1" Cut="0.0000000000000000e+00" cType="1" res="-1.5800166875123978e-02" rms="1.3830411434173584e-01" purity="2.0586211234331131e-02" nType="-99"/>
                  <Node pos="r" depth="6" NCoef="0" IVar="-1" Cut="0.0000000000000000e+00" cType="1" res="-2.1137461066246033e-02" rms="1.0807768255472183e-01" purity="1.1987911537289619e-02" nType="-99"/>
                </Node>
              </Node>
            </Node>
            <Node pos="r" depth="3" NCoef="0" IVar="-1" Cut="0.0000000000000000e+00" cType="1" res="-1.2472080066800117e-02" rms="2.9319924116134644e-01" purity="1.0560021549463272e-01" nType="-99"/>
          </Node>
        </Node>
        <Node pos="r" depth="1" NCoef="0" IVar="5" Cut="-2.2356259822845459e+00" cType="1" res="2.0004367455840111e-02" rms="4.1248854994773865e-01" purity="7.6157677173614502e-01" nType="0">
          <Node pos="l" depth="2" NCoef="0" IVar="4" Cut="-7.6893258094787598e-01" cType="1" res="2.5078270584344864e-02" rms="3.9205271005630493e-01" purity="8.0203181505203247e-01" nType="0">
            <Node pos="l" depth="3" NCoef="0" IVar="4" Cut="-2.0504431724548340e+00" cType="1" res="1.9356288015842438e-02" rms="4.1187232732772827e-01" purity="7.7323549985885620e-01" nType="0">
              <Node pos="l" depth="4" NCoef="0" IVar="4" Cut="-2.4432542324066162e+00" cType="1" res="3.5020247101783752e-02" rms="4.0328890085220337e-01" purity="7.8733152151107788e-01" nType="0">
                <Node pos="l" depth="5" NCoef="0" IVar="4" Cut="-2.9182760715484619e+00" cType="1" res="3.9729148149490356e-02" rms="3.9599102735519409e-01" purity="7.9958099126815796e-01" nType="0">
                  <Node pos="l" depth="6" NCoef="0" IVar="-1" Cut="0.0000000000000000e+00" cType="1" res="5.1846024580299854e-03" rms="3.8574567437171936e-01" purity="8.1430333852767944e-01" nType="-99"/>
                  <Node pos="r" depth="6" NCoef="0" IVar="-1" Cut="0.0000000000000000e+00" cType="1" res="4.0412070229649544e-03" rms="4.0387117862701416e-01" purity="7.8793293237686157e-01" nType="-99"/>
                </Node>
                <Node pos="r" depth="5" NCoef="0" IVar="-1" Cut="0.0000000000000000e+00" cType="1" res="2.3639011196792126e-03" rms="4.2136862874031067e-01" purity="7.5558787584304810e-01" nType="-99"/>
              </Node>
              <Node pos="r" depth="4" NCoef="0" IVar="4" Cut="-9.3437933921813965e-01" cType="1" res="1.0092246346175671e-02" rms="4.1658851504325867e-01" purity="7.6489877700805664e-01" nType="0">
                <Node pos="l" depth="5" NCoef="0" IVar="4" Cut="-1.8344198465347290e+00" cType="1" res="5.1682330667972565e-03" rms="4.2657425999641418e-01" purity="7.4950516223907471e-01" nType="0">
                  <Node pos="l" depth="6" NCoef="0" IVar="-1" Cut="0.0000000000000000e+00" cType="1" res="-1.0320444125682116e-03" rms="4.4119361042976379e-01" purity="7.1928077936172485e-01" nType="-99"/>
                  <Node pos="r" depth="6" NCoef="0" IVar="4" Cut="-1.3987556695938110e+00" cType="1" res="9.8231574520468712e-03" rms="4.2217880487442017e-01" purity="7.5816142559051514e-01" nType="0">
                    <Node pos="l" depth="7" NCoef="0" IVar="-1" Cut="0.0000000000000000e+00" cType="1" res="1.6230142209678888e-03" rms="4.2606016993522644e-01" purity="7.5402289628982544e-01" nType="-99"/>
                    <Node pos="r" depth="7" NCoef="0" IVar="-1" Cut="0.0000000000000000e+00" cType="1" res="3.7262050318531692e-04" rms="4.1935825347900391e-01" purity="7.6102513074874878e-01" nType="-99"/>
                  </Node>
                </Node>
                <Node pos="r" depth="5" NCoef="0" IVar="-1" Cut="0.0000000000000000e+00" cType="1" res="2.9934970661997795e-03" rms="3.8020461797714233e-01" purity="8.1723892688751221e-01" nType="-99"/>
              </Node>
            </Node>
            <Node pos="r" depth="3" NCoef="0" IVar="3" Cut="9.7859561443328857e-01" cType="1" res="2.9617564752697945e-02" rms="3.7552443146705627e-01" purity="8.2487612962722778e-01" nType="0">
              <Node pos="l" depth="4" NCoef="0" IVar="-1" Cut="0.0000000000000000e+00" cType="1" res="-1.1040543176932260e-04" rms="4.2130875587463379e-01" purity="7.6256614923477173e-01" nType="-99"/>
              <Node pos="r" depth="4" NCoef="0" IVar="5" Cut="-3.1312785148620605e+00" cType="1" res="3.2409772276878357e-02" rms="3.7094184756278992e-01" purity="8.3055919408798218e-01" nType="0">
                <Node pos="l" depth="5" NCoef="0" IVar="1" Cut="-6.6641099750995636e-02" cType="1" res="4.1111160069704056e-02" rms="3.4950304031372070e-01" purity="8.5437887907028198e-01" nType="0">
                  <Node pos="l" depth="6" NCoef="0" IVar="-1" Cut="0.0000000000000000e+00" cType="1" res="6.2620453536510468e-03" rms="3.2612696290016174e-01" purity="8.7759506702423096e-01" nType="-99"/>
                  <Node pos="r" depth="6" NCoef="0" IVar="-1" Cut="0.0000000000000000e+00" cType="1" res="4.7999485395848751e-03" rms="3.6097368597984314e-01" purity="8.4236878156661987e-01" nType="-99"/>
                </Node>
                <Node pos="r" depth="5" NCoef="0" IVar="5" Cut="-2.6979110240936279e+00" cType="1" res="2.9046952724456787e-02" rms="3.7884891033172607e-01" purity="8.2135367393493652e-01" nType="0">
                  <Node pos="l" depth="6" NCoef="0" IVar="5" Cut="-3.0194454193115234e+00" cType="1" res="3.6079909652471542e-02" rms="3.6446765065193176e-01" purity="8.3932417631149292e-01" nType="0">
                    <Node pos="l" depth="7" NCoef="0" IVar="-1" Cut="0.0000000000000000e+00" cType="1" res="5.9977560304105282e-03" rms="3.4554088115692139e-01" purity="8.5949170589447021e-01" nType="-99"/>
                    <Node pos="r" depth="7" NCoef="0" IVar="-1" Cut="0.0000000000000000e+00" cType="1" res="3.7308509927242994e-03" rms="3.7188661098480225e-01" purity="8.3100312948226929e-01" nType="-99"/>
                  </Node>
                  <Node pos="r" depth="6" NCoef="0" IVar="1" Cut="-1.5643326565623283e-02" cType="1" res="1.9329955801367760e-02" rms="3.9765965938568115e-01" purity="7.9652500152587891e-01" nType="0">
                    <Node pos="l" depth="7" NCoef="0" IVar="-1" Cut="0.0000000000000000e+00" cType="1" res="3.7751146592199802e-03" rms="3.7660995125770569e-01" purity="8.2589906454086304e-01" nType="-99"/>
                    <Node pos="r" depth="7" NCoef="0" IVar="-1" Cut="0.0000000000000000e+00" cType="1" res="1.0399117600172758e-03" rms="4.1304522752761841e-01" purity="7.7364432811737061e-01" nType="-99"/>
                  </Node>
                </Node>
              </Node>
            </Node>
          </Node>
          <Node pos="r" depth="2" NCoef="0" IVar="5" Cut="-4.0360161662101746e-01" cType="1" res="1.0037699714303017e-02" rms="4.4976979494094849e-01" purity="6.8211114406585693e-01" nType="0">
            <Node pos="l" depth="3" NCoef="0" IVar="5" Cut="-1.9400793313980103e+00" cType="1" res="1.3150992803275585e-02" rms="4.4695627689361572e-01" purity="7.0343512296676636e-01" nType="0">
              <Node pos="l" depth="4" NCoef="0" IVar="3" Cut="9.7851264476776123e-01" cType="1" res="2.2333478555083275e-02" rms="4.2172032594680786e-01" purity="7.5797647237777710e-01" nType="0">
                <Node pos="l" depth="5" NCoef="0" IVar="-1" Cut="0.0000000000000000e+00" cType="1" res="1.1685597710311413e-03" rms="4.4225105643272400e-01" purity="7.2768515348434448e-01" nType="-99"/>
                <Node pos="r" depth="5" NCoef="0" IVar="5" Cut="-2.0926556587219238e+00" cType="1" res="2.7185779064893723e-02" rms="4.1215339303016663e-01" purity="7.7146941423416138e-01" nType="0">
                  <Node pos="l" depth="6" NCoef="0" IVar="-1" Cut="0.0000000000000000e+00" cType="1" res="3.2957503572106361e-03" rms="4.0572679042816162e-01" purity="7.8292942047119141e-01" nType="-99"/>
                  <Node pos="r" depth="6" NCoef="0" IVar="-1" Cut="0.0000000000000000e+00" cType="1" res="2.1781977266073227e-03" rms="4.1892325878143311e-01" purity="7.5907456874847412e-01" nType="-99"/>
                </Node>
              </Node>
              <Node pos="r" depth="4" NCoef="0" IVar="4" Cut="-1.2598079442977905e-01" cType="1" res="8.6679207161068916e-03" rms="4.5870617032051086e-01" purity="6.7680686712265015e-01" nType="0">
                <Node pos="l" depth="5" NCoef="0" IVar="4" Cut="-1.0736253261566162e+00" cType="1" res="4.3847467750310898e-03" rms="4.6368217468261719e-01" purity="6.6815900802612305e-01" nType="0">
                  <Node pos="l" depth="6" NCoef="0" IVar="5" Cut="-1.4941112995147705e+00" cType="1" res="1.4241016469895840e-02" rms="4.6516388654708862e-01" purity="6.7169052362442017e-01" nType="0">
                    <Node pos="l" depth="7" NCoef="0" IVar="-1" Cut="0.0000000000000000e+00" cType="1" res="-1.5104300109669566e-04" rms="4.6221816539764404e-01" purity="6.8002885580062866e-01" nType="-99"/>
                    <Node pos="r" depth="7" NCoef="0" IVar="-1" Cut="0.0000000000000000e+00" cType="1" res="2.7177094016224146e-03" rms="4.6774640679359436e-01" purity="6.6257899999618530e-01" nType="-99"/>
                  </Node>
                  <Node pos="r" depth="6" NCoef="0" IVar="5" Cut="-1.4951184988021851e+00" cType="1" res="-6.6135786473751068e-03" rms="4.6177488565444946e-01" purity="6.6421836614608765e-01" nType="0">
                    <Node pos="l" depth="7" NCoef="0" IVar="-1" Cut="0.0000000000000000e+00" cType="1" res="3.4584820969030261e-04" rms="4.4714626669883728e-01" purity="7.0866811275482178e-01" nType="-99"/>
                    <Node pos="r" depth="7" NCoef="0" IVar="-1" Cut="0.0000000000000000e+00" cType="1" res="-1.4998243423178792e-03" rms="4.7579252719879150e-01" purity="6.1958557367324829e-01" nType="-99"/>
                  </Node>
                </Node>
                <Node pos="r" depth="5" NCoef="0" IVar="1" Cut="1.3806287944316864e-01" cType="1" res="1.5478813089430332e-02" rms="4.5059666037559509e-01" purity="6.9055825471878052e-01" nType="0">
                  <Node pos="l" depth="6" NCoef="0" IVar="-1" Cut="0.0000000000000000e+00" cType="1" res="2.7253807056695223e-03" rms="4.4094523787498474e-01" purity="7.2189867496490479e-01" nType="-99"/>
                  <Node pos="r" depth="6" NCoef="0" IVar="-1" Cut="0.0000000000000000e+00" cType="1" res="-3.3944527967832983e-04" rms="4.6495369076728821e-01" purity="6.4051967859268188e-01" nType="-99"/>
                </Node>
              </Node>
            </Node>
            <Node pos="r" depth="3" NCoef="0" IVar="-1" Cut="0.0000000000000000e+00" cType="1" res="-1.9887443631887436e-03" rms="4.7645917534828186e-01" purity="4.6374472975730896e-01" nType="-99"/>
          </Node>
        </Node>
      </Node>
    </BinaryTree>
    <BinaryTree type="DecisionTree" boostWeight="1.0000000000000000e+00" itree="69">
      <Node pos="s" depth="0" NCoef="0" IVar="3" Cut="8.6920857429504395e-01" cType="1" res="7.6114688999950886e-03" rms="4.0481445193290710e-01" purity="5.0205433368682861e-01" nType="0">
        <Node pos="l" depth="1" NCoef="0" IVar="3" Cut="5.0476658344268799e-01" cType="1" res="-9.2707626754418015e-04" rms="4.0219238400459290e-01" purity="3.4355866909027100e-01" nType="0">
          <Node pos="l" depth="2" NCoef="0" IVar="6" Cut="2.3024281859397888e-01" cType="1" res="-1.0251007042825222e-02" rms="2.9724439978599548e-01" purity="1.1168155819177628e-01" nType="0">
            <Node pos="l" depth="3" NCoef="0" IVar="3" Cut="3.9082029461860657e-01" cType="1" res="-1.3715961948037148e-02" rms="2.8309315443038940e-01" purity="9.9742479622364044e-02" nType="0">
              <Node pos="l" depth="4" NCoef="0" IVar="7" Cut="4.0000000000000000e+00" cType="1" res="-1.8777392804622650e-02" rms="2.3352469503879547e-01" purity="6.2348105013370514e-02" nType="0">
                <Node pos="l" depth="5" NCoef="0" IVar="-1" Cut="0.0000000000000000e+00" cType="1" res="1.0857206070795655e-03" rms="3.1621468067169189e-01" purity="1.2331032007932663e-01" nType="-99"/>
                <Node pos="r" depth="5" NCoef="0" IVar="3" Cut="3.1520605087280273e-01" cType="1" res="-2.2070785984396935e-02" rms="2.1885783970355988e-01" purity="5.3565427660942078e-02" nType="0">
                  <Node pos="l" depth="6" NCoef="0" IVar="2" Cut="4.5233160400390625e+02" cType="1" res="-2.7217756956815720e-02" rms="1.9156628847122192e-01" purity="3.9335768669843674e-02" nType="0">
                    <Node pos="l" depth="7" NCoef="0" IVar="-1" Cut="0.0000000000000000e+00" cType="1" res="-1.3093829154968262e-02" rms="1.8757782876491547e-01" purity="3.7698931992053986e-02" nType="-99"/>
                    <Node pos="r" depth="7" NCoef="0" IVar="-1" Cut="0.0000000000000000e+00" cType="1" res="-1.3842293992638588e-02" rms="2.0507675409317017e-01" purity="4.5241501182317734e-02" nType="-99"/>
                  </Node>
                  <Node pos="r" depth="6" NCoef="0" IVar="0" Cut="1.0046815872192383e+00" cType="1" res="-1.2234660796821117e-02" rms="2.6297771930694580e-01" purity="8.0759026110172272e-02" nType="0">
                    <Node pos="l" depth="7" NCoef="0" IVar="-1" Cut="0.0000000000000000e+00" cType="1" res="2.0576636306941509e-03" rms="3.3123946189880371e-01" purity="1.3652990758419037e-01" nType="-99"/>
                    <Node pos="r" depth="7" NCoef="0" IVar="-1" Cut="0.0000000000000000e+00" cType="1" res="-8.3173261955380440e-03" rms="2.2623814642429352e-01" purity="5.6410890072584152e-02" nType="-99"/>
                  </Node>
                </Node>
              </Node>
              <Node pos="r" depth="4" NCoef="0" IVar="7" Cut="5.0000000000000000e+00" cType="1" res="-4.3382630683481693e-03" rms="3.5585519671440125e-01" purity="1.6785888373851776e-01" nType="0">
                <Node pos="l" depth="5" NCoef="0" IVar="6" Cut="1.3416878879070282e-01" cType="1" res="-1.4471529051661491e-02" rms="3.4568792581558228e-01" purity="1.5577653050422668e-01" nType="0">
                  <Node pos="l" depth="6" NCoef="0" IVar="2" Cut="2.6143026733398438e+02" cType="1" res="-2.5150842964649200e-02" rms="3.1300503015518188e-01" purity="1.1735911667346954e-01" nType="0">
                    <Node pos="l" depth="7" NCoef="0" IVar="-1" Cut="0.0000000000000000e+00" cType="1" res="-3.7639786023646593e-03" rms="3.2505989074707031e-01" purity="1.2822583317756653e-01" nType="-99"/>
                    <Node pos="r" depth="7" NCoef="0" IVar="-1" Cut="0.0000000000000000e+00" cType="1" res="-1.0620417073369026e-02" rms="2.8104844689369202e-01" purity="9.1341041028499603e-02" nType="-99"/>
                  </Node>
                  <Node pos="r" depth="6" NCoef="0" IVar="-1" Cut="0.0000000000000000e+00" cType="1" res="1.7098973039537668e-03" rms="4.1428926587104797e-01" purity="2.5055474042892456e-01" nType="-99"/>
                </Node>
                <Node pos="r" depth="5" NCoef="0" IVar="5" Cut="-9.4504201412200928e-01" cType="1" res="9.8570231348276138e-03" rms="3.6959546804428101e-01" purity="1.8523751199245453e-01" nType="0">
                  <Node pos="l" depth="6" NCoef="0" IVar="4" Cut="-1.1667620390653610e-01" cType="1" res="1.9266501069068909e-02" rms="4.0579247474670410e-01" purity="2.2976924479007721e-01" nType="0">
                    <Node pos="l" depth="7" NCoef="0" IVar="-1" Cut="0.0000000000000000e+00" cType="1" res="-2.3321186745306477e-05" rms="3.9554354548454285e-01" purity="2.1169988811016083e-01" nType="-99"/>
                    <Node pos="r" depth="7" NCoef="0" IVar="-1" Cut="0.0000000000000000e+00" cType="1" res="6.2283752486109734e-03" rms="4.1585242748260498e-01" purity="2.4991017580032349e-01" nType="-99"/>
                  </Node>
                  <Node pos="r" depth="6" NCoef="0" IVar="-1" Cut="0.0000000000000000e+00" cType="1" res="-3.5738602746278048e-03" rms="2.6835900545120239e-01" purity="8.3814278244972229e-02" nType="-99"/>
                </Node>
              </Node>
            </Node>
            <Node pos="r" depth="3" NCoef="0" IVar="2" Cut="9.4486383056640625e+02" cType="1" res="1.8470302224159241e-02" rms="3.9433977007865906e-01" purity="2.1064575016498566e-01" nType="0">
              <Node pos="l" depth="4" NCoef="0" IVar="-1" Cut="0.0000000000000000e+00" cType="1" res="1.8184510990977287e-03" rms="3.8520872592926025e-01" purity="1.9985342025756836e-01" nType="-99"/>
              <Node pos="r" depth="4" NCoef="0" IVar="-1" Cut="0.0000000000000000e+00" cType="1" res="5.5840592831373215e-03" rms="4.1016590595245361e-01" purity="2.3049336671829224e-01" nType="-99"/>
            </Node>
          </Node>
          <Node pos="r" depth="2" NCoef="0" IVar="1" Cut="1.2611070871353149e+00" cType="1" res="5.9008710086345673e-03" rms="4.6411505341529846e-01" purity="5.1336300373077393e-01" nType="0">
            <Node pos="l" depth="3" NCoef="0" IVar="5" Cut="5.8106863498687744e-01" cType="1" res="8.7693752720952034e-03" rms="4.6507316827774048e-01" purity="5.2203559875488281e-01" nType="0">
              <Node pos="l" depth="4" NCoef="0" IVar="0" Cut="8.4595108032226562e-01" cType="1" res="1.1146367527544498e-02" rms="4.6952608227729797e-01" purity="5.3651624917984009e-01" nType="0">
                <Node pos="l" depth="5" NCoef="0" IVar="7" Cut="5.0000000000000000e+00" cType="1" res="9.1573316603899002e-03" rms="3.6092624068260193e-01" purity="5.4840236902236938e-01" nType="0">
                  <Node pos="l" depth="6" NCoef="0" IVar="1" Cut="9.7279176115989685e-02" cType="1" res="1.1036111041903496e-02" rms="4.7084122896194458e-01" purity="5.5427891016006470e-01" nType="0">
                    <Node pos="l" depth="7" NCoef="0" IVar="-1" Cut="0.0000000000000000e+00" cType="1" res="1.5798972453922033e-03" rms="4.6888816356658936e-01" purity="5.9315872192382812e-01" nType="-99"/>
                    <Node pos="r" depth="7" NCoef="0" IVar="-1" Cut="0.0000000000000000e+00" cType="1" res="2.1205566008575261e-04" rms="4.7337397933006287e-01" purity="5.0081712007522583e-01" nType="-99"/>
                  </Node>
                  <Node pos="r" depth="6" NCoef="0" IVar="-1" Cut="0.0000000000000000e+00" cType="1" res="4.9875858239829540e-03" rms="4.7621873021125793e-01" purity="4.3726208806037903e-01" nType="-99"/>
                </Node>
                <Node pos="r" depth="5" NCoef="0" IVar="-1" Cut="0.0000000000000000e+00" cType="1" res="-3.7256784271448851e-03" rms="4.2733234167098999e-01" purity="2.6203435659408569e-01" nType="-99"/>
              </Node>
              <Node pos="r" depth="4" NCoef="0" IVar="-1" Cut="0.0000000000000000e+00" cType="1" res="-1.0198207572102547e-02" rms="3.1194981932640076e-01" purity="1.2347384542226791e-01" nType="-99"/>
            </Node>
            <Node pos="r" depth="3" NCoef="0" IVar="-1" Cut="0.0000000000000000e+00" cType="1" res="-6.1177802272140980e-03" rms="4.3744531273841858e-01" purity="3.2054290175437927e-01" nType="-99"/>
          </Node>
        </Node>
        <Node pos="r" depth="1" NCoef="0" IVar="5" Cut="-9.7360891103744507e-01" cType="1" res="2.1893382072448730e-02" rms="4.0876421332359314e-01" purity="7.6716065406799316e-01" nType="0">
          <Node pos="l" depth="2" NCoef="0" IVar="5" Cut="-2.8462948799133301e+00" cType="1" res="2.4203861132264137e-02" rms="4.0273541212081909e-01" purity="7.8390717506408691e-01" nType="0">
            <Node pos="l" depth="3" NCoef="0" IVar="4" Cut="-3.6330628395080566e-01" cType="1" res="3.2265581190586090e-02" rms="3.7617462873458862e-01" purity="8.2320630550384521e-01" nType="0">
              <Node pos="l" depth="4" NCoef="0" IVar="4" Cut="-2.3946056365966797e+00" cType="1" res="2.7261901646852493e-02" rms="3.8790270686149597e-01" purity="8.0798423290252686e-01" nType="0">
                <Node pos="l" depth="5" NCoef="0" IVar="-1" Cut="0.0000000000000000e+00" cType="1" res="5.2376189269125462e-03" rms="3.8390597701072693e-01" purity="8.1694948673248291e-01" nType="-99"/>
                <Node pos="r" depth="5" NCoef="0" IVar="4" Cut="-1.6737184524536133e+00" cType="1" res="2.4137586355209351e-02" rms="3.8855126500129700e-01" purity="8.0633783340454102e-01" nType="0">
                  <Node pos="l" depth="6" NCoef="0" IVar="-1" Cut="0.0000000000000000e+00" cType="1" res="3.6077512777410448e-04" rms="4.3199265003204346e-01" purity="7.4188989400863647e-01" nType="-99"/>
                  <Node pos="r" depth="6" NCoef="0" IVar="3" Cut="9.9100100994110107e-01" cType="1" res="2.9688192531466484e-02" rms="3.7550291419029236e-01" purity="8.2410544157028198e-01" nType="0">
                    <Node pos="l" depth="7" NCoef="0" IVar="-1" Cut="0.0000000000000000e+00" cType="1" res="2.1705634426325560e-03" rms="3.9237090945243835e-01" purity="8.0223208665847778e-01" nType="-99"/>
                    <Node pos="r" depth="7" NCoef="0" IVar="-1" Cut="0.0000000000000000e+00" cType="1" res="4.1770827956497669e-03" rms="3.6393076181411743e-01" purity="8.3836233615875244e-01" nType="-99"/>
                  </Node>
                </Node>
              </Node>
              <Node pos="r" depth="4" NCoef="0" IVar="4" Cut="-1.3926286995410919e-01" cType="1" res="4.1415851563215256e-02" rms="3.5354000329971313e-01" purity="8.5104304552078247e-01" nType="0">
                <Node pos="l" depth="5" NCoef="0" IVar="-1" Cut="0.0000000000000000e+00" cType="1" res="6.6002886742353439e-03" rms="3.4129062294960022e-01" purity="8.6333262920379639e-01" nType="-99"/>
                <Node pos="r" depth="5" NCoef="0" IVar="4" Cut="7.0352725684642792e-02" cType="1" res="3.4312926232814789e-02" rms="3.6122673749923706e-01" purity="8.4292662143707275e-01" nType="0">
                  <Node pos="l" depth="6" NCoef="0" IVar="-1" Cut="0.0000000000000000e+00" cType="1" res="4.4805281795561314e-03" rms="3.5885030031204224e-01" purity="8.4585064649581909e-01" nType="-99"/>
                  <Node pos="r" depth="6" NCoef="0" IVar="-1" Cut="0.0000000000000000e+00" cType="1" res="4.2568431235849857e-03" rms="3.6445260047912598e-01" purity="8.3892542123794556e-01" nType="-99"/>
                </Node>
              </Node>
            </Node>
            <Node pos="r" depth="3" NCoef="0" IVar="5" Cut="-1.6381163597106934e+00" cType="1" res="1.8813643604516983e-02" rms="4.1947108507156372e-01" purity="7.5763100385665894e-01" nType="0">
              <Node pos="l" depth="4" NCoef="0" IVar="4" Cut="-4.1709899902343750e-01" cType="1" res="2.1230725571513176e-02" rms="4.1191235184669495e-01" purity="7.7264434099197388e-01" nType="0">
                <Node pos="l" depth="5" NCoef="0" IVar="5" Cut="-2.6124563217163086e+00" cType="1" res="1.5928618609905243e-02" rms="4.2183259129524231e-01" purity="7.5645738840103149e-01" nType="0">
                  <Node pos="l" depth="6" NCoef="0" IVar="4" Cut="-9.8747265338897705e-01" cType="1" res="2.8637556359171867e-02" rms="3.9937582612037659e-01" purity="7.9222154617309570e-01" nType="0">
                    <Node pos="l" depth="7" NCoef="0" IVar="-1" Cut="0.0000000000000000e+00" cType="1" res="2.3989651817828417e-03" rms="4.1388386487960815e-01" purity="7.7166980504989624e-01" nType="-99"/>
                    <Node pos="r" depth="7" NCoef="0" IVar="-1" Cut="0.0000000000000000e+00" cType="1" res="3.9951093494892120e-03" rms="3.7671390175819397e-01" purity="8.2267808914184570e-01" nType="-99"/>
                  </Node>
                  <Node pos="r" depth="6" NCoef="0" IVar="3" Cut="9.2976546287536621e-01" cType="1" res="1.0376881808042526e-02" rms="4.3115815520286560e-01" purity="7.4083423614501953e-01" nType="0">
                    <Node pos="l" depth="7" NCoef="0" IVar="-1" Cut="0.0000000000000000e+00" cType="1" res="2.2316710092127323e-03" rms="4.3092161417007446e-01" purity="7.4229770898818970e-01" nType="-99"/>
                    <Node pos="r" depth="7" NCoef="0" IVar="-1" Cut="0.0000000000000000e+00" cType="1" res="5.1538640400394797e-04" rms="4.3118426203727722e-01" purity="7.4012804031372070e-01" nType="-99"/>
                  </Node>
                </Node>
                <Node pos="r" depth="5" NCoef="0" IVar="1" Cut="7.8152500092983246e-02" cType="1" res="2.8536142781376839e-02" rms="3.9772310853004456e-01" purity="7.9494732618331909e-01" nType="0">
                  <Node pos="l" depth="6" NCoef="0" IVar="4" Cut="-6.2750749289989471e-02" cType="1" res="3.7177540361881256e-02" rms="3.8063916563987732e-01" purity="8.2156789302825928e-01" nType="0">
                    <Node pos="l" depth="7" NCoef="0" IVar="-1" Cut="0.0000000000000000e+00" cType="1" res="5.1553021185100079e-03" rms="3.7355238199234009e-01" purity="8.3053165674209595e-01" nType="-99"/>
                    <Node pos="r" depth="7" NCoef="0" IVar="-1" Cut="0.0000000000000000e+00" cType="1" res="3.6281989887356758e-03" rms="3.8632580637931824e-01" purity="8.1409710645675659e-01" nType="-99"/>
                  </Node>
                  <Node pos="r" depth="6" NCoef="0" IVar="5" Cut="-2.3397083282470703e+00" cType="1" res="1.7648834735155106e-02" rms="4.1800072789192200e-01" purity="7.6140803098678589e-01" nType="0">
                    <Node pos="l" depth="7" NCoef="0" IVar="-1" Cut="0.0000000000000000e+00" cType="1" res="1.5136674046516418e-03" rms="4.1132605075836182e-01" purity="7.7595853805541992e-01" nType="-99"/>
                    <Node pos="r" depth="7" NCoef="0" IVar="-1" Cut="0.0000000000000000e+00" cType="1" res="2.2116701584309340e-03" rms="4.2478322982788086e-01" purity="7.4629384279251099e-01" nType="-99"/>
                  </Node>
                </Node>
              </Node>
              <Node pos="r" depth="4" NCoef="0" IVar="5" Cut="-1.2736788988113403e+00" cType="1" res="5.7052550837397575e-03" rms="4.5807555317878723e-01" purity="6.7621028423309326e-01" nType="0">
                <Node pos="l" depth="5" NCoef="0" IVar="-1" Cut="0.0000000000000000e+00" cType="1" res="4.2828829464269802e-05" rms="4.5644712448120117e-01" purity="6.8004184961318970e-01" nType="-99"/>
                <Node pos="r" depth="5" NCoef="0" IVar="-1" Cut="0.0000000000000000e+00" cType="1" res="1.4067388838157058e-03" rms="4.6094390749931335e-01" purity="6.6904771327972412e-01" nType="-99"/>
              </Node>
            </Node>
          </Node>
          <Node pos="r" depth="2" NCoef="0" IVar="-1" Cut="0.0000000000000000e+00" cType="1" res="-7.9788005677983165e-04" rms="4.8104658722877502e-01" purity="5.4349857568740845e-01" nType="-99"/>
        </Node>
      </Node>
    </BinaryTree>
    <BinaryTree type="DecisionTree" boostWeight="1.0000000000000000e+00" itree="70">
      <Node pos="s" depth="0" NCoef="0" IVar="2" Cut="1.9193353271484375e+02" cType="1" res="5.8963061310350895e-03" rms="4.0580904483795166e-01" purity="5.0020432472229004e-01" nType="0">
        <Node pos="l" depth="1" NCoef="0" IVar="3" Cut="8.4960764646530151e-01" cType="1" res="1.2525238096714020e-02" rms="4.1557738184928894e-01" purity="5.9708255529403687e-01" nType="0">
          <Node pos="l" depth="2" NCoef="0" IVar="6" Cut="4.4357195496559143e-02" cType="1" res="2.2862632758915424e-03" rms="4.1965678334236145e-01" purity="3.9209607243537903e-01" nType="0">
            <Node pos="l" depth="3" NCoef="0" IVar="2" Cut="5.5741641998291016e+01" cType="1" res="-1.5009882859885693e-02" rms="4.2703571915626526e-01" purity="4.1469290852546692e-01" nType="0">
              <Node pos="l" depth="4" NCoef="0" IVar="4" Cut="-1.8907892704010010e+00" cType="1" res="-7.0903485175222158e-04" rms="4.3728959560394287e-01" purity="4.5706915855407715e-01" nType="0">
                <Node pos="l" depth="5" NCoef="0" IVar="6" Cut="2.1496236324310303e-02" cType="1" res="2.1854719147086143e-02" rms="4.6295925974845886e-01" purity="6.1141306161880493e-01" nType="0">
                  <Node pos="l" depth="6" NCoef="0" IVar="-1" Cut="0.0000000000000000e+00" cType="1" res="2.1861717686988413e-04" rms="4.6258151531219482e-01" purity="5.7710134983062744e-01" nType="-99"/>
                  <Node pos="r" depth="6" NCoef="0" IVar="-1" Cut="0.0000000000000000e+00" cType="1" res="3.6486063618212938e-03" rms="4.6252828836441040e-01" purity="6.4494639635086060e-01" nType="-99"/>
                </Node>
                <Node pos="r" depth="5" NCoef="0" IVar="4" Cut="-9.3930530548095703e-01" cType="1" res="-1.3817804865539074e-02" rms="4.2110446095466614e-01" purity="3.6740064620971680e-01" nType="0">
                  <Node pos="l" depth="6" NCoef="0" IVar="-1" Cut="0.0000000000000000e+00" cType="1" res="-4.2493441142141819e-03" rms="4.4484239816665649e-01" purity="4.2433688044548035e-01" nType="-99"/>
                  <Node pos="r" depth="6" NCoef="0" IVar="5" Cut="-1.8097589015960693e+00" cType="1" res="-4.0899170562624931e-03" rms="4.1147673130035400e-01" purity="3.4616279602050781e-01" nType="0">
                    <Node pos="l" depth="7" NCoef="0" IVar="-1" Cut="0.0000000000000000e+00" cType="1" res="1.0965826222673059e-03" rms="4.2900344729423523e-01" purity="4.0201950073242188e-01" nType="-99"/>
                    <Node pos="r" depth="7" NCoef="0" IVar="-1" Cut="0.0000000000000000e+00" cType="1" res="-2.5456328876316547e-03" rms="3.9088675379753113e-01" purity="2.8506404161453247e-01" nType="-99"/>
                  </Node>
                </Node>
              </Node>
              <Node pos="r" depth="4" NCoef="0" IVar="6" Cut="2.5585494935512543e-02" cType="1" res="-2.9298905283212662e-02" rms="4.1604763269424438e-01" purity="3.7235170602798462e-01" nType="0">
                <Node pos="l" depth="5" NCoef="0" IVar="-1" Cut="0.0000000000000000e+00" cType="1" res="-8.4972232580184937e-03" rms="4.0355843305587769e-01" purity="3.2581689953804016e-01" nType="-99"/>
                <Node pos="r" depth="5" NCoef="0" IVar="2" Cut="1.0404705810546875e+02" cType="1" res="-1.9159710034728050e-02" rms="4.1887858510017395e-01" purity="3.8525044918060303e-01" nType="0">
                  <Node pos="l" depth="6" NCoef="0" IVar="3" Cut="6.8842589855194092e-01" cType="1" res="-6.3416424382012337e-05" rms="4.1847214102745056e-01" purity="4.1886022686958313e-01" nType="0">
                    <Node pos="l" depth="7" NCoef="0" IVar="-1" Cut="0.0000000000000000e+00" cType="1" res="-1.7584570450708270e-03" rms="3.5280245542526245e-01" purity="1.9920730590820312e-01" nType="-99"/>
                    <Node pos="r" depth="7" NCoef="0" IVar="-1" Cut="0.0000000000000000e+00" cType="1" res="8.0208870349451900e-04" rms="4.6902555227279663e-01" purity="6.1417907476425171e-01" nType="-99"/>
                  </Node>
                  <Node pos="r" depth="6" NCoef="0" IVar="6" Cut="3.4668870270252228e-02" cType="1" res="-3.5979323089122772e-02" rms="4.1851514577865601e-01" purity="3.5564762353897095e-01" nType="0">
                    <Node pos="l" depth="7" NCoef="0" IVar="-1" Cut="0.0000000000000000e+00" cType="1" res="-7.4522374197840691e-03" rms="4.0680897235870361e-01" purity="3.2544276118278503e-01" nType="-99"/>
                    <Node pos="r" depth="7" NCoef="0" IVar="-1" Cut="0.0000000000000000e+00" cType="1" res="-2.8647885192185640e-03" rms="4.2500644922256470e-01" purity="3.7414985895156860e-01" nType="-99"/>
                  </Node>
                </Node>
              </Node>
            </Node>
            <Node pos="r" depth="3" NCoef="0" IVar="3" Cut="3.5717681050300598e-01" cType="1" res="1.3585997745394707e-02" rms="4.1437548398971558e-01" purity="3.7733334302902222e-01" nType="0">
              <Node pos="l" depth="4" NCoef="0" IVar="6" Cut="1.0220415145158768e-01" cType="1" res="-1.7631556838750839e-02" rms="2.1741326153278351e-01" purity="5.3466074168682098e-02" nType="0">
                <Node pos="l" depth="5" NCoef="0" IVar="3" Cut="2.5391539931297302e-01" cType="1" res="-2.5079926475882530e-02" rms="1.7886555194854736e-01" purity="3.4189101308584213e-02" nType="0">
                  <Node pos="l" depth="6" NCoef="0" IVar="-1" Cut="0.0000000000000000e+00" cType="1" res="-8.6247976869344711e-03" rms="1.9387783110141754e-01" purity="4.1134972125291824e-02" nType="-99"/>
                  <Node pos="r" depth="6" NCoef="0" IVar="-1" Cut="0.0000000000000000e+00" cType="1" res="-1.7768189311027527e-02" rms="1.6569365561008453e-01" purity="2.8752990067005157e-02" nType="-99"/>
                </Node>
                <Node pos="r" depth="5" NCoef="0" IVar="-1" Cut="0.0000000000000000e+00" cType="1" res="-1.7572402721270919e-03" rms="2.7051752805709839e-01" purity="8.6489923298358917e-02" nType="-99"/>
              </Node>
              <Node pos="r" depth="4" NCoef="0" IVar="2" Cut="8.3730384826660156e+01" cType="1" res="2.1081190556287766e-02" rms="4.4865798950195312e-01" purity="4.5509240031242371e-01" nType="0">
                <Node pos="l" depth="5" NCoef="0" IVar="6" Cut="6.5129622817039490e-02" cType="1" res="4.1118223220109940e-02" rms="4.5779627561569214e-01" purity="5.2028512954711914e-01" nType="0">
                  <Node pos="l" depth="6" NCoef="0" IVar="4" Cut="-5.9898722171783447e-01" cType="1" res="3.0194072052836418e-02" rms="4.5359167456626892e-01" purity="5.2717441320419312e-01" nType="0">
                    <Node pos="l" depth="7" NCoef="0" IVar="-1" Cut="0.0000000000000000e+00" cType="1" res="3.8832833524793386e-03" rms="4.5573246479034424e-01" purity="6.1900079250335693e-01" nType="-99"/>
                    <Node pos="r" depth="7" NCoef="0" IVar="-1" Cut="0.0000000000000000e+00" cType="1" res="1.8825528677552938e-03" rms="4.5161521434783936e-01" purity="4.5743694901466370e-01" nType="-99"/>
                  </Node>
                  <Node pos="r" depth="6" NCoef="0" IVar="-1" Cut="0.0000000000000000e+00" cType="1" res="5.1796990446746349e-03" rms="4.6374204754829407e-01" purity="5.0958335399627686e-01" nType="-99"/>
                </Node>
                <Node pos="r" depth="5" NCoef="0" IVar="6" Cut="1.2839244306087494e-01" cType="1" res="1.1848337948322296e-02" rms="4.4407975673675537e-01" purity="4.2505225539207458e-01" nType="0">
                  <Node pos="l" depth="6" NCoef="0" IVar="3" Cut="7.2249758243560791e-01" cType="1" res="7.2486228309571743e-03" rms="4.4195097684860229e-01" purity="4.2944854497909546e-01" nType="0">
                    <Node pos="l" depth="7" NCoef="0" IVar="-1" Cut="0.0000000000000000e+00" cType="1" res="-3.1124716042540967e-04" rms="4.2868146300315857e-01" purity="3.2767668366432190e-01" nType="-99"/>
                    <Node pos="r" depth="7" NCoef="0" IVar="-1" Cut="0.0000000000000000e+00" cType="1" res="2.4255716707557440e-03" rms="4.6774160861968994e-01" purity="6.4160335063934326e-01" nType="-99"/>
                  </Node>
                  <Node pos="r" depth="6" NCoef="0" IVar="-1" Cut="0.0000000000000000e+00" cType="1" res="5.4675037972629070e-03" rms="4.6002426743507385e-01" purity="3.8741669058799744e-01" nType="-99"/>
                </Node>
              </Node>
            </Node>
          </Node>
          <Node pos="r" depth="2" NCoef="0" IVar="0" Cut="3.7664008140563965e-01" cType="1" res="2.0953418686985970e-02" rms="4.1199821233749390e-01" purity="7.6581645011901855e-01" nType="0">
            <Node pos="l" depth="3" NCoef="0" IVar="1" Cut="2.4960075318813324e-01" cType="1" res="2.3033652454614639e-02" rms="4.0881869196891785e-01" purity="7.7506470680236816e-01" nType="0">
              <Node pos="l" depth="4" NCoef="0" IVar="6" Cut="2.9615463688969612e-02" cType="1" res="2.7156820520758629e-02" rms="3.9849746227264404e-01" purity="7.9300415515899658e-01" nType="0">
                <Node pos="l" depth="5" NCoef="0" IVar="3" Cut="9.5514416694641113e-01" cType="1" res="2.5182053446769714e-02" rms="3.9560168981552124e-01" purity="7.9700362682342529e-01" nType="0">
                  <Node pos="l" depth="6" NCoef="0" IVar="6" Cut="2.1068779751658440e-02" cType="1" res="5.7150465436279774e-03" rms="4.2899540066719055e-01" purity="7.4436211585998535e-01" nType="0">
                    <Node pos="l" depth="7" NCoef="0" IVar="-1" Cut="0.0000000000000000e+00" cType="1" res="-4.5786079135723412e-04" rms="4.3302488327026367e-01" purity="7.3700839281082153e-01" nType="-99"/>
                    <Node pos="r" depth="7" NCoef="0" IVar="-1" Cut="0.0000000000000000e+00" cType="1" res="2.8218231163918972e-03" rms="4.2014265060424805e-01" purity="7.5903928279876709e-01" nType="-99"/>
                  </Node>
                  <Node pos="r" depth="6" NCoef="0" IVar="5" Cut="-2.8959569931030273e+00" cType="1" res="2.8926128521561623e-02" rms="3.8873866200447083e-01" purity="8.0712819099426270e-01" nType="0">
                    <Node pos="l" depth="7" NCoef="0" IVar="-1" Cut="0.0000000000000000e+00" cType="1" res="4.4799773022532463e-03" rms="3.5295161604881287e-01" purity="8.5233265161514282e-01" nType="-99"/>
                    <Node pos="r" depth="7" NCoef="0" IVar="-1" Cut="0.0000000000000000e+00" cType="1" res="2.6048466097563505e-03" rms="4.0816518664360046e-01" purity="7.8068512678146362e-01" nType="-99"/>
                  </Node>
                </Node>
                <Node pos="r" depth="5" NCoef="0" IVar="1" Cut="1.9646310247480869e-03" cType="1" res="4.1207619011402130e-02" rms="4.1825434565544128e-01" purity="7.6454704999923706e-01" nType="0">
                  <Node pos="l" depth="6" NCoef="0" IVar="-1" Cut="0.0000000000000000e+00" cType="1" res="3.3241347409784794e-03" rms="4.2034813761711121e-01" purity="7.6193153858184814e-01" nType="-99"/>
                  <Node pos="r" depth="6" NCoef="0" IVar="-1" Cut="0.0000000000000000e+00" cType="1" res="5.7283337228000164e-03" rms="4.1421300172805786e-01" purity="7.6898801326751709e-01" nType="-99"/>
                </Node>
              </Node>
              <Node pos="r" depth="4" NCoef="0" IVar="5" Cut="-1.8018804788589478e+00" cType="1" res="1.1282082647085190e-02" rms="4.3668621778488159e-01" purity="7.2393488883972168e-01" nType="0">
                <Node pos="l" depth="5" NCoef="0" IVar="5" Cut="-2.7115797996520996e+00" cType="1" res="1.7856696620583534e-02" rms="4.2497310042381287e-01" purity="7.5521922111511230e-01" nType="0">
                  <Node pos="l" depth="6" NCoef="0" IVar="4" Cut="-3.6906754970550537e-01" cType="1" res="2.5772588327527046e-02" rms="4.0972632169723511e-01" purity="7.8048664331436157e-01" nType="0">
                    <Node pos="l" depth="7" NCoef="0" IVar="-1" Cut="0.0000000000000000e+00" cType="1" res="1.3987903948873281e-03" rms="4.2801228165626526e-01" purity="7.5168144702911377e-01" nType="-99"/>
                    <Node pos="r" depth="7" NCoef="0" IVar="-1" Cut="0.0000000000000000e+00" cType="1" res="4.7150203026831150e-03" rms="3.8074359297752380e-01" purity="8.2275897264480591e-01" nType="-99"/>
                  </Node>
                  <Node pos="r" depth="6" NCoef="0" IVar="4" Cut="-1.2130308151245117e+00" cType="1" res="7.9870531335473061e-03" rms="4.4305095076560974e-01" purity="7.2371548414230347e-01" nType="0">
                    <Node pos="l" depth="7" NCoef="0" IVar="-1" Cut="0.0000000000000000e+00" cType="1" res="2.1307878196239471e-03" rms="4.4636204838752747e-01" purity="7.1618819236755371e-01" nType="-99"/>
                    <Node pos="r" depth="7" NCoef="0" IVar="-1" Cut="0.0000000000000000e+00" cType="1" res="-2.1684830426238477e-04" rms="4.4067621231079102e-01" purity="7.2838962078094482e-01" nType="-99"/>
                  </Node>
                </Node>
                <Node pos="r" depth="5" NCoef="0" IVar="-1" Cut="0.0000000000000000e+00" cType="1" res="-1.5074157854542136e-03" rms="4.8306113481521606e-01" purity="5.8863747119903564e-01" nType="-99"/>
              </Node>
            </Node>
            <Node pos="r" depth="3" NCoef="0" IVar="-1" Cut="0.0000000000000000e+00" cType="1" res="-2.5403671897947788e-03" rms="4.7944045066833496e-01" purity="5.4354459047317505e-01" nType="-99"/>
          </Node>
        </Node>
        <Node pos="r" depth="1" NCoef="0" IVar="4" Cut="5.1472288370132446e-01" cType="1" res="-1.0950230062007904e-02" rms="3.7933444976806641e-01" purity="2.5400140881538391e-01" nType="0">
          <Node pos="l" depth="2" NCoef="0" IVar="2" Cut="3.7768832397460938e+02" cType="1" res="-5.5824657902121544e-03" rms="4.1282460093498230e-01" purity="3.1586232781410217e-01" nType="0">
            <Node pos="l" depth="3" NCoef="0" IVar="2" Cut="3.4772793579101562e+02" cType="1" res="2.1898306440562010e-03" rms="4.2204967141151428e-01" purity="3.6287817358970642e-01" nType="0">
              <Node pos="l" depth="4" NCoef="0" IVar="3" Cut="7.2865223884582520e-01" cType="1" res="5.6127961724996567e-03" rms="4.2362999916076660e-01" purity="3.7265983223915100e-01" nType="0">
                <Node pos="l" depth="5" NCoef="0" IVar="6" Cut="7.6917052268981934e-02" cType="1" res="-7.0720468647778034e-04" rms="4.0301200747489929e-01" purity="2.6868212223052979e-01" nType="0">
                  <Node pos="l" depth="6" NCoef="0" IVar="6" Cut="6.4364857971668243e-02" cType="1" res="-2.5063658133149147e-02" rms="3.8310661911964417e-01" purity="2.3763677477836609e-01" nType="0">
                    <Node pos="l" depth="7" NCoef="0" IVar="-1" Cut="0.0000000000000000e+00" cType="1" res="-5.7886536233127117e-03" rms="3.7131565809249878e-01" purity="2.1964183449745178e-01" nType="-99"/>
                    <Node pos="r" depth="7" NCoef="0" IVar="-1" Cut="0.0000000000000000e+00" cType="1" res="-1.1829357827082276e-03" rms="3.9681750535964966e-01" purity="2.6031088829040527e-01" nType="-99"/>
                  </Node>
                  <Node pos="r" depth="6" NCoef="0" IVar="5" Cut="-2.2237775325775146e+00" cType="1" res="1.1197686195373535e-02" rms="4.1186815500259399e-01" purity="2.8385642170906067e-01" nType="0">
                    <Node pos="l" depth="7" NCoef="0" IVar="-1" Cut="0.0000000000000000e+00" cType="1" res="3.7476308643817902e-03" rms="4.1184660792350769e-01" purity="2.9611265659332275e-01" nType="-99"/>
                    <Node pos="r" depth="7" NCoef="0" IVar="-1" Cut="0.0000000000000000e+00" cType="1" res="-8.7605073349550366e-04" rms="4.1118302941322327e-01" purity="2.7012366056442261e-01" nType="-99"/>
                  </Node>
                </Node>
                <Node pos="r" depth="5" NCoef="0" IVar="5" Cut="-2.2379467487335205e+00" cType="1" res="2.1729212254285812e-02" rms="4.7176617383956909e-01" purity="6.3780975341796875e-01" nType="0">
                  <Node pos="l" depth="6" NCoef="0" IVar="-1" Cut="0.0000000000000000e+00" cType="1" res="7.6969608198851347e-04" rms="4.6530327200889587e-01" purity="6.6005545854568481e-01" nType="-99"/>
                  <Node pos="r" depth="6" NCoef="0" IVar="-1" Cut="0.0000000000000000e+00" cType="1" res="3.0363157857209444e-03" rms="4.7688740491867065e-01" purity="6.1885327100753784e-01" nType="-99"/>
                </Node>
              </Node>
              <Node pos="r" depth="4" NCoef="0" IVar="-1" Cut="0.0000000000000000e+00" cType="1" res="-4.1254782117903233e-03" rms="4.0585452318191528e-01" purity="2.7280414104461670e-01" nType="-99"/>
            </Node>
            <Node pos="r" depth="3" NCoef="0" IVar="3" Cut="5.7978796958923340e-01" cType="1" res="-1.7051642760634422e-02" rms="3.9854532480239868e-01" purity="2.4648344516754150e-01" nType="0">
              <Node pos="l" depth="4" NCoef="0" IVar="4" Cut="-2.1714153289794922e+00" cType="1" res="-1.0996805503964424e-02" rms="3.7139543890953064e-01" purity="1.8849270045757294e-01" nType="0">
                <Node pos="l" depth="5" NCoef="0" IVar="-1" Cut="0.0000000000000000e+00" cType="1" res="2.2309564519673586e-03" rms="4.1703876852989197e-01" purity="2.5603923201560974e-01" nType="-99"/>
                <Node pos="r" depth="5" NCoef="0" IVar="4" Cut="-5.6018386967480183e-03" cType="1" res="-1.6052510589361191e-02" rms="3.6177656054496765e-01" purity="1.7555411159992218e-01" nType="0">
                  <Node pos="l" depth="6" NCoef="0" IVar="5" Cut="-2.1259744167327881e+00" cType="1" res="-2.2168971598148346e-02" rms="3.6229717731475830e-01" purity="1.7701043188571930e-01" nType="0">
                    <Node pos="l" depth="7" NCoef="0" IVar="-1" Cut="0.0000000000000000e+00" cType="1" res="-2.4617160670459270e-03" rms="3.6532425880432129e-01" purity="1.8420650064945221e-01" nType="-99"/>
                    <Node pos="r" depth="7" NCoef="0" IVar="-1" Cut="0.0000000000000000e+00" cType="1" res="-5.8673149906098843e-03" rms="3.5766705870628357e-01" purity="1.6682188212871552e-01" nType="-99"/>
                  </Node>
                  <Node pos="r" depth="6" NCoef="0" IVar="-1" Cut="0.0000000000000000e+00" cType="1" res="7.9606793588027358e-04" rms="3.5932299494743347e-01" purity="1.7076060175895691e-01" nType="-99"/>
                </Node>
              </Node>
              <Node pos="r" depth="4" NCoef="0" IVar="-1" Cut="0.0000000000000000e+00" cType="1" res="-3.7041637115180492e-03" rms="4.8097956180572510e-01" purity="4.4921770691871643e-01" nType="-99"/>
            </Node>
          </Node>
          <Node pos="r" depth="2" NCoef="0" IVar="3" Cut="5.4598641395568848e-01" cType="1" res="-2.4406416341662407e-02" rms="2.7773326635360718e-01" purity="9.8925374448299408e-02" nType="0">
            <Node pos="l" depth="3" NCoef="0" IVar="4" Cut="7.5652585029602051e+00" cType="1" res="-1.7614783719182014e-02" rms="2.3824502527713776e-01" purity="6.6805742681026459e-02" nType="0">
              <Node pos="l" depth="4" NCoef="0" IVar="0" Cut="2.2399914264678955e+00" cType="1" res="-2.2662572562694550e-02" rms="2.3781864345073700e-01" purity="6.6268943250179291e-02" nType="0">
                <Node pos="l" depth="5" NCoef="0" IVar="0" Cut="7.9432350397109985e-01" cType="1" res="-2.0174970850348473e-02" rms="2.5254282355308533e-01" purity="7.5439013540744781e-02" nType="0">
                  <Node pos="l" depth="6" NCoef="0" IVar="-1" Cut="0.0000000000000000e+00" cType="1" res="-2.3045123089104891e-03" rms="3.1114953756332397e-01" purity="1.2025388330221176e-01" nType="-99"/>
                  <Node pos="r" depth="6" NCoef="0" IVar="4" Cut="1.6507527828216553e+00" cType="1" res="-2.8187282383441925e-02" rms="1.9673572480678558e-01" purity="4.1629105806350708e-02" nType="0">
                    <Node pos="l" depth="7" NCoef="0" IVar="-1" Cut="0.0000000000000000e+00" cType="1" res="-6.9638928398489952e-03" rms="2.5521963834762573e-01" purity="7.1264408528804779e-02" nType="-99"/>
                    <Node pos="r" depth="7" NCoef="0" IVar="-1" Cut="0.0000000000000000e+00" cType="1" res="-1.8215330317616463e-02" rms="1.4355380833148956e-01" purity="2.1407820284366608e-02" nType="-99"/>
                  </Node>
                </Node>
                <Node pos="r" depth="5" NCoef="0" IVar="-1" Cut="0.0000000000000000e+00" cType="1" res="-1.6593871638178825e-02" rms="1.6663807630538940e-01" purity="2.9859615489840508e-02" nType="-99"/>
              </Node>
              <Node pos="r" depth="4" NCoef="0" IVar="-1" Cut="0.0000000000000000e+00" cType="1" res="3.6857125815004110e-03" rms="2.3876225948333740e-01" purity="6.9515742361545563e-02" nType="-99"/>
            </Node>
            <Node pos="r" depth="3" NCoef="0" IVar="-1" Cut="0.0000000000000000e+00" cType="1" res="-6.9093788042664528e-03" rms="4.0392380952835083e-01" purity="2.3616494238376617e-01" nType="-99"/>
          </Node>
        </Node>
      </Node>
    </BinaryTree>
    <BinaryTree type="DecisionTree" boostWeight="1.0000000000000000e+00" itree="71">
      <Node pos="s" depth="0" NCoef="0" IVar="3" Cut="7.6397395133972168e-01" cType="1" res="5.0232452340424061e-03" rms="4.0596020221710205e-01" purity="4.9965837597846985e-01" nType="0">
        <Node pos="l" depth="1" NCoef="0" IVar="4" Cut="-1.7656788825988770e+00" cType="1" res="-4.9127363599836826e-03" rms="3.8485723733901978e-01" purity="2.5833153724670410e-01" nType="0">
          <Node pos="l" depth="2" NCoef="0" IVar="5" Cut="-2.9670865535736084e+00" cType="1" res="1.0711728595197201e-02" rms="4.4383946061134338e-01" purity="3.9637070894241333e-01" nType="0">
            <Node pos="l" depth="3" NCoef="0" IVar="4" Cut="-2.3714451789855957e+00" cType="1" res="-1.3511569239199162e-02" rms="3.9169633388519287e-01" purity="2.6101988554000854e-01" nType="0">
              <Node pos="l" depth="4" NCoef="0" IVar="-1" Cut="0.0000000000000000e+00" cType="1" res="-4.6583660878241062e-04" rms="3.9280501008033752e-01" purity="2.7447241544723511e-01" nType="-99"/>
              <Node pos="r" depth="4" NCoef="0" IVar="-1" Cut="0.0000000000000000e+00" cType="1" res="-3.4129200503230095e-03" rms="3.9027693867683411e-01" purity="2.4719071388244629e-01" nType="-99"/>
            </Node>
            <Node pos="r" depth="3" NCoef="0" IVar="4" Cut="-2.5949392318725586e+00" cType="1" res="1.9863612949848175e-02" rms="4.6167993545532227e-01" purity="4.4750800728797913e-01" nType="0">
              <Node pos="l" depth="4" NCoef="0" IVar="-1" Cut="0.0000000000000000e+00" cType="1" res="4.9844118766486645e-03" rms="4.6742397546768188e-01" purity="5.1960426568984985e-01" nType="-99"/>
              <Node pos="r" depth="4" NCoef="0" IVar="6" Cut="9.0229794383049011e-02" cType="1" res="1.2241797521710396e-02" rms="4.5994648337364197e-01" purity="4.2992898821830750e-01" nType="0">
                <Node pos="l" depth="5" NCoef="0" IVar="2" Cut="1.1532464599609375e+02" cType="1" res="5.2704736590385437e-03" rms="4.7185578942298889e-01" purity="4.7479280829429626e-01" nType="0">
                  <Node pos="l" depth="6" NCoef="0" IVar="-1" Cut="0.0000000000000000e+00" cType="1" res="2.5205838028341532e-03" rms="4.8441404104232788e-01" purity="5.3458350896835327e-01" nType="-99"/>
                  <Node pos="r" depth="6" NCoef="0" IVar="-1" Cut="0.0000000000000000e+00" cType="1" res="-1.3825087808072567e-03" rms="4.6070429682731628e-01" purity="4.2699724435806274e-01" nType="-99"/>
                </Node>
                <Node pos="r" depth="5" NCoef="0" IVar="-1" Cut="0.0000000000000000e+00" cType="1" res="2.4114032275974751e-03" rms="4.4328337907791138e-01" purity="3.6969977617263794e-01" nType="-99"/>
              </Node>
            </Node>
          </Node>
          <Node pos="r" depth="2" NCoef="0" IVar="7" Cut="3.0000000000000000e+00" cType="1" res="1.3850191235542297e-01" rms="0.0000000000000000e+00" purity="2.3116493225097656e-01" nType="0">
            <Node pos="l" depth="3" NCoef="0" IVar="3" Cut="4.9598515033721924e-01" cType="1" res="-2.3831313475966454e-02" rms="4.3718084692955017e-01" purity="3.3964511752128601e-01" nType="0">
              <Node pos="l" depth="4" NCoef="0" IVar="-1" Cut="0.0000000000000000e+00" cType="1" res="4.4769429223379120e-05" rms="3.3932876586914062e-01" purity="1.5226815640926361e-01" nType="-99"/>
              <Node pos="r" depth="4" NCoef="0" IVar="6" Cut="7.9426690936088562e-02" cType="1" res="-2.9149770736694336e-02" rms="4.5583179593086243e-01" purity="3.8110321760177612e-01" nType="0">
                <Node pos="l" depth="5" NCoef="0" IVar="6" Cut="4.8853959888219833e-02" cType="1" res="-3.8922511041164398e-02" rms="4.5152789354324341e-01" purity="3.6429283022880554e-01" nType="0">
                  <Node pos="l" depth="6" NCoef="0" IVar="-1" Cut="0.0000000000000000e+00" cType="1" res="-7.3410579934716225e-03" rms="4.3137872219085693e-01" purity="3.1730908155441284e-01" nType="-99"/>
                  <Node pos="r" depth="6" NCoef="0" IVar="-1" Cut="0.0000000000000000e+00" cType="1" res="-1.5852075302973390e-03" rms="4.6414324641227722e-01" purity="3.9805191755294800e-01" nType="-99"/>
                </Node>
                <Node pos="r" depth="5" NCoef="0" IVar="3" Cut="6.6035360097885132e-01" cType="1" res="-1.7917454242706299e-02" rms="4.6047270298004150e-01" purity="4.0042427182197571e-01" nType="0">
                  <Node pos="l" depth="6" NCoef="0" IVar="-1" Cut="0.0000000000000000e+00" cType="1" res="-2.1539893932640553e-03" rms="4.3755957484245300e-01" purity="3.0911481380462646e-01" nType="-99"/>
                  <Node pos="r" depth="6" NCoef="0" IVar="-1" Cut="0.0000000000000000e+00" cType="1" res="-1.4913476770743728e-03" rms="4.8119938373565674e-01" purity="4.8704692721366882e-01" nType="-99"/>
                </Node>
              </Node>
            </Node>
            <Node pos="r" depth="3" NCoef="0" IVar="3" Cut="4.4366204738616943e-01" cType="1" res="-5.5252276360988617e-03" rms="3.6083787679672241e-01" purity="2.1430458128452301e-01" nType="0">
              <Node pos="l" depth="4" NCoef="0" IVar="6" Cut="2.3452319204807281e-01" cType="1" res="-1.4129571616649628e-02" rms="2.6556339859962463e-01" purity="8.3649545907974243e-02" nType="0">
                <Node pos="l" depth="5" NCoef="0" IVar="7" Cut="4.0000000000000000e+00" cType="1" res="6.1613772064447403e-02" rms="1.8459536135196686e-01" purity="7.0948213338851929e-02" nType="0">
                  <Node pos="l" depth="6" NCoef="0" IVar="-1" Cut="0.0000000000000000e+00" cType="1" res="-1.0245120152831078e-02" rms="2.6498320698738098e-01" purity="8.1324696540832520e-02" nType="-99"/>
                  <Node pos="r" depth="6" NCoef="0" IVar="3" Cut="3.7212374806404114e-01" cType="1" res="-1.5055803582072258e-02" rms="2.4558295309543610e-01" purity="6.9817349314689636e-02" nType="0">
                    <Node pos="l" depth="7" NCoef="0" IVar="-1" Cut="0.0000000000000000e+00" cType="1" res="-8.8897692039608955e-03" rms="2.1316668391227722e-01" purity="5.0063353031873703e-02" nType="-99"/>
                    <Node pos="r" depth="7" NCoef="0" IVar="-1" Cut="0.0000000000000000e+00" cType="1" res="-4.0573242586106062e-04" rms="3.2464924454689026e-01" purity="1.3002273440361023e-01" nType="-99"/>
                  </Node>
                </Node>
                <Node pos="r" depth="5" NCoef="0" IVar="3" Cut="2.0056676864624023e-01" cType="1" res="9.3288393691182137e-03" rms="3.7817820906639099e-01" purity="1.8456931412220001e-01" nType="0">
                  <Node pos="l" depth="6" NCoef="0" IVar="-1" Cut="0.0000000000000000e+00" cType="1" res="-1.2051441008225083e-03" rms="3.6675050854682922e-01" purity="1.6723547875881195e-01" nType="-99"/>
                  <Node pos="r" depth="6" NCoef="0" IVar="-1" Cut="0.0000000000000000e+00" cType="1" res="4.6607991680502892e-03" rms="3.8932126760482788e-01" purity="2.0306548476219177e-01" nType="-99"/>
                </Node>
              </Node>
              <Node pos="r" depth="4" NCoef="0" IVar="1" Cut="-4.2046148329973221e-02" cType="1" res="4.1804108768701553e-03" rms="4.4423523545265198e-01" purity="3.6168256402015686e-01" nType="0">
                <Node pos="l" depth="5" NCoef="0" IVar="2" Cut="1.4579931640625000e+02" cType="1" res="2.2544229403138161e-02" rms="4.6145418286323547e-01" purity="4.2935797572135925e-01" nType="0">
                  <Node pos="l" depth="6" NCoef="0" IVar="6" Cut="5.6216780096292496e-02" cType="1" res="3.7486758083105087e-02" rms="4.7136238217353821e-01" purity="4.9648135900497437e-01" nType="0">
                    <Node pos="l" depth="7" NCoef="0" IVar="-1" Cut="0.0000000000000000e+00" cType="1" res="1.6087775584310293e-03" rms="4.6348828077316284e-01" purity="4.4840121269226074e-01" nType="-99"/>
                    <Node pos="r" depth="7" NCoef="0" IVar="-1" Cut="0.0000000000000000e+00" cType="1" res="4.8423334956169128e-03" rms="4.7732028365135193e-01" purity="5.3821474313735962e-01" nType="-99"/>
                  </Node>
                  <Node pos="r" depth="6" NCoef="0" IVar="6" Cut="1.0209625959396362e-01" cType="1" res="1.0009576566517353e-02" rms="4.5259517431259155e-01" purity="3.7305107712745667e-01" nType="0">
                    <Node pos="l" depth="7" NCoef="0" IVar="-1" Cut="0.0000000000000000e+00" cType="1" res="-6.5566919511184096e-04" rms="4.4962802529335022e-01" purity="3.6412087082862854e-01" nType="-99"/>
                    <Node pos="r" depth="7" NCoef="0" IVar="-1" Cut="0.0000000000000000e+00" cType="1" res="3.1068793032318354e-03" rms="4.5530581474304199e-01" purity="3.8329181075096130e-01" nType="-99"/>
                  </Node>
                </Node>
                <Node pos="r" depth="5" NCoef="0" IVar="6" Cut="7.5764283537864685e-02" cType="1" res="-4.8079891130328178e-03" rms="4.3527680635452271e-01" purity="3.2855796813964844e-01" nType="0">
                  <Node pos="l" depth="6" NCoef="0" IVar="2" Cut="1.2580242919921875e+02" cType="1" res="-1.4573635533452034e-02" rms="4.3190509080886841e-01" purity="3.1945201754570007e-01" nType="0">
                    <Node pos="l" depth="7" NCoef="0" IVar="-1" Cut="0.0000000000000000e+00" cType="1" res="-3.6889701732434332e-04" rms="4.4421568512916565e-01" purity="3.5162377357482910e-01" nType="-99"/>
                    <Node pos="r" depth="7" NCoef="0" IVar="-1" Cut="0.0000000000000000e+00" cType="1" res="-4.2326035909354687e-03" rms="4.1041851043701172e-01" purity="2.6709121465682983e-01" nType="-99"/>
                  </Node>
                  <Node pos="r" depth="6" NCoef="0" IVar="5" Cut="-1.4967892169952393e+00" cType="1" res="4.1826656088232994e-03" rms="4.3816563487052917e-01" purity="3.3694124221801758e-01" nType="0">
                    <Node pos="l" depth="7" NCoef="0" IVar="-1" Cut="0.0000000000000000e+00" cType="1" res="1.8770616734400392e-03" rms="4.6818697452545166e-01" purity="4.1252288222312927e-01" nType="-99"/>
                    <Node pos="r" depth="7" NCoef="0" IVar="-1" Cut="0.0000000000000000e+00" cType="1" res="-2.3755740839987993e-03" rms="3.9023062586784363e-01" purity="2.2864012420177460e-01" nType="-99"/>
                  </Node>
                </Node>
              </Node>
            </Node>
          </Node>
        </Node>
        <Node pos="r" depth="1" NCoef="0" IVar="1" Cut="4.9588343501091003e-01" cType="1" res="1.4673464000225067e-02" rms="4.2523324489593506e-01" purity="7.3404461145401001e-01" nType="0">
          <Node pos="l" depth="2" NCoef="0" IVar="5" Cut="-2.1362674236297607e+00" cType="1" res="1.9447589293122292e-02" rms="4.1833040118217468e-01" purity="7.5244945287704468e-01" nType="0">
            <Node pos="l" depth="3" NCoef="0" IVar="7" Cut="3.0000000000000000e+00" cType="1" res="2.4530366063117981e-02" rms="3.9716103672981262e-01" purity="7.9542595148086548e-01" nType="0">
              <Node pos="l" depth="4" NCoef="0" IVar="3" Cut="9.6496450901031494e-01" cType="1" res="2.2931713610887527e-02" rms="3.9606127142906189e-01" purity="7.9703748226165771e-01" nType="0">
                <Node pos="l" depth="5" NCoef="0" IVar="3" Cut="8.5474050045013428e-01" cType="1" res="1.4056552201509476e-02" rms="4.2934784293174744e-01" purity="7.4722921848297119e-01" nType="0">
                  <Node pos="l" depth="6" NCoef="0" IVar="6" Cut="5.2911777049303055e-02" cType="1" res="2.3143677972257137e-03" rms="4.5663312077522278e-01" purity="6.9514143466949463e-01" nType="0">
                    <Node pos="l" depth="7" NCoef="0" IVar="-1" Cut="0.0000000000000000e+00" cType="1" res="-6.5044185612350702e-04" rms="4.5982384681701660e-01" purity="6.8612563610076904e-01" nType="-99"/>
                    <Node pos="r" depth="7" NCoef="0" IVar="-1" Cut="0.0000000000000000e+00" cType="1" res="1.8381777917966247e-03" rms="4.4962850213050842e-01" purity="7.1308642625808716e-01" nType="-99"/>
                  </Node>
                  <Node pos="r" depth="6" NCoef="0" IVar="7" Cut="2.0000000000000000e+00" cType="1" res="2.2111339494585991e-02" rms="4.0428170561790466e-01" purity="7.8242540359497070e-01" nType="0">
                    <Node pos="l" depth="7" NCoef="0" IVar="-1" Cut="0.0000000000000000e+00" cType="1" res="-6.2782678287476301e-04" rms="4.2077621817588806e-01" purity="7.6363933086395264e-01" nType="-99"/>
                    <Node pos="r" depth="7" NCoef="0" IVar="-1" Cut="0.0000000000000000e+00" cType="1" res="3.5255758557468653e-03" rms="4.0569695830345154e-01" purity="7.8841352462768555e-01" nType="-99"/>
                  </Node>
                </Node>
                <Node pos="r" depth="5" NCoef="0" IVar="4" Cut="-1.5285255908966064e+00" cType="1" res="2.7977671474218369e-02" rms="3.7573048472404480e-01" purity="8.2535588741302490e-01" nType="0">
                  <Node pos="l" depth="6" NCoef="0" IVar="4" Cut="-1.9402569532394409e+00" cType="1" res="8.9430958032608032e-03" rms="4.1866615414619446e-01" purity="7.6716464757919312e-01" nType="0">
                    <Node pos="l" depth="7" NCoef="0" IVar="-1" Cut="0.0000000000000000e+00" cType="1" res="3.1434397678822279e-03" rms="3.9842253923416138e-01" purity="7.9552406072616577e-01" nType="-99"/>
                    <Node pos="r" depth="7" NCoef="0" IVar="-1" Cut="0.0000000000000000e+00" cType="1" res="-8.1522244727239013e-04" rms="4.3468394875526428e-01" purity="7.4251919984817505e-01" nType="-99"/>
                  </Node>
                  <Node pos="r" depth="6" NCoef="0" IVar="5" Cut="-3.0351912975311279e+00" cType="1" res="3.1270381063222885e-02" rms="3.6769512295722961e-01" purity="8.3542221784591675e-01" nType="0">
                    <Node pos="l" depth="7" NCoef="0" IVar="-1" Cut="0.0000000000000000e+00" cType="1" res="4.9546682275831699e-03" rms="3.4494370222091675e-01" purity="8.5978764295578003e-01" nType="-99"/>
                    <Node pos="r" depth="7" NCoef="0" IVar="-1" Cut="0.0000000000000000e+00" cType="1" res="3.1752120703458786e-03" rms="3.8033357262611389e-01" purity="8.2115048170089722e-01" nType="-99"/>
                  </Node>
                </Node>
              </Node>
              <Node pos="r" depth="4" NCoef="0" IVar="-1" Cut="0.0000000000000000e+00" cType="1" res="6.2265279702842236e-03" rms="4.2279243469238281e-01" purity="7.5818318128585815e-01" nType="-99"/>
            </Node>
            <Node pos="r" depth="3" NCoef="0" IVar="5" Cut="-2.6044657826423645e-01" cType="1" res="9.3357367441058159e-03" rms="4.5794641971588135e-01" purity="6.6520762443542480e-01" nType="0">
              <Node pos="l" depth="4" NCoef="0" IVar="0" Cut="2.4868111312389374e-01" cType="1" res="1.2024306692183018e-02" rms="4.5552852749824524e-01" purity="6.8600863218307495e-01" nType="0">
                <Node pos="l" depth="5" NCoef="0" IVar="5" Cut="-8.6579161882400513e-01" cType="1" res="1.6009723767638206e-02" rms="4.5142391324043274e-01" purity="7.0245712995529175e-01" nType="0">
                  <Node pos="l" depth="6" NCoef="0" IVar="3" Cut="8.9713346958160400e-01" cType="1" res="1.8501456826925278e-02" rms="4.4409137964248657e-01" purity="7.2202867269515991e-01" nType="0">
                    <Node pos="l" depth="7" NCoef="0" IVar="-1" Cut="0.0000000000000000e+00" cType="1" res="1.0650304611772299e-03" rms="4.6366924047470093e-01" purity="6.8013280630111694e-01" nType="-99"/>
                    <Node pos="r" depth="7" NCoef="0" IVar="-1" Cut="0.0000000000000000e+00" cType="1" res="2.3210113868117332e-03" rms="4.2953541874885559e-01" purity="7.5187551975250244e-01" nType="-99"/>
                  </Node>
                  <Node pos="r" depth="6" NCoef="0" IVar="-1" Cut="0.0000000000000000e+00" cType="1" res="1.5712955791968852e-04" rms="4.9091222882270813e-01" purity="5.9083938598632812e-01" nType="-99"/>
                </Node>
                <Node pos="r" depth="5" NCoef="0" IVar="-1" Cut="0.0000000000000000e+00" cType="1" res="-1.8919046269729733e-03" rms="4.8715618252754211e-01" purity="5.4880475997924805e-01" nType="-99"/>
              </Node>
              <Node pos="r" depth="4" NCoef="0" IVar="-1" Cut="0.0000000000000000e+00" cType="1" res="-1.8665586831048131e-03" rms="4.8286655545234680e-01" purity="4.3533986806869507e-01" nType="-99"/>
            </Node>
          </Node>
          <Node pos="r" depth="2" NCoef="0" IVar="5" Cut="-1.7516005039215088e+00" cType="1" res="-1.4104235917329788e-02" rms="4.6363544464111328e-01" purity="6.2310314178466797e-01" nType="0">
            <Node pos="l" depth="3" NCoef="0" IVar="5" Cut="-2.6629006862640381e+00" cType="1" res="-4.0338109247386456e-03" rms="4.5862519741058350e-01" purity="6.6938370466232300e-01" nType="0">
              <Node pos="l" depth="4" NCoef="0" IVar="4" Cut="-5.0969046354293823e-01" cType="1" res="6.5477290190756321e-03" rms="4.4405576586723328e-01" purity="7.0568066835403442e-01" nType="0">
                <Node pos="l" depth="5" NCoef="0" IVar="-1" Cut="0.0000000000000000e+00" cType="1" res="2.0480189050431363e-05" rms="4.5958080887794495e-01" purity="6.7075294256210327e-01" nType="-99"/>
                <Node pos="r" depth="5" NCoef="0" IVar="-1" Cut="0.0000000000000000e+00" cType="1" res="1.6852529952302575e-03" rms="4.1907733678817749e-01" purity="7.5897520780563354e-01" nType="-99"/>
              </Node>
              <Node pos="r" depth="4" NCoef="0" IVar="4" Cut="-1.3206164836883545e+00" cType="1" res="-1.5958528965711594e-02" rms="4.7422528266906738e-01" purity="6.2847942113876343e-01" nType="0">
                <Node pos="l" depth="5" NCoef="0" IVar="-1" Cut="0.0000000000000000e+00" cType="1" res="6.6481059184297919e-04" rms="4.7836545109748840e-01" purity="6.3337928056716919e-01" nType="-99"/>
                <Node pos="r" depth="5" NCoef="0" IVar="-1" Cut="0.0000000000000000e+00" cType="1" res="-3.4628321882337332e-03" rms="4.6960425376892090e-01" purity="6.2423586845397949e-01" nType="-99"/>
              </Node>
            </Node>
            <Node pos="r" depth="3" NCoef="0" IVar="-1" Cut="0.0000000000000000e+00" cType="1" res="-4.2793429456651211e-03" rms="4.7866088151931763e-01" purity="4.6617311239242554e-01" nType="-99"/>
          </Node>
        </Node>
      </Node>
    </BinaryTree>
    <BinaryTree type="DecisionTree" boostWeight="1.0000000000000000e+00" itree="72">
      <Node pos="s" depth="0" NCoef="0" IVar="1" Cut="1.4958879351615906e-01" cType="1" res="5.8499872684478760e-03" rms="4.0566557645797729e-01" purity="4.9995917081832886e-01" nType="0">
        <Node pos="l" depth="1" NCoef="0" IVar="2" Cut="1.8824555969238281e+02" cType="1" res="1.4708881266415119e-02" rms="4.1672584414482117e-01" purity="5.8216267824172974e-01" nType="0">
          <Node pos="l" depth="2" NCoef="0" IVar="6" Cut="6.9102697074413300e-02" cType="1" res="2.0278021693229675e-02" rms="4.2039403319358826e-01" purity="6.7222726345062256e-01" nType="0">
            <Node pos="l" depth="3" NCoef="0" IVar="2" Cut="7.2869262695312500e+01" cType="1" res="1.7596105113625526e-02" rms="4.1680127382278442e-01" purity="7.0410031080245972e-01" nType="0">
              <Node pos="l" depth="4" NCoef="0" IVar="6" Cut="4.4575933367013931e-02" cType="1" res="2.2980416193604469e-02" rms="4.0970605611801147e-01" purity="7.4550926685333252e-01" nType="0">
                <Node pos="l" depth="5" NCoef="0" IVar="3" Cut="8.4730267524719238e-01" cType="1" res="2.0788611844182014e-02" rms="4.0652549266815186e-01" purity="7.5432479381561279e-01" nType="0">
                  <Node pos="l" depth="6" NCoef="0" IVar="6" Cut="1.7533060163259506e-02" cType="1" res="2.8549483977258205e-03" rms="4.5401006937026978e-01" purity="5.4291820526123047e-01" nType="0">
                    <Node pos="l" depth="7" NCoef="0" IVar="-1" Cut="0.0000000000000000e+00" cType="1" res="-3.0386883299797773e-03" rms="4.5585536956787109e-01" purity="5.0870496034622192e-01" nType="-99"/>
                    <Node pos="r" depth="7" NCoef="0" IVar="-1" Cut="0.0000000000000000e+00" cType="1" res="1.4947259332984686e-03" rms="4.5267957448959351e-01" purity="5.5614584684371948e-01" nType="-99"/>
                  </Node>
                  <Node pos="r" depth="6" NCoef="0" IVar="5" Cut="-2.6002130508422852e+00" cType="1" res="2.4120194837450981e-02" rms="3.9699000120162964e-01" purity="7.9359835386276245e-01" nType="0">
                    <Node pos="l" depth="7" NCoef="0" IVar="-1" Cut="0.0000000000000000e+00" cType="1" res="3.5939977969974279e-03" rms="3.6742764711380005e-01" purity="8.3603346347808838e-01" nType="-99"/>
                    <Node pos="r" depth="7" NCoef="0" IVar="-1" Cut="0.0000000000000000e+00" cType="1" res="1.8195658922195435e-03" rms="4.2780554294586182e-01" purity="7.4572592973709106e-01" nType="-99"/>
                  </Node>
                </Node>
                <Node pos="r" depth="5" NCoef="0" IVar="-1" Cut="0.0000000000000000e+00" cType="1" res="4.6153641305863857e-03" rms="4.4895279407501221e-01" purity="6.2795656919479370e-01" nType="-99"/>
              </Node>
              <Node pos="r" depth="4" NCoef="0" IVar="6" Cut="3.8122002035379410e-02" cType="1" res="-1.5650580171495676e-03" rms="4.4059294462203979e-01" purity="5.5673801898956299e-01" nType="0">
                <Node pos="l" depth="5" NCoef="0" IVar="3" Cut="8.5851734876632690e-01" cType="1" res="-2.2090569138526917e-02" rms="4.4226548075675964e-01" purity="5.6920099258422852e-01" nType="0">
                  <Node pos="l" depth="6" NCoef="0" IVar="-1" Cut="0.0000000000000000e+00" cType="1" res="-4.0931906551122665e-03" rms="4.4646567106246948e-01" purity="4.4473892450332642e-01" nType="-99"/>
                  <Node pos="r" depth="6" NCoef="0" IVar="-1" Cut="0.0000000000000000e+00" cType="1" res="-2.8312538051977754e-04" rms="4.3594664335250854e-01" purity="7.3147642612457275e-01" nType="-99"/>
                </Node>
                <Node pos="r" depth="5" NCoef="0" IVar="3" Cut="6.2308311462402344e-01" cType="1" res="1.0883404873311520e-02" rms="4.3910831212997437e-01" purity="5.4917943477630615e-01" nType="0">
                  <Node pos="l" depth="6" NCoef="0" IVar="-1" Cut="0.0000000000000000e+00" cType="1" res="-2.6449980214238167e-03" rms="3.6891749501228333e-01" purity="1.9777919352054596e-01" nType="-99"/>
                  <Node pos="r" depth="6" NCoef="0" IVar="5" Cut="-1.7878087759017944e+00" cType="1" res="1.8981998786330223e-02" rms="4.5787781476974487e-01" purity="6.5524417161941528e-01" nType="0">
                    <Node pos="l" depth="7" NCoef="0" IVar="-1" Cut="0.0000000000000000e+00" cType="1" res="2.6272612158209085e-03" rms="4.4836127758026123e-01" purity="7.0000791549682617e-01" nType="-99"/>
                    <Node pos="r" depth="7" NCoef="0" IVar="-1" Cut="0.0000000000000000e+00" cType="1" res="6.4375410147476941e-05" rms="4.7715020179748535e-01" purity="5.5917048454284668e-01" nType="-99"/>
                  </Node>
                </Node>
              </Node>
            </Node>
            <Node pos="r" depth="3" NCoef="0" IVar="2" Cut="1.3463162231445312e+02" cType="1" res="3.8820661604404449e-02" rms="4.4399738311767578e-01" purity="4.5185869932174683e-01" nType="0">
              <Node pos="l" depth="4" NCoef="0" IVar="2" Cut="9.0607978820800781e+01" cType="1" res="5.6353047490119934e-02" rms="4.5321646332740784e-01" purity="5.0096279382705688e-01" nType="0">
                <Node pos="l" depth="5" NCoef="0" IVar="-1" Cut="0.0000000000000000e+00" cType="1" res="6.2683527357876301e-03" rms="4.5624268054962158e-01" purity="5.5198746919631958e-01" nType="-99"/>
                <Node pos="r" depth="5" NCoef="0" IVar="-1" Cut="0.0000000000000000e+00" cType="1" res="4.5082839205861092e-03" rms="4.5058837532997131e-01" purity="4.6368646621704102e-01" nType="-99"/>
              </Node>
              <Node pos="r" depth="4" NCoef="0" IVar="7" Cut="4.0000000000000000e+00" cType="1" res="1.1559358797967434e-02" rms="4.2777380347251892e-01" purity="3.7629446387290955e-01" nType="0">
                <Node pos="l" depth="5" NCoef="0" IVar="-1" Cut="0.0000000000000000e+00" cType="1" res="1.4728439273312688e-03" rms="4.6213456988334656e-01" purity="4.8567891120910645e-01" nType="-99"/>
                <Node pos="r" depth="5" NCoef="0" IVar="-1" Cut="0.0000000000000000e+00" cType="1" res="1.3435696018859744e-03" rms="3.9209538698196411e-01" purity="2.7021086215972900e-01" nType="-99"/>
              </Node>
            </Node>
          </Node>
          <Node pos="r" depth="2" NCoef="0" IVar="4" Cut="2.8829428553581238e-01" cType="1" res="-2.0130907651036978e-03" rms="4.0505242347717285e-01" purity="3.1173357367515564e-01" nType="0">
            <Node pos="l" depth="3" NCoef="0" IVar="2" Cut="3.7042456054687500e+02" cType="1" res="4.3440125882625580e-03" rms="4.3734347820281982e-01" purity="3.8910084962844849e-01" nType="0">
              <Node pos="l" depth="4" NCoef="0" IVar="6" Cut="8.6185239255428314e-02" cType="1" res="1.1123425327241421e-02" rms="4.4343325495719910e-01" purity="4.4517722725868225e-01" nType="0">
                <Node pos="l" depth="5" NCoef="0" IVar="3" Cut="7.3443287611007690e-01" cType="1" res="2.8226757422089577e-04" rms="4.4278195500373840e-01" purity="4.9844849109649658e-01" nType="0">
                  <Node pos="l" depth="6" NCoef="0" IVar="-1" Cut="0.0000000000000000e+00" cType="1" res="-2.7921197470277548e-03" rms="4.2377537488937378e-01" purity="3.1886151432991028e-01" nType="-99"/>
                  <Node pos="r" depth="6" NCoef="0" IVar="-1" Cut="0.0000000000000000e+00" cType="1" res="2.3192400112748146e-03" rms="4.5989781618118286e-01" purity="6.7862772941589355e-01" nType="-99"/>
                </Node>
                <Node pos="r" depth="5" NCoef="0" IVar="7" Cut="4.0000000000000000e+00" cType="1" res="2.4089001119136810e-02" rms="4.4371753931045532e-01" purity="3.8049522042274475e-01" nType="0">
                  <Node pos="l" depth="6" NCoef="0" IVar="-1" Cut="0.0000000000000000e+00" cType="1" res="3.6752684973180294e-03" rms="4.7697985172271729e-01" purity="4.9530497193336487e-01" nType="-99"/>
                  <Node pos="r" depth="6" NCoef="0" IVar="-1" Cut="0.0000000000000000e+00" cType="1" res="1.3890886912122369e-03" rms="4.0926471352577209e-01" purity="2.7099898457527161e-01" nType="-99"/>
                </Node>
              </Node>
              <Node pos="r" depth="4" NCoef="0" IVar="3" Cut="5.5250668525695801e-01" cType="1" res="-5.8592273853719234e-03" rms="4.2781242728233337e-01" purity="3.0470412969589233e-01" nType="0">
                <Node pos="l" depth="5" NCoef="0" IVar="6" Cut="1.7295323312282562e-01" cType="1" res="1.9919031765311956e-03" rms="3.9744070172309875e-01" purity="2.2732688486576080e-01" nType="0">
                  <Node pos="l" depth="6" NCoef="0" IVar="-1" Cut="0.0000000000000000e+00" cType="1" res="-1.6894821310415864e-03" rms="3.7367635965347290e-01" purity="1.9277213513851166e-01" nType="-99"/>
                  <Node pos="r" depth="6" NCoef="0" IVar="-1" Cut="0.0000000000000000e+00" cType="1" res="1.7398451454937458e-03" rms="4.1600102186203003e-01" purity="2.5622385740280151e-01" nType="-99"/>
                </Node>
                <Node pos="r" depth="5" NCoef="0" IVar="-1" Cut="0.0000000000000000e+00" cType="1" res="-2.2724824957549572e-03" rms="4.8995569348335266e-01" purity="4.8221132159233093e-01" nType="-99"/>
              </Node>
            </Node>
            <Node pos="r" depth="3" NCoef="0" IVar="7" Cut="4.0000000000000000e+00" cType="1" res="-1.5359906479716301e-02" rms="3.2644647359848022e-01" purity="1.4895282685756683e-01" nType="0">
              <Node pos="l" depth="4" NCoef="0" IVar="-1" Cut="0.0000000000000000e+00" cType="1" res="-5.6480653584003448e-03" rms="3.8191637396812439e-01" purity="2.2397425770759583e-01" nType="-99"/>
              <Node pos="r" depth="4" NCoef="0" IVar="7" Cut="6.0000000000000000e+00" cType="1" res="-6.2643927522003651e-03" rms="3.0086186528205872e-01" purity="1.1886153370141983e-01" nType="0">
                <Node pos="l" depth="5" NCoef="0" IVar="-1" Cut="0.0000000000000000e+00" cType="1" res="-2.9221889562904835e-03" rms="3.1483027338981628e-01" purity="1.3731582462787628e-01" nType="-99"/>
                <Node pos="r" depth="5" NCoef="0" IVar="-1" Cut="0.0000000000000000e+00" cType="1" res="3.4597364719957113e-04" rms="2.8451648354530334e-01" purity="9.8529137670993805e-02" nType="-99"/>
              </Node>
            </Node>
          </Node>
        </Node>
        <Node pos="r" depth="1" NCoef="0" IVar="7" Cut="2.0000000000000000e+00" cType="1" res="1.5257938206195831e-01" rms="0.0000000000000000e+00" purity="3.9346683025360107e-01" nType="0">
          <Node pos="l" depth="2" NCoef="0" IVar="3" Cut="9.9169570207595825e-01" cType="1" res="1.1418890208005905e-02" rms="4.2457675933837891e-01" purity="7.3583889007568359e-01" nType="0">
            <Node pos="l" depth="3" NCoef="0" IVar="-1" Cut="0.0000000000000000e+00" cType="1" res="-1.6241357661783695e-03" rms="4.4064387679100037e-01" purity="6.9103467464447021e-01" nType="-99"/>
            <Node pos="r" depth="3" NCoef="0" IVar="5" Cut="-1.8355113267898560e+00" cType="1" res="1.8671276047825813e-02" rms="4.1995120048522949e-01" purity="7.4761462211608887e-01" nType="0">
              <Node pos="l" depth="4" NCoef="0" IVar="4" Cut="-9.0938037633895874e-01" cType="1" res="2.2605098783969879e-02" rms="4.0811243653297424e-01" purity="7.7794826030731201e-01" nType="0">
                <Node pos="l" depth="5" NCoef="0" IVar="-1" Cut="0.0000000000000000e+00" cType="1" res="1.0119423968717456e-03" rms="4.3596380949020386e-01" purity="7.2758203744888306e-01" nType="-99"/>
                <Node pos="r" depth="5" NCoef="0" IVar="5" Cut="-3.0355825424194336e+00" cType="1" res="2.6379328221082687e-02" rms="3.9745423197746277e-01" purity="7.9622858762741089e-01" nType="0">
                  <Node pos="l" depth="6" NCoef="0" IVar="-1" Cut="0.0000000000000000e+00" cType="1" res="4.1513643227517605e-03" rms="3.7447175383567810e-01" purity="8.2728844881057739e-01" nType="-99"/>
                  <Node pos="r" depth="6" NCoef="0" IVar="5" Cut="-2.5323040485382080e+00" cType="1" res="2.1642375737428665e-02" rms="4.0842387080192566e-01" purity="7.8063398599624634e-01" nType="0">
                    <Node pos="l" depth="7" NCoef="0" IVar="-1" Cut="0.0000000000000000e+00" cType="1" res="2.0359931513667107e-03" rms="4.0021109580993652e-01" purity="7.9348617792129517e-01" nType="-99"/>
                    <Node pos="r" depth="7" NCoef="0" IVar="-1" Cut="0.0000000000000000e+00" cType="1" res="2.6713907718658447e-03" rms="4.1828843951225281e-01" purity="7.6478356122970581e-01" nType="-99"/>
                  </Node>
                </Node>
              </Node>
              <Node pos="r" depth="4" NCoef="0" IVar="-1" Cut="0.0000000000000000e+00" cType="1" res="2.1603483764920384e-04" rms="4.6528419852256775e-01" purity="6.2242811918258667e-01" nType="-99"/>
            </Node>
          </Node>
          <Node pos="r" depth="2" NCoef="0" IVar="4" Cut="-1.6035696268081665e+00" cType="1" res="-1.1227235198020935e-02" rms="3.7856757640838623e-01" purity="2.8096994757652283e-01" nType="0">
            <Node pos="l" depth="3" NCoef="0" IVar="4" Cut="-2.7510392665863037e+00" cType="1" res="2.3621446453034878e-03" rms="4.4012135267257690e-01" purity="4.8061773180961609e-01" nType="0">
              <Node pos="l" depth="4" NCoef="0" IVar="-1" Cut="0.0000000000000000e+00" cType="1" res="3.2502328976988792e-03" rms="4.4401723146438599e-01" purity="6.0854077339172363e-01" nType="-99"/>
              <Node pos="r" depth="4" NCoef="0" IVar="5" Cut="-2.4410719871520996e+00" cType="1" res="-2.9649930074810982e-03" rms="4.3916910886764526e-01" purity="4.5606660842895508e-01" nType="0">
                <Node pos="l" depth="5" NCoef="0" IVar="3" Cut="7.5903183221817017e-01" cType="1" res="-1.3054006733000278e-02" rms="4.2206785082817078e-01" purity="4.2188900709152222e-01" nType="0">
                  <Node pos="l" depth="6" NCoef="0" IVar="4" Cut="-2.3067896366119385e+00" cType="1" res="-2.7873603627085686e-02" rms="3.9209851622581482e-01" purity="2.5366103649139404e-01" nType="0">
                    <Node pos="l" depth="7" NCoef="0" IVar="-1" Cut="0.0000000000000000e+00" cType="1" res="-5.0030038692057133e-03" rms="3.9633309841156006e-01" purity="2.6015469431877136e-01" nType="-99"/>
                    <Node pos="r" depth="7" NCoef="0" IVar="-1" Cut="0.0000000000000000e+00" cType="1" res="-2.8070111293345690e-03" rms="3.8831394910812378e-01" purity="2.4819979071617126e-01" nType="-99"/>
                  </Node>
                  <Node pos="r" depth="6" NCoef="0" IVar="-1" Cut="0.0000000000000000e+00" cType="1" res="8.1397069152444601e-04" rms="4.6199372410774231e-01" purity="6.7080193758010864e-01" nType="-99"/>
                </Node>
                <Node pos="r" depth="5" NCoef="0" IVar="4" Cut="-2.0477201938629150e+00" cType="1" res="1.0853725485503674e-02" rms="4.6120718121528625e-01" purity="5.0287896394729614e-01" nType="0">
                  <Node pos="l" depth="6" NCoef="0" IVar="-1" Cut="0.0000000000000000e+00" cType="1" res="1.7333645373582840e-03" rms="4.6512773633003235e-01" purity="5.3807920217514038e-01" nType="-99"/>
                  <Node pos="r" depth="6" NCoef="0" IVar="-1" Cut="0.0000000000000000e+00" cType="1" res="-1.6530882567167282e-04" rms="4.5433935523033142e-01" purity="4.4433504343032837e-01" nType="-99"/>
                </Node>
              </Node>
            </Node>
            <Node pos="r" depth="3" NCoef="0" IVar="3" Cut="8.2675027847290039e-01" cType="1" res="-1.5744084492325783e-02" rms="3.5564285516738892e-01" purity="2.1461084485054016e-01" nType="0">
              <Node pos="l" depth="4" NCoef="0" IVar="6" Cut="1.1529558151960373e-01" cType="1" res="-1.4030734077095985e-02" rms="3.4408223628997803e-01" purity="1.8689864873886108e-01" nType="0">
                <Node pos="l" depth="5" NCoef="0" IVar="6" Cut="6.3382796943187714e-02" cType="1" res="-1.7481999471783638e-02" rms="3.4953048825263977e-01" purity="2.0380425453186035e-01" nType="0">
                  <Node pos="l" depth="6" NCoef="0" IVar="7" Cut="3.0000000000000000e+00" cType="1" res="-2.6567624881863594e-02" rms="3.5151311755180359e-01" purity="2.0491555333137512e-01" nType="0">
                    <Node pos="l" depth="7" NCoef="0" IVar="-1" Cut="0.0000000000000000e+00" cType="1" res="-4.4795526191592216e-03" rms="4.3276867270469666e-01" purity="3.4411093592643738e-01" nType="-99"/>
                    <Node pos="r" depth="7" NCoef="0" IVar="-1" Cut="0.0000000000000000e+00" cType="1" res="-4.4854120351374149e-03" rms="3.2247811555862427e-01" purity="1.6236476600170135e-01" nType="-99"/>
                  </Node>
                  <Node pos="r" depth="6" NCoef="0" IVar="3" Cut="5.8918106555938721e-01" cType="1" res="-9.5908083021640778e-03" rms="3.4760734438896179e-01" purity="2.0283947885036469e-01" nType="0">
                    <Node pos="l" depth="7" NCoef="0" IVar="-1" Cut="0.0000000000000000e+00" cType="1" res="-5.3473296575248241e-03" rms="2.6968997716903687e-01" purity="8.9635871350765228e-02" nType="-99"/>
                    <Node pos="r" depth="7" NCoef="0" IVar="-1" Cut="0.0000000000000000e+00" cType="1" res="7.5473356992006302e-04" rms="4.7394537925720215e-01" purity="4.4818782806396484e-01" nType="-99"/>
                  </Node>
                </Node>
                <Node pos="r" depth="5" NCoef="0" IVar="5" Cut="-1.9213968515396118e+00" cType="1" res="-6.4692278392612934e-03" rms="3.3170744776725769e-01" purity="1.4985945820808411e-01" nType="0">
                  <Node pos="l" depth="6" NCoef="0" IVar="3" Cut="2.9151195287704468e-01" cType="1" res="7.9008415341377258e-03" rms="3.8143587112426758e-01" purity="2.1296215057373047e-01" nType="0">
                    <Node pos="l" depth="7" NCoef="0" IVar="-1" Cut="0.0000000000000000e+00" cType="1" res="-3.4690808970481157e-03" rms="2.9262220859527588e-01" purity="9.7992181777954102e-02" nType="-99"/>
                    <Node pos="r" depth="7" NCoef="0" IVar="-1" Cut="0.0000000000000000e+00" cType="1" res="2.7733845636248589e-03" rms="4.2954850196838379e-01" purity="2.8868478536605835e-01" nType="-99"/>
                  </Node>
                  <Node pos="r" depth="6" NCoef="0" IVar="5" Cut="-6.2744587659835815e-01" cType="1" res="-1.4963289722800255e-02" rms="2.9811635613441467e-01" purity="1.1255986988544464e-01" nType="0">
                    <Node pos="l" depth="7" NCoef="0" IVar="-1" Cut="0.0000000000000000e+00" cType="1" res="-3.9153629913926125e-03" rms="3.4887585043907166e-01" purity="1.6176447272300720e-01" nType="-99"/>
                    <Node pos="r" depth="7" NCoef="0" IVar="-1" Cut="0.0000000000000000e+00" cType="1" res="-3.8996727671474218e-03" rms="2.5468903779983521e-01" purity="7.6651699841022491e-02" nType="-99"/>
                  </Node>
                </Node>
              </Node>
              <Node pos="r" depth="4" NCoef="0" IVar="-1" Cut="0.0000000000000000e+00" cType="1" res="-3.4191736485809088e-03" rms="4.7515627741813660e-01" purity="5.5641919374465942e-01" nType="-99"/>
            </Node>
          </Node>
        </Node>
      </Node>
    </BinaryTree>
    <BinaryTree type="DecisionTree" boostWeight="1.0000000000000000e+00" itree="73">
      <Node pos="s" depth="0" NCoef="0" IVar="2" Cut="1.9193353271484375e+02" cType="1" res="6.5384702757000923e-03" rms="4.0650647878646851e-01" purity="5.0105291604995728e-01" nType="0">
        <Node pos="l" depth="1" NCoef="0" IVar="1" Cut="2.4183753132820129e-01" cType="1" res="1.2289920821785927e-02" rms="4.1624149680137634e-01" purity="5.9720301628112793e-01" nType="0">
          <Node pos="l" depth="2" NCoef="0" IVar="3" Cut="1.0003098249435425e+00" cType="1" res="1.9537908956408501e-02" rms="4.2052671313285828e-01" purity="6.6393011808395386e-01" nType="0">
            <Node pos="l" depth="3" NCoef="0" IVar="6" Cut="6.3486196100711823e-02" cType="1" res="1.6294991597533226e-02" rms="4.2865020036697388e-01" purity="6.2800949811935425e-01" nType="0">
              <Node pos="l" depth="4" NCoef="0" IVar="2" Cut="8.0486495971679688e+01" cType="1" res="1.2280475348234177e-02" rms="4.2547848820686340e-01" purity="6.6984081268310547e-01" nType="0">
                <Node pos="l" depth="5" NCoef="0" IVar="6" Cut="2.4575110524892807e-02" cType="1" res="1.8308995291590691e-02" rms="4.2125770449638367e-01" purity="7.0934629440307617e-01" nType="0">
                  <Node pos="l" depth="6" NCoef="0" IVar="2" Cut="2.3366434097290039e+01" cType="1" res="1.0879441164433956e-02" rms="4.1292515397071838e-01" purity="7.4176347255706787e-01" nType="0">
                    <Node pos="l" depth="7" NCoef="0" IVar="-1" Cut="0.0000000000000000e+00" cType="1" res="1.8550892127677798e-03" rms="4.0802398324012756e-01" purity="7.6923304796218872e-01" nType="-99"/>
                    <Node pos="r" depth="7" NCoef="0" IVar="-1" Cut="0.0000000000000000e+00" cType="1" res="-2.5163441896438599e-03" rms="4.3812900781631470e-01" purity="5.8629292249679565e-01" nType="-99"/>
                  </Node>
                  <Node pos="r" depth="6" NCoef="0" IVar="4" Cut="-1.9861805438995361e+00" cType="1" res="3.6714144051074982e-02" rms="4.4068342447280884e-01" purity="6.2903970479965210e-01" nType="0">
                    <Node pos="l" depth="7" NCoef="0" IVar="-1" Cut="0.0000000000000000e+00" cType="1" res="5.4028313606977463e-03" rms="4.2029312252998352e-01" purity="7.4597418308258057e-01" nType="-99"/>
                    <Node pos="r" depth="7" NCoef="0" IVar="-1" Cut="0.0000000000000000e+00" cType="1" res="2.6713495608419180e-03" rms="4.4946381449699402e-01" purity="5.7516914606094360e-01" nType="-99"/>
                  </Node>
                </Node>
                <Node pos="r" depth="5" NCoef="0" IVar="3" Cut="8.7531346082687378e-01" cType="1" res="-6.3588493503630161e-03" rms="4.3774667382240295e-01" purity="5.4769521951675415e-01" nType="0">
                  <Node pos="l" depth="6" NCoef="0" IVar="6" Cut="4.9048449844121933e-02" cType="1" res="-1.4057468622922897e-02" rms="4.4113728404045105e-01" purity="4.9272266030311584e-01" nType="0">
                    <Node pos="l" depth="7" NCoef="0" IVar="-1" Cut="0.0000000000000000e+00" cType="1" res="-2.8412425890564919e-03" rms="4.4128879904747009e-01" purity="4.8511409759521484e-01" nType="-99"/>
                    <Node pos="r" depth="7" NCoef="0" IVar="-1" Cut="0.0000000000000000e+00" cType="1" res="7.8072986798360944e-04" rms="4.4005340337753296e-01" purity="5.0664639472961426e-01" nType="-99"/>
                  </Node>
                  <Node pos="r" depth="6" NCoef="0" IVar="-1" Cut="0.0000000000000000e+00" cType="1" res="2.6101567782461643e-03" rms="4.2337489128112793e-01" purity="7.5613498687744141e-01" nType="-99"/>
                </Node>
              </Node>
              <Node pos="r" depth="4" NCoef="0" IVar="3" Cut="6.7661213874816895e-01" cType="1" res="3.3305697143077850e-02" rms="4.4143220782279968e-01" purity="4.5075786113739014e-01" nType="0">
                <Node pos="l" depth="5" NCoef="0" IVar="2" Cut="9.4638008117675781e+01" cType="1" res="2.5896210223436356e-02" rms="4.3359792232513428e-01" purity="3.4186851978302002e-01" nType="0">
                  <Node pos="l" depth="6" NCoef="0" IVar="-1" Cut="0.0000000000000000e+00" cType="1" res="4.2359000071883202e-03" rms="4.5994120836257935e-01" purity="4.1622254252433777e-01" nType="-99"/>
                  <Node pos="r" depth="6" NCoef="0" IVar="6" Cut="1.2322137504816055e-01" cType="1" res="2.0079478621482849e-02" rms="4.2396312952041626e-01" purity="3.1618559360504150e-01" nType="0">
                    <Node pos="l" depth="7" NCoef="0" IVar="-1" Cut="0.0000000000000000e+00" cType="1" res="1.6442155465483665e-03" rms="4.1927340626716614e-01" purity="3.1385526061058044e-01" nType="-99"/>
                    <Node pos="r" depth="7" NCoef="0" IVar="-1" Cut="0.0000000000000000e+00" cType="1" res="4.5468863099813461e-03" rms="4.3292987346649170e-01" purity="3.2091030478477478e-01" nType="-99"/>
                  </Node>
                </Node>
                <Node pos="r" depth="5" NCoef="0" IVar="2" Cut="1.1089930725097656e+02" cType="1" res="4.8310466110706329e-02" rms="4.5651772618293762e-01" purity="6.7126703262329102e-01" nType="0">
                  <Node pos="l" depth="6" NCoef="0" IVar="-1" Cut="0.0000000000000000e+00" cType="1" res="3.1731135677546263e-03" rms="4.5845204591751099e-01" purity="6.7315930128097534e-01" nType="-99"/>
                  <Node pos="r" depth="6" NCoef="0" IVar="-1" Cut="0.0000000000000000e+00" cType="1" res="5.0522838719189167e-03" rms="4.5424467325210571e-01" purity="6.6925704479217529e-01" nType="-99"/>
                </Node>
              </Node>
            </Node>
            <Node pos="r" depth="3" NCoef="0" IVar="5" Cut="-3.1939139366149902e+00" cType="1" res="3.2703135162591934e-02" rms="3.8551500439643860e-01" purity="8.0975651741027832e-01" nType="0">
              <Node pos="l" depth="4" NCoef="0" IVar="-1" Cut="0.0000000000000000e+00" cType="1" res="6.1635863967239857e-03" rms="3.2926511764526367e-01" purity="8.7358337640762329e-01" nType="-99"/>
              <Node pos="r" depth="4" NCoef="0" IVar="5" Cut="-2.4312298297882080e+00" cType="1" res="3.0020521953701973e-02" rms="3.9423510432243347e-01" purity="7.9888397455215454e-01" nType="0">
                <Node pos="l" depth="5" NCoef="0" IVar="4" Cut="-1.1683217436075211e-01" cType="1" res="3.3166464418172836e-02" rms="3.6452129483222961e-01" purity="8.4029269218444824e-01" nType="0">
                  <Node pos="l" depth="6" NCoef="0" IVar="5" Cut="-2.8741471767425537e+00" cType="1" res="3.8189157843589783e-02" rms="3.6359658837318420e-01" purity="8.4099811315536499e-01" nType="0">
                    <Node pos="l" depth="7" NCoef="0" IVar="-1" Cut="0.0000000000000000e+00" cType="1" res="3.9125191979110241e-03" rms="3.5924988985061646e-01" purity="8.4643501043319702e-01" nType="-99"/>
                    <Node pos="r" depth="7" NCoef="0" IVar="-1" Cut="0.0000000000000000e+00" cType="1" res="4.7597554512321949e-03" rms="3.6810937523841858e-01" purity="8.3518028259277344e-01" nType="-99"/>
                  </Node>
                  <Node pos="r" depth="6" NCoef="0" IVar="-1" Cut="0.0000000000000000e+00" cType="1" res="2.5794797111302614e-03" rms="3.6664608120918274e-01" purity="8.3840495347976685e-01" nType="-99"/>
                </Node>
                <Node pos="r" depth="5" NCoef="0" IVar="5" Cut="-1.7423758506774902e+00" cType="1" res="2.6231538504362106e-02" rms="4.2725747823715210e-01" purity="7.4901103973388672e-01" nType="0">
                  <Node pos="l" depth="6" NCoef="0" IVar="-1" Cut="0.0000000000000000e+00" cType="1" res="2.0034555345773697e-03" rms="4.0858912467956543e-01" purity="7.8454089164733887e-01" nType="-99"/>
                  <Node pos="r" depth="6" NCoef="0" IVar="-1" Cut="0.0000000000000000e+00" cType="1" res="3.2429187558591366e-03" rms="4.5186337828636169e-01" purity="6.9937640428543091e-01" nType="-99"/>
                </Node>
              </Node>
            </Node>
          </Node>
          <Node pos="r" depth="2" NCoef="0" IVar="4" Cut="4.0715262293815613e-01" cType="1" res="-2.3667328059673309e-03" rms="4.0704423189163208e-01" purity="4.6226966381072998e-01" nType="0">
            <Node pos="l" depth="3" NCoef="0" IVar="4" Cut="-1.4098761081695557e+00" cType="1" res="1.8930096412077546e-03" rms="4.2486971616744995e-01" purity="5.2778869867324829e-01" nType="0">
              <Node pos="l" depth="4" NCoef="0" IVar="6" Cut="4.3268930166959763e-02" cType="1" res="1.0348487645387650e-02" rms="4.5409721136093140e-01" purity="5.7757925987243652e-01" nType="0">
                <Node pos="l" depth="5" NCoef="0" IVar="2" Cut="6.1888282775878906e+01" cType="1" res="1.9775591790676117e-03" rms="4.5465722680091858e-01" purity="5.9830951690673828e-01" nType="0">
                  <Node pos="l" depth="6" NCoef="0" IVar="6" Cut="9.7641032189130783e-03" cType="1" res="8.5242558270692825e-03" rms="4.5743927359580994e-01" purity="6.2923794984817505e-01" nType="0">
                    <Node pos="l" depth="7" NCoef="0" IVar="-1" Cut="0.0000000000000000e+00" cType="1" res="-1.7567763279657811e-04" rms="4.5667555928230286e-01" purity="6.6963279247283936e-01" nType="-99"/>
                    <Node pos="r" depth="7" NCoef="0" IVar="-1" Cut="0.0000000000000000e+00" cType="1" res="2.4210682604461908e-03" rms="4.5813605189323425e-01" purity="5.6630033254623413e-01" nType="-99"/>
                  </Node>
                  <Node pos="r" depth="6" NCoef="0" IVar="-1" Cut="0.0000000000000000e+00" cType="1" res="-1.0254449443891644e-03" rms="4.4939666986465454e-01" purity="5.4295164346694946e-01" nType="-99"/>
                </Node>
                <Node pos="r" depth="5" NCoef="0" IVar="-1" Cut="0.0000000000000000e+00" cType="1" res="3.5153317730873823e-03" rms="4.5118641853332520e-01" purity="5.0993877649307251e-01" nType="-99"/>
              </Node>
              <Node pos="r" depth="4" NCoef="0" IVar="3" Cut="9.5471507310867310e-01" cType="1" res="-2.2372829262167215e-03" rms="4.0977233648300171e-01" purity="5.0346726179122925e-01" nType="0">
                <Node pos="l" depth="5" NCoef="0" IVar="6" Cut="3.3401731401681900e-02" cType="1" res="-1.2513775378465652e-02" rms="3.9682224392890930e-01" purity="2.9825857281684875e-01" nType="0">
                  <Node pos="l" depth="6" NCoef="0" IVar="-1" Cut="0.0000000000000000e+00" cType="1" res="-4.7009680420160294e-03" rms="4.0745002031326294e-01" purity="3.3782520890235901e-01" nType="-99"/>
                  <Node pos="r" depth="6" NCoef="0" IVar="3" Cut="5.5270260572433472e-01" cType="1" res="-3.2279677689075470e-03" rms="3.9230400323867798e-01" purity="2.8320235013961792e-01" nType="0">
                    <Node pos="l" depth="7" NCoef="0" IVar="-1" Cut="0.0000000000000000e+00" cType="1" res="-3.8811317645013332e-03" rms="2.9621976613998413e-01" purity="1.0752375423908234e-01" nType="-99"/>
                    <Node pos="r" depth="7" NCoef="0" IVar="-1" Cut="0.0000000000000000e+00" cType="1" res="8.4980658721178770e-04" rms="4.7920542955398560e-01" purity="4.8511022329330444e-01" nType="-99"/>
                  </Node>
                </Node>
                <Node pos="r" depth="5" NCoef="0" IVar="5" Cut="-2.9921486377716064e+00" cType="1" res="9.8186628893017769e-03" rms="4.2414420843124390e-01" purity="7.4420934915542603e-01" nType="0">
                  <Node pos="l" depth="6" NCoef="0" IVar="-1" Cut="0.0000000000000000e+00" cType="1" res="3.6526105832308531e-03" rms="3.8552266359329224e-01" purity="8.1083089113235474e-01" nType="-99"/>
                  <Node pos="r" depth="6" NCoef="0" IVar="4" Cut="-1.7900505661964417e-01" cType="1" res="-6.8345753243193030e-04" rms="4.4007974863052368e-01" purity="7.1411347389221191e-01" nType="0">
                    <Node pos="l" depth="7" NCoef="0" IVar="-1" Cut="0.0000000000000000e+00" cType="1" res="-1.4694018755108118e-03" rms="4.5008546113967896e-01" purity="6.9009023904800415e-01" nType="-99"/>
                    <Node pos="r" depth="7" NCoef="0" IVar="-1" Cut="0.0000000000000000e+00" cType="1" res="1.6029166290536523e-03" rms="4.2820107936859131e-01" purity="7.4056297540664673e-01" nType="-99"/>
                  </Node>
                </Node>
              </Node>
            </Node>
            <Node pos="r" depth="3" NCoef="0" IVar="6" Cut="9.2441737651824951e-02" cType="1" res="-2.0426705479621887e-02" rms="3.2001635432243347e-01" purity="1.8448962271213531e-01" nType="0">
              <Node pos="l" depth="4" NCoef="0" IVar="4" Cut="1.3519560098648071e+00" cType="1" res="-2.6765182614326477e-02" rms="3.2403695583343506e-01" purity="2.0190645754337311e-01" nType="0">
                <Node pos="l" depth="5" NCoef="0" IVar="-1" Cut="0.0000000000000000e+00" cType="1" res="-2.1999080199748278e-03" rms="3.8992401957511902e-01" purity="3.1353589892387390e-01" nType="-99"/>
                <Node pos="r" depth="5" NCoef="0" IVar="-1" Cut="0.0000000000000000e+00" cType="1" res="-1.2645838782191277e-02" rms="2.2509089112281799e-01" purity="7.3694691061973572e-02" nType="-99"/>
              </Node>
              <Node pos="r" depth="4" NCoef="0" IVar="-1" Cut="0.0000000000000000e+00" cType="1" res="-6.4439613197464496e-05" rms="3.0599024891853333e-01" purity="1.2903268635272980e-01" nType="-99"/>
            </Node>
          </Node>
        </Node>
        <Node pos="r" depth="1" NCoef="0" IVar="4" Cut="1.6711561679840088e+00" cType="1" res="-8.0176070332527161e-03" rms="3.8036966323852539e-01" purity="2.5771105289459229e-01" nType="0">
          <Node pos="l" depth="2" NCoef="0" IVar="2" Cut="3.7768069458007812e+02" cType="1" res="-4.7816988080739975e-03" rms="4.0502500534057617e-01" purity="2.9888698458671570e-01" nType="0">
            <Node pos="l" depth="3" NCoef="0" IVar="3" Cut="5.5186879634857178e-01" cType="1" res="2.4137371219694614e-03" rms="4.1380205750465393e-01" purity="3.4265047311782837e-01" nType="0">
              <Node pos="l" depth="4" NCoef="0" IVar="6" Cut="1.2953865528106689e-01" cType="1" res="-6.8555218167603016e-03" rms="3.3230122923851013e-01" purity="1.4526207745075226e-01" nType="0">
                <Node pos="l" depth="5" NCoef="0" IVar="6" Cut="7.9793944954872131e-02" cType="1" res="-1.7351489514112473e-02" rms="2.9531750082969666e-01" purity="1.0739465057849884e-01" nType="0">
                  <Node pos="l" depth="6" NCoef="0" IVar="-1" Cut="0.0000000000000000e+00" cType="1" res="-8.2574225962162018e-03" rms="2.5643554329872131e-01" purity="7.6524071395397186e-02" nType="-99"/>
                  <Node pos="r" depth="6" NCoef="0" IVar="6" Cut="1.0225006192922592e-01" cType="1" res="-9.2545188963413239e-03" rms="3.2004851102828979e-01" purity="1.2951976060867310e-01" nType="0">
                    <Node pos="l" depth="7" NCoef="0" IVar="-1" Cut="0.0000000000000000e+00" cType="1" res="1.9323176820762455e-04" rms="3.1406575441360474e-01" purity="1.2372198700904846e-01" nType="-99"/>
                    <Node pos="r" depth="7" NCoef="0" IVar="-1" Cut="0.0000000000000000e+00" cType="1" res="-4.3878993019461632e-03" rms="3.2610377669334412e-01" purity="1.3584727048873901e-01" nType="-99"/>
                  </Node>
                </Node>
                <Node pos="r" depth="5" NCoef="0" IVar="3" Cut="3.0298840999603271e-01" cType="1" res="1.2070601806044579e-02" rms="3.8951522111892700e-01" purity="2.1354384720325470e-01" nType="0">
                  <Node pos="l" depth="6" NCoef="0" IVar="-1" Cut="0.0000000000000000e+00" cType="1" res="-1.0214308713329956e-04" rms="3.3013248443603516e-01" purity="1.3253214955329895e-01" nType="-99"/>
                  <Node pos="r" depth="6" NCoef="0" IVar="-1" Cut="0.0000000000000000e+00" cType="1" res="2.9099034145474434e-03" rms="4.2782652378082275e-01" purity="2.7328202128410339e-01" nType="-99"/>
                </Node>
              </Node>
              <Node pos="r" depth="4" NCoef="0" IVar="4" Cut="-6.6812968254089355e-01" cType="1" res="1.0796074755489826e-02" rms="4.7547224164009094e-01" purity="5.2115201950073242e-01" nType="0">
                <Node pos="l" depth="5" NCoef="0" IVar="5" Cut="-1.7953648567199707e+00" cType="1" res="1.7577620223164558e-02" rms="4.7609019279479980e-01" purity="5.6905603408813477e-01" nType="0">
                  <Node pos="l" depth="6" NCoef="0" IVar="5" Cut="-2.6824047565460205e+00" cType="1" res="8.7325396016240120e-03" rms="4.7410988807678223e-01" purity="5.6967991590499878e-01" nType="0">
                    <Node pos="l" depth="7" NCoef="0" IVar="-1" Cut="0.0000000000000000e+00" cType="1" res="-9.2558789765462279e-04" rms="4.7399175167083740e-01" purity="5.2480149269104004e-01" nType="-99"/>
                    <Node pos="r" depth="7" NCoef="0" IVar="-1" Cut="0.0000000000000000e+00" cType="1" res="1.6599636292085052e-03" rms="4.7390815615653992e-01" purity="5.9273707866668701e-01" nType="-99"/>
                  </Node>
                  <Node pos="r" depth="6" NCoef="0" IVar="-1" Cut="0.0000000000000000e+00" cType="1" res="4.3091387487947941e-03" rms="4.8166948556900024e-01" purity="5.6687760353088379e-01" nType="-99"/>
                </Node>
                <Node pos="r" depth="5" NCoef="0" IVar="0" Cut="2.7174782752990723e-01" cType="1" res="-1.1194307589903474e-03" rms="4.7414964437484741e-01" purity="4.3698215484619141e-01" nType="0">
                  <Node pos="l" depth="6" NCoef="0" IVar="-1" Cut="0.0000000000000000e+00" cType="1" res="1.6218959353864193e-03" rms="4.8364982008934021e-01" purity="5.2141737937927246e-01" nType="-99"/>
                  <Node pos="r" depth="6" NCoef="0" IVar="-1" Cut="0.0000000000000000e+00" cType="1" res="-2.6027830317616463e-03" rms="4.6105742454528809e-01" purity="3.3198159933090210e-01" nType="-99"/>
                </Node>
              </Node>
            </Node>
            <Node pos="r" depth="3" NCoef="0" IVar="3" Cut="6.7633879184722900e-01" cType="1" res="-1.5291359275579453e-02" rms="3.9161458611488342e-01" purity="2.3496595025062561e-01" nType="0">
              <Node pos="l" depth="4" NCoef="0" IVar="7" Cut="7.0000000000000000e+00" cType="1" res="1.4394290745258331e-01" rms="0.0000000000000000e+00" purity="2.0830842852592468e-01" nType="0">
                <Node pos="l" depth="5" NCoef="0" IVar="6" Cut="1.7218123376369476e-01" cType="1" res="-2.9212301596999168e-03" rms="4.0115988254547119e-01" purity="2.3958465456962585e-01" nType="0">
                  <Node pos="l" depth="6" NCoef="0" IVar="4" Cut="1.1746216565370560e-01" cType="1" res="-1.1089145205914974e-02" rms="3.9515724778175354e-01" purity="2.3351508378982544e-01" nType="0">
                    <Node pos="l" depth="7" NCoef="0" IVar="-1" Cut="0.0000000000000000e+00" cType="1" res="-2.7540477458387613e-03" rms="4.0211990475654602e-01" purity="2.4844570457935333e-01" nType="-99"/>
                    <Node pos="r" depth="7" NCoef="0" IVar="-1" Cut="0.0000000000000000e+00" cType="1" res="1.7221004236489534e-03" rms="3.7687349319458008e-01" purity="1.9719800353050232e-01" nType="-99"/>
                  </Node>
                  <Node pos="r" depth="6" NCoef="0" IVar="7" Cut="5.0000000000000000e+00" cType="1" res="1.2124237604439259e-02" rms="4.1145911812782288e-01" purity="2.5099292397499084e-01" nType="0">
                    <Node pos="l" depth="7" NCoef="0" IVar="-1" Cut="0.0000000000000000e+00" cType="1" res="4.2021167464554310e-03" rms="4.4438922405242920e-01" purity="3.1109115481376648e-01" nType="-99"/>
                    <Node pos="r" depth="7" NCoef="0" IVar="-1" Cut="0.0000000000000000e+00" cType="1" res="-2.2249403409659863e-03" rms="3.6808523535728455e-01" purity="1.8015930056571960e-01" nType="-99"/>
                  </Node>
                </Node>
                <Node pos="r" depth="5" NCoef="0" IVar="-1" Cut="0.0000000000000000e+00" cType="1" res="-6.0565643943846226e-03" rms="2.9421186447143555e-01" purity="1.0317077487707138e-01" nType="-99"/>
              </Node>
              <Node pos="r" depth="4" NCoef="0" IVar="-1" Cut="0.0000000000000000e+00" cType="1" res="-7.6805688440799713e-03" rms="4.7637093067169189e-01" purity="4.5598420500755310e-01" nType="-99"/>
            </Node>
          </Node>
          <Node pos="r" depth="2" NCoef="0" IVar="3" Cut="4.5899510383605957e-01" cType="1" res="-2.3986704647541046e-02" rms="2.2093631327152252e-01" purity="5.4509107023477554e-02" nType="0">
            <Node pos="l" depth="3" NCoef="0" IVar="6" Cut="1.8818689882755280e-01" cType="1" res="-1.4192299917340279e-02" rms="2.0255409181118011e-01" purity="4.6825908124446869e-02" nType="0">
              <Node pos="l" depth="4" NCoef="0" IVar="6" Cut="1.2799225747585297e-01" cType="1" res="-2.7732111513614655e-02" rms="1.1767130345106125e-01" purity="1.4054727740585804e-02" nType="0">
                <Node pos="l" depth="5" NCoef="0" IVar="-1" Cut="0.0000000000000000e+00" cType="1" res="-1.8897028639912605e-02" rms="1.0804544389247894e-01" purity="1.1823614127933979e-02" nType="-99"/>
                <Node pos="r" depth="5" NCoef="0" IVar="-1" Cut="0.0000000000000000e+00" cType="1" res="-1.9864665344357491e-02" rms="1.2788569927215576e-01" purity="1.6674306243658066e-02" nType="-99"/>
              </Node>
              <Node pos="r" depth="4" NCoef="0" IVar="-1" Cut="0.0000000000000000e+00" cType="1" res="3.6165488418191671e-03" rms="3.0220153927803040e-01" purity="1.0867085307836533e-01" nType="-99"/>
            </Node>
            <Node pos="r" depth="3" NCoef="0" IVar="-1" Cut="0.0000000000000000e+00" cType="1" res="-1.2976487167179585e-02" rms="2.7027228474617004e-01" purity="7.9761348664760590e-02" nType="-99"/>
          </Node>
        </Node>
      </Node>
    </BinaryTree>
    <BinaryTree type="DecisionTree" boostWeight="1.0000000000000000e+00" itree="74">
      <Node pos="s" depth="0" NCoef="0" IVar="4" Cut="1.7316758632659912e+00" cType="1" res="6.5693780779838562e-03" rms="4.0585583448410034e-01" purity="5.0102627277374268e-01" nType="0">
        <Node pos="l" depth="1" NCoef="0" IVar="2" Cut="1.9193353271484375e+02" cType="1" res="9.1427145525813103e-03" rms="4.1711261868476868e-01" purity="5.3773021697998047e-01" nType="0">
          <Node pos="l" depth="2" NCoef="0" IVar="1" Cut="2.4183753132820129e-01" cType="1" res="1.3454166240990162e-02" rms="4.2123979330062866e-01" purity="6.2053096294403076e-01" nType="0">
            <Node pos="l" depth="3" NCoef="0" IVar="2" Cut="1.1763663482666016e+02" cType="1" res="1.9844213500618935e-02" rms="4.2229145765304565e-01" purity="6.7976737022399902e-01" nType="0">
              <Node pos="l" depth="4" NCoef="0" IVar="6" Cut="3.3397201448678970e-02" cType="1" res="2.2276744246482849e-02" rms="4.1796490550041199e-01" purity="7.1361523866653442e-01" nType="0">
                <Node pos="l" depth="5" NCoef="0" IVar="0" Cut="3.9769271016120911e-01" cType="1" res="1.7444189637899399e-02" rms="4.0715092420578003e-01" purity="7.5306433439254761e-01" nType="0">
                  <Node pos="l" depth="6" NCoef="0" IVar="3" Cut="9.9574983119964600e-01" cType="1" res="2.0232707262039185e-02" rms="4.0487763285636902e-01" purity="7.7830171585083008e-01" nType="0">
                    <Node pos="l" depth="7" NCoef="0" IVar="-1" Cut="0.0000000000000000e+00" cType="1" res="1.3053333386778831e-03" rms="4.2381688952445984e-01" purity="7.4400550127029419e-01" nType="-99"/>
                    <Node pos="r" depth="7" NCoef="0" IVar="-1" Cut="0.0000000000000000e+00" cType="1" res="3.1933130230754614e-03" rms="3.8469314575195312e-01" purity="8.1283849477767944e-01" nType="-99"/>
                  </Node>
                  <Node pos="r" depth="6" NCoef="0" IVar="-1" Cut="0.0000000000000000e+00" cType="1" res="-2.5095981545746326e-03" rms="4.3670037388801575e-01" purity="3.8842985033988953e-01" nType="-99"/>
                </Node>
                <Node pos="r" depth="5" NCoef="0" IVar="2" Cut="5.9677925109863281e+01" cType="1" res="3.7059228867292404e-02" rms="4.4910907745361328e-01" purity="5.9294301271438599e-01" nType="0">
                  <Node pos="l" depth="6" NCoef="0" IVar="7" Cut="3.0000000000000000e+00" cType="1" res="5.6735616177320480e-02" rms="4.4707262516021729e-01" purity="6.4951133728027344e-01" nType="0">
                    <Node pos="l" depth="7" NCoef="0" IVar="-1" Cut="0.0000000000000000e+00" cType="1" res="3.8368657696992159e-03" rms="4.3485271930694580e-01" purity="7.1159631013870239e-01" nType="-99"/>
                    <Node pos="r" depth="7" NCoef="0" IVar="-1" Cut="0.0000000000000000e+00" cType="1" res="6.8602180108428001e-03" rms="4.6480137109756470e-01" purity="5.5616235733032227e-01" nType="-99"/>
                  </Node>
                  <Node pos="r" depth="6" NCoef="0" IVar="3" Cut="7.1480768918991089e-01" cType="1" res="2.6879625394940376e-02" rms="4.4970941543579102e-01" purity="5.6398332118988037e-01" nType="0">
                    <Node pos="l" depth="7" NCoef="0" IVar="-1" Cut="0.0000000000000000e+00" cType="1" res="1.8171382835134864e-03" rms="4.5390135049819946e-01" purity="4.1395244002342224e-01" nType="-99"/>
                    <Node pos="r" depth="7" NCoef="0" IVar="-1" Cut="0.0000000000000000e+00" cType="1" res="3.2780559267848730e-03" rms="4.4554483890533447e-01" purity="7.0539015531539917e-01" nType="-99"/>
                  </Node>
                </Node>
              </Node>
              <Node pos="r" depth="4" NCoef="0" IVar="6" Cut="3.9375178515911102e-02" cType="1" res="6.9303833879530430e-03" rms="4.4433268904685974e-01" purity="5.0007587671279907e-01" nType="0">
                <Node pos="l" depth="5" NCoef="0" IVar="-1" Cut="0.0000000000000000e+00" cType="1" res="-2.2361476439982653e-03" rms="4.4342252612113953e-01" purity="5.7979667186737061e-01" nType="-99"/>
                <Node pos="r" depth="5" NCoef="0" IVar="6" Cut="1.1288952082395554e-01" cType="1" res="1.3626213185489178e-02" rms="4.4430893659591675e-01" purity="4.8008984327316284e-01" nType="0">
                  <Node pos="l" depth="6" NCoef="0" IVar="3" Cut="5.8973580598831177e-01" cType="1" res="8.9485179632902145e-03" rms="4.4237571954727173e-01" purity="5.0327771902084351e-01" nType="0">
                    <Node pos="l" depth="7" NCoef="0" IVar="-1" Cut="0.0000000000000000e+00" cType="1" res="-4.3991087004542351e-03" rms="3.6023625731468201e-01" purity="1.7523688077926636e-01" nType="-99"/>
                    <Node pos="r" depth="7" NCoef="0" IVar="-1" Cut="0.0000000000000000e+00" cType="1" res="1.9722678698599339e-03" rms="4.6850612759590149e-01" purity="6.2458884716033936e-01" nType="-99"/>
                  </Node>
                  <Node pos="r" depth="6" NCoef="0" IVar="-1" Cut="0.0000000000000000e+00" cType="1" res="3.6778878420591354e-03" rms="4.5180040597915649e-01" purity="3.8282972574234009e-01" nType="-99"/>
                </Node>
              </Node>
            </Node>
            <Node pos="r" depth="3" NCoef="0" IVar="5" Cut="-2.1779742240905762e+00" cType="1" res="-1.9309169147163630e-04" rms="4.1865849494934082e-01" purity="4.9401941895484924e-01" nType="0">
              <Node pos="l" depth="4" NCoef="0" IVar="6" Cut="8.3297252655029297e-02" cType="1" res="7.5196479447185993e-03" rms="4.1330569982528687e-01" purity="5.4465883970260620e-01" nType="0">
                <Node pos="l" depth="5" NCoef="0" IVar="2" Cut="6.1891559600830078e+01" cType="1" res="4.2511774227023125e-03" rms="4.1450944542884827e-01" purity="5.7007294893264771e-01" nType="0">
                  <Node pos="l" depth="6" NCoef="0" IVar="4" Cut="-3.1259924173355103e-01" cType="1" res="1.2295499444007874e-02" rms="4.2054784297943115e-01" purity="6.6290473937988281e-01" nType="0">
                    <Node pos="l" depth="7" NCoef="0" IVar="-1" Cut="0.0000000000000000e+00" cType="1" res="3.9501170977018774e-04" rms="4.3288260698318481e-01" purity="6.4294153451919556e-01" nType="-99"/>
                    <Node pos="r" depth="7" NCoef="0" IVar="-1" Cut="0.0000000000000000e+00" cType="1" res="2.9464084655046463e-03" rms="4.0028327703475952e-01" purity="6.9393712282180786e-01" nType="-99"/>
                  </Node>
                  <Node pos="r" depth="6" NCoef="0" IVar="5" Cut="-3.0755171775817871e+00" cType="1" res="-1.2056052684783936e-02" rms="4.0149614214897156e-01" purity="3.8188678026199341e-01" nType="0">
                    <Node pos="l" depth="7" NCoef="0" IVar="-1" Cut="0.0000000000000000e+00" cType="1" res="-8.7722660973668098e-03" rms="3.2422587275505066e-01" purity="1.7014139890670776e-01" nType="-99"/>
                    <Node pos="r" depth="7" NCoef="0" IVar="-1" Cut="0.0000000000000000e+00" cType="1" res="5.2943607443012297e-05" rms="4.2695805430412292e-01" purity="4.6366462111473083e-01" nType="-99"/>
                  </Node>
                </Node>
                <Node pos="r" depth="5" NCoef="0" IVar="-1" Cut="0.0000000000000000e+00" cType="1" res="6.2372684478759766e-03" rms="3.9874655008316040e-01" purity="2.7637401223182678e-01" nType="-99"/>
              </Node>
              <Node pos="r" depth="4" NCoef="0" IVar="5" Cut="-1.9160853624343872e+00" cType="1" res="-1.2863014824688435e-02" rms="4.2700389027595520e-01" purity="4.1083273291587830e-01" nType="0">
                <Node pos="l" depth="5" NCoef="0" IVar="-1" Cut="0.0000000000000000e+00" cType="1" res="-2.1993964037392288e-04" rms="4.3145886063575745e-01" purity="5.0820541381835938e-01" nType="-99"/>
                <Node pos="r" depth="5" NCoef="0" IVar="2" Cut="1.2381533813476562e+02" cType="1" res="-1.6099106520414352e-02" rms="4.2560359835624695e-01" purity="3.8158896565437317e-01" nType="0">
                  <Node pos="l" depth="6" NCoef="0" IVar="2" Cut="7.9867004394531250e+01" cType="1" res="-1.9593698903918266e-02" rms="4.3523463606834412e-01" purity="4.1340184211730957e-01" nType="0">
                    <Node pos="l" depth="7" NCoef="0" IVar="-1" Cut="0.0000000000000000e+00" cType="1" res="-1.3638518285006285e-03" rms="4.5085111260414124e-01" purity="4.6482807397842407e-01" nType="-99"/>
                    <Node pos="r" depth="7" NCoef="0" IVar="-1" Cut="0.0000000000000000e+00" cType="1" res="-5.2675758488476276e-03" rms="3.8612246513366699e-01" purity="2.6512598991394043e-01" nType="-99"/>
                  </Node>
                  <Node pos="r" depth="6" NCoef="0" IVar="-1" Cut="0.0000000000000000e+00" cType="1" res="-7.5297750299796462e-04" rms="3.9442676305770874e-01" purity="2.8407287597656250e-01" nType="-99"/>
                </Node>
              </Node>
            </Node>
          </Node>
          <Node pos="r" depth="2" NCoef="0" IVar="4" Cut="-2.6032207012176514e+00" cType="1" res="-3.3482862636446953e-03" rms="4.0465885400772095e-01" purity="2.9784268140792847e-01" nType="0">
            <Node pos="l" depth="3" NCoef="0" IVar="-1" Cut="0.0000000000000000e+00" cType="1" res="3.5987875889986753e-03" rms="4.3457844853401184e-01" purity="4.6660262346267700e-01" nType="-99"/>
            <Node pos="r" depth="3" NCoef="0" IVar="3" Cut="8.2675027847290039e-01" cType="1" res="-5.4681110195815563e-03" rms="4.0261602401733398e-01" purity="2.8727146983146667e-01" nType="0">
              <Node pos="l" depth="4" NCoef="0" IVar="3" Cut="7.7336925268173218e-01" cType="1" res="-2.9648698400706053e-03" rms="3.9867588877677917e-01" purity="2.7203997969627380e-01" nType="0">
                <Node pos="l" depth="5" NCoef="0" IVar="6" Cut="1.4182439446449280e-01" cType="1" res="-4.7451695427298546e-03" rms="3.9357218146324158e-01" purity="2.5078538060188293e-01" nType="0">
                  <Node pos="l" depth="6" NCoef="0" IVar="2" Cut="2.1211587524414062e+02" cType="1" res="-1.0592963546514511e-02" rms="3.9544764161109924e-01" purity="2.6815229654312134e-01" nType="0">
                    <Node pos="l" depth="7" NCoef="0" IVar="-1" Cut="0.0000000000000000e+00" cType="1" res="1.7417897470295429e-03" rms="4.0859681367874146e-01" purity="3.0669406056404114e-01" nType="-99"/>
                    <Node pos="r" depth="7" NCoef="0" IVar="-1" Cut="0.0000000000000000e+00" cType="1" res="-1.9465665100142360e-03" rms="3.9369571208953857e-01" purity="2.6339122653007507e-01" nType="-99"/>
                  </Node>
                  <Node pos="r" depth="6" NCoef="0" IVar="7" Cut="5.0000000000000000e+00" cType="1" res="1.5194514393806458e-01" rms="0.0000000000000000e+00" purity="2.1883383393287659e-01" nType="0">
                    <Node pos="l" depth="7" NCoef="0" IVar="-1" Cut="0.0000000000000000e+00" cType="1" res="2.6763689238578081e-03" rms="4.4038814306259155e-01" purity="3.0541861057281494e-01" nType="-99"/>
                    <Node pos="r" depth="7" NCoef="0" IVar="-1" Cut="0.0000000000000000e+00" cType="1" res="-9.5595652237534523e-04" rms="3.4972780942916870e-01" purity="1.5811719000339508e-01" nType="-99"/>
                  </Node>
                </Node>
                <Node pos="r" depth="5" NCoef="0" IVar="-1" Cut="0.0000000000000000e+00" cType="1" res="2.4333498440682888e-03" rms="4.7412487864494324e-01" purity="6.2301647663116455e-01" nType="-99"/>
              </Node>
              <Node pos="r" depth="4" NCoef="0" IVar="-1" Cut="0.0000000000000000e+00" cType="1" res="-4.9996594898402691e-03" rms="4.6444979310035706e-01" purity="5.5585658550262451e-01" nType="-99"/>
            </Node>
          </Node>
        </Node>
        <Node pos="r" depth="1" NCoef="0" IVar="3" Cut="5.5191767215728760e-01" cType="1" res="-2.3796105757355690e-02" rms="2.3324492573738098e-01" purity="6.7918017506599426e-02" nType="0">
          <Node pos="l" depth="2" NCoef="0" IVar="2" Cut="5.6170123291015625e+02" cType="1" res="-1.5520590357482433e-02" rms="1.9076216220855713e-01" purity="4.1297018527984619e-02" nType="0">
            <Node pos="l" depth="3" NCoef="0" IVar="7" Cut="7.0000000000000000e+00" cType="1" res="-2.1289169788360596e-02" rms="1.6167964041233063e-01" purity="2.8516344726085663e-02" nType="0">
              <Node pos="l" depth="4" NCoef="0" IVar="2" Cut="2.0131513977050781e+02" cType="1" res="-2.5859575718641281e-02" rms="1.5502789616584778e-01" purity="2.6127098128199577e-02" nType="0">
                <Node pos="l" depth="5" NCoef="0" IVar="-1" Cut="0.0000000000000000e+00" cType="1" res="-1.1689670383930206e-02" rms="1.7037533223628998e-01" purity="3.2783955335617065e-02" nType="-99"/>
                <Node pos="r" depth="5" NCoef="0" IVar="-1" Cut="0.0000000000000000e+00" cType="1" res="-1.8526883795857430e-02" rms="1.3950091600418091e-01" purity="2.0114347338676453e-02" nType="-99"/>
              </Node>
              <Node pos="r" depth="4" NCoef="0" IVar="-1" Cut="0.0000000000000000e+00" cType="1" res="-6.7951059900224209e-03" rms="1.7665930092334747e-01" purity="3.4468330442905426e-02" nType="-99"/>
            </Node>
            <Node pos="r" depth="3" NCoef="0" IVar="-1" Cut="0.0000000000000000e+00" cType="1" res="2.5525840464979410e-03" rms="2.7642264962196350e-01" purity="9.2019654810428619e-02" nType="-99"/>
          </Node>
          <Node pos="r" depth="2" NCoef="0" IVar="-1" Cut="0.0000000000000000e+00" cType="1" res="-8.8266190141439438e-03" rms="3.6849713325500488e-01" purity="1.9082252681255341e-01" nType="-99"/>
        </Node>
      </Node>
    </BinaryTree>
    <BinaryTree type="DecisionTree" boostWeight="1.0000000000000000e+00" itree="75">
      <Node pos="s" depth="0" NCoef="0" IVar="3" Cut="8.5945117473602295e-01" cType="1" res="4.0724053978919983e-03" rms="4.0500307083129883e-01" purity="4.9866130948066711e-01" nType="0">
        <Node pos="l" depth="1" NCoef="0" IVar="1" Cut="1.4958879351615906e-01" cType="1" res="-3.6856280639767647e-03" rms="4.0086597204208374e-01" purity="3.3133810758590698e-01" nType="0">
          <Node pos="l" depth="2" NCoef="0" IVar="2" Cut="3.8778131103515625e+02" cType="1" res="4.3973070569336414e-03" rms="4.2885953187942505e-01" purity="4.1462036967277527e-01" nType="0">
            <Node pos="l" depth="3" NCoef="0" IVar="6" Cut="5.5504277348518372e-02" cType="1" res="7.4786855839192867e-03" rms="4.3861198425292969e-01" purity="4.5551821589469910e-01" nType="0">
              <Node pos="l" depth="4" NCoef="0" IVar="2" Cut="5.2837535858154297e+01" cType="1" res="-3.7800699938088655e-03" rms="4.4644129276275635e-01" purity="5.2287948131561279e-01" nType="0">
                <Node pos="l" depth="5" NCoef="0" IVar="6" Cut="1.8071496859192848e-02" cType="1" res="1.7668591812252998e-02" rms="4.5408034324645996e-01" purity="5.8692091703414917e-01" nType="0">
                  <Node pos="l" depth="6" NCoef="0" IVar="-1" Cut="0.0000000000000000e+00" cType="1" res="-5.4209353402256966e-04" rms="4.5239353179931641e-01" purity="5.5415147542953491e-01" nType="-99"/>
                  <Node pos="r" depth="6" NCoef="0" IVar="5" Cut="-2.4799969196319580e+00" cType="1" res="2.7703097090125084e-02" rms="4.5444768667221069e-01" purity="6.0118794441223145e-01" nType="0">
                    <Node pos="l" depth="7" NCoef="0" IVar="-1" Cut="0.0000000000000000e+00" cType="1" res="4.2417207732796669e-03" rms="4.4355535507202148e-01" purity="6.4554226398468018e-01" nType="-99"/>
                    <Node pos="r" depth="7" NCoef="0" IVar="-1" Cut="0.0000000000000000e+00" cType="1" res="1.1830123839899898e-03" rms="4.6292126178741455e-01" purity="5.6373351812362671e-01" nType="-99"/>
                  </Node>
                </Node>
                <Node pos="r" depth="5" NCoef="0" IVar="6" Cut="2.8881113976240158e-02" cType="1" res="-1.7822554334998131e-02" rms="4.4080343842506409e-01" purity="4.8095136880874634e-01" nType="0">
                  <Node pos="l" depth="6" NCoef="0" IVar="-1" Cut="0.0000000000000000e+00" cType="1" res="-6.9454545155167580e-03" rms="4.4236353039741516e-01" purity="4.3882277607917786e-01" nType="-99"/>
                  <Node pos="r" depth="6" NCoef="0" IVar="0" Cut="4.8277729749679565e-01" cType="1" res="-8.2471957430243492e-03" rms="4.3988025188446045e-01" purity="4.9010336399078369e-01" nType="0">
                    <Node pos="l" depth="7" NCoef="0" IVar="-1" Cut="0.0000000000000000e+00" cType="1" res="1.7394305905327201e-04" rms="4.6839201450347900e-01" purity="6.0153704881668091e-01" nType="-99"/>
                    <Node pos="r" depth="7" NCoef="0" IVar="-1" Cut="0.0000000000000000e+00" cType="1" res="-6.3615092076361179e-03" rms="3.4323689341545105e-01" purity="1.6930434107780457e-01" nType="-99"/>
                  </Node>
                </Node>
              </Node>
              <Node pos="r" depth="4" NCoef="0" IVar="2" Cut="1.5726591491699219e+02" cType="1" res="1.5543988905847073e-02" rms="4.3273633718490601e-01" purity="4.0726348757743835e-01" nType="0">
                <Node pos="l" depth="5" NCoef="0" IVar="4" Cut="5.7573074102401733e-01" cType="1" res="3.0291220173239708e-02" rms="4.5333865284919739e-01" purity="4.9535325169563293e-01" nType="0">
                  <Node pos="l" depth="6" NCoef="0" IVar="3" Cut="6.6598564386367798e-01" cType="1" res="2.3265521973371506e-02" rms="4.6098214387893677e-01" purity="5.3933739662170410e-01" nType="0">
                    <Node pos="l" depth="7" NCoef="0" IVar="-1" Cut="0.0000000000000000e+00" cType="1" res="1.3705367455258965e-03" rms="4.6247604489326477e-01" purity="3.9920863509178162e-01" nType="-99"/>
                    <Node pos="r" depth="7" NCoef="0" IVar="-1" Cut="0.0000000000000000e+00" cType="1" res="2.8121117502450943e-03" rms="4.5921459794044495e-01" purity="6.8384999036788940e-01" nType="-99"/>
                  </Node>
                  <Node pos="r" depth="6" NCoef="0" IVar="-1" Cut="0.0000000000000000e+00" cType="1" res="7.1578426286578178e-03" rms="4.2436993122100830e-01" purity="3.4028553962707520e-01" nType="-99"/>
                </Node>
                <Node pos="r" depth="5" NCoef="0" IVar="4" Cut="1.1204121112823486e+00" cType="1" res="5.0614783540368080e-03" rms="4.1715735197067261e-01" purity="3.4464824199676514e-01" nType="0">
                  <Node pos="l" depth="6" NCoef="0" IVar="6" Cut="1.3868591189384460e-01" cType="1" res="1.0902250185608864e-02" rms="4.4180509448051453e-01" purity="3.9907526969909668e-01" nType="0">
                    <Node pos="l" depth="7" NCoef="0" IVar="-1" Cut="0.0000000000000000e+00" cType="1" res="4.7067334526218474e-04" rms="4.4088578224182129e-01" purity="4.1813954710960388e-01" nType="-99"/>
                    <Node pos="r" depth="7" NCoef="0" IVar="-1" Cut="0.0000000000000000e+00" cType="1" res="5.1676155999302864e-03" rms="4.4457718729972839e-01" purity="3.1724131107330322e-01" nType="-99"/>
                  </Node>
                  <Node pos="r" depth="6" NCoef="0" IVar="-1" Cut="0.0000000000000000e+00" cType="1" res="-5.9030815027654171e-03" rms="2.7806100249290466e-01" purity="9.8243325948715210e-02" nType="-99"/>
                </Node>
              </Node>
            </Node>
            <Node pos="r" depth="3" NCoef="0" IVar="3" Cut="2.2353515028953552e-01" cType="1" res="-1.0119016282260418e-02" rms="3.7922307848930359e-01" purity="2.2195138037204742e-01" nType="0">
              <Node pos="l" depth="4" NCoef="0" IVar="-1" Cut="0.0000000000000000e+00" cType="1" res="1.3872944982722402e-03" rms="3.7111017107963562e-01" purity="1.8555781245231628e-01" nType="-99"/>
              <Node pos="r" depth="4" NCoef="0" IVar="0" Cut="4.3360722064971924e-01" cType="1" res="-1.4824763871729374e-02" rms="3.8125014305114746e-01" purity="2.3178951442241669e-01" nType="0">
                <Node pos="l" depth="5" NCoef="0" IVar="3" Cut="5.2896112203598022e-01" cType="1" res="-1.3863787753507495e-03" rms="4.4307109713554382e-01" purity="3.4976491332054138e-01" nType="0">
                  <Node pos="l" depth="6" NCoef="0" IVar="-1" Cut="0.0000000000000000e+00" cType="1" res="-3.1154253520071507e-04" rms="4.0562826395034790e-01" purity="2.4091473221778870e-01" nType="-99"/>
                  <Node pos="r" depth="6" NCoef="0" IVar="-1" Cut="0.0000000000000000e+00" cType="1" res="-5.6756369303911924e-05" rms="4.7836026549339294e-01" purity="4.6115037798881531e-01" nType="-99"/>
                </Node>
                <Node pos="r" depth="5" NCoef="0" IVar="2" Cut="5.2553204345703125e+02" cType="1" res="-2.7935614809393883e-02" rms="3.0868318676948547e-01" purity="1.1668951809406281e-01" nType="0">
                  <Node pos="l" depth="6" NCoef="0" IVar="-1" Cut="0.0000000000000000e+00" cType="1" res="-8.8815242052078247e-03" rms="2.9674512147903442e-01" purity="1.1109586060047150e-01" nType="-99"/>
                  <Node pos="r" depth="6" NCoef="0" IVar="-1" Cut="0.0000000000000000e+00" cType="1" res="-3.9126821793615818e-03" rms="3.1933736801147461e-01" purity="1.2205836921930313e-01" nType="-99"/>
                </Node>
              </Node>
            </Node>
          </Node>
          <Node pos="r" depth="2" NCoef="0" IVar="5" Cut="-1.2442203760147095e+00" cType="1" res="-1.2078136205673218e-02" rms="3.6937609314918518e-01" purity="2.4486608803272247e-01" nType="0">
            <Node pos="l" depth="3" NCoef="0" IVar="5" Cut="-3.0995016098022461e+00" cType="1" res="-9.1609982773661613e-03" rms="3.9781737327575684e-01" purity="2.9856988787651062e-01" nType="0">
              <Node pos="l" depth="4" NCoef="0" IVar="4" Cut="-1.0451700687408447e+00" cType="1" res="-2.2820129990577698e-02" rms="3.2684135437011719e-01" purity="1.6240003705024719e-01" nType="0">
                <Node pos="l" depth="5" NCoef="0" IVar="-1" Cut="0.0000000000000000e+00" cType="1" res="-6.5823448821902275e-03" rms="3.3569177985191345e-01" purity="1.7958708107471466e-01" nType="-99"/>
                <Node pos="r" depth="5" NCoef="0" IVar="-1" Cut="0.0000000000000000e+00" cType="1" res="-1.5859390841796994e-03" rms="3.1404274702072144e-01" purity="1.3971881568431854e-01" nType="-99"/>
              </Node>
              <Node pos="r" depth="4" NCoef="0" IVar="5" Cut="-1.7829024791717529e+00" cType="1" res="-6.3883056864142418e-03" rms="4.1067466139793396e-01" purity="3.2621127367019653e-01" nType="0">
                <Node pos="l" depth="5" NCoef="0" IVar="3" Cut="4.7199976444244385e-01" cType="1" res="-3.0789393931627274e-03" rms="4.1352862119674683e-01" purity="3.3921039104461670e-01" nType="0">
                  <Node pos="l" depth="6" NCoef="0" IVar="3" Cut="3.5058039426803589e-01" cType="1" res="-1.2672535143792629e-02" rms="2.9992952942848206e-01" purity="1.0712005198001862e-01" nType="0">
                    <Node pos="l" depth="7" NCoef="0" IVar="-1" Cut="0.0000000000000000e+00" cType="1" res="-2.0629719365388155e-03" rms="2.8023189306259155e-01" purity="9.2231966555118561e-02" nType="-99"/>
                    <Node pos="r" depth="7" NCoef="0" IVar="-1" Cut="0.0000000000000000e+00" cType="1" res="-4.9328706227242947e-03" rms="3.2899421453475952e-01" purity="1.3116231560707092e-01" nType="-99"/>
                  </Node>
                  <Node pos="r" depth="6" NCoef="0" IVar="6" Cut="7.6884090900421143e-02" cType="1" res="2.8450344689190388e-03" rms="4.7006452083587646e-01" purity="4.8252436518669128e-01" nType="0">
                    <Node pos="l" depth="7" NCoef="0" IVar="-1" Cut="0.0000000000000000e+00" cType="1" res="-6.8411405663937330e-04" rms="4.6804168820381165e-01" purity="5.0280338525772095e-01" nType="-99"/>
                    <Node pos="r" depth="7" NCoef="0" IVar="-1" Cut="0.0000000000000000e+00" cType="1" res="2.1473735105246305e-03" rms="4.7335910797119141e-01" purity="4.4300442934036255e-01" nType="-99"/>
                  </Node>
                </Node>
                <Node pos="r" depth="5" NCoef="0" IVar="7" Cut="5.0000000000000000e+00" cType="1" res="-1.9120492041110992e-02" rms="3.9924499392509460e-01" purity="2.7618417143821716e-01" nType="0">
                  <Node pos="l" depth="6" NCoef="0" IVar="5" Cut="-1.5048192739486694e+00" cType="1" res="-2.7204196900129318e-02" rms="4.3945005536079407e-01" purity="3.5196360945701599e-01" nType="0">
                    <Node pos="l" depth="7" NCoef="0" IVar="-1" Cut="0.0000000000000000e+00" cType="1" res="-4.7049713321030140e-03" rms="4.3683716654777527e-01" purity="3.4568935632705688e-01" nType="-99"/>
                    <Node pos="r" depth="7" NCoef="0" IVar="-1" Cut="0.0000000000000000e+00" cType="1" res="-9.4072188949212432e-04" rms="4.4202122092247009e-01" purity="3.5990732908248901e-01" nType="-99"/>
                  </Node>
                  <Node pos="r" depth="6" NCoef="0" IVar="-1" Cut="0.0000000000000000e+00" cType="1" res="-7.1360397851094604e-04" rms="3.0084055662155151e-01" purity="1.2226499617099762e-01" nType="-99"/>
                </Node>
              </Node>
            </Node>
            <Node pos="r" depth="3" NCoef="0" IVar="3" Cut="5.5451810359954834e-01" cType="1" res="-1.8389144912362099e-02" rms="2.9862120747566223e-01" purity="1.2868197262287140e-01" nType="0">
              <Node pos="l" depth="4" NCoef="0" IVar="7" Cut="4.0000000000000000e+00" cType="1" res="-1.3595318421721458e-02" rms="2.2671574354171753e-01" purity="5.8995347470045090e-02" nType="0">
                <Node pos="l" depth="5" NCoef="0" IVar="-1" Cut="0.0000000000000000e+00" cType="1" res="3.8201035931706429e-04" rms="2.9058912396430969e-01" purity="1.0099704563617706e-01" nType="-99"/>
                <Node pos="r" depth="5" NCoef="0" IVar="4" Cut="4.5829496383666992e+00" cType="1" res="-1.6616439446806908e-02" rms="2.1122089028358459e-01" purity="5.0437819212675095e-02" nType="0">
                  <Node pos="l" depth="6" NCoef="0" IVar="4" Cut="1.7348567247390747e+00" cType="1" res="-1.8714806064963341e-02" rms="2.1980409324169159e-01" purity="5.4463598877191544e-02" nType="0">
                    <Node pos="l" depth="7" NCoef="0" IVar="-1" Cut="0.0000000000000000e+00" cType="1" res="-4.2870035395026207e-03" rms="2.6634505391120911e-01" purity="8.1442423164844513e-02" nType="-99"/>
                    <Node pos="r" depth="7" NCoef="0" IVar="-1" Cut="0.0000000000000000e+00" cType="1" res="-1.6944373026490211e-02" rms="1.4103460311889648e-01" purity="2.0688952878117561e-02" nType="-99"/>
                  </Node>
                  <Node pos="r" depth="6" NCoef="0" IVar="-1" Cut="0.0000000000000000e+00" cType="1" res="-5.8396323584020138e-03" rms="1.7351327836513519e-01" purity="3.4742724150419235e-02" nType="-99"/>
                </Node>
              </Node>
              <Node pos="r" depth="4" NCoef="0" IVar="4" Cut="4.3090653419494629e-01" cType="1" res="-3.1338892877101898e-02" rms="4.3707931041717529e-01" purity="3.1702467799186707e-01" nType="0">
                <Node pos="l" depth="5" NCoef="0" IVar="-1" Cut="0.0000000000000000e+00" cType="1" res="-1.1486455332487822e-03" rms="4.7304937243461609e-01" purity="4.0961936116218567e-01" nType="-99"/>
                <Node pos="r" depth="5" NCoef="0" IVar="-1" Cut="0.0000000000000000e+00" cType="1" res="-6.5948525443673134e-03" rms="3.9745485782623291e-01" purity="2.2554668784141541e-01" nType="-99"/>
              </Node>
            </Node>
          </Node>
        </Node>
        <Node pos="r" depth="1" NCoef="0" IVar="5" Cut="-1.8355113267898560e+00" cType="1" res="1.6299486160278320e-02" rms="4.1114187240600586e-01" purity="7.6237183809280396e-01" nType="0">
          <Node pos="l" depth="2" NCoef="0" IVar="3" Cut="1.0480625629425049e+00" cType="1" res="2.1357994526624680e-02" rms="3.9612889289855957e-01" purity="7.9620748758316040e-01" nType="0">
            <Node pos="l" depth="3" NCoef="0" IVar="3" Cut="9.9938315153121948e-01" cType="1" res="2.2416235879063606e-02" rms="3.9533942937850952e-01" purity="7.9854530096054077e-01" nType="0">
              <Node pos="l" depth="4" NCoef="0" IVar="1" Cut="4.0915766358375549e-01" cType="1" res="1.6354616731405258e-02" rms="4.0449091792106628e-01" purity="7.8484684228897095e-01" nType="0">
                <Node pos="l" depth="5" NCoef="0" IVar="7" Cut="2.0000000000000000e+00" cType="1" res="2.0983014255762100e-02" rms="3.9477950334548950e-01" purity="8.0151456594467163e-01" nType="0">
                  <Node pos="l" depth="6" NCoef="0" IVar="4" Cut="-1.6318429708480835e+00" cType="1" res="1.6156099736690521e-02" rms="3.8998284935951233e-01" purity="8.0758994817733765e-01" nType="0">
                    <Node pos="l" depth="7" NCoef="0" IVar="-1" Cut="0.0000000000000000e+00" cType="1" res="-1.2052055681124330e-03" rms="4.2966407537460327e-01" purity="7.4898999929428101e-01" nType="-99"/>
                    <Node pos="r" depth="7" NCoef="0" IVar="-1" Cut="0.0000000000000000e+00" cType="1" res="2.4317810311913490e-03" rms="3.8354548811912537e-01" purity="8.1632322072982788e-01" nType="-99"/>
                  </Node>
                  <Node pos="r" depth="6" NCoef="0" IVar="3" Cut="8.9473062753677368e-01" cType="1" res="3.0908141285181046e-02" rms="4.0542438626289368e-01" purity="7.8821378946304321e-01" nType="0">
                    <Node pos="l" depth="7" NCoef="0" IVar="-1" Cut="0.0000000000000000e+00" cType="1" res="2.2343609016388655e-03" rms="4.1654804348945618e-01" purity="7.7220195531845093e-01" nType="-99"/>
                    <Node pos="r" depth="7" NCoef="0" IVar="-1" Cut="0.0000000000000000e+00" cType="1" res="6.1211949214339256e-03" rms="3.8437521457672119e-01" purity="8.1636971235275269e-01" nType="-99"/>
                  </Node>
                </Node>
                <Node pos="r" depth="5" NCoef="0" IVar="4" Cut="-1.3631049394607544e+00" cType="1" res="-6.2222243286669254e-03" rms="4.4934007525444031e-01" purity="6.9984394311904907e-01" nType="0">
                  <Node pos="l" depth="6" NCoef="0" IVar="-1" Cut="0.0000000000000000e+00" cType="1" res="-3.2057093922048807e-03" rms="4.7072634100914001e-01" purity="6.4697664976119995e-01" nType="-99"/>
                  <Node pos="r" depth="6" NCoef="0" IVar="-1" Cut="0.0000000000000000e+00" cType="1" res="1.0131669696420431e-03" rms="4.3490570783615112e-01" purity="7.3217964172363281e-01" nType="-99"/>
                </Node>
              </Node>
              <Node pos="r" depth="4" NCoef="0" IVar="1" Cut="-1.1305790394544601e-01" cType="1" res="3.2769937068223953e-02" rms="3.7897336483001709e-01" purity="8.2194340229034424e-01" nType="0">
                <Node pos="l" depth="5" NCoef="0" IVar="4" Cut="-3.0136090517044067e-01" cType="1" res="2.2451080381870270e-02" rms="3.7481310963630676e-01" purity="8.2817101478576660e-01" nType="0">
                  <Node pos="l" depth="6" NCoef="0" IVar="-1" Cut="0.0000000000000000e+00" cType="1" res="1.9659912213683128e-03" rms="3.8837620615959167e-01" purity="8.1249475479125977e-01" nType="-99"/>
                  <Node pos="r" depth="6" NCoef="0" IVar="-1" Cut="0.0000000000000000e+00" cType="1" res="3.3432466443628073e-03" rms="3.6034014821052551e-01" purity="8.4424477815628052e-01" nType="-99"/>
                </Node>
                <Node pos="r" depth="5" NCoef="0" IVar="5" Cut="-2.2302961349487305e+00" cType="1" res="3.6219671368598938e-02" rms="3.8029158115386963e-01" purity="8.1986141204833984e-01" nType="0">
                  <Node pos="l" depth="6" NCoef="0" IVar="5" Cut="-3.2233726978302002e+00" cType="1" res="3.3567626029253006e-02" rms="3.7713557481765747e-01" purity="8.2416802644729614e-01" nType="0">
                    <Node pos="l" depth="7" NCoef="0" IVar="-1" Cut="0.0000000000000000e+00" cType="1" res="6.0455356724560261e-03" rms="3.4449398517608643e-01" purity="8.5889458656311035e-01" nType="-99"/>
                    <Node pos="r" depth="7" NCoef="0" IVar="-1" Cut="0.0000000000000000e+00" cType="1" res="3.2256580889225006e-03" rms="3.8407266139984131e-01" purity="8.1624066829681396e-01" nType="-99"/>
                  </Node>
                  <Node pos="r" depth="6" NCoef="0" IVar="-1" Cut="0.0000000000000000e+00" cType="1" res="5.0742211751639843e-03" rms="3.9750158786773682e-01" purity="7.9525965452194214e-01" nType="-99"/>
                </Node>
              </Node>
            </Node>
            <Node pos="r" depth="3" NCoef="0" IVar="-1" Cut="0.0000000000000000e+00" cType="1" res="-5.2484631305560470e-04" rms="4.1451084613800049e-01" purity="7.3772764205932617e-01" nType="-99"/>
          </Node>
          <Node pos="r" depth="2" NCoef="0" IVar="4" Cut="5.9541964530944824e-01" cType="1" res="-2.9330325778573751e-03" rms="4.6330231428146362e-01" purity="6.3372832536697388e-01" nType="0">
            <Node pos="l" depth="3" NCoef="0" IVar="5" Cut="-1.3904036283493042e+00" cType="1" res="3.4373800735920668e-03" rms="4.6177694201469421e-01" purity="6.5513670444488525e-01" nType="0">
              <Node pos="l" depth="4" NCoef="0" IVar="4" Cut="-2.8935793042182922e-01" cType="1" res="1.3159858994185925e-02" rms="4.4524204730987549e-01" purity="7.0860064029693604e-01" nType="0">
                <Node pos="l" depth="5" NCoef="0" IVar="-1" Cut="0.0000000000000000e+00" cType="1" res="3.0095365946181118e-04" rms="4.5511281490325928e-01" purity="6.8580621480941772e-01" nType="-99"/>
                <Node pos="r" depth="5" NCoef="0" IVar="-1" Cut="0.0000000000000000e+00" cType="1" res="2.9134822543710470e-03" rms="4.2881515622138977e-01" purity="7.4440473318099976e-01" nType="-99"/>
              </Node>
              <Node pos="r" depth="4" NCoef="0" IVar="5" Cut="-7.6584404706954956e-01" cType="1" res="-5.1333201117813587e-03" rms="4.7571203112602234e-01" purity="6.0800629854202271e-01" nType="0">
                <Node pos="l" depth="5" NCoef="0" IVar="-1" Cut="0.0000000000000000e+00" cType="1" res="1.2079122097929940e-04" rms="4.6630117297172546e-01" purity="6.5260356664657593e-01" nType="-99"/>
                <Node pos="r" depth="5" NCoef="0" IVar="-1" Cut="0.0000000000000000e+00" cType="1" res="-1.2637112522497773e-03" rms="4.8856520652770996e-01" purity="5.4493820667266846e-01" nType="-99"/>
              </Node>
            </Node>
            <Node pos="r" depth="3" NCoef="0" IVar="-1" Cut="0.0000000000000000e+00" cType="1" res="-3.8579553365707397e-03" rms="4.7041064500808716e-01" purity="5.0828796625137329e-01" nType="-99"/>
          </Node>
        </Node>
      </Node>
    </BinaryTree>
    <BinaryTree type="DecisionTree" boostWeight="1.0000000000000000e+00" itree="76">
      <Node pos="s" depth="0" NCoef="0" IVar="1" Cut="4.0330356359481812e-01" cType="1" res="5.1572513766586781e-03" rms="4.0560826659202576e-01" purity="5.0009989738464355e-01" nType="0">
        <Node pos="l" depth="1" NCoef="0" IVar="2" Cut="1.8629061889648438e+02" cType="1" res="1.0665721260011196e-02" rms="4.1397887468338013e-01" purity="5.5953747034072876e-01" nType="0">
          <Node pos="l" depth="2" NCoef="0" IVar="3" Cut="8.8370859622955322e-01" cType="1" res="1.6170341521501541e-02" rms="4.2006197571754456e-01" purity="6.5499401092529297e-01" nType="0">
            <Node pos="l" depth="3" NCoef="0" IVar="6" Cut="1.9879791885614395e-02" cType="1" res="9.5081822946667671e-03" rms="4.4273921847343445e-01" purity="5.0511842966079712e-01" nType="0">
              <Node pos="l" depth="4" NCoef="0" IVar="2" Cut="2.6290151596069336e+01" cType="1" res="-2.6124203577637672e-02" rms="4.4990459084510803e-01" purity="5.3747028112411499e-01" nType="0">
                <Node pos="l" depth="5" NCoef="0" IVar="-1" Cut="0.0000000000000000e+00" cType="1" res="6.1231967993080616e-04" rms="4.5253750681877136e-01" purity="5.9388142824172974e-01" nType="-99"/>
                <Node pos="r" depth="5" NCoef="0" IVar="-1" Cut="0.0000000000000000e+00" cType="1" res="-7.1245082654058933e-03" rms="4.4402411580085754e-01" purity="4.7302418947219849e-01" nType="-99"/>
              </Node>
              <Node pos="r" depth="4" NCoef="0" IVar="2" Cut="7.8685615539550781e+01" cType="1" res="1.4007265679538250e-02" rms="4.4162184000015259e-01" purity="5.0103360414505005e-01" nType="0">
                <Node pos="l" depth="5" NCoef="0" IVar="6" Cut="3.5533763468265533e-02" cType="1" res="2.7465883642435074e-02" rms="4.5212805271148682e-01" purity="5.7427763938903809e-01" nType="0">
                  <Node pos="l" depth="6" NCoef="0" IVar="2" Cut="4.5793174743652344e+01" cType="1" res="1.1646573431789875e-02" rms="4.5180943608283997e-01" purity="5.7541614770889282e-01" nType="0">
                    <Node pos="l" depth="7" NCoef="0" IVar="-1" Cut="0.0000000000000000e+00" cType="1" res="2.2697229869663715e-03" rms="4.5769494771957397e-01" purity="5.9837466478347778e-01" nType="-99"/>
                    <Node pos="r" depth="7" NCoef="0" IVar="-1" Cut="0.0000000000000000e+00" cType="1" res="-5.0862081116065383e-04" rms="4.4283896684646606e-01" purity="5.4297178983688354e-01" nType="-99"/>
                  </Node>
                  <Node pos="r" depth="6" NCoef="0" IVar="7" Cut="3.0000000000000000e+00" cType="1" res="3.7239160388708115e-02" rms="4.5192682743072510e-01" purity="5.7356530427932739e-01" nType="0">
                    <Node pos="l" depth="7" NCoef="0" IVar="-1" Cut="0.0000000000000000e+00" cType="1" res="1.8834382062777877e-03" rms="4.5244246721267700e-01" purity="6.5447294712066650e-01" nType="-99"/>
                    <Node pos="r" depth="7" NCoef="0" IVar="-1" Cut="0.0000000000000000e+00" cType="1" res="5.1951878704130650e-03" rms="4.5119571685791016e-01" purity="4.9585342407226562e-01" nType="-99"/>
                  </Node>
                </Node>
                <Node pos="r" depth="5" NCoef="0" IVar="6" Cut="6.5812125802040100e-02" cType="1" res="5.5234204046428204e-03" rms="4.3465456366539001e-01" purity="4.5486310124397278e-01" nType="0">
                  <Node pos="l" depth="6" NCoef="0" IVar="0" Cut="9.0684276819229126e-01" cType="1" res="-7.9113654792308807e-03" rms="4.3717733025550842e-01" purity="4.9605822563171387e-01" nType="0">
                    <Node pos="l" depth="7" NCoef="0" IVar="-1" Cut="0.0000000000000000e+00" cType="1" res="-2.5891920085996389e-04" rms="4.6066087484359741e-01" purity="5.6405085325241089e-01" nType="-99"/>
                    <Node pos="r" depth="7" NCoef="0" IVar="-1" Cut="0.0000000000000000e+00" cType="1" res="-1.2975550256669521e-02" rms="2.3763343691825867e-01" purity="6.6016390919685364e-02" nType="-99"/>
                  </Node>
                  <Node pos="r" depth="6" NCoef="0" IVar="3" Cut="6.8217402696609497e-01" cType="1" res="2.1698515862226486e-02" rms="4.3104249238967896e-01" purity="4.0526533126831055e-01" nType="0">
                    <Node pos="l" depth="7" NCoef="0" IVar="-1" Cut="0.0000000000000000e+00" cType="1" res="1.7841835506260395e-03" rms="4.1994151473045349e-01" purity="3.1199741363525391e-01" nType="-99"/>
                    <Node pos="r" depth="7" NCoef="0" IVar="-1" Cut="0.0000000000000000e+00" cType="1" res="3.7210045848041773e-03" rms="4.5922672748565674e-01" purity="6.5915721654891968e-01" nType="-99"/>
                  </Node>
                </Node>
              </Node>
            </Node>
            <Node pos="r" depth="3" NCoef="0" IVar="2" Cut="3.0020948410034180e+01" cType="1" res="2.2245941683650017e-02" rms="3.9815998077392578e-01" purity="7.9167401790618896e-01" nType="0">
              <Node pos="l" depth="4" NCoef="0" IVar="4" Cut="-1.4124561548233032e+00" cType="1" res="2.0157549530267715e-02" rms="3.9679235219955444e-01" purity="7.9371094703674316e-01" nType="0">
                <Node pos="l" depth="5" NCoef="0" IVar="4" Cut="-2.2332515716552734e+00" cType="1" res="7.8388378024101257e-03" rms="4.2666560411453247e-01" purity="7.5199031829833984e-01" nType="0">
                  <Node pos="l" depth="6" NCoef="0" IVar="-1" Cut="0.0000000000000000e+00" cType="1" res="2.8325763996690512e-03" rms="4.0876337885856628e-01" purity="7.7835792303085327e-01" nType="-99"/>
                  <Node pos="r" depth="6" NCoef="0" IVar="4" Cut="-1.8090761899948120e+00" cType="1" res="-4.7490797005593777e-03" rms="4.3780836462974548e-01" purity="7.3431181907653809e-01" nType="0">
                    <Node pos="l" depth="7" NCoef="0" IVar="-1" Cut="0.0000000000000000e+00" cType="1" res="-1.3180589303374290e-03" rms="4.4310528039932251e-01" purity="7.2196447849273682e-01" nType="-99"/>
                    <Node pos="r" depth="7" NCoef="0" IVar="-1" Cut="0.0000000000000000e+00" cType="1" res="4.2444685823284090e-04" rms="4.3219351768493652e-01" purity="7.4675172567367554e-01" nType="-99"/>
                  </Node>
                </Node>
                <Node pos="r" depth="5" NCoef="0" IVar="3" Cut="9.5649605989456177e-01" cType="1" res="2.2583490237593651e-02" rms="3.9059445261955261e-01" purity="8.0192708969116211e-01" nType="0">
                  <Node pos="l" depth="6" NCoef="0" IVar="-1" Cut="0.0000000000000000e+00" cType="1" res="6.1738566728308797e-05" rms="4.2918318510055542e-01" purity="7.4185043573379517e-01" nType="-99"/>
                  <Node pos="r" depth="6" NCoef="0" IVar="3" Cut="9.9547368288040161e-01" cType="1" res="2.4013556540012360e-02" rms="3.8791090250015259e-01" purity="8.0583089590072632e-01" nType="0">
                    <Node pos="l" depth="7" NCoef="0" IVar="-1" Cut="0.0000000000000000e+00" cType="1" res="1.9364922773092985e-03" rms="3.9805009961128235e-01" purity="7.9297298192977905e-01" nType="-99"/>
                    <Node pos="r" depth="7" NCoef="0" IVar="-1" Cut="0.0000000000000000e+00" cType="1" res="3.1774016097187996e-03" rms="3.8308218121528625e-01" purity="8.1178301572799683e-01" nType="-99"/>
                  </Node>
                </Node>
              </Node>
              <Node pos="r" depth="4" NCoef="0" IVar="4" Cut="-1.9374114274978638e+00" cType="1" res="4.0878776460886002e-02" rms="4.0968912839889526e-01" purity="7.7350026369094849e-01" nType="0">
                <Node pos="l" depth="5" NCoef="0" IVar="-1" Cut="0.0000000000000000e+00" cType="1" res="6.5105576068162918e-03" rms="3.8521942496299744e-01" purity="8.1559914350509644e-01" nType="-99"/>
                <Node pos="r" depth="5" NCoef="0" IVar="-1" Cut="0.0000000000000000e+00" cType="1" res="2.9041117522865534e-03" rms="4.3642204999923706e-01" purity="7.2378396987915039e-01" nType="-99"/>
              </Node>
            </Node>
          </Node>
          <Node pos="r" depth="2" NCoef="0" IVar="4" Cut="2.5652375817298889e-01" cType="1" res="-4.6610571444034576e-03" rms="3.9614737033843994e-01" purity="2.9375338554382324e-01" nType="0">
            <Node pos="l" depth="3" NCoef="0" IVar="2" Cut="6.6472314453125000e+02" cType="1" res="2.8869963716715574e-03" rms="4.3213120102882385e-01" purity="3.7368544936180115e-01" nType="0">
              <Node pos="l" depth="4" NCoef="0" IVar="2" Cut="2.6344863891601562e+02" cType="1" res="6.3221612945199013e-03" rms="4.3393582105636597e-01" purity="3.9043837785720825e-01" nType="0">
                <Node pos="l" depth="5" NCoef="0" IVar="0" Cut="7.0819211006164551e-01" cType="1" res="1.5571374446153641e-02" rms="4.4369125366210938e-01" purity="4.6405315399169922e-01" nType="0">
                  <Node pos="l" depth="6" NCoef="0" IVar="6" Cut="7.6590538024902344e-02" cType="1" res="2.4790139868855476e-02" rms="4.7134804725646973e-01" purity="5.6080907583236694e-01" nType="0">
                    <Node pos="l" depth="7" NCoef="0" IVar="-1" Cut="0.0000000000000000e+00" cType="1" res="1.6984981484711170e-03" rms="4.6332460641860962e-01" purity="5.9309494495391846e-01" nType="-99"/>
                    <Node pos="r" depth="7" NCoef="0" IVar="-1" Cut="0.0000000000000000e+00" cType="1" res="3.4946794621646404e-03" rms="4.8440930247306824e-01" purity="5.0589603185653687e-01" nType="-99"/>
                  </Node>
                  <Node pos="r" depth="6" NCoef="0" IVar="-1" Cut="0.0000000000000000e+00" cType="1" res="-3.3535431139171124e-03" rms="3.3227568864822388e-01" purity="1.3828982412815094e-01" nType="-99"/>
                </Node>
                <Node pos="r" depth="5" NCoef="0" IVar="2" Cut="3.0229330444335938e+02" cType="1" res="6.2984251417219639e-04" rms="4.2772197723388672e-01" purity="3.4513300657272339e-01" nType="0">
                  <Node pos="l" depth="6" NCoef="0" IVar="-1" Cut="0.0000000000000000e+00" cType="1" res="-2.2497973404824734e-03" rms="4.3679642677307129e-01" purity="3.8177445530891418e-01" nType="-99"/>
                  <Node pos="r" depth="6" NCoef="0" IVar="4" Cut="-2.0698146820068359e+00" cType="1" res="5.6058443151414394e-03" rms="4.2521163821220398e-01" purity="3.3569717407226562e-01" nType="0">
                    <Node pos="l" depth="7" NCoef="0" IVar="-1" Cut="0.0000000000000000e+00" cType="1" res="2.7679004706442356e-03" rms="4.4266548752784729e-01" purity="4.2826998233795166e-01" nType="-99"/>
                    <Node pos="r" depth="7" NCoef="0" IVar="-1" Cut="0.0000000000000000e+00" cType="1" res="4.3615622416837141e-05" rms="4.2031872272491455e-01" purity="3.1122788786888123e-01" nType="-99"/>
                  </Node>
                </Node>
              </Node>
              <Node pos="r" depth="4" NCoef="0" IVar="-1" Cut="0.0000000000000000e+00" cType="1" res="-3.1742383725941181e-03" rms="4.1739884018898010e-01" purity="2.4764193594455719e-01" nType="-99"/>
            </Node>
            <Node pos="r" depth="3" NCoef="0" IVar="7" Cut="4.0000000000000000e+00" cType="1" res="-1.9547207280993462e-02" rms="3.1274247169494629e-01" purity="1.3608448207378387e-01" nType="0">
              <Node pos="l" depth="4" NCoef="0" IVar="-1" Cut="0.0000000000000000e+00" cType="1" res="-5.4586622864007950e-03" rms="3.7799596786499023e-01" purity="2.2031950950622559e-01" nType="-99"/>
              <Node pos="r" depth="4" NCoef="0" IVar="2" Cut="6.3928149414062500e+02" cType="1" res="-1.3268951326608658e-02" rms="2.8430297970771790e-01" purity="1.0462291538715363e-01" nType="0">
                <Node pos="l" depth="5" NCoef="0" IVar="2" Cut="3.9086633300781250e+02" cType="1" res="-1.7246840521693230e-02" rms="2.7649453282356262e-01" purity="1.0063533484935760e-01" nType="0">
                  <Node pos="l" depth="6" NCoef="0" IVar="3" Cut="3.9309552311897278e-01" cType="1" res="-9.9618425592780113e-03" rms="2.9183700680732727e-01" purity="1.1498615890741348e-01" nType="0">
                    <Node pos="l" depth="7" NCoef="0" IVar="-1" Cut="0.0000000000000000e+00" cType="1" res="-6.9399992935359478e-03" rms="2.2029411792755127e-01" purity="5.5806342512369156e-02" nType="-99"/>
                    <Node pos="r" depth="7" NCoef="0" IVar="-1" Cut="0.0000000000000000e+00" cType="1" res="-4.6307937009260058e-04" rms="3.6595165729522705e-01" purity="1.9388183951377869e-01" nType="-99"/>
                  </Node>
                  <Node pos="r" depth="6" NCoef="0" IVar="-1" Cut="0.0000000000000000e+00" cType="1" res="-9.3141980469226837e-03" rms="2.4598592519760132e-01" purity="7.4840031564235687e-02" nType="-99"/>
                </Node>
                <Node pos="r" depth="5" NCoef="0" IVar="-1" Cut="0.0000000000000000e+00" cType="1" res="4.7981983516365290e-04" rms="3.1177634000778198e-01" purity="1.1979913711547852e-01" nType="-99"/>
              </Node>
            </Node>
          </Node>
        </Node>
        <Node pos="r" depth="1" NCoef="0" IVar="1" Cut="3.8908364772796631e+00" cType="1" res="-1.0784498415887356e-02" rms="3.7989687919616699e-01" purity="3.2808470726013184e-01" nType="0">
          <Node pos="l" depth="2" NCoef="0" IVar="1" Cut="8.5329699516296387e-01" cType="1" res="-1.3470327481627464e-02" rms="3.8035058975219727e-01" purity="3.2737126946449280e-01" nType="0">
            <Node pos="l" depth="3" NCoef="0" IVar="3" Cut="5.4209762811660767e-01" cType="1" res="-1.5829687472432852e-03" rms="3.9344370365142822e-01" purity="3.8396558165550232e-01" nType="0">
              <Node pos="l" depth="4" NCoef="0" IVar="1" Cut="5.4843980073928833e-01" cType="1" res="-1.4481162652373314e-02" rms="2.7850750088691711e-01" purity="9.3367539346218109e-02" nType="0">
                <Node pos="l" depth="5" NCoef="0" IVar="3" Cut="3.5032093524932861e-01" cType="1" res="-5.2003087475895882e-03" rms="2.9794663190841675e-01" purity="1.0900426656007767e-01" nType="0">
                  <Node pos="l" depth="6" NCoef="0" IVar="-1" Cut="0.0000000000000000e+00" cType="1" res="1.7818473279476166e-03" rms="2.6522982120513916e-01" purity="8.3554014563560486e-02" nType="-99"/>
                  <Node pos="r" depth="6" NCoef="0" IVar="-1" Cut="0.0000000000000000e+00" cType="1" res="-3.2092116307467222e-03" rms="3.2647702097892761e-01" purity="1.3386455178260803e-01" nType="-99"/>
                </Node>
                <Node pos="r" depth="5" NCoef="0" IVar="1" Cut="6.8607592582702637e-01" cType="1" res="-2.0740382373332977e-02" rms="2.6440823078155518e-01" purity="8.2821771502494812e-02" nType="0">
                  <Node pos="l" depth="6" NCoef="0" IVar="-1" Cut="0.0000000000000000e+00" cType="1" res="-8.0258455127477646e-03" rms="2.6189368963241577e-01" purity="8.0780282616615295e-02" nType="-99"/>
                  <Node pos="r" depth="6" NCoef="0" IVar="-1" Cut="0.0000000000000000e+00" cType="1" res="-4.6766619198024273e-03" rms="2.6684054732322693e-01" purity="8.4923490881919861e-02" nType="-99"/>
                </Node>
              </Node>
              <Node pos="r" depth="4" NCoef="0" IVar="2" Cut="1.6637922668457031e+02" cType="1" res="7.2771115228533745e-03" rms="4.5569440722465515e-01" purity="5.8358436822891235e-01" nType="0">
                <Node pos="l" depth="5" NCoef="0" IVar="6" Cut="3.7635240703821182e-02" cType="1" res="1.3115078210830688e-02" rms="4.5392480492591858e-01" purity="6.3218110799789429e-01" nType="0">
                  <Node pos="l" depth="6" NCoef="0" IVar="1" Cut="4.7585266828536987e-01" cType="1" res="6.5776533447206020e-03" rms="4.4602778553962708e-01" purity="6.7357486486434937e-01" nType="0">
                    <Node pos="l" depth="7" NCoef="0" IVar="-1" Cut="0.0000000000000000e+00" cType="1" res="1.8852667417377234e-03" rms="4.3473094701766968e-01" purity="7.0704990625381470e-01" nType="-99"/>
                    <Node pos="r" depth="7" NCoef="0" IVar="-1" Cut="0.0000000000000000e+00" cType="1" res="1.7173966625705361e-04" rms="4.5009860396385193e-01" purity="6.6101932525634766e-01" nType="-99"/>
                  </Node>
                  <Node pos="r" depth="6" NCoef="0" IVar="-1" Cut="0.0000000000000000e+00" cType="1" res="2.9033210594207048e-03" rms="4.7604435682296753e-01" purity="5.0944334268569946e-01" nType="-99"/>
                </Node>
                <Node pos="r" depth="5" NCoef="0" IVar="-1" Cut="0.0000000000000000e+00" cType="1" res="-1.2626645620912313e-03" rms="4.6104925870895386e-01" purity="4.2030122876167297e-01" nType="-99"/>
              </Node>
            </Node>
            <Node pos="r" depth="3" NCoef="0" IVar="3" Cut="8.2752412557601929e-01" cType="1" res="-3.0849197879433632e-02" rms="3.5964739322662354e-01" purity="2.4463248252868652e-01" nType="0">
              <Node pos="l" depth="4" NCoef="0" IVar="4" Cut="-1.7420175075531006e+00" cType="1" res="-2.1786404773592949e-02" rms="3.1422275304794312e-01" purity="1.4128574728965759e-01" nType="0">
                <Node pos="l" depth="5" NCoef="0" IVar="-1" Cut="0.0000000000000000e+00" cType="1" res="3.6671315319836140e-04" rms="4.1771438717842102e-01" purity="2.8511792421340942e-01" nType="-99"/>
                <Node pos="r" depth="5" NCoef="0" IVar="7" Cut="3.0000000000000000e+00" cType="1" res="-2.6730369776487350e-02" rms="2.8871726989746094e-01" purity="1.1236310005187988e-01" nType="0">
                  <Node pos="l" depth="6" NCoef="0" IVar="-1" Cut="0.0000000000000000e+00" cType="1" res="-7.2202230803668499e-03" rms="3.7868538498878479e-01" purity="2.1355478465557098e-01" nType="-99"/>
                  <Node pos="r" depth="6" NCoef="0" IVar="4" Cut="3.5643514990806580e-01" cType="1" res="-2.1521370857954025e-02" rms="2.6759779453277588e-01" purity="9.2845812439918518e-02" nType="0">
                    <Node pos="l" depth="7" NCoef="0" IVar="-1" Cut="0.0000000000000000e+00" cType="1" res="-6.4995111897587776e-03" rms="2.9679772257804871e-01" purity="1.1652032285928726e-01" nType="-99"/>
                    <Node pos="r" depth="7" NCoef="0" IVar="-1" Cut="0.0000000000000000e+00" cType="1" res="-6.1078341677784920e-03" rms="2.2616207599639893e-01" purity="6.3569359481334686e-02" nType="-99"/>
                  </Node>
                </Node>
              </Node>
              <Node pos="r" depth="4" NCoef="0" IVar="1" Cut="1.2452394962310791e+00" cType="1" res="-5.9595800936222076e-02" rms="4.7471392154693604e-01" purity="5.7244175672531128e-01" nType="0">
                <Node pos="l" depth="5" NCoef="0" IVar="-1" Cut="0.0000000000000000e+00" cType="1" res="-3.9199800230562687e-03" rms="4.7217726707458496e-01" purity="6.0573810338973999e-01" nType="-99"/>
                <Node pos="r" depth="5" NCoef="0" IVar="-1" Cut="0.0000000000000000e+00" cType="1" res="-6.8969652056694031e-03" rms="4.7679921984672546e-01" purity="5.3791159391403198e-01" nType="-99"/>
              </Node>
            </Node>
          </Node>
          <Node pos="r" depth="2" NCoef="0" IVar="-1" Cut="0.0000000000000000e+00" cType="1" res="5.2041024900972843e-03" rms="3.6916431784629822e-01" purity="3.4017553925514221e-01" nType="-99"/>
        </Node>
      </Node>
    </BinaryTree>
    <BinaryTree type="DecisionTree" boostWeight="1.0000000000000000e+00" itree="77">
      <Node pos="s" depth="0" NCoef="0" IVar="2" Cut="1.9370317077636719e+02" cType="1" res="4.2837448418140411e-03" rms="4.0601974725723267e-01" purity="4.9827250838279724e-01" nType="0">
        <Node pos="l" depth="1" NCoef="0" IVar="5" Cut="8.8699859380722046e-01" cType="1" res="8.5446704179048538e-03" rms="4.1611865162849426e-01" purity="5.9418737888336182e-01" nType="0">
          <Node pos="l" depth="2" NCoef="0" IVar="2" Cut="7.4981582641601562e+01" cType="1" res="9.7865881398320198e-03" rms="4.2029067873954773e-01" purity="6.0959309339523315e-01" nType="0">
            <Node pos="l" depth="3" NCoef="0" IVar="1" Cut="1.3261487483978271e+00" cType="1" res="1.4135969802737236e-02" rms="4.1759431362152100e-01" purity="6.9351291656494141e-01" nType="0">
              <Node pos="l" depth="4" NCoef="0" IVar="6" Cut="2.1860728040337563e-02" cType="1" res="1.6020761802792549e-02" rms="4.1731613874435425e-01" purity="7.0547175407409668e-01" nType="0">
                <Node pos="l" depth="5" NCoef="0" IVar="2" Cut="2.6605426788330078e+01" cType="1" res="1.1897534132003784e-02" rms="4.0975707769393921e-01" purity="7.4961268901824951e-01" nType="0">
                  <Node pos="l" depth="6" NCoef="0" IVar="1" Cut="4.7998896241188049e-01" cType="1" res="1.5208817087113857e-02" rms="4.0766951441764832e-01" purity="7.6686805486679077e-01" nType="0">
                    <Node pos="l" depth="7" NCoef="0" IVar="-1" Cut="0.0000000000000000e+00" cType="1" res="1.9628389272838831e-03" rms="4.0262550115585327e-01" purity="7.7953928709030151e-01" nType="-99"/>
                    <Node pos="r" depth="7" NCoef="0" IVar="-1" Cut="0.0000000000000000e+00" cType="1" res="-3.9177224971354008e-04" rms="4.4309163093566895e-01" purity="6.7212027311325073e-01" nType="-99"/>
                  </Node>
                  <Node pos="r" depth="6" NCoef="0" IVar="3" Cut="8.4293246269226074e-01" cType="1" res="-3.0975827947258949e-02" rms="4.3360728025436401e-01" purity="5.2619659900665283e-01" nType="0">
                    <Node pos="l" depth="7" NCoef="0" IVar="-1" Cut="0.0000000000000000e+00" cType="1" res="-6.3824607059359550e-03" rms="4.2552486062049866e-01" purity="3.7710294127464294e-01" nType="-99"/>
                    <Node pos="r" depth="7" NCoef="0" IVar="-1" Cut="0.0000000000000000e+00" cType="1" res="-2.8145365649834275e-04" rms="4.4175004959106445e-01" purity="7.1057397127151489e-01" nType="-99"/>
                  </Node>
                </Node>
                <Node pos="r" depth="5" NCoef="0" IVar="1" Cut="5.7881134748458862e-01" cType="1" res="2.8897823765873909e-02" rms="4.3983954191207886e-01" purity="5.6761723756790161e-01" nType="0">
                  <Node pos="l" depth="6" NCoef="0" IVar="5" Cut="-2.1058146953582764e+00" cType="1" res="3.4305348992347717e-02" rms="4.4520461559295654e-01" purity="6.0265249013900757e-01" nType="0">
                    <Node pos="l" depth="7" NCoef="0" IVar="-1" Cut="0.0000000000000000e+00" cType="1" res="4.4380584731698036e-03" rms="4.3164759874343872e-01" purity="6.5251815319061279e-01" nType="-99"/>
                    <Node pos="r" depth="7" NCoef="0" IVar="-1" Cut="0.0000000000000000e+00" cType="1" res="1.6417282167822123e-03" rms="4.6427783370018005e-01" purity="5.2786821126937866e-01" nType="-99"/>
                  </Node>
                  <Node pos="r" depth="6" NCoef="0" IVar="-1" Cut="0.0000000000000000e+00" cType="1" res="-1.6190086025744677e-03" rms="3.9404502511024475e-01" purity="3.0008307099342346e-01" nType="-99"/>
                </Node>
              </Node>
              <Node pos="r" depth="4" NCoef="0" IVar="4" Cut="-3.6707529425621033e-01" cType="1" res="-2.7435265481472015e-02" rms="4.2154598236083984e-01" purity="4.2974683642387390e-01" nType="0">
                <Node pos="l" depth="5" NCoef="0" IVar="-1" Cut="0.0000000000000000e+00" cType="1" res="-3.4377931151539087e-03" rms="4.4515275955200195e-01" purity="4.5643571019172668e-01" nType="-99"/>
                <Node pos="r" depth="5" NCoef="0" IVar="-1" Cut="0.0000000000000000e+00" cType="1" res="-2.7252696454524994e-03" rms="3.9727225899696350e-01" purity="4.0394738316535950e-01" nType="-99"/>
              </Node>
            </Node>
            <Node pos="r" depth="3" NCoef="0" IVar="1" Cut="1.3634023070335388e-01" cType="1" res="7.9975632252171636e-04" rms="4.2566719651222229e-01" purity="4.3619519472122192e-01" nType="0">
              <Node pos="l" depth="4" NCoef="0" IVar="6" Cut="9.0877808630466461e-02" cType="1" res="1.1866033077239990e-02" rms="4.4819554686546326e-01" purity="5.2934938669204712e-01" nType="0">
                <Node pos="l" depth="5" NCoef="0" IVar="3" Cut="8.2949090003967285e-01" cType="1" res="4.5587080530822277e-03" rms="4.4690966606140137e-01" purity="5.5874770879745483e-01" nType="0">
                  <Node pos="l" depth="6" NCoef="0" IVar="6" Cut="3.8291733711957932e-02" cType="1" res="-1.4967895112931728e-03" rms="4.5330566167831421e-01" purity="4.6992421150207520e-01" nType="0">
                    <Node pos="l" depth="7" NCoef="0" IVar="-1" Cut="0.0000000000000000e+00" cType="1" res="-2.9143588617444038e-03" rms="4.5364689826965332e-01" purity="4.3402630090713501e-01" nType="-99"/>
                    <Node pos="r" depth="7" NCoef="0" IVar="-1" Cut="0.0000000000000000e+00" cType="1" res="5.4086936870589852e-04" rms="4.5297846198081970e-01" purity="4.7939234972000122e-01" nType="-99"/>
                  </Node>
                  <Node pos="r" depth="6" NCoef="0" IVar="5" Cut="-2.3475351333618164e+00" cType="1" res="1.6754662618041039e-02" rms="4.3348509073257446e-01" purity="7.3764079809188843e-01" nType="0">
                    <Node pos="l" depth="7" NCoef="0" IVar="-1" Cut="0.0000000000000000e+00" cType="1" res="7.2127749444916844e-04" rms="4.1761288046836853e-01" purity="7.6894021034240723e-01" nType="-99"/>
                    <Node pos="r" depth="7" NCoef="0" IVar="-1" Cut="0.0000000000000000e+00" cType="1" res="2.6599061675369740e-03" rms="4.4782811403274536e-01" purity="7.0787596702575684e-01" nType="-99"/>
                  </Node>
                </Node>
                <Node pos="r" depth="5" NCoef="0" IVar="2" Cut="1.4007502746582031e+02" cType="1" res="3.7632733583450317e-02" rms="4.5175838470458984e-01" purity="4.2568668723106384e-01" nType="0">
                  <Node pos="l" depth="6" NCoef="0" IVar="-1" Cut="0.0000000000000000e+00" cType="1" res="4.5296158641576767e-03" rms="4.6140259504318237e-01" purity="4.6281701326370239e-01" nType="-99"/>
                  <Node pos="r" depth="6" NCoef="0" IVar="-1" Cut="0.0000000000000000e+00" cType="1" res="3.1798821873962879e-03" rms="4.4030219316482544e-01" purity="3.8340228796005249e-01" nType="-99"/>
                </Node>
              </Node>
              <Node pos="r" depth="4" NCoef="0" IVar="6" Cut="3.2192189246416092e-02" cType="1" res="-1.1445889249444008e-02" rms="3.9890137314796448e-01" purity="3.3311328291893005e-01" nType="0">
                <Node pos="l" depth="5" NCoef="0" IVar="-1" Cut="0.0000000000000000e+00" cType="1" res="-4.9710366874933243e-03" rms="4.2180541157722473e-01" purity="4.1114562749862671e-01" nType="-99"/>
                <Node pos="r" depth="5" NCoef="0" IVar="3" Cut="7.3461264371871948e-01" cType="1" res="-6.6173407249152660e-03" rms="3.9467862248420715e-01" purity="3.1986916065216064e-01" nType="0">
                  <Node pos="l" depth="6" NCoef="0" IVar="6" Cut="9.1212861239910126e-02" cType="1" res="-1.2896331027150154e-02" rms="3.5815358161926270e-01" purity="1.9733123481273651e-01" nType="0">
                    <Node pos="l" depth="7" NCoef="0" IVar="-1" Cut="0.0000000000000000e+00" cType="1" res="-3.9778868667781353e-03" rms="3.4947296977043152e-01" purity="1.8497741222381592e-01" nType="-99"/>
                    <Node pos="r" depth="7" NCoef="0" IVar="-1" Cut="0.0000000000000000e+00" cType="1" res="5.4778798948973417e-04" rms="3.7211602926254272e-01" purity="2.1866570413112640e-01" nType="-99"/>
                  </Node>
                  <Node pos="r" depth="6" NCoef="0" IVar="2" Cut="1.3243417358398438e+02" cType="1" res="8.7463147938251495e-03" rms="4.7193202376365662e-01" purity="6.1969923973083496e-01" nType="0">
                    <Node pos="l" depth="7" NCoef="0" IVar="-1" Cut="0.0000000000000000e+00" cType="1" res="1.7646588385105133e-03" rms="4.6906515955924988e-01" purity="6.3063955307006836e-01" nType="-99"/>
                    <Node pos="r" depth="7" NCoef="0" IVar="-1" Cut="0.0000000000000000e+00" cType="1" res="-1.8071036902256310e-04" rms="4.7437393665313721e-01" purity="6.0937047004699707e-01" nType="-99"/>
                  </Node>
                </Node>
              </Node>
            </Node>
          </Node>
          <Node pos="r" depth="2" NCoef="0" IVar="7" Cut="5.0000000000000000e+00" cType="1" res="-3.4477740526199341e-02" rms="2.2434346377849579e-01" purity="6.0345746576786041e-02" nType="0">
            <Node pos="l" depth="3" NCoef="0" IVar="-1" Cut="0.0000000000000000e+00" cType="1" res="-1.0753998532891273e-02" rms="2.9255628585815430e-01" purity="1.0547415167093277e-01" nType="-99"/>
            <Node pos="r" depth="3" NCoef="0" IVar="-1" Cut="0.0000000000000000e+00" cType="1" res="-1.8172202631831169e-02" rms="1.2128444761037827e-01" purity="1.5160088427364826e-02" nType="-99"/>
          </Node>
        </Node>
        <Node pos="r" depth="1" NCoef="0" IVar="4" Cut="1.6536980867385864e+00" cType="1" res="-6.5788333304226398e-03" rms="3.7884202599525452e-01" purity="2.5375223159790039e-01" nType="0">
          <Node pos="l" depth="2" NCoef="0" IVar="2" Cut="3.8115951538085938e+02" cType="1" res="-4.1496376506984234e-03" rms="4.0356567502021790e-01" purity="2.9449182748794556e-01" nType="0">
            <Node pos="l" depth="3" NCoef="0" IVar="6" Cut="1.2102872878313065e-01" cType="1" res="1.3531625736504793e-03" rms="4.1270282864570618e-01" purity="3.3708134293556213e-01" nType="0">
              <Node pos="l" depth="4" NCoef="0" IVar="3" Cut="5.1450425386428833e-01" cType="1" res="-2.9359126929193735e-03" rms="4.1414931416511536e-01" purity="3.6237856745719910e-01" nType="0">
                <Node pos="l" depth="5" NCoef="0" IVar="6" Cut="8.1342533230781555e-02" cType="1" res="-2.3771116510033607e-02" rms="2.5975266098976135e-01" purity="7.7463701367378235e-02" nType="0">
                  <Node pos="l" depth="6" NCoef="0" IVar="-1" Cut="0.0000000000000000e+00" cType="1" res="-1.0791650041937828e-02" rms="2.2586247324943542e-01" purity="5.6659583002328873e-02" nType="-99"/>
                  <Node pos="r" depth="6" NCoef="0" IVar="-1" Cut="0.0000000000000000e+00" cType="1" res="-4.9503147602081299e-03" rms="2.8564059734344482e-01" purity="9.5434211194515228e-02" nType="-99"/>
                </Node>
                <Node pos="r" depth="5" NCoef="0" IVar="0" Cut="2.7103316783905029e-01" cType="1" res="6.9368048571050167e-03" rms="4.6959501504898071e-01" purity="4.9738490581512451e-01" nType="0">
                  <Node pos="l" depth="6" NCoef="0" IVar="5" Cut="-1.6727755069732666e+00" cType="1" res="2.2419791668653488e-02" rms="4.7620418667793274e-01" purity="6.0276144742965698e-01" nType="0">
                    <Node pos="l" depth="7" NCoef="0" IVar="-1" Cut="0.0000000000000000e+00" cType="1" res="1.3273603981360793e-03" rms="4.7423234581947327e-01" purity="6.2872606515884399e-01" nType="-99"/>
                    <Node pos="r" depth="7" NCoef="0" IVar="-1" Cut="0.0000000000000000e+00" cType="1" res="3.7034365814179182e-03" rms="4.7992965579032898e-01" purity="5.4698485136032104e-01" nType="-99"/>
                  </Node>
                  <Node pos="r" depth="6" NCoef="0" IVar="6" Cut="7.5609773397445679e-02" cType="1" res="-1.6199190169572830e-02" rms="4.5856878161430359e-01" purity="3.3992227911949158e-01" nType="0">
                    <Node pos="l" depth="7" NCoef="0" IVar="-1" Cut="0.0000000000000000e+00" cType="1" res="-3.8731964305043221e-03" rms="4.5336630940437317e-01" purity="3.3214959502220154e-01" nType="-99"/>
                    <Node pos="r" depth="7" NCoef="0" IVar="-1" Cut="0.0000000000000000e+00" cType="1" res="6.4796942751854658e-04" rms="4.6374958753585815e-01" purity="3.4923645853996277e-01" nType="-99"/>
                  </Node>
                </Node>
              </Node>
              <Node pos="r" depth="4" NCoef="0" IVar="1" Cut="1.0810076445341110e-01" cType="1" res="1.5101886354386806e-02" rms="4.0772753953933716e-01" purity="2.5599044561386108e-01" nType="0">
                <Node pos="l" depth="5" NCoef="0" IVar="-1" Cut="0.0000000000000000e+00" cType="1" res="3.9352010935544968e-03" rms="4.3692964315414429e-01" purity="3.1321561336517334e-01" nType="-99"/>
                <Node pos="r" depth="5" NCoef="0" IVar="-1" Cut="0.0000000000000000e+00" cType="1" res="1.4838829520158470e-04" rms="3.7841346859931946e-01" purity="2.0351342856884003e-01" nType="-99"/>
              </Node>
            </Node>
            <Node pos="r" depth="3" NCoef="0" IVar="3" Cut="5.7952451705932617e-01" cType="1" res="-1.2243679724633694e-02" rms="3.8959562778472900e-01" purity="2.3184719681739807e-01" nType="0">
              <Node pos="l" depth="4" NCoef="0" IVar="6" Cut="1.7076152563095093e-01" cType="1" res="-7.0632882416248322e-03" rms="3.6293298006057739e-01" purity="1.7808911204338074e-01" nType="0">
                <Node pos="l" depth="5" NCoef="0" IVar="5" Cut="-2.4838683605194092e+00" cType="1" res="-1.5652928501367569e-02" rms="3.4105688333511353e-01" purity="1.5463458001613617e-01" nType="0">
                  <Node pos="l" depth="6" NCoef="0" IVar="-1" Cut="0.0000000000000000e+00" cType="1" res="-5.0961310043931007e-03" rms="3.3230045437812805e-01" purity="1.4376334846019745e-01" nType="-99"/>
                  <Node pos="r" depth="6" NCoef="0" IVar="1" Cut="3.5234081745147705e-01" cType="1" res="-1.0442034341394901e-02" rms="3.4557688236236572e-01" purity="1.6049970686435699e-01" nType="0">
                    <Node pos="l" depth="7" NCoef="0" IVar="-1" Cut="0.0000000000000000e+00" cType="1" res="-3.3668221440166235e-03" rms="3.5751265287399292e-01" purity="1.7514136433601379e-01" nType="-99"/>
                    <Node pos="r" depth="7" NCoef="0" IVar="-1" Cut="0.0000000000000000e+00" cType="1" res="5.4796127369627357e-04" rms="3.2700616121292114e-01" purity="1.3919043540954590e-01" nType="-99"/>
                  </Node>
                </Node>
                <Node pos="r" depth="5" NCoef="0" IVar="5" Cut="-2.4624569416046143e+00" cType="1" res="2.1018292754888535e-03" rms="3.8469466567039490e-01" purity="2.0311501622200012e-01" nType="0">
                  <Node pos="l" depth="6" NCoef="0" IVar="-1" Cut="0.0000000000000000e+00" cType="1" res="3.1482812482863665e-03" rms="4.1206663846969604e-01" purity="2.4689394235610962e-01" nType="-99"/>
                  <Node pos="r" depth="6" NCoef="0" IVar="3" Cut="2.8047582507133484e-01" cType="1" res="-8.4626646712422371e-03" rms="3.6790055036544800e-01" purity="1.7836371064186096e-01" nType="0">
                    <Node pos="l" depth="7" NCoef="0" IVar="-1" Cut="0.0000000000000000e+00" cType="1" res="-6.9352063292171806e-05" rms="3.5424348711967468e-01" purity="1.6374182701110840e-01" nType="-99"/>
                    <Node pos="r" depth="7" NCoef="0" IVar="-1" Cut="0.0000000000000000e+00" cType="1" res="-2.9930870514363050e-03" rms="3.8405051827430725e-01" purity="1.9664347171783447e-01" nType="-99"/>
                  </Node>
                </Node>
              </Node>
              <Node pos="r" depth="4" NCoef="0" IVar="-1" Cut="0.0000000000000000e+00" cType="1" res="-3.1540028285235167e-03" rms="4.7781607508659363e-01" purity="4.3821036815643311e-01" nType="-99"/>
            </Node>
          </Node>
          <Node pos="r" depth="2" NCoef="0" IVar="3" Cut="2.7618286013603210e-01" cType="1" res="-1.8299978226423264e-02" rms="2.2364827990531921e-01" purity="5.7179126888513565e-02" nType="0">
            <Node pos="l" depth="3" NCoef="0" IVar="-1" Cut="0.0000000000000000e+00" cType="1" res="2.1311016462277621e-04" rms="2.4682596325874329e-01" purity="7.1344614028930664e-02" nType="-99"/>
            <Node pos="r" depth="3" NCoef="0" IVar="5" Cut="1.2668329477310181e+00" cType="1" res="-2.8611514717340469e-02" rms="2.0912334322929382e-01" purity="4.9403063952922821e-02" nType="0">
              <Node pos="l" depth="4" NCoef="0" IVar="-1" Cut="0.0000000000000000e+00" cType="1" res="-4.8897489905357361e-03" rms="2.6221597194671631e-01" purity="8.1620119512081146e-02" nType="-99"/>
              <Node pos="r" depth="4" NCoef="0" IVar="-1" Cut="0.0000000000000000e+00" cType="1" res="-1.8805041909217834e-02" rms="1.5133786201477051e-01" purity="2.2897779941558838e-02" nType="-99"/>
            </Node>
          </Node>
        </Node>
      </Node>
    </BinaryTree>
    <BinaryTree type="DecisionTree" boostWeight="1.0000000000000000e+00" itree="78">
      <Node pos="s" depth="0" NCoef="0" IVar="2" Cut="1.9193357849121094e+02" cType="1" res="5.1982356235384941e-03" rms="4.0568995475769043e-01" purity="4.9908125400543213e-01" nType="0">
        <Node pos="l" depth="1" NCoef="0" IVar="4" Cut="2.5263042449951172e+00" cType="1" res="1.0762962512671947e-02" rms="4.1571071743965149e-01" purity="5.9668999910354614e-01" nType="0">
          <Node pos="l" depth="2" NCoef="0" IVar="1" Cut="2.8645029664039612e-01" cType="1" res="1.2131849303841591e-02" rms="4.1998109221458435e-01" purity="6.1092203855514526e-01" nType="0">
            <Node pos="l" depth="3" NCoef="0" IVar="3" Cut="8.5755872726440430e-01" cType="1" res="1.6889823600649834e-02" rms="4.2240974307060242e-01" purity="6.6812145709991455e-01" nType="0">
              <Node pos="l" depth="4" NCoef="0" IVar="6" Cut="6.3686504960060120e-02" cType="1" res="1.0563518851995468e-02" rms="4.5137193799018860e-01" purity="5.0000375509262085e-01" nType="0">
                <Node pos="l" depth="5" NCoef="0" IVar="2" Cut="5.6004878997802734e+01" cType="1" res="1.1733282590284944e-03" rms="4.5127749443054199e-01" purity="5.2244150638580322e-01" nType="0">
                  <Node pos="l" depth="6" NCoef="0" IVar="6" Cut="1.4568104408681393e-02" cType="1" res="1.4110018499195576e-02" rms="4.5863863825798035e-01" purity="5.7125371694564819e-01" nType="0">
                    <Node pos="l" depth="7" NCoef="0" IVar="-1" Cut="0.0000000000000000e+00" cType="1" res="-2.6939462404698133e-03" rms="4.6216657757759094e-01" purity="5.2469134330749512e-01" nType="-99"/>
                    <Node pos="r" depth="7" NCoef="0" IVar="-1" Cut="0.0000000000000000e+00" cType="1" res="2.2456992883235216e-03" rms="4.5719119906425476e-01" purity="5.8297044038772583e-01" nType="-99"/>
                  </Node>
                  <Node pos="r" depth="6" NCoef="0" IVar="4" Cut="-3.8050636649131775e-01" cType="1" res="-7.9888049513101578e-03" rms="4.4576358795166016e-01" purity="4.8787134885787964e-01" nType="0">
                    <Node pos="l" depth="7" NCoef="0" IVar="-1" Cut="0.0000000000000000e+00" cType="1" res="2.2910666302777827e-04" rms="4.5531144738197327e-01" purity="5.5840080976486206e-01" nType="-99"/>
                    <Node pos="r" depth="7" NCoef="0" IVar="-1" Cut="0.0000000000000000e+00" cType="1" res="-3.3372293692082167e-03" rms="4.2657589912414551e-01" purity="3.5534390807151794e-01" nType="-99"/>
                  </Node>
                </Node>
                <Node pos="r" depth="5" NCoef="0" IVar="2" Cut="1.3595359802246094e+02" cType="1" res="2.7815207839012146e-02" rms="4.5103615522384644e-01" purity="4.5878109335899353e-01" nType="0">
                  <Node pos="l" depth="6" NCoef="0" IVar="3" Cut="4.9835869669914246e-01" cType="1" res="3.8981914520263672e-02" rms="4.5949244499206543e-01" purity="4.9893566966056824e-01" nType="0">
                    <Node pos="l" depth="7" NCoef="0" IVar="-1" Cut="0.0000000000000000e+00" cType="1" res="1.1589732021093369e-02" rms="4.1931992769241333e-01" purity="2.5429487228393555e-01" nType="-99"/>
                    <Node pos="r" depth="7" NCoef="0" IVar="-1" Cut="0.0000000000000000e+00" cType="1" res="2.4412784259766340e-03" rms="4.7173228859901428e-01" purity="5.8064085245132446e-01" nType="-99"/>
                  </Node>
                  <Node pos="r" depth="6" NCoef="0" IVar="3" Cut="5.0326514244079590e-01" cType="1" res="9.6587873995304108e-03" rms="4.3632781505584717e-01" purity="3.9349213242530823e-01" nType="0">
                    <Node pos="l" depth="7" NCoef="0" IVar="-1" Cut="0.0000000000000000e+00" cType="1" res="-4.1653399239294231e-04" rms="3.5529550909996033e-01" purity="1.7249591648578644e-01" nType="-99"/>
                    <Node pos="r" depth="7" NCoef="0" IVar="-1" Cut="0.0000000000000000e+00" cType="1" res="1.5749842859804630e-03" rms="4.8000293970108032e-01" purity="5.3186094760894775e-01" nType="-99"/>
                  </Node>
                </Node>
              </Node>
              <Node pos="r" depth="4" NCoef="0" IVar="6" Cut="2.6447292417287827e-02" cType="1" res="2.1427512168884277e-02" rms="4.0028607845306396e-01" purity="7.8870779275894165e-01" nType="0">
                <Node pos="l" depth="5" NCoef="0" IVar="3" Cut="9.7299164533615112e-01" cType="1" res="1.8744163215160370e-02" rms="3.9813739061355591e-01" purity="7.9192537069320679e-01" nType="0">
                  <Node pos="l" depth="6" NCoef="0" IVar="6" Cut="1.5379913151264191e-02" cType="1" res="2.2385001648217440e-03" rms="4.2971006035804749e-01" purity="7.4493896961212158e-01" nType="0">
                    <Node pos="l" depth="7" NCoef="0" IVar="-1" Cut="0.0000000000000000e+00" cType="1" res="-4.5866917935200036e-04" rms="4.3199491500854492e-01" purity="7.4237930774688721e-01" nType="-99"/>
                    <Node pos="r" depth="7" NCoef="0" IVar="-1" Cut="0.0000000000000000e+00" cType="1" res="1.8294849433004856e-03" rms="4.2441493272781372e-01" purity="7.5044804811477661e-01" nType="-99"/>
                  </Node>
                  <Node pos="r" depth="6" NCoef="0" IVar="4" Cut="3.9070004224777222e-01" cType="1" res="2.2427055984735489e-02" rms="3.9064949750900269e-01" purity="8.0240941047668457e-01" nType="0">
                    <Node pos="l" depth="7" NCoef="0" IVar="-1" Cut="0.0000000000000000e+00" cType="1" res="2.6945904828608036e-03" rms="3.8695666193962097e-01" purity="8.0877387523651123e-01" nType="-99"/>
                    <Node pos="r" depth="7" NCoef="0" IVar="-1" Cut="0.0000000000000000e+00" cType="1" res="2.3367097310256213e-04" rms="4.4522416591644287e-01" purity="7.0034855604171753e-01" nType="-99"/>
                  </Node>
                </Node>
                <Node pos="r" depth="5" NCoef="0" IVar="4" Cut="-1.4350124597549438e+00" cType="1" res="3.9702381938695908e-02" rms="4.1416141390800476e-01" purity="7.6679491996765137e-01" nType="0">
                  <Node pos="l" depth="6" NCoef="0" IVar="-1" Cut="0.0000000000000000e+00" cType="1" res="5.3859534673392773e-03" rms="3.9642068743705750e-01" purity="7.9851168394088745e-01" nType="-99"/>
                  <Node pos="r" depth="6" NCoef="0" IVar="-1" Cut="0.0000000000000000e+00" cType="1" res="2.6432166341692209e-03" rms="4.3971851468086243e-01" purity="7.1798688173294067e-01" nType="-99"/>
                </Node>
              </Node>
            </Node>
            <Node pos="r" depth="3" NCoef="0" IVar="1" Cut="3.5356040000915527e+00" cType="1" res="4.7734272084198892e-04" rms="4.1374084353446960e-01" purity="4.7081381082534790e-01" nType="0">
              <Node pos="l" depth="4" NCoef="0" IVar="1" Cut="1.0195608139038086e+00" cType="1" res="-1.9029971444979310e-03" rms="4.1505363583564758e-01" purity="4.7333189845085144e-01" nType="0">
                <Node pos="l" depth="5" NCoef="0" IVar="6" Cut="7.5373031198978424e-02" cType="1" res="8.1928446888923645e-03" rms="4.2079192399978638e-01" purity="5.1808696985244751e-01" nType="0">
                  <Node pos="l" depth="6" NCoef="0" IVar="0" Cut="1.2565810680389404e+00" cType="1" res="4.6408246271312237e-03" rms="4.2393359541893005e-01" purity="5.5693960189819336e-01" nType="0">
                    <Node pos="l" depth="7" NCoef="0" IVar="-1" Cut="0.0000000000000000e+00" cType="1" res="9.0779567835852504e-04" rms="4.4013988971710205e-01" purity="6.1110830307006836e-01" nType="-99"/>
                    <Node pos="r" depth="7" NCoef="0" IVar="-1" Cut="0.0000000000000000e+00" cType="1" res="-1.3273605145514011e-02" rms="2.2141411900520325e-01" purity="5.8539625257253647e-02" nType="-99"/>
                  </Node>
                  <Node pos="r" depth="6" NCoef="0" IVar="2" Cut="1.2915402221679688e+02" cType="1" res="3.0332073569297791e-02" rms="3.9994496107101440e-01" purity="2.7592408657073975e-01" nType="0">
                    <Node pos="l" depth="7" NCoef="0" IVar="-1" Cut="0.0000000000000000e+00" cType="1" res="5.1740724593400955e-03" rms="4.1500797867774963e-01" purity="2.9848721623420715e-01" nType="-99"/>
                    <Node pos="r" depth="7" NCoef="0" IVar="-1" Cut="0.0000000000000000e+00" cType="1" res="3.5015512257814407e-03" rms="3.8363260030746460e-01" purity="2.5267857313156128e-01" nType="-99"/>
                  </Node>
                </Node>
                <Node pos="r" depth="5" NCoef="0" IVar="3" Cut="5.4317516088485718e-01" cType="1" res="-3.8797963410615921e-02" rms="3.9116203784942627e-01" purity="3.0977576971054077e-01" nType="0">
                  <Node pos="l" depth="6" NCoef="0" IVar="-1" Cut="0.0000000000000000e+00" cType="1" res="-5.5469293147325516e-03" rms="2.4503870308399200e-01" purity="6.7903533577919006e-02" nType="-99"/>
                  <Node pos="r" depth="6" NCoef="0" IVar="1" Cut="1.5056521892547607e+00" cType="1" res="-5.6403469294309616e-02" rms="4.6719714999198914e-01" purity="4.8152485489845276e-01" nType="0">
                    <Node pos="l" depth="7" NCoef="0" IVar="-1" Cut="0.0000000000000000e+00" cType="1" res="-3.4553334116935730e-03" rms="4.7085487842559814e-01" purity="5.0287765264511108e-01" nType="-99"/>
                    <Node pos="r" depth="7" NCoef="0" IVar="-1" Cut="0.0000000000000000e+00" cType="1" res="-7.6826489530503750e-03" rms="4.6146067976951599e-01" purity="4.5475497841835022e-01" nType="-99"/>
                  </Node>
                </Node>
              </Node>
              <Node pos="r" depth="4" NCoef="0" IVar="-1" Cut="0.0000000000000000e+00" cType="1" res="5.5649788118898869e-03" rms="3.8660803437232971e-01" purity="4.2511352896690369e-01" nType="-99"/>
            </Node>
          </Node>
          <Node pos="r" depth="2" NCoef="0" IVar="-1" Cut="0.0000000000000000e+00" cType="1" res="-2.1169960498809814e-02" rms="1.6481262445449829e-01" purity="2.8054457157850266e-02" nType="-99"/>
        </Node>
        <Node pos="r" depth="1" NCoef="0" IVar="2" Cut="3.7767733764648438e+02" cType="1" res="-8.8485302403569221e-03" rms="3.7885567545890808e-01" purity="2.5269225239753723e-01" nType="0">
          <Node pos="l" depth="2" NCoef="0" IVar="4" Cut="2.1993057727813721e+00" cType="1" res="-3.5605614539235830e-03" rms="3.9090794324874878e-01" purity="2.9747515916824341e-01" nType="0">
            <Node pos="l" depth="3" NCoef="0" IVar="2" Cut="2.5784173583984375e+02" cType="1" res="-3.7379597779363394e-04" rms="4.0906208753585815e-01" purity="3.2875588536262512e-01" nType="0">
              <Node pos="l" depth="4" NCoef="0" IVar="6" Cut="5.4883487522602081e-02" cType="1" res="8.3349309861660004e-03" rms="4.1947820782661438e-01" purity="3.7041252851486206e-01" nType="0">
                <Node pos="l" depth="5" NCoef="0" IVar="-1" Cut="0.0000000000000000e+00" cType="1" res="-1.1372385779395700e-03" rms="4.2483833432197571e-01" purity="4.5876649022102356e-01" nType="-99"/>
                <Node pos="r" depth="5" NCoef="0" IVar="4" Cut="-1.8750624656677246e+00" cType="1" res="1.4096710830926895e-02" rms="4.1757142543792725e-01" purity="3.4191012382507324e-01" nType="0">
                  <Node pos="l" depth="6" NCoef="0" IVar="-1" Cut="0.0000000000000000e+00" cType="1" res="4.1135060600936413e-03" rms="4.5682686567306519e-01" purity="5.2311754226684570e-01" nType="-99"/>
                  <Node pos="r" depth="6" NCoef="0" IVar="1" Cut="1.2651050090789795e-01" cType="1" res="6.2480238266289234e-03" rms="4.0611064434051514e-01" purity="2.9361996054649353e-01" nType="0">
                    <Node pos="l" depth="7" NCoef="0" IVar="-1" Cut="0.0000000000000000e+00" cType="1" res="2.1023035515099764e-03" rms="4.3826532363891602e-01" purity="3.6486899852752686e-01" nType="-99"/>
                    <Node pos="r" depth="7" NCoef="0" IVar="-1" Cut="0.0000000000000000e+00" cType="1" res="-6.5249641193076968e-04" rms="3.7375527620315552e-01" purity="2.2797335684299469e-01" nType="-99"/>
                  </Node>
                </Node>
              </Node>
              <Node pos="r" depth="4" NCoef="0" IVar="6" Cut="8.7042860686779022e-02" cType="1" res="-8.5100540891289711e-03" rms="3.9891335368156433e-01" purity="2.8983756899833679e-01" nType="0">
                <Node pos="l" depth="5" NCoef="0" IVar="3" Cut="6.7354708909988403e-01" cType="1" res="-1.7000038176774979e-02" rms="4.0549227595329285e-01" purity="3.3701664209365845e-01" nType="0">
                  <Node pos="l" depth="6" NCoef="0" IVar="-1" Cut="0.0000000000000000e+00" cType="1" res="-5.9622693806886673e-03" rms="3.3063712716102600e-01" purity="1.5009954571723938e-01" nType="-99"/>
                  <Node pos="r" depth="6" NCoef="0" IVar="-1" Cut="0.0000000000000000e+00" cType="1" res="1.2507096471381374e-05" rms="4.8066148161888123e-01" purity="5.6478351354598999e-01" nType="-99"/>
                </Node>
                <Node pos="r" depth="5" NCoef="0" IVar="7" Cut="5.0000000000000000e+00" cType="1" res="-2.2507996764034033e-03" rms="3.9390173554420471e-01" purity="2.5530007481575012e-01" nType="0">
                  <Node pos="l" depth="6" NCoef="0" IVar="2" Cut="3.0423852539062500e+02" cType="1" res="6.7449104972183704e-03" rms="4.3784460425376892e-01" purity="3.3916428685188293e-01" nType="0">
                    <Node pos="l" depth="7" NCoef="0" IVar="-1" Cut="0.0000000000000000e+00" cType="1" res="3.3341976813971996e-03" rms="4.4592317938804626e-01" purity="3.6868894100189209e-01" nType="-99"/>
                    <Node pos="r" depth="7" NCoef="0" IVar="-1" Cut="0.0000000000000000e+00" cType="1" res="-1.0036301100626588e-03" rms="4.3176800012588501e-01" purity="3.1959155201911926e-01" nType="-99"/>
                  </Node>
                  <Node pos="r" depth="6" NCoef="0" IVar="-1" Cut="0.0000000000000000e+00" cType="1" res="-4.1765314526855946e-03" rms="3.1060367822647095e-01" purity="1.2137796729803085e-01" nType="-99"/>
                </Node>
              </Node>
            </Node>
            <Node pos="r" depth="3" NCoef="0" IVar="-1" Cut="0.0000000000000000e+00" cType="1" res="-1.7088675871491432e-02" rms="1.6045619547367096e-01" purity="2.5635242462158203e-02" nType="-99"/>
          </Node>
          <Node pos="r" depth="2" NCoef="0" IVar="3" Cut="6.7608582973480225e-01" cType="1" res="-1.5876801684498787e-02" rms="3.6209726333618164e-01" purity="1.9317103922367096e-01" nType="0">
            <Node pos="l" depth="3" NCoef="0" IVar="6" Cut="2.1826440095901489e-01" cType="1" res="-9.6678193658590317e-03" rms="3.4996703267097473e-01" purity="1.7047600448131561e-01" nType="0">
              <Node pos="l" depth="4" NCoef="0" IVar="6" Cut="1.0864593833684921e-01" cType="1" res="-1.6906915232539177e-02" rms="3.3650419116020203e-01" purity="1.6031295061111450e-01" nType="0">
                <Node pos="l" depth="5" NCoef="0" IVar="-1" Cut="0.0000000000000000e+00" cType="1" res="-7.4529144912958145e-03" rms="3.1583505868911743e-01" purity="1.3459947705268860e-01" nType="-99"/>
                <Node pos="r" depth="5" NCoef="0" IVar="3" Cut="5.2341890335083008e-01" cType="1" res="-1.1883095838129520e-02" rms="3.4116044640541077e-01" purity="1.6657617688179016e-01" nType="0">
                  <Node pos="l" depth="6" NCoef="0" IVar="4" Cut="-7.9616183042526245e-01" cType="1" res="-1.6512814909219742e-02" rms="3.0305176973342896e-01" purity="1.1531073600053787e-01" nType="0">
                    <Node pos="l" depth="7" NCoef="0" IVar="-1" Cut="0.0000000000000000e+00" cType="1" res="-5.3042159415781498e-03" rms="3.4576213359832764e-01" purity="1.5340706706047058e-01" nType="-99"/>
                    <Node pos="r" depth="7" NCoef="0" IVar="-1" Cut="0.0000000000000000e+00" cType="1" res="-3.4083351492881775e-03" rms="2.8221234679222107e-01" purity="9.8640829324722290e-02" nType="-99"/>
                  </Node>
                  <Node pos="r" depth="6" NCoef="0" IVar="-1" Cut="0.0000000000000000e+00" cType="1" res="7.3959084693342447e-04" rms="4.6426317095756531e-01" purity="3.7453895807266235e-01" nType="-99"/>
                </Node>
              </Node>
              <Node pos="r" depth="4" NCoef="0" IVar="7" Cut="7.0000000000000000e+00" cType="1" res="1.4944297075271606e-01" rms="1.5748289227485657e-01" purity="2.0066381990909576e-01" nType="0">
                <Node pos="l" depth="5" NCoef="0" IVar="-1" Cut="0.0000000000000000e+00" cType="1" res="3.9153550751507282e-03" rms="4.1457933187484741e-01" purity="2.4610127508640289e-01" nType="-99"/>
                <Node pos="r" depth="5" NCoef="0" IVar="-1" Cut="0.0000000000000000e+00" cType="1" res="-1.1555921519175172e-03" rms="3.4772947430610657e-01" purity="1.4455854892730713e-01" nType="-99"/>
              </Node>
            </Node>
            <Node pos="r" depth="3" NCoef="0" IVar="-1" Cut="0.0000000000000000e+00" cType="1" res="-8.0665275454521179e-03" rms="4.6585237979888916e-01" purity="4.3107625842094421e-01" nType="-99"/>
          </Node>
        </Node>
      </Node>
    </BinaryTree>
    <BinaryTree type="DecisionTree" boostWeight="1.0000000000000000e+00" itree="79">
      <Node pos="s" depth="0" NCoef="0" IVar="1" Cut="-1.1378749273717403e-02" cType="1" res="6.0417363420128822e-03" rms="4.0546956658363342e-01" purity="5.0062918663024902e-01" nType="0">
        <Node pos="l" depth="1" NCoef="0" IVar="2" Cut="3.7258123779296875e+02" cType="1" res="1.5567556954920292e-02" rms="4.1595655679702759e-01" purity="5.9462887048721313e-01" nType="0">
          <Node pos="l" depth="2" NCoef="0" IVar="4" Cut="1.8027946949005127e+00" cType="1" res="1.8567331135272980e-02" rms="4.1937768459320068e-01" purity="6.3829821348190308e-01" nType="0">
            <Node pos="l" depth="3" NCoef="0" IVar="6" Cut="3.4284230321645737e-02" cType="1" res="1.9722077995538712e-02" rms="4.2353510856628418e-01" purity="6.5767502784729004e-01" nType="0">
              <Node pos="l" depth="4" NCoef="0" IVar="0" Cut="3.9769265055656433e-01" cType="1" res="1.6229050233960152e-02" rms="4.0510511398315430e-01" purity="7.5773423910140991e-01" nType="0">
                <Node pos="l" depth="5" NCoef="0" IVar="3" Cut="8.6018073558807373e-01" cType="1" res="1.8609279766678810e-02" rms="4.0239205956459045e-01" purity="7.8139156103134155e-01" nType="0">
                  <Node pos="l" depth="6" NCoef="0" IVar="2" Cut="3.9647689819335938e+01" cType="1" res="-2.8997045010328293e-03" rms="4.6802914142608643e-01" purity="6.3845360279083252e-01" nType="0">
                    <Node pos="l" depth="7" NCoef="0" IVar="-1" Cut="0.0000000000000000e+00" cType="1" res="1.1348312254995108e-03" rms="4.6130031347274780e-01" purity="6.6849356889724731e-01" nType="-99"/>
                    <Node pos="r" depth="7" NCoef="0" IVar="-1" Cut="0.0000000000000000e+00" cType="1" res="-1.7731697298586369e-03" rms="4.7420075535774231e-01" purity="6.0820949077606201e-01" nType="-99"/>
                  </Node>
                  <Node pos="r" depth="6" NCoef="0" IVar="4" Cut="-1.5955665111541748e+00" cType="1" res="2.2005250677466393e-02" rms="3.9091488718986511e-01" purity="8.0395954847335815e-01" nType="0">
                    <Node pos="l" depth="7" NCoef="0" IVar="-1" Cut="0.0000000000000000e+00" cType="1" res="8.1580103142186999e-04" rms="4.1822028160095215e-01" purity="7.6845085620880127e-01" nType="-99"/>
                    <Node pos="r" depth="7" NCoef="0" IVar="-1" Cut="0.0000000000000000e+00" cType="1" res="2.9984067659825087e-03" rms="3.8358503580093384e-01" purity="8.1297755241394043e-01" nType="-99"/>
                  </Node>
                </Node>
                <Node pos="r" depth="5" NCoef="0" IVar="-1" Cut="0.0000000000000000e+00" cType="1" res="-2.2019068710505962e-03" rms="4.4286385178565979e-01" purity="3.9681211113929749e-01" nType="-99"/>
              </Node>
              <Node pos="r" depth="4" NCoef="0" IVar="2" Cut="7.5239791870117188e+01" cType="1" res="2.4385111406445503e-02" rms="4.4691288471221924e-01" purity="5.2410054206848145e-01" nType="0">
                <Node pos="l" depth="5" NCoef="0" IVar="4" Cut="-8.9906096458435059e-01" cType="1" res="5.0532005727291107e-02" rms="4.4825991988182068e-01" purity="6.5701597929000854e-01" nType="0">
                  <Node pos="l" depth="6" NCoef="0" IVar="-1" Cut="0.0000000000000000e+00" cType="1" res="5.4869656451046467e-03" rms="4.2329534888267517e-01" purity="7.3256695270538330e-01" nType="-99"/>
                  <Node pos="r" depth="6" NCoef="0" IVar="-1" Cut="0.0000000000000000e+00" cType="1" res="3.7234330084174871e-03" rms="4.6558159589767456e-01" purity="6.0143381357192993e-01" nType="-99"/>
                </Node>
                <Node pos="r" depth="5" NCoef="0" IVar="4" Cut="3.5381135344505310e-01" cType="1" res="1.7405422404408455e-02" rms="4.4629365205764771e-01" purity="4.8861989378929138e-01" nType="0">
                  <Node pos="l" depth="6" NCoef="0" IVar="2" Cut="2.6707391357421875e+02" cType="1" res="1.3281796127557755e-02" rms="4.4864204525947571e-01" purity="5.1614743471145630e-01" nType="0">
                    <Node pos="l" depth="7" NCoef="0" IVar="-1" Cut="0.0000000000000000e+00" cType="1" res="9.9059438798576593e-04" rms="4.4930291175842285e-01" purity="5.3787112236022949e-01" nType="-99"/>
                    <Node pos="r" depth="7" NCoef="0" IVar="-1" Cut="0.0000000000000000e+00" cType="1" res="3.1807990744709969e-03" rms="4.4561800360679626e-01" purity="4.2658880352973938e-01" nType="-99"/>
                  </Node>
                  <Node pos="r" depth="6" NCoef="0" IVar="-1" Cut="0.0000000000000000e+00" cType="1" res="4.4523552060127258e-03" rms="4.3491488695144653e-01" purity="3.6294484138488770e-01" nType="-99"/>
                </Node>
              </Node>
            </Node>
            <Node pos="r" depth="3" NCoef="0" IVar="-1" Cut="0.0000000000000000e+00" cType="1" res="-3.4999749623239040e-03" rms="2.8309938311576843e-01" purity="1.1454260349273682e-01" nType="-99"/>
          </Node>
          <Node pos="r" depth="2" NCoef="0" IVar="2" Cut="5.4688214111328125e+02" cType="1" res="-9.2590218409895897e-03" rms="3.8558733463287354e-01" purity="2.3321542143821716e-01" nType="0">
            <Node pos="l" depth="3" NCoef="0" IVar="-1" Cut="0.0000000000000000e+00" cType="1" res="-2.5507099926471710e-03" rms="3.8141307234764099e-01" purity="2.4279271066188812e-01" nType="-99"/>
            <Node pos="r" depth="3" NCoef="0" IVar="5" Cut="-1.4063665866851807e+00" cType="1" res="-2.4247500114142895e-03" rms="3.8943544030189514e-01" purity="2.2400906682014465e-01" nType="0">
              <Node pos="l" depth="4" NCoef="0" IVar="-1" Cut="0.0000000000000000e+00" cType="1" res="4.2717394535429776e-04" rms="4.3156042695045471e-01" purity="2.9285651445388794e-01" nType="-99"/>
              <Node pos="r" depth="4" NCoef="0" IVar="-1" Cut="0.0000000000000000e+00" cType="1" res="-1.7939765239134431e-03" rms="3.3788305521011353e-01" purity="1.4951267838478088e-01" nType="-99"/>
            </Node>
          </Node>
        </Node>
        <Node pos="r" depth="1" NCoef="0" IVar="3" Cut="8.6750560998916626e-01" cType="1" res="2.2163102403283119e-04" rms="3.9881455898284912e-01" purity="4.4319704174995422e-01" nType="0">
          <Node pos="l" depth="2" NCoef="0" IVar="3" Cut="1.4004860818386078e-01" cType="1" res="-5.2823736332356930e-03" rms="3.8751533627510071e-01" purity="2.9135206341743469e-01" nType="0">
            <Node pos="l" depth="3" NCoef="0" IVar="-1" Cut="0.0000000000000000e+00" cType="1" res="8.5524972528219223e-03" rms="3.3055335283279419e-01" purity="1.4231836795806885e-01" nType="-99"/>
            <Node pos="r" depth="3" NCoef="0" IVar="0" Cut="6.2314194440841675e-01" cType="1" res="-6.7741717211902142e-03" rms="3.8964772224426270e-01" purity="2.9759204387664795e-01" nType="0">
              <Node pos="l" depth="4" NCoef="0" IVar="6" Cut="9.6287727355957031e-02" cType="1" res="1.2323304545134306e-03" rms="4.6090152859687805e-01" purity="4.6186488866806030e-01" nType="0">
                <Node pos="l" depth="5" NCoef="0" IVar="4" Cut="4.0984737873077393e-01" cType="1" res="-5.4189995862543583e-03" rms="4.6833580732345581e-01" purity="5.0876885652542114e-01" nType="0">
                  <Node pos="l" depth="6" NCoef="0" IVar="6" Cut="3.7458129227161407e-02" cType="1" res="-3.7508018431253731e-04" rms="4.7422233223915100e-01" purity="5.4046201705932617e-01" nType="0">
                    <Node pos="l" depth="7" NCoef="0" IVar="-1" Cut="0.0000000000000000e+00" cType="1" res="-2.0124083384871483e-03" rms="4.7332918643951416e-01" purity="5.3847664594650269e-01" nType="-99"/>
                    <Node pos="r" depth="7" NCoef="0" IVar="-1" Cut="0.0000000000000000e+00" cType="1" res="8.3235307829454541e-04" rms="4.7431978583335876e-01" purity="5.4135560989379883e-01" nType="-99"/>
                  </Node>
                  <Node pos="r" depth="6" NCoef="0" IVar="2" Cut="9.9994941711425781e+01" cType="1" res="-3.6265350878238678e-02" rms="4.2930153012275696e-01" purity="3.1494742631912231e-01" nType="0">
                    <Node pos="l" depth="7" NCoef="0" IVar="-1" Cut="0.0000000000000000e+00" cType="1" res="-1.6952755395323038e-03" rms="4.5333251357078552e-01" purity="3.8229539990425110e-01" nType="-99"/>
                    <Node pos="r" depth="7" NCoef="0" IVar="-1" Cut="0.0000000000000000e+00" cType="1" res="-6.8999161012470722e-03" rms="4.0484836697578430e-01" purity="2.5242075324058533e-01" nType="-99"/>
                  </Node>
                </Node>
                <Node pos="r" depth="5" NCoef="0" IVar="3" Cut="6.2882322072982788e-01" cType="1" res="1.8410041928291321e-02" rms="4.4065833091735840e-01" purity="3.4073075652122498e-01" nType="0">
                  <Node pos="l" depth="6" NCoef="0" IVar="3" Cut="3.6086538434028625e-01" cType="1" res="8.7286680936813354e-03" rms="4.2814731597900391e-01" purity="2.8155988454818726e-01" nType="0">
                    <Node pos="l" depth="7" NCoef="0" IVar="-1" Cut="0.0000000000000000e+00" cType="1" res="7.4667669832706451e-03" rms="3.8903671503067017e-01" purity="2.0639708638191223e-01" nType="-99"/>
                    <Node pos="r" depth="7" NCoef="0" IVar="-1" Cut="0.0000000000000000e+00" cType="1" res="-6.0803686210419983e-05" rms="4.3876779079437256e-01" purity="3.0408275127410889e-01" nType="-99"/>
                  </Node>
                  <Node pos="r" depth="6" NCoef="0" IVar="-1" Cut="0.0000000000000000e+00" cType="1" res="4.4733509421348572e-03" rms="4.8016500473022461e-01" purity="5.4672485589981079e-01" nType="-99"/>
                </Node>
              </Node>
              <Node pos="r" depth="4" NCoef="0" IVar="7" Cut="3.0000000000000000e+00" cType="1" res="-1.6614083200693130e-02" rms="2.7710872888565063e-01" purity="9.4708129763603210e-02" nType="0">
                <Node pos="l" depth="5" NCoef="0" IVar="-1" Cut="0.0000000000000000e+00" cType="1" res="-6.6679557785391808e-03" rms="3.5411232709884644e-01" purity="1.7055973410606384e-01" nType="-99"/>
                <Node pos="r" depth="5" NCoef="0" IVar="4" Cut="4.5680451393127441e-01" cType="1" res="-1.3812225311994553e-02" rms="2.6576635241508484e-01" purity="8.5196197032928467e-02" nType="0">
                  <Node pos="l" depth="6" NCoef="0" IVar="2" Cut="1.6238864135742188e+02" cType="1" res="-9.6804229542613029e-03" rms="3.0316975712776184e-01" purity="1.1241714656352997e-01" nType="0">
                    <Node pos="l" depth="7" NCoef="0" IVar="-1" Cut="0.0000000000000000e+00" cType="1" res="-5.3068000852363184e-05" rms="3.1719166040420532e-01" purity="1.2881465256214142e-01" nType="-99"/>
                    <Node pos="r" depth="7" NCoef="0" IVar="-1" Cut="0.0000000000000000e+00" cType="1" res="-4.5454329811036587e-03" rms="2.9247125983238220e-01" purity="1.0061392933130264e-01" nType="-99"/>
                  </Node>
                  <Node pos="r" depth="6" NCoef="0" IVar="3" Cut="2.3345835506916046e-01" cType="1" res="-1.9621441140770912e-02" rms="2.0162993669509888e-01" purity="4.6924181282520294e-02" nType="0">
                    <Node pos="l" depth="7" NCoef="0" IVar="-1" Cut="0.0000000000000000e+00" cType="1" res="-2.0050156861543655e-02" rms="1.3672798871994019e-01" purity="1.9812593236565590e-02" nType="-99"/>
                    <Node pos="r" depth="7" NCoef="0" IVar="-1" Cut="0.0000000000000000e+00" cType="1" res="-7.1198078803718090e-03" rms="2.1529734134674072e-01" purity="5.4016660898923874e-02" nType="-99"/>
                  </Node>
                </Node>
              </Node>
            </Node>
          </Node>
          <Node pos="r" depth="2" NCoef="0" IVar="5" Cut="-2.2356259822845459e+00" cType="1" res="1.1130088008940220e-02" rms="4.2009899020195007e-01" purity="7.4414062500000000e-01" nType="0">
            <Node pos="l" depth="3" NCoef="0" IVar="4" Cut="-5.7104802131652832e-01" cType="1" res="1.8331533297896385e-02" rms="4.0088307857513428e-01" purity="7.8892654180526733e-01" nType="0">
              <Node pos="l" depth="4" NCoef="0" IVar="4" Cut="-2.5745234489440918e+00" cType="1" res="9.5485607162117958e-03" rms="4.1693979501724243e-01" purity="7.6377016305923462e-01" nType="0">
                <Node pos="l" depth="5" NCoef="0" IVar="-1" Cut="0.0000000000000000e+00" cType="1" res="4.6359063126146793e-03" rms="3.9720746874809265e-01" purity="8.0013233423233032e-01" nType="-99"/>
                <Node pos="r" depth="5" NCoef="0" IVar="4" Cut="-7.6504880189895630e-01" cType="1" res="3.0786313582211733e-03" rms="4.2067179083824158e-01" purity="7.5614809989929199e-01" nType="0">
                  <Node pos="l" depth="6" NCoef="0" IVar="3" Cut="9.3482476472854614e-01" cType="1" res="-5.1999482093378901e-04" rms="4.3066644668579102e-01" purity="7.3953235149383545e-01" nType="0">
                    <Node pos="l" depth="7" NCoef="0" IVar="-1" Cut="0.0000000000000000e+00" cType="1" res="1.4477239456027746e-03" rms="4.3117532134056091e-01" purity="7.3959094285964966e-01" nType="-99"/>
                    <Node pos="r" depth="7" NCoef="0" IVar="-1" Cut="0.0000000000000000e+00" cType="1" res="-5.4781913058832288e-04" rms="4.3035566806793213e-01" purity="7.3951005935668945e-01" nType="-99"/>
                  </Node>
                  <Node pos="r" depth="6" NCoef="0" IVar="-1" Cut="0.0000000000000000e+00" cType="1" res="1.5951138921082020e-03" rms="3.8925966620445251e-01" purity="8.0553096532821655e-01" nType="-99"/>
                </Node>
              </Node>
              <Node pos="r" depth="4" NCoef="0" IVar="5" Cut="-3.1312785148620605e+00" cType="1" res="2.8520019724965096e-02" rms="3.8115739822387695e-01" purity="8.1810879707336426e-01" nType="0">
                <Node pos="l" depth="5" NCoef="0" IVar="-1" Cut="0.0000000000000000e+00" cType="1" res="5.0007100217044353e-03" rms="3.5778895020484924e-01" purity="8.4580373764038086e-01" nType="-99"/>
                <Node pos="r" depth="5" NCoef="0" IVar="5" Cut="-2.5245466232299805e+00" cType="1" res="2.4726549163460732e-02" rms="3.8920181989669800e-01" purity="8.0808281898498535e-01" nType="0">
                  <Node pos="l" depth="6" NCoef="0" IVar="3" Cut="9.9767136573791504e-01" cType="1" res="2.2494489327073097e-02" rms="3.8573369383811951e-01" purity="8.1321722269058228e-01" nType="0">
                    <Node pos="l" depth="7" NCoef="0" IVar="-1" Cut="0.0000000000000000e+00" cType="1" res="1.6673477366566658e-03" rms="3.9964377880096436e-01" purity="7.9639315605163574e-01" nType="-99"/>
                    <Node pos="r" depth="7" NCoef="0" IVar="-1" Cut="0.0000000000000000e+00" cType="1" res="3.3489593770354986e-03" rms="3.7619793415069580e-01" purity="8.2428431510925293e-01" nType="-99"/>
                  </Node>
                  <Node pos="r" depth="6" NCoef="0" IVar="-1" Cut="0.0000000000000000e+00" cType="1" res="3.3772315364331007e-03" rms="3.9853769540786743e-01" purity="7.9393470287322998e-01" nType="-99"/>
                </Node>
              </Node>
            </Node>
            <Node pos="r" depth="3" NCoef="0" IVar="3" Cut="1.0043065547943115e+00" cType="1" res="-3.0403970740735531e-03" rms="4.5521757006645203e-01" purity="6.5601396560668945e-01" nType="0">
              <Node pos="l" depth="4" NCoef="0" IVar="3" Cut="9.9547946453094482e-01" cType="1" res="7.3439101688563824e-03" rms="4.5557478070259094e-01" purity="6.7035418748855591e-01" nType="0">
                <Node pos="l" depth="5" NCoef="0" IVar="3" Cut="9.5419985055923462e-01" cType="1" res="-6.1929216608405113e-03" rms="4.6357738971710205e-01" purity="6.4444959163665771e-01" nType="0">
                  <Node pos="l" depth="6" NCoef="0" IVar="-1" Cut="0.0000000000000000e+00" cType="1" res="6.9820979842916131e-04" rms="4.6397382020950317e-01" purity="6.3818317651748657e-01" nType="-99"/>
                  <Node pos="r" depth="6" NCoef="0" IVar="-1" Cut="0.0000000000000000e+00" cType="1" res="-2.1660958882421255e-03" rms="4.6259945631027222e-01" purity="6.5193229913711548e-01" nType="-99"/>
                </Node>
                <Node pos="r" depth="5" NCoef="0" IVar="-1" Cut="0.0000000000000000e+00" cType="1" res="2.5681762490421534e-03" rms="4.4245746731758118e-01" purity="7.0940059423446655e-01" nType="-99"/>
              </Node>
              <Node pos="r" depth="4" NCoef="0" IVar="-1" Cut="0.0000000000000000e+00" cType="1" res="-3.8032513111829758e-03" rms="4.5211255550384521e-01" purity="6.0606181621551514e-01" nType="-99"/>
            </Node>
          </Node>
        </Node>
      </Node>
    </BinaryTree>
    <BinaryTree type="DecisionTree" boostWeight="1.0000000000000000e+00" itree="80">
      <Node pos="s" depth="0" NCoef="0" IVar="2" Cut="1.9370317077636719e+02" cType="1" res="3.9946218021214008e-03" rms="4.0504312515258789e-01" purity="4.9882838129997253e-01" nType="0">
        <Node pos="l" depth="1" NCoef="0" IVar="5" Cut="1.2141143083572388e+00" cType="1" res="9.1530792415142059e-03" rms="4.1531404852867126e-01" purity="5.9578067064285278e-01" nType="0">
          <Node pos="l" depth="2" NCoef="0" IVar="3" Cut="3.8857915997505188e-01" cType="1" res="1.0184314101934433e-02" rms="4.1914984583854675e-01" purity="6.0907989740371704e-01" nType="0">
            <Node pos="l" depth="3" NCoef="0" IVar="6" Cut="6.4053237438201904e-02" cType="1" res="-9.8982211202383041e-03" rms="2.4054396152496338e-01" purity="6.5186783671379089e-02" nType="0">
              <Node pos="l" depth="4" NCoef="0" IVar="3" Cut="3.0108004808425903e-01" cType="1" res="-1.8359525129199028e-02" rms="2.0213559269905090e-01" purity="4.3658964335918427e-02" nType="0">
                <Node pos="l" depth="5" NCoef="0" IVar="-1" Cut="0.0000000000000000e+00" cType="1" res="-5.6306351907551289e-03" rms="2.0542466640472412e-01" purity="4.5588772743940353e-02" nType="-99"/>
                <Node pos="r" depth="5" NCoef="0" IVar="-1" Cut="0.0000000000000000e+00" cType="1" res="-1.3242398388683796e-02" rms="1.9725185632705688e-01" purity="4.1160598397254944e-02" nType="-99"/>
              </Node>
              <Node pos="r" depth="4" NCoef="0" IVar="0" Cut="1.8413064479827881e+00" cType="1" res="-2.0444521214812994e-03" rms="2.7113658189773560e-01" purity="8.5168853402137756e-02" nType="0">
                <Node pos="l" depth="5" NCoef="0" IVar="-1" Cut="0.0000000000000000e+00" cType="1" res="1.2816600501537323e-03" rms="3.0520904064178467e-01" purity="1.1003953218460083e-01" nType="-99"/>
                <Node pos="r" depth="5" NCoef="0" IVar="-1" Cut="0.0000000000000000e+00" cType="1" res="-3.7207393907010555e-03" rms="2.3540939390659332e-01" purity="6.2333971261978149e-02" nType="-99"/>
              </Node>
            </Node>
            <Node pos="r" depth="3" NCoef="0" IVar="0" Cut="1.1189019680023193e+00" cType="1" res="1.1836537159979343e-02" rms="4.3051639199256897e-01" purity="6.5382689237594604e-01" nType="0">
              <Node pos="l" depth="4" NCoef="0" IVar="6" Cut="6.0825452208518982e-02" cType="1" res="1.2985989451408386e-02" rms="4.3211787939071655e-01" purity="6.6718530654907227e-01" nType="0">
                <Node pos="l" depth="5" NCoef="0" IVar="3" Cut="8.7993395328521729e-01" cType="1" res="1.0266338475048542e-02" rms="4.2668247222900391e-01" purity="6.9536072015762329e-01" nType="0">
                  <Node pos="l" depth="6" NCoef="0" IVar="6" Cut="1.3794960454106331e-02" cType="1" res="-8.6456717690452933e-04" rms="4.5899364352226257e-01" purity="5.5017066001892090e-01" nType="0">
                    <Node pos="l" depth="7" NCoef="0" IVar="-1" Cut="0.0000000000000000e+00" cType="1" res="-3.8850188720971346e-03" rms="4.6775814890861511e-01" purity="5.3984212875366211e-01" nType="-99"/>
                    <Node pos="r" depth="7" NCoef="0" IVar="-1" Cut="0.0000000000000000e+00" cType="1" res="2.7372952899895608e-04" rms="4.5795604586601257e-01" purity="5.5118733644485474e-01" nType="-99"/>
                  </Node>
                  <Node pos="r" depth="6" NCoef="0" IVar="3" Cut="9.9879592657089233e-01" cType="1" res="1.6500206664204597e-02" rms="4.0733593702316284e-01" purity="7.7667444944381714e-01" nType="0">
                    <Node pos="l" depth="7" NCoef="0" IVar="-1" Cut="0.0000000000000000e+00" cType="1" res="1.1733417632058263e-03" rms="4.1494816541671753e-01" purity="7.6401239633560181e-01" nType="-99"/>
                    <Node pos="r" depth="7" NCoef="0" IVar="-1" Cut="0.0000000000000000e+00" cType="1" res="2.5604343973100185e-03" rms="3.9747521281242371e-01" purity="7.9252862930297852e-01" nType="-99"/>
                  </Node>
                </Node>
                <Node pos="r" depth="5" NCoef="0" IVar="7" Cut="3.0000000000000000e+00" cType="1" res="1.7464945092797279e-02" rms="3.7165030837059021e-01" purity="4.9966514110565186e-01" nType="0">
                  <Node pos="l" depth="6" NCoef="0" IVar="0" Cut="2.5163039565086365e-01" cType="1" res="1.4681614935398102e-02" rms="4.6807771921157837e-01" purity="5.6972301006317139e-01" nType="0">
                    <Node pos="l" depth="7" NCoef="0" IVar="-1" Cut="0.0000000000000000e+00" cType="1" res="1.8323963740840554e-04" rms="4.6770030260086060e-01" purity="6.3046461343765259e-01" nType="-99"/>
                    <Node pos="r" depth="7" NCoef="0" IVar="-1" Cut="0.0000000000000000e+00" cType="1" res="3.0762178357690573e-03" rms="4.6799358725547791e-01" purity="4.7327753901481628e-01" nType="-99"/>
                  </Node>
                  <Node pos="r" depth="6" NCoef="0" IVar="1" Cut="4.4329041242599487e-01" cType="1" res="3.6404889076948166e-02" rms="4.5994731783866882e-01" purity="4.6457964181900024e-01" nType="0">
                    <Node pos="l" depth="7" NCoef="0" IVar="-1" Cut="0.0000000000000000e+00" cType="1" res="4.0464056655764580e-03" rms="4.6603140234947205e-01" purity="4.9911016225814819e-01" nType="-99"/>
                    <Node pos="r" depth="7" NCoef="0" IVar="-1" Cut="0.0000000000000000e+00" cType="1" res="9.5788919134065509e-04" rms="4.3082153797149658e-01" purity="3.1158477067947388e-01" nType="-99"/>
                  </Node>
                </Node>
              </Node>
              <Node pos="r" depth="4" NCoef="0" IVar="-1" Cut="0.0000000000000000e+00" cType="1" res="-4.9118590541183949e-03" rms="3.6731317639350891e-01" purity="1.8259292840957642e-01" nType="-99"/>
            </Node>
          </Node>
          <Node pos="r" depth="2" NCoef="0" IVar="-1" Cut="0.0000000000000000e+00" cType="1" res="-1.5295952558517456e-02" rms="1.9305901229381561e-01" purity="4.1828647255897522e-02" nType="-99"/>
        </Node>
        <Node pos="r" depth="1" NCoef="0" IVar="1" Cut="7.1814924478530884e-01" cType="1" res="-9.2170070856809616e-03" rms="3.7714368104934692e-01" purity="2.5051832199096680e-01" nType="0">
          <Node pos="l" depth="2" NCoef="0" IVar="6" Cut="2.8910848498344421e-01" cType="1" res="-6.2723518349230289e-03" rms="3.8946825265884399e-01" purity="2.7392575144767761e-01" nType="0">
            <Node pos="l" depth="3" NCoef="0" IVar="2" Cut="6.4495172119140625e+02" cType="1" res="-8.0631310120224953e-03" rms="3.8563799858093262e-01" purity="2.7251905202865601e-01" nType="0">
              <Node pos="l" depth="4" NCoef="0" IVar="4" Cut="1.1980534791946411e+00" cType="1" res="-4.0742731653153896e-03" rms="3.9135158061981201e-01" purity="2.8958287835121155e-01" nType="0">
                <Node pos="l" depth="5" NCoef="0" IVar="3" Cut="6.3474094867706299e-01" cType="1" res="-1.7521712288726121e-04" rms="4.2041149735450745e-01" purity="3.4324687719345093e-01" nType="0">
                  <Node pos="l" depth="6" NCoef="0" IVar="6" Cut="1.4090563356876373e-01" cType="1" res="-4.6107564121484756e-03" rms="3.8324567675590515e-01" purity="2.1410991251468658e-01" nType="0">
                    <Node pos="l" depth="7" NCoef="0" IVar="-1" Cut="0.0000000000000000e+00" cType="1" res="-2.5243095587939024e-03" rms="3.7008798122406006e-01" purity="1.9693939387798309e-01" nType="-99"/>
                    <Node pos="r" depth="7" NCoef="0" IVar="-1" Cut="0.0000000000000000e+00" cType="1" res="2.3975954391062260e-03" rms="4.0651044249534607e-01" purity="2.4702307581901550e-01" nType="-99"/>
                  </Node>
                  <Node pos="r" depth="6" NCoef="0" IVar="4" Cut="-2.1910808980464935e-01" cType="1" res="7.7707008458673954e-03" rms="4.7974437475204468e-01" purity="5.7458549737930298e-01" nType="0">
                    <Node pos="l" depth="7" NCoef="0" IVar="-1" Cut="0.0000000000000000e+00" cType="1" res="1.0927780531346798e-03" rms="4.7799867391586304e-01" purity="5.9965759515762329e-01" nType="-99"/>
                    <Node pos="r" depth="7" NCoef="0" IVar="-1" Cut="0.0000000000000000e+00" cType="1" res="-7.5802800711244345e-04" rms="4.8634886741638184e-01" purity="4.7435337305068970e-01" nType="-99"/>
                  </Node>
                </Node>
                <Node pos="r" depth="5" NCoef="0" IVar="5" Cut="1.8513362109661102e-01" cType="1" res="-2.0194906741380692e-02" rms="2.3516277968883514e-01" purity="6.7709177732467651e-02" nType="0">
                  <Node pos="l" depth="6" NCoef="0" IVar="-1" Cut="0.0000000000000000e+00" cType="1" res="-5.3402059711515903e-04" rms="3.1684279441833496e-01" purity="1.3631272315979004e-01" nType="-99"/>
                  <Node pos="r" depth="6" NCoef="0" IVar="7" Cut="5.0000000000000000e+00" cType="1" res="-2.7662802487611771e-02" rms="1.9056230783462524e-01" purity="3.9108090102672577e-02" nType="0">
                    <Node pos="l" depth="7" NCoef="0" IVar="-1" Cut="0.0000000000000000e+00" cType="1" res="-1.3351619243621826e-02" rms="2.2264137864112854e-01" purity="5.4288715124130249e-02" nType="-99"/>
                    <Node pos="r" depth="7" NCoef="0" IVar="-1" Cut="0.0000000000000000e+00" cType="1" res="-1.1835819110274315e-02" rms="1.6104400157928467e-01" purity="2.7444120496511459e-02" nType="-99"/>
                  </Node>
                </Node>
              </Node>
              <Node pos="r" depth="4" NCoef="0" IVar="3" Cut="3.5800930857658386e-01" cType="1" res="-3.7208817899227142e-02" rms="3.3957809209823608e-01" purity="1.4783778786659241e-01" nType="0">
                <Node pos="l" depth="5" NCoef="0" IVar="-1" Cut="0.0000000000000000e+00" cType="1" res="-5.2614435553550720e-03" rms="3.1212154030799866e-01" purity="1.2050786614418030e-01" nType="-99"/>
                <Node pos="r" depth="5" NCoef="0" IVar="-1" Cut="0.0000000000000000e+00" cType="1" res="-8.5056843236088753e-03" rms="3.7636527419090271e-01" purity="1.8918535113334656e-01" nType="-99"/>
              </Node>
            </Node>
            <Node pos="r" depth="3" NCoef="0" IVar="-1" Cut="0.0000000000000000e+00" cType="1" res="3.7071492988616228e-03" rms="4.5302283763885498e-01" purity="2.9983898997306824e-01" nType="-99"/>
          </Node>
          <Node pos="r" depth="2" NCoef="0" IVar="2" Cut="5.5573535156250000e+02" cType="1" res="-2.2139603272080421e-02" rms="3.1712651252746582e-01" purity="1.4779511094093323e-01" nType="0">
            <Node pos="l" depth="3" NCoef="0" IVar="5" Cut="-1.8930119276046753e+00" cType="1" res="-1.6654789447784424e-02" rms="3.1967625021934509e-01" purity="1.5804009139537811e-01" nType="0">
              <Node pos="l" depth="4" NCoef="0" IVar="2" Cut="3.1044479370117188e+02" cType="1" res="-8.2693649455904961e-03" rms="3.4935918450355530e-01" purity="1.9843763113021851e-01" nType="0">
                <Node pos="l" depth="5" NCoef="0" IVar="-1" Cut="0.0000000000000000e+00" cType="1" res="6.3510502513963729e-05" rms="3.5720080137252808e-01" purity="2.3156237602233887e-01" nType="-99"/>
                <Node pos="r" depth="5" NCoef="0" IVar="-1" Cut="0.0000000000000000e+00" cType="1" res="-3.6607543006539345e-03" rms="3.4007981419563293e-01" purity="1.6125686466693878e-01" nType="-99"/>
              </Node>
              <Node pos="r" depth="4" NCoef="0" IVar="-1" Cut="0.0000000000000000e+00" cType="1" res="-6.5639303065836430e-03" rms="2.8404802083969116e-01" purity="1.1460384726524353e-01" nType="-99"/>
            </Node>
            <Node pos="r" depth="3" NCoef="0" IVar="-1" Cut="0.0000000000000000e+00" cType="1" res="-9.7779091447591782e-03" rms="3.0621522665023804e-01" purity="1.0841426998376846e-01" nType="-99"/>
          </Node>
        </Node>
      </Node>
    </BinaryTree>
    <BinaryTree type="DecisionTree" boostWeight="1.0000000000000000e+00" itree="81">
      <Node pos="s" depth="0" NCoef="0" IVar="1" Cut="2.8645029664039612e-01" cType="1" res="4.4978577643632889e-03" rms="4.0480378270149231e-01" purity="4.9997708201408386e-01" nType="0">
        <Node pos="l" depth="1" NCoef="0" IVar="2" Cut="3.7649111938476562e+02" cType="1" res="1.0430349968373775e-02" rms="4.1419577598571777e-01" purity="5.6975740194320679e-01" nType="0">
          <Node pos="l" depth="2" NCoef="0" IVar="5" Cut="1.2517737150192261e+00" cType="1" res="1.3153233565390110e-02" rms="4.1799798607826233e-01" purity="6.1114287376403809e-01" nType="0">
            <Node pos="l" depth="3" NCoef="0" IVar="2" Cut="1.2144869232177734e+02" cType="1" res="1.4251311309635639e-02" rms="4.2170903086662292e-01" purity="6.2497133016586304e-01" nType="0">
              <Node pos="l" depth="4" NCoef="0" IVar="6" Cut="3.3219542354345322e-02" cType="1" res="1.7965117469429970e-02" rms="4.1796532273292542e-01" purity="7.0438098907470703e-01" nType="0">
                <Node pos="l" depth="5" NCoef="0" IVar="3" Cut="8.4597402811050415e-01" cType="1" res="1.3690619729459286e-02" rms="4.0709555149078369e-01" purity="7.5015395879745483e-01" nType="0">
                  <Node pos="l" depth="6" NCoef="0" IVar="7" Cut="3.0000000000000000e+00" cType="1" res="-9.7339032217860222e-03" rms="4.5306673645973206e-01" purity="5.0757324695587158e-01" nType="0">
                    <Node pos="l" depth="7" NCoef="0" IVar="-1" Cut="0.0000000000000000e+00" cType="1" res="-2.7282475493848324e-03" rms="4.7018203139305115e-01" purity="5.8022516965866089e-01" nType="-99"/>
                    <Node pos="r" depth="7" NCoef="0" IVar="-1" Cut="0.0000000000000000e+00" cType="1" res="5.2639836212620139e-04" rms="4.3955558538436890e-01" purity="4.5440798997879028e-01" nType="-99"/>
                  </Node>
                  <Node pos="r" depth="6" NCoef="0" IVar="6" Cut="2.5716878473758698e-02" cType="1" res="1.7618630081415176e-02" rms="3.9873769879341125e-01" purity="7.9081070423126221e-01" nType="0">
                    <Node pos="l" depth="7" NCoef="0" IVar="-1" Cut="0.0000000000000000e+00" cType="1" res="1.8404816510155797e-03" rms="3.9827606081962585e-01" purity="7.9125219583511353e-01" nType="-99"/>
                    <Node pos="r" depth="7" NCoef="0" IVar="-1" Cut="0.0000000000000000e+00" cType="1" res="5.3291320800781250e-03" rms="4.0759059786796570e-01" purity="7.8102695941925049e-01" nType="-99"/>
                  </Node>
                </Node>
                <Node pos="r" depth="5" NCoef="0" IVar="4" Cut="1.4896546490490437e-02" cType="1" res="2.9966060072183609e-02" rms="4.4685402512550354e-01" purity="5.7587027549743652e-01" nType="0">
                  <Node pos="l" depth="6" NCoef="0" IVar="3" Cut="7.6863831281661987e-01" cType="1" res="3.5732835531234741e-02" rms="4.4295078516006470e-01" purity="6.3973677158355713e-01" nType="0">
                    <Node pos="l" depth="7" NCoef="0" IVar="-1" Cut="0.0000000000000000e+00" cType="1" res="2.5860983878374100e-03" rms="4.6381634473800659e-01" purity="5.1300573348999023e-01" nType="-99"/>
                    <Node pos="r" depth="7" NCoef="0" IVar="-1" Cut="0.0000000000000000e+00" cType="1" res="3.9636059664189816e-03" rms="4.2221659421920776e-01" purity="7.5916177034378052e-01" nType="-99"/>
                  </Node>
                  <Node pos="r" depth="6" NCoef="0" IVar="7" Cut="4.0000000000000000e+00" cType="1" res="1.9090473651885986e-02" rms="4.5363649725914001e-01" purity="4.5741397142410278e-01" nType="0">
                    <Node pos="l" depth="7" NCoef="0" IVar="-1" Cut="0.0000000000000000e+00" cType="1" res="6.6359428456053138e-04" rms="4.6576440334320068e-01" purity="5.2647054195404053e-01" nType="-99"/>
                    <Node pos="r" depth="7" NCoef="0" IVar="-1" Cut="0.0000000000000000e+00" cType="1" res="5.5168829858303070e-03" rms="4.3026936054229736e-01" purity="3.3140367269515991e-01" nType="-99"/>
                  </Node>
                </Node>
              </Node>
              <Node pos="r" depth="4" NCoef="0" IVar="6" Cut="9.3843199312686920e-02" cType="1" res="4.8530488274991512e-03" rms="4.3089479207992554e-01" purity="4.2401501536369324e-01" nType="0">
                <Node pos="l" depth="5" NCoef="0" IVar="3" Cut="7.1996790170669556e-01" cType="1" res="-1.5868549235165119e-03" rms="4.3473526835441589e-01" purity="4.7999882698059082e-01" nType="0">
                  <Node pos="l" depth="6" NCoef="0" IVar="6" Cut="5.1536671817302704e-02" cType="1" res="-1.4556162990629673e-02" rms="4.0454894304275513e-01" purity="2.7950710058212280e-01" nType="0">
                    <Node pos="l" depth="7" NCoef="0" IVar="-1" Cut="0.0000000000000000e+00" cType="1" res="-5.3573814220726490e-03" rms="3.9058852195739746e-01" purity="2.3898620903491974e-01" nType="-99"/>
                    <Node pos="r" depth="7" NCoef="0" IVar="-1" Cut="0.0000000000000000e+00" cType="1" res="-1.0881412308663130e-03" rms="4.0801155567169189e-01" purity="2.9049801826477051e-01" nType="-99"/>
                  </Node>
                  <Node pos="r" depth="6" NCoef="0" IVar="3" Cut="8.6383950710296631e-01" cType="1" res="1.0319924913346767e-02" rms="4.6038883924484253e-01" purity="6.6406500339508057e-01" nType="0">
                    <Node pos="l" depth="7" NCoef="0" IVar="-1" Cut="0.0000000000000000e+00" cType="1" res="3.4702889388427138e-04" rms="4.7095209360122681e-01" purity="6.3582903146743774e-01" nType="-99"/>
                    <Node pos="r" depth="7" NCoef="0" IVar="-1" Cut="0.0000000000000000e+00" cType="1" res="3.4239082597196102e-03" rms="4.2460641264915466e-01" purity="7.5327932834625244e-01" nType="-99"/>
                  </Node>
                </Node>
                <Node pos="r" depth="5" NCoef="0" IVar="2" Cut="2.6954937744140625e+02" cType="1" res="1.6709895804524422e-02" rms="4.2347675561904907e-01" purity="3.2094022631645203e-01" nType="0">
                  <Node pos="l" depth="6" NCoef="0" IVar="3" Cut="5.2268731594085693e-01" cType="1" res="1.0897759348154068e-02" rms="4.3000283837318420e-01" purity="3.3339032530784607e-01" nType="0">
                    <Node pos="l" depth="7" NCoef="0" IVar="-1" Cut="0.0000000000000000e+00" cType="1" res="2.7915143873542547e-03" rms="3.9102670550346375e-01" purity="2.1952781081199646e-01" nType="-99"/>
                    <Node pos="r" depth="7" NCoef="0" IVar="-1" Cut="0.0000000000000000e+00" cType="1" res="2.4451315402984619e-04" rms="4.7985249757766724e-01" purity="4.9518546462059021e-01" nType="-99"/>
                  </Node>
                  <Node pos="r" depth="6" NCoef="0" IVar="6" Cut="1.2557736039161682e-01" cType="1" res="2.6724711060523987e-02" rms="4.1179686784744263e-01" purity="2.9948759078979492e-01" nType="0">
                    <Node pos="l" depth="7" NCoef="0" IVar="-1" Cut="0.0000000000000000e+00" cType="1" res="3.9045591838657856e-03" rms="4.1323500871658325e-01" purity="3.4012329578399658e-01" nType="-99"/>
                    <Node pos="r" depth="7" NCoef="0" IVar="-1" Cut="0.0000000000000000e+00" cType="1" res="3.5096432548016310e-03" rms="4.1044080257415771e-01" purity="2.6229813694953918e-01" nType="-99"/>
                  </Node>
                </Node>
              </Node>
            </Node>
            <Node pos="r" depth="3" NCoef="0" IVar="-1" Cut="0.0000000000000000e+00" cType="1" res="-1.2499216012656689e-02" rms="2.1731193363666534e-01" purity="5.4248720407485962e-02" nType="-99"/>
          </Node>
          <Node pos="r" depth="2" NCoef="0" IVar="3" Cut="4.8345968127250671e-01" cType="1" res="-1.2449809350073338e-02" rms="3.7997895479202271e-01" purity="2.2199854254722595e-01" nType="0">
            <Node pos="l" depth="3" NCoef="0" IVar="3" Cut="2.3427207767963409e-01" cType="1" res="-1.8216626485809684e-03" rms="3.3742436766624451e-01" purity="1.4964282512664795e-01" nType="0">
              <Node pos="l" depth="4" NCoef="0" IVar="-1" Cut="0.0000000000000000e+00" cType="1" res="3.9807404391467571e-03" rms="3.7104794383049011e-01" purity="1.8878643214702606e-01" nType="-99"/>
              <Node pos="r" depth="4" NCoef="0" IVar="0" Cut="6.2965565919876099e-01" cType="1" res="-1.2336208485066891e-02" rms="3.1962671875953674e-01" purity="1.3099004328250885e-01" nType="0">
                <Node pos="l" depth="5" NCoef="0" IVar="-1" Cut="0.0000000000000000e+00" cType="1" res="-1.3720608876610640e-05" rms="3.8092136383056641e-01" purity="2.0197363197803497e-01" nType="-99"/>
                <Node pos="r" depth="5" NCoef="0" IVar="-1" Cut="0.0000000000000000e+00" cType="1" res="-6.6223251633346081e-03" rms="2.6637226343154907e-01" purity="7.9710662364959717e-02" nType="-99"/>
              </Node>
            </Node>
            <Node pos="r" depth="3" NCoef="0" IVar="4" Cut="-8.9073944091796875e-01" cType="1" res="-3.3435262739658356e-02" rms="4.5166379213333130e-01" purity="3.6486610770225525e-01" nType="0">
              <Node pos="l" depth="4" NCoef="0" IVar="-1" Cut="0.0000000000000000e+00" cType="1" res="-3.6349382717162371e-03" rms="4.7682434320449829e-01" purity="4.4123655557632446e-01" nType="-99"/>
              <Node pos="r" depth="4" NCoef="0" IVar="-1" Cut="0.0000000000000000e+00" cType="1" res="-3.6012243945151567e-03" rms="4.3046951293945312e-01" purity="3.0381953716278076e-01" nType="-99"/>
            </Node>
          </Node>
        </Node>
        <Node pos="r" depth="1" NCoef="0" IVar="1" Cut="3.5356040000915527e+00" cType="1" res="-7.6098898425698280e-03" rms="3.8464123010635376e-01" purity="3.5756099224090576e-01" nType="0">
          <Node pos="l" depth="2" NCoef="0" IVar="1" Cut="9.1530889272689819e-01" cType="1" res="-9.6610896289348602e-03" rms="3.8582193851470947e-01" purity="3.5818243026733398e-01" nType="0">
            <Node pos="l" depth="3" NCoef="0" IVar="4" Cut="1.6802656650543213e+00" cType="1" res="-1.1018759105354548e-03" rms="3.9659172296524048e-01" purity="4.0393793582916260e-01" nType="0">
              <Node pos="l" depth="4" NCoef="0" IVar="1" Cut="6.3130933046340942e-01" cType="1" res="1.6395762795582414e-03" rms="4.1433957219123840e-01" purity="4.4764551520347595e-01" nType="0">
                <Node pos="l" depth="5" NCoef="0" IVar="3" Cut="4.4673857092857361e-01" cType="1" res="6.4501482993364334e-03" rms="4.1858536005020142e-01" purity="4.7729945182800293e-01" nType="0">
                  <Node pos="l" depth="6" NCoef="0" IVar="4" Cut="-6.6826820373535156e-01" cType="1" res="-6.9071217440068722e-03" rms="2.9059746861457825e-01" purity="1.0008849948644638e-01" nType="0">
                    <Node pos="l" depth="7" NCoef="0" IVar="-1" Cut="0.0000000000000000e+00" cType="1" res="-4.1126497089862823e-03" rms="2.9818567633628845e-01" purity="1.0816252976655960e-01" nType="-99"/>
                    <Node pos="r" depth="7" NCoef="0" IVar="-1" Cut="0.0000000000000000e+00" cType="1" res="-8.2569086225703359e-04" rms="2.8649428486824036e-01" purity="9.5907039940357208e-02" nType="-99"/>
                  </Node>
                  <Node pos="r" depth="6" NCoef="0" IVar="4" Cut="-7.3564106225967407e-01" cType="1" res="1.0147549211978912e-02" rms="4.4752165675163269e-01" purity="5.8171445131301880e-01" nType="0">
                    <Node pos="l" depth="7" NCoef="0" IVar="-1" Cut="0.0000000000000000e+00" cType="1" res="2.8075414593331516e-04" rms="4.5810765027999878e-01" purity="5.8404701948165894e-01" nType="-99"/>
                    <Node pos="r" depth="7" NCoef="0" IVar="-1" Cut="0.0000000000000000e+00" cType="1" res="1.7946006264537573e-03" rms="4.3744716048240662e-01" purity="5.7956743240356445e-01" nType="-99"/>
                  </Node>
                </Node>
                <Node pos="r" depth="5" NCoef="0" IVar="3" Cut="9.6504712104797363e-01" cType="1" res="-1.1060806922614574e-02" rms="4.0263932943344116e-01" purity="3.6935630440711975e-01" nType="0">
                  <Node pos="l" depth="6" NCoef="0" IVar="6" Cut="7.0785209536552429e-02" cType="1" res="-1.7245538532733917e-02" rms="3.8846349716186523e-01" purity="2.7070334553718567e-01" nType="0">
                    <Node pos="l" depth="7" NCoef="0" IVar="-1" Cut="0.0000000000000000e+00" cType="1" res="-3.3506327308714390e-03" rms="4.0720185637474060e-01" purity="3.4014663100242615e-01" nType="-99"/>
                    <Node pos="r" depth="7" NCoef="0" IVar="-1" Cut="0.0000000000000000e+00" cType="1" res="-1.1609549401327968e-03" rms="3.6773186922073364e-01" purity="1.9869381189346313e-01" nType="-99"/>
                  </Node>
                  <Node pos="r" depth="6" NCoef="0" IVar="-1" Cut="0.0000000000000000e+00" cType="1" res="9.2641590163111687e-04" rms="4.4707009196281433e-01" purity="7.0654773712158203e-01" nType="-99"/>
                </Node>
              </Node>
              <Node pos="r" depth="4" NCoef="0" IVar="3" Cut="3.0913713574409485e-01" cType="1" res="-2.3642191663384438e-02" rms="1.9591096043586731e-01" purity="4.4572860002517700e-02" nType="0">
                <Node pos="l" depth="5" NCoef="0" IVar="-1" Cut="0.0000000000000000e+00" cType="1" res="-8.6092799901962280e-03" rms="1.6900479793548584e-01" purity="3.1039219349622726e-02" nType="-99"/>
                <Node pos="r" depth="5" NCoef="0" IVar="-1" Cut="0.0000000000000000e+00" cType="1" res="-1.1918061412870884e-02" rms="2.1314841508865356e-01" purity="5.4532237350940704e-02" nType="-99"/>
              </Node>
            </Node>
            <Node pos="r" depth="3" NCoef="0" IVar="7" Cut="3.0000000000000000e+00" cType="1" res="1.2716616690158844e-01" rms="0.0000000000000000e+00" purity="2.3857839405536652e-01" nType="0">
              <Node pos="l" depth="4" NCoef="0" IVar="4" Cut="-1.0297619104385376e+00" cType="1" res="-5.2030548453330994e-02" rms="4.4819918274879456e-01" purity="4.4614055752754211e-01" nType="0">
                <Node pos="l" depth="5" NCoef="0" IVar="-1" Cut="0.0000000000000000e+00" cType="1" res="-3.4023970365524292e-03" rms="4.6430563926696777e-01" purity="4.6524974703788757e-01" nType="-99"/>
                <Node pos="r" depth="5" NCoef="0" IVar="-1" Cut="0.0000000000000000e+00" cType="1" res="-6.9925198331475258e-03" rms="4.3442544341087341e-01" purity="4.3074649572372437e-01" nType="-99"/>
              </Node>
              <Node pos="r" depth="4" NCoef="0" IVar="2" Cut="3.4886642456054688e+02" cType="1" res="-1.9286658614873886e-02" rms="2.7941331267356873e-01" purity="1.0625062882900238e-01" nType="0">
                <Node pos="l" depth="5" NCoef="0" IVar="6" Cut="9.0302713215351105e-02" cType="1" res="-1.5295893885195255e-02" rms="2.8088712692260742e-01" purity="1.0990868508815765e-01" nType="0">
                  <Node pos="l" depth="6" NCoef="0" IVar="6" Cut="4.7116924077272415e-02" cType="1" res="-2.0766951143741608e-02" rms="2.7870446443557739e-01" purity="1.0978762060403824e-01" nType="0">
                    <Node pos="l" depth="7" NCoef="0" IVar="-1" Cut="0.0000000000000000e+00" cType="1" res="-7.6405415311455727e-03" rms="2.7868029475212097e-01" purity="1.0938750952482224e-01" nType="-99"/>
                    <Node pos="r" depth="7" NCoef="0" IVar="-1" Cut="0.0000000000000000e+00" cType="1" res="-4.2024673894047737e-03" rms="2.7857297658920288e-01" purity="1.1005245894193649e-01" nType="-99"/>
                  </Node>
                  <Node pos="r" depth="6" NCoef="0" IVar="-1" Cut="0.0000000000000000e+00" cType="1" res="-1.0128468275070190e-03" rms="2.8518679738044739e-01" purity="1.1017020046710968e-01" nType="-99"/>
                </Node>
                <Node pos="r" depth="5" NCoef="0" IVar="-1" Cut="0.0000000000000000e+00" cType="1" res="-8.1397611647844315e-03" rms="2.7490788698196411e-01" purity="9.5945775508880615e-02" nType="-99"/>
              </Node>
            </Node>
          </Node>
          <Node pos="r" depth="2" NCoef="0" IVar="-1" Cut="0.0000000000000000e+00" cType="1" res="4.7702314332127571e-03" rms="3.5858625173568726e-01" purity="3.4547606110572815e-01" nType="-99"/>
        </Node>
      </Node>
    </BinaryTree>
    <BinaryTree type="DecisionTree" boostWeight="1.0000000000000000e+00" itree="82">
      <Node pos="s" depth="0" NCoef="0" IVar="3" Cut="7.7301573753356934e-01" cType="1" res="5.1932041533291340e-03" rms="4.0529197454452515e-01" purity="5.0160294771194458e-01" nType="0">
        <Node pos="l" depth="1" NCoef="0" IVar="4" Cut="-1.6845756769180298e+00" cType="1" res="-1.8100884044542909e-03" rms="3.8702690601348877e-01" purity="2.6453030109405518e-01" nType="0">
          <Node pos="l" depth="2" NCoef="0" IVar="5" Cut="-2.4410719871520996e+00" cType="1" res="9.5988800749182701e-03" rms="4.4442474842071533e-01" purity="4.0301388502120972e-01" nType="0">
            <Node pos="l" depth="3" NCoef="0" IVar="4" Cut="-2.6512858867645264e+00" cType="1" res="-3.3791374880820513e-03" rms="4.2989018559455872e-01" purity="3.6581227183341980e-01" nType="0">
              <Node pos="l" depth="4" NCoef="0" IVar="-1" Cut="0.0000000000000000e+00" cType="1" res="2.5306555908173323e-03" rms="4.3059766292572021e-01" purity="4.0493765473365784e-01" nType="-99"/>
              <Node pos="r" depth="4" NCoef="0" IVar="6" Cut="1.0132970660924911e-01" cType="1" res="-9.5228375867009163e-03" rms="4.2949345707893372e-01" purity="3.5616880655288696e-01" nType="0">
                <Node pos="l" depth="5" NCoef="0" IVar="2" Cut="1.1255400085449219e+02" cType="1" res="-1.7819968983530998e-02" rms="4.3218889832496643e-01" purity="3.7701168656349182e-01" nType="0">
                  <Node pos="l" depth="6" NCoef="0" IVar="-1" Cut="0.0000000000000000e+00" cType="1" res="3.2175102387554944e-04" rms="4.4583910703659058e-01" purity="4.3697842955589294e-01" nType="-99"/>
                  <Node pos="r" depth="6" NCoef="0" IVar="-1" Cut="0.0000000000000000e+00" cType="1" res="-4.5148259960114956e-03" rms="4.1863140463829041e-01" purity="3.2304280996322632e-01" nType="-99"/>
                </Node>
                <Node pos="r" depth="5" NCoef="0" IVar="-1" Cut="0.0000000000000000e+00" cType="1" res="1.7460775561630726e-03" rms="4.2116206884384155e-01" purity="2.9892590641975403e-01" nType="-99"/>
              </Node>
            </Node>
            <Node pos="r" depth="3" NCoef="0" IVar="4" Cut="-2.3325490951538086e+00" cType="1" res="3.0843565240502357e-02" rms="4.6646392345428467e-01" purity="4.6391203999519348e-01" nType="0">
              <Node pos="l" depth="4" NCoef="0" IVar="-1" Cut="0.0000000000000000e+00" cType="1" res="6.1831395141780376e-03" rms="4.7220313549041748e-01" purity="5.4168814420700073e-01" nType="-99"/>
              <Node pos="r" depth="4" NCoef="0" IVar="4" Cut="-2.0397970676422119e+00" cType="1" res="1.1398282833397388e-02" rms="4.6214604377746582e-01" purity="4.2149206995964050e-01" nType="0">
                <Node pos="l" depth="5" NCoef="0" IVar="-1" Cut="0.0000000000000000e+00" cType="1" res="1.6149912262335420e-03" rms="4.6986046433448792e-01" purity="4.4949620962142944e-01" nType="-99"/>
                <Node pos="r" depth="5" NCoef="0" IVar="-1" Cut="0.0000000000000000e+00" cType="1" res="7.6256121974438429e-04" rms="4.5518469810485840e-01" purity="3.9677843451499939e-01" nType="-99"/>
              </Node>
            </Node>
          </Node>
          <Node pos="r" depth="2" NCoef="0" IVar="7" Cut="3.0000000000000000e+00" cType="1" res="1.3964705169200897e-01" rms="0.0000000000000000e+00" purity="2.3516677320003510e-01" nType="0">
            <Node pos="l" depth="3" NCoef="0" IVar="3" Cut="7.2353518009185791e-01" cType="1" res="-1.4241433702409267e-02" rms="4.3843272328376770e-01" purity="3.6012896895408630e-01" nType="0">
              <Node pos="l" depth="4" NCoef="0" IVar="3" Cut="5.1538890600204468e-01" cType="1" res="-2.0966891199350357e-02" rms="4.1930463910102844e-01" purity="2.9105129837989807e-01" nType="0">
                <Node pos="l" depth="5" NCoef="0" IVar="-1" Cut="0.0000000000000000e+00" cType="1" res="-1.8425284361001104e-04" rms="3.3463066816329956e-01" purity="1.5181241929531097e-01" nType="-99"/>
                <Node pos="r" depth="5" NCoef="0" IVar="6" Cut="7.7181085944175720e-02" cType="1" res="-2.8435282409191132e-02" rms="4.4644638895988464e-01" purity="3.4275218844413757e-01" nType="0">
                  <Node pos="l" depth="6" NCoef="0" IVar="-1" Cut="0.0000000000000000e+00" cType="1" res="-4.7989110462367535e-03" rms="4.3342635035514832e-01" purity="2.9526591300964355e-01" nType="-99"/>
                  <Node pos="r" depth="6" NCoef="0" IVar="-1" Cut="0.0000000000000000e+00" cType="1" res="-1.6432040138170123e-03" rms="4.5639190077781677e-01" purity="3.8138750195503235e-01" nType="-99"/>
                </Node>
              </Node>
              <Node pos="r" depth="4" NCoef="0" IVar="-1" Cut="0.0000000000000000e+00" cType="1" res="1.4011298480909318e-04" rms="4.8014456033706665e-01" purity="5.2295577526092529e-01" nType="-99"/>
            </Node>
            <Node pos="r" depth="3" NCoef="0" IVar="3" Cut="3.7468206882476807e-01" cType="1" res="-2.6145149022340775e-03" rms="3.6212965846061707e-01" purity="2.1501398086547852e-01" nType="0">
              <Node pos="l" depth="4" NCoef="0" IVar="3" Cut="1.4579796791076660e-01" cType="1" res="-1.0154870338737965e-02" rms="2.4940398335456848e-01" purity="7.2424970567226410e-02" nType="0">
                <Node pos="l" depth="5" NCoef="0" IVar="-1" Cut="0.0000000000000000e+00" cType="1" res="2.5934046134352684e-03" rms="3.0989938974380493e-01" purity="1.1797068268060684e-01" nType="-99"/>
                <Node pos="r" depth="5" NCoef="0" IVar="0" Cut="6.7811459302902222e-01" cType="1" res="-1.2859599664807320e-02" rms="2.3947694897651672e-01" purity="6.5971493721008301e-02" nType="0">
                  <Node pos="l" depth="6" NCoef="0" IVar="-1" Cut="0.0000000000000000e+00" cType="1" res="2.0053100306540728e-03" rms="3.5701638460159302e-01" purity="1.6233408451080322e-01" nType="-99"/>
                  <Node pos="r" depth="6" NCoef="0" IVar="2" Cut="4.5371127319335938e+02" cType="1" res="-1.6573272645473480e-02" rms="2.1349427103996277e-01" purity="4.9928203225135803e-02" nType="0">
                    <Node pos="l" depth="7" NCoef="0" IVar="-1" Cut="0.0000000000000000e+00" cType="1" res="-6.6784890368580818e-03" rms="2.1166688203811646e-01" purity="4.9282912164926529e-02" nType="-99"/>
                    <Node pos="r" depth="7" NCoef="0" IVar="-1" Cut="0.0000000000000000e+00" cType="1" res="-1.1633714661002159e-02" rms="2.1989707648754120e-01" purity="5.2446294575929642e-02" nType="-99"/>
                  </Node>
                </Node>
              </Node>
              <Node pos="r" depth="4" NCoef="0" IVar="5" Cut="1.3145407438278198e+00" cType="1" res="2.5261465925723314e-03" rms="4.2198306322097778e-01" purity="3.1222447752952576e-01" nType="0">
                <Node pos="l" depth="5" NCoef="0" IVar="7" Cut="6.0000000000000000e+00" cType="1" res="5.0511700101196766e-03" rms="4.3360337615013123e-01" purity="3.3131805062294006e-01" nType="0">
                  <Node pos="l" depth="6" NCoef="0" IVar="2" Cut="7.3086860656738281e+01" cType="1" res="1.9407660001888871e-03" rms="4.3698313832283020e-01" purity="3.4176227450370789e-01" nType="0">
                    <Node pos="l" depth="7" NCoef="0" IVar="-1" Cut="0.0000000000000000e+00" cType="1" res="2.1541356109082699e-03" rms="4.5329537987709045e-01" purity="4.0923991799354553e-01" nType="-99"/>
                    <Node pos="r" depth="7" NCoef="0" IVar="-1" Cut="0.0000000000000000e+00" cType="1" res="-2.9531432664953172e-04" rms="4.3291279673576355e-01" purity="3.2577359676361084e-01" nType="-99"/>
                  </Node>
                  <Node pos="r" depth="6" NCoef="0" IVar="-1" Cut="0.0000000000000000e+00" cType="1" res="5.7956827804446220e-03" rms="3.9818480610847473e-01" purity="2.2821383178234100e-01" nType="-99"/>
                </Node>
                <Node pos="r" depth="5" NCoef="0" IVar="-1" Cut="0.0000000000000000e+00" cType="1" res="-1.5398264862596989e-02" rms="1.6991040110588074e-01" purity="2.9760228469967842e-02" nType="-99"/>
              </Node>
            </Node>
          </Node>
        </Node>
        <Node pos="r" depth="1" NCoef="0" IVar="3" Cut="1.0595389604568481e+00" cType="1" res="1.2211275286972523e-02" rms="4.2268842458724976e-01" purity="7.3917585611343384e-01" nType="0">
          <Node pos="l" depth="2" NCoef="0" IVar="0" Cut="6.1459434032440186e-01" cType="1" res="1.3954198919236660e-02" rms="4.2238050699234009e-01" purity="7.4273693561553955e-01" nType="0">
            <Node pos="l" depth="3" NCoef="0" IVar="3" Cut="9.9482589960098267e-01" cType="1" res="1.5241984277963638e-02" rms="4.2084109783172607e-01" purity="7.4984037876129150e-01" nType="0">
              <Node pos="l" depth="4" NCoef="0" IVar="1" Cut="6.5580528974533081e-01" cType="1" res="1.0409348644316196e-02" rms="4.3795469403266907e-01" purity="7.1703523397445679e-01" nType="0">
                <Node pos="l" depth="5" NCoef="0" IVar="5" Cut="-2.3947935104370117e+00" cType="1" res="1.3165660202503204e-02" rms="4.3291860818862915e-01" purity="7.3143112659454346e-01" nType="0">
                  <Node pos="l" depth="6" NCoef="0" IVar="4" Cut="-2.6105990409851074e+00" cType="1" res="1.8428571522235870e-02" rms="4.0859591960906982e-01" purity="7.8150069713592529e-01" nType="0">
                    <Node pos="l" depth="7" NCoef="0" IVar="-1" Cut="0.0000000000000000e+00" cType="1" res="3.5652783699333668e-03" rms="4.0232524275779724e-01" purity="7.9511511325836182e-01" nType="-99"/>
                    <Node pos="r" depth="7" NCoef="0" IVar="-1" Cut="0.0000000000000000e+00" cType="1" res="1.6625777352601290e-03" rms="4.1008910536766052e-01" purity="7.7808755636215210e-01" nType="-99"/>
                  </Node>
                  <Node pos="r" depth="6" NCoef="0" IVar="2" Cut="7.5790550231933594e+01" cType="1" res="7.3386793956160545e-03" rms="4.5827448368072510e-01" purity="6.7599534988403320e-01" nType="0">
                    <Node pos="l" depth="7" NCoef="0" IVar="-1" Cut="0.0000000000000000e+00" cType="1" res="-1.1858213110826910e-04" rms="4.5643514394760132e-01" purity="6.8416130542755127e-01" nType="-99"/>
                    <Node pos="r" depth="7" NCoef="0" IVar="-1" Cut="0.0000000000000000e+00" cType="1" res="1.8103882903233171e-03" rms="4.6053230762481689e-01" purity="6.6475969552993774e-01" nType="-99"/>
                  </Node>
                </Node>
                <Node pos="r" depth="5" NCoef="0" IVar="3" Cut="8.5892176628112793e-01" cType="1" res="-1.6345258802175522e-02" rms="4.8330760002136230e-01" purity="5.7729810476303101e-01" nType="0">
                  <Node pos="l" depth="6" NCoef="0" IVar="-1" Cut="0.0000000000000000e+00" cType="1" res="1.3399832823779434e-04" rms="4.8782694339752197e-01" purity="5.3991860151290894e-01" nType="-99"/>
                  <Node pos="r" depth="6" NCoef="0" IVar="-1" Cut="0.0000000000000000e+00" cType="1" res="-2.7979037258774042e-03" rms="4.7929188609123230e-01" purity="6.0640251636505127e-01" nType="-99"/>
                </Node>
              </Node>
              <Node pos="r" depth="4" NCoef="0" IVar="5" Cut="-2.9069488048553467e+00" cType="1" res="2.1954173222184181e-02" rms="3.9574801921844482e-01" purity="7.9540455341339111e-01" nType="0">
                <Node pos="l" depth="5" NCoef="0" IVar="3" Cut="9.9899929761886597e-01" cType="1" res="2.9704621061682701e-02" rms="3.6062812805175781e-01" purity="8.4325563907623291e-01" nType="0">
                  <Node pos="l" depth="6" NCoef="0" IVar="-1" Cut="0.0000000000000000e+00" cType="1" res="2.0453718025237322e-03" rms="3.7576186656951904e-01" purity="8.2485675811767578e-01" nType="-99"/>
                  <Node pos="r" depth="6" NCoef="0" IVar="3" Cut="1.0087596178054810e+00" cType="1" res="3.4820489585399628e-02" rms="3.5449466109275818e-01" purity="8.5034167766571045e-01" nType="0">
                    <Node pos="l" depth="7" NCoef="0" IVar="-1" Cut="0.0000000000000000e+00" cType="1" res="4.7861263155937195e-03" rms="3.5275468230247498e-01" purity="8.5200482606887817e-01" nType="-99"/>
                    <Node pos="r" depth="7" NCoef="0" IVar="-1" Cut="0.0000000000000000e+00" cType="1" res="3.1909819226711988e-03" rms="3.5707321763038635e-01" purity="8.4768098592758179e-01" nType="-99"/>
                  </Node>
                </Node>
                <Node pos="r" depth="5" NCoef="0" IVar="4" Cut="-1.7524559497833252e+00" cType="1" res="1.7468394711613655e-02" rms="4.1465184092521667e-01" purity="7.6770949363708496e-01" nType="0">
                  <Node pos="l" depth="6" NCoef="0" IVar="-1" Cut="0.0000000000000000e+00" cType="1" res="3.8338979356922209e-04" rms="4.4165635108947754e-01" purity="7.2778189182281494e-01" nType="-99"/>
                  <Node pos="r" depth="6" NCoef="0" IVar="4" Cut="-1.0788294076919556e+00" cType="1" res="1.9210036844015121e-02" rms="4.1094005107879639e-01" purity="7.7295559644699097e-01" nType="0">
                    <Node pos="l" depth="7" NCoef="0" IVar="-1" Cut="0.0000000000000000e+00" cType="1" res="2.9652765952050686e-03" rms="4.2710819840431213e-01" purity="7.5529366731643677e-01" nType="-99"/>
                    <Node pos="r" depth="7" NCoef="0" IVar="-1" Cut="0.0000000000000000e+00" cType="1" res="1.8332599429413676e-03" rms="4.0849959850311279e-01" purity="7.7549934387207031e-01" nType="-99"/>
                  </Node>
                </Node>
              </Node>
            </Node>
            <Node pos="r" depth="3" NCoef="0" IVar="-1" Cut="0.0000000000000000e+00" cType="1" res="-3.7604130338877439e-03" rms="4.8095652461051941e-01" purity="4.3584173917770386e-01" nType="-99"/>
          </Node>
          <Node pos="r" depth="2" NCoef="0" IVar="-1" Cut="0.0000000000000000e+00" cType="1" res="-6.4746392890810966e-03" rms="4.2907199263572693e-01" purity="5.8357173204421997e-01" nType="-99"/>
        </Node>
      </Node>
    </BinaryTree>
    <BinaryTree type="DecisionTree" boostWeight="1.0000000000000000e+00" itree="83">
      <Node pos="s" depth="0" NCoef="0" IVar="5" Cut="-2.6135432720184326e+00" cType="1" res="4.1384859941899776e-03" rms="4.0561917424201965e-01" purity="5.0001257658004761e-01" nType="0">
        <Node pos="l" depth="1" NCoef="0" IVar="5" Cut="-3.4969792366027832e+00" cType="1" res="1.1284572072327137e-02" rms="3.9595261216163635e-01" purity="6.0428774356842041e-01" nType="0">
          <Node pos="l" depth="2" NCoef="0" IVar="7" Cut="4.0000000000000000e+00" cType="1" res="1.2206397950649261e-01" rms="1.9818603992462158e-01" purity="2.0101667940616608e-01" nType="0">
            <Node pos="l" depth="3" NCoef="0" IVar="-1" Cut="0.0000000000000000e+00" cType="1" res="-5.5447812192142010e-03" rms="3.9684399962425232e-01" purity="2.8322020173072815e-01" nType="-99"/>
            <Node pos="r" depth="3" NCoef="0" IVar="-1" Cut="0.0000000000000000e+00" cType="1" res="-2.8456137515604496e-03" rms="2.7654007077217102e-01" purity="1.0000742226839066e-01" nType="-99"/>
          </Node>
          <Node pos="r" depth="2" NCoef="0" IVar="0" Cut="2.2756009101867676e+00" cType="1" res="1.3810083270072937e-02" rms="3.9879882335662842e-01" purity="6.3121378421783447e-01" nType="0">
            <Node pos="l" depth="3" NCoef="0" IVar="0" Cut="8.8065600395202637e-01" cType="1" res="1.5689294785261154e-02" rms="4.0424892306327820e-01" purity="6.5432900190353394e-01" nType="0">
              <Node pos="l" depth="4" NCoef="0" IVar="5" Cut="-2.7560014724731445e+00" cType="1" res="1.8462412059307098e-02" rms="4.1184523701667786e-01" purity="7.1035814285278320e-01" nType="0">
                <Node pos="l" depth="5" NCoef="0" IVar="3" Cut="4.8013579845428467e-01" cType="1" res="2.1577758714556694e-02" rms="4.0553480386734009e-01" purity="7.2168982028961182e-01" nType="0">
                  <Node pos="l" depth="6" NCoef="0" IVar="-1" Cut="0.0000000000000000e+00" cType="1" res="7.4577014893293381e-03" rms="4.3518531322479248e-01" purity="2.7695193886756897e-01" nType="-99"/>
                  <Node pos="r" depth="6" NCoef="0" IVar="3" Cut="6.6926729679107666e-01" cType="1" res="2.0069085061550140e-02" rms="4.0391939878463745e-01" purity="7.4417507648468018e-01" nType="0">
                    <Node pos="l" depth="7" NCoef="0" IVar="-1" Cut="0.0000000000000000e+00" cType="1" res="-2.2730667842552066e-04" rms="4.6510475873947144e-01" purity="3.6214888095855713e-01" nType="-99"/>
                    <Node pos="r" depth="7" NCoef="0" IVar="-1" Cut="0.0000000000000000e+00" cType="1" res="2.5435488205403090e-03" rms="3.9595338702201843e-01" purity="7.8948444128036499e-01" nType="-99"/>
                  </Node>
                </Node>
                <Node pos="r" depth="5" NCoef="0" IVar="3" Cut="7.9324060678482056e-01" cType="1" res="6.0951747000217438e-03" rms="4.3577656149864197e-01" purity="6.6537368297576904e-01" nType="0">
                  <Node pos="l" depth="6" NCoef="0" IVar="3" Cut="6.4285790920257568e-01" cType="1" res="-1.5834593214094639e-03" rms="4.7325623035430908e-01" purity="4.7351601719856262e-01" nType="0">
                    <Node pos="l" depth="7" NCoef="0" IVar="-1" Cut="0.0000000000000000e+00" cType="1" res="1.2602492934092879e-03" rms="4.6386325359344482e-01" purity="3.6170035600662231e-01" nType="-99"/>
                    <Node pos="r" depth="7" NCoef="0" IVar="-1" Cut="0.0000000000000000e+00" cType="1" res="-1.2928623473271728e-03" rms="4.8180401325225830e-01" purity="5.8137333393096924e-01" nType="-99"/>
                  </Node>
                  <Node pos="r" depth="6" NCoef="0" IVar="5" Cut="-2.7146317958831787e+00" cType="1" res="1.0479114949703217e-02" rms="4.1279137134552002e-01" purity="7.7491039037704468e-01" nType="0">
                    <Node pos="l" depth="7" NCoef="0" IVar="-1" Cut="0.0000000000000000e+00" cType="1" res="3.1467646476812661e-04" rms="4.1403487324714661e-01" purity="7.7047842741012573e-01" nType="-99"/>
                    <Node pos="r" depth="7" NCoef="0" IVar="-1" Cut="0.0000000000000000e+00" cType="1" res="1.4891191385686398e-03" rms="4.1217717528343201e-01" purity="7.7693110704421997e-01" nType="-99"/>
                  </Node>
                </Node>
              </Node>
              <Node pos="r" depth="4" NCoef="0" IVar="7" Cut="4.0000000000000000e+00" cType="1" res="-7.5460076332092285e-03" rms="3.0458092689514160e-01" purity="1.3354086875915527e-01" nType="0">
                <Node pos="l" depth="5" NCoef="0" IVar="-1" Cut="0.0000000000000000e+00" cType="1" res="-5.6664003059267998e-03" rms="3.6025899648666382e-01" purity="1.8376316130161285e-01" nType="-99"/>
                <Node pos="r" depth="5" NCoef="0" IVar="4" Cut="-5.3987169265747070e-01" cType="1" res="6.9039547815918922e-04" rms="3.0499044060707092e-01" purity="1.0982346534729004e-01" nType="0">
                  <Node pos="l" depth="6" NCoef="0" IVar="-1" Cut="0.0000000000000000e+00" cType="1" res="-2.9118324164301157e-03" rms="2.9389548301696777e-01" purity="1.0123622417449951e-01" nType="-99"/>
                  <Node pos="r" depth="6" NCoef="0" IVar="-1" Cut="0.0000000000000000e+00" cType="1" res="3.3754063770174980e-03" rms="3.1581336259841919e-01" purity="1.1881882697343826e-01" nType="-99"/>
                </Node>
              </Node>
            </Node>
            <Node pos="r" depth="3" NCoef="0" IVar="-1" Cut="0.0000000000000000e+00" cType="1" res="-1.3588517904281616e-02" rms="2.1658207476139069e-01" purity="5.1200550049543381e-02" nType="-99"/>
          </Node>
        </Node>
        <Node pos="r" depth="1" NCoef="0" IVar="5" Cut="-2.1276507377624512e+00" cType="1" res="-8.3044569691992365e-06" rms="4.1106739640235901e-01" purity="4.3950295448303223e-01" nType="0">
          <Node pos="l" depth="2" NCoef="0" IVar="4" Cut="-2.7273044586181641e+00" cType="1" res="9.3355569988489151e-03" rms="4.2965668439865112e-01" purity="5.7688337564468384e-01" nType="0">
            <Node pos="l" depth="3" NCoef="0" IVar="-1" Cut="0.0000000000000000e+00" cType="1" res="4.0547074750065804e-03" rms="4.3168255686759949e-01" purity="7.3440808057785034e-01" nType="-99"/>
            <Node pos="r" depth="3" NCoef="0" IVar="3" Cut="8.1090837717056274e-01" cType="1" res="7.4178674258291721e-03" rms="4.2945423722267151e-01" purity="5.6660014390945435e-01" nType="0">
              <Node pos="l" depth="4" NCoef="0" IVar="5" Cut="-2.2844204902648926e+00" cType="1" res="1.3642497360706329e-02" rms="4.3413650989532471e-01" purity="3.9922016859054565e-01" nType="0">
                <Node pos="l" depth="5" NCoef="0" IVar="3" Cut="3.1483128666877747e-01" cType="1" res="2.1145416423678398e-02" rms="4.3564891815185547e-01" purity="4.1158527135848999e-01" nType="0">
                  <Node pos="l" depth="6" NCoef="0" IVar="-1" Cut="0.0000000000000000e+00" cType="1" res="-3.5900778602808714e-03" rms="2.9068091511726379e-01" purity="1.0172229260206223e-01" nType="-99"/>
                  <Node pos="r" depth="6" NCoef="0" IVar="5" Cut="-2.3588237762451172e+00" cType="1" res="2.6944471523165703e-02" rms="4.5590668916702271e-01" purity="4.6540415287017822e-01" nType="0">
                    <Node pos="l" depth="7" NCoef="0" IVar="-1" Cut="0.0000000000000000e+00" cType="1" res="2.3127826862037182e-03" rms="4.5659720897674561e-01" purity="4.6236550807952881e-01" nType="-99"/>
                    <Node pos="r" depth="7" NCoef="0" IVar="-1" Cut="0.0000000000000000e+00" cType="1" res="4.3436014093458652e-03" rms="4.5296922326087952e-01" purity="4.7675356268882751e-01" nType="-99"/>
                  </Node>
                </Node>
                <Node pos="r" depth="5" NCoef="0" IVar="3" Cut="5.5845957994461060e-01" cType="1" res="-3.9854128845036030e-03" rms="4.3004748225212097e-01" purity="3.7016865611076355e-01" nType="0">
                  <Node pos="l" depth="6" NCoef="0" IVar="-1" Cut="0.0000000000000000e+00" cType="1" res="-1.8800388788804412e-03" rms="3.6737313866615295e-01" purity="1.8047349154949188e-01" nType="-99"/>
                  <Node pos="r" depth="6" NCoef="0" IVar="-1" Cut="0.0000000000000000e+00" cType="1" res="1.6587707796134055e-04" rms="4.8000735044479370e-01" purity="5.4301047325134277e-01" nType="-99"/>
                </Node>
              </Node>
              <Node pos="r" depth="4" NCoef="0" IVar="1" Cut="3.6084783077239990e-01" cType="1" res="5.5219093337655067e-04" rms="4.2412388324737549e-01" purity="7.5121784210205078e-01" nType="0">
                <Node pos="l" depth="5" NCoef="0" IVar="4" Cut="-8.2203239202499390e-01" cType="1" res="4.9029211513698101e-03" rms="4.1460984945297241e-01" purity="7.7110344171524048e-01" nType="0">
                  <Node pos="l" depth="6" NCoef="0" IVar="4" Cut="-2.0509762763977051e+00" cType="1" res="-3.4530009143054485e-03" rms="4.3480420112609863e-01" purity="7.3787403106689453e-01" nType="0">
                    <Node pos="l" depth="7" NCoef="0" IVar="-1" Cut="0.0000000000000000e+00" cType="1" res="1.4013671316206455e-03" rms="4.2903137207031250e-01" purity="7.5027251243591309e-01" nType="-99"/>
                    <Node pos="r" depth="7" NCoef="0" IVar="-1" Cut="0.0000000000000000e+00" cType="1" res="-1.4900011010468006e-03" rms="4.3823346495628357e-01" purity="7.2962057590484619e-01" nType="-99"/>
                  </Node>
                  <Node pos="r" depth="6" NCoef="0" IVar="4" Cut="-1.4100469648838043e-01" cType="1" res="1.1625764891505241e-02" rms="3.9749088883399963e-01" purity="7.9783850908279419e-01" nType="0">
                    <Node pos="l" depth="7" NCoef="0" IVar="-1" Cut="0.0000000000000000e+00" cType="1" res="2.5337643455713987e-03" rms="3.9171531796455383e-01" purity="8.0655735731124878e-01" nType="-99"/>
                    <Node pos="r" depth="7" NCoef="0" IVar="-1" Cut="0.0000000000000000e+00" cType="1" res="-1.5527608047705144e-04" rms="4.0396103262901306e-01" purity="7.8733676671981812e-01" nType="-99"/>
                  </Node>
                </Node>
                <Node pos="r" depth="5" NCoef="0" IVar="-1" Cut="0.0000000000000000e+00" cType="1" res="-1.5642147045582533e-03" rms="4.6005457639694214e-01" purity="6.7109274864196777e-01" nType="-99"/>
              </Node>
            </Node>
          </Node>
          <Node pos="r" depth="2" NCoef="0" IVar="3" Cut="1.0126360654830933e+00" cType="1" res="-4.2272261343896389e-03" rms="4.0232160687446594e-01" purity="3.7747320532798767e-01" nType="0">
            <Node pos="l" depth="3" NCoef="0" IVar="3" Cut="8.1675887107849121e-01" cType="1" res="-2.9331059195101261e-03" rms="4.0021184086799622e-01" purity="3.6881873011589050e-01" nType="0">
              <Node pos="l" depth="4" NCoef="0" IVar="4" Cut="-4.5578628778457642e-01" cType="1" res="-6.4964047633111477e-03" rms="3.7311312556266785e-01" purity="2.4454285204410553e-01" nType="0">
                <Node pos="l" depth="5" NCoef="0" IVar="7" Cut="4.0000000000000000e+00" cType="1" res="4.7377706505358219e-03" rms="4.4626519083976746e-01" purity="4.1397276520729065e-01" nType="0">
                  <Node pos="l" depth="6" NCoef="0" IVar="3" Cut="6.3584232330322266e-01" cType="1" res="1.0179108008742332e-02" rms="4.7544631361961365e-01" purity="5.0669687986373901e-01" nType="0">
                    <Node pos="l" depth="7" NCoef="0" IVar="-1" Cut="0.0000000000000000e+00" cType="1" res="4.8308698460459709e-03" rms="4.5548015832901001e-01" purity="3.2566654682159424e-01" nType="-99"/>
                    <Node pos="r" depth="7" NCoef="0" IVar="-1" Cut="0.0000000000000000e+00" cType="1" res="5.2096744184382260e-05" rms="4.8131504654884338e-01" purity="5.6504935026168823e-01" nType="-99"/>
                  </Node>
                  <Node pos="r" depth="6" NCoef="0" IVar="5" Cut="-1.7042022943496704e+00" cType="1" res="-4.7850557602941990e-03" rms="3.8992252945899963e-01" purity="2.5203922390937805e-01" nType="0">
                    <Node pos="l" depth="7" NCoef="0" IVar="-1" Cut="0.0000000000000000e+00" cType="1" res="-3.4574556630104780e-03" rms="3.9289259910583496e-01" purity="2.5789493322372437e-01" nType="-99"/>
                    <Node pos="r" depth="7" NCoef="0" IVar="-1" Cut="0.0000000000000000e+00" cType="1" res="1.9939516205340624e-03" rms="3.8647577166557312e-01" purity="2.4688933789730072e-01" nType="-99"/>
                  </Node>
                </Node>
                <Node pos="r" depth="5" NCoef="0" IVar="7" Cut="3.0000000000000000e+00" cType="1" res="1.2096049636602402e-01" rms="0.0000000000000000e+00" purity="1.9281162321567535e-01" nType="0">
                  <Node pos="l" depth="6" NCoef="0" IVar="3" Cut="7.3830741643905640e-01" cType="1" res="-2.9710428789258003e-02" rms="4.3459528684616089e-01" purity="3.4161612391471863e-01" nType="0">
                    <Node pos="l" depth="7" NCoef="0" IVar="-1" Cut="0.0000000000000000e+00" cType="1" res="-5.8280709199607372e-03" rms="4.0040799975395203e-01" purity="2.4169145524501801e-01" nType="-99"/>
                    <Node pos="r" depth="7" NCoef="0" IVar="-1" Cut="0.0000000000000000e+00" cType="1" res="-9.0425478992983699e-04" rms="4.8101982474327087e-01" purity="4.9270236492156982e-01" nType="-99"/>
                  </Node>
                  <Node pos="r" depth="6" NCoef="0" IVar="6" Cut="2.3492860794067383e-01" cType="1" res="-6.6900877282023430e-03" rms="3.3116585016250610e-01" purity="1.6848872601985931e-01" nType="0">
                    <Node pos="l" depth="7" NCoef="0" IVar="-1" Cut="0.0000000000000000e+00" cType="1" res="-1.8395149381831288e-03" rms="3.2806694507598877e-01" purity="1.6844967007637024e-01" nType="-99"/>
                    <Node pos="r" depth="7" NCoef="0" IVar="-1" Cut="0.0000000000000000e+00" cType="1" res="4.8055867664515972e-03" rms="3.6916425824165344e-01" purity="1.6901457309722900e-01" nType="-99"/>
                  </Node>
                </Node>
              </Node>
              <Node pos="r" depth="4" NCoef="0" IVar="1" Cut="6.5971261262893677e-01" cType="1" res="5.5673881433904171e-03" rms="4.5832216739654541e-01" purity="6.6528755426406860e-01" nType="0">
                <Node pos="l" depth="5" NCoef="0" IVar="2" Cut="1.2591268920898438e+02" cType="1" res="9.8047414794564247e-03" rms="4.5549973845481873e-01" purity="6.8217074871063232e-01" nType="0">
                  <Node pos="l" depth="6" NCoef="0" IVar="6" Cut="2.7867656201124191e-02" cType="1" res="7.9715838655829430e-03" rms="4.5399662852287292e-01" purity="6.8716114759445190e-01" nType="0">
                    <Node pos="l" depth="7" NCoef="0" IVar="-1" Cut="0.0000000000000000e+00" cType="1" res="4.2562771704979241e-04" rms="4.5174425840377808e-01" purity="6.9242411851882935e-01" nType="-99"/>
                    <Node pos="r" depth="7" NCoef="0" IVar="-1" Cut="0.0000000000000000e+00" cType="1" res="1.8914014799520373e-03" rms="4.6204665303230286e-01" purity="6.6755485534667969e-01" nType="-99"/>
                  </Node>
                  <Node pos="r" depth="6" NCoef="0" IVar="-1" Cut="0.0000000000000000e+00" cType="1" res="2.0014392212033272e-03" rms="4.6459412574768066e-01" purity="6.5107208490371704e-01" nType="-99"/>
                </Node>
                <Node pos="r" depth="5" NCoef="0" IVar="-1" Cut="0.0000000000000000e+00" cType="1" res="-2.7587730437517166e-03" rms="4.8107111454010010e-01" purity="5.1504659652709961e-01" nType="-99"/>
              </Node>
            </Node>
            <Node pos="r" depth="3" NCoef="0" IVar="-1" Cut="0.0000000000000000e+00" cType="1" res="-3.6627172958105803e-03" rms="4.5230108499526978e-01" purity="6.0177296400070190e-01" nType="-99"/>
          </Node>
        </Node>
      </Node>
    </BinaryTree>
    <BinaryTree type="DecisionTree" boostWeight="1.0000000000000000e+00" itree="84">
      <Node pos="s" depth="0" NCoef="0" IVar="3" Cut="5.7878971099853516e-01" cType="1" res="5.5309059098362923e-03" rms="4.0469217300415039e-01" purity="5.0215137004852295e-01" nType="0">
        <Node pos="l" depth="1" NCoef="0" IVar="6" Cut="1.5685297548770905e-01" cType="1" res="-4.5366529375314713e-03" rms="3.2643398642539978e-01" purity="1.4426292479038239e-01" nType="0">
          <Node pos="l" depth="2" NCoef="0" IVar="7" Cut="4.0000000000000000e+00" cType="1" res="-9.3973446637392044e-03" rms="3.1080016493797302e-01" purity="1.2903071939945221e-01" nType="0">
            <Node pos="l" depth="3" NCoef="0" IVar="3" Cut="3.5905811190605164e-01" cType="1" res="-1.8589055165648460e-02" rms="3.4511560201644897e-01" purity="1.5582592785358429e-01" nType="0">
              <Node pos="l" depth="4" NCoef="0" IVar="-1" Cut="0.0000000000000000e+00" cType="1" res="2.3415342438966036e-03" rms="2.8814738988876343e-01" purity="9.5315098762512207e-02" nType="-99"/>
              <Node pos="r" depth="4" NCoef="0" IVar="0" Cut="7.5524157285690308e-01" cType="1" res="-2.4578737094998360e-02" rms="3.5705372691154480e-01" purity="1.7019969224929810e-01" nType="0">
                <Node pos="l" depth="5" NCoef="0" IVar="-1" Cut="0.0000000000000000e+00" cType="1" res="-4.5119882561266422e-03" rms="4.1818195581436157e-01" purity="2.5161147117614746e-01" nType="-99"/>
                <Node pos="r" depth="5" NCoef="0" IVar="3" Cut="5.0078952312469482e-01" cType="1" res="-1.8745670095086098e-02" rms="3.2141366600990295e-01" purity="1.2883201241493225e-01" nType="0">
                  <Node pos="l" depth="6" NCoef="0" IVar="-1" Cut="0.0000000000000000e+00" cType="1" res="-8.0925393849611282e-03" rms="2.7675640583038330e-01" purity="8.8099390268325806e-02" nType="-99"/>
                  <Node pos="r" depth="6" NCoef="0" IVar="-1" Cut="0.0000000000000000e+00" cType="1" res="-4.5947352191433311e-04" rms="3.8218215107917786e-01" purity="1.9465282559394836e-01" nType="-99"/>
                </Node>
              </Node>
            </Node>
            <Node pos="r" depth="3" NCoef="0" IVar="3" Cut="4.6682152152061462e-01" cType="1" res="-6.5328949131071568e-03" rms="2.9923999309539795e-01" purity="1.2067633122205734e-01" nType="0">
              <Node pos="l" depth="4" NCoef="0" IVar="6" Cut="6.5977856516838074e-02" cType="1" res="-1.0894595645368099e-02" rms="2.4009972810745239e-01" purity="6.6421270370483398e-02" nType="0">
                <Node pos="l" depth="5" NCoef="0" IVar="2" Cut="6.3925979614257812e+01" cType="1" res="-2.0177476108074188e-02" rms="2.0137198269367218e-01" purity="4.4181413948535919e-02" nType="0">
                  <Node pos="l" depth="6" NCoef="0" IVar="-1" Cut="0.0000000000000000e+00" cType="1" res="-4.2031533084809780e-03" rms="2.3533825576305389e-01" purity="6.2912799417972565e-02" nType="-99"/>
                  <Node pos="r" depth="6" NCoef="0" IVar="3" Cut="3.6174517869949341e-01" cType="1" res="-2.4878781288862228e-02" rms="1.8409155309200287e-01" purity="3.5860791802406311e-02" nType="0">
                    <Node pos="l" depth="7" NCoef="0" IVar="-1" Cut="0.0000000000000000e+00" cType="1" res="-1.2173360213637352e-02" rms="1.6127562522888184e-01" purity="2.7192378416657448e-02" nType="-99"/>
                    <Node pos="r" depth="7" NCoef="0" IVar="-1" Cut="0.0000000000000000e+00" cType="1" res="-1.2573117390275002e-02" rms="2.1905259788036346e-01" purity="5.1612015813589096e-02" nType="-99"/>
                  </Node>
                </Node>
                <Node pos="r" depth="5" NCoef="0" IVar="3" Cut="3.0154114961624146e-01" cType="1" res="-6.5498170442879200e-03" rms="2.5610718131065369e-01" purity="7.6830454170703888e-02" nType="0">
                  <Node pos="l" depth="6" NCoef="0" IVar="6" Cut="1.2460518628358841e-01" cType="1" res="-1.6965417191386223e-02" rms="1.8183644115924835e-01" purity="3.4831691533327103e-02" nType="0">
                    <Node pos="l" depth="7" NCoef="0" IVar="-1" Cut="0.0000000000000000e+00" cType="1" res="-8.3656935021281242e-03" rms="1.8461686372756958e-01" purity="3.5978879779577255e-02" nType="-99"/>
                    <Node pos="r" depth="7" NCoef="0" IVar="-1" Cut="0.0000000000000000e+00" cType="1" res="-1.5027535147964954e-02" rms="1.7495636641979218e-01" purity="3.2219309359788895e-02" nType="-99"/>
                  </Node>
                  <Node pos="r" depth="6" NCoef="0" IVar="7" Cut="6.0000000000000000e+00" cType="1" res="1.4105607988312840e-03" rms="3.0028820037841797e-01" purity="1.0876382887363434e-01" nType="0">
                    <Node pos="l" depth="7" NCoef="0" IVar="-1" Cut="0.0000000000000000e+00" cType="1" res="-2.1753192413598299e-03" rms="2.9522103071212769e-01" purity="1.0426752269268036e-01" nType="-99"/>
                    <Node pos="r" depth="7" NCoef="0" IVar="-1" Cut="0.0000000000000000e+00" cType="1" res="5.1467749290168285e-03" rms="3.0820944905281067e-01" purity="1.1648926883935928e-01" nType="-99"/>
                  </Node>
                </Node>
              </Node>
              <Node pos="r" depth="4" NCoef="0" IVar="3" Cut="5.2096563577651978e-01" cType="1" res="6.2918835319578648e-03" rms="4.2791414260864258e-01" purity="2.8020337224006653e-01" nType="0">
                <Node pos="l" depth="5" NCoef="0" IVar="4" Cut="3.4071707632392645e-03" cType="1" res="1.7397137358784676e-02" rms="4.1175019741058350e-01" purity="2.4412474036216736e-01" nType="0">
                  <Node pos="l" depth="6" NCoef="0" IVar="-1" Cut="0.0000000000000000e+00" cType="1" res="5.4014677880331874e-04" rms="4.3118017911911011e-01" purity="2.6219362020492554e-01" nType="-99"/>
                  <Node pos="r" depth="6" NCoef="0" IVar="-1" Cut="0.0000000000000000e+00" cType="1" res="4.7152549959719181e-03" rms="3.9288547635078430e-01" purity="2.2771599888801575e-01" nType="-99"/>
                </Node>
                <Node pos="r" depth="5" NCoef="0" IVar="3" Cut="5.5077511072158813e-01" cType="1" res="-4.7679985873401165e-03" rms="4.4315028190612793e-01" purity="3.1613460183143616e-01" nType="0">
                  <Node pos="l" depth="6" NCoef="0" IVar="-1" Cut="0.0000000000000000e+00" cType="1" res="-2.7750192675739527e-03" rms="4.2344784736633301e-01" purity="2.6859307289123535e-01" nType="-99"/>
                  <Node pos="r" depth="6" NCoef="0" IVar="-1" Cut="0.0000000000000000e+00" cType="1" res="1.5062990132719278e-03" rms="4.6260616183280945e-01" purity="3.6715412139892578e-01" nType="-99"/>
                </Node>
              </Node>
            </Node>
          </Node>
          <Node pos="r" depth="2" NCoef="0" IVar="5" Cut="-2.1758852005004883e+00" cType="1" res="9.0227751061320305e-03" rms="3.6618885397911072e-01" purity="1.8674546480178833e-01" nType="0">
            <Node pos="l" depth="3" NCoef="0" IVar="3" Cut="2.6168563961982727e-01" cType="1" res="2.7268864214420319e-02" rms="4.1918894648551941e-01" purity="2.6557433605194092e-01" nType="0">
              <Node pos="l" depth="4" NCoef="0" IVar="-1" Cut="0.0000000000000000e+00" cType="1" res="1.6949734417721629e-03" rms="3.8154610991477966e-01" purity="1.9901275634765625e-01" nType="-99"/>
              <Node pos="r" depth="4" NCoef="0" IVar="-1" Cut="0.0000000000000000e+00" cType="1" res="5.3373090922832489e-03" rms="4.5037788152694702e-01" purity="3.2669529318809509e-01" nType="-99"/>
            </Node>
            <Node pos="r" depth="3" NCoef="0" IVar="2" Cut="2.7566720581054688e+02" cType="1" res="-3.8194173248484731e-04" rms="3.3522993326187134e-01" purity="1.4611412584781647e-01" nType="0">
              <Node pos="l" depth="4" NCoef="0" IVar="-1" Cut="0.0000000000000000e+00" cType="1" res="3.7768539041280746e-03" rms="3.5749804973602295e-01" purity="1.7782229185104370e-01" nType="-99"/>
              <Node pos="r" depth="4" NCoef="0" IVar="5" Cut="1.2433719635009766e+00" cType="1" res="-5.1913931965827942e-03" rms="3.2906135916709900e-01" purity="1.3792265951633453e-01" nType="0">
                <Node pos="l" depth="5" NCoef="0" IVar="7" Cut="5.0000000000000000e+00" cType="1" res="-1.3697482645511627e-02" rms="3.4409162402153015e-01" purity="1.5290158987045288e-01" nType="0">
                  <Node pos="l" depth="6" NCoef="0" IVar="-1" Cut="0.0000000000000000e+00" cType="1" res="3.0164832423906773e-05" rms="3.9693590998649597e-01" purity="2.2355569899082184e-01" nType="-99"/>
                  <Node pos="r" depth="6" NCoef="0" IVar="7" Cut="7.0000000000000000e+00" cType="1" res="-2.0396985113620758e-02" rms="3.1397509574890137e-01" purity="1.1689000576734543e-01" nType="0">
                    <Node pos="l" depth="7" NCoef="0" IVar="-1" Cut="0.0000000000000000e+00" cType="1" res="-3.1738895922899246e-03" rms="3.3932268619537354e-01" purity="1.3972470164299011e-01" nType="-99"/>
                    <Node pos="r" depth="7" NCoef="0" IVar="-1" Cut="0.0000000000000000e+00" cType="1" res="-6.8401927128434181e-03" rms="2.8836366534233093e-01" purity="9.5692321658134460e-02" nType="-99"/>
                  </Node>
                </Node>
                <Node pos="r" depth="5" NCoef="0" IVar="-1" Cut="0.0000000000000000e+00" cType="1" res="5.6608710438013077e-03" rms="2.8540703654289246e-01" purity="9.9832430481910706e-02" nType="-99"/>
              </Node>
            </Node>
          </Node>
        </Node>
        <Node pos="r" depth="1" NCoef="0" IVar="1" Cut="1.4690676331520081e-01" cType="1" res="1.0289744473993778e-02" rms="4.3675044178962708e-01" purity="6.7132180929183960e-01" nType="0">
          <Node pos="l" depth="2" NCoef="0" IVar="3" Cut="6.5107637643814087e-01" cType="1" res="1.6357548534870148e-02" rms="4.2887899279594421e-01" purity="7.0783710479736328e-01" nType="0">
            <Node pos="l" depth="3" NCoef="0" IVar="7" Cut="4.0000000000000000e+00" cType="1" res="3.0379511881619692e-03" rms="4.7661861777305603e-01" purity="4.3221366405487061e-01" nType="0">
              <Node pos="l" depth="4" NCoef="0" IVar="4" Cut="-3.0587890744209290e-01" cType="1" res="-6.2619121745228767e-03" rms="4.7416296601295471e-01" purity="4.0536579489707947e-01" nType="0">
                <Node pos="l" depth="5" NCoef="0" IVar="-1" Cut="0.0000000000000000e+00" cType="1" res="-3.9037939859554172e-04" rms="4.8607593774795532e-01" purity="4.3091592192649841e-01" nType="-99"/>
                <Node pos="r" depth="5" NCoef="0" IVar="-1" Cut="0.0000000000000000e+00" cType="1" res="-8.1323657650500536e-04" rms="4.6207353472709656e-01" purity="3.8010123372077942e-01" nType="-99"/>
              </Node>
              <Node pos="r" depth="4" NCoef="0" IVar="-1" Cut="0.0000000000000000e+00" cType="1" res="1.5940356533974409e-03" rms="4.8151439428329468e-01" purity="4.7500815987586975e-01" nType="-99"/>
            </Node>
            <Node pos="r" depth="3" NCoef="0" IVar="4" Cut="-1.3470710515975952e+00" cType="1" res="1.7563570290803909e-02" rms="4.2435547709465027e-01" purity="7.3205149173736572e-01" nType="0">
              <Node pos="l" depth="4" NCoef="0" IVar="5" Cut="-2.3080964088439941e+00" cType="1" res="1.2250822968780994e-02" rms="4.3960559368133545e-01" purity="7.1959656476974487e-01" nType="0">
                <Node pos="l" depth="5" NCoef="0" IVar="4" Cut="-2.0565783977508545e+00" cType="1" res="1.5640025958418846e-02" rms="4.2831429839134216e-01" purity="7.4142771959304810e-01" nType="0">
                  <Node pos="l" depth="6" NCoef="0" IVar="7" Cut="3.0000000000000000e+00" cType="1" res="2.2343173623085022e-02" rms="4.2372265458106995e-01" purity="7.5191468000411987e-01" nType="0">
                    <Node pos="l" depth="7" NCoef="0" IVar="-1" Cut="0.0000000000000000e+00" cType="1" res="2.0226028282195330e-03" rms="4.1626650094985962e-01" purity="7.6660764217376709e-01" nType="-99"/>
                    <Node pos="r" depth="7" NCoef="0" IVar="-1" Cut="0.0000000000000000e+00" cType="1" res="3.4063146449625492e-03" rms="4.5356541872024536e-01" purity="6.9230288267135620e-01" nType="-99"/>
                  </Node>
                  <Node pos="r" depth="6" NCoef="0" IVar="4" Cut="-1.8277392387390137e+00" cType="1" res="3.3109781797975302e-03" rms="4.3609833717346191e-01" purity="7.2178101539611816e-01" nType="0">
                    <Node pos="l" depth="7" NCoef="0" IVar="-1" Cut="0.0000000000000000e+00" cType="1" res="-6.9628650089725852e-04" rms="4.4359725713729858e-01" purity="7.0628160238265991e-01" nType="-99"/>
                    <Node pos="r" depth="7" NCoef="0" IVar="-1" Cut="0.0000000000000000e+00" cType="1" res="1.0375664569437504e-03" rms="4.3030470609664917e-01" purity="7.3324221372604370e-01" nType="-99"/>
                  </Node>
                </Node>
                <Node pos="r" depth="5" NCoef="0" IVar="4" Cut="-1.9379099607467651e+00" cType="1" res="6.1163473874330521e-03" rms="4.5927402377128601e-01" purity="6.8008202314376831e-01" nType="0">
                  <Node pos="l" depth="6" NCoef="0" IVar="5" Cut="-1.7231701612472534e+00" cType="1" res="1.9043307984247804e-03" rms="4.5881509780883789e-01" purity="6.8140614032745361e-01" nType="0">
                    <Node pos="l" depth="7" NCoef="0" IVar="-1" Cut="0.0000000000000000e+00" cType="1" res="8.8155071716755629e-04" rms="4.4738829135894775e-01" purity="7.0962977409362793e-01" nType="-99"/>
                    <Node pos="r" depth="7" NCoef="0" IVar="-1" Cut="0.0000000000000000e+00" cType="1" res="-1.0036884341388941e-03" rms="4.7825840115547180e-01" purity="6.3104385137557983e-01" nType="-99"/>
                  </Node>
                  <Node pos="r" depth="6" NCoef="0" IVar="-1" Cut="0.0000000000000000e+00" cType="1" res="1.3350626686587930e-03" rms="4.6010732650756836e-01" purity="6.7731404304504395e-01" nType="-99"/>
                </Node>
              </Node>
              <Node pos="r" depth="4" NCoef="0" IVar="5" Cut="-2.2148137092590332e+00" cType="1" res="2.0312294363975525e-02" rms="4.1621944308280945e-01" purity="7.3849546909332275e-01" nType="0">
                <Node pos="l" depth="5" NCoef="0" IVar="5" Cut="-3.1111207008361816e+00" cType="1" res="2.3445634171366692e-02" rms="3.8405632972717285e-01" purity="8.0692499876022339e-01" nType="0">
                  <Node pos="l" depth="6" NCoef="0" IVar="4" Cut="-6.7908805608749390e-01" cType="1" res="3.2497260719537735e-02" rms="3.5118851065635681e-01" purity="8.4552860260009766e-01" nType="0">
                    <Node pos="l" depth="7" NCoef="0" IVar="-1" Cut="0.0000000000000000e+00" cType="1" res="2.9266360215842724e-03" rms="3.7719011306762695e-01" purity="8.1338500976562500e-01" nType="-99"/>
                    <Node pos="r" depth="7" NCoef="0" IVar="-1" Cut="0.0000000000000000e+00" cType="1" res="5.2383630536496639e-03" rms="3.3513602614402771e-01" purity="8.6412394046783447e-01" nType="-99"/>
                  </Node>
                  <Node pos="r" depth="6" NCoef="0" IVar="4" Cut="-4.1913506388664246e-01" cType="1" res="2.0226847380399704e-02" rms="3.9503577351570129e-01" purity="7.9319739341735840e-01" nType="0">
                    <Node pos="l" depth="7" NCoef="0" IVar="-1" Cut="0.0000000000000000e+00" cType="1" res="1.6185104614123702e-03" rms="4.0251067280769348e-01" purity="7.8120666742324829e-01" nType="-99"/>
                    <Node pos="r" depth="7" NCoef="0" IVar="-1" Cut="0.0000000000000000e+00" cType="1" res="3.0414764769375324e-03" rms="3.8773056864738464e-01" purity="8.0458551645278931e-01" nType="-99"/>
                  </Node>
                </Node>
                <Node pos="r" depth="5" NCoef="0" IVar="3" Cut="8.5632508993148804e-01" cType="1" res="1.6012327745556831e-02" rms="4.5665025711059570e-01" purity="6.4458775520324707e-01" nType="0">
                  <Node pos="l" depth="6" NCoef="0" IVar="0" Cut="2.3032860457897186e-01" cType="1" res="2.4292962625622749e-02" rms="4.7609603404998779e-01" purity="5.6313997507095337e-01" nType="0">
                    <Node pos="l" depth="7" NCoef="0" IVar="-1" Cut="0.0000000000000000e+00" cType="1" res="3.0232458375394344e-03" rms="4.7495257854461670e-01" purity="6.1200922727584839e-01" nType="-99"/>
                    <Node pos="r" depth="7" NCoef="0" IVar="-1" Cut="0.0000000000000000e+00" cType="1" res="5.8958213776350021e-04" rms="4.7765374183654785e-01" purity="4.7392368316650391e-01" nType="-99"/>
                  </Node>
                  <Node pos="r" depth="6" NCoef="0" IVar="5" Cut="-9.6776634454727173e-01" cType="1" res="9.4909556210041046e-03" rms="4.4062283635139465e-01" purity="7.0873159170150757e-01" nType="0">
                    <Node pos="l" depth="7" NCoef="0" IVar="-1" Cut="0.0000000000000000e+00" cType="1" res="1.3861301122233272e-03" rms="4.2621341347694397e-01" purity="7.5245743989944458e-01" nType="-99"/>
                    <Node pos="r" depth="7" NCoef="0" IVar="-1" Cut="0.0000000000000000e+00" cType="1" res="-2.2363010793924332e-04" rms="4.8324671387672424e-01" purity="5.7021856307983398e-01" nType="-99"/>
                  </Node>
                </Node>
              </Node>
            </Node>
          </Node>
          <Node pos="r" depth="2" NCoef="0" IVar="5" Cut="-2.1259143352508545e+00" cType="1" res="-3.3003343560267240e-05" rms="4.4963708519935608e-01" purity="6.0920083522796631e-01" nType="0">
            <Node pos="l" depth="3" NCoef="0" IVar="3" Cut="1.0002667903900146e+00" cType="1" res="9.5740873366594315e-03" rms="4.3908476829528809e-01" purity="6.7455536127090454e-01" nType="0">
              <Node pos="l" depth="4" NCoef="0" IVar="4" Cut="-2.4560921192169189e+00" cType="1" res="5.2499785088002682e-03" rms="4.4996449351310730e-01" purity="6.4176261425018311e-01" nType="0">
                <Node pos="l" depth="5" NCoef="0" IVar="3" Cut="8.3716112375259399e-01" cType="1" res="2.1969877183437347e-02" rms="4.5167806744575500e-01" purity="6.7811393737792969e-01" nType="0">
                  <Node pos="l" depth="6" NCoef="0" IVar="-1" Cut="0.0000000000000000e+00" cType="1" res="2.5472831912338734e-03" rms="4.7314369678497314e-01" purity="6.0460942983627319e-01" nType="-99"/>
                  <Node pos="r" depth="6" NCoef="0" IVar="-1" Cut="0.0000000000000000e+00" cType="1" res="1.6704440349712968e-03" rms="4.3189024925231934e-01" purity="7.4254059791564941e-01" nType="-99"/>
                </Node>
                <Node pos="r" depth="5" NCoef="0" IVar="4" Cut="-1.0198475122451782e+00" cType="1" res="1.3433085987344384e-03" rms="4.4947353005409241e-01" purity="6.3326901197433472e-01" nType="0">
                  <Node pos="l" depth="6" NCoef="0" IVar="4" Cut="-1.5759210586547852e+00" cType="1" res="-1.3256999664008617e-02" rms="4.6832183003425598e-01" purity="5.7671248912811279e-01" nType="0">
                    <Node pos="l" depth="7" NCoef="0" IVar="-1" Cut="0.0000000000000000e+00" cType="1" res="-5.0027237739413977e-04" rms="4.7015097737312317e-01" purity="5.9156936407089233e-01" nType="-99"/>
                    <Node pos="r" depth="7" NCoef="0" IVar="-1" Cut="0.0000000000000000e+00" cType="1" res="-2.6235238183289766e-03" rms="4.6452388167381287e-01" purity="5.4880106449127197e-01" nType="-99"/>
                  </Node>
                  <Node pos="r" depth="6" NCoef="0" IVar="6" Cut="4.4219601899385452e-02" cType="1" res="1.3715248554944992e-02" rms="4.3247443437576294e-01" purity="6.8119359016418457e-01" nType="0">
                    <Node pos="l" depth="7" NCoef="0" IVar="-1" Cut="0.0000000000000000e+00" cType="1" res="1.0843541240319610e-03" rms="4.1688248515129089e-01" purity="7.3666119575500488e-01" nType="-99"/>
                    <Node pos="r" depth="7" NCoef="0" IVar="-1" Cut="0.0000000000000000e+00" cType="1" res="2.2807484492659569e-03" rms="4.7530010342597961e-01" purity="5.1765578985214233e-01" nType="-99"/>
                  </Node>
                </Node>
              </Node>
              <Node pos="r" depth="4" NCoef="0" IVar="5" Cut="-3.0251977443695068e+00" cType="1" res="2.4957479909062386e-02" rms="3.9759412407875061e-01" purity="7.9121845960617065e-01" nType="0">
                <Node pos="l" depth="5" NCoef="0" IVar="-1" Cut="0.0000000000000000e+00" cType="1" res="4.4215354137122631e-03" rms="3.7134310603141785e-01" purity="8.2574659585952759e-01" nType="-99"/>
                <Node pos="r" depth="5" NCoef="0" IVar="-1" Cut="0.0000000000000000e+00" cType="1" res="1.4044920681044459e-03" rms="4.1254177689552307e-01" purity="7.6996088027954102e-01" nType="-99"/>
              </Node>
            </Node>
            <Node pos="r" depth="3" NCoef="0" IVar="1" Cut="1.0601211786270142e+00" cType="1" res="-1.5548368915915489e-02" rms="4.6575662493705750e-01" purity="5.0365376472473145e-01" nType="0">
              <Node pos="l" depth="4" NCoef="0" IVar="2" Cut="1.5046643066406250e+02" cType="1" res="-9.2917662113904953e-03" rms="4.6604800224304199e-01" purity="5.2365529537200928e-01" nType="0">
                <Node pos="l" depth="5" NCoef="0" IVar="7" Cut="3.0000000000000000e+00" cType="1" res="-2.5043217465281487e-03" rms="4.6840006113052368e-01" purity="5.7224762439727783e-01" nType="0">
                  <Node pos="l" depth="6" NCoef="0" IVar="1" Cut="4.4138580560684204e-01" cType="1" res="2.0097228698432446e-03" rms="4.6704101562500000e-01" purity="6.1385011672973633e-01" nType="0">
                    <Node pos="l" depth="7" NCoef="0" IVar="-1" Cut="0.0000000000000000e+00" cType="1" res="1.0273541556671262e-03" rms="4.6087470650672913e-01" purity="6.4428865909576416e-01" nType="-99"/>
                    <Node pos="r" depth="7" NCoef="0" IVar="-1" Cut="0.0000000000000000e+00" cType="1" res="-1.1531922500580549e-03" rms="4.7670844197273254e-01" purity="5.6337541341781616e-01" nType="-99"/>
                  </Node>
                  <Node pos="r" depth="6" NCoef="0" IVar="-1" Cut="0.0000000000000000e+00" cType="1" res="-2.0275141578167677e-03" rms="4.7365561127662659e-01" purity="4.1904047131538391e-01" nType="-99"/>
                </Node>
                <Node pos="r" depth="5" NCoef="0" IVar="4" Cut="-5.0086879730224609e-01" cType="1" res="-2.3392733186483383e-02" rms="4.6011850237846375e-01" purity="4.1585618257522583e-01" nType="0">
                  <Node pos="l" depth="6" NCoef="0" IVar="-1" Cut="0.0000000000000000e+00" cType="1" res="-7.6778529910370708e-04" rms="4.8086670041084290e-01" purity="5.1523691415786743e-01" nType="-99"/>
                  <Node pos="r" depth="6" NCoef="0" IVar="-1" Cut="0.0000000000000000e+00" cType="1" res="-4.1420692577958107e-03" rms="4.3962749838829041e-01" purity="3.2403463125228882e-01" nType="-99"/>
                </Node>
              </Node>
              <Node pos="r" depth="4" NCoef="0" IVar="-1" Cut="0.0000000000000000e+00" cType="1" res="-5.2700070664286613e-03" rms="4.6197402477264404e-01" purity="3.7768319249153137e-01" nType="-99"/>
            </Node>
          </Node>
        </Node>
      </Node>
    </BinaryTree>
    <BinaryTree type="DecisionTree" boostWeight="1.0000000000000000e+00" itree="85">
      <Node pos="s" depth="0" NCoef="0" IVar="3" Cut="1.0602499246597290e+00" cType="1" res="4.6334764920175076e-03" rms="4.0557721257209778e-01" purity="5.0096368789672852e-01" nType="0">
        <Node pos="l" depth="1" NCoef="0" IVar="3" Cut="6.1569142341613770e-01" cType="1" res="5.2392403595149517e-03" rms="4.0527334809303284e-01" purity="4.9993300437927246e-01" nType="0">
          <Node pos="l" depth="2" NCoef="0" IVar="6" Cut="1.5675626695156097e-01" cType="1" res="-3.1335265375673771e-03" rms="3.4041514992713928e-01" purity="1.6345484554767609e-01" nType="0">
            <Node pos="l" depth="3" NCoef="0" IVar="2" Cut="5.8831378936767578e+01" cType="1" res="-7.4558979831635952e-03" rms="3.3048236370086670e-01" purity="1.5495575964450836e-01" nType="0">
              <Node pos="l" depth="4" NCoef="0" IVar="6" Cut="3.9334960281848907e-02" cType="1" res="1.1753225699067116e-02" rms="3.5671883821487427e-01" purity="1.8730422854423523e-01" nType="0">
                <Node pos="l" depth="5" NCoef="0" IVar="-1" Cut="0.0000000000000000e+00" cType="1" res="2.1385063519119285e-05" rms="3.3782657980918884e-01" purity="1.5852019190788269e-01" nType="-99"/>
                <Node pos="r" depth="5" NCoef="0" IVar="-1" Cut="0.0000000000000000e+00" cType="1" res="5.2217440679669380e-03" rms="3.8610571622848511e-01" purity="2.3657263815402985e-01" nType="-99"/>
              </Node>
              <Node pos="r" depth="4" NCoef="0" IVar="6" Cut="1.1908619105815887e-01" cType="1" res="-9.8453713580965996e-03" rms="3.2699269056320190e-01" purity="1.5093186497688293e-01" nType="0">
                <Node pos="l" depth="5" NCoef="0" IVar="7" Cut="4.0000000000000000e+00" cType="1" res="-1.3515937142074108e-02" rms="3.1545233726501465e-01" purity="1.3793753087520599e-01" nType="0">
                  <Node pos="l" depth="6" NCoef="0" IVar="2" Cut="2.4589816284179688e+02" cType="1" res="-2.5316717103123665e-02" rms="3.5107621550559998e-01" purity="1.6810002923011780e-01" nType="0">
                    <Node pos="l" depth="7" NCoef="0" IVar="-1" Cut="0.0000000000000000e+00" cType="1" res="-2.9716612771153450e-03" rms="3.6379775404930115e-01" purity="1.8462777137756348e-01" nType="-99"/>
                    <Node pos="r" depth="7" NCoef="0" IVar="-1" Cut="0.0000000000000000e+00" cType="1" res="-8.1037171185016632e-03" rms="3.2160675525665283e-01" purity="1.3282138109207153e-01" nType="-99"/>
                  </Node>
                  <Node pos="r" depth="6" NCoef="0" IVar="6" Cut="3.9326347410678864e-02" cType="1" res="-9.0723168104887009e-03" rms="3.0121186375617981e-01" purity="1.2677748501300812e-01" nType="0">
                    <Node pos="l" depth="7" NCoef="0" IVar="-1" Cut="0.0000000000000000e+00" cType="1" res="-8.2649765536189079e-03" rms="2.6239451766014099e-01" purity="8.6235053837299347e-02" nType="-99"/>
                    <Node pos="r" depth="7" NCoef="0" IVar="-1" Cut="0.0000000000000000e+00" cType="1" res="-1.6278041293844581e-03" rms="3.0535638332366943e-01" purity="1.3154618442058563e-01" nType="-99"/>
                  </Node>
                </Node>
                <Node pos="r" depth="5" NCoef="0" IVar="2" Cut="2.2575320434570312e+02" cType="1" res="3.4649169538170099e-04" rms="3.5712298750877380e-01" purity="1.8757614493370056e-01" nType="0">
                  <Node pos="l" depth="6" NCoef="0" IVar="-1" Cut="0.0000000000000000e+00" cType="1" res="2.7823913842439651e-03" rms="3.9058116078376770e-01" purity="2.4115142226219177e-01" nType="-99"/>
                  <Node pos="r" depth="6" NCoef="0" IVar="2" Cut="4.0074114990234375e+02" cType="1" res="-7.8678578138351440e-03" rms="3.3969119191169739e-01" purity="1.6201043128967285e-01" nType="0">
                    <Node pos="l" depth="7" NCoef="0" IVar="-1" Cut="0.0000000000000000e+00" cType="1" res="1.9965722458437085e-04" rms="3.5347658395767212e-01" purity="1.8101947009563446e-01" nType="-99"/>
                    <Node pos="r" depth="7" NCoef="0" IVar="-1" Cut="0.0000000000000000e+00" cType="1" res="-3.0511275399476290e-03" rms="3.2935714721679688e-01" purity="1.4844913780689240e-01" nType="-99"/>
                  </Node>
                </Node>
              </Node>
            </Node>
            <Node pos="r" depth="3" NCoef="0" IVar="7" Cut="4.0000000000000000e+00" cType="1" res="1.3650727272033691e-01" rms="2.3541155457496643e-01" purity="1.8992915749549866e-01" nType="0">
              <Node pos="l" depth="4" NCoef="0" IVar="-1" Cut="0.0000000000000000e+00" cType="1" res="4.1208504699170589e-03" rms="4.3450501561164856e-01" purity="3.0057570338249207e-01" nType="-99"/>
              <Node pos="r" depth="4" NCoef="0" IVar="3" Cut="3.5751003026962280e-01" cType="1" res="5.2508073858916759e-03" rms="3.5175842046737671e-01" purity="1.6346162557601929e-01" nType="0">
                <Node pos="l" depth="5" NCoef="0" IVar="5" Cut="6.4237928390502930e-01" cType="1" res="-4.7859174082987010e-04" rms="3.2572171092033386e-01" purity="1.2936086952686310e-01" nType="0">
                  <Node pos="l" depth="6" NCoef="0" IVar="3" Cut="1.7305283248424530e-01" cType="1" res="-7.1656540967524052e-03" rms="3.3624345064163208e-01" purity="1.3812994956970215e-01" nType="0">
                    <Node pos="l" depth="7" NCoef="0" IVar="-1" Cut="0.0000000000000000e+00" cType="1" res="-5.4413727484643459e-03" rms="3.2132363319396973e-01" purity="1.2775579094886780e-01" nType="-99"/>
                    <Node pos="r" depth="7" NCoef="0" IVar="-1" Cut="0.0000000000000000e+00" cType="1" res="3.1474369461648166e-04" rms="3.4291031956672668e-01" purity="1.4315286278724670e-01" nType="-99"/>
                  </Node>
                  <Node pos="r" depth="6" NCoef="0" IVar="-1" Cut="0.0000000000000000e+00" cType="1" res="6.9880788214504719e-03" rms="2.9160851240158081e-01" purity="1.0350269824266434e-01" nType="-99"/>
                </Node>
                <Node pos="r" depth="5" NCoef="0" IVar="-1" Cut="0.0000000000000000e+00" cType="1" res="3.1647852156311274e-03" rms="4.1790819168090820e-01" purity="2.6260909438133240e-01" nType="-99"/>
              </Node>
            </Node>
          </Node>
          <Node pos="r" depth="2" NCoef="0" IVar="4" Cut="1.5788227319717407e+00" cType="1" res="9.8590571433305740e-03" rms="4.3688914179801941e-01" purity="6.8559050559997559e-01" nType="0">
            <Node pos="l" depth="3" NCoef="0" IVar="0" Cut="6.1459434032440186e-01" cType="1" res="1.0643322020769119e-02" rms="4.3724250793457031e-01" purity="6.9346028566360474e-01" nType="0">
              <Node pos="l" depth="4" NCoef="0" IVar="1" Cut="1.0112282037734985e+00" cType="1" res="1.1504900641739368e-02" rms="4.3581694364547729e-01" purity="7.0240855216979980e-01" nType="0">
                <Node pos="l" depth="5" NCoef="0" IVar="3" Cut="8.5947936773300171e-01" cType="1" res="1.3088506646454334e-02" rms="4.3366283178329468e-01" purity="7.1080231666564941e-01" nType="0">
                  <Node pos="l" depth="6" NCoef="0" IVar="6" Cut="1.0016054660081863e-01" cType="1" res="7.3498310521245003e-03" rms="4.7512111067771912e-01" purity="5.9755605459213257e-01" nType="0">
                    <Node pos="l" depth="7" NCoef="0" IVar="-1" Cut="0.0000000000000000e+00" cType="1" res="3.9108647615648806e-04" rms="4.7412669658660889e-01" purity="5.9963846206665039e-01" nType="-99"/>
                    <Node pos="r" depth="7" NCoef="0" IVar="-1" Cut="0.0000000000000000e+00" cType="1" res="3.3012530766427517e-03" rms="4.8433840274810791e-01" purity="5.7561606168746948e-01" nType="-99"/>
                  </Node>
                  <Node pos="r" depth="6" NCoef="0" IVar="5" Cut="-2.8541719913482666e+00" cType="1" res="1.6783230006694794e-02" rms="4.0468671917915344e-01" purity="7.8371351957321167e-01" nType="0">
                    <Node pos="l" depth="7" NCoef="0" IVar="-1" Cut="0.0000000000000000e+00" cType="1" res="2.9710875824093819e-03" rms="3.6765623092651367e-01" purity="8.3543676137924194e-01" nType="-99"/>
                    <Node pos="r" depth="7" NCoef="0" IVar="-1" Cut="0.0000000000000000e+00" cType="1" res="1.3236579252406955e-03" rms="4.2450743913650513e-01" purity="7.5390285253524780e-01" nType="-99"/>
                  </Node>
                </Node>
                <Node pos="r" depth="5" NCoef="0" IVar="2" Cut="6.0929355621337891e+01" cType="1" res="-1.7956141382455826e-02" rms="4.7314453125000000e-01" purity="5.4625278711318970e-01" nType="0">
                  <Node pos="l" depth="6" NCoef="0" IVar="-1" Cut="0.0000000000000000e+00" cType="1" res="-2.7836025692522526e-03" rms="4.6767094731330872e-01" purity="5.9217917919158936e-01" nType="-99"/>
                  <Node pos="r" depth="6" NCoef="0" IVar="-1" Cut="0.0000000000000000e+00" cType="1" res="2.4358129303436726e-04" rms="4.8060974478721619e-01" purity="4.7643026709556580e-01" nType="-99"/>
                </Node>
              </Node>
              <Node pos="r" depth="4" NCoef="0" IVar="-1" Cut="0.0000000000000000e+00" cType="1" res="-1.5051857335492969e-03" rms="4.7873508930206299e-01" purity="4.1486722230911255e-01" nType="-99"/>
            </Node>
            <Node pos="r" depth="3" NCoef="0" IVar="-1" Cut="0.0000000000000000e+00" cType="1" res="-3.7147866096347570e-03" rms="4.1616278886795044e-01" purity="2.7797213196754456e-01" nType="-99"/>
          </Node>
        </Node>
        <Node pos="r" depth="1" NCoef="0" IVar="-1" Cut="0.0000000000000000e+00" cType="1" res="-4.9704695120453835e-03" rms="4.2854732275009155e-01" purity="5.9366810321807861e-01" nType="-99"/>
      </Node>
    </BinaryTree>
    <BinaryTree type="DecisionTree" boostWeight="1.0000000000000000e+00" itree="86">
      <Node pos="s" depth="0" NCoef="0" IVar="1" Cut="1.4958879351615906e-01" cType="1" res="4.5740590430796146e-03" rms="4.0531522035598755e-01" purity="5.0146782398223877e-01" nType="0">
        <Node pos="l" depth="1" NCoef="0" IVar="4" Cut="2.4754385948181152e+00" cType="1" res="1.0863360948860645e-02" rms="4.1553372144699097e-01" purity="5.8450627326965332e-01" nType="0">
          <Node pos="l" depth="2" NCoef="0" IVar="5" Cut="-3.4228653907775879e+00" cType="1" res="1.1966773308813572e-02" rms="4.2097446322441101e-01" purity="6.0437083244323730e-01" nType="0">
            <Node pos="l" depth="3" NCoef="0" IVar="-1" Cut="0.0000000000000000e+00" cType="1" res="-3.3974156249314547e-03" rms="4.0750747919082642e-01" purity="3.2201755046844482e-01" nType="-99"/>
            <Node pos="r" depth="3" NCoef="0" IVar="3" Cut="7.3054826259613037e-01" cType="1" res="1.2682024389505386e-02" rms="4.2119500041007996e-01" purity="6.0976195335388184e-01" nType="0">
              <Node pos="l" depth="4" NCoef="0" IVar="6" Cut="1.1083666980266571e-01" cType="1" res="7.1418280713260174e-03" rms="4.3018192052841187e-01" purity="3.3658173680305481e-01" nType="0">
                <Node pos="l" depth="5" NCoef="0" IVar="6" Cut="6.8107396364212036e-02" cType="1" res="1.9675556104630232e-03" rms="4.3816217780113220e-01" purity="3.6698651313781738e-01" nType="0">
                  <Node pos="l" depth="6" NCoef="0" IVar="2" Cut="5.1735130310058594e+01" cType="1" res="-8.0264369025826454e-03" rms="4.4084876775741577e-01" purity="3.6119899153709412e-01" nType="0">
                    <Node pos="l" depth="7" NCoef="0" IVar="-1" Cut="0.0000000000000000e+00" cType="1" res="1.2667146511375904e-03" rms="4.6748179197311401e-01" purity="4.4291025400161743e-01" nType="-99"/>
                    <Node pos="r" depth="7" NCoef="0" IVar="-1" Cut="0.0000000000000000e+00" cType="1" res="-1.8909472273662686e-03" rms="4.3040519952774048e-01" purity="3.3120733499526978e-01" nType="-99"/>
                  </Node>
                  <Node pos="r" depth="6" NCoef="0" IVar="2" Cut="1.3298925781250000e+02" cType="1" res="1.1604847386479378e-02" rms="4.3533852696418762e-01" purity="3.7256747484207153e-01" nType="0">
                    <Node pos="l" depth="7" NCoef="0" IVar="-1" Cut="0.0000000000000000e+00" cType="1" res="3.2522776164114475e-03" rms="4.6286624670028687e-01" purity="4.6978276968002319e-01" nType="-99"/>
                    <Node pos="r" depth="7" NCoef="0" IVar="-1" Cut="0.0000000000000000e+00" cType="1" res="1.9126651750411838e-04" rms="4.2160078883171082e-01" purity="3.2754448056221008e-01" nType="-99"/>
                  </Node>
                </Node>
                <Node pos="r" depth="5" NCoef="0" IVar="7" Cut="7.0000000000000000e+00" cType="1" res="1.4720439910888672e-02" rms="4.1770964860916138e-01" purity="2.9113078117370605e-01" nType="0">
                  <Node pos="l" depth="6" NCoef="0" IVar="3" Cut="5.8899921178817749e-01" cType="1" res="1.9213983789086342e-02" rms="4.3387743830680847e-01" purity="3.2419404387474060e-01" nType="0">
                    <Node pos="l" depth="7" NCoef="0" IVar="-1" Cut="0.0000000000000000e+00" cType="1" res="2.1607314702123404e-03" rms="4.2255231738090515e-01" purity="2.7672281861305237e-01" nType="-99"/>
                    <Node pos="r" depth="7" NCoef="0" IVar="-1" Cut="0.0000000000000000e+00" cType="1" res="3.0030123889446259e-03" rms="4.8316892981529236e-01" purity="5.4684507846832275e-01" nType="-99"/>
                  </Node>
                  <Node pos="r" depth="6" NCoef="0" IVar="-1" Cut="0.0000000000000000e+00" cType="1" res="-1.1593711096793413e-03" rms="3.3352124691009521e-01" purity="1.3885243237018585e-01" nType="-99"/>
                </Node>
              </Node>
              <Node pos="r" depth="4" NCoef="0" IVar="5" Cut="-3.0717568397521973e+00" cType="1" res="1.5675762668251991e-02" rms="4.1622734069824219e-01" purity="7.5737953186035156e-01" nType="0">
                <Node pos="l" depth="5" NCoef="0" IVar="4" Cut="-1.4505649805068970e+00" cType="1" res="2.5170968845486641e-02" rms="3.6143204569816589e-01" purity="8.3961182832717896e-01" nType="0">
                  <Node pos="l" depth="6" NCoef="0" IVar="-1" Cut="0.0000000000000000e+00" cType="1" res="8.9115410810336471e-04" rms="4.1019207239151001e-01" purity="7.7676278352737427e-01" nType="-99"/>
                  <Node pos="r" depth="6" NCoef="0" IVar="4" Cut="-7.3228710889816284e-01" cType="1" res="3.0155887827277184e-02" rms="3.4549960494041443e-01" purity="8.5824471712112427e-01" nType="0">
                    <Node pos="l" depth="7" NCoef="0" IVar="-1" Cut="0.0000000000000000e+00" cType="1" res="5.0271875225007534e-03" rms="3.5647466778755188e-01" purity="8.4683865308761597e-01" nType="-99"/>
                    <Node pos="r" depth="7" NCoef="0" IVar="-1" Cut="0.0000000000000000e+00" cType="1" res="3.5624981392174959e-03" rms="3.4011286497116089e-01" purity="8.6356770992279053e-01" nType="-99"/>
                  </Node>
                </Node>
                <Node pos="r" depth="5" NCoef="0" IVar="7" Cut="2.0000000000000000e+00" cType="1" res="1.3909443281590939e-02" rms="4.2575365304946899e-01" purity="7.4179512262344360e-01" nType="0">
                  <Node pos="l" depth="6" NCoef="0" IVar="3" Cut="9.9000573158264160e-01" cType="1" res="9.6219386905431747e-03" rms="4.0685132145881653e-01" purity="7.7960693836212158e-01" nType="0">
                    <Node pos="l" depth="7" NCoef="0" IVar="-1" Cut="0.0000000000000000e+00" cType="1" res="-7.4281741399317980e-04" rms="4.2543441057205200e-01" purity="7.5096696615219116e-01" nType="-99"/>
                    <Node pos="r" depth="7" NCoef="0" IVar="-1" Cut="0.0000000000000000e+00" cType="1" res="1.6363696195185184e-03" rms="4.0083447098731995e-01" purity="7.8840357065200806e-01" nType="-99"/>
                  </Node>
                  <Node pos="r" depth="6" NCoef="0" IVar="3" Cut="8.6586123704910278e-01" cType="1" res="1.8544120714068413e-02" rms="4.4560605287551880e-01" purity="7.0030760765075684e-01" nType="0">
                    <Node pos="l" depth="7" NCoef="0" IVar="-1" Cut="0.0000000000000000e+00" cType="1" res="1.4788700500503182e-03" rms="4.5749431848526001e-01" purity="6.7591762542724609e-01" nType="-99"/>
                    <Node pos="r" depth="7" NCoef="0" IVar="-1" Cut="0.0000000000000000e+00" cType="1" res="2.7007823809981346e-03" rms="4.1888034343719482e-01" purity="7.5269418954849243e-01" nType="-99"/>
                  </Node>
                </Node>
              </Node>
            </Node>
          </Node>
          <Node pos="r" depth="2" NCoef="0" IVar="-1" Cut="0.0000000000000000e+00" cType="1" res="-7.4962554499506950e-03" rms="2.2660867869853973e-01" purity="5.8861915022134781e-02" nType="-99"/>
        </Node>
        <Node pos="r" depth="1" NCoef="0" IVar="1" Cut="3.6453137397766113e+00" cType="1" res="-3.5441920626908541e-03" rms="3.9158192276954651e-01" purity="3.9428141713142395e-01" nType="0">
          <Node pos="l" depth="2" NCoef="0" IVar="1" Cut="1.0512248277664185e+00" cType="1" res="-5.1516201347112656e-03" rms="3.9225938916206360e-01" purity="3.9599969983100891e-01" nType="0">
            <Node pos="l" depth="3" NCoef="0" IVar="2" Cut="1.7305227661132812e+02" cType="1" res="-1.0087210102938116e-04" rms="3.9910691976547241e-01" purity="4.2743754386901855e-01" nType="0">
              <Node pos="l" depth="4" NCoef="0" IVar="1" Cut="8.7660866975784302e-01" cType="1" res="4.5237988233566284e-03" rms="4.1556882858276367e-01" purity="5.3708565235137939e-01" nType="0">
                <Node pos="l" depth="5" NCoef="0" IVar="2" Cut="1.0047806549072266e+02" cType="1" res="6.2784967012703419e-03" rms="4.1754859685897827e-01" purity="5.5005031824111938e-01" nType="0">
                  <Node pos="l" depth="6" NCoef="0" IVar="6" Cut="6.3848935067653656e-02" cType="1" res="9.9950050935149193e-03" rms="4.2317473888397217e-01" purity="6.1384785175323486e-01" nType="0">
                    <Node pos="l" depth="7" NCoef="0" IVar="-1" Cut="0.0000000000000000e+00" cType="1" res="7.9943577293306589e-04" rms="4.2288437485694885e-01" purity="6.3603562116622925e-01" nType="-99"/>
                    <Node pos="r" depth="7" NCoef="0" IVar="-1" Cut="0.0000000000000000e+00" cType="1" res="4.9240575172007084e-03" rms="4.2542725801467896e-01" purity="3.5298663377761841e-01" nType="-99"/>
                  </Node>
                  <Node pos="r" depth="6" NCoef="0" IVar="4" Cut="-1.8843368291854858e+00" cType="1" res="-5.3574992343783379e-03" rms="3.9919787645339966e-01" purity="3.5030692815780640e-01" nType="0">
                    <Node pos="l" depth="7" NCoef="0" IVar="-1" Cut="0.0000000000000000e+00" cType="1" res="1.5363033162429929e-03" rms="4.4583144783973694e-01" purity="6.0075956583023071e-01" nType="-99"/>
                    <Node pos="r" depth="7" NCoef="0" IVar="-1" Cut="0.0000000000000000e+00" cType="1" res="-1.8666066462174058e-03" rms="3.8221111893653870e-01" purity="2.6714444160461426e-01" nType="-99"/>
                  </Node>
                </Node>
                <Node pos="r" depth="5" NCoef="0" IVar="-1" Cut="0.0000000000000000e+00" cType="1" res="-2.5630539748817682e-03" rms="3.8650619983673096e-01" purity="3.5877004265785217e-01" nType="-99"/>
              </Node>
              <Node pos="r" depth="4" NCoef="0" IVar="3" Cut="6.9245958328247070e-01" cType="1" res="-8.4551433101296425e-03" rms="3.6735713481903076e-01" purity="2.2936283051967621e-01" nType="0">
                <Node pos="l" depth="5" NCoef="0" IVar="6" Cut="1.2950225174427032e-01" cType="1" res="-5.9849671088159084e-03" rms="3.3788749575614929e-01" purity="1.6050024330615997e-01" nType="0">
                  <Node pos="l" depth="6" NCoef="0" IVar="6" Cut="7.7824741601943970e-02" cType="1" res="-1.1878597550094128e-02" rms="3.3230793476104736e-01" purity="1.5724329650402069e-01" nType="0">
                    <Node pos="l" depth="7" NCoef="0" IVar="-1" Cut="0.0000000000000000e+00" cType="1" res="-5.0317575223743916e-03" rms="3.1328862905502319e-01" purity="1.3487058877944946e-01" nType="-99"/>
                    <Node pos="r" depth="7" NCoef="0" IVar="-1" Cut="0.0000000000000000e+00" cType="1" res="-1.2583180796355009e-03" rms="3.4121060371398926e-01" purity="1.6834872961044312e-01" nType="-99"/>
                  </Node>
                  <Node pos="r" depth="6" NCoef="0" IVar="5" Cut="-6.8989807367324829e-01" cType="1" res="1.3272755313664675e-03" rms="3.4454444050788879e-01" purity="1.6454115509986877e-01" nType="0">
                    <Node pos="l" depth="7" NCoef="0" IVar="-1" Cut="0.0000000000000000e+00" cType="1" res="1.2976203579455614e-03" rms="3.8599509000778198e-01" purity="2.1407569944858551e-01" nType="-99"/>
                    <Node pos="r" depth="7" NCoef="0" IVar="-1" Cut="0.0000000000000000e+00" cType="1" res="-4.0533468127250671e-03" rms="2.4868908524513245e-01" purity="7.1886323392391205e-02" nType="-99"/>
                  </Node>
                </Node>
                <Node pos="r" depth="5" NCoef="0" IVar="4" Cut="-1.4812024831771851e+00" cType="1" res="-1.9375812262296677e-02" rms="4.7611784934997559e-01" purity="5.3380471467971802e-01" nType="0">
                  <Node pos="l" depth="6" NCoef="0" IVar="-1" Cut="0.0000000000000000e+00" cType="1" res="-7.5196532998234034e-04" rms="4.7678801417350769e-01" purity="6.0590547323226929e-01" nType="-99"/>
                  <Node pos="r" depth="6" NCoef="0" IVar="-1" Cut="0.0000000000000000e+00" cType="1" res="-2.8813136741518974e-03" rms="4.7526755928993225e-01" purity="4.6802052855491638e-01" nType="-99"/>
                </Node>
              </Node>
            </Node>
            <Node pos="r" depth="3" NCoef="0" IVar="7" Cut="3.0000000000000000e+00" cType="1" res="-3.1526196748018265e-02" rms="3.5318481922149658e-01" purity="2.3182313144207001e-01" nType="0">
              <Node pos="l" depth="4" NCoef="0" IVar="1" Cut="1.7205168008804321e+00" cType="1" res="-5.1377084106206894e-02" rms="4.4538861513137817e-01" purity="4.3223890662193298e-01" nType="0">
                <Node pos="l" depth="5" NCoef="0" IVar="-1" Cut="0.0000000000000000e+00" cType="1" res="-3.2846804242581129e-03" rms="4.5205795764923096e-01" purity="4.7120460867881775e-01" nType="-99"/>
                <Node pos="r" depth="5" NCoef="0" IVar="-1" Cut="0.0000000000000000e+00" cType="1" res="-8.4506804123520851e-03" rms="4.3344926834106445e-01" purity="3.7183284759521484e-01" nType="-99"/>
              </Node>
              <Node pos="r" depth="4" NCoef="0" IVar="4" Cut="-8.1569802761077881e-01" cType="1" res="-1.8517728894948959e-02" rms="2.7577102184295654e-01" purity="1.0045906901359558e-01" nType="0">
                <Node pos="l" depth="5" NCoef="0" IVar="-1" Cut="0.0000000000000000e+00" cType="1" res="-6.8155280314385891e-04" rms="3.4702727198600769e-01" purity="1.7250113189220428e-01" nType="-99"/>
                <Node pos="r" depth="5" NCoef="0" IVar="4" Cut="1.4458043873310089e-01" cType="1" res="-2.4423839524388313e-02" rms="2.4225391447544098e-01" purity="7.2475485503673553e-02" nType="0">
                  <Node pos="l" depth="6" NCoef="0" IVar="-1" Cut="0.0000000000000000e+00" cType="1" res="-1.0607963427901268e-02" rms="2.6231878995895386e-01" purity="8.7643980979919434e-02" nType="-99"/>
                  <Node pos="r" depth="6" NCoef="0" IVar="-1" Cut="0.0000000000000000e+00" cType="1" res="-6.8227844312787056e-03" rms="2.3059433698654175e-01" purity="6.4444489777088165e-02" nType="-99"/>
                </Node>
              </Node>
            </Node>
          </Node>
          <Node pos="r" depth="2" NCoef="0" IVar="-1" Cut="0.0000000000000000e+00" cType="1" res="6.0629267245531082e-03" rms="3.7001296877861023e-01" purity="3.4754061698913574e-01" nType="-99"/>
        </Node>
      </Node>
    </BinaryTree>
    <BinaryTree type="DecisionTree" boostWeight="1.0000000000000000e+00" itree="87">
      <Node pos="s" depth="0" NCoef="0" IVar="3" Cut="8.6956107616424561e-01" cType="1" res="4.9107936210930347e-03" rms="4.0439698100090027e-01" purity="5.0166958570480347e-01" nType="0">
        <Node pos="l" depth="1" NCoef="0" IVar="4" Cut="-2.8405423164367676e+00" cType="1" res="1.1994336091447622e-04" rms="4.0246126055717468e-01" purity="3.4262430667877197e-01" nType="0">
          <Node pos="l" depth="2" NCoef="0" IVar="-1" Cut="0.0000000000000000e+00" cType="1" res="3.1223609112203121e-03" rms="4.4155603647232056e-01" purity="6.4122962951660156e-01" nType="-99"/>
          <Node pos="r" depth="2" NCoef="0" IVar="7" Cut="3.0000000000000000e+00" cType="1" res="1.6102470457553864e-01" rms="0.0000000000000000e+00" purity="3.3438581228256226e-01" nType="0">
            <Node pos="l" depth="3" NCoef="0" IVar="5" Cut="-3.0594618320465088e+00" cType="1" res="-7.5365961529314518e-03" rms="4.5753404498100281e-01" purity="5.2441793680191040e-01" nType="0">
              <Node pos="l" depth="4" NCoef="0" IVar="-1" Cut="0.0000000000000000e+00" cType="1" res="-4.6158125624060631e-03" rms="4.2136088013648987e-01" purity="3.9651966094970703e-01" nType="-99"/>
              <Node pos="r" depth="4" NCoef="0" IVar="4" Cut="-2.6074719429016113e-01" cType="1" res="-3.8896370679140091e-03" rms="4.6133315563201904e-01" purity="5.3898483514785767e-01" nType="0">
                <Node pos="l" depth="5" NCoef="0" IVar="6" Cut="1.0341301560401917e-01" cType="1" res="4.6250876039266586e-03" rms="4.6795368194580078e-01" purity="5.9757983684539795e-01" nType="0">
                  <Node pos="l" depth="6" NCoef="0" IVar="6" Cut="4.3597284704446793e-02" cType="1" res="3.9773806929588318e-04" rms="4.6662965416908264e-01" purity="6.1538857221603394e-01" nType="0">
                    <Node pos="l" depth="7" NCoef="0" IVar="-1" Cut="0.0000000000000000e+00" cType="1" res="-1.4693333068862557e-03" rms="4.6753489971160889e-01" purity="6.2557953596115112e-01" nType="-99"/>
                    <Node pos="r" depth="7" NCoef="0" IVar="-1" Cut="0.0000000000000000e+00" cType="1" res="1.0486220708116889e-03" rms="4.6564325690269470e-01" purity="6.0823184251785278e-01" nType="-99"/>
                  </Node>
                  <Node pos="r" depth="6" NCoef="0" IVar="-1" Cut="0.0000000000000000e+00" cType="1" res="4.1005285456776619e-03" rms="4.7784304618835449e-01" purity="4.4076421856880188e-01" nType="-99"/>
                </Node>
                <Node pos="r" depth="5" NCoef="0" IVar="3" Cut="7.3031836748123169e-01" cType="1" res="-2.1362310275435448e-02" rms="4.4693315029144287e-01" purity="4.1874468326568604e-01" nType="0">
                  <Node pos="l" depth="6" NCoef="0" IVar="2" Cut="1.5433187866210938e+02" cType="1" res="-3.2734673470258713e-02" rms="4.0307459235191345e-01" purity="2.5787669420242310e-01" nType="0">
                    <Node pos="l" depth="7" NCoef="0" IVar="-1" Cut="0.0000000000000000e+00" cType="1" res="-4.8960084095597267e-03" rms="4.1798064112663269e-01" purity="2.9165276885032654e-01" nType="-99"/>
                    <Node pos="r" depth="7" NCoef="0" IVar="-1" Cut="0.0000000000000000e+00" cType="1" res="-3.5477310884743929e-03" rms="3.8611799478530884e-01" purity="2.2138109803199768e-01" nType="-99"/>
                  </Node>
                  <Node pos="r" depth="6" NCoef="0" IVar="3" Cut="8.1122285127639771e-01" cType="1" res="-1.2720869854092598e-02" rms="4.7739297151565552e-01" purity="5.4098242521286011e-01" nType="0">
                    <Node pos="l" depth="7" NCoef="0" IVar="-1" Cut="0.0000000000000000e+00" cType="1" res="1.3610035239253193e-04" rms="4.7953090071678162e-01" purity="5.1480573415756226e-01" nType="-99"/>
                    <Node pos="r" depth="7" NCoef="0" IVar="-1" Cut="0.0000000000000000e+00" cType="1" res="-2.5111637078225613e-03" rms="4.7469154000282288e-01" purity="5.6834185123443604e-01" nType="-99"/>
                  </Node>
                </Node>
              </Node>
            </Node>
            <Node pos="r" depth="3" NCoef="0" IVar="3" Cut="3.9269176125526428e-01" cType="1" res="2.0349975675344467e-03" rms="3.7641200423240662e-01" purity="2.5834017992019653e-01" nType="0">
              <Node pos="l" depth="4" NCoef="0" IVar="6" Cut="2.3485511541366577e-01" cType="1" res="-7.7693858183920383e-03" rms="2.5881364941596985e-01" purity="7.9702608287334442e-02" nType="0">
                <Node pos="l" depth="5" NCoef="0" IVar="6" Cut="2.0463465154170990e-01" cType="1" res="-1.1103746481239796e-02" rms="2.3215183615684509e-01" purity="6.1281979084014893e-02" nType="0">
                  <Node pos="l" depth="6" NCoef="0" IVar="3" Cut="3.2945901155471802e-01" cType="1" res="-1.3387759216129780e-02" rms="2.1973095834255219e-01" purity="5.3840156644582748e-02" nType="0">
                    <Node pos="l" depth="7" NCoef="0" IVar="-1" Cut="0.0000000000000000e+00" cType="1" res="-9.4601018354296684e-03" rms="1.9454352557659149e-01" purity="4.0997385978698730e-02" nType="-99"/>
                    <Node pos="r" depth="7" NCoef="0" IVar="-1" Cut="0.0000000000000000e+00" cType="1" res="-1.5879517886787653e-03" rms="2.6845341920852661e-01" purity="8.3255313336849213e-02" nType="-99"/>
                  </Node>
                  <Node pos="r" depth="6" NCoef="0" IVar="-1" Cut="0.0000000000000000e+00" cType="1" res="3.8930589798837900e-03" rms="3.4571281075477600e-01" purity="1.4933969080448151e-01" nType="-99"/>
                </Node>
                <Node pos="r" depth="5" NCoef="0" IVar="7" Cut="7.0000000000000000e+00" cType="1" res="1.3107450678944588e-02" rms="3.8521736860275269e-01" purity="1.9497488439083099e-01" nType="0">
                  <Node pos="l" depth="6" NCoef="0" IVar="-1" Cut="0.0000000000000000e+00" cType="1" res="3.3582744654268026e-03" rms="4.1077435016632080e-01" purity="2.3410166800022125e-01" nType="-99"/>
                  <Node pos="r" depth="6" NCoef="0" IVar="-1" Cut="0.0000000000000000e+00" cType="1" res="1.2087121140211821e-03" rms="3.6020269989967346e-01" purity="1.5932701528072357e-01" nType="-99"/>
                </Node>
              </Node>
              <Node pos="r" depth="4" NCoef="0" IVar="5" Cut="9.3745863437652588e-01" cType="1" res="8.3471229299902916e-03" rms="4.3551987409591675e-01" purity="3.7334823608398438e-01" nType="0">
                <Node pos="l" depth="5" NCoef="0" IVar="7" Cut="5.0000000000000000e+00" cType="1" res="1.0517091490328312e-02" rms="4.4529244303703308e-01" purity="3.9301007986068726e-01" nType="0">
                  <Node pos="l" depth="6" NCoef="0" IVar="3" Cut="5.6162226200103760e-01" cType="1" res="6.3467803411185741e-03" rms="4.5061782002449036e-01" purity="4.1893547773361206e-01" nType="0">
                    <Node pos="l" depth="7" NCoef="0" IVar="-1" Cut="0.0000000000000000e+00" cType="1" res="-1.0809614323079586e-03" rms="3.9456769824028015e-01" purity="2.2011169791221619e-01" nType="-99"/>
                    <Node pos="r" depth="7" NCoef="0" IVar="-1" Cut="0.0000000000000000e+00" cType="1" res="1.2102392502129078e-03" rms="4.7487086057662964e-01" purity="5.1368367671966553e-01" nType="-99"/>
                  </Node>
                  <Node pos="r" depth="6" NCoef="0" IVar="0" Cut="3.1544780731201172e-01" cType="1" res="2.7680274099111557e-02" rms="4.2226484417915344e-01" purity="2.8348401188850403e-01" nType="0">
                    <Node pos="l" depth="7" NCoef="0" IVar="-1" Cut="0.0000000000000000e+00" cType="1" res="4.4733816757798195e-03" rms="4.6986830234527588e-01" purity="4.1245561838150024e-01" nType="-99"/>
                    <Node pos="r" depth="7" NCoef="0" IVar="-1" Cut="0.0000000000000000e+00" cType="1" res="3.3409246243536472e-03" rms="3.9364671707153320e-01" purity="2.1307948231697083e-01" nType="-99"/>
                  </Node>
                </Node>
                <Node pos="r" depth="5" NCoef="0" IVar="-1" Cut="0.0000000000000000e+00" cType="1" res="-1.0236760601401329e-02" rms="2.1131248772144318e-01" purity="4.8888117074966431e-02" nType="-99"/>
              </Node>
            </Node>
          </Node>
        </Node>
        <Node pos="r" depth="1" NCoef="0" IVar="5" Cut="-9.7360891103744507e-01" cType="1" res="1.2929421849548817e-02" rms="4.0749031305313110e-01" purity="7.6786965131759644e-01" nType="0">
          <Node pos="l" depth="2" NCoef="0" IVar="4" Cut="-4.1709899902343750e-01" cType="1" res="1.5254765748977661e-02" rms="4.0138110518455505e-01" purity="7.8554815053939819e-01" nType="0">
            <Node pos="l" depth="3" NCoef="0" IVar="7" Cut="2.0000000000000000e+00" cType="1" res="1.1345716193318367e-02" rms="4.1049447655677795e-01" purity="7.7159583568572998e-01" nType="0">
              <Node pos="l" depth="4" NCoef="0" IVar="3" Cut="9.9728280305862427e-01" cType="1" res="6.8247923627495766e-03" rms="4.0822127461433411e-01" purity="7.7533209323883057e-01" nType="0">
                <Node pos="l" depth="5" NCoef="0" IVar="4" Cut="-1.1570593118667603e+00" cType="1" res="-3.1756281387060881e-03" rms="4.1421988606452942e-01" purity="7.6508545875549316e-01" nType="0">
                  <Node pos="l" depth="6" NCoef="0" IVar="4" Cut="-1.8531537055969238e+00" cType="1" res="-2.1040113642811775e-02" rms="4.4064101576805115e-01" purity="7.2068500518798828e-01" nType="0">
                    <Node pos="l" depth="7" NCoef="0" IVar="-1" Cut="0.0000000000000000e+00" cType="1" res="-3.7697376683354378e-04" rms="4.3098461627960205e-01" purity="7.3994988203048706e-01" nType="-99"/>
                    <Node pos="r" depth="7" NCoef="0" IVar="-1" Cut="0.0000000000000000e+00" cType="1" res="-3.7725742440670729e-03" rms="4.4931730628013611e-01" purity="7.0164990425109863e-01" nType="-99"/>
                  </Node>
                  <Node pos="r" depth="6" NCoef="0" IVar="5" Cut="-2.8818075656890869e+00" cType="1" res="6.0398112982511520e-03" rms="3.9959645271301270e-01" purity="7.8798961639404297e-01" nType="0">
                    <Node pos="l" depth="7" NCoef="0" IVar="-1" Cut="0.0000000000000000e+00" cType="1" res="2.5631519965827465e-03" rms="3.7146463990211487e-01" purity="8.2811957597732544e-01" nType="-99"/>
                    <Node pos="r" depth="7" NCoef="0" IVar="-1" Cut="0.0000000000000000e+00" cType="1" res="-7.5734959682449698e-04" rms="4.2247775197029114e-01" purity="7.5250703096389771e-01" nType="-99"/>
                  </Node>
                </Node>
                <Node pos="r" depth="5" NCoef="0" IVar="5" Cut="-2.8463270664215088e+00" cType="1" res="1.4865477569401264e-02" rms="4.0315359830856323e-01" purity="7.8357070684432983e-01" nType="0">
                  <Node pos="l" depth="6" NCoef="0" IVar="4" Cut="-1.7000231742858887e+00" cType="1" res="2.3791441693902016e-02" rms="3.7600502371788025e-01" purity="8.2164722681045532e-01" nType="0">
                    <Node pos="l" depth="7" NCoef="0" IVar="-1" Cut="0.0000000000000000e+00" cType="1" res="7.2892644675448537e-04" rms="4.1814088821411133e-01" purity="7.6560211181640625e-01" nType="-99"/>
                    <Node pos="r" depth="7" NCoef="0" IVar="-1" Cut="0.0000000000000000e+00" cType="1" res="3.7388920318335295e-03" rms="3.5326117277145386e-01" purity="8.4912747144699097e-01" nType="-99"/>
                  </Node>
                  <Node pos="r" depth="6" NCoef="0" IVar="5" Cut="-2.3630433082580566e+00" cType="1" res="7.2886981070041656e-03" rms="4.2469224333763123e-01" purity="7.5124949216842651e-01" nType="0">
                    <Node pos="l" depth="7" NCoef="0" IVar="-1" Cut="0.0000000000000000e+00" cType="1" res="1.6830052481964231e-03" rms="4.0418276190757751e-01" purity="7.8852355480194092e-01" nType="-99"/>
                    <Node pos="r" depth="7" NCoef="0" IVar="-1" Cut="0.0000000000000000e+00" cType="1" res="-1.5852758951950818e-04" rms="4.4258278608322144e-01" purity="7.1685755252838135e-01" nType="-99"/>
                  </Node>
                </Node>
              </Node>
              <Node pos="r" depth="4" NCoef="0" IVar="4" Cut="-1.6561305522918701e+00" cType="1" res="2.3596001788973808e-02" rms="4.1734811663627625e-01" purity="7.6076346635818481e-01" nType="0">
                <Node pos="l" depth="5" NCoef="0" IVar="4" Cut="-2.7454864978790283e+00" cType="1" res="2.4958401918411255e-02" rms="4.1302448511123657e-01" purity="7.7072584629058838e-01" nType="0">
                  <Node pos="l" depth="6" NCoef="0" IVar="-1" Cut="0.0000000000000000e+00" cType="1" res="1.4530163025483489e-03" rms="4.0788561105728149e-01" purity="7.8509992361068726e-01" nType="-99"/>
                  <Node pos="r" depth="6" NCoef="0" IVar="4" Cut="-2.2889280319213867e+00" cType="1" res="3.0676631256937981e-02" rms="4.1504350304603577e-01" purity="7.6465392112731934e-01" nType="0">
                    <Node pos="l" depth="7" NCoef="0" IVar="-1" Cut="0.0000000000000000e+00" cType="1" res="4.1625676676630974e-03" rms="4.0604224801063538e-01" purity="7.7983736991882324e-01" nType="-99"/>
                    <Node pos="r" depth="7" NCoef="0" IVar="-1" Cut="0.0000000000000000e+00" cType="1" res="2.6770241092890501e-03" rms="4.2524930834770203e-01" purity="7.4689328670501709e-01" nType="-99"/>
                  </Node>
                </Node>
                <Node pos="r" depth="5" NCoef="0" IVar="-1" Cut="0.0000000000000000e+00" cType="1" res="2.0308634266257286e-03" rms="4.3091875314712524e-01" purity="7.2875076532363892e-01" nType="-99"/>
              </Node>
            </Node>
            <Node pos="r" depth="3" NCoef="0" IVar="3" Cut="9.9596083164215088e-01" cType="1" res="2.1160826086997986e-02" rms="3.8766640424728394e-01" purity="8.0550599098205566e-01" nType="0">
              <Node pos="l" depth="4" NCoef="0" IVar="5" Cut="-2.8204913139343262e+00" cType="1" res="8.6645353585481644e-03" rms="4.0841075778007507e-01" purity="7.7634257078170776e-01" nType="0">
                <Node pos="l" depth="5" NCoef="0" IVar="-1" Cut="0.0000000000000000e+00" cType="1" res="2.6742685586214066e-03" rms="3.6878198385238647e-01" purity="8.3508318662643433e-01" nType="-99"/>
                <Node pos="r" depth="5" NCoef="0" IVar="5" Cut="-2.0471768379211426e+00" cType="1" res="3.0727197881788015e-03" rms="4.2676639556884766e-01" purity="7.4692583084106445e-01" nType="0">
                  <Node pos="l" depth="6" NCoef="0" IVar="-1" Cut="0.0000000000000000e+00" cType="1" res="-2.9905673000030220e-04" rms="4.1193163394927979e-01" purity="7.7639704942703247e-01" nType="-99"/>
                  <Node pos="r" depth="6" NCoef="0" IVar="-1" Cut="0.0000000000000000e+00" cType="1" res="9.8844280000776052e-04" rms="4.4384700059890747e-01" purity="7.1150571107864380e-01" nType="-99"/>
                </Node>
              </Node>
              <Node pos="r" depth="4" NCoef="0" IVar="4" Cut="-7.0307306945323944e-02" cType="1" res="2.6962133124470711e-02" rms="3.7750831246376038e-01" purity="8.1904488801956177e-01" nType="0">
                <Node pos="l" depth="5" NCoef="0" IVar="4" Cut="-2.7169841527938843e-01" cType="1" res="3.6132190376520157e-02" rms="3.6239716410636902e-01" purity="8.3633965253829956e-01" nType="0">
                  <Node pos="l" depth="6" NCoef="0" IVar="-1" Cut="0.0000000000000000e+00" cType="1" res="3.6828808952122927e-03" rms="3.6890909075737000e-01" purity="8.2565277814865112e-01" nType="-99"/>
                  <Node pos="r" depth="6" NCoef="0" IVar="4" Cut="-1.6128928959369659e-01" cType="1" res="3.8782309740781784e-02" rms="3.5912922024726868e-01" purity="8.4158313274383545e-01" nType="0">
                    <Node pos="l" depth="7" NCoef="0" IVar="-1" Cut="0.0000000000000000e+00" cType="1" res="5.7383351959288120e-03" rms="3.5058394074440002e-01" purity="8.5019242763519287e-01" nType="-99"/>
                    <Node pos="r" depth="7" NCoef="0" IVar="-1" Cut="0.0000000000000000e+00" cType="1" res="3.9918585680425167e-03" rms="3.6633145809173584e-01" purity="8.3402490615844727e-01" nType="-99"/>
                  </Node>
                </Node>
                <Node pos="r" depth="5" NCoef="0" IVar="5" Cut="-3.0323977470397949e+00" cType="1" res="2.0863654091954231e-02" rms="3.8711127638816833e-01" purity="8.0754309892654419e-01" nType="0">
                  <Node pos="l" depth="6" NCoef="0" IVar="-1" Cut="0.0000000000000000e+00" cType="1" res="3.7773482035845518e-03" rms="3.4738844633102417e-01" purity="8.5730761289596558e-01" nType="-99"/>
                  <Node pos="r" depth="6" NCoef="0" IVar="5" Cut="-2.0364613533020020e+00" cType="1" res="1.9057774916291237e-02" rms="3.9810979366302490e-01" purity="7.9278832674026489e-01" nType="0">
                    <Node pos="l" depth="7" NCoef="0" IVar="-1" Cut="0.0000000000000000e+00" cType="1" res="1.7680556047707796e-03" rms="3.8679853081703186e-01" purity="8.0998980998992920e-01" nType="-99"/>
                    <Node pos="r" depth="7" NCoef="0" IVar="-1" Cut="0.0000000000000000e+00" cType="1" res="2.9698456637561321e-03" rms="4.1939550638198853e-01" purity="7.5882107019424438e-01" nType="-99"/>
                  </Node>
                </Node>
              </Node>
            </Node>
          </Node>
          <Node pos="r" depth="2" NCoef="0" IVar="-1" Cut="0.0000000000000000e+00" cType="1" res="-1.6085054958239198e-03" rms="4.7959810495376587e-01" purity="5.3543144464492798e-01" nType="-99"/>
        </Node>
      </Node>
    </BinaryTree>
    <BinaryTree type="DecisionTree" boostWeight="1.0000000000000000e+00" itree="88">
      <Node pos="s" depth="0" NCoef="0" IVar="4" Cut="1.7316758632659912e+00" cType="1" res="3.6295468453317881e-03" rms="4.0532523393630981e-01" purity="5.0105684995651245e-01" nType="0">
        <Node pos="l" depth="1" NCoef="0" IVar="4" Cut="-2.6985387802124023e+00" cType="1" res="5.3080026991665363e-03" rms="4.1658571362495422e-01" purity="5.3742140531539917e-01" nType="0">
          <Node pos="l" depth="2" NCoef="0" IVar="3" Cut="8.3999419212341309e-01" cType="1" res="2.5610851123929024e-02" rms="4.2406806349754333e-01" purity="6.9451791048049927e-01" nType="0">
            <Node pos="l" depth="3" NCoef="0" IVar="-1" Cut="0.0000000000000000e+00" cType="1" res="3.7013392429798841e-03" rms="4.4503083825111389e-01" purity="5.6419068574905396e-01" nType="-99"/>
            <Node pos="r" depth="3" NCoef="0" IVar="4" Cut="-2.9968280792236328e+00" cType="1" res="1.9342744722962379e-02" rms="4.1004005074501038e-01" purity="7.7749752998352051e-01" nType="0">
              <Node pos="l" depth="4" NCoef="0" IVar="-1" Cut="0.0000000000000000e+00" cType="1" res="3.3130003139376640e-03" rms="3.9864683151245117e-01" purity="7.9684424400329590e-01" nType="-99"/>
              <Node pos="r" depth="4" NCoef="0" IVar="-1" Cut="0.0000000000000000e+00" cType="1" res="1.0203130077570677e-03" rms="4.2133030295372009e-01" purity="7.5736147165298462e-01" nType="-99"/>
            </Node>
          </Node>
          <Node pos="r" depth="2" NCoef="0" IVar="6" Cut="2.2079227864742279e-01" cType="1" res="4.0735285729169846e-03" rms="4.1609448194503784e-01" purity="5.2786946296691895e-01" nType="0">
            <Node pos="l" depth="3" NCoef="0" IVar="2" Cut="8.1064514160156250e+01" cType="1" res="4.9371742643415928e-03" rms="4.1641142964363098e-01" purity="5.3728115558624268e-01" nType="0">
              <Node pos="l" depth="4" NCoef="0" IVar="6" Cut="2.3617478087544441e-02" cType="1" res="9.9065825343132019e-03" rms="4.1792583465576172e-01" purity="6.8961846828460693e-01" nType="0">
                <Node pos="l" depth="5" NCoef="0" IVar="3" Cut="9.7221201658248901e-01" cType="1" res="5.4903007112443447e-03" rms="4.1083899140357971e-01" purity="7.4036842584609985e-01" nType="0">
                  <Node pos="l" depth="6" NCoef="0" IVar="3" Cut="7.2533631324768066e-01" cType="1" res="-1.6738543286919594e-02" rms="4.3660044670104980e-01" purity="5.8936375379562378e-01" nType="0">
                    <Node pos="l" depth="7" NCoef="0" IVar="-1" Cut="0.0000000000000000e+00" cType="1" res="-5.1684887148439884e-03" rms="3.8753789663314819e-01" purity="2.3458774387836456e-01" nType="-99"/>
                    <Node pos="r" depth="7" NCoef="0" IVar="-1" Cut="0.0000000000000000e+00" cType="1" res="-1.1753814760595560e-03" rms="4.4883978366851807e-01" purity="6.8550878763198853e-01" nType="-99"/>
                  </Node>
                  <Node pos="r" depth="6" NCoef="0" IVar="3" Cut="9.9922120571136475e-01" cType="1" res="1.1678459122776985e-02" rms="4.0315672755241394e-01" purity="7.8240573406219482e-01" nType="0">
                    <Node pos="l" depth="7" NCoef="0" IVar="-1" Cut="0.0000000000000000e+00" cType="1" res="2.3020044318400323e-04" rms="4.0979281067848206e-01" purity="7.7081853151321411e-01" nType="-99"/>
                    <Node pos="r" depth="7" NCoef="0" IVar="-1" Cut="0.0000000000000000e+00" cType="1" res="2.1545931231230497e-03" rms="3.9728841185569763e-01" purity="7.9218327999114990e-01" nType="-99"/>
                  </Node>
                </Node>
                <Node pos="r" depth="5" NCoef="0" IVar="4" Cut="-4.1211667656898499e-01" cType="1" res="2.3008080199360847e-02" rms="4.3801429867744446e-01" purity="5.3906184434890747e-01" nType="0">
                  <Node pos="l" depth="6" NCoef="0" IVar="2" Cut="4.2026012420654297e+01" cType="1" res="3.2839205116033554e-02" rms="4.3848961591720581e-01" purity="6.2357032299041748e-01" nType="0">
                    <Node pos="l" depth="7" NCoef="0" IVar="-1" Cut="0.0000000000000000e+00" cType="1" res="1.5892070950940251e-03" rms="4.4514867663383484e-01" purity="6.2574321031570435e-01" nType="-99"/>
                    <Node pos="r" depth="7" NCoef="0" IVar="-1" Cut="0.0000000000000000e+00" cType="1" res="3.8615940138697624e-03" rms="4.3506088852882385e-01" purity="6.2252962589263916e-01" nType="-99"/>
                  </Node>
                  <Node pos="r" depth="6" NCoef="0" IVar="4" Cut="6.9425767660140991e-01" cType="1" res="1.2698204256594181e-02" rms="4.3727791309356689e-01" purity="4.5043796300888062e-01" nType="0">
                    <Node pos="l" depth="7" NCoef="0" IVar="-1" Cut="0.0000000000000000e+00" cType="1" res="6.8128027487546206e-04" rms="4.3818479776382446e-01" purity="4.6660771965980530e-01" nType="-99"/>
                    <Node pos="r" depth="7" NCoef="0" IVar="-1" Cut="0.0000000000000000e+00" cType="1" res="4.4009289704263210e-03" rms="4.3265745043754578e-01" purity="3.8491308689117432e-01" nType="-99"/>
                  </Node>
                </Node>
              </Node>
              <Node pos="r" depth="4" NCoef="0" IVar="6" Cut="4.0668629109859467e-02" cType="1" res="-8.7196478853002191e-04" rms="4.1455861926078796e-01" purity="3.5920187830924988e-01" nType="0">
                <Node pos="l" depth="5" NCoef="0" IVar="3" Cut="8.8009959459304810e-01" cType="1" res="-2.8650583699345589e-02" rms="4.3349537253379822e-01" purity="4.7180852293968201e-01" nType="0">
                  <Node pos="l" depth="6" NCoef="0" IVar="7" Cut="3.0000000000000000e+00" cType="1" res="-3.8692839443683624e-02" rms="4.3027618527412415e-01" purity="3.9905408024787903e-01" nType="0">
                    <Node pos="l" depth="7" NCoef="0" IVar="-1" Cut="0.0000000000000000e+00" cType="1" res="-5.0457594916224480e-03" rms="4.6732699871063232e-01" purity="5.2598756551742554e-01" nType="-99"/>
                    <Node pos="r" depth="7" NCoef="0" IVar="-1" Cut="0.0000000000000000e+00" cType="1" res="-3.9915125817060471e-03" rms="3.9350721240043640e-01" purity="2.8429237008094788e-01" nType="-99"/>
                  </Node>
                  <Node pos="r" depth="6" NCoef="0" IVar="-1" Cut="0.0000000000000000e+00" cType="1" res="4.3154176091775298e-04" rms="4.4219133257865906e-01" purity="7.0723998546600342e-01" nType="-99"/>
                </Node>
                <Node pos="r" depth="5" NCoef="0" IVar="3" Cut="6.4375656843185425e-01" cType="1" res="3.1942683272063732e-03" rms="4.1155630350112915e-01" purity="3.4271851181983948e-01" nType="0">
                  <Node pos="l" depth="6" NCoef="0" IVar="6" Cut="1.3944081962108612e-01" cType="1" res="-1.9271828932687640e-03" rms="3.7142467498779297e-01" purity="2.0540724694728851e-01" nType="0">
                    <Node pos="l" depth="7" NCoef="0" IVar="-1" Cut="0.0000000000000000e+00" cType="1" res="-1.3534455792978406e-03" rms="3.6330100893974304e-01" purity="1.9536302983760834e-01" nType="-99"/>
                    <Node pos="r" depth="7" NCoef="0" IVar="-1" Cut="0.0000000000000000e+00" cType="1" res="2.1184310317039490e-03" rms="3.9160886406898499e-01" purity="2.3186002671718597e-01" nType="-99"/>
                  </Node>
                  <Node pos="r" depth="6" NCoef="0" IVar="2" Cut="2.5696835327148438e+02" cType="1" res="1.2233577668666840e-02" rms="4.7403648495674133e-01" purity="5.8507150411605835e-01" nType="0">
                    <Node pos="l" depth="7" NCoef="0" IVar="-1" Cut="0.0000000000000000e+00" cType="1" res="1.6448065871372819e-03" rms="4.7175133228302002e-01" purity="6.0766857862472534e-01" nType="-99"/>
                    <Node pos="r" depth="7" NCoef="0" IVar="-1" Cut="0.0000000000000000e+00" cType="1" res="-4.4115376658737659e-04" rms="4.7994399070739746e-01" purity="5.2210050821304321e-01" nType="-99"/>
                  </Node>
                </Node>
              </Node>
            </Node>
            <Node pos="r" depth="3" NCoef="0" IVar="7" Cut="5.0000000000000000e+00" cType="1" res="-2.3499742150306702e-02" rms="4.0487769246101379e-01" purity="2.2738541662693024e-01" nType="0">
              <Node pos="l" depth="4" NCoef="0" IVar="-1" Cut="0.0000000000000000e+00" cType="1" res="-4.7023431397974491e-03" rms="4.5699566602706909e-01" purity="3.2104733586311340e-01" nType="-99"/>
              <Node pos="r" depth="4" NCoef="0" IVar="-1" Cut="0.0000000000000000e+00" cType="1" res="-2.2477782331407070e-03" rms="3.6893698573112488e-01" purity="1.7011962831020355e-01" nType="-99"/>
            </Node>
          </Node>
        </Node>
        <Node pos="r" depth="1" NCoef="0" IVar="3" Cut="5.4358452558517456e-01" cType="1" res="-1.6401430591940880e-02" rms="2.3108769953250885e-01" purity="6.7075654864311218e-02" nType="0">
          <Node pos="l" depth="2" NCoef="0" IVar="6" Cut="1.5753525495529175e-01" cType="1" res="-7.3695415630936623e-03" rms="1.9481864571571350e-01" purity="4.3205510824918747e-02" nType="0">
            <Node pos="l" depth="3" NCoef="0" IVar="6" Cut="7.1721822023391724e-02" cType="1" res="-1.5228467062115669e-02" rms="1.4214144647121429e-01" purity="2.1436968818306923e-02" nType="0">
              <Node pos="l" depth="4" NCoef="0" IVar="-1" Cut="0.0000000000000000e+00" cType="1" res="-1.8851581960916519e-02" rms="1.0519859194755554e-01" purity="1.1213570833206177e-02" nType="-99"/>
              <Node pos="r" depth="4" NCoef="0" IVar="5" Cut="2.4739735126495361e+00" cType="1" res="-1.2546639889478683e-02" rms="1.5749219059944153e-01" purity="2.6607176288962364e-02" nType="0">
                <Node pos="l" depth="5" NCoef="0" IVar="-1" Cut="0.0000000000000000e+00" cType="1" res="-4.7809951938688755e-03" rms="1.8759104609489441e-01" purity="3.8138408213853836e-02" nType="-99"/>
                <Node pos="r" depth="5" NCoef="0" IVar="-1" Cut="0.0000000000000000e+00" cType="1" res="-2.2589208558201790e-02" rms="8.0894812941551208e-02" purity="6.4795892685651779e-03" nType="-99"/>
              </Node>
            </Node>
            <Node pos="r" depth="3" NCoef="0" IVar="3" Cut="2.6730132102966309e-01" cType="1" res="8.8688498362898827e-03" rms="2.7246817946434021e-01" purity="8.8184446096420288e-02" nType="0">
              <Node pos="l" depth="4" NCoef="0" IVar="-1" Cut="0.0000000000000000e+00" cType="1" res="1.0951206088066101e-02" rms="3.2183158397674561e-01" purity="1.2789399921894073e-01" nType="-99"/>
              <Node pos="r" depth="4" NCoef="0" IVar="-1" Cut="0.0000000000000000e+00" cType="1" res="-7.0807030424475670e-03" rms="2.1094046533107758e-01" purity="4.9549084156751633e-02" nType="-99"/>
            </Node>
          </Node>
          <Node pos="r" depth="2" NCoef="0" IVar="-1" Cut="0.0000000000000000e+00" cType="1" res="-8.9340591803193092e-03" rms="3.4820941090583801e-01" purity="1.7507013678550720e-01" nType="-99"/>
        </Node>
      </Node>
    </BinaryTree>
    <BinaryTree type="DecisionTree" boostWeight="1.0000000000000000e+00" itree="89">
      <Node pos="s" depth="0" NCoef="0" IVar="3" Cut="1.0602499246597290e+00" cType="1" res="3.4593020100146532e-03" rms="4.0531241893768311e-01" purity="4.9996778368949890e-01" nType="0">
        <Node pos="l" depth="1" NCoef="0" IVar="3" Cut="8.5505819320678711e-01" cType="1" res="4.0950025431811810e-03" rms="4.0503147244453430e-01" purity="4.9903258681297302e-01" nType="0">
          <Node pos="l" depth="2" NCoef="0" IVar="5" Cut="1.4944252967834473e+00" cType="1" res="2.6407584664411843e-04" rms="4.0109512209892273e-01" purity="3.3046770095825195e-01" nType="0">
            <Node pos="l" depth="3" NCoef="0" IVar="5" Cut="-3.5853404998779297e+00" cType="1" res="1.2985717039555311e-03" rms="4.1205257177352905e-01" purity="3.5121312737464905e-01" nType="0">
              <Node pos="l" depth="4" NCoef="0" IVar="-1" Cut="0.0000000000000000e+00" cType="1" res="-7.7760964632034302e-03" rms="3.2511094212532043e-01" purity="1.6039147973060608e-01" nType="-99"/>
              <Node pos="r" depth="4" NCoef="0" IVar="2" Cut="3.8391452026367188e+02" cType="1" res="2.5951932184398174e-03" rms="4.1446635127067566e-01" purity="3.5731470584869385e-01" nType="0">
                <Node pos="l" depth="5" NCoef="0" IVar="6" Cut="6.1850465834140778e-02" cType="1" res="4.8834304325282574e-03" rms="4.2253902554512024e-01" purity="3.8893353939056396e-01" nType="0">
                  <Node pos="l" depth="6" NCoef="0" IVar="2" Cut="8.1932647705078125e+01" cType="1" res="-3.7456355057656765e-03" rms="4.3356826901435852e-01" purity="4.4682273268699646e-01" nType="0">
                    <Node pos="l" depth="7" NCoef="0" IVar="-1" Cut="0.0000000000000000e+00" cType="1" res="7.8395835589617491e-04" rms="4.4335919618606567e-01" purity="4.9120301008224487e-01" nType="-99"/>
                    <Node pos="r" depth="7" NCoef="0" IVar="-1" Cut="0.0000000000000000e+00" cType="1" res="-1.8921005539596081e-03" rms="4.2250823974609375e-01" purity="3.9934185147285461e-01" nType="-99"/>
                  </Node>
                  <Node pos="r" depth="6" NCoef="0" IVar="2" Cut="2.4820338439941406e+02" cType="1" res="1.2480616569519043e-02" rms="4.1243526339530945e-01" purity="3.3796685934066772e-01" nType="0">
                    <Node pos="l" depth="7" NCoef="0" IVar="-1" Cut="0.0000000000000000e+00" cType="1" res="2.1860313136130571e-03" rms="4.2045712471008301e-01" purity="3.6521327495574951e-01" nType="-99"/>
                    <Node pos="r" depth="7" NCoef="0" IVar="-1" Cut="0.0000000000000000e+00" cType="1" res="1.7656803538557142e-04" rms="3.9514899253845215e-01" purity="2.8180885314941406e-01" nType="-99"/>
                  </Node>
                </Node>
                <Node pos="r" depth="5" NCoef="0" IVar="3" Cut="6.0659372806549072e-01" cType="1" res="-7.9385880380868912e-03" rms="3.7488999962806702e-01" purity="2.1175906062126160e-01" nType="0">
                  <Node pos="l" depth="6" NCoef="0" IVar="6" Cut="1.8653462827205658e-01" cType="1" res="-1.0281780734658241e-02" rms="3.5485145449638367e-01" purity="1.6907617449760437e-01" nType="0">
                    <Node pos="l" depth="7" NCoef="0" IVar="-1" Cut="0.0000000000000000e+00" cType="1" res="-3.5859269555658102e-03" rms="3.3973142504692078e-01" purity="1.5273237228393555e-01" nType="-99"/>
                    <Node pos="r" depth="7" NCoef="0" IVar="-1" Cut="0.0000000000000000e+00" cType="1" res="3.3035088563337922e-04" rms="3.7760910391807556e-01" purity="1.9539174437522888e-01" nType="-99"/>
                  </Node>
                  <Node pos="r" depth="6" NCoef="0" IVar="-1" Cut="0.0000000000000000e+00" cType="1" res="6.3323433278128505e-04" rms="4.7953331470489502e-01" purity="4.7343754768371582e-01" nType="-99"/>
                </Node>
              </Node>
            </Node>
            <Node pos="r" depth="3" NCoef="0" IVar="3" Cut="2.4841575324535370e-01" cType="1" res="-1.4128623530268669e-02" rms="1.9155140221118927e-01" purity="4.1841235011816025e-02" nType="0">
              <Node pos="l" depth="4" NCoef="0" IVar="-1" Cut="0.0000000000000000e+00" cType="1" res="1.2264806777238846e-02" rms="2.6744282245635986e-01" purity="8.9350730180740356e-02" nType="-99"/>
              <Node pos="r" depth="4" NCoef="0" IVar="7" Cut="5.0000000000000000e+00" cType="1" res="-3.1804256141185760e-02" rms="1.4169250428676605e-01" purity="2.0564867183566093e-02" nType="0">
                <Node pos="l" depth="5" NCoef="0" IVar="-1" Cut="0.0000000000000000e+00" cType="1" res="-1.9626308232545853e-02" rms="1.6205054521560669e-01" purity="2.7012860402464867e-02" nType="-99"/>
                <Node pos="r" depth="5" NCoef="0" IVar="-1" Cut="0.0000000000000000e+00" cType="1" res="-1.6595471650362015e-02" rms="1.1900694668292999e-01" purity="1.4671183191239834e-02" nType="-99"/>
              </Node>
            </Node>
          </Node>
          <Node pos="r" depth="2" NCoef="0" IVar="3" Cut="1.0006679296493530e+00" cType="1" res="1.0143679566681385e-02" rms="4.1109719872474670e-01" purity="7.6518082618713379e-01" nType="0">
            <Node pos="l" depth="3" NCoef="0" IVar="7" Cut="2.0000000000000000e+00" cType="1" res="6.9367098622024059e-03" rms="4.1830420494079590e-01" purity="7.5298422574996948e-01" nType="0">
              <Node pos="l" depth="4" NCoef="0" IVar="4" Cut="-1.6909505128860474e+00" cType="1" res="1.7726192018017173e-03" rms="4.1204091906547546e-01" purity="7.6501524448394775e-01" nType="0">
                <Node pos="l" depth="5" NCoef="0" IVar="4" Cut="-2.1844425201416016e+00" cType="1" res="-2.3420052602887154e-02" rms="4.4566610455513000e-01" purity="7.0900803804397583e-01" nType="0">
                  <Node pos="l" depth="6" NCoef="0" IVar="-1" Cut="0.0000000000000000e+00" cType="1" res="1.4025481650605798e-03" rms="4.2250382900238037e-01" purity="7.5269252061843872e-01" nType="-99"/>
                  <Node pos="r" depth="6" NCoef="0" IVar="-1" Cut="0.0000000000000000e+00" cType="1" res="-5.4551772773265839e-03" rms="4.6386590600013733e-01" purity="6.6755747795104980e-01" nType="-99"/>
                </Node>
                <Node pos="r" depth="5" NCoef="0" IVar="3" Cut="9.6781188249588013e-01" cType="1" res="5.8875349350273609e-03" rms="4.0613588690757751e-01" purity="7.7416324615478516e-01" nType="0">
                  <Node pos="l" depth="6" NCoef="0" IVar="-1" Cut="0.0000000000000000e+00" cType="1" res="-2.4730598088353872e-03" rms="4.3618091940879822e-01" purity="7.1913546323776245e-01" nType="-99"/>
                  <Node pos="r" depth="6" NCoef="0" IVar="5" Cut="-2.1985225677490234e+00" cType="1" res="1.0222229175269604e-02" rms="4.0125373005867004e-01" purity="7.8242117166519165e-01" nType="0">
                    <Node pos="l" depth="7" NCoef="0" IVar="-1" Cut="0.0000000000000000e+00" cType="1" res="1.6443314962089062e-03" rms="3.8156306743621826e-01" purity="8.1726104021072388e-01" nType="-99"/>
                    <Node pos="r" depth="7" NCoef="0" IVar="-1" Cut="0.0000000000000000e+00" cType="1" res="2.9906100826337934e-04" rms="4.4387283921241760e-01" purity="7.0084357261657715e-01" nType="-99"/>
                  </Node>
                </Node>
              </Node>
              <Node pos="r" depth="4" NCoef="0" IVar="3" Cut="9.1135323047637939e-01" cType="1" res="1.7440449446439743e-02" rms="4.3141904473304749e-01" purity="7.2762590646743774e-01" nType="0">
                <Node pos="l" depth="5" NCoef="0" IVar="5" Cut="-2.5814113616943359e+00" cType="1" res="1.3879887759685516e-02" rms="4.3543013930320740e-01" purity="7.2233402729034424e-01" nType="0">
                  <Node pos="l" depth="6" NCoef="0" IVar="2" Cut="7.6355690002441406e+01" cType="1" res="2.6018291711807251e-02" rms="4.0492314100265503e-01" purity="7.8623110055923462e-01" nType="0">
                    <Node pos="l" depth="7" NCoef="0" IVar="-1" Cut="0.0000000000000000e+00" cType="1" res="4.1557960212230682e-03" rms="3.9300367236137390e-01" purity="8.0221343040466309e-01" nType="-99"/>
                    <Node pos="r" depth="7" NCoef="0" IVar="-1" Cut="0.0000000000000000e+00" cType="1" res="1.7081855330616236e-03" rms="4.1697579622268677e-01" purity="7.6917886734008789e-01" nType="-99"/>
                  </Node>
                  <Node pos="r" depth="6" NCoef="0" IVar="3" Cut="8.9319235086441040e-01" cType="1" res="6.0752006247639656e-03" rms="4.5379230380058289e-01" purity="6.8124979734420776e-01" nType="0">
                    <Node pos="l" depth="7" NCoef="0" IVar="-1" Cut="0.0000000000000000e+00" cType="1" res="8.5322838276624680e-04" rms="4.5614457130432129e-01" purity="6.7976337671279907e-01" nType="-99"/>
                    <Node pos="r" depth="7" NCoef="0" IVar="-1" Cut="0.0000000000000000e+00" cType="1" res="-2.1836023370269686e-04" rms="4.4636878371238708e-01" purity="6.8583083152770996e-01" nType="-99"/>
                  </Node>
                </Node>
                <Node pos="r" depth="5" NCoef="0" IVar="-1" Cut="0.0000000000000000e+00" cType="1" res="4.9020447768270969e-03" rms="4.0191325545310974e-01" purity="7.6400393247604370e-01" nType="-99"/>
              </Node>
            </Node>
            <Node pos="r" depth="3" NCoef="0" IVar="3" Cut="1.0352551937103271e+00" cType="1" res="1.7779331654310226e-02" rms="3.9363884925842285e-01" purity="7.9315137863159180e-01" nType="0">
              <Node pos="l" depth="4" NCoef="0" IVar="5" Cut="-2.5706272125244141e+00" cType="1" res="2.1572150290012360e-02" rms="3.9152410626411438e-01" purity="7.9705804586410522e-01" nType="0">
                <Node pos="l" depth="5" NCoef="0" IVar="4" Cut="-9.7983345389366150e-02" cType="1" res="2.8774216771125793e-02" rms="3.5947903990745544e-01" purity="8.4368884563446045e-01" nType="0">
                  <Node pos="l" depth="6" NCoef="0" IVar="3" Cut="1.0129423141479492e+00" cType="1" res="3.4371521323919296e-02" rms="3.5671567916870117e-01" purity="8.4599316120147705e-01" nType="0">
                    <Node pos="l" depth="7" NCoef="0" IVar="-1" Cut="0.0000000000000000e+00" cType="1" res="4.3400623835623264e-03" rms="3.5616275668144226e-01" purity="8.4649568796157837e-01" nType="-99"/>
                    <Node pos="r" depth="7" NCoef="0" IVar="-1" Cut="0.0000000000000000e+00" cType="1" res="3.2523511908948421e-03" rms="3.5765886306762695e-01" purity="8.4503465890884399e-01" nType="-99"/>
                  </Node>
                  <Node pos="r" depth="6" NCoef="0" IVar="-1" Cut="0.0000000000000000e+00" cType="1" res="1.8612754065543413e-03" rms="3.6634814739227295e-01" purity="8.3752536773681641e-01" nType="-99"/>
                </Node>
                <Node pos="r" depth="5" NCoef="0" IVar="3" Cut="1.0151720046997070e+00" cType="1" res="1.2665543705224991e-02" rms="4.2767906188964844e-01" purity="7.3939079046249390e-01" nType="0">
                  <Node pos="l" depth="6" NCoef="0" IVar="3" Cut="1.0053453445434570e+00" cType="1" res="1.6673631966114044e-02" rms="4.2521789669990540e-01" purity="7.4472093582153320e-01" nType="0">
                    <Node pos="l" depth="7" NCoef="0" IVar="-1" Cut="0.0000000000000000e+00" cType="1" res="1.3370936503633857e-03" rms="4.2577803134918213e-01" purity="7.4316829442977905e-01" nType="-99"/>
                    <Node pos="r" depth="7" NCoef="0" IVar="-1" Cut="0.0000000000000000e+00" cType="1" res="2.1901198197156191e-03" rms="4.2419487237930298e-01" purity="7.4739271402359009e-01" nType="-99"/>
                  </Node>
                  <Node pos="r" depth="6" NCoef="0" IVar="-1" Cut="0.0000000000000000e+00" cType="1" res="4.1112907638307661e-05" rms="4.3489193916320801e-01" purity="7.2308641672134399e-01" nType="-99"/>
                </Node>
              </Node>
              <Node pos="r" depth="4" NCoef="0" IVar="-1" Cut="0.0000000000000000e+00" cType="1" res="-1.3640159741044044e-03" rms="4.0867498517036438e-01" purity="7.6240551471710205e-01" nType="-99"/>
            </Node>
          </Node>
        </Node>
        <Node pos="r" depth="1" NCoef="0" IVar="-1" Cut="0.0000000000000000e+00" cType="1" res="-5.4475888609886169e-03" rms="4.2621853947639465e-01" purity="5.8536857366561890e-01" nType="-99"/>
      </Node>
    </BinaryTree>
    <BinaryTree type="DecisionTree" boostWeight="1.0000000000000000e+00" itree="90">
      <Node pos="s" depth="0" NCoef="0" IVar="4" Cut="1.5634111166000366e+00" cType="1" res="2.6031369343400002e-03" rms="4.0477380156517029e-01" purity="4.9967584013938904e-01" nType="0">
        <Node pos="l" depth="1" NCoef="0" IVar="4" Cut="-2.3675961494445801e+00" cType="1" res="4.3126605451107025e-03" rms="4.1668835282325745e-01" purity="5.3965318202972412e-01" nType="0">
          <Node pos="l" depth="2" NCoef="0" IVar="5" Cut="-1.8857699632644653e+00" cType="1" res="1.7285546287894249e-02" rms="4.3313953280448914e-01" purity="6.4285618066787720e-01" nType="0">
            <Node pos="l" depth="3" NCoef="0" IVar="4" Cut="-2.9715473651885986e+00" cType="1" res="2.1404525265097618e-02" rms="4.2661538720130920e-01" purity="6.4908921718597412e-01" nType="0">
              <Node pos="l" depth="4" NCoef="0" IVar="-1" Cut="0.0000000000000000e+00" cType="1" res="4.1522956453263760e-03" rms="4.0587827563285828e-01" purity="7.5535070896148682e-01" nType="-99"/>
              <Node pos="r" depth="4" NCoef="0" IVar="2" Cut="1.7673533630371094e+02" cType="1" res="1.7142977565526962e-02" rms="4.3227025866508484e-01" purity="6.1869120597839355e-01" nType="0">
                <Node pos="l" depth="5" NCoef="0" IVar="6" Cut="2.6963952928781509e-02" cType="1" res="2.2079141810536385e-02" rms="4.3119943141937256e-01" purity="6.9633316993713379e-01" nType="0">
                  <Node pos="l" depth="6" NCoef="0" IVar="2" Cut="3.0553813934326172e+01" cType="1" res="8.6730020120739937e-03" rms="4.3052533268928528e-01" purity="7.0421588420867920e-01" nType="0">
                    <Node pos="l" depth="7" NCoef="0" IVar="-1" Cut="0.0000000000000000e+00" cType="1" res="2.2279506083577871e-03" rms="4.2901659011840820e-01" purity="7.3179107904434204e-01" nType="-99"/>
                    <Node pos="r" depth="7" NCoef="0" IVar="-1" Cut="0.0000000000000000e+00" cType="1" res="-8.8243407662957907e-04" rms="4.3182820081710815e-01" purity="6.7006683349609375e-01" nType="-99"/>
                  </Node>
                  <Node pos="r" depth="6" NCoef="0" IVar="2" Cut="1.0960736083984375e+02" cType="1" res="3.3348903059959412e-02" rms="4.3144312500953674e-01" purity="6.8970662355422974e-01" nType="0">
                    <Node pos="l" depth="7" NCoef="0" IVar="-1" Cut="0.0000000000000000e+00" cType="1" res="4.5515759848058224e-03" rms="4.2619383335113525e-01" purity="7.2559875249862671e-01" nType="-99"/>
                    <Node pos="r" depth="7" NCoef="0" IVar="-1" Cut="0.0000000000000000e+00" cType="1" res="1.4437433565035462e-03" rms="4.3783599138259888e-01" purity="6.4004802703857422e-01" nType="-99"/>
                  </Node>
                </Node>
                <Node pos="r" depth="5" NCoef="0" IVar="3" Cut="5.8025151491165161e-01" cType="1" res="6.3744834624230862e-03" rms="4.3440252542495728e-01" purity="4.4931146502494812e-01" nType="0">
                  <Node pos="l" depth="6" NCoef="0" IVar="-1" Cut="0.0000000000000000e+00" cType="1" res="-6.0376180044841021e-05" rms="3.8515406847000122e-01" purity="2.1322025358676910e-01" nType="-99"/>
                  <Node pos="r" depth="6" NCoef="0" IVar="-1" Cut="0.0000000000000000e+00" cType="1" res="1.0547091951593757e-03" rms="4.6706381440162659e-01" purity="6.2187129259109497e-01" nType="-99"/>
                </Node>
              </Node>
            </Node>
            <Node pos="r" depth="3" NCoef="0" IVar="-1" Cut="0.0000000000000000e+00" cType="1" res="-1.2513846158981323e-03" rms="4.7724500298500061e-01" purity="5.9708225727081299e-01" nType="-99"/>
          </Node>
          <Node pos="r" depth="2" NCoef="0" IVar="3" Cut="6.4306271076202393e-01" cType="1" res="2.4796964135020971e-03" rms="4.1427853703498840e-01" purity="5.2507138252258301e-01" nType="0">
            <Node pos="l" depth="3" NCoef="0" IVar="7" Cut="1.0000000000000000e+01" cType="1" res="1.3858549296855927e-01" rms="5.8097105473279953e-02" purity="2.0429676771163940e-01" nType="0">
              <Node pos="l" depth="4" NCoef="0" IVar="1" Cut="5.5786257982254028e-01" cType="1" res="-2.8500449843704700e-03" rms="3.7642440199851990e-01" purity="2.0974618196487427e-01" nType="0">
                <Node pos="l" depth="5" NCoef="0" IVar="4" Cut="-1.8603812456130981e+00" cType="1" res="2.8923586942255497e-03" rms="4.0222883224487305e-01" purity="2.4894081056118011e-01" nType="0">
                  <Node pos="l" depth="6" NCoef="0" IVar="-1" Cut="0.0000000000000000e+00" cType="1" res="-2.5301873683929443e-03" rms="4.1890001296997070e-01" purity="2.7032873034477234e-01" nType="-99"/>
                  <Node pos="r" depth="6" NCoef="0" IVar="5" Cut="-1.3150593042373657e+00" cType="1" res="4.8329927958548069e-03" rms="4.0069496631622314e-01" purity="2.4709050357341766e-01" nType="0">
                    <Node pos="l" depth="7" NCoef="0" IVar="-1" Cut="0.0000000000000000e+00" cType="1" res="1.2106725480407476e-03" rms="4.1225105524063110e-01" purity="2.7028003334999084e-01" nType="-99"/>
                    <Node pos="r" depth="7" NCoef="0" IVar="-1" Cut="0.0000000000000000e+00" cType="1" res="-1.0780906304717064e-03" rms="3.6592459678649902e-01" purity="1.8168580532073975e-01" nType="-99"/>
                  </Node>
                </Node>
                <Node pos="r" depth="5" NCoef="0" IVar="3" Cut="3.5316920280456543e-01" cType="1" res="-1.7641995102167130e-02" rms="2.9939010739326477e-01" purity="1.0878404229879379e-01" nType="0">
                  <Node pos="l" depth="6" NCoef="0" IVar="4" Cut="-8.4586834907531738e-01" cType="1" res="-6.2331510707736015e-03" rms="2.4439439177513123e-01" purity="6.7077383399009705e-02" nType="0">
                    <Node pos="l" depth="7" NCoef="0" IVar="-1" Cut="0.0000000000000000e+00" cType="1" res="2.8098979964852333e-03" rms="2.8712165355682373e-01" purity="9.6764728426933289e-02" nType="-99"/>
                    <Node pos="r" depth="7" NCoef="0" IVar="-1" Cut="0.0000000000000000e+00" cType="1" res="-5.4851733148097992e-03" rms="2.2556637227535248e-01" purity="5.5647511035203934e-02" nType="-99"/>
                  </Node>
                  <Node pos="r" depth="6" NCoef="0" IVar="2" Cut="1.2779769897460938e+02" cType="1" res="-2.8894860297441483e-02" rms="3.4478452801704407e-01" purity="1.4992052316665649e-01" nType="0">
                    <Node pos="l" depth="7" NCoef="0" IVar="-1" Cut="0.0000000000000000e+00" cType="1" res="-8.8370516896247864e-03" rms="3.2376688718795776e-01" purity="1.2709961831569672e-01" nType="-99"/>
                    <Node pos="r" depth="7" NCoef="0" IVar="-1" Cut="0.0000000000000000e+00" cType="1" res="-3.6072595976293087e-03" rms="3.5627108812332153e-01" purity="1.6338242590427399e-01" nType="-99"/>
                  </Node>
                </Node>
              </Node>
              <Node pos="r" depth="4" NCoef="0" IVar="-1" Cut="0.0000000000000000e+00" cType="1" res="-1.0911226272583008e-02" rms="2.3814409971237183e-01" purity="6.2970884144306183e-02" nType="-99"/>
            </Node>
            <Node pos="r" depth="3" NCoef="0" IVar="6" Cut="1.0008336603641510e-01" cType="1" res="5.9319199062883854e-03" rms="4.3521097302436829e-01" purity="6.9795358180999756e-01" nType="0">
              <Node pos="l" depth="4" NCoef="0" IVar="1" Cut="1.1786408424377441e+00" cType="1" res="7.0529328659176826e-03" rms="4.3365111947059631e-01" purity="7.0506948232650757e-01" nType="0">
                <Node pos="l" depth="5" NCoef="0" IVar="6" Cut="3.5512823611497879e-02" cType="1" res="8.7895290926098824e-03" rms="4.3200916051864624e-01" purity="7.1290957927703857e-01" nType="0">
                  <Node pos="l" depth="6" NCoef="0" IVar="3" Cut="8.7848466634750366e-01" cType="1" res="5.4672290571033955e-03" rms="4.1620644927024841e-01" purity="7.5201642513275146e-01" nType="0">
                    <Node pos="l" depth="7" NCoef="0" IVar="-1" Cut="0.0000000000000000e+00" cType="1" res="-1.8140074098482728e-03" rms="4.7730395197868347e-01" purity="5.7792514562606812e-01" nType="-99"/>
                    <Node pos="r" depth="7" NCoef="0" IVar="-1" Cut="0.0000000000000000e+00" cType="1" res="1.0691947536543012e-03" rms="4.0519475936889648e-01" purity="7.8048211336135864e-01" nType="-99"/>
                  </Node>
                  <Node pos="r" depth="6" NCoef="0" IVar="1" Cut="4.1494822502136230e-01" cType="1" res="1.7016714438796043e-02" rms="4.6875393390655518e-01" purity="6.1606723070144653e-01" nType="0">
                    <Node pos="l" depth="7" NCoef="0" IVar="-1" Cut="0.0000000000000000e+00" cType="1" res="1.9191442988812923e-03" rms="4.6564951539039612e-01" purity="6.3637757301330566e-01" nType="-99"/>
                    <Node pos="r" depth="7" NCoef="0" IVar="-1" Cut="0.0000000000000000e+00" cType="1" res="-5.1007233560085297e-04" rms="4.8533758521080017e-01" purity="5.0099998712539673e-01" nType="-99"/>
                  </Node>
                </Node>
                <Node pos="r" depth="5" NCoef="0" IVar="-1" Cut="0.0000000000000000e+00" cType="1" res="-2.9522455297410488e-03" rms="4.6802538633346558e-01" purity="5.2494519948959351e-01" nType="-99"/>
              </Node>
              <Node pos="r" depth="4" NCoef="0" IVar="-1" Cut="0.0000000000000000e+00" cType="1" res="-2.2588314022868872e-03" rms="4.7564980387687683e-01" purity="4.9922755360603333e-01" nType="-99"/>
            </Node>
          </Node>
        </Node>
        <Node pos="r" depth="1" NCoef="0" IVar="3" Cut="6.3271838426589966e-01" cType="1" res="-1.5357601456344128e-02" rms="2.4629199504852295e-01" purity="7.9662747681140900e-02" nType="0">
          <Node pos="l" depth="2" NCoef="0" IVar="6" Cut="1.2451760470867157e-01" cType="1" res="-9.9735083058476448e-03" rms="2.0755241811275482e-01" purity="5.0171438604593277e-02" nType="0">
            <Node pos="l" depth="3" NCoef="0" IVar="6" Cut="8.8672250509262085e-02" cType="1" res="-1.7599621787667274e-02" rms="1.6754774749279022e-01" purity="3.1449273228645325e-02" nType="0">
              <Node pos="l" depth="4" NCoef="0" IVar="3" Cut="3.8297134637832642e-01" cType="1" res="-2.2620337083935738e-02" rms="1.4819566905498505e-01" purity="2.4470821022987366e-02" nType="0">
                <Node pos="l" depth="5" NCoef="0" IVar="-1" Cut="0.0000000000000000e+00" cType="1" res="-2.0387021824717522e-02" rms="9.0178921818733215e-02" purity="8.2819322124123573e-03" nType="-99"/>
                <Node pos="r" depth="5" NCoef="0" IVar="-1" Cut="0.0000000000000000e+00" cType="1" res="-1.1533965356647968e-02" rms="1.9976642727851868e-01" purity="4.5578226447105408e-02" nType="-99"/>
              </Node>
              <Node pos="r" depth="4" NCoef="0" IVar="-1" Cut="0.0000000000000000e+00" cType="1" res="-5.4957568645477295e-03" rms="1.9387309253215790e-01" purity="4.2432259768247604e-02" nType="-99"/>
            </Node>
            <Node pos="r" depth="3" NCoef="0" IVar="7" Cut="7.0000000000000000e+00" cType="1" res="0.0000000000000000e+00" rms="0.0000000000000000e+00" purity="7.3343023657798767e-02" nType="0">
              <Node pos="l" depth="4" NCoef="0" IVar="5" Cut="1.3884422779083252e+00" cType="1" res="-9.2820990830659866e-03" rms="2.2926296293735504e-01" purity="6.2601216137409210e-02" nType="0">
                <Node pos="l" depth="5" NCoef="0" IVar="-1" Cut="0.0000000000000000e+00" cType="1" res="-4.8705970402806997e-04" rms="2.7014166116714478e-01" purity="8.9585930109024048e-02" nType="-99"/>
                <Node pos="r" depth="5" NCoef="0" IVar="-1" Cut="0.0000000000000000e+00" cType="1" res="-9.0334406122565269e-03" rms="1.8579657375812531e-01" purity="3.8888484239578247e-02" nType="-99"/>
              </Node>
              <Node pos="r" depth="4" NCoef="0" IVar="-1" Cut="0.0000000000000000e+00" cType="1" res="6.8235737271606922e-03" rms="2.8189653158187866e-01" purity="9.5557525753974915e-02" nType="-99"/>
            </Node>
          </Node>
          <Node pos="r" depth="2" NCoef="0" IVar="-1" Cut="0.0000000000000000e+00" cType="1" res="-5.9724734164774418e-03" rms="4.1440600156784058e-01" purity="2.6827386021614075e-01" nType="-99"/>
        </Node>
      </Node>
    </BinaryTree>
    <BinaryTree type="DecisionTree" boostWeight="1.0000000000000000e+00" itree="91">
      <Node pos="s" depth="0" NCoef="0" IVar="1" Cut="4.6526150703430176e+00" cType="1" res="3.6498154513537884e-03" rms="4.0442225337028503e-01" purity="4.9975380301475525e-01" nType="0">
        <Node pos="l" depth="1" NCoef="0" IVar="1" Cut="4.1491055488586426e-01" cType="1" res="2.9705772176384926e-03" rms="4.0490263700485229e-01" purity="5.0128102302551270e-01" nType="0">
          <Node pos="l" depth="2" NCoef="0" IVar="5" Cut="-2.6135432720184326e+00" cType="1" res="7.4642249383032322e-03" rms="4.1320490837097168e-01" purity="5.5786615610122681e-01" nType="0">
            <Node pos="l" depth="3" NCoef="0" IVar="0" Cut="1.6960126161575317e+00" cType="1" res="1.4187192544341087e-02" rms="3.9928376674652100e-01" purity="6.6551584005355835e-01" nType="0">
              <Node pos="l" depth="4" NCoef="0" IVar="7" Cut="4.0000000000000000e+00" cType="1" res="1.6209173947572708e-02" rms="4.0243294835090637e-01" purity="6.9039183855056763e-01" nType="0">
                <Node pos="l" depth="5" NCoef="0" IVar="0" Cut="5.4650211334228516e-01" cType="1" res="1.3134677894413471e-02" rms="3.9998102188110352e-01" purity="7.4657356739044189e-01" nType="0">
                  <Node pos="l" depth="6" NCoef="0" IVar="0" Cut="2.9962763190269470e-01" cType="1" res="1.5328251756727695e-02" rms="3.9822095632553101e-01" purity="7.7653700113296509e-01" nType="0">
                    <Node pos="l" depth="7" NCoef="0" IVar="-1" Cut="0.0000000000000000e+00" cType="1" res="1.9904193468391895e-03" rms="3.9000004529953003e-01" purity="7.9845815896987915e-01" nType="-99"/>
                    <Node pos="r" depth="7" NCoef="0" IVar="-1" Cut="0.0000000000000000e+00" cType="1" res="-1.1581155558815226e-04" rms="4.7910097241401672e-01" purity="5.3547441959381104e-01" nType="-99"/>
                  </Node>
                  <Node pos="r" depth="6" NCoef="0" IVar="-1" Cut="0.0000000000000000e+00" cType="1" res="-2.3141007404774427e-03" rms="4.2367610335350037e-01" purity="3.0670583248138428e-01" nType="-99"/>
                </Node>
                <Node pos="r" depth="5" NCoef="0" IVar="4" Cut="-8.4786999225616455e-01" cType="1" res="3.4210875630378723e-02" rms="4.2873904109001160e-01" purity="3.2363092899322510e-01" nType="0">
                  <Node pos="l" depth="6" NCoef="0" IVar="-1" Cut="0.0000000000000000e+00" cType="1" res="2.1311596501618624e-03" rms="4.2369976639747620e-01" purity="3.1940859556198120e-01" nType="-99"/>
                  <Node pos="r" depth="6" NCoef="0" IVar="-1" Cut="0.0000000000000000e+00" cType="1" res="7.2443978860974312e-03" rms="4.3321055173873901e-01" purity="3.2813128829002380e-01" nType="-99"/>
                </Node>
              </Node>
              <Node pos="r" depth="4" NCoef="0" IVar="-1" Cut="0.0000000000000000e+00" cType="1" res="-9.4009554013609886e-03" rms="2.6060616970062256e-01" purity="7.4207030236721039e-02" nType="-99"/>
            </Node>
            <Node pos="r" depth="3" NCoef="0" IVar="4" Cut="2.7030386924743652e+00" cType="1" res="3.5055808257311583e-03" rms="4.2113664746284485e-01" purity="4.9447941780090332e-01" nType="0">
              <Node pos="l" depth="4" NCoef="0" IVar="4" Cut="-2.2240989208221436e+00" cType="1" res="4.7897482290863991e-03" rms="4.3085989356040955e-01" purity="5.2180713415145874e-01" nType="0">
                <Node pos="l" depth="5" NCoef="0" IVar="3" Cut="7.7166581153869629e-01" cType="1" res="2.3613743484020233e-02" rms="4.4750365614891052e-01" purity="6.7897838354110718e-01" nType="0">
                  <Node pos="l" depth="6" NCoef="0" IVar="-1" Cut="0.0000000000000000e+00" cType="1" res="3.6958823911845684e-03" rms="4.7300952672958374e-01" purity="5.4758900403976440e-01" nType="-99"/>
                  <Node pos="r" depth="6" NCoef="0" IVar="5" Cut="-2.2845938205718994e+00" cType="1" res="1.6691310331225395e-02" rms="4.3635335564613342e-01" purity="7.3321217298507690e-01" nType="0">
                    <Node pos="l" depth="7" NCoef="0" IVar="-1" Cut="0.0000000000000000e+00" cType="1" res="2.7144721243530512e-03" rms="4.1491356492042542e-01" purity="7.7102255821228027e-01" nType="-99"/>
                    <Node pos="r" depth="7" NCoef="0" IVar="-1" Cut="0.0000000000000000e+00" cType="1" res="1.0486121755093336e-03" rms="4.4966414570808411e-01" purity="7.0859855413436890e-01" nType="-99"/>
                  </Node>
                </Node>
                <Node pos="r" depth="5" NCoef="0" IVar="2" Cut="4.9922384643554688e+02" cType="1" res="2.1863090805709362e-03" rms="4.2844200134277344e-01" purity="5.0006967782974243e-01" nType="0">
                  <Node pos="l" depth="6" NCoef="0" IVar="2" Cut="4.0259368896484375e+02" cType="1" res="3.6864024586975574e-03" rms="4.3235078454017639e-01" purity="5.2438461780548096e-01" nType="0">
                    <Node pos="l" depth="7" NCoef="0" IVar="-1" Cut="0.0000000000000000e+00" cType="1" res="5.1359622739255428e-04" rms="4.3439802527427673e-01" purity="5.3680902719497681e-01" nType="-99"/>
                    <Node pos="r" depth="7" NCoef="0" IVar="-1" Cut="0.0000000000000000e+00" cType="1" res="-2.9986849986016750e-03" rms="3.8128253817558289e-01" purity="2.3745101690292358e-01" nType="-99"/>
                  </Node>
                  <Node pos="r" depth="6" NCoef="0" IVar="3" Cut="4.3928360939025879e-01" cType="1" res="-1.6092980280518532e-02" rms="3.7709587812423706e-01" purity="2.0378175377845764e-01" nType="0">
                    <Node pos="l" depth="7" NCoef="0" IVar="-1" Cut="0.0000000000000000e+00" cType="1" res="-2.2630223538726568e-03" rms="3.3806404471397400e-01" purity="1.4307415485382080e-01" nType="-99"/>
                    <Node pos="r" depth="7" NCoef="0" IVar="-1" Cut="0.0000000000000000e+00" cType="1" res="-3.0032135546207428e-03" rms="4.4041910767555237e-01" purity="3.1669449806213379e-01" nType="-99"/>
                  </Node>
                </Node>
              </Node>
              <Node pos="r" depth="4" NCoef="0" IVar="3" Cut="2.8919222950935364e-01" cType="1" res="-1.7521278932690620e-02" rms="2.0308242738246918e-01" purity="4.7016985714435577e-02" nType="0">
                <Node pos="l" depth="5" NCoef="0" IVar="-1" Cut="0.0000000000000000e+00" cType="1" res="4.2898748070001602e-03" rms="2.4806505441665649e-01" purity="7.5905069708824158e-02" nType="-99"/>
                <Node pos="r" depth="5" NCoef="0" IVar="-1" Cut="0.0000000000000000e+00" cType="1" res="-1.6627121716737747e-02" rms="1.6622783243656158e-01" purity="2.8703106567263603e-02" nType="-99"/>
              </Node>
            </Node>
          </Node>
          <Node pos="r" depth="2" NCoef="0" IVar="1" Cut="9.6094620227813721e-01" cType="1" res="-1.1194395832717419e-02" rms="3.7718895077705383e-01" purity="3.2291224598884583e-01" nType="0">
            <Node pos="l" depth="3" NCoef="0" IVar="1" Cut="5.7343316078186035e-01" cType="1" res="-6.7485583713278174e-04" rms="3.8994827866554260e-01" purity="3.7231430411338806e-01" nType="0">
              <Node pos="l" depth="4" NCoef="0" IVar="4" Cut="9.3650895357131958e-01" cType="1" res="8.3315782248973846e-03" rms="4.0129324793815613e-01" purity="4.2242416739463806e-01" nType="0">
                <Node pos="l" depth="5" NCoef="0" IVar="4" Cut="-7.3793143033981323e-01" cType="1" res="1.2114432640373707e-02" rms="4.2117521166801453e-01" purity="4.8079544305801392e-01" nType="0">
                  <Node pos="l" depth="6" NCoef="0" IVar="1" Cut="4.9672025442123413e-01" cType="1" res="-9.7259465837851167e-04" rms="4.3782591819763184e-01" purity="4.9755164980888367e-01" nType="0">
                    <Node pos="l" depth="7" NCoef="0" IVar="-1" Cut="0.0000000000000000e+00" cType="1" res="-1.4778716722503304e-03" rms="4.3849623203277588e-01" purity="4.9261841177940369e-01" nType="-99"/>
                    <Node pos="r" depth="7" NCoef="0" IVar="-1" Cut="0.0000000000000000e+00" cType="1" res="1.6859293682500720e-03" rms="4.3634006381034851e-01" purity="5.0413507223129272e-01" nType="-99"/>
                  </Node>
                  <Node pos="r" depth="6" NCoef="0" IVar="1" Cut="4.8138365149497986e-01" cType="1" res="2.3516774177551270e-02" rms="4.0576785802841187e-01" purity="4.6619623899459839e-01" nType="0">
                    <Node pos="l" depth="7" NCoef="0" IVar="-1" Cut="0.0000000000000000e+00" cType="1" res="4.2900727130472660e-03" rms="4.0691244602203369e-01" purity="4.8583394289016724e-01" nType="-99"/>
                    <Node pos="r" depth="7" NCoef="0" IVar="-1" Cut="0.0000000000000000e+00" cType="1" res="1.8293339526280761e-03" rms="4.0447402000427246e-01" purity="4.4816562533378601e-01" nType="-99"/>
                  </Node>
                </Node>
                <Node pos="r" depth="5" NCoef="0" IVar="-1" Cut="0.0000000000000000e+00" cType="1" res="-4.2227343656122684e-03" rms="2.6184785366058350e-01" purity="9.4237506389617920e-02" nType="-99"/>
              </Node>
              <Node pos="r" depth="4" NCoef="0" IVar="7" Cut="2.0000000000000000e+00" cType="1" res="0.0000000000000000e+00" rms="0.0000000000000000e+00" purity="3.3442121744155884e-01" nType="0">
                <Node pos="l" depth="5" NCoef="0" IVar="-1" Cut="0.0000000000000000e+00" cType="1" res="6.1172468122094870e-04" rms="4.4093066453933716e-01" purity="7.0812749862670898e-01" nType="-99"/>
                <Node pos="r" depth="5" NCoef="0" IVar="1" Cut="7.1093314886093140e-01" cType="1" res="-1.1193078011274338e-02" rms="3.6347278952598572e-01" purity="2.3590025305747986e-01" nType="0">
                  <Node pos="l" depth="6" NCoef="0" IVar="7" Cut="4.0000000000000000e+00" cType="1" res="-1.9158909097313881e-02" rms="3.6878523230552673e-01" purity="2.4788701534271240e-01" nType="0">
                    <Node pos="l" depth="7" NCoef="0" IVar="-1" Cut="0.0000000000000000e+00" cType="1" res="-3.2739702146500349e-03" rms="4.3646109104156494e-01" purity="3.8713866472244263e-01" nType="-99"/>
                    <Node pos="r" depth="7" NCoef="0" IVar="-1" Cut="0.0000000000000000e+00" cType="1" res="-2.4230405688285828e-03" rms="2.9007717967033386e-01" purity="1.1590368300676346e-01" nType="-99"/>
                  </Node>
                  <Node pos="r" depth="6" NCoef="0" IVar="1" Cut="8.4803736209869385e-01" cType="1" res="-4.9417461268603802e-03" rms="3.5912501811981201e-01" purity="2.2649346292018890e-01" nType="0">
                    <Node pos="l" depth="7" NCoef="0" IVar="-1" Cut="0.0000000000000000e+00" cType="1" res="9.0300256852060556e-04" rms="3.6836403608322144e-01" purity="2.4385635554790497e-01" nType="-99"/>
                    <Node pos="r" depth="7" NCoef="0" IVar="-1" Cut="0.0000000000000000e+00" cType="1" res="-3.7448825314640999e-03" rms="3.4352850914001465e-01" purity="1.9930437207221985e-01" nType="-99"/>
                  </Node>
                </Node>
              </Node>
            </Node>
            <Node pos="r" depth="3" NCoef="0" IVar="3" Cut="4.8618206381797791e-01" cType="1" res="-3.0595550313591957e-02" rms="3.5162299871444702e-01" purity="2.3180012404918671e-01" nType="0">
              <Node pos="l" depth="4" NCoef="0" IVar="3" Cut="3.4843528270721436e-01" cType="1" res="-1.2434712611138821e-02" rms="2.3087331652641296e-01" purity="5.9725668281316757e-02" nType="0">
                <Node pos="l" depth="5" NCoef="0" IVar="7" Cut="6.0000000000000000e+00" cType="1" res="-7.9334247857332230e-03" rms="2.2087372839450836e-01" purity="5.4428331553936005e-02" nType="0">
                  <Node pos="l" depth="6" NCoef="0" IVar="-1" Cut="0.0000000000000000e+00" cType="1" res="2.8550860588438809e-04" rms="2.5437927246093750e-01" purity="7.3664106428623199e-02" nType="-99"/>
                  <Node pos="r" depth="6" NCoef="0" IVar="-1" Cut="0.0000000000000000e+00" cType="1" res="-8.5703115910291672e-03" rms="1.9071757793426514e-01" purity="3.9555530995130539e-02" nType="-99"/>
                </Node>
                <Node pos="r" depth="5" NCoef="0" IVar="-1" Cut="0.0000000000000000e+00" cType="1" res="-8.0037852749228477e-03" rms="2.5512987375259399e-01" purity="7.3781125247478485e-02" nType="-99"/>
              </Node>
              <Node pos="r" depth="4" NCoef="0" IVar="1" Cut="1.4361026287078857e+00" cType="1" res="-5.0118193030357361e-02" rms="4.4554856419563293e-01" purity="4.1677772998809814e-01" nType="0">
                <Node pos="l" depth="5" NCoef="0" IVar="1" Cut="1.1449861526489258e+00" cType="1" res="-3.4139178693294525e-02" rms="4.4601255655288696e-01" purity="4.3463724851608276e-01" nType="0">
                  <Node pos="l" depth="6" NCoef="0" IVar="-1" Cut="0.0000000000000000e+00" cType="1" res="-3.6808948498219252e-03" rms="4.4632726907730103e-01" purity="4.4165629148483276e-01" nType="-99"/>
                  <Node pos="r" depth="6" NCoef="0" IVar="-1" Cut="0.0000000000000000e+00" cType="1" res="-3.1177222263067961e-03" rms="4.4566300511360168e-01" purity="4.2712327837944031e-01" nType="-99"/>
                </Node>
                <Node pos="r" depth="5" NCoef="0" IVar="-1" Cut="0.0000000000000000e+00" cType="1" res="-7.1521154604852200e-03" rms="4.4426476955413818e-01" purity="3.9574015140533447e-01" nType="-99"/>
              </Node>
            </Node>
          </Node>
        </Node>
        <Node pos="r" depth="1" NCoef="0" IVar="-1" Cut="0.0000000000000000e+00" cType="1" res="8.6014717817306519e-03" rms="3.5843980312347412e-01" purity="3.7433877587318420e-01" nType="-99"/>
      </Node>
    </BinaryTree>
    <BinaryTree type="DecisionTree" boostWeight="1.0000000000000000e+00" itree="92">
      <Node pos="s" depth="0" NCoef="0" IVar="4" Cut="2.1308875083923340e+00" cType="1" res="2.8702090494334698e-03" rms="4.0612018108367920e-01" purity="4.9948579072952271e-01" nType="0">
        <Node pos="l" depth="1" NCoef="0" IVar="4" Cut="-2.6150510311126709e+00" cType="1" res="4.0515698492527008e-03" rms="4.1548144817352295e-01" purity="5.2824777364730835e-01" nType="0">
          <Node pos="l" depth="2" NCoef="0" IVar="3" Cut="6.7082512378692627e-01" cType="1" res="2.3494875058531761e-02" rms="4.2641487717628479e-01" purity="6.8080908060073853e-01" nType="0">
            <Node pos="l" depth="3" NCoef="0" IVar="-1" Cut="0.0000000000000000e+00" cType="1" res="6.5952185541391373e-03" rms="4.2637917399406433e-01" purity="3.3317151665687561e-01" nType="-99"/>
            <Node pos="r" depth="3" NCoef="0" IVar="3" Cut="9.1471463441848755e-01" cType="1" res="1.8241051584482193e-02" rms="4.2622026801109314e-01" purity="7.4736541509628296e-01" nType="0">
              <Node pos="l" depth="4" NCoef="0" IVar="4" Cut="-2.9530708789825439e+00" cType="1" res="1.2800377793610096e-02" rms="4.3503969907760620e-01" purity="7.3189407587051392e-01" nType="0">
                <Node pos="l" depth="5" NCoef="0" IVar="-1" Cut="0.0000000000000000e+00" cType="1" res="2.7763438993133605e-04" rms="4.2978194355964661e-01" purity="7.4029046297073364e-01" nType="-99"/>
                <Node pos="r" depth="5" NCoef="0" IVar="4" Cut="-2.7350318431854248e+00" cType="1" res="1.8770892173051834e-02" rms="4.3793398141860962e-01" purity="7.2704863548278809e-01" nType="0">
                  <Node pos="l" depth="6" NCoef="0" IVar="-1" Cut="0.0000000000000000e+00" cType="1" res="3.0877490062266588e-03" rms="4.2991757392883301e-01" purity="7.4570584297180176e-01" nType="-99"/>
                  <Node pos="r" depth="6" NCoef="0" IVar="-1" Cut="0.0000000000000000e+00" cType="1" res="4.8108724877238274e-04" rms="4.4756934046745300e-01" purity="7.0324236154556274e-01" nType="-99"/>
                </Node>
              </Node>
              <Node pos="r" depth="4" NCoef="0" IVar="-1" Cut="0.0000000000000000e+00" cType="1" res="3.7246902938932180e-03" rms="3.9838805794715881e-01" purity="7.9339867830276489e-01" nType="-99"/>
            </Node>
          </Node>
          <Node pos="r" depth="2" NCoef="0" IVar="1" Cut="4.6526150703430176e+00" cType="1" res="2.5736496318131685e-03" rms="4.1460129618644714e-01" purity="5.1665133237838745e-01" nType="0">
            <Node pos="l" depth="3" NCoef="0" IVar="1" Cut="4.1752320528030396e-01" cType="1" res="2.0665095653384924e-03" rms="4.1512769460678101e-01" purity="5.1865518093109131e-01" nType="0">
              <Node pos="l" depth="4" NCoef="0" IVar="5" Cut="-1.8539657592773438e+00" cType="1" res="5.0380090251564980e-03" rms="4.2193606495857239e-01" purity="5.7189911603927612e-01" nType="0">
                <Node pos="l" depth="5" NCoef="0" IVar="4" Cut="-9.3188893795013428e-01" cType="1" res="7.7083455398678780e-03" rms="4.1531050205230713e-01" purity="6.3253867626190186e-01" nType="0">
                  <Node pos="l" depth="6" NCoef="0" IVar="5" Cut="-2.7620065212249756e+00" cType="1" res="1.9407535437494516e-03" rms="4.3582499027252197e-01" purity="6.0160696506500244e-01" nType="0">
                    <Node pos="l" depth="7" NCoef="0" IVar="-1" Cut="0.0000000000000000e+00" cType="1" res="-6.5203336998820305e-04" rms="4.2320677638053894e-01" purity="5.8102750778198242e-01" nType="-99"/>
                    <Node pos="r" depth="7" NCoef="0" IVar="-1" Cut="0.0000000000000000e+00" cType="1" res="7.8151869820430875e-04" rms="4.4518452882766724e-01" purity="6.1741757392883301e-01" nType="-99"/>
                  </Node>
                  <Node pos="r" depth="6" NCoef="0" IVar="7" Cut="4.0000000000000000e+00" cType="1" res="1.6008356213569641e-01" rms="0.0000000000000000e+00" purity="6.5467774868011475e-01" nType="0">
                    <Node pos="l" depth="7" NCoef="0" IVar="-1" Cut="0.0000000000000000e+00" cType="1" res="1.1092755012214184e-03" rms="3.9906322956085205e-01" purity="7.4848783016204834e-01" nType="-99"/>
                    <Node pos="r" depth="7" NCoef="0" IVar="-1" Cut="0.0000000000000000e+00" cType="1" res="3.2798855099827051e-03" rms="4.0324485301971436e-01" purity="2.7693712711334229e-01" nType="-99"/>
                  </Node>
                </Node>
                <Node pos="r" depth="5" NCoef="0" IVar="2" Cut="5.6473681640625000e+02" cType="1" res="-7.4694474460557103e-04" rms="4.3588814139366150e-01" purity="4.4053089618682861e-01" nType="0">
                  <Node pos="l" depth="6" NCoef="0" IVar="6" Cut="7.0989742875099182e-02" cType="1" res="7.2948541492223740e-04" rms="4.4035518169403076e-01" purity="4.5947393774986267e-01" nType="0">
                    <Node pos="l" depth="7" NCoef="0" IVar="-1" Cut="0.0000000000000000e+00" cType="1" res="-3.1541276257485151e-04" rms="4.5558094978332520e-01" purity="5.5101621150970459e-01" nType="-99"/>
                    <Node pos="r" depth="7" NCoef="0" IVar="-1" Cut="0.0000000000000000e+00" cType="1" res="9.5768610481172800e-04" rms="4.1347530484199524e-01" purity="3.0590879917144775e-01" nType="-99"/>
                  </Node>
                  <Node pos="r" depth="6" NCoef="0" IVar="-1" Cut="0.0000000000000000e+00" cType="1" res="-3.5707135684788227e-03" rms="3.6869731545448303e-01" purity="1.8102532625198364e-01" nType="-99"/>
                </Node>
              </Node>
              <Node pos="r" depth="4" NCoef="0" IVar="1" Cut="8.2707095146179199e-01" cType="1" res="-7.5497953221201897e-03" rms="3.9213123917579651e-01" purity="3.4634843468666077e-01" nType="0">
                <Node pos="l" depth="5" NCoef="0" IVar="3" Cut="5.3609168529510498e-01" cType="1" res="3.0379663221538067e-03" rms="4.0568655729293823e-01" purity="4.0837857127189636e-01" nType="0">
                  <Node pos="l" depth="6" NCoef="0" IVar="1" Cut="5.4963767528533936e-01" cType="1" res="-7.6792808249592781e-03" rms="2.9962837696075439e-01" purity="1.0868449509143829e-01" nType="0">
                    <Node pos="l" depth="7" NCoef="0" IVar="-1" Cut="0.0000000000000000e+00" cType="1" res="1.8840746488422155e-03" rms="3.2429495453834534e-01" purity="1.3126218318939209e-01" nType="-99"/>
                    <Node pos="r" depth="7" NCoef="0" IVar="-1" Cut="0.0000000000000000e+00" cType="1" res="-5.0404258072376251e-03" rms="2.8199297189712524e-01" purity="9.3990370631217957e-02" nType="-99"/>
                  </Node>
                  <Node pos="r" depth="6" NCoef="0" IVar="4" Cut="-3.1868845224380493e-01" cType="1" res="9.3239117413759232e-03" rms="4.5645308494567871e-01" purity="5.8415699005126953e-01" nType="0">
                    <Node pos="l" depth="7" NCoef="0" IVar="-1" Cut="0.0000000000000000e+00" cType="1" res="2.2891032858751714e-04" rms="4.6531972289085388e-01" purity="5.8123928308486938e-01" nType="-99"/>
                    <Node pos="r" depth="7" NCoef="0" IVar="-1" Cut="0.0000000000000000e+00" cType="1" res="2.0219478756189346e-03" rms="4.4292452931404114e-01" purity="5.8844113349914551e-01" nType="-99"/>
                  </Node>
                </Node>
                <Node pos="r" depth="5" NCoef="0" IVar="3" Cut="5.4042828083038330e-01" cType="1" res="-2.0849136635661125e-02" rms="3.7398511171340942e-01" purity="2.6843208074569702e-01" nType="0">
                  <Node pos="l" depth="6" NCoef="0" IVar="1" Cut="1.6902706623077393e+00" cType="1" res="-7.3811803013086319e-03" rms="2.6365134119987488e-01" purity="7.9829633235931396e-02" nType="0">
                    <Node pos="l" depth="7" NCoef="0" IVar="-1" Cut="0.0000000000000000e+00" cType="1" res="-4.6041077002882957e-03" rms="2.5837084650993347e-01" purity="7.6767504215240479e-02" nType="-99"/>
                    <Node pos="r" depth="7" NCoef="0" IVar="-1" Cut="0.0000000000000000e+00" cType="1" res="2.6698000729084015e-03" rms="2.7648046612739563e-01" purity="8.7836928665637970e-02" nType="-99"/>
                  </Node>
                  <Node pos="r" depth="6" NCoef="0" IVar="1" Cut="1.8115143775939941e+00" cType="1" res="-3.5109933465719223e-02" rms="4.6256229281425476e-01" purity="4.6813729405403137e-01" nType="0">
                    <Node pos="l" depth="7" NCoef="0" IVar="-1" Cut="0.0000000000000000e+00" cType="1" res="-2.0962506532669067e-03" rms="4.6366995573043823e-01" purity="4.8399296402931213e-01" nType="-99"/>
                    <Node pos="r" depth="7" NCoef="0" IVar="-1" Cut="0.0000000000000000e+00" cType="1" res="-7.6281842775642872e-03" rms="4.5614299178123474e-01" purity="4.1473466157913208e-01" nType="-99"/>
                  </Node>
                </Node>
              </Node>
            </Node>
            <Node pos="r" depth="3" NCoef="0" IVar="-1" Cut="0.0000000000000000e+00" cType="1" res="6.5353126265108585e-03" rms="3.6687493324279785e-01" purity="3.5346198081970215e-01" nType="-99"/>
          </Node>
        </Node>
        <Node pos="r" depth="1" NCoef="0" IVar="3" Cut="4.8923507332801819e-01" cType="1" res="-1.5491919592022896e-02" rms="2.1219931542873383e-01" purity="5.2432011812925339e-02" nType="0">
          <Node pos="l" depth="2" NCoef="0" IVar="3" Cut="2.2865784168243408e-01" cType="1" res="-6.6097690723836422e-03" rms="1.8262687325477600e-01" purity="3.8126595318317413e-02" nType="0">
            <Node pos="l" depth="3" NCoef="0" IVar="-1" Cut="0.0000000000000000e+00" cType="1" res="5.2870716899633408e-03" rms="2.5153580307960510e-01" purity="7.8109830617904663e-02" nType="-99"/>
            <Node pos="r" depth="3" NCoef="0" IVar="1" Cut="3.4540298581123352e-01" cType="1" res="-1.3069986365735531e-02" rms="1.4944568276405334e-01" purity="2.3610332980751991e-02" nType="0">
              <Node pos="l" depth="4" NCoef="0" IVar="-1" Cut="0.0000000000000000e+00" cType="1" res="-6.5693641081452370e-03" rms="1.7390744388103485e-01" purity="3.2250866293907166e-02" nType="-99"/>
              <Node pos="r" depth="4" NCoef="0" IVar="-1" Cut="0.0000000000000000e+00" cType="1" res="-1.8367521464824677e-02" rms="1.0539389401674271e-01" purity="1.1396197602152824e-02" nType="-99"/>
            </Node>
          </Node>
          <Node pos="r" depth="2" NCoef="0" IVar="-1" Cut="0.0000000000000000e+00" cType="1" res="-1.0721479542553425e-02" rms="2.9692304134368896e-01" purity="1.0705932974815369e-01" nType="-99"/>
        </Node>
      </Node>
    </BinaryTree>
    <BinaryTree type="DecisionTree" boostWeight="1.0000000000000000e+00" itree="93">
      <Node pos="s" depth="0" NCoef="0" IVar="3" Cut="1.0602499246597290e+00" cType="1" res="3.8414094597101212e-03" rms="4.0474635362625122e-01" purity="5.0106590986251831e-01" nType="0">
        <Node pos="l" depth="1" NCoef="0" IVar="3" Cut="7.1828061342239380e-01" cType="1" res="4.4307135976850986e-03" rms="4.0446048974990845e-01" purity="5.0011026859283447e-01" nType="0">
          <Node pos="l" depth="2" NCoef="0" IVar="6" Cut="1.2383532524108887e-01" cType="1" res="-1.0463524376973510e-03" rms="3.7287309765815735e-01" purity="2.2675625979900360e-01" nType="0">
            <Node pos="l" depth="3" NCoef="0" IVar="7" Cut="3.0000000000000000e+00" cType="1" res="-5.0431685522198677e-03" rms="3.7477141618728638e-01" purity="2.3879864811897278e-01" nType="0">
              <Node pos="l" depth="4" NCoef="0" IVar="4" Cut="1.8137848377227783e-01" cType="1" res="-2.5593869388103485e-02" rms="4.1664037108421326e-01" purity="2.8658044338226318e-01" nType="0">
                <Node pos="l" depth="5" NCoef="0" IVar="5" Cut="-2.3050260543823242e+00" cType="1" res="-1.8681272864341736e-02" rms="4.3395358324050903e-01" purity="3.1779533624649048e-01" nType="0">
                  <Node pos="l" depth="6" NCoef="0" IVar="-1" Cut="0.0000000000000000e+00" cType="1" res="-3.2674639951437712e-03" rms="4.1281008720397949e-01" purity="2.9071611166000366e-01" nType="-99"/>
                  <Node pos="r" depth="6" NCoef="0" IVar="-1" Cut="0.0000000000000000e+00" cType="1" res="-4.6845013275742531e-04" rms="4.6756157279014587e-01" purity="3.6410471796989441e-01" nType="-99"/>
                </Node>
                <Node pos="r" depth="5" NCoef="0" IVar="-1" Cut="0.0000000000000000e+00" cType="1" res="-6.9501167163252831e-03" rms="3.6101263761520386e-01" purity="1.9603270292282104e-01" nType="-99"/>
              </Node>
              <Node pos="r" depth="4" NCoef="0" IVar="3" Cut="4.1733914613723755e-01" cType="1" res="-1.9082222133874893e-03" rms="3.6786282062530518e-01" purity="2.3150733113288879e-01" nType="0">
                <Node pos="l" depth="5" NCoef="0" IVar="5" Cut="-1.8292616605758667e+00" cType="1" res="-1.3191820122301579e-02" rms="2.0369736850261688e-01" purity="4.5459702610969543e-02" nType="0">
                  <Node pos="l" depth="6" NCoef="0" IVar="5" Cut="-3.3359551429748535e+00" cType="1" res="-7.8238314017653465e-03" rms="2.4282625317573547e-01" purity="6.5439105033874512e-02" nType="0">
                    <Node pos="l" depth="7" NCoef="0" IVar="-1" Cut="0.0000000000000000e+00" cType="1" res="-1.5685707330703735e-02" rms="1.7099148035049438e-01" purity="3.0644366517663002e-02" nType="-99"/>
                    <Node pos="r" depth="7" NCoef="0" IVar="-1" Cut="0.0000000000000000e+00" cType="1" res="-5.7897868100553751e-04" rms="2.5864312052726746e-01" purity="7.4946932494640350e-02" nType="-99"/>
                  </Node>
                  <Node pos="r" depth="6" NCoef="0" IVar="4" Cut="2.0502464771270752e+00" cType="1" res="-1.8529670313000679e-02" rms="1.5511798858642578e-01" purity="2.5592466816306114e-02" nType="0">
                    <Node pos="l" depth="7" NCoef="0" IVar="-1" Cut="0.0000000000000000e+00" cType="1" res="-1.2022405862808228e-02" rms="1.8420118093490601e-01" purity="3.6463052034378052e-02" nType="-99"/>
                    <Node pos="r" depth="7" NCoef="0" IVar="-1" Cut="0.0000000000000000e+00" cType="1" res="-1.6425343230366707e-02" rms="1.0201086103916168e-01" purity="1.0604002512991428e-02" nType="-99"/>
                  </Node>
                </Node>
                <Node pos="r" depth="5" NCoef="0" IVar="6" Cut="5.2147008478641510e-02" cType="1" res="4.8288344405591488e-03" rms="4.3729239702224731e-01" purity="3.4259009361267090e-01" nType="0">
                  <Node pos="l" depth="6" NCoef="0" IVar="2" Cut="3.9143676757812500e+01" cType="1" res="-6.4301388338208199e-03" rms="4.3377199769020081e-01" purity="3.2316473126411438e-01" nType="0">
                    <Node pos="l" depth="7" NCoef="0" IVar="-1" Cut="0.0000000000000000e+00" cType="1" res="2.9249479994177818e-03" rms="4.5900318026542664e-01" purity="4.0042123198509216e-01" nType="-99"/>
                    <Node pos="r" depth="7" NCoef="0" IVar="-1" Cut="0.0000000000000000e+00" cType="1" res="-2.2420620080083609e-03" rms="4.2438909411430359e-01" purity="2.9737454652786255e-01" nType="-99"/>
                  </Node>
                  <Node pos="r" depth="6" NCoef="0" IVar="2" Cut="1.1662191772460938e+02" cType="1" res="9.8684635013341904e-03" rms="4.3876543641090393e-01" purity="3.5128512978553772e-01" nType="0">
                    <Node pos="l" depth="7" NCoef="0" IVar="-1" Cut="0.0000000000000000e+00" cType="1" res="2.6416839100420475e-03" rms="4.6088609099388123e-01" purity="4.3306750059127808e-01" nType="-99"/>
                    <Node pos="r" depth="7" NCoef="0" IVar="-1" Cut="0.0000000000000000e+00" cType="1" res="4.3737873784266412e-04" rms="4.2986342310905457e-01" purity="3.2010719180107117e-01" nType="-99"/>
                  </Node>
                </Node>
              </Node>
            </Node>
            <Node pos="r" depth="3" NCoef="0" IVar="7" Cut="3.0000000000000000e+00" cType="1" res="1.3600486516952515e-01" rms="1.8809972703456879e-01" purity="2.0147745311260223e-01" nType="0">
              <Node pos="l" depth="4" NCoef="0" IVar="-1" Cut="0.0000000000000000e+00" cType="1" res="4.2515504173934460e-03" rms="4.5328968763351440e-01" purity="3.5289889574050903e-01" nType="-99"/>
              <Node pos="r" depth="4" NCoef="0" IVar="3" Cut="4.6277749538421631e-01" cType="1" res="4.6961363404989243e-03" rms="3.5999324917793274e-01" purity="1.8781869113445282e-01" nType="0">
                <Node pos="l" depth="5" NCoef="0" IVar="2" Cut="9.3833398437500000e+02" cType="1" res="-6.3607812626287341e-04" rms="3.2696053385734558e-01" purity="1.3481861352920532e-01" nType="0">
                  <Node pos="l" depth="6" NCoef="0" IVar="2" Cut="5.4397613525390625e+02" cType="1" res="-4.1856816969811916e-03" rms="3.1823757290840149e-01" purity="1.2639230489730835e-01" nType="0">
                    <Node pos="l" depth="7" NCoef="0" IVar="-1" Cut="0.0000000000000000e+00" cType="1" res="3.8402676000259817e-04" rms="3.2256811857223511e-01" purity="1.3129062950611115e-01" nType="-99"/>
                    <Node pos="r" depth="7" NCoef="0" IVar="-1" Cut="0.0000000000000000e+00" cType="1" res="-3.9023198187351227e-03" rms="3.0905684828758240e-01" purity="1.1656893044710159e-01" nType="-99"/>
                  </Node>
                  <Node pos="r" depth="6" NCoef="0" IVar="-1" Cut="0.0000000000000000e+00" cType="1" res="4.8849200829863548e-03" rms="3.8677969574928284e-01" purity="2.0001740753650665e-01" nType="-99"/>
                </Node>
                <Node pos="r" depth="5" NCoef="0" IVar="3" Cut="5.2024447917938232e-01" cType="1" res="2.4004779756069183e-02" rms="4.5966276526451111e-01" purity="3.7973889708518982e-01" nType="0">
                  <Node pos="l" depth="6" NCoef="0" IVar="-1" Cut="0.0000000000000000e+00" cType="1" res="3.5101044923067093e-03" rms="4.4765666127204895e-01" purity="3.1645143032073975e-01" nType="-99"/>
                  <Node pos="r" depth="6" NCoef="0" IVar="-1" Cut="0.0000000000000000e+00" cType="1" res="2.0406530238687992e-03" rms="4.6755385398864746e-01" purity="4.2240723967552185e-01" nType="-99"/>
                </Node>
              </Node>
            </Node>
          </Node>
          <Node pos="r" depth="2" NCoef="0" IVar="0" Cut="5.5945098400115967e-01" cType="1" res="8.9048491790890694e-03" rms="4.2848750948905945e-01" purity="7.2340911626815796e-01" nType="0">
            <Node pos="l" depth="3" NCoef="0" IVar="0" Cut="2.7064847946166992e-01" cType="1" res="1.0152425616979599e-02" rms="4.2693743109703064e-01" purity="7.3189622163772583e-01" nType="0">
              <Node pos="l" depth="4" NCoef="0" IVar="5" Cut="-2.8391363620758057e+00" cType="1" res="1.2025943025946617e-02" rms="4.2241737246513367e-01" purity="7.4498617649078369e-01" nType="0">
                <Node pos="l" depth="5" NCoef="0" IVar="4" Cut="-1.4435450732707977e-01" cType="1" res="2.2024668753147125e-02" rms="3.8108891248703003e-01" purity="8.1604248285293579e-01" nType="0">
                  <Node pos="l" depth="6" NCoef="0" IVar="4" Cut="-5.2671903371810913e-01" cType="1" res="2.4346698075532913e-02" rms="3.8495483994483948e-01" purity="8.1065398454666138e-01" nType="0">
                    <Node pos="l" depth="7" NCoef="0" IVar="-1" Cut="0.0000000000000000e+00" cType="1" res="2.3889902513474226e-03" rms="3.9618358016014099e-01" purity="7.9584378004074097e-01" nType="-99"/>
                    <Node pos="r" depth="7" NCoef="0" IVar="-1" Cut="0.0000000000000000e+00" cType="1" res="4.4956393539905548e-03" rms="3.4534487128257751e-01" purity="8.5932713747024536e-01" nType="-99"/>
                  </Node>
                  <Node pos="r" depth="6" NCoef="0" IVar="4" Cut="6.5563015639781952e-02" cType="1" res="1.2773751281201839e-02" rms="3.6513465642929077e-01" purity="8.3751034736633301e-01" nType="0">
                    <Node pos="l" depth="7" NCoef="0" IVar="-1" Cut="0.0000000000000000e+00" cType="1" res="2.4276615586131811e-03" rms="3.5927578806877136e-01" purity="8.4542351961135864e-01" nType="-99"/>
                    <Node pos="r" depth="7" NCoef="0" IVar="-1" Cut="0.0000000000000000e+00" cType="1" res="8.9418760035187006e-04" rms="3.7322571873664856e-01" purity="8.2624864578247070e-01" nType="-99"/>
                  </Node>
                </Node>
                <Node pos="r" depth="5" NCoef="0" IVar="1" Cut="1.0479840040206909e+00" cType="1" res="7.3865936137735844e-03" rms="4.4020074605941772e-01" purity="7.1201646327972412e-01" nType="0">
                  <Node pos="l" depth="6" NCoef="0" IVar="3" Cut="8.1756651401519775e-01" cType="1" res="8.8112335652112961e-03" rms="4.3798968195915222e-01" purity="7.1973335742950439e-01" nType="0">
                    <Node pos="l" depth="7" NCoef="0" IVar="-1" Cut="0.0000000000000000e+00" cType="1" res="1.5452536754310131e-03" rms="4.6785143017768860e-01" purity="6.4019143581390381e-01" nType="-99"/>
                    <Node pos="r" depth="7" NCoef="0" IVar="-1" Cut="0.0000000000000000e+00" cType="1" res="6.8573775934055448e-04" rms="4.2975243926048279e-01" purity="7.4068254232406616e-01" nType="-99"/>
                  </Node>
                  <Node pos="r" depth="6" NCoef="0" IVar="-1" Cut="0.0000000000000000e+00" cType="1" res="-2.0484775304794312e-03" rms="4.8478129506111145e-01" purity="5.4413884878158569e-01" nType="-99"/>
                </Node>
              </Node>
              <Node pos="r" depth="4" NCoef="0" IVar="0" Cut="3.8240775465965271e-01" cType="1" res="-1.2418110854923725e-02" rms="4.7746664285659790e-01" purity="5.7420057058334351e-01" nType="0">
                <Node pos="l" depth="5" NCoef="0" IVar="0" Cut="3.2472255825996399e-01" cType="1" res="-3.9366185665130615e-03" rms="4.7471114993095398e-01" purity="5.7940971851348877e-01" nType="0">
                  <Node pos="l" depth="6" NCoef="0" IVar="-1" Cut="0.0000000000000000e+00" cType="1" res="-1.8073617247864604e-03" rms="4.7250518202781677e-01" purity="5.7569158077239990e-01" nType="-99"/>
                  <Node pos="r" depth="6" NCoef="0" IVar="-1" Cut="0.0000000000000000e+00" cType="1" res="1.2065003393217921e-03" rms="4.7671538591384888e-01" purity="5.8386397361755371e-01" nType="-99"/>
                </Node>
                <Node pos="r" depth="5" NCoef="0" IVar="-1" Cut="0.0000000000000000e+00" cType="1" res="-3.0632468406111002e-03" rms="4.8381122946739197e-01" purity="5.6077516078948975e-01" nType="-99"/>
              </Node>
            </Node>
            <Node pos="r" depth="3" NCoef="0" IVar="-1" Cut="0.0000000000000000e+00" cType="1" res="-3.0106843914836645e-03" rms="4.7571849822998047e-01" purity="4.3849220871925354e-01" nType="-99"/>
          </Node>
        </Node>
        <Node pos="r" depth="1" NCoef="0" IVar="-1" Cut="0.0000000000000000e+00" cType="1" res="-4.9562528729438782e-03" rms="4.2644798755645752e-01" purity="5.8744454383850098e-01" nType="-99"/>
      </Node>
    </BinaryTree>
    <BinaryTree type="DecisionTree" boostWeight="1.0000000000000000e+00" itree="94">
      <Node pos="s" depth="0" NCoef="0" IVar="1" Cut="1.4958879351615906e-01" cType="1" res="2.6494998019188643e-03" rms="4.0423217415809631e-01" purity="4.9864935874938965e-01" nType="0">
        <Node pos="l" depth="1" NCoef="0" IVar="2" Cut="1.8824549865722656e+02" cType="1" res="8.9178103953599930e-03" rms="4.1482263803482056e-01" purity="5.8282732963562012e-01" nType="0">
          <Node pos="l" depth="2" NCoef="0" IVar="6" Cut="4.7799374908208847e-02" cType="1" res="1.2477073818445206e-02" rms="4.1872715950012207e-01" purity="6.7517769336700439e-01" nType="0">
            <Node pos="l" depth="3" NCoef="0" IVar="2" Cut="7.2867012023925781e+01" cType="1" res="9.6801929175853729e-03" rms="4.1108405590057373e-01" purity="7.2743725776672363e-01" nType="0">
              <Node pos="l" depth="4" NCoef="0" IVar="6" Cut="2.1585918962955475e-02" cType="1" res="1.2892964296042919e-02" rms="4.0667688846588135e-01" purity="7.5483894348144531e-01" nType="0">
                <Node pos="l" depth="5" NCoef="0" IVar="2" Cut="2.1152828216552734e+01" cType="1" res="9.4054015353322029e-03" rms="3.9967018365859985e-01" purity="7.7480596303939819e-01" nType="0">
                  <Node pos="l" depth="6" NCoef="0" IVar="5" Cut="-2.7354433536529541e+00" cType="1" res="1.2505337595939636e-02" rms="3.9638602733612061e-01" purity="7.9022455215454102e-01" nType="0">
                    <Node pos="l" depth="7" NCoef="0" IVar="-1" Cut="0.0000000000000000e+00" cType="1" res="2.2892495617270470e-03" rms="3.6488232016563416e-01" purity="8.3494925498962402e-01" nType="-99"/>
                    <Node pos="r" depth="7" NCoef="0" IVar="-1" Cut="0.0000000000000000e+00" cType="1" res="8.3381804870441556e-04" rms="4.2180994153022766e-01" purity="7.5134599208831787e-01" nType="-99"/>
                  </Node>
                  <Node pos="r" depth="6" NCoef="0" IVar="-1" Cut="0.0000000000000000e+00" cType="1" res="-3.2207537442445755e-03" rms="4.3598097562789917e-01" purity="5.8673059940338135e-01" nType="-99"/>
                </Node>
                <Node pos="r" depth="5" NCoef="0" IVar="5" Cut="-2.5096197128295898e+00" cType="1" res="2.9609700664877892e-02" rms="4.3832558393478394e-01" purity="6.5913188457489014e-01" nType="0">
                  <Node pos="l" depth="6" NCoef="0" IVar="-1" Cut="0.0000000000000000e+00" cType="1" res="4.2534749954938889e-03" rms="4.1899704933166504e-01" purity="7.1291792392730713e-01" nType="-99"/>
                  <Node pos="r" depth="6" NCoef="0" IVar="4" Cut="-7.5681066513061523e-01" cType="1" res="2.0577179268002510e-02" rms="4.5295545458793640e-01" purity="6.1621159315109253e-01" nType="0">
                    <Node pos="l" depth="7" NCoef="0" IVar="-1" Cut="0.0000000000000000e+00" cType="1" res="2.8092977590858936e-03" rms="4.4662100076675415e-01" purity="7.0280098915100098e-01" nType="-99"/>
                    <Node pos="r" depth="7" NCoef="0" IVar="-1" Cut="0.0000000000000000e+00" cType="1" res="1.1081941192969680e-03" rms="4.5908725261688232e-01" purity="5.2840232849121094e-01" nType="-99"/>
                  </Node>
                </Node>
              </Node>
              <Node pos="r" depth="4" NCoef="0" IVar="0" Cut="3.5398781299591064e-01" cType="1" res="-8.0112488940358162e-03" rms="4.3412694334983826e-01" purity="5.7654720544815063e-01" nType="0">
                <Node pos="l" depth="5" NCoef="0" IVar="6" Cut="3.8735199719667435e-02" cType="1" res="1.0852426057681441e-03" rms="4.4955083727836609e-01" purity="6.8300658464431763e-01" nType="0">
                  <Node pos="l" depth="6" NCoef="0" IVar="1" Cut="-8.3119198679924011e-02" cType="1" res="-5.2496567368507385e-03" rms="4.5012462139129639e-01" purity="6.8061065673828125e-01" nType="0">
                    <Node pos="l" depth="7" NCoef="0" IVar="-1" Cut="0.0000000000000000e+00" cType="1" res="-9.5168291591107845e-04" rms="4.5130398869514465e-01" purity="6.8046259880065918e-01" nType="-99"/>
                    <Node pos="r" depth="7" NCoef="0" IVar="-1" Cut="0.0000000000000000e+00" cType="1" res="-1.0859697067644447e-04" rms="4.4867751002311707e-01" purity="6.8078720569610596e-01" nType="-99"/>
                  </Node>
                  <Node pos="r" depth="6" NCoef="0" IVar="-1" Cut="0.0000000000000000e+00" cType="1" res="1.3604311970993876e-03" rms="4.4818523526191711e-01" purity="6.8764001131057739e-01" nType="-99"/>
                </Node>
                <Node pos="r" depth="5" NCoef="0" IVar="-1" Cut="0.0000000000000000e+00" cType="1" res="-5.7485494762659073e-03" rms="3.7686693668365479e-01" purity="2.2310297191143036e-01" nType="-99"/>
              </Node>
            </Node>
            <Node pos="r" depth="3" NCoef="0" IVar="2" Cut="8.8548988342285156e+01" cType="1" res="2.1589985117316246e-02" rms="4.4259327650070190e-01" purity="5.0490343570709229e-01" nType="0">
              <Node pos="l" depth="4" NCoef="0" IVar="5" Cut="-2.3825316429138184e+00" cType="1" res="3.7541795521974564e-02" rms="4.4851770997047424e-01" purity="5.8626908063888550e-01" nType="0">
                <Node pos="l" depth="5" NCoef="0" IVar="-1" Cut="0.0000000000000000e+00" cType="1" res="4.7319843433797359e-03" rms="4.4011646509170532e-01" purity="6.4700663089752197e-01" nType="-99"/>
                <Node pos="r" depth="5" NCoef="0" IVar="6" Cut="6.4560703933238983e-02" cType="1" res="2.6597788557410240e-02" rms="4.5373806357383728e-01" purity="5.4552268981933594e-01" nType="0">
                  <Node pos="l" depth="6" NCoef="0" IVar="-1" Cut="0.0000000000000000e+00" cType="1" res="1.7815796891227365e-03" rms="4.5006674528121948e-01" purity="5.7342898845672607e-01" nType="-99"/>
                  <Node pos="r" depth="6" NCoef="0" IVar="-1" Cut="0.0000000000000000e+00" cType="1" res="3.1118874903768301e-03" rms="4.5743870735168457e-01" purity="5.1624923944473267e-01" nType="-99"/>
                </Node>
              </Node>
              <Node pos="r" depth="4" NCoef="0" IVar="2" Cut="1.4965751647949219e+02" cType="1" res="1.3023883104324341e-02" rms="4.3913981318473816e-01" purity="4.6121025085449219e-01" nType="0">
                <Node pos="l" depth="5" NCoef="0" IVar="3" Cut="7.1233510971069336e-01" cType="1" res="4.8155034892261028e-03" rms="4.4165417551994324e-01" purity="4.6965348720550537e-01" nType="0">
                  <Node pos="l" depth="6" NCoef="0" IVar="6" Cut="9.3952186405658722e-02" cType="1" res="-2.8902548365294933e-03" rms="4.3428841233253479e-01" purity="3.5294508934020996e-01" nType="0">
                    <Node pos="l" depth="7" NCoef="0" IVar="-1" Cut="0.0000000000000000e+00" cType="1" res="-1.6642785631120205e-03" rms="4.2436426877975464e-01" purity="3.3470800518989563e-01" nType="-99"/>
                    <Node pos="r" depth="7" NCoef="0" IVar="-1" Cut="0.0000000000000000e+00" cType="1" res="1.0131152812391520e-03" rms="4.4474622607231140e-01" purity="3.7319386005401611e-01" nType="-99"/>
                  </Node>
                  <Node pos="r" depth="6" NCoef="0" IVar="-1" Cut="0.0000000000000000e+00" cType="1" res="1.7174828099086881e-03" rms="4.5414683222770691e-01" purity="6.7739844322204590e-01" nType="-99"/>
                </Node>
                <Node pos="r" depth="5" NCoef="0" IVar="5" Cut="-2.1893801689147949e+00" cType="1" res="2.7149854227900505e-02" rms="4.3441572785377502e-01" purity="4.4668006896972656e-01" nType="0">
                  <Node pos="l" depth="6" NCoef="0" IVar="-1" Cut="0.0000000000000000e+00" cType="1" res="4.8683085478842258e-03" rms="4.5300808548927307e-01" purity="5.2496749162673950e-01" nType="-99"/>
                  <Node pos="r" depth="6" NCoef="0" IVar="-1" Cut="0.0000000000000000e+00" cType="1" res="1.4555482193827629e-03" rms="4.1856661438941956e-01" purity="3.8505735993385315e-01" nType="-99"/>
                </Node>
              </Node>
            </Node>
          </Node>
          <Node pos="r" depth="2" NCoef="0" IVar="2" Cut="5.5261315917968750e+02" cType="1" res="-1.6471935668960214e-03" rms="4.0282484889030457e-01" purity="3.0870270729064941e-01" nType="0">
            <Node pos="l" depth="3" NCoef="0" IVar="2" Cut="2.5878158569335938e+02" cType="1" res="7.3283957317471504e-04" rms="4.0798631310462952e-01" purity="3.3436185121536255e-01" nType="0">
              <Node pos="l" depth="4" NCoef="0" IVar="0" Cut="6.0707461833953857e-01" cType="1" res="9.0287998318672180e-03" rms="4.2511612176895142e-01" purity="4.0644362568855286e-01" nType="0">
                <Node pos="l" depth="5" NCoef="0" IVar="6" Cut="7.6590538024902344e-02" cType="1" res="1.8228011205792427e-02" rms="4.6520385146141052e-01" purity="5.3197687864303589e-01" nType="0">
                  <Node pos="l" depth="6" NCoef="0" IVar="-1" Cut="0.0000000000000000e+00" cType="1" res="7.0055958349257708e-04" rms="4.6273696422576904e-01" purity="5.8486831188201904e-01" nType="-99"/>
                  <Node pos="r" depth="6" NCoef="0" IVar="-1" Cut="0.0000000000000000e+00" cType="1" res="3.3092410303652287e-03" rms="4.6805769205093384e-01" purity="4.6122619509696960e-01" nType="-99"/>
                </Node>
                <Node pos="r" depth="5" NCoef="0" IVar="-1" Cut="0.0000000000000000e+00" cType="1" res="-2.5891761761158705e-03" rms="3.1930735707283020e-01" purity="1.3148333132266998e-01" nType="-99"/>
              </Node>
              <Node pos="r" depth="4" NCoef="0" IVar="3" Cut="6.0997301340103149e-01" cType="1" res="-4.1824178770184517e-03" rms="3.9740729331970215e-01" purity="2.9165422916412354e-01" nType="0">
                <Node pos="l" depth="5" NCoef="0" IVar="6" Cut="1.4416176080703735e-01" cType="1" res="-8.3011416718363762e-03" rms="3.5127425193786621e-01" purity="1.7447815835475922e-01" nType="0">
                  <Node pos="l" depth="6" NCoef="0" IVar="4" Cut="-5.2622985839843750e-01" cType="1" res="-1.9150545820593834e-02" rms="3.3425638079643250e-01" purity="1.5542727708816528e-01" nType="0">
                    <Node pos="l" depth="7" NCoef="0" IVar="-1" Cut="0.0000000000000000e+00" cType="1" res="-5.3330226801335812e-03" rms="3.7308055162429810e-01" purity="1.9719743728637695e-01" nType="-99"/>
                    <Node pos="r" depth="7" NCoef="0" IVar="-1" Cut="0.0000000000000000e+00" cType="1" res="-2.4998115841299295e-03" rms="3.0993825197219849e-01" purity="1.3189803063869476e-01" nType="-99"/>
                  </Node>
                  <Node pos="r" depth="6" NCoef="0" IVar="-1" Cut="0.0000000000000000e+00" cType="1" res="1.4838203787803650e-03" rms="3.7503767013549805e-01" purity="2.0339781045913696e-01" nType="-99"/>
                </Node>
                <Node pos="r" depth="5" NCoef="0" IVar="2" Cut="3.2504812622070312e+02" cType="1" res="4.2644878849387169e-03" rms="4.7818493843078613e-01" purity="5.3196531534194946e-01" nType="0">
                  <Node pos="l" depth="6" NCoef="0" IVar="-1" Cut="0.0000000000000000e+00" cType="1" res="6.7290005972608924e-04" rms="4.7648701071739197e-01" purity="5.5687165260314941e-01" nType="-99"/>
                  <Node pos="r" depth="6" NCoef="0" IVar="-1" Cut="0.0000000000000000e+00" cType="1" res="1.7907601431943476e-04" rms="4.7971713542938232e-01" purity="5.0922387838363647e-01" nType="-99"/>
                </Node>
              </Node>
            </Node>
            <Node pos="r" depth="3" NCoef="0" IVar="5" Cut="-1.2149786949157715e+00" cType="1" res="-1.0801471769809723e-02" rms="3.8218545913696289e-01" purity="2.1001036465167999e-01" nType="0">
              <Node pos="l" depth="4" NCoef="0" IVar="-1" Cut="0.0000000000000000e+00" cType="1" res="-3.0433551874011755e-03" rms="4.1516461968421936e-01" purity="2.6282867789268494e-01" nType="-99"/>
              <Node pos="r" depth="4" NCoef="0" IVar="-1" Cut="0.0000000000000000e+00" cType="1" res="7.2922313120216131e-04" rms="3.3753085136413574e-01" purity="1.4618068933486938e-01" nType="-99"/>
            </Node>
          </Node>
        </Node>
        <Node pos="r" depth="1" NCoef="0" IVar="1" Cut="3.6453206539154053e+00" cType="1" res="-5.4374020546674728e-03" rms="3.8999587297439575e-01" purity="3.9004918932914734e-01" nType="0">
          <Node pos="l" depth="2" NCoef="0" IVar="1" Cut="1.0512301921844482e+00" cType="1" res="-6.6132396459579468e-03" rms="3.9088898897171021e-01" purity="3.9212059974670410e-01" nType="0">
            <Node pos="l" depth="3" NCoef="0" IVar="3" Cut="9.9199527502059937e-01" cType="1" res="-2.8220429085195065e-03" rms="3.9755627512931824e-01" purity="4.2314386367797852e-01" nType="0">
              <Node pos="l" depth="4" NCoef="0" IVar="7" Cut="2.0000000000000000e+00" cType="1" res="0.0000000000000000e+00" rms="0.0000000000000000e+00" purity="3.3662810921669006e-01" nType="0">
                <Node pos="l" depth="5" NCoef="0" IVar="-1" Cut="0.0000000000000000e+00" cType="1" res="-2.0960688125342131e-03" rms="4.3810221552848816e-01" purity="7.0572906732559204e-01" nType="-99"/>
                <Node pos="r" depth="5" NCoef="0" IVar="3" Cut="8.6229121685028076e-01" cType="1" res="-4.0142200887203217e-03" rms="3.8870692253112793e-01" purity="3.0836501717567444e-01" nType="0">
                  <Node pos="l" depth="6" NCoef="0" IVar="6" Cut="8.8961571455001831e-02" cType="1" res="-5.4281526245176792e-03" rms="3.8252475857734680e-01" purity="2.7179053425788879e-01" nType="0">
                    <Node pos="l" depth="7" NCoef="0" IVar="-1" Cut="0.0000000000000000e+00" cType="1" res="-1.4274069108068943e-03" rms="4.0087872743606567e-01" purity="3.2880854606628418e-01" nType="-99"/>
                    <Node pos="r" depth="7" NCoef="0" IVar="-1" Cut="0.0000000000000000e+00" cType="1" res="3.6052073119208217e-04" rms="3.5575100779533386e-01" purity="1.9377796351909637e-01" nType="-99"/>
                  </Node>
                  <Node pos="r" depth="6" NCoef="0" IVar="5" Cut="-2.3010764122009277e+00" cType="1" res="1.0856525972485542e-02" rms="4.4832593202590942e-01" purity="6.9302999973297119e-01" nType="0">
                    <Node pos="l" depth="7" NCoef="0" IVar="-1" Cut="0.0000000000000000e+00" cType="1" res="2.1034157834947109e-03" rms="4.2464101314544678e-01" purity="7.5445133447647095e-01" nType="-99"/>
                    <Node pos="r" depth="7" NCoef="0" IVar="-1" Cut="0.0000000000000000e+00" cType="1" res="2.0631637016776949e-04" rms="4.7210970520973206e-01" purity="6.2756109237670898e-01" nType="-99"/>
                  </Node>
                </Node>
              </Node>
              <Node pos="r" depth="4" NCoef="0" IVar="1" Cut="2.6597771048545837e-01" cType="1" res="6.1031719669699669e-03" rms="4.1628277301788330e-01" purity="7.5202268362045288e-01" nType="0">
                <Node pos="l" depth="5" NCoef="0" IVar="-1" Cut="0.0000000000000000e+00" cType="1" res="1.8328564474359155e-03" rms="3.9966669678688049e-01" purity="7.8707456588745117e-01" nType="-99"/>
                <Node pos="r" depth="5" NCoef="0" IVar="5" Cut="-2.0824518203735352e+00" cType="1" res="1.6665287548676133e-03" rms="4.2311573028564453e-01" purity="7.3702436685562134e-01" nType="0">
                  <Node pos="l" depth="6" NCoef="0" IVar="4" Cut="-3.3210521936416626e-01" cType="1" res="9.8027968779206276e-03" rms="4.0766575932502747e-01" purity="7.7955651283264160e-01" nType="0">
                    <Node pos="l" depth="7" NCoef="0" IVar="-1" Cut="0.0000000000000000e+00" cType="1" res="8.3505714428611100e-05" rms="4.2641624808311462e-01" purity="7.4938952922821045e-01" nType="-99"/>
                    <Node pos="r" depth="7" NCoef="0" IVar="-1" Cut="0.0000000000000000e+00" cType="1" res="2.2274823859333992e-03" rms="3.8799250125885010e-01" purity="8.0944812297821045e-01" nType="-99"/>
                  </Node>
                  <Node pos="r" depth="6" NCoef="0" IVar="-1" Cut="0.0000000000000000e+00" cType="1" res="-1.9073514267802238e-03" rms="4.6226614713668823e-01" purity="6.1989665031433105e-01" nType="-99"/>
                </Node>
              </Node>
            </Node>
            <Node pos="r" depth="3" NCoef="0" IVar="3" Cut="3.8214117288589478e-01" cType="1" res="-2.6307722553610802e-02" rms="3.5358700156211853e-01" purity="2.3096130788326263e-01" nType="0">
              <Node pos="l" depth="4" NCoef="0" IVar="7" Cut="7.0000000000000000e+00" cType="1" res="5.0230517983436584e-02" rms="9.9052086472511292e-02" purity="5.5861487984657288e-02" nType="0">
                <Node pos="l" depth="5" NCoef="0" IVar="-1" Cut="0.0000000000000000e+00" cType="1" res="-1.0333211394026875e-03" rms="2.3856435716152191e-01" purity="6.4335100352764130e-02" nType="-99"/>
                <Node pos="r" depth="5" NCoef="0" IVar="-1" Cut="0.0000000000000000e+00" cType="1" res="-8.1187207251787186e-03" rms="1.9577603042125702e-01" purity="4.1027601808309555e-02" nType="-99"/>
              </Node>
              <Node pos="r" depth="4" NCoef="0" IVar="1" Cut="1.8038035631179810e+00" cType="1" res="-4.0777269750833511e-02" rms="4.2322024703025818e-01" purity="3.5868793725967407e-01" nType="0">
                <Node pos="l" depth="5" NCoef="0" IVar="7" Cut="3.0000000000000000e+00" cType="1" res="-3.1695514917373657e-02" rms="4.2176347970962524e-01" purity="3.6027854681015015e-01" nType="0">
                  <Node pos="l" depth="6" NCoef="0" IVar="-1" Cut="0.0000000000000000e+00" cType="1" res="-3.8303486071527004e-03" rms="4.5667213201522827e-01" purity="4.7182694077491760e-01" nType="-99"/>
                  <Node pos="r" depth="6" NCoef="0" IVar="-1" Cut="0.0000000000000000e+00" cType="1" res="-3.1239429954439402e-03" rms="3.6751073598861694e-01" purity="1.9986468553543091e-01" nType="-99"/>
                </Node>
                <Node pos="r" depth="5" NCoef="0" IVar="-1" Cut="0.0000000000000000e+00" cType="1" res="-6.8623893894255161e-03" rms="4.2414870858192444e-01" purity="3.5485288500785828e-01" nType="-99"/>
              </Node>
            </Node>
          </Node>
          <Node pos="r" depth="2" NCoef="0" IVar="-1" Cut="0.0000000000000000e+00" cType="1" res="4.1778497397899628e-03" rms="3.6293762922286987e-01" purity="3.3279150724411011e-01" nType="-99"/>
        </Node>
      </Node>
    </BinaryTree>
    <BinaryTree type="DecisionTree" boostWeight="1.0000000000000000e+00" itree="95">
      <Node pos="s" depth="0" NCoef="0" IVar="2" Cut="1.9370317077636719e+02" cType="1" res="2.5416393764317036e-03" rms="4.0509027242660522e-01" purity="5.0020200014114380e-01" nType="0">
        <Node pos="l" depth="1" NCoef="0" IVar="4" Cut="2.6601331233978271e+00" cType="1" res="5.5388947948813438e-03" rms="4.1547071933746338e-01" purity="5.9541589021682739e-01" nType="0">
          <Node pos="l" depth="2" NCoef="0" IVar="6" Cut="8.8575437664985657e-02" cType="1" res="6.3119810074567795e-03" rms="4.1942140460014343e-01" purity="6.0817277431488037e-01" nType="0">
            <Node pos="l" depth="3" NCoef="0" IVar="2" Cut="8.1228836059570312e+01" cType="1" res="4.6753147616982460e-03" rms="4.1942009329795837e-01" purity="6.3268524408340454e-01" nType="0">
              <Node pos="l" depth="4" NCoef="0" IVar="6" Cut="2.8572499752044678e-02" cType="1" res="8.8435905054211617e-03" rms="4.1795927286148071e-01" purity="6.8904978036880493e-01" nType="0">
                <Node pos="l" depth="5" NCoef="0" IVar="2" Cut="5.5007034301757812e+01" cType="1" res="5.7530933991074562e-03" rms="4.1283792257308960e-01" purity="7.3032355308532715e-01" nType="0">
                  <Node pos="l" depth="6" NCoef="0" IVar="4" Cut="-1.1243011951446533e+00" cType="1" res="7.1664093993604183e-03" rms="4.1186428070068359e-01" purity="7.4035936594009399e-01" nType="0">
                    <Node pos="l" depth="7" NCoef="0" IVar="-1" Cut="0.0000000000000000e+00" cType="1" res="-1.6653898637741804e-04" rms="4.3969732522964478e-01" purity="6.9205456972122192e-01" nType="-99"/>
                    <Node pos="r" depth="7" NCoef="0" IVar="-1" Cut="0.0000000000000000e+00" cType="1" res="1.2526323553174734e-03" rms="4.0024045109748840e-01" purity="7.5950908660888672e-01" nType="-99"/>
                  </Node>
                  <Node pos="r" depth="6" NCoef="0" IVar="-1" Cut="0.0000000000000000e+00" cType="1" res="-2.8746088501065969e-03" rms="4.3208849430084229e-01" purity="5.1500266790390015e-01" nType="-99"/>
                </Node>
                <Node pos="r" depth="5" NCoef="0" IVar="4" Cut="-2.3878717422485352e+00" cType="1" res="2.0209301263093948e-02" rms="4.3608865141868591e-01" purity="5.3726023435592651e-01" nType="0">
                  <Node pos="l" depth="6" NCoef="0" IVar="-1" Cut="0.0000000000000000e+00" cType="1" res="4.9004885368049145e-03" rms="4.3099874258041382e-01" purity="7.4066781997680664e-01" nType="-99"/>
                  <Node pos="r" depth="6" NCoef="0" IVar="1" Cut="4.0211838483810425e-01" cType="1" res="1.5755517408251762e-02" rms="4.3663585186004639e-01" purity="5.0798356533050537e-01" nType="0">
                    <Node pos="l" depth="7" NCoef="0" IVar="-1" Cut="0.0000000000000000e+00" cType="1" res="2.4182703346014023e-03" rms="4.5159941911697388e-01" purity="5.8665406703948975e-01" nType="-99"/>
                    <Node pos="r" depth="7" NCoef="0" IVar="-1" Cut="0.0000000000000000e+00" cType="1" res="-1.9396197749301791e-03" rms="3.8593161106109619e-01" purity="2.6786422729492188e-01" nType="-99"/>
                  </Node>
                </Node>
              </Node>
              <Node pos="r" depth="4" NCoef="0" IVar="6" Cut="4.5263763517141342e-02" cType="1" res="-7.9614389687776566e-03" rms="4.2356738448143005e-01" purity="4.6180742979049683e-01" nType="0">
                <Node pos="l" depth="5" NCoef="0" IVar="3" Cut="8.7537515163421631e-01" cType="1" res="-1.8344419077038765e-02" rms="4.2787066102027893e-01" purity="5.0293010473251343e-01" nType="0">
                  <Node pos="l" depth="6" NCoef="0" IVar="3" Cut="5.7278144359588623e-01" cType="1" res="-2.7818584814667702e-02" rms="4.2621427774429321e-01" purity="4.1696143150329590e-01" nType="0">
                    <Node pos="l" depth="7" NCoef="0" IVar="-1" Cut="0.0000000000000000e+00" cType="1" res="-3.0099730938673019e-03" rms="2.7580624818801880e-01" purity="9.2780046164989471e-02" nType="-99"/>
                    <Node pos="r" depth="7" NCoef="0" IVar="-1" Cut="0.0000000000000000e+00" cType="1" res="-3.3544853795319796e-03" rms="4.6664828062057495e-01" purity="5.2825349569320679e-01" nType="-99"/>
                  </Node>
                  <Node pos="r" depth="6" NCoef="0" IVar="-1" Cut="0.0000000000000000e+00" cType="1" res="7.8196590766310692e-04" rms="4.3122112751007080e-01" purity="7.3050516843795776e-01" nType="-99"/>
                </Node>
                <Node pos="r" depth="5" NCoef="0" IVar="4" Cut="-2.3241307735443115e+00" cType="1" res="6.1278662178665400e-04" rms="4.1978695988655090e-01" purity="4.2784848809242249e-01" nType="0">
                  <Node pos="l" depth="6" NCoef="0" IVar="-1" Cut="0.0000000000000000e+00" cType="1" res="2.9370335396379232e-03" rms="4.3765822052955627e-01" purity="6.4433234930038452e-01" nType="-99"/>
                  <Node pos="r" depth="6" NCoef="0" IVar="3" Cut="5.9538507461547852e-01" cType="1" res="-4.1803200729191303e-03" rms="4.1666144132614136e-01" purity="3.9327123761177063e-01" nType="0">
                    <Node pos="l" depth="7" NCoef="0" IVar="-1" Cut="0.0000000000000000e+00" cType="1" res="-3.8005167152732611e-03" rms="3.0962687730789185e-01" purity="1.2609031796455383e-01" nType="-99"/>
                    <Node pos="r" depth="7" NCoef="0" IVar="-1" Cut="0.0000000000000000e+00" cType="1" res="2.9940862441435456e-04" rms="4.7240641713142395e-01" purity="5.6409388780593872e-01" nType="-99"/>
                  </Node>
                </Node>
              </Node>
            </Node>
            <Node pos="r" depth="3" NCoef="0" IVar="5" Cut="-1.9124661684036255e+00" cType="1" res="2.4198472499847412e-02" rms="4.1901922225952148e-01" purity="3.4028548002243042e-01" nType="0">
              <Node pos="l" depth="4" NCoef="0" IVar="4" Cut="-9.0666458010673523e-02" cType="1" res="3.5794705152511597e-02" rms="4.3447288870811462e-01" purity="3.9235001802444458e-01" nType="0">
                <Node pos="l" depth="5" NCoef="0" IVar="-1" Cut="0.0000000000000000e+00" cType="1" res="2.5223768316209316e-03" rms="4.3000769615173340e-01" purity="3.9687409996986389e-01" nType="-99"/>
                <Node pos="r" depth="5" NCoef="0" IVar="-1" Cut="0.0000000000000000e+00" cType="1" res="5.9884698130190372e-03" rms="4.3918171525001526e-01" purity="3.8701733946800232e-01" nType="-99"/>
              </Node>
              <Node pos="r" depth="4" NCoef="0" IVar="4" Cut="8.7928271293640137e-01" cType="1" res="1.1261290870606899e-02" rms="4.0068057179450989e-01" purity="2.8220033645629883e-01" nType="0">
                <Node pos="l" depth="5" NCoef="0" IVar="-1" Cut="0.0000000000000000e+00" cType="1" res="-9.6557276265230030e-05" rms="4.1904085874557495e-01" purity="3.3688259124755859e-01" nType="-99"/>
                <Node pos="r" depth="5" NCoef="0" IVar="-1" Cut="0.0000000000000000e+00" cType="1" res="5.9079634957015514e-03" rms="3.6963698267936707e-01" purity="1.9740691781044006e-01" nType="-99"/>
              </Node>
            </Node>
          </Node>
          <Node pos="r" depth="2" NCoef="0" IVar="-1" Cut="0.0000000000000000e+00" cType="1" res="-1.8473001196980476e-02" rms="1.5342348814010620e-01" purity="2.3596383631229401e-02" nType="-99"/>
        </Node>
        <Node pos="r" depth="1" NCoef="0" IVar="4" Cut="-1.6384108066558838e+00" cType="1" res="-5.2134958095848560e-03" rms="3.7679669260978699e-01" purity="2.5384441018104553e-01" nType="0">
          <Node pos="l" depth="2" NCoef="0" IVar="5" Cut="-2.6349632740020752e+00" cType="1" res="2.9203142039477825e-03" rms="4.3687784671783447e-01" purity="4.1650032997131348e-01" nType="0">
            <Node pos="l" depth="3" NCoef="0" IVar="3" Cut="4.9184727668762207e-01" cType="1" res="-2.0208254456520081e-02" rms="4.0874812006950378e-01" purity="3.3400565385818481e-01" nType="0">
              <Node pos="l" depth="4" NCoef="0" IVar="-1" Cut="0.0000000000000000e+00" cType="1" res="-2.2743216250091791e-03" rms="3.4087780117988586e-01" purity="1.6013485193252563e-01" nType="-99"/>
              <Node pos="r" depth="4" NCoef="0" IVar="-1" Cut="0.0000000000000000e+00" cType="1" res="-2.8921943157911301e-03" rms="4.6008783578872681e-01" purity="4.8688578605651855e-01" nType="-99"/>
            </Node>
            <Node pos="r" depth="3" NCoef="0" IVar="4" Cut="-2.4337079524993896e+00" cType="1" res="1.9034907221794128e-02" rms="4.5475637912750244e-01" purity="4.7397765517234802e-01" nType="0">
              <Node pos="l" depth="4" NCoef="0" IVar="-1" Cut="0.0000000000000000e+00" cType="1" res="4.5296470634639263e-03" rms="4.6438145637512207e-01" purity="5.6436085700988770e-01" nType="-99"/>
              <Node pos="r" depth="4" NCoef="0" IVar="5" Cut="-2.0514061450958252e+00" cType="1" res="7.5217951089143753e-03" rms="4.5003151893615723e-01" purity="4.3477869033813477e-01" nType="0">
                <Node pos="l" depth="5" NCoef="0" IVar="-1" Cut="0.0000000000000000e+00" cType="1" res="-3.0776842322666198e-05" rms="4.4845515489578247e-01" purity="4.3120339512825012e-01" nType="-99"/>
                <Node pos="r" depth="5" NCoef="0" IVar="-1" Cut="0.0000000000000000e+00" cType="1" res="1.7629998037591577e-03" rms="4.5171371102333069e-01" purity="4.3900457024574280e-01" nType="-99"/>
              </Node>
            </Node>
          </Node>
          <Node pos="r" depth="2" NCoef="0" IVar="2" Cut="9.1766961669921875e+02" cType="1" res="-7.4588246643543243e-03" rms="3.5840949416160583e-01" purity="2.0894341170787811e-01" nType="0">
            <Node pos="l" depth="3" NCoef="0" IVar="6" Cut="2.4565564095973969e-01" cType="1" res="-8.7464544922113419e-03" rms="3.5649818181991577e-01" purity="2.0943032205104828e-01" nType="0">
              <Node pos="l" depth="4" NCoef="0" IVar="4" Cut="1.2451113462448120e+00" cType="1" res="-6.7192069254815578e-03" rms="3.5547491908073425e-01" purity="2.1181882917881012e-01" nType="0">
                <Node pos="l" depth="5" NCoef="0" IVar="2" Cut="4.7369717407226562e+02" cType="1" res="-3.3773495815694332e-03" rms="3.9058136940002441e-01" purity="2.6388323307037354e-01" nType="0">
                  <Node pos="l" depth="6" NCoef="0" IVar="6" Cut="8.1125982105731964e-02" cType="1" res="-8.9669410954229534e-05" rms="3.9747416973114014e-01" purity="2.8414875268936157e-01" nType="0">
                    <Node pos="l" depth="7" NCoef="0" IVar="-1" Cut="0.0000000000000000e+00" cType="1" res="-1.5697703929618001e-03" rms="4.0233308076858521e-01" purity="3.2774865627288818e-01" nType="-99"/>
                    <Node pos="r" depth="7" NCoef="0" IVar="-1" Cut="0.0000000000000000e+00" cType="1" res="9.9023862276226282e-04" rms="3.9454361796379089e-01" purity="2.5943079590797424e-01" nType="-99"/>
                  </Node>
                  <Node pos="r" depth="6" NCoef="0" IVar="5" Cut="-2.3207385540008545e+00" cType="1" res="-1.5262049622833729e-02" rms="3.6433172225952148e-01" purity="1.9062519073486328e-01" nType="0">
                    <Node pos="l" depth="7" NCoef="0" IVar="-1" Cut="0.0000000000000000e+00" cType="1" res="-7.0319470250979066e-04" rms="3.7807127833366394e-01" purity="2.1268267929553986e-01" nType="-99"/>
                    <Node pos="r" depth="7" NCoef="0" IVar="-1" Cut="0.0000000000000000e+00" cType="1" res="-3.6788634024560452e-03" rms="3.5731548070907593e-01" purity="1.7986972630023956e-01" nType="-99"/>
                  </Node>
                </Node>
                <Node pos="r" depth="5" NCoef="0" IVar="6" Cut="8.8246226310729980e-02" cType="1" res="-1.6797231510281563e-02" rms="2.1735209226608276e-01" purity="5.4808389395475388e-02" nType="0">
                  <Node pos="l" depth="6" NCoef="0" IVar="-1" Cut="0.0000000000000000e+00" cType="1" res="-1.0748592205345631e-02" rms="2.2218102216720581e-01" purity="6.0170527547597885e-02" nType="-99"/>
                  <Node pos="r" depth="6" NCoef="0" IVar="2" Cut="3.1052563476562500e+02" cType="1" res="-1.3031138107180595e-02" rms="2.1583820879459381e-01" purity="5.3316209465265274e-02" nType="0">
                    <Node pos="l" depth="7" NCoef="0" IVar="-1" Cut="0.0000000000000000e+00" cType="1" res="-8.0513546708971262e-04" rms="2.4350053071975708e-01" purity="7.1758255362510681e-02" nType="-99"/>
                    <Node pos="r" depth="7" NCoef="0" IVar="-1" Cut="0.0000000000000000e+00" cType="1" res="-8.4319952875375748e-03" rms="2.0317800343036652e-01" purity="4.5721869915723801e-02" nType="-99"/>
                  </Node>
                </Node>
              </Node>
              <Node pos="r" depth="4" NCoef="0" IVar="-1" Cut="0.0000000000000000e+00" cType="1" res="-6.6657811403274536e-03" rms="3.7005758285522461e-01" purity="1.7395937442779541e-01" nType="-99"/>
            </Node>
            <Node pos="r" depth="3" NCoef="0" IVar="-1" Cut="0.0000000000000000e+00" cType="1" res="2.6179822161793709e-03" rms="3.8920351862907410e-01" purity="2.0055420696735382e-01" nType="-99"/>
          </Node>
        </Node>
      </Node>
    </BinaryTree>
    <BinaryTree type="DecisionTree" boostWeight="1.0000000000000000e+00" itree="96">
      <Node pos="s" depth="0" NCoef="0" IVar="2" Cut="1.9370317077636719e+02" cType="1" res="3.2964134588837624e-03" rms="4.0466430783271790e-01" purity="5.0080198049545288e-01" nType="0">
        <Node pos="l" depth="1" NCoef="0" IVar="2" Cut="9.3726982116699219e+01" cType="1" res="6.1965677887201309e-03" rms="4.1410619020462036e-01" purity="5.9672850370407104e-01" nType="0">
          <Node pos="l" depth="2" NCoef="0" IVar="6" Cut="2.6930464431643486e-02" cType="1" res="9.8165348172187805e-03" rms="4.1474246978759766e-01" purity="6.6808307170867920e-01" nType="0">
            <Node pos="l" depth="3" NCoef="0" IVar="2" Cut="4.2300407409667969e+01" cType="1" res="6.2668016180396080e-03" rms="4.0981125831604004e-01" purity="7.2897839546203613e-01" nType="0">
              <Node pos="l" depth="4" NCoef="0" IVar="3" Cut="9.9944370985031128e-01" cType="1" res="9.2748589813709259e-03" rms="4.0830901265144348e-01" purity="7.4856710433959961e-01" nType="0">
                <Node pos="l" depth="5" NCoef="0" IVar="4" Cut="-2.2906672954559326e+00" cType="1" res="2.1916290279477835e-03" rms="4.1689196228981018e-01" purity="7.1731662750244141e-01" nType="0">
                  <Node pos="l" depth="6" NCoef="0" IVar="5" Cut="-2.7961518764495850e+00" cType="1" res="1.8359668552875519e-02" rms="4.3089625239372253e-01" purity="7.2260439395904541e-01" nType="0">
                    <Node pos="l" depth="7" NCoef="0" IVar="-1" Cut="0.0000000000000000e+00" cType="1" res="3.4326082095503807e-03" rms="4.0643191337585449e-01" purity="7.4823129177093506e-01" nType="-99"/>
                    <Node pos="r" depth="7" NCoef="0" IVar="-1" Cut="0.0000000000000000e+00" cType="1" res="8.9730956824496388e-04" rms="4.4806948304176331e-01" purity="7.0346385240554810e-01" nType="-99"/>
                  </Node>
                  <Node pos="r" depth="6" NCoef="0" IVar="4" Cut="-1.3789230585098267e+00" cType="1" res="-1.9278313266113400e-04" rms="4.1473332047462463e-01" purity="7.1653681993484497e-01" nType="0">
                    <Node pos="l" depth="7" NCoef="0" IVar="-1" Cut="0.0000000000000000e+00" cType="1" res="-2.6624861638993025e-03" rms="4.5873746275901794e-01" purity="6.4274430274963379e-01" nType="-99"/>
                    <Node pos="r" depth="7" NCoef="0" IVar="-1" Cut="0.0000000000000000e+00" cType="1" res="4.9159291666001081e-04" rms="4.0696632862091064e-01" purity="7.2852033376693726e-01" nType="-99"/>
                  </Node>
                </Node>
                <Node pos="r" depth="5" NCoef="0" IVar="5" Cut="-2.9590747356414795e+00" cType="1" res="1.9287357106804848e-02" rms="3.9564299583435059e-01" purity="7.9274111986160278e-01" nType="0">
                  <Node pos="l" depth="6" NCoef="0" IVar="5" Cut="-3.2559125423431396e+00" cType="1" res="2.8126224875450134e-02" rms="3.5577747225761414e-01" purity="8.4804314374923706e-01" nType="0">
                    <Node pos="l" depth="7" NCoef="0" IVar="-1" Cut="0.0000000000000000e+00" cType="1" res="5.2785393781960011e-03" rms="3.3701819181442261e-01" purity="8.6413806676864624e-01" nType="-99"/>
                    <Node pos="r" depth="7" NCoef="0" IVar="-1" Cut="0.0000000000000000e+00" cType="1" res="2.6707914657890797e-03" rms="3.6355501413345337e-01" purity="8.4095841646194458e-01" nType="-99"/>
                  </Node>
                  <Node pos="r" depth="6" NCoef="0" IVar="1" Cut="2.7507159113883972e-01" cType="1" res="1.4963397756218910e-02" rms="4.1367954015731812e-01" purity="7.6568752527236938e-01" nType="0">
                    <Node pos="l" depth="7" NCoef="0" IVar="-1" Cut="0.0000000000000000e+00" cType="1" res="2.0653030369430780e-03" rms="4.0303444862365723e-01" purity="7.8674685955047607e-01" nType="-99"/>
                    <Node pos="r" depth="7" NCoef="0" IVar="-1" Cut="0.0000000000000000e+00" cType="1" res="2.8550971182994545e-04" rms="4.4291213154792786e-01" purity="7.0457428693771362e-01" nType="-99"/>
                  </Node>
                </Node>
              </Node>
              <Node pos="r" depth="4" NCoef="0" IVar="6" Cut="2.1923545747995377e-02" cType="1" res="-2.8636660426855087e-02" rms="4.2530328035354614e-01" purity="5.0168430805206299e-01" nType="0">
                <Node pos="l" depth="5" NCoef="0" IVar="-1" Cut="0.0000000000000000e+00" cType="1" res="-5.2684312686324120e-03" rms="4.2342346906661987e-01" purity="4.8837614059448242e-01" nType="-99"/>
                <Node pos="r" depth="5" NCoef="0" IVar="-1" Cut="0.0000000000000000e+00" cType="1" res="-3.1146800029091537e-04" rms="4.2731165885925293e-01" purity="5.2481031417846680e-01" nType="-99"/>
              </Node>
            </Node>
            <Node pos="r" depth="3" NCoef="0" IVar="2" Cut="5.7814884185791016e+01" cType="1" res="1.9208317622542381e-02" rms="4.2737287282943726e-01" purity="5.0696796178817749e-01" nType="0">
              <Node pos="l" depth="4" NCoef="0" IVar="6" Cut="4.5508474111557007e-02" cType="1" res="2.8057228773832321e-02" rms="4.3273818492889404e-01" purity="5.5184233188629150e-01" nType="0">
                <Node pos="l" depth="5" NCoef="0" IVar="5" Cut="-1.9142347574234009e+00" cType="1" res="1.9190279766917229e-02" rms="4.3069401383399963e-01" purity="5.6620132923126221e-01" nType="0">
                  <Node pos="l" depth="6" NCoef="0" IVar="4" Cut="-1.7291557788848877e+00" cType="1" res="3.0918922275304794e-02" rms="4.2604959011077881e-01" purity="6.2572377920150757e-01" nType="0">
                    <Node pos="l" depth="7" NCoef="0" IVar="-1" Cut="0.0000000000000000e+00" cType="1" res="3.9511956274509430e-03" rms="4.2428565025329590e-01" purity="7.1512448787689209e-01" nType="-99"/>
                    <Node pos="r" depth="7" NCoef="0" IVar="-1" Cut="0.0000000000000000e+00" cType="1" res="2.4516342673450708e-03" rms="4.2736351490020752e-01" purity="5.5046516656875610e-01" nType="-99"/>
                  </Node>
                  <Node pos="r" depth="6" NCoef="0" IVar="-1" Cut="0.0000000000000000e+00" cType="1" res="-6.4110953826457262e-04" rms="4.3938663601875305e-01" purity="4.3932825326919556e-01" nType="-99"/>
                </Node>
                <Node pos="r" depth="5" NCoef="0" IVar="6" Cut="5.3731538355350494e-02" cType="1" res="4.3804582208395004e-02" rms="4.3590053915977478e-01" purity="5.2634131908416748e-01" nType="0">
                  <Node pos="l" depth="6" NCoef="0" IVar="-1" Cut="0.0000000000000000e+00" cType="1" res="5.1789227873086929e-03" rms="4.3429562449455261e-01" purity="5.5677652359008789e-01" nType="-99"/>
                  <Node pos="r" depth="6" NCoef="0" IVar="-1" Cut="0.0000000000000000e+00" cType="1" res="3.3555396366864443e-03" rms="4.3705269694328308e-01" purity="5.0147873163223267e-01" nType="-99"/>
                </Node>
              </Node>
              <Node pos="r" depth="4" NCoef="0" IVar="3" Cut="4.7280138731002808e-01" cType="1" res="1.2045753188431263e-02" rms="4.2284461855888367e-01" purity="4.7064536809921265e-01" nType="0">
                <Node pos="l" depth="5" NCoef="0" IVar="-1" Cut="0.0000000000000000e+00" cType="1" res="-4.0466794744133949e-03" rms="2.5112259387969971e-01" purity="7.5279816985130310e-02" nType="-99"/>
                <Node pos="r" depth="5" NCoef="0" IVar="2" Cut="8.6767608642578125e+01" cType="1" res="1.8253374844789505e-02" rms="4.5855420827865601e-01" purity="5.7877880334854126e-01" nType="0">
                  <Node pos="l" depth="6" NCoef="0" IVar="3" Cut="7.2061502933502197e-01" cType="1" res="1.3450938276946545e-02" rms="4.5979055762290955e-01" purity="5.7706892490386963e-01" nType="0">
                    <Node pos="l" depth="7" NCoef="0" IVar="-1" Cut="0.0000000000000000e+00" cType="1" res="3.4448623773641884e-04" rms="4.7365126013755798e-01" purity="4.2526260018348694e-01" nType="-99"/>
                    <Node pos="r" depth="7" NCoef="0" IVar="-1" Cut="0.0000000000000000e+00" cType="1" res="1.9152084132656455e-03" rms="4.4968098402023315e-01" purity="6.8356019258499146e-01" nType="-99"/>
                  </Node>
                  <Node pos="r" depth="6" NCoef="0" IVar="-1" Cut="0.0000000000000000e+00" cType="1" res="3.7743463180959225e-03" rms="4.5231387019157410e-01" purity="5.8647835254669189e-01" nType="-99"/>
                </Node>
              </Node>
            </Node>
          </Node>
          <Node pos="r" depth="2" NCoef="0" IVar="6" Cut="3.6648109555244446e-02" cType="1" res="-3.6606357898563147e-03" rms="4.1220751404762268e-01" purity="4.0242934226989746e-01" nType="0">
            <Node pos="l" depth="3" NCoef="0" IVar="4" Cut="-1.9395568370819092e+00" cType="1" res="-2.7062347158789635e-02" rms="4.2630559206008911e-01" purity="4.9200850725173950e-01" nType="0">
              <Node pos="l" depth="4" NCoef="0" IVar="-1" Cut="0.0000000000000000e+00" cType="1" res="-1.4113233191892505e-03" rms="4.4402587413787842e-01" purity="6.4651358127593994e-01" nType="-99"/>
              <Node pos="r" depth="4" NCoef="0" IVar="-1" Cut="0.0000000000000000e+00" cType="1" res="-5.3329309448599815e-03" rms="4.0938550233840942e-01" purity="3.5396662354469299e-01" nType="-99"/>
            </Node>
            <Node pos="r" depth="3" NCoef="0" IVar="1" Cut="-3.9161927998065948e-02" cType="1" res="1.5209215926006436e-03" rms="4.0883916616439819e-01" purity="3.8259488344192505e-01" nType="0">
              <Node pos="l" depth="4" NCoef="0" IVar="4" Cut="3.7962067127227783e-01" cType="1" res="1.2562992051243782e-02" rms="4.4226849079132080e-01" purity="4.9977886676788330e-01" nType="0">
                <Node pos="l" depth="5" NCoef="0" IVar="2" Cut="1.6467782592773438e+02" cType="1" res="6.7712222225964069e-03" rms="4.4877317547798157e-01" purity="5.5151075124740601e-01" nType="0">
                  <Node pos="l" depth="6" NCoef="0" IVar="2" Cut="1.3720991516113281e+02" cType="1" res="4.3969700345769525e-04" rms="4.4962596893310547e-01" purity="5.5265206098556519e-01" nType="0">
                    <Node pos="l" depth="7" NCoef="0" IVar="-1" Cut="0.0000000000000000e+00" cType="1" res="1.2919057626277208e-03" rms="4.5201015472412109e-01" purity="5.7816553115844727e-01" nType="-99"/>
                    <Node pos="r" depth="7" NCoef="0" IVar="-1" Cut="0.0000000000000000e+00" cType="1" res="-2.1663331426680088e-03" rms="4.4497415423393250e-01" purity="5.1157069206237793e-01" nType="-99"/>
                  </Node>
                  <Node pos="r" depth="6" NCoef="0" IVar="-1" Cut="0.0000000000000000e+00" cType="1" res="2.4698663037270308e-03" rms="4.4601282477378845e-01" purity="5.4842835664749146e-01" nType="-99"/>
                </Node>
                <Node pos="r" depth="5" NCoef="0" IVar="-1" Cut="0.0000000000000000e+00" cType="1" res="4.6238717623054981e-03" rms="4.1846311092376709e-01" purity="3.2148280739784241e-01" nType="-99"/>
              </Node>
              <Node pos="r" depth="4" NCoef="0" IVar="4" Cut="2.8670203685760498e-01" cType="1" res="-3.2867498230189085e-03" rms="3.9330062270164490e-01" purity="3.3157351613044739e-01" nType="0">
                <Node pos="l" depth="5" NCoef="0" IVar="7" Cut="3.0000000000000000e+00" cType="1" res="2.3295218124985695e-03" rms="4.2294040322303772e-01" purity="4.1428154706954956e-01" nType="0">
                  <Node pos="l" depth="6" NCoef="0" IVar="5" Cut="-2.2725746631622314e+00" cType="1" res="1.4057094231247902e-02" rms="4.5687296986579895e-01" purity="5.8589816093444824e-01" nType="0">
                    <Node pos="l" depth="7" NCoef="0" IVar="-1" Cut="0.0000000000000000e+00" cType="1" res="1.0793476394610479e-04" rms="4.5131739974021912e-01" purity="5.8041054010391235e-01" nType="-99"/>
                    <Node pos="r" depth="7" NCoef="0" IVar="-1" Cut="0.0000000000000000e+00" cType="1" res="2.6492981705814600e-03" rms="4.6280863881111145e-01" purity="5.9229809045791626e-01" nType="-99"/>
                  </Node>
                  <Node pos="r" depth="6" NCoef="0" IVar="6" Cut="6.5405495464801788e-02" cType="1" res="-5.4440414533019066e-03" rms="3.9867955446243286e-01" purity="3.0056640505790710e-01" nType="0">
                    <Node pos="l" depth="7" NCoef="0" IVar="-1" Cut="0.0000000000000000e+00" cType="1" res="-2.3820356000214815e-03" rms="3.9435049891471863e-01" purity="2.9385393857955933e-01" nType="-99"/>
                    <Node pos="r" depth="7" NCoef="0" IVar="-1" Cut="0.0000000000000000e+00" cType="1" res="2.5063077919185162e-04" rms="4.0135970711708069e-01" purity="3.0501580238342285e-01" nType="-99"/>
                  </Node>
                </Node>
                <Node pos="r" depth="5" NCoef="0" IVar="6" Cut="7.3782436549663544e-02" cType="1" res="-1.4851666986942291e-02" rms="3.2350224256515503e-01" purity="1.6121275722980499e-01" nType="0">
                  <Node pos="l" depth="6" NCoef="0" IVar="-1" Cut="0.0000000000000000e+00" cType="1" res="-7.9013016074895859e-03" rms="3.0822342634201050e-01" purity="1.4394365251064301e-01" nType="-99"/>
                  <Node pos="r" depth="6" NCoef="0" IVar="2" Cut="1.3566061401367188e+02" cType="1" res="-4.2708972468972206e-03" rms="3.3056911826133728e-01" purity="1.7007337510585785e-01" nType="0">
                    <Node pos="l" depth="7" NCoef="0" IVar="-1" Cut="0.0000000000000000e+00" cType="1" res="1.9534102175384760e-03" rms="3.5820388793945312e-01" purity="2.0889070630073547e-01" nType="-99"/>
                    <Node pos="r" depth="7" NCoef="0" IVar="-1" Cut="0.0000000000000000e+00" cType="1" res="-3.7056892178952694e-03" rms="3.0620393157005310e-01" purity="1.3906919956207275e-01" nType="-99"/>
                  </Node>
                </Node>
              </Node>
            </Node>
          </Node>
        </Node>
        <Node pos="r" depth="1" NCoef="0" IVar="3" Cut="7.7137583494186401e-01" cType="1" res="-4.1359416209161282e-03" rms="3.7929475307464600e-01" purity="2.5496694445610046e-01" nType="0">
          <Node pos="l" depth="2" NCoef="0" IVar="6" Cut="2.6147100329399109e-01" cType="1" res="-2.0817078184336424e-03" rms="3.6819872260093689e-01" purity="2.1788045763969421e-01" nType="0">
            <Node pos="l" depth="3" NCoef="0" IVar="6" Cut="7.7803015708923340e-02" cType="1" res="-4.0535037405788898e-03" rms="3.6485382914543152e-01" purity="2.1701154112815857e-01" nType="0">
              <Node pos="l" depth="4" NCoef="0" IVar="7" Cut="5.0000000000000000e+00" cType="1" res="-2.0480064675211906e-02" rms="3.7290418148040771e-01" purity="2.3926286399364471e-01" nType="0">
                <Node pos="l" depth="5" NCoef="0" IVar="2" Cut="2.5470361328125000e+02" cType="1" res="-2.7963653206825256e-02" rms="4.0911203622817993e-01" purity="2.9773354530334473e-01" nType="0">
                  <Node pos="l" depth="6" NCoef="0" IVar="-1" Cut="0.0000000000000000e+00" cType="1" res="-2.4379245005548000e-03" rms="4.1647717356681824e-01" purity="3.1025290489196777e-01" nType="-99"/>
                  <Node pos="r" depth="6" NCoef="0" IVar="-1" Cut="0.0000000000000000e+00" cType="1" res="-5.0789536908268929e-03" rms="4.0018460154533386e-01" purity="2.8327652812004089e-01" nType="-99"/>
                </Node>
                <Node pos="r" depth="5" NCoef="0" IVar="-1" Cut="0.0000000000000000e+00" cType="1" res="-6.3471519388258457e-04" rms="2.6153844594955444e-01" purity="9.4356149435043335e-02" nType="-99"/>
              </Node>
              <Node pos="r" depth="4" NCoef="0" IVar="4" Cut="2.3658454418182373e+00" cType="1" res="-2.4987052893266082e-04" rms="3.6285853385925293e-01" purity="2.1186001598834991e-01" nType="0">
                <Node pos="l" depth="5" NCoef="0" IVar="3" Cut="6.4707404375076294e-01" cType="1" res="3.1015353742986917e-03" rms="3.8597527146339417e-01" purity="2.4203369021415710e-01" nType="0">
                  <Node pos="l" depth="6" NCoef="0" IVar="6" Cut="1.6666130721569061e-01" cType="1" res="1.2651876022573560e-04" rms="3.6771428585052490e-01" purity="1.9463184475898743e-01" nType="0">
                    <Node pos="l" depth="7" NCoef="0" IVar="-1" Cut="0.0000000000000000e+00" cType="1" res="-9.3155266949906945e-04" rms="3.6210191249847412e-01" purity="1.9054409861564636e-01" nType="-99"/>
                    <Node pos="r" depth="7" NCoef="0" IVar="-1" Cut="0.0000000000000000e+00" cType="1" res="2.3604175075888634e-03" rms="3.8094687461853027e-01" purity="2.0475566387176514e-01" nType="-99"/>
                  </Node>
                  <Node pos="r" depth="6" NCoef="0" IVar="7" Cut="3.0000000000000000e+00" cType="1" res="2.2262988612055779e-02" rms="4.8255479335784912e-01" purity="5.3395664691925049e-01" nType="0">
                    <Node pos="l" depth="7" NCoef="0" IVar="-1" Cut="0.0000000000000000e+00" cType="1" res="3.3171023824252188e-04" rms="4.8413342237472534e-01" purity="5.0545632839202881e-01" nType="-99"/>
                    <Node pos="r" depth="7" NCoef="0" IVar="-1" Cut="0.0000000000000000e+00" cType="1" res="3.2963776029646397e-03" rms="4.8169946670532227e-01" purity="5.5720001459121704e-01" nType="-99"/>
                  </Node>
                </Node>
                <Node pos="r" depth="5" NCoef="0" IVar="0" Cut="9.5807433128356934e-01" cType="1" res="-2.1122232079505920e-02" rms="1.5281142294406891e-01" purity="2.3940106853842735e-02" nType="0">
                  <Node pos="l" depth="6" NCoef="0" IVar="-1" Cut="0.0000000000000000e+00" cType="1" res="-1.3953137211501598e-02" rms="1.7451255023479462e-01" purity="3.1161023303866386e-02" nType="-99"/>
                  <Node pos="r" depth="6" NCoef="0" IVar="-1" Cut="0.0000000000000000e+00" cType="1" res="-1.3591307215392590e-02" rms="1.3536478579044342e-01" purity="1.8897827714681625e-02" nType="-99"/>
                </Node>
              </Node>
            </Node>
            <Node pos="r" depth="3" NCoef="0" IVar="-1" Cut="0.0000000000000000e+00" cType="1" res="3.7570791319012642e-03" rms="4.0750208497047424e-01" purity="2.2892419993877411e-01" nType="-99"/>
          </Node>
          <Node pos="r" depth="2" NCoef="0" IVar="3" Cut="8.4287732839584351e-01" cType="1" res="-2.2218961268663406e-02" rms="4.6530908346176147e-01" purity="5.8143216371536255e-01" nType="0">
            <Node pos="l" depth="3" NCoef="0" IVar="-1" Cut="0.0000000000000000e+00" cType="1" res="2.6584658189676702e-04" rms="4.7254940867424011e-01" purity="6.1160159111022949e-01" nType="-99"/>
            <Node pos="r" depth="3" NCoef="0" IVar="-1" Cut="0.0000000000000000e+00" cType="1" res="-6.2325666658580303e-03" rms="4.5184227824211121e-01" purity="5.3676706552505493e-01" nType="-99"/>
          </Node>
        </Node>
      </Node>
    </BinaryTree>
    <BinaryTree type="DecisionTree" boostWeight="1.0000000000000000e+00" itree="97">
      <Node pos="s" depth="0" NCoef="0" IVar="1" Cut="1.4958879351615906e-01" cType="1" res="2.7242954820394516e-03" rms="4.0486791729927063e-01" purity="4.9976110458374023e-01" nType="0">
        <Node pos="l" depth="1" NCoef="0" IVar="2" Cut="3.6746166992187500e+02" cType="1" res="7.1758837439119816e-03" rms="4.1616308689117432e-01" purity="5.8175867795944214e-01" nType="0">
          <Node pos="l" depth="2" NCoef="0" IVar="5" Cut="1.3643826246261597e+00" cType="1" res="8.8377697393298149e-03" rms="4.1976484656333923e-01" purity="6.2474876642227173e-01" nType="0">
            <Node pos="l" depth="3" NCoef="0" IVar="7" Cut="4.0000000000000000e+00" cType="1" res="9.5895547419786453e-03" rms="4.2303162813186646e-01" purity="6.3671475648880005e-01" nType="0">
              <Node pos="l" depth="4" NCoef="0" IVar="3" Cut="7.8453195095062256e-01" cType="1" res="8.1294933333992958e-03" rms="4.2556428909301758e-01" purity="7.0028597116470337e-01" nType="0">
                <Node pos="l" depth="5" NCoef="0" IVar="6" Cut="8.6991548538208008e-02" cType="1" res="9.1067602625116706e-04" rms="4.6777606010437012e-01" purity="4.9115246534347534e-01" nType="0">
                  <Node pos="l" depth="6" NCoef="0" IVar="3" Cut="6.6285401582717896e-01" cType="1" res="-6.8524549715220928e-03" rms="4.6827870607376099e-01" purity="4.9869441986083984e-01" nType="0">
                    <Node pos="l" depth="7" NCoef="0" IVar="-1" Cut="0.0000000000000000e+00" cType="1" res="-2.5010895915329456e-03" rms="4.3361157178878784e-01" purity="3.0505999922752380e-01" nType="-99"/>
                    <Node pos="r" depth="7" NCoef="0" IVar="-1" Cut="0.0000000000000000e+00" cType="1" res="-5.0016562454402447e-05" rms="4.8202010989189148e-01" purity="5.8039307594299316e-01" nType="-99"/>
                  </Node>
                  <Node pos="r" depth="6" NCoef="0" IVar="4" Cut="-1.7637208104133606e-01" cType="1" res="1.9737506285309792e-02" rms="4.6601805090904236e-01" purity="4.7286197543144226e-01" nType="0">
                    <Node pos="l" depth="7" NCoef="0" IVar="-1" Cut="0.0000000000000000e+00" cType="1" res="2.7186225634068251e-03" rms="4.7845825552940369e-01" purity="5.2791696786880493e-01" nType="-99"/>
                    <Node pos="r" depth="7" NCoef="0" IVar="-1" Cut="0.0000000000000000e+00" cType="1" res="8.4356177831068635e-04" rms="4.5229619741439819e-01" purity="4.1503435373306274e-01" nType="-99"/>
                  </Node>
                </Node>
                <Node pos="r" depth="5" NCoef="0" IVar="0" Cut="2.3162458837032318e-01" cType="1" res="1.0575420223176479e-02" rms="4.1024914383888245e-01" purity="7.7114599943161011e-01" nType="0">
                  <Node pos="l" depth="6" NCoef="0" IVar="1" Cut="-2.5039678812026978e-01" cType="1" res="1.2064781971275806e-02" rms="4.0489867329597473e-01" purity="7.8250396251678467e-01" nType="0">
                    <Node pos="l" depth="7" NCoef="0" IVar="-1" Cut="0.0000000000000000e+00" cType="1" res="-5.1934999646618962e-04" rms="4.2007631063461304e-01" purity="7.6460313796997070e-01" nType="-99"/>
                    <Node pos="r" depth="7" NCoef="0" IVar="-1" Cut="0.0000000000000000e+00" cType="1" res="1.6437900485470891e-03" rms="4.0275296568870544e-01" purity="7.8491783142089844e-01" nType="-99"/>
                  </Node>
                  <Node pos="r" depth="6" NCoef="0" IVar="3" Cut="9.4377487897872925e-01" cType="1" res="-7.1864901110529900e-03" rms="4.6901607513427734e-01" purity="6.3569301366806030e-01" nType="0">
                    <Node pos="l" depth="7" NCoef="0" IVar="-1" Cut="0.0000000000000000e+00" cType="1" res="8.2686572568491101e-04" rms="4.7274130582809448e-01" purity="6.2371754646301270e-01" nType="-99"/>
                    <Node pos="r" depth="7" NCoef="0" IVar="-1" Cut="0.0000000000000000e+00" cType="1" res="-2.4555537384003401e-03" rms="4.6400779485702515e-01" purity="6.4946573972702026e-01" nType="-99"/>
                  </Node>
                </Node>
              </Node>
              <Node pos="r" depth="4" NCoef="0" IVar="2" Cut="9.6407775878906250e+01" cType="1" res="1.7257353290915489e-02" rms="4.0937337279319763e-01" purity="3.0237534642219543e-01" nType="0">
                <Node pos="l" depth="5" NCoef="0" IVar="2" Cut="6.2942352294921875e+01" cType="1" res="4.2611707001924515e-02" rms="4.3292281031608582e-01" purity="3.9876657724380493e-01" nType="0">
                  <Node pos="l" depth="6" NCoef="0" IVar="-1" Cut="0.0000000000000000e+00" cType="1" res="6.2841735780239105e-03" rms="4.3931064009666443e-01" purity="4.1876330971717834e-01" nType="-99"/>
                  <Node pos="r" depth="6" NCoef="0" IVar="-1" Cut="0.0000000000000000e+00" cType="1" res="3.5514812916517258e-03" rms="4.2561453580856323e-01" purity="3.7749946117401123e-01" nType="-99"/>
                </Node>
                <Node pos="r" depth="5" NCoef="0" IVar="3" Cut="3.0908533930778503e-01" cType="1" res="8.1522138789296150e-03" rms="4.0018686652183533e-01" purity="2.6775974035263062e-01" nType="0">
                  <Node pos="l" depth="6" NCoef="0" IVar="-1" Cut="0.0000000000000000e+00" cType="1" res="-7.2387265972793102e-03" rms="2.5806093215942383e-01" purity="7.5301975011825562e-02" nType="-99"/>
                  <Node pos="r" depth="6" NCoef="0" IVar="7" Cut="5.0000000000000000e+00" cType="1" res="1.5327379107475281e-02" rms="4.2856639623641968e-01" purity="3.1667125225067139e-01" nType="0">
                    <Node pos="l" depth="7" NCoef="0" IVar="-1" Cut="0.0000000000000000e+00" cType="1" res="3.2647003536112607e-04" rms="4.4301569461822510e-01" purity="3.5729107260704041e-01" nType="-99"/>
                    <Node pos="r" depth="7" NCoef="0" IVar="-1" Cut="0.0000000000000000e+00" cType="1" res="4.5340969227254391e-03" rms="4.1059842705726624e-01" purity="2.6927906274795532e-01" nType="-99"/>
                  </Node>
                </Node>
              </Node>
            </Node>
            <Node pos="r" depth="3" NCoef="0" IVar="-1" Cut="0.0000000000000000e+00" cType="1" res="-1.2897980399429798e-02" rms="2.0336987078189850e-01" purity="4.4697344303131104e-02" nType="-99"/>
          </Node>
          <Node pos="r" depth="2" NCoef="0" IVar="3" Cut="2.7563112974166870e-01" cType="1" res="-6.4290454611182213e-03" rms="3.8514417409896851e-01" purity="2.2982333600521088e-01" nType="0">
            <Node pos="l" depth="3" NCoef="0" IVar="-1" Cut="0.0000000000000000e+00" cType="1" res="2.1107983775436878e-03" rms="3.5618713498115540e-01" purity="1.6715472936630249e-01" nType="-99"/>
            <Node pos="r" depth="3" NCoef="0" IVar="7" Cut="4.0000000000000000e+00" cType="1" res="-1.3014435768127441e-02" rms="3.9601364731788635e-01" purity="2.5509628653526306e-01" nType="0">
              <Node pos="l" depth="4" NCoef="0" IVar="-1" Cut="0.0000000000000000e+00" cType="1" res="-3.2008185517042875e-03" rms="4.3710637092590332e-01" purity="3.3962452411651611e-01" nType="-99"/>
              <Node pos="r" depth="4" NCoef="0" IVar="5" Cut="-1.5441558361053467e+00" cType="1" res="-3.8836004678159952e-03" rms="3.6651319265365601e-01" purity="2.0002692937850952e-01" nType="0">
                <Node pos="l" depth="5" NCoef="0" IVar="-1" Cut="0.0000000000000000e+00" cType="1" res="6.1993760755285621e-04" rms="4.1966819763183594e-01" purity="2.8081840276718140e-01" nType="-99"/>
                <Node pos="r" depth="5" NCoef="0" IVar="-1" Cut="0.0000000000000000e+00" cType="1" res="-3.0995330307632685e-03" rms="3.0313333868980408e-01" purity="1.1825647205114365e-01" nType="-99"/>
              </Node>
            </Node>
          </Node>
        </Node>
        <Node pos="r" depth="1" NCoef="0" IVar="5" Cut="-1.5852732658386230e+00" cType="1" res="-3.0315988697111607e-03" rms="3.8970300555229187e-01" purity="3.9373841881752014e-01" nType="0">
          <Node pos="l" depth="2" NCoef="0" IVar="1" Cut="3.6453266143798828e+00" cType="1" res="9.6782692708075047e-04" rms="4.0756094455718994e-01" purity="4.7348392009735107e-01" nType="0">
            <Node pos="l" depth="3" NCoef="0" IVar="1" Cut="8.2593607902526855e-01" cType="1" res="-5.3355068666860461e-04" rms="4.0918102860450745e-01" purity="4.7672301530838013e-01" nType="0">
              <Node pos="l" depth="4" NCoef="0" IVar="3" Cut="9.8098438978195190e-01" cType="1" res="3.9475909434258938e-03" rms="4.1570210456848145e-01" purity="5.2577924728393555e-01" nType="0">
                <Node pos="l" depth="5" NCoef="0" IVar="7" Cut="3.0000000000000000e+00" cType="1" res="1.7767387628555298e-01" rms="0.0000000000000000e+00" purity="4.1214019060134888e-01" nType="0">
                  <Node pos="l" depth="6" NCoef="0" IVar="3" Cut="8.5728901624679565e-01" cType="1" res="-7.6954578980803490e-03" rms="4.5301985740661621e-01" purity="6.0600674152374268e-01" nType="0">
                    <Node pos="l" depth="7" NCoef="0" IVar="-1" Cut="0.0000000000000000e+00" cType="1" res="-1.6913831932470202e-03" rms="4.6522316336631775e-01" purity="5.1012265682220459e-01" nType="-99"/>
                    <Node pos="r" depth="7" NCoef="0" IVar="-1" Cut="0.0000000000000000e+00" cType="1" res="6.4460304565727711e-04" rms="4.3573540449142456e-01" purity="7.3457396030426025e-01" nType="-99"/>
                  </Node>
                  <Node pos="r" depth="6" NCoef="0" IVar="4" Cut="-7.7085930109024048e-01" cType="1" res="5.1710996776819229e-03" rms="3.9928421378135681e-01" purity="2.8351864218711853e-01" nType="0">
                    <Node pos="l" depth="7" NCoef="0" IVar="-1" Cut="0.0000000000000000e+00" cType="1" res="-2.2136735788080841e-04" rms="4.1037431359291077e-01" purity="3.2452610135078430e-01" nType="-99"/>
                    <Node pos="r" depth="7" NCoef="0" IVar="-1" Cut="0.0000000000000000e+00" cType="1" res="1.8036713590845466e-03" rms="3.8891088962554932e-01" purity="2.4654392898082733e-01" nType="-99"/>
                  </Node>
                </Node>
                <Node pos="r" depth="5" NCoef="0" IVar="1" Cut="4.7680759429931641e-01" cType="1" res="1.2973567470908165e-02" rms="4.0164059400558472e-01" purity="7.8822797536849976e-01" nType="0">
                  <Node pos="l" depth="6" NCoef="0" IVar="4" Cut="-3.6906754970550537e-01" cType="1" res="1.6585588455200195e-02" rms="3.9167276024818420e-01" purity="8.0256265401840210e-01" nType="0">
                    <Node pos="l" depth="7" NCoef="0" IVar="-1" Cut="0.0000000000000000e+00" cType="1" res="1.1336633469909430e-03" rms="4.0662565827369690e-01" purity="7.7996796369552612e-01" nType="-99"/>
                    <Node pos="r" depth="7" NCoef="0" IVar="-1" Cut="0.0000000000000000e+00" cType="1" res="2.7541539166122675e-03" rms="3.7675020098686218e-01" purity="8.2415509223937988e-01" nType="-99"/>
                  </Node>
                  <Node pos="r" depth="6" NCoef="0" IVar="-1" Cut="0.0000000000000000e+00" cType="1" res="3.4771705395542085e-04" rms="4.2647939920425415e-01" purity="7.5071632862091064e-01" nType="-99"/>
                </Node>
              </Node>
              <Node pos="r" depth="4" NCoef="0" IVar="4" Cut="-1.4588432312011719e+00" cType="1" res="-1.5580900013446808e-02" rms="3.8609912991523743e-01" purity="3.1199580430984497e-01" nType="0">
                <Node pos="l" depth="5" NCoef="0" IVar="1" Cut="1.1890181303024292e+00" cType="1" res="-3.4225471608806401e-05" rms="4.3179869651794434e-01" purity="3.8681063055992126e-01" nType="0">
                  <Node pos="l" depth="6" NCoef="0" IVar="-1" Cut="0.0000000000000000e+00" cType="1" res="-3.5246563493274152e-04" rms="4.3359965085983276e-01" purity="4.1575732827186584e-01" nType="-99"/>
                  <Node pos="r" depth="6" NCoef="0" IVar="-1" Cut="0.0000000000000000e+00" cType="1" res="3.3374034683220088e-04" rms="4.3013176321983337e-01" purity="3.6045330762863159e-01" nType="-99"/>
                </Node>
                <Node pos="r" depth="5" NCoef="0" IVar="4" Cut="-1.6266216337680817e-01" cType="1" res="-2.3070147261023521e-02" rms="3.6179310083389282e-01" purity="2.7595549821853638e-01" nType="0">
                  <Node pos="l" depth="6" NCoef="0" IVar="7" Cut="3.0000000000000000e+00" cType="1" res="-3.1977787613868713e-02" rms="3.6645755171775818e-01" purity="2.7228727936744690e-01" nType="0">
                    <Node pos="l" depth="7" NCoef="0" IVar="-1" Cut="0.0000000000000000e+00" cType="1" res="-4.7274488024413586e-03" rms="4.3937784433364868e-01" purity="4.8019057512283325e-01" nType="-99"/>
                    <Node pos="r" depth="7" NCoef="0" IVar="-1" Cut="0.0000000000000000e+00" cType="1" res="-5.2109025418758392e-03" rms="2.9995945096015930e-01" purity="1.1660577356815338e-01" nType="-99"/>
                  </Node>
                  <Node pos="r" depth="6" NCoef="0" IVar="-1" Cut="0.0000000000000000e+00" cType="1" res="-2.0591120701283216e-03" rms="3.5565078258514404e-01" purity="2.8047817945480347e-01" nType="-99"/>
                </Node>
              </Node>
            </Node>
            <Node pos="r" depth="3" NCoef="0" IVar="-1" Cut="0.0000000000000000e+00" cType="1" res="5.3199194371700287e-03" rms="3.6250439286231995e-01" purity="3.9216452836990356e-01" nType="-99"/>
          </Node>
          <Node pos="r" depth="2" NCoef="0" IVar="4" Cut="-1.3504481315612793e+00" cType="1" res="-1.1864228174090385e-02" rms="3.4686005115509033e-01" purity="2.1762253344058990e-01" nType="0">
            <Node pos="l" depth="3" NCoef="0" IVar="-1" Cut="0.0000000000000000e+00" cType="1" res="2.3790085688233376e-03" rms="4.7366365790367126e-01" purity="4.8717501759529114e-01" nType="-99"/>
            <Node pos="r" depth="3" NCoef="0" IVar="7" Cut="4.0000000000000000e+00" cType="1" res="1.1018728464841843e-01" rms="0.0000000000000000e+00" purity="1.9114495813846588e-01" nType="0">
              <Node pos="l" depth="4" NCoef="0" IVar="2" Cut="1.5046784973144531e+02" cType="1" res="-2.4914614856243134e-02" rms="4.1751778125762939e-01" purity="3.3857685327529907e-01" nType="0">
                <Node pos="l" depth="5" NCoef="0" IVar="2" Cut="1.4560969352722168e+01" cType="1" res="-1.8098859116435051e-02" rms="4.4441184401512146e-01" purity="4.2097082734107971e-01" nType="0">
                  <Node pos="l" depth="6" NCoef="0" IVar="-1" Cut="0.0000000000000000e+00" cType="1" res="-5.5301951942965388e-04" rms="4.7295972704887390e-01" purity="5.7804203033447266e-01" nType="-99"/>
                  <Node pos="r" depth="6" NCoef="0" IVar="-1" Cut="0.0000000000000000e+00" cType="1" res="-3.1098844483494759e-03" rms="4.2447206377983093e-01" purity="3.1798428297042847e-01" nType="-99"/>
                </Node>
                <Node pos="r" depth="5" NCoef="0" IVar="5" Cut="-6.2915235757827759e-01" cType="1" res="-3.4907154738903046e-02" rms="3.7439003586769104e-01" purity="2.1777956187725067e-01" nType="0">
                  <Node pos="l" depth="6" NCoef="0" IVar="-1" Cut="0.0000000000000000e+00" cType="1" res="-5.2423127926886082e-03" rms="4.1997885704040527e-01" purity="3.0005565285682678e-01" nType="-99"/>
                  <Node pos="r" depth="6" NCoef="0" IVar="-1" Cut="0.0000000000000000e+00" cType="1" res="-5.5392421782016754e-03" rms="3.3178743720054626e-01" purity="1.4965485036373138e-01" nType="-99"/>
                </Node>
              </Node>
              <Node pos="r" depth="4" NCoef="0" IVar="2" Cut="1.7502246093750000e+02" cType="1" res="-7.9719405621290207e-03" rms="2.4330802261829376e-01" purity="7.5198583304882050e-02" nType="0">
                <Node pos="l" depth="5" NCoef="0" IVar="3" Cut="3.3540889620780945e-01" cType="1" res="-1.6834575217217207e-03" rms="2.4504247307777405e-01" purity="8.1841401755809784e-02" nType="0">
                  <Node pos="l" depth="6" NCoef="0" IVar="-1" Cut="0.0000000000000000e+00" cType="1" res="-1.2358881533145905e-02" rms="1.4030946791172028e-01" purity="2.0549045875668526e-02" nType="-99"/>
                  <Node pos="r" depth="6" NCoef="0" IVar="-1" Cut="0.0000000000000000e+00" cType="1" res="2.3437913041561842e-03" rms="3.2003802061080933e-01" purity="1.4658980071544647e-01" nType="-99"/>
                </Node>
                <Node pos="r" depth="5" NCoef="0" IVar="7" Cut="7.0000000000000000e+00" cType="1" res="5.8691468089818954e-02" rms="0.0000000000000000e+00" purity="7.1112625300884247e-02" nType="0">
                  <Node pos="l" depth="6" NCoef="0" IVar="3" Cut="3.7819552421569824e-01" cType="1" res="-1.6862265765666962e-02" rms="2.4713186919689178e-01" purity="7.6007515192031860e-02" nType="0">
                    <Node pos="l" depth="7" NCoef="0" IVar="-1" Cut="0.0000000000000000e+00" cType="1" res="-7.2291023097932339e-03" rms="1.9711874425411224e-01" purity="4.2471211403608322e-02" nType="-99"/>
                    <Node pos="r" depth="7" NCoef="0" IVar="-1" Cut="0.0000000000000000e+00" cType="1" res="-5.1445160061120987e-03" rms="3.0026793479919434e-01" purity="1.1999506503343582e-01" nType="-99"/>
                  </Node>
                  <Node pos="r" depth="6" NCoef="0" IVar="-1" Cut="0.0000000000000000e+00" cType="1" res="-7.4439059244468808e-04" rms="2.3128530383110046e-01" purity="6.1087962239980698e-02" nType="-99"/>
                </Node>
              </Node>
            </Node>
          </Node>
        </Node>
      </Node>
    </BinaryTree>
    <BinaryTree type="DecisionTree" boostWeight="1.0000000000000000e+00" itree="98">
      <Node pos="s" depth="0" NCoef="0" IVar="4" Cut="2.0263638496398926e+00" cType="1" res="3.0701928772032261e-03" rms="4.0353548526763916e-01" purity="5.0022679567337036e-01" nType="0">
        <Node pos="l" depth="1" NCoef="0" IVar="5" Cut="-3.7993752956390381e+00" cType="1" res="4.3465220369398594e-03" rms="4.1371735930442810e-01" purity="5.3168094158172607e-01" nType="0">
          <Node pos="l" depth="2" NCoef="0" IVar="-1" Cut="0.0000000000000000e+00" cType="1" res="-7.6296571642160416e-03" rms="3.3515700697898865e-01" purity="1.7818337678909302e-01" nType="-99"/>
          <Node pos="r" depth="2" NCoef="0" IVar="3" Cut="4.8243361711502075e-01" cType="1" res="4.8568313941359520e-03" rms="4.1449078917503357e-01" purity="5.3567010164260864e-01" nType="0">
            <Node pos="l" depth="3" NCoef="0" IVar="7" Cut="1.0000000000000000e+01" cType="1" res="-4.2335959151387215e-03" rms="3.1101754307746887e-01" purity="1.2170178443193436e-01" nType="0">
              <Node pos="l" depth="4" NCoef="0" IVar="3" Cut="1.4080795645713806e-01" cType="1" res="-2.2823102772235870e-03" rms="3.1534773111343384e-01" purity="1.2573544681072235e-01" nType="0">
                <Node pos="l" depth="5" NCoef="0" IVar="-1" Cut="0.0000000000000000e+00" cType="1" res="7.4225212447345257e-03" rms="3.7412062287330627e-01" purity="1.9436985254287720e-01" nType="-99"/>
                <Node pos="r" depth="5" NCoef="0" IVar="0" Cut="6.2314200401306152e-01" cType="1" res="-5.0689126364886761e-03" rms="3.1044337153434753e-01" purity="1.2073066830635071e-01" nType="0">
                  <Node pos="l" depth="6" NCoef="0" IVar="7" Cut="6.0000000000000000e+00" cType="1" res="6.4398813992738724e-03" rms="2.7881130576133728e-01" purity="2.4975661933422089e-01" nType="0">
                    <Node pos="l" depth="7" NCoef="0" IVar="-1" Cut="0.0000000000000000e+00" cType="1" res="4.5856615179218352e-04" rms="4.2277938127517700e-01" purity="2.5262612104415894e-01" nType="-99"/>
                    <Node pos="r" depth="7" NCoef="0" IVar="-1" Cut="0.0000000000000000e+00" cType="1" res="6.8117710761725903e-03" rms="4.1613933444023132e-01" purity="2.4433174729347229e-01" nType="-99"/>
                  </Node>
                  <Node pos="r" depth="6" NCoef="0" IVar="5" Cut="-3.1881413459777832e+00" cType="1" res="-1.0996211320161819e-02" rms="2.7238571643829346e-01" purity="8.5563436150550842e-02" nType="0">
                    <Node pos="l" depth="7" NCoef="0" IVar="-1" Cut="0.0000000000000000e+00" cType="1" res="-1.0314021259546280e-02" rms="2.2579781711101532e-01" purity="5.4941352456808090e-02" nType="-99"/>
                    <Node pos="r" depth="7" NCoef="0" IVar="-1" Cut="0.0000000000000000e+00" cType="1" res="-2.9363788198679686e-03" rms="2.7789825201034546e-01" purity="8.9609153568744659e-02" nType="-99"/>
                  </Node>
                </Node>
              </Node>
              <Node pos="r" depth="4" NCoef="0" IVar="-1" Cut="0.0000000000000000e+00" cType="1" res="-1.2485181912779808e-02" rms="2.2862145304679871e-01" purity="5.7117555290460587e-02" nType="-99"/>
            </Node>
            <Node pos="r" depth="3" NCoef="0" IVar="0" Cut="6.1459428071975708e-01" cType="1" res="7.2415312752127647e-03" rms="4.3757125735282898e-01" purity="6.4426672458648682e-01" nType="0">
              <Node pos="l" depth="4" NCoef="0" IVar="5" Cut="-3.4801546484231949e-02" cType="1" res="8.9041106402873993e-03" rms="4.3831515312194824e-01" purity="6.7340081930160522e-01" nType="0">
                <Node pos="l" depth="5" NCoef="0" IVar="5" Cut="-1.9774954319000244e+00" cType="1" res="8.2312468439340591e-03" rms="4.3767723441123962e-01" purity="6.8030768632888794e-01" nType="0">
                  <Node pos="l" depth="6" NCoef="0" IVar="3" Cut="1.0038588047027588e+00" cType="1" res="1.1831975542008877e-02" rms="4.2355471849441528e-01" purity="7.2220337390899658e-01" nType="0">
                    <Node pos="l" depth="7" NCoef="0" IVar="-1" Cut="0.0000000000000000e+00" cType="1" res="1.0511445580050349e-03" rms="4.3125805258750916e-01" purity="7.0480930805206299e-01" nType="-99"/>
                    <Node pos="r" depth="7" NCoef="0" IVar="-1" Cut="0.0000000000000000e+00" cType="1" res="2.6426343247294426e-03" rms="3.7286484241485596e-01" purity="8.2849627733230591e-01" nType="-99"/>
                  </Node>
                  <Node pos="r" depth="6" NCoef="0" IVar="0" Cut="1.7841289937496185e-01" cType="1" res="-3.4741355921141803e-04" rms="4.6950441598892212e-01" purity="5.8049207925796509e-01" nType="0">
                    <Node pos="l" depth="7" NCoef="0" IVar="-1" Cut="0.0000000000000000e+00" cType="1" res="4.0652620373293757e-04" rms="4.6775782108306885e-01" purity="6.3375622034072876e-01" nType="-99"/>
                    <Node pos="r" depth="7" NCoef="0" IVar="-1" Cut="0.0000000000000000e+00" cType="1" res="-1.2879029382020235e-03" rms="4.7390919923782349e-01" purity="4.3792974948883057e-01" nType="-99"/>
                  </Node>
                </Node>
                <Node pos="r" depth="5" NCoef="0" IVar="-1" Cut="0.0000000000000000e+00" cType="1" res="4.1162450797855854e-03" rms="4.6394252777099609e-01" purity="3.7706243991851807e-01" nType="-99"/>
              </Node>
              <Node pos="r" depth="4" NCoef="0" IVar="3" Cut="8.0569458007812500e-01" cType="1" res="-1.3280757702887058e-02" rms="4.2775070667266846e-01" purity="2.8464546799659729e-01" nType="0">
                <Node pos="l" depth="5" NCoef="0" IVar="1" Cut="3.1689614057540894e-01" cType="1" res="-3.8985193241387606e-03" rms="4.1595819592475891e-01" purity="2.5222548842430115e-01" nType="0">
                  <Node pos="l" depth="6" NCoef="0" IVar="6" Cut="5.9133347123861313e-02" cType="1" res="4.9728015437722206e-03" rms="4.3874165415763855e-01" purity="2.9757353663444519e-01" nType="0">
                    <Node pos="l" depth="7" NCoef="0" IVar="-1" Cut="0.0000000000000000e+00" cType="1" res="-1.2028994970023632e-03" rms="4.2848479747772217e-01" purity="2.8030896186828613e-01" nType="-99"/>
                    <Node pos="r" depth="7" NCoef="0" IVar="-1" Cut="0.0000000000000000e+00" cType="1" res="1.6923219664022326e-03" rms="4.4474434852600098e-01" purity="3.0830150842666626e-01" nType="-99"/>
                  </Node>
                  <Node pos="r" depth="6" NCoef="0" IVar="-1" Cut="0.0000000000000000e+00" cType="1" res="-2.7853788342326880e-03" rms="3.7926149368286133e-01" purity="1.8494305014610291e-01" nType="-99"/>
                </Node>
                <Node pos="r" depth="5" NCoef="0" IVar="-1" Cut="0.0000000000000000e+00" cType="1" res="-4.7707608900964260e-03" rms="4.7195890545845032e-01" purity="4.2048767209053040e-01" nType="-99"/>
              </Node>
            </Node>
          </Node>
        </Node>
        <Node pos="r" depth="1" NCoef="0" IVar="3" Cut="4.8477616906166077e-01" cType="1" res="-1.5130751766264439e-02" rms="2.0934019982814789e-01" purity="5.1679149270057678e-02" nType="0">
          <Node pos="l" depth="2" NCoef="0" IVar="6" Cut="1.5753525495529175e-01" cType="1" res="-5.6617064401507378e-03" rms="1.8092794716358185e-01" purity="3.7692040205001831e-02" nType="0">
            <Node pos="l" depth="3" NCoef="0" IVar="6" Cut="7.1702517569065094e-02" cType="1" res="-1.1808365583419800e-02" rms="1.1944361776113510e-01" purity="1.4744016341865063e-02" nType="0">
              <Node pos="l" depth="4" NCoef="0" IVar="-1" Cut="0.0000000000000000e+00" cType="1" res="-2.5154028087854385e-02" rms="5.5614966899156570e-02" purity="3.0639986507594585e-03" nType="-99"/>
              <Node pos="r" depth="4" NCoef="0" IVar="3" Cut="3.0217143893241882e-01" cType="1" res="-7.9221362248063087e-03" rms="1.4132274687290192e-01" purity="2.0754320546984673e-02" nType="0">
                <Node pos="l" depth="5" NCoef="0" IVar="-1" Cut="0.0000000000000000e+00" cType="1" res="-1.6387699171900749e-02" rms="1.0892289131879807e-01" purity="1.2007416225969791e-02" nType="-99"/>
                <Node pos="r" depth="5" NCoef="0" IVar="-1" Cut="0.0000000000000000e+00" cType="1" res="-3.0583639163523912e-03" rms="1.6361178457736969e-01" purity="2.8135292232036591e-02" nType="-99"/>
              </Node>
            </Node>
            <Node pos="r" depth="3" NCoef="0" IVar="-1" Cut="0.0000000000000000e+00" cType="1" res="2.5079771876335144e-03" rms="2.6138418912887573e-01" purity="8.2178652286529541e-02" nType="-99"/>
          </Node>
          <Node pos="r" depth="2" NCoef="0" IVar="-1" Cut="0.0000000000000000e+00" cType="1" res="-1.0978273116052151e-02" rms="2.8569754958152771e-01" purity="1.0117714107036591e-01" nType="-99"/>
        </Node>
      </Node>
    </BinaryTree>
    <BinaryTree type="DecisionTree" boostWeight="1.0000000000000000e+00" itree="99">
      <Node pos="s" depth="0" NCoef="0" IVar="3" Cut="1.0602499246597290e+00" cType="1" res="1.6928934492170811e-03" rms="4.0385711193084717e-01" purity="5.0027936697006226e-01" nType="0">
        <Node pos="l" depth="1" NCoef="0" IVar="3" Cut="6.1569231748580933e-01" cType="1" res="2.2313257213681936e-03" rms="4.0357187390327454e-01" purity="4.9927839636802673e-01" nType="0">
          <Node pos="l" depth="2" NCoef="0" IVar="4" Cut="-1.6035696268081665e+00" cType="1" res="-5.2119651809334755e-03" rms="3.3614042401313782e-01" purity="1.5950371325016022e-01" nType="0">
            <Node pos="l" depth="3" NCoef="0" IVar="5" Cut="-2.4410719871520996e+00" cType="1" res="1.0353378020226955e-02" rms="3.9788559079170227e-01" purity="2.3835016787052155e-01" nType="0">
              <Node pos="l" depth="4" NCoef="0" IVar="4" Cut="-2.2920675277709961e+00" cType="1" res="-9.2685886193066835e-04" rms="3.7924349308013916e-01" purity="2.1179005503654480e-01" nType="0">
                <Node pos="l" depth="5" NCoef="0" IVar="-1" Cut="0.0000000000000000e+00" cType="1" res="-1.6304439632222056e-03" rms="3.7572088837623596e-01" purity="2.0934320986270905e-01" nType="-99"/>
                <Node pos="r" depth="5" NCoef="0" IVar="-1" Cut="0.0000000000000000e+00" cType="1" res="1.5333814080804586e-03" rms="3.8278314471244812e-01" purity="2.1444827318191528e-01" nType="-99"/>
              </Node>
              <Node pos="r" depth="4" NCoef="0" IVar="-1" Cut="0.0000000000000000e+00" cType="1" res="4.4078738428652287e-03" rms="4.3205830454826355e-01" purity="2.9175856709480286e-01" nType="-99"/>
            </Node>
            <Node pos="r" depth="3" NCoef="0" IVar="7" Cut="4.0000000000000000e+00" cType="1" res="1.0624747723340988e-01" rms="0.0000000000000000e+00" purity="1.4774706959724426e-01" nType="0">
              <Node pos="l" depth="4" NCoef="0" IVar="3" Cut="3.4149485826492310e-01" cType="1" res="-1.5546584501862526e-02" rms="3.6956438422203064e-01" purity="1.9609741866588593e-01" nType="0">
                <Node pos="l" depth="5" NCoef="0" IVar="-1" Cut="0.0000000000000000e+00" cType="1" res="3.9723222143948078e-03" rms="3.3134838938713074e-01" purity="1.4340664446353912e-01" nType="-99"/>
                <Node pos="r" depth="5" NCoef="0" IVar="7" Cut="3.0000000000000000e+00" cType="1" res="-1.7757236957550049e-02" rms="3.4791657328605652e-01" purity="2.0608209073543549e-01" nType="0">
                  <Node pos="l" depth="6" NCoef="0" IVar="-1" Cut="0.0000000000000000e+00" cType="1" res="-6.2843621708452702e-03" rms="3.5268744826316833e-01" purity="1.7341488599777222e-01" nType="-99"/>
                  <Node pos="r" depth="6" NCoef="0" IVar="6" Cut="1.0303599387407303e-01" cType="1" res="-1.5469350852072239e-02" rms="3.8384172320365906e-01" purity="2.1763446927070618e-01" nType="0">
                    <Node pos="l" depth="7" NCoef="0" IVar="-1" Cut="0.0000000000000000e+00" cType="1" res="-3.5664355382323265e-03" rms="3.6399304866790771e-01" purity="1.8683128058910370e-01" nType="-99"/>
                    <Node pos="r" depth="7" NCoef="0" IVar="-1" Cut="0.0000000000000000e+00" cType="1" res="-1.0709273628890514e-03" rms="4.0748548507690430e-01" purity="2.5668740272521973e-01" nType="-99"/>
                  </Node>
                </Node>
              </Node>
              <Node pos="r" depth="4" NCoef="0" IVar="3" Cut="3.9723488688468933e-01" cType="1" res="-5.1010064780712128e-03" rms="3.1135854125022888e-01" purity="1.3307438790798187e-01" nType="0">
                <Node pos="l" depth="5" NCoef="0" IVar="3" Cut="1.9228924810886383e-01" cType="1" res="-1.0081321932375431e-02" rms="2.4278312921524048e-01" purity="6.8102382123470306e-02" nType="0">
                  <Node pos="l" depth="6" NCoef="0" IVar="5" Cut="-1.4302112162113190e-01" cType="1" res="-1.9889969378709793e-02" rms="2.4213494360446930e-01" purity="6.8571895360946655e-02" nType="0">
                    <Node pos="l" depth="7" NCoef="0" IVar="-1" Cut="0.0000000000000000e+00" cType="1" res="-1.0435129515826702e-02" rms="2.3539283871650696e-01" purity="6.3464209437370300e-02" nType="-99"/>
                    <Node pos="r" depth="7" NCoef="0" IVar="-1" Cut="0.0000000000000000e+00" cType="1" res="-2.1704530809074640e-04" rms="2.5509479641914368e-01" purity="7.9662799835205078e-02" nType="-99"/>
                  </Node>
                  <Node pos="r" depth="6" NCoef="0" IVar="0" Cut="2.0343453884124756e+00" cType="1" res="-7.3571344837546349e-03" rms="2.4289256334304810e-01" purity="6.7971982061862946e-02" nType="0">
                    <Node pos="l" depth="7" NCoef="0" IVar="-1" Cut="0.0000000000000000e+00" cType="1" res="-8.5080706048756838e-04" rms="2.7233999967575073e-01" purity="8.6726434528827667e-02" nType="-99"/>
                    <Node pos="r" depth="7" NCoef="0" IVar="-1" Cut="0.0000000000000000e+00" cType="1" res="-1.2379175052046776e-02" rms="1.6325937211513519e-01" purity="2.8193660080432892e-02" nType="-99"/>
                  </Node>
                </Node>
                <Node pos="r" depth="5" NCoef="0" IVar="7" Cut="6.0000000000000000e+00" cType="1" res="3.1879935413599014e-03" rms="3.9970636367797852e-01" purity="2.4067969620227814e-01" nType="0">
                  <Node pos="l" depth="6" NCoef="0" IVar="1" Cut="6.3803589344024658e-01" cType="1" res="-5.7772960280999541e-04" rms="4.0168088674545288e-01" purity="2.4396525323390961e-01" nType="0">
                    <Node pos="l" depth="7" NCoef="0" IVar="-1" Cut="0.0000000000000000e+00" cType="1" res="2.9451842419803143e-04" rms="4.1221117973327637e-01" purity="2.6209634542465210e-01" nType="-99"/>
                    <Node pos="r" depth="7" NCoef="0" IVar="-1" Cut="0.0000000000000000e+00" cType="1" res="-3.3224031794816256e-03" rms="3.3581119775772095e-01" purity="1.4177112281322479e-01" nType="-99"/>
                  </Node>
                  <Node pos="r" depth="6" NCoef="0" IVar="-1" Cut="0.0000000000000000e+00" cType="1" res="3.5398763138800859e-03" rms="3.8922896981239319e-01" purity="2.2430726885795593e-01" nType="-99"/>
                </Node>
              </Node>
            </Node>
          </Node>
          <Node pos="r" depth="2" NCoef="0" IVar="0" Cut="6.1459439992904663e-01" cType="1" res="6.3304770737886429e-03" rms="4.3622547388076782e-01" purity="6.8639832735061646e-01" nType="0">
            <Node pos="l" depth="3" NCoef="0" IVar="7" Cut="4.0000000000000000e+00" cType="1" res="7.1365758776664734e-03" rms="3.8357621431350708e-01" purity="6.9620549678802490e-01" nType="0">
              <Node pos="l" depth="4" NCoef="0" IVar="0" Cut="2.1802157163619995e-01" cType="1" res="6.5073040314018726e-03" rms="4.3337875604629517e-01" purity="7.0227354764938354e-01" nType="0">
                <Node pos="l" depth="5" NCoef="0" IVar="3" Cut="7.0173859596252441e-01" cType="1" res="8.3449985831975937e-03" rms="4.2496451735496521e-01" purity="7.3733818531036377e-01" nType="0">
                  <Node pos="l" depth="6" NCoef="0" IVar="3" Cut="6.6841632127761841e-01" cType="1" res="-1.2736701406538486e-02" rms="4.8521760106086731e-01" purity="5.1309990882873535e-01" nType="0">
                    <Node pos="l" depth="7" NCoef="0" IVar="-1" Cut="0.0000000000000000e+00" cType="1" res="-7.4999064963776618e-05" rms="4.8813262581825256e-01" purity="4.8987507820129395e-01" nType="-99"/>
                    <Node pos="r" depth="7" NCoef="0" IVar="-1" Cut="0.0000000000000000e+00" cType="1" res="-2.0688329823315144e-03" rms="4.8206773400306702e-01" purity="5.3581070899963379e-01" nType="-99"/>
                  </Node>
                  <Node pos="r" depth="6" NCoef="0" IVar="3" Cut="9.9085992574691772e-01" cType="1" res="9.2637948691844940e-03" rms="4.2211905121803284e-01" purity="7.4711108207702637e-01" nType="0">
                    <Node pos="l" depth="7" NCoef="0" IVar="-1" Cut="0.0000000000000000e+00" cType="1" res="6.2346283812075853e-04" rms="4.4280344247817993e-01" purity="7.0636254549026489e-01" nType="-99"/>
                    <Node pos="r" depth="7" NCoef="0" IVar="-1" Cut="0.0000000000000000e+00" cType="1" res="1.4727879315614700e-03" rms="3.9536473155021667e-01" purity="7.9687011241912842e-01" nType="-99"/>
                  </Node>
                </Node>
                <Node pos="r" depth="5" NCoef="0" IVar="6" Cut="6.4996570348739624e-02" cType="1" res="-3.0514253303408623e-03" rms="4.7463136911392212e-01" purity="5.1988571882247925e-01" nType="0">
                  <Node pos="l" depth="6" NCoef="0" IVar="2" Cut="4.8645481109619141e+01" cType="1" res="-8.3698704838752747e-03" rms="4.7219249606132507e-01" purity="5.3657031059265137e-01" nType="0">
                    <Node pos="l" depth="7" NCoef="0" IVar="-1" Cut="0.0000000000000000e+00" cType="1" res="4.8502234858460724e-04" rms="4.6648332476615906e-01" purity="6.1648732423782349e-01" nType="-99"/>
                    <Node pos="r" depth="7" NCoef="0" IVar="-1" Cut="0.0000000000000000e+00" cType="1" res="-1.7544097499921918e-03" rms="4.7602039575576782e-01" purity="4.7905293107032776e-01" nType="-99"/>
                  </Node>
                  <Node pos="r" depth="6" NCoef="0" IVar="3" Cut="6.7319107055664062e-01" cType="1" res="1.3806327246129513e-02" rms="4.8189258575439453e-01" purity="4.6700084209442139e-01" nType="0">
                    <Node pos="l" depth="7" NCoef="0" IVar="-1" Cut="0.0000000000000000e+00" cType="1" res="2.6573981158435345e-03" rms="4.8021799325942993e-01" purity="4.2277583479881287e-01" nType="-99"/>
                    <Node pos="r" depth="7" NCoef="0" IVar="-1" Cut="0.0000000000000000e+00" cType="1" res="2.7181531186215580e-04" rms="4.8291006684303284e-01" purity="5.0126761198043823e-01" nType="-99"/>
                  </Node>
                </Node>
              </Node>
              <Node pos="r" depth="4" NCoef="0" IVar="-1" Cut="0.0000000000000000e+00" cType="1" res="2.7249315753579140e-03" rms="4.7888207435607910e-01" purity="5.4135340452194214e-01" nType="-99"/>
            </Node>
            <Node pos="r" depth="3" NCoef="0" IVar="-1" Cut="0.0000000000000000e+00" cType="1" res="-2.4677545297890902e-03" rms="4.6548447012901306e-01" purity="3.8524243235588074e-01" nType="-99"/>
          </Node>
        </Node>
        <Node pos="r" depth="1" NCoef="0" IVar="-1" Cut="0.0000000000000000e+00" cType="1" res="-4.6620075590908527e-03" rms="4.2591676115989685e-01" purity="5.9008556604385376e-01" nType="-99"/>
      </Node>
    </BinaryTree>
  </Weights>
</MethodSetup>
