<?xml version="1.0"?>
<MethodSetup Method="BDT::BDTG">
  <GeneralInfo>
    <Info name="TMVA Release" value="4.2.1 [262657]"/>
    <Info name="ROOT Release" value="6.04/16 [394256]"/>
    <Info name="Creator" value="sakatsuk"/>
    <Info name="Date" value="Sun Sep  2 19:13:12 2018"/>
    <Info name="Host" value="Linux lcgapp-slc6-physical1.cern.ch 2.6.32-573.8.1.el6.x86_64 #1 SMP Wed Nov 11 15:27:45 CET 2015 x86_64 x86_64 x86_64 GNU/Linux"/>
    <Info name="Dir" value="/gpfs/fs6001/sakatsuk/PromptLeptonTagger/addToNtuple/script"/>
    <Info name="Training events" value="588614"/>
    <Info name="TrainingTime" value="2.84764091e+02"/>
    <Info name="AnalysisType" value="Classification"/>
  </GeneralInfo>
  <Options>
    <Option name="V" modified="Yes">False</Option>
    <Option name="VerbosityLevel" modified="No">Default</Option>
    <Option name="VarTransform" modified="No">None</Option>
    <Option name="H" modified="Yes">False</Option>
    <Option name="CreateMVAPdfs" modified="No">False</Option>
    <Option name="IgnoreNegWeightsInTraining" modified="No">False</Option>
    <Option name="NTrees" modified="Yes">100</Option>
    <Option name="MaxDepth" modified="Yes">7</Option>
    <Option name="MinNodeSize" modified="Yes">1.0</Option>
    <Option name="nCuts" modified="Yes">30</Option>
    <Option name="BoostType" modified="Yes">Grad</Option>
    <Option name="AdaBoostR2Loss" modified="No">quadratic</Option>
    <Option name="UseBaggedBoost" modified="No">True</Option>
    <Option name="Shrinkage" modified="Yes">5.000000e-02</Option>
    <Option name="AdaBoostBeta" modified="No">5.000000e-01</Option>
    <Option name="UseRandomisedTrees" modified="No">False</Option>
    <Option name="UseNvars" modified="No">3</Option>
    <Option name="UsePoissonNvars" modified="No">True</Option>
    <Option name="BaggedSampleFraction" modified="No">5.000000e-01</Option>
    <Option name="UseYesNoLeaf" modified="No">True</Option>
    <Option name="NegWeightTreatment" modified="No">ignorenegweightsintraining</Option>
    <Option name="Css" modified="No">1.000000e+00</Option>
    <Option name="Cts_sb" modified="No">1.000000e+00</Option>
    <Option name="Ctb_ss" modified="No">1.000000e+00</Option>
    <Option name="Cbb" modified="No">1.000000e+00</Option>
    <Option name="NodePurityLimit" modified="No">5.000000e-01</Option>
    <Option name="SeparationType" modified="No">giniindex</Option>
    <Option name="DoBoostMonitor" modified="No">False</Option>
    <Option name="UseFisherCuts" modified="No">False</Option>
    <Option name="MinLinCorrForFisher" modified="No">8.000000e-01</Option>
    <Option name="UseExclusiveVars" modified="No">False</Option>
    <Option name="DoPreselection" modified="No">False</Option>
    <Option name="SigToBkgFraction" modified="No">1.000000e+00</Option>
    <Option name="PruneMethod" modified="Yes">nopruning</Option>
    <Option name="PruneStrength" modified="No">0.000000e+00</Option>
    <Option name="PruningValFraction" modified="No">5.000000e-01</Option>
    <Option name="nEventsMin" modified="No">0</Option>
    <Option name="UseBaggedGrad" modified="Yes">True</Option>
    <Option name="GradBaggingFraction" modified="Yes">5.000000e-01</Option>
    <Option name="UseNTrainEvents" modified="No">0</Option>
    <Option name="NNodesMax" modified="No">0</Option>
  </Options>
  <Variables NVar="6">
    <Variable VarIndex="0" Expression="CorrPtvarcone30/Pt/1000" Label="CorrPtvarcone30/Pt/1000" Title="mytree.CorrPtvarcone30/mytree.Pt/1000" Unit="unit" Internal="CorrPtvarcone30_D_Pt_D_1000" Type="F" Min="-3.43586203e-06" Max="6.42548779e+03"/>
    <Variable VarIndex="1" Expression="CorrTopoetcone20/Pt" Label="CorrTopoetcone20/Pt" Title="mytree.CorrTopoetcone20/mytree.Pt" Unit="unit" Internal="CorrTopoetcone20_D_Pt" Type="F" Min="-8.90940094e+01" Max="1.08516815e+02"/>
    <Variable VarIndex="2" Expression="PLTInput_PtRel" Label="PLTInput_PtRel" Title="mytree.PLTInput_PtRel" Unit="unit" Internal="PLTInput_PtRel" Type="F" Min="0.00000000e+00" Max="6.00479834e+03"/>
    <Variable VarIndex="3" Expression="PLTInput_PtFrac" Label="PLTInput_PtFrac" Title="mytree.PLTInput_PtFrac" Unit="unit" Internal="PLTInput_PtFrac" Type="F" Min="1.56295035e-04" Max="2.99355865e+00"/>
    <Variable VarIndex="4" Expression="PLTInput_DRlj" Label="PLTInput_DRlj" Title="mytree.PLTInput_DRlj" Unit="unit" Internal="PLTInput_DRlj" Type="F" Min="1.31414513e-09" Max="4.85199213e+00"/>
    <Variable VarIndex="5" Expression="PLTInput_TrackJetNTrack" Label="PLTInput_TrackJetNTrack" Title="mytree.PLTInput_TrackJetNTrack" Unit="unit" Internal="PLTInput_TrackJetNTrack" Type="I" Min="1.00000000e+00" Max="4.30000000e+01"/>
  </Variables>
  <Spectators NSpec="9">
    <Spectator SpecIndex="0" Expression="Origin" Label="Origin" Title="Origin" Unit="" Internal="Origin" Type="F" Min="0.00000000e+00" Max="3.50000000e+01"/>
    <Spectator SpecIndex="1" Expression="IsoCorrGradientLoose" Label="IsoCorrGradientLoose" Title="IsoCorrGradientLoose" Unit="" Internal="IsoCorrGradientLoose" Type="F" Min="0.00000000e+00" Max="1.00000000e+00"/>
    <Spectator SpecIndex="2" Expression="IsoCorrFixedCutLoose" Label="IsoCorrFixedCutLoose" Title="IsoCorrFixedCutLoose" Unit="" Internal="IsoCorrFixedCutLoose" Type="F" Min="0.00000000e+00" Max="1.00000000e+00"/>
    <Spectator SpecIndex="3" Expression="Pt" Label="Pt" Title="Pt" Unit="" Internal="Pt" Type="F" Min="3.00001335e+00" Max="5.99999952e+00"/>
    <Spectator SpecIndex="4" Expression="IsoCorrFixedCutTightTrackOnly" Label="IsoCorrFixedCutTightTrackOnly" Title="IsoCorrFixedCutTightTrackOnly" Unit="" Internal="IsoCorrFixedCutTightTrackOnly" Type="F" Min="0.00000000e+00" Max="1.00000000e+00"/>
    <Spectator SpecIndex="5" Expression="CorrPtvarcone20" Label="CorrPtvarcone20" Title="CorrPtvarcone20" Unit="" Internal="CorrPtvarcone20" Type="F" Min="-1.15079507e-02" Max="8.35901150e+06"/>
    <Spectator SpecIndex="6" Expression="IsoCorrGradient" Label="IsoCorrGradient" Title="IsoCorrGradient" Unit="" Internal="IsoCorrGradient" Type="F" Min="0.00000000e+00" Max="1.00000000e+00"/>
    <Spectator SpecIndex="7" Expression="IsoCorrLooseTrackOnly" Label="IsoCorrLooseTrackOnly" Title="IsoCorrLooseTrackOnly" Unit="" Internal="IsoCorrLooseTrackOnly" Type="F" Min="0.00000000e+00" Max="1.00000000e+00"/>
    <Spectator SpecIndex="8" Expression="Type" Label="Type" Title="Type" Unit="" Internal="Type" Type="F" Min="6.00000000e+00" Max="1.70000000e+01"/>
  </Spectators>
  <Classes NClass="2">
    <Class Name="Signal" Index="0"/>
    <Class Name="Background" Index="1"/>
  </Classes>
  <Transformations NTransformations="0"/>
  <MVAPdfs/>
  <Weights NTrees="100" AnalysisType="1">
    <BinaryTree type="DecisionTree" boostWeight="1.0000000000000000e+00" itree="0">
      <Node pos="s" depth="0" NCoef="0" IVar="3" Cut="6.7476129531860352e-01" cType="1" res="-3.1368812778964639e-04" rms="4.9999991059303284e-01" purity="4.9968630075454712e-01" nType="0">
        <Node pos="l" depth="1" NCoef="0" IVar="3" Cut="5.0066536664962769e-01" cType="1" res="-3.0191427469253540e-01" rms="3.9855712652206421e-01" purity="1.9808574020862579e-01" nType="0">
          <Node pos="l" depth="2" NCoef="0" IVar="4" Cut="1.1529558151960373e-01" cType="1" res="-3.9005753397941589e-01" rms="3.1281802058219910e-01" purity="1.0994245857000351e-01" nType="0">
            <Node pos="l" depth="3" NCoef="0" IVar="3" Cut="4.2001760005950928e-01" cType="1" res="-4.2621910572052002e-01" rms="2.6141402125358582e-01" purity="7.3780909180641174e-02" nType="0">
              <Node pos="l" depth="4" NCoef="0" IVar="3" Cut="3.6589485406875610e-01" cType="1" res="-4.4928422570228577e-01" rms="2.1941667795181274e-01" purity="5.0715766847133636e-02" nType="0">
                <Node pos="l" depth="5" NCoef="0" IVar="5" Cut="5.0000000000000000e+00" cType="1" res="0.0000000000000000e+00" rms="0.0000000000000000e+00" purity="4.0603354573249817e-02" nType="0">
                  <Node pos="l" depth="6" NCoef="0" IVar="-1" Cut="0.0000000000000000e+00" cType="1" res="-5.1211386919021606e-02" rms="2.4366712570190430e-01" purity="6.3392244279384613e-02" nType="-99"/>
                  <Node pos="r" depth="6" NCoef="0" IVar="3" Cut="2.9519718885421753e-01" cType="1" res="-4.6758607029914856e-01" rms="1.7709679901599884e-01" purity="3.2413937151432037e-02" nType="0">
                    <Node pos="l" depth="7" NCoef="0" IVar="-1" Cut="0.0000000000000000e+00" cType="1" res="-5.6997898966073990e-02" rms="1.5650825202465057e-01" purity="2.5126161053776741e-02" nType="-99"/>
                    <Node pos="r" depth="7" NCoef="0" IVar="-1" Cut="0.0000000000000000e+00" cType="1" res="-5.0659727305173874e-02" rms="2.0970043540000916e-01" purity="4.6099431812763214e-02" nType="-99"/>
                  </Node>
                </Node>
                <Node pos="r" depth="5" NCoef="0" IVar="4" Cut="7.4675850570201874e-02" cType="1" res="-4.1734147071838379e-01" rms="2.7536541223526001e-01" purity="8.2658536732196808e-02" nType="0">
                  <Node pos="l" depth="6" NCoef="0" IVar="-1" Cut="0.0000000000000000e+00" cType="1" res="-4.8262529075145721e-02" rms="2.3834639787673950e-01" purity="6.0465026646852493e-02" nType="-99"/>
                  <Node pos="r" depth="6" NCoef="0" IVar="-1" Cut="0.0000000000000000e+00" cType="1" res="-4.1996940970420837e-02" rms="3.1073305010795593e-01" purity="1.0827946662902832e-01" nType="-99"/>
                </Node>
              </Node>
              <Node pos="r" depth="4" NCoef="0" IVar="0" Cut="7.8959256410598755e-01" cType="1" res="-3.6705958843231201e-01" rms="3.3951032161712646e-01" purity="1.3294041156768799e-01" nType="0">
                <Node pos="l" depth="5" NCoef="0" IVar="-1" Cut="0.0000000000000000e+00" cType="1" res="-3.0876053497195244e-02" rms="3.9602228999137878e-01" purity="1.9476839900016785e-01" nType="-99"/>
                <Node pos="r" depth="5" NCoef="0" IVar="2" Cut="1.2864971923828125e+02" cType="1" res="-3.9938256144523621e-01" rms="3.0082148313522339e-01" purity="1.0061741620302200e-01" nType="0">
                  <Node pos="l" depth="6" NCoef="0" IVar="-1" Cut="0.0000000000000000e+00" cType="1" res="-4.1162807494401932e-02" rms="3.2512366771697998e-01" purity="1.2013871222734451e-01" nType="-99"/>
                  <Node pos="r" depth="6" NCoef="0" IVar="-1" Cut="0.0000000000000000e+00" cType="1" res="-4.3876547366380692e-02" rms="2.7911612391471863e-01" purity="8.5157632827758789e-02" nType="-99"/>
                </Node>
              </Node>
            </Node>
            <Node pos="r" depth="3" NCoef="0" IVar="3" Cut="4.0378677845001221e-01" cType="1" res="-3.5289394855499268e-01" rms="3.5421162843704224e-01" purity="1.4710606634616852e-01" nType="0">
              <Node pos="l" depth="4" NCoef="0" IVar="4" Cut="2.2654646635055542e-01" cType="1" res="-3.7547296285629272e-01" rms="3.3018183708190918e-01" purity="1.2452702969312668e-01" nType="0">
                <Node pos="l" depth="5" NCoef="0" IVar="3" Cut="3.1263807415962219e-01" cType="1" res="-4.0856727957725525e-01" rms="2.8822350502014160e-01" purity="9.1432735323905945e-02" nType="0">
                  <Node pos="l" depth="6" NCoef="0" IVar="4" Cut="1.9066400825977325e-01" cType="1" res="-4.3174222111701965e-01" rms="2.5218769907951355e-01" purity="6.8257763981819153e-02" nType="0">
                    <Node pos="l" depth="7" NCoef="0" IVar="-1" Cut="0.0000000000000000e+00" cType="1" res="-5.3409434854984283e-02" rms="2.2865933179855347e-01" purity="5.5348552763462067e-02" nType="-99"/>
                    <Node pos="r" depth="7" NCoef="0" IVar="-1" Cut="0.0000000000000000e+00" cType="1" res="-4.4806182384490967e-02" rms="3.0908253788948059e-01" purity="1.0697583854198456e-01" nType="-99"/>
                  </Node>
                  <Node pos="r" depth="6" NCoef="0" IVar="4" Cut="1.4399334788322449e-01" cType="1" res="-3.7268376350402832e-01" rms="3.3332687616348267e-01" purity="1.2731622159481049e-01" nType="0">
                    <Node pos="l" depth="7" NCoef="0" IVar="-1" Cut="0.0000000000000000e+00" cType="1" res="-4.6974625438451767e-02" rms="2.7503818273544312e-01" purity="8.2442827522754669e-02" nType="-99"/>
                    <Node pos="r" depth="7" NCoef="0" IVar="-1" Cut="0.0000000000000000e+00" cType="1" res="-3.6827418953180313e-02" rms="3.6016038060188293e-01" purity="1.5317943692207336e-01" nType="-99"/>
                  </Node>
                </Node>
                <Node pos="r" depth="5" NCoef="0" IVar="5" Cut="6.0000000000000000e+00" cType="1" res="-2.9612395167350769e-01" rms="4.0287789702415466e-01" purity="2.0387603342533112e-01" nType="0">
                  <Node pos="l" depth="6" NCoef="0" IVar="-1" Cut="0.0000000000000000e+00" cType="1" res="-2.4309268221259117e-02" rms="4.3947967886924744e-01" purity="2.6155164837837219e-01" nType="-99"/>
                  <Node pos="r" depth="6" NCoef="0" IVar="-1" Cut="0.0000000000000000e+00" cType="1" res="-3.6388147622346878e-02" rms="3.7326413393020630e-01" purity="1.6732315719127655e-01" nType="-99"/>
                </Node>
              </Node>
              <Node pos="r" depth="4" NCoef="0" IVar="0" Cut="3.5911038517951965e-01" cType="1" res="-2.7258425951004028e-01" rms="4.1916322708129883e-01" purity="2.2741572558879852e-01" nType="0">
                <Node pos="l" depth="5" NCoef="0" IVar="-1" Cut="0.0000000000000000e+00" cType="1" res="-2.0116265863180161e-02" rms="4.5358163118362427e-01" purity="2.8961059451103210e-01" nType="-99"/>
                <Node pos="r" depth="5" NCoef="0" IVar="-1" Cut="0.0000000000000000e+00" cType="1" res="-3.3036552369594574e-02" rms="3.8583981990814209e-01" purity="1.8199427425861359e-01" nType="-99"/>
              </Node>
            </Node>
          </Node>
          <Node pos="r" depth="2" NCoef="0" IVar="0" Cut="5.7583463191986084e-01" cType="1" res="-1.4001360535621643e-01" rms="4.7999602556228638e-01" purity="3.5998639464378357e-01" nType="0">
            <Node pos="l" depth="3" NCoef="0" IVar="0" Cut="3.3435225486755371e-01" cType="1" res="-9.1175280511379242e-02" rms="4.9161678552627563e-01" purity="4.0882474184036255e-01" nType="0">
              <Node pos="l" depth="4" NCoef="0" IVar="3" Cut="6.0741686820983887e-01" cType="1" res="-5.0106983631849289e-02" rms="4.9748295545578003e-01" purity="4.4989299774169922e-01" nType="0">
                <Node pos="l" depth="5" NCoef="0" IVar="3" Cut="5.4895174503326416e-01" cType="1" res="-1.0423052310943604e-01" rms="4.8901534080505371e-01" purity="3.9576947689056396e-01" nType="0">
                  <Node pos="l" depth="6" NCoef="0" IVar="-1" Cut="0.0000000000000000e+00" cType="1" res="-1.3400710187852383e-02" rms="4.7752302885055542e-01" purity="3.5177129507064819e-01" nType="-99"/>
                  <Node pos="r" depth="6" NCoef="0" IVar="-1" Cut="0.0000000000000000e+00" cType="1" res="-6.9481940008699894e-03" rms="4.9384006857872009e-01" purity="4.2175695300102234e-01" nType="-99"/>
                </Node>
                <Node pos="r" depth="5" NCoef="0" IVar="0" Cut="1.0785460472106934e-02" cType="1" res="1.1258152080699801e-03" rms="4.9999871850013733e-01" purity="5.0112581253051758e-01" nType="0">
                  <Node pos="l" depth="6" NCoef="0" IVar="3" Cut="6.4438718557357788e-01" cType="1" res="2.4519782513380051e-02" rms="4.9939841032028198e-01" purity="5.2451980113983154e-01" nType="0">
                    <Node pos="l" depth="7" NCoef="0" IVar="-1" Cut="0.0000000000000000e+00" cType="1" res="3.6063330480828881e-04" rms="4.9998107552528381e-01" purity="5.0435090065002441e-01" nType="-99"/>
                    <Node pos="r" depth="7" NCoef="0" IVar="-1" Cut="0.0000000000000000e+00" cType="1" res="3.5484514664858580e-03" rms="4.9808531999588013e-01" purity="5.4371523857116699e-01" nType="-99"/>
                  </Node>
                  <Node pos="r" depth="6" NCoef="0" IVar="-1" Cut="0.0000000000000000e+00" cType="1" res="-4.3472442775964737e-03" rms="4.9769499897956848e-01" purity="4.5204493403434753e-01" nType="-99"/>
                </Node>
              </Node>
              <Node pos="r" depth="4" NCoef="0" IVar="2" Cut="2.0091282653808594e+02" cType="1" res="-1.5524232387542725e-01" rms="4.7528919577598572e-01" purity="3.4475767612457275e-01" nType="0">
                <Node pos="l" depth="5" NCoef="0" IVar="4" Cut="5.5017579346895218e-02" cType="1" res="-1.2997755408287048e-01" rms="4.8281034827232361e-01" purity="3.7002244591712952e-01" nType="0">
                  <Node pos="l" depth="6" NCoef="0" IVar="-1" Cut="0.0000000000000000e+00" cType="1" res="-1.6338005661964417e-02" rms="4.6805301308631897e-01" purity="3.2414102554321289e-01" nType="-99"/>
                  <Node pos="r" depth="6" NCoef="0" IVar="-1" Cut="0.0000000000000000e+00" cType="1" res="-7.2995610535144806e-03" rms="4.9249047040939331e-01" purity="4.1366851329803467e-01" nType="-99"/>
                </Node>
                <Node pos="r" depth="5" NCoef="0" IVar="-1" Cut="0.0000000000000000e+00" cType="1" res="-1.8857318907976151e-02" rms="4.5892998576164246e-01" purity="3.0154779553413391e-01" nType="-99"/>
              </Node>
            </Node>
            <Node pos="r" depth="3" NCoef="0" IVar="3" Cut="5.8489620685577393e-01" cType="1" res="-2.5525575876235962e-01" rms="4.2993545532226562e-01" purity="2.4474424123764038e-01" nType="0">
              <Node pos="l" depth="4" NCoef="0" IVar="2" Cut="1.3245542907714844e+02" cType="1" res="-2.8936511278152466e-01" rms="4.0775951743125916e-01" purity="2.1063487231731415e-01" nType="0">
                <Node pos="l" depth="5" NCoef="0" IVar="-1" Cut="0.0000000000000000e+00" cType="1" res="-2.4035846814513206e-02" rms="4.3206641077995300e-01" purity="2.4836806952953339e-01" nType="-99"/>
                <Node pos="r" depth="5" NCoef="0" IVar="-1" Cut="0.0000000000000000e+00" cType="1" res="-3.2308734953403473e-02" rms="3.8505107164382935e-01" purity="1.8103967607021332e-01" nType="-99"/>
              </Node>
              <Node pos="r" depth="4" NCoef="0" IVar="-1" Cut="0.0000000000000000e+00" cType="1" res="-1.7287511378526688e-02" rms="4.6460813283920288e-01" purity="3.1523177027702332e-01" nType="-99"/>
            </Node>
          </Node>
        </Node>
        <Node pos="r" depth="1" NCoef="0" IVar="3" Cut="8.2398396730422974e-01" cType="1" res="2.0493577420711517e-01" rms="4.5607161521911621e-01" purity="7.0493578910827637e-01" nType="0">
          <Node pos="l" depth="2" NCoef="0" IVar="3" Cut="7.2771155834197998e-01" cType="1" res="7.5313329696655273e-02" rms="4.9429535865783691e-01" purity="5.7531327009201050e-01" nType="0">
            <Node pos="l" depth="3" NCoef="0" IVar="0" Cut="3.1588456034660339e-01" cType="1" res="3.8101396057754755e-03" rms="4.9998548626899719e-01" purity="5.0381016731262207e-01" nType="0">
              <Node pos="l" depth="4" NCoef="0" IVar="1" Cut="1.1310734599828720e-01" cType="1" res="3.7380974739789963e-02" rms="4.9860069155693054e-01" purity="5.3738099336624146e-01" nType="0">
                <Node pos="l" depth="5" NCoef="0" IVar="-1" Cut="0.0000000000000000e+00" cType="1" res="6.4528272487223148e-03" rms="4.9401122331619263e-01" purity="5.7715511322021484e-01" nType="-99"/>
                <Node pos="r" depth="5" NCoef="0" IVar="-1" Cut="0.0000000000000000e+00" cType="1" res="-1.5773534541949630e-03" rms="4.9966093897819519e-01" purity="4.8158928751945496e-01" nType="-99"/>
              </Node>
              <Node pos="r" depth="4" NCoef="0" IVar="-1" Cut="0.0000000000000000e+00" cType="1" res="-5.3189750760793686e-03" rms="4.9610462784767151e-01" purity="4.3770864605903625e-01" nType="-99"/>
            </Node>
            <Node pos="r" depth="3" NCoef="0" IVar="3" Cut="7.7429622411727905e-01" cType="1" res="1.0885510593652725e-01" rms="4.8800674080848694e-01" purity="6.0885506868362427e-01" nType="0">
              <Node pos="l" depth="4" NCoef="0" IVar="5" Cut="3.0000000000000000e+00" cType="1" res="8.3390660583972931e-02" rms="4.9235412478446960e-01" purity="5.8275079727172852e-01" nType="0">
                <Node pos="l" depth="5" NCoef="0" IVar="3" Cut="7.5475859642028809e-01" cType="1" res="4.0222696959972382e-02" rms="4.9837949872016907e-01" purity="5.4022270441055298e-01" nType="0">
                  <Node pos="l" depth="6" NCoef="0" IVar="-1" Cut="0.0000000000000000e+00" cType="1" res="2.0417743362486362e-03" rms="4.9936836957931519e-01" purity="5.2512407302856445e-01" nType="-99"/>
                  <Node pos="r" depth="6" NCoef="0" IVar="-1" Cut="0.0000000000000000e+00" cType="1" res="4.4984128326177597e-03" rms="4.9676731228828430e-01" purity="5.5676472187042236e-01" nType="-99"/>
                </Node>
                <Node pos="r" depth="5" NCoef="0" IVar="3" Cut="7.4724745750427246e-01" cType="1" res="1.2216014415025711e-01" rms="4.8484730720520020e-01" purity="6.2216013669967651e-01" nType="0">
                  <Node pos="l" depth="6" NCoef="0" IVar="-1" Cut="0.0000000000000000e+00" cType="1" res="9.2109944671392441e-03" rms="4.8784327507019043e-01" purity="6.0958534479141235e-01" nType="-99"/>
                  <Node pos="r" depth="6" NCoef="0" IVar="-1" Cut="0.0000000000000000e+00" cType="1" res="1.1497971601784229e-02" rms="4.8202145099639893e-01" purity="6.3287329673767090e-01" nType="-99"/>
                </Node>
              </Node>
              <Node pos="r" depth="4" NCoef="0" IVar="5" Cut="3.0000000000000000e+00" cType="1" res="1.3126549124717712e-01" rms="4.8193189501762390e-01" purity="6.3077437877655029e-01" nType="0">
                <Node pos="l" depth="5" NCoef="0" IVar="3" Cut="7.9673570394515991e-01" cType="1" res="1.1942448467016220e-01" rms="4.8552834987640381e-01" purity="6.1942446231842041e-01" nType="0">
                  <Node pos="l" depth="6" NCoef="0" IVar="-1" Cut="0.0000000000000000e+00" cType="1" res="7.7899382449686527e-03" rms="4.8961773514747620e-01" purity="6.0136306285858154e-01" nType="-99"/>
                  <Node pos="r" depth="6" NCoef="0" IVar="2" Cut="9.7858528137207031e+01" cType="1" res="1.3087962567806244e-01" rms="4.8256659507751465e-01" purity="6.3087958097457886e-01" nType="0">
                    <Node pos="l" depth="7" NCoef="0" IVar="-1" Cut="0.0000000000000000e+00" cType="1" res="1.0418438352644444e-02" rms="4.7950801253318787e-01" purity="6.4167588949203491e-01" nType="-99"/>
                    <Node pos="r" depth="7" NCoef="0" IVar="-1" Cut="0.0000000000000000e+00" cType="1" res="9.6283955499529839e-03" rms="4.8573708534240723e-01" purity="6.1857271194458008e-01" nType="-99"/>
                  </Node>
                </Node>
                <Node pos="r" depth="5" NCoef="0" IVar="-1" Cut="0.0000000000000000e+00" cType="1" res="1.4516990631818771e-02" rms="4.7293400764465332e-01" purity="6.6227585077285767e-01" nType="-99"/>
              </Node>
            </Node>
          </Node>
          <Node pos="r" depth="2" NCoef="0" IVar="5" Cut="2.0000000000000000e+00" cType="1" res="2.5155079364776611e-01" rms="4.3208482861518860e-01" purity="7.5150096416473389e-01" nType="0">
            <Node pos="l" depth="3" NCoef="0" IVar="1" Cut="1.0064873695373535e+00" cType="1" res="2.7725911140441895e-01" rms="4.1608580946922302e-01" purity="7.7725911140441895e-01" nType="0">
              <Node pos="l" depth="4" NCoef="0" IVar="1" Cut="2.2944524884223938e-01" cType="1" res="2.8511407971382141e-01" rms="4.1074317693710327e-01" purity="7.8511410951614380e-01" nType="0">
                <Node pos="l" depth="5" NCoef="0" IVar="3" Cut="9.5540601015090942e-01" cType="1" res="2.9702433943748474e-01" rms="4.0221452713012695e-01" purity="7.9702430963516235e-01" nType="0">
                  <Node pos="l" depth="6" NCoef="0" IVar="-1" Cut="0.0000000000000000e+00" cType="1" res="1.8807839602231979e-02" rms="4.3772667646408081e-01" purity="7.4165135622024536e-01" nType="-99"/>
                  <Node pos="r" depth="6" NCoef="0" IVar="3" Cut="1.0166093111038208e+00" cType="1" res="3.0037921667098999e-01" rms="3.9971530437469482e-01" purity="8.0037921667098999e-01" nType="0">
                    <Node pos="l" depth="7" NCoef="0" IVar="-1" Cut="0.0000000000000000e+00" cType="1" res="2.2898158058524132e-02" rms="3.9897435903549194e-01" purity="8.0136269330978394e-01" nType="-99"/>
                    <Node pos="r" depth="7" NCoef="0" IVar="-1" Cut="0.0000000000000000e+00" cType="1" res="2.1780459210276604e-02" rms="4.0345254540443420e-01" purity="7.9534059762954712e-01" nType="-99"/>
                  </Node>
                </Node>
                <Node pos="r" depth="5" NCoef="0" IVar="1" Cut="6.5534377098083496e-01" cType="1" res="2.4790121614933014e-01" rms="4.3421766161918640e-01" purity="7.4790120124816895e-01" nType="0">
                  <Node pos="l" depth="6" NCoef="0" IVar="1" Cut="4.2177304625511169e-01" cType="1" res="2.6199325919151306e-01" rms="4.2586329579353333e-01" purity="7.6199328899383545e-01" nType="0">
                    <Node pos="l" depth="7" NCoef="0" IVar="-1" Cut="0.0000000000000000e+00" cType="1" res="2.0277328789234161e-02" rms="4.2022886872291565e-01" purity="7.7093851566314697e-01" nType="-99"/>
                    <Node pos="r" depth="7" NCoef="0" IVar="-1" Cut="0.0000000000000000e+00" cType="1" res="1.8437331542372704e-02" rms="4.3425440788269043e-01" purity="7.4783688783645630e-01" nType="-99"/>
                  </Node>
                  <Node pos="r" depth="6" NCoef="0" IVar="-1" Cut="0.0000000000000000e+00" cType="1" res="1.4219389297068119e-02" rms="4.6196654438972473e-01" purity="6.9127708673477173e-01" nType="-99"/>
                </Node>
              </Node>
              <Node pos="r" depth="4" NCoef="0" IVar="-1" Cut="0.0000000000000000e+00" cType="1" res="9.8707415163516998e-03" rms="4.8314905166625977e-01" purity="6.2871283292770386e-01" nType="-99"/>
            </Node>
            <Node pos="r" depth="3" NCoef="0" IVar="1" Cut="4.8326480388641357e-01" cType="1" res="1.9094781577587128e-01" rms="4.6210274100303650e-01" purity="6.9094783067703247e-01" nType="0">
              <Node pos="l" depth="4" NCoef="0" IVar="2" Cut="1.7581622314453125e+02" cType="1" res="2.1350178122520447e-01" rms="4.5212498307228088e-01" purity="7.1350175142288208e-01" nType="0">
                <Node pos="l" depth="5" NCoef="0" IVar="3" Cut="8.6715120077133179e-01" cType="1" res="2.2684651613235474e-01" rms="4.4557902216911316e-01" purity="7.2684657573699951e-01" nType="0">
                  <Node pos="l" depth="6" NCoef="0" IVar="4" Cut="3.3444341272115707e-02" cType="1" res="2.0127139985561371e-01" rms="4.5770058035850525e-01" purity="7.0127135515213013e-01" nType="0">
                    <Node pos="l" depth="7" NCoef="0" IVar="-1" Cut="0.0000000000000000e+00" cType="1" res="1.4435446821153164e-02" rms="4.6703094244003296e-01" purity="6.7855560779571533e-01" nType="-99"/>
                    <Node pos="r" depth="7" NCoef="0" IVar="-1" Cut="0.0000000000000000e+00" cType="1" res="1.6203140839934349e-02" rms="4.5007506012916565e-01" purity="7.1778994798660278e-01" nType="-99"/>
                  </Node>
                  <Node pos="r" depth="6" NCoef="0" IVar="2" Cut="9.6613647460937500e+01" cType="1" res="2.4750462174415588e-01" rms="4.3444386124610901e-01" purity="7.4750459194183350e-01" nType="0">
                    <Node pos="l" depth="7" NCoef="0" IVar="-1" Cut="0.0000000000000000e+00" cType="1" res="2.1779878064990044e-02" rms="4.2972782254219055e-01" purity="7.5560510158538818e-01" nType="-99"/>
                    <Node pos="r" depth="7" NCoef="0" IVar="-1" Cut="0.0000000000000000e+00" cType="1" res="1.9877880811691284e-02" rms="4.4445541501045227e-01" purity="7.2904020547866821e-01" nType="-99"/>
                  </Node>
                </Node>
                <Node pos="r" depth="5" NCoef="0" IVar="-1" Cut="0.0000000000000000e+00" cType="1" res="1.1298816651105881e-02" rms="4.8342218995094299e-01" purity="6.2768322229385376e-01" nType="-99"/>
              </Node>
              <Node pos="r" depth="4" NCoef="0" IVar="-1" Cut="0.0000000000000000e+00" cType="1" res="5.5469265207648277e-03" rms="4.9573042988777161e-01" purity="5.6520241498947144e-01" nType="-99"/>
            </Node>
          </Node>
        </Node>
      </Node>
    </BinaryTree>
    <BinaryTree type="DecisionTree" boostWeight="1.0000000000000000e+00" itree="1">
      <Node pos="s" depth="0" NCoef="0" IVar="3" Cut="6.7633879184722900e-01" cType="1" res="1.4128251932561398e-03" rms="4.9264052510261536e-01" purity="4.9944111704826355e-01" nType="0">
        <Node pos="l" depth="1" NCoef="0" IVar="3" Cut="5.0192350149154663e-01" cType="1" res="-2.8526604175567627e-01" rms="3.9555719494819641e-01" purity="1.9829557836055756e-01" nType="0">
          <Node pos="l" depth="2" NCoef="0" IVar="4" Cut="1.5685297548770905e-01" cType="1" res="-3.6713874340057373e-01" rms="3.1302684545516968e-01" purity="1.1102240532636642e-01" nType="0">
            <Node pos="l" depth="3" NCoef="0" IVar="3" Cut="3.8873034715652466e-01" cType="1" res="-3.9168518781661987e-01" rms="2.7800244092941284e-01" purity="8.4995187819004059e-02" nType="0">
              <Node pos="l" depth="4" NCoef="0" IVar="5" Cut="4.0000000000000000e+00" cType="1" res="2.2720155119895935e-01" rms="0.0000000000000000e+00" purity="5.1214106380939484e-02" nType="0">
                <Node pos="l" depth="5" NCoef="0" IVar="-1" Cut="0.0000000000000000e+00" cType="1" res="-4.2116053402423859e-02" rms="3.0471128225326538e-01" purity="1.0354118049144745e-01" nType="-99"/>
                <Node pos="r" depth="5" NCoef="0" IVar="3" Cut="3.3865174651145935e-01" cType="1" res="-4.3012851476669312e-01" rms="2.0422790944576263e-01" purity="4.3715458363294601e-02" nType="0">
                  <Node pos="l" depth="6" NCoef="0" IVar="5" Cut="6.0000000000000000e+00" cType="1" res="2.2555576264858246e-01" rms="0.0000000000000000e+00" purity="3.5389542579650879e-02" nType="0">
                    <Node pos="l" depth="7" NCoef="0" IVar="-1" Cut="0.0000000000000000e+00" cType="1" res="-5.0950992852449417e-02" rms="2.1615980565547943e-01" purity="4.9177546054124832e-02" nType="-99"/>
                    <Node pos="r" depth="7" NCoef="0" IVar="-1" Cut="0.0000000000000000e+00" cType="1" res="-5.2677564322948456e-02" rms="1.6467349231243134e-01" purity="2.7937307953834534e-02" nType="-99"/>
                  </Node>
                  <Node pos="r" depth="6" NCoef="0" IVar="0" Cut="1.2958277463912964e+00" cType="1" res="-4.0611204504966736e-01" rms="2.5557196140289307e-01" purity="7.0341281592845917e-02" nType="0">
                    <Node pos="l" depth="7" NCoef="0" IVar="-1" Cut="0.0000000000000000e+00" cType="1" res="-4.3143901973962784e-02" rms="2.8700357675552368e-01" purity="9.0691037476062775e-02" nType="-99"/>
                    <Node pos="r" depth="7" NCoef="0" IVar="-1" Cut="0.0000000000000000e+00" cType="1" res="-4.6636011451482773e-02" rms="2.2764308750629425e-01" purity="5.4856766015291214e-02" nType="-99"/>
                  </Node>
                </Node>
              </Node>
              <Node pos="r" depth="4" NCoef="0" IVar="0" Cut="7.5524157285690308e-01" cType="1" res="-3.4082728624343872e-01" rms="3.4669506549835205e-01" purity="1.4023730158805847e-01" nType="0">
                <Node pos="l" depth="5" NCoef="0" IVar="0" Cut="4.6282300353050232e-01" cType="1" res="-2.8096905350685120e-01" rms="4.0253770351409912e-01" purity="2.0373065769672394e-01" nType="0">
                  <Node pos="l" depth="6" NCoef="0" IVar="-1" Cut="0.0000000000000000e+00" cType="1" res="-2.3533744737505913e-02" rms="4.2927521467208862e-01" purity="2.4382659792900085e-01" nType="-99"/>
                  <Node pos="r" depth="6" NCoef="0" IVar="-1" Cut="0.0000000000000000e+00" cType="1" res="-3.3076036721467972e-02" rms="3.7378910183906555e-01" purity="1.6804245114326477e-01" nType="-99"/>
                </Node>
                <Node pos="r" depth="5" NCoef="0" IVar="4" Cut="1.0147882997989655e-01" cType="1" res="-3.7150761485099792e-01" rms="3.0979841947555542e-01" purity="1.0769376158714294e-01" nType="0">
                  <Node pos="l" depth="6" NCoef="0" IVar="2" Cut="1.3505435180664062e+02" cType="1" res="-3.8777095079421997e-01" rms="2.8696966171264648e-01" purity="9.0629152953624725e-02" nType="0">
                    <Node pos="l" depth="7" NCoef="0" IVar="-1" Cut="0.0000000000000000e+00" cType="1" res="-3.9441943168640137e-02" rms="3.1800696253776550e-01" purity="1.1423741281032562e-01" nType="-99"/>
                    <Node pos="r" depth="7" NCoef="0" IVar="-1" Cut="0.0000000000000000e+00" cType="1" res="-4.3892711400985718e-02" rms="2.4935317039489746e-01" purity="6.6658496856689453e-02" nType="-99"/>
                  </Node>
                  <Node pos="r" depth="6" NCoef="0" IVar="-1" Cut="0.0000000000000000e+00" cType="1" res="-3.5316701978445053e-02" rms="3.5639899969100952e-01" purity="1.4936530590057373e-01" nType="-99"/>
                </Node>
              </Node>
            </Node>
            <Node pos="r" depth="3" NCoef="0" IVar="5" Cut="5.0000000000000000e+00" cType="1" res="0.0000000000000000e+00" rms="0.0000000000000000e+00" purity="1.7107146978378296e-01" nType="0">
              <Node pos="l" depth="4" NCoef="0" IVar="5" Cut="4.0000000000000000e+00" cType="1" res="-2.4272713065147400e-01" rms="4.2615145444869995e-01" purity="2.4139724671840668e-01" nType="0">
                <Node pos="l" depth="5" NCoef="0" IVar="-1" Cut="0.0000000000000000e+00" cType="1" res="-2.1038843318820000e-02" rms="4.4561848044395447e-01" purity="2.7410206198692322e-01" nType="-99"/>
                <Node pos="r" depth="5" NCoef="0" IVar="-1" Cut="0.0000000000000000e+00" cType="1" res="-2.8579162433743477e-02" rms="4.0624418854713440e-01" purity="2.0969393849372864e-01" nType="-99"/>
              </Node>
              <Node pos="r" depth="4" NCoef="0" IVar="3" Cut="3.4067013859748840e-01" cType="1" res="-3.4412533044815063e-01" rms="3.4241452813148499e-01" purity="1.3628481328487396e-01" nType="0">
                <Node pos="l" depth="5" NCoef="0" IVar="4" Cut="2.4778915941715240e-01" cType="1" res="-3.6491736769676208e-01" rms="3.1791028380393982e-01" purity="1.1451007425785065e-01" nType="0">
                  <Node pos="l" depth="6" NCoef="0" IVar="2" Cut="4.2980282592773438e+02" cType="1" res="-3.9702883362770081e-01" rms="2.7162566781044006e-01" purity="8.0377049744129181e-02" nType="0">
                    <Node pos="l" depth="7" NCoef="0" IVar="-1" Cut="0.0000000000000000e+00" cType="1" res="-4.4777307659387589e-02" rms="2.9870125651359558e-01" purity="9.9284164607524872e-02" nType="-99"/>
                    <Node pos="r" depth="7" NCoef="0" IVar="-1" Cut="0.0000000000000000e+00" cType="1" res="-4.7018885612487793e-02" rms="2.4690489470958710e-01" purity="6.5342366695404053e-02" nType="-99"/>
                  </Node>
                  <Node pos="r" depth="6" NCoef="0" IVar="-1" Cut="0.0000000000000000e+00" cType="1" res="-3.4141208976507187e-02" rms="3.7655988335609436e-01" purity="1.7115299403667450e-01" nType="-99"/>
                </Node>
                <Node pos="r" depth="5" NCoef="0" IVar="-1" Cut="0.0000000000000000e+00" cType="1" res="-2.6249637827277184e-02" rms="4.1501635313034058e-01" purity="2.2146552801132202e-01" nType="-99"/>
              </Node>
            </Node>
          </Node>
          <Node pos="r" depth="2" NCoef="0" IVar="0" Cut="3.6567077040672302e-01" cType="1" res="-1.3480553030967712e-01" rms="4.7851735353469849e-01" purity="3.5868072509765625e-01" nType="0">
            <Node pos="l" depth="3" NCoef="0" IVar="2" Cut="1.5692189025878906e+02" cType="1" res="-5.2169475704431534e-02" rms="4.9663460254669189e-01" purity="4.4522958993911743e-01" nType="0">
              <Node pos="l" depth="4" NCoef="0" IVar="0" Cut="2.0050731301307678e-01" cType="1" res="7.0228278636932373e-03" rms="4.9970456957817078e-01" purity="5.0475299358367920e-01" nType="0">
                <Node pos="l" depth="5" NCoef="0" IVar="-1" Cut="0.0000000000000000e+00" cType="1" res="2.8526261448860168e-03" rms="4.9850383400917053e-01" purity="5.3603523969650269e-01" nType="-99"/>
                <Node pos="r" depth="5" NCoef="0" IVar="-1" Cut="0.0000000000000000e+00" cType="1" res="-2.9023755341768265e-03" rms="4.9851614236831665e-01" purity="4.6361351013183594e-01" nType="-99"/>
              </Node>
              <Node pos="r" depth="4" NCoef="0" IVar="3" Cut="6.3696533441543579e-01" cType="1" res="-9.5930211246013641e-02" rms="4.8977476358413696e-01" purity="4.0122404694557190e-01" nType="0">
                <Node pos="l" depth="5" NCoef="0" IVar="3" Cut="5.7164657115936279e-01" cType="1" res="-1.2318556755781174e-01" rms="4.8335748910903931e-01" purity="3.7285915017127991e-01" nType="0">
                  <Node pos="l" depth="6" NCoef="0" IVar="-1" Cut="0.0000000000000000e+00" cType="1" res="-1.3672656379640102e-02" rms="4.7601032257080078e-01" purity="3.4732037782669067e-01" nType="-99"/>
                  <Node pos="r" depth="6" NCoef="0" IVar="-1" Cut="0.0000000000000000e+00" cType="1" res="-9.4393594190478325e-03" rms="4.8864957690238953e-01" purity="3.9474985003471375e-01" nType="-99"/>
                </Node>
                <Node pos="r" depth="5" NCoef="0" IVar="-1" Cut="0.0000000000000000e+00" cType="1" res="-2.4020629934966564e-03" rms="4.9901500344276428e-01" purity="4.7252672910690308e-01" nType="-99"/>
              </Node>
            </Node>
            <Node pos="r" depth="3" NCoef="0" IVar="1" Cut="5.1636362075805664e-01" cType="1" res="-2.1039442718029022e-01" rms="4.4817224144935608e-01" purity="2.7951270341873169e-01" nType="0">
              <Node pos="l" depth="4" NCoef="0" IVar="0" Cut="7.0789462327957153e-01" cType="1" res="-1.8396092951297760e-01" rms="4.6026906371116638e-01" purity="3.0609607696533203e-01" nType="0">
                <Node pos="l" depth="5" NCoef="0" IVar="0" Cut="5.0916624069213867e-01" cType="1" res="-1.5099319815635681e-01" rms="4.7349494695663452e-01" purity="3.4051436185836792e-01" nType="0">
                  <Node pos="l" depth="6" NCoef="0" IVar="-1" Cut="0.0000000000000000e+00" cType="1" res="-9.9834045395255089e-03" rms="4.8495841026306152e-01" purity="3.7939062714576721e-01" nType="-99"/>
                  <Node pos="r" depth="6" NCoef="0" IVar="3" Cut="5.9204220771789551e-01" cType="1" res="-1.8439450860023499e-01" rms="4.6046608686447144e-01" purity="3.0583062767982483e-01" nType="0">
                    <Node pos="l" depth="7" NCoef="0" IVar="-1" Cut="0.0000000000000000e+00" cType="1" res="-1.9895972684025764e-02" rms="4.4828110933303833e-01" purity="2.7904772758483887e-01" nType="-99"/>
                    <Node pos="r" depth="7" NCoef="0" IVar="-1" Cut="0.0000000000000000e+00" cType="1" res="-1.4569996856153011e-02" rms="4.7180569171905518e-01" purity="3.3484122157096863e-01" nType="-99"/>
                  </Node>
                </Node>
                <Node pos="r" depth="5" NCoef="0" IVar="-1" Cut="0.0000000000000000e+00" cType="1" res="-2.5331251323223114e-02" rms="4.2003837227821350e-01" purity="2.2925569117069244e-01" nType="-99"/>
              </Node>
              <Node pos="r" depth="4" NCoef="0" IVar="-1" Cut="0.0000000000000000e+00" cType="1" res="-3.0061684548854828e-02" rms="3.9322644472122192e-01" purity="1.9170305132865906e-01" nType="-99"/>
            </Node>
          </Node>
        </Node>
        <Node pos="r" depth="1" NCoef="0" IVar="3" Cut="8.2585275173187256e-01" cType="1" res="1.9826397299766541e-01" rms="4.5466631650924683e-01" purity="7.0622599124908447e-01" nType="0">
          <Node pos="l" depth="2" NCoef="0" IVar="1" Cut="5.1668083667755127e-01" cType="1" res="7.6628372073173523e-02" rms="4.9320286512374878e-01" purity="5.7979667186737061e-01" nType="0">
            <Node pos="l" depth="3" NCoef="0" IVar="3" Cut="7.6797795295715332e-01" cType="1" res="9.8968744277954102e-02" rms="4.8908448219299316e-01" purity="6.0230243206024170e-01" nType="0">
              <Node pos="l" depth="4" NCoef="0" IVar="0" Cut="3.9748448133468628e-01" cType="1" res="6.0010451823472977e-02" rms="4.9589428305625916e-01" purity="5.6189614534378052e-01" nType="0">
                <Node pos="l" depth="5" NCoef="0" IVar="0" Cut="1.9231633841991425e-01" cType="1" res="7.5404219329357147e-02" rms="4.9374479055404663e-01" purity="5.7781529426574707e-01" nType="0">
                  <Node pos="l" depth="6" NCoef="0" IVar="3" Cut="7.2955334186553955e-01" cType="1" res="1.0577145218849182e-01" rms="4.8788267374038696e-01" purity="6.0880351066589355e-01" nType="0">
                    <Node pos="l" depth="7" NCoef="0" IVar="-1" Cut="0.0000000000000000e+00" cType="1" res="6.3791228458285332e-03" rms="4.9333503842353821e-01" purity="5.8086669445037842e-01" nType="-99"/>
                    <Node pos="r" depth="7" NCoef="0" IVar="-1" Cut="0.0000000000000000e+00" cType="1" res="1.0864653624594212e-02" rms="4.8025736212730408e-01" purity="6.3885587453842163e-01" nType="-99"/>
                  </Node>
                  <Node pos="r" depth="6" NCoef="0" IVar="2" Cut="1.0219138336181641e+02" cType="1" res="2.3215575143694878e-02" rms="4.9936446547508240e-01" purity="5.2455943822860718e-01" nType="0">
                    <Node pos="l" depth="7" NCoef="0" IVar="-1" Cut="0.0000000000000000e+00" cType="1" res="4.0499074384570122e-03" rms="4.9753585457801819e-01" purity="5.4952216148376465e-01" nType="-99"/>
                    <Node pos="r" depth="7" NCoef="0" IVar="-1" Cut="0.0000000000000000e+00" cType="1" res="3.0580264137824997e-05" rms="4.9994111061096191e-01" purity="5.0168269872665405e-01" nType="-99"/>
                  </Node>
                </Node>
                <Node pos="r" depth="5" NCoef="0" IVar="-1" Cut="0.0000000000000000e+00" cType="1" res="-2.9768201056867838e-03" rms="4.9855890870094299e-01" purity="4.6379905939102173e-01" nType="-99"/>
              </Node>
              <Node pos="r" depth="4" NCoef="0" IVar="0" Cut="1.4116859436035156e-01" cType="1" res="1.5068909525871277e-01" rms="4.7498306632041931e-01" purity="6.5594512224197388e-01" nType="0">
                <Node pos="l" depth="5" NCoef="0" IVar="2" Cut="1.0711682891845703e+02" cType="1" res="1.7928691208362579e-01" rms="4.6455207467079163e-01" purity="6.8479478359222412e-01" nType="0">
                  <Node pos="l" depth="6" NCoef="0" IVar="-1" Cut="0.0000000000000000e+00" cType="1" res="1.4420077204704285e-02" rms="4.5679503679275513e-01" purity="7.0329374074935913e-01" nType="-99"/>
                  <Node pos="r" depth="6" NCoef="0" IVar="-1" Cut="0.0000000000000000e+00" cType="1" res="1.2822784483432770e-02" rms="4.7317501902580261e-01" purity="6.6134303808212280e-01" nType="-99"/>
                </Node>
                <Node pos="r" depth="5" NCoef="0" IVar="-1" Cut="0.0000000000000000e+00" cType="1" res="7.6389382593333721e-03" rms="4.9136170744895935e-01" purity="5.9234523773193359e-01" nType="-99"/>
              </Node>
            </Node>
            <Node pos="r" depth="3" NCoef="0" IVar="3" Cut="7.5350224971771240e-01" cType="1" res="-4.6796847134828568e-02" rms="4.9760222434997559e-01" purity="4.5545771718025208e-01" nType="0">
              <Node pos="l" depth="4" NCoef="0" IVar="-1" Cut="0.0000000000000000e+00" cType="1" res="-9.6503868699073792e-03" rms="4.8764228820800781e-01" purity="3.9025673270225525e-01" nType="-99"/>
              <Node pos="r" depth="4" NCoef="0" IVar="-1" Cut="0.0000000000000000e+00" cType="1" res="1.1806272668763995e-03" rms="4.9957549571990967e-01" purity="5.1930671930313110e-01" nType="-99"/>
            </Node>
          </Node>
          <Node pos="r" depth="2" NCoef="0" IVar="5" Cut="2.0000000000000000e+00" cType="1" res="2.4269580841064453e-01" rms="4.3117192387580872e-01" purity="7.5222170352935791e-01" nType="0">
            <Node pos="l" depth="3" NCoef="0" IVar="0" Cut="4.5190787315368652e-01" cType="1" res="2.6473844051361084e-01" rms="4.1726481914520264e-01" purity="7.7520680427551270e-01" nType="0">
              <Node pos="l" depth="4" NCoef="0" IVar="1" Cut="1.0190397500991821e-01" cType="1" res="2.7446117997169495e-01" rms="4.1069406270980835e-01" purity="7.8495275974273682e-01" nType="0">
                <Node pos="l" depth="5" NCoef="0" IVar="3" Cut="9.5688903331756592e-01" cType="1" res="2.9523077607154846e-01" rms="3.9504876732826233e-01" purity="8.0646961927413940e-01" nType="0">
                  <Node pos="l" depth="6" NCoef="0" IVar="-1" Cut="0.0000000000000000e+00" cType="1" res="1.9008979201316833e-02" rms="4.3035548925399780e-01" purity="7.5454115867614746e-01" nType="-99"/>
                  <Node pos="r" depth="6" NCoef="0" IVar="3" Cut="1.0180560350418091e+00" cType="1" res="2.9864671826362610e-01" rms="3.9229720830917358e-01" purity="8.1000369787216187e-01" nType="0">
                    <Node pos="l" depth="7" NCoef="0" IVar="-1" Cut="0.0000000000000000e+00" cType="1" res="2.2577179595828056e-02" rms="3.9160045981407166e-01" purity="8.1088465452194214e-01" nType="-99"/>
                    <Node pos="r" depth="7" NCoef="0" IVar="-1" Cut="0.0000000000000000e+00" cType="1" res="2.1564636379480362e-02" rms="3.9612731337547302e-01" purity="8.0509531497955322e-01" nType="-99"/>
                  </Node>
                </Node>
                <Node pos="r" depth="5" NCoef="0" IVar="3" Cut="1.0156228542327881e+00" cType="1" res="2.4238516390323639e-01" rms="4.3179047107696533e-01" purity="7.5172263383865356e-01" nType="0">
                  <Node pos="l" depth="6" NCoef="0" IVar="3" Cut="9.7940701246261597e-01" cType="1" res="2.4301283061504364e-01" rms="4.3142095208168030e-01" purity="7.5236564874649048e-01" nType="0">
                    <Node pos="l" depth="7" NCoef="0" IVar="-1" Cut="0.0000000000000000e+00" cType="1" res="1.5120588243007660e-02" rms="4.5554420351982117e-01" purity="7.0540672540664673e-01" nType="-99"/>
                    <Node pos="r" depth="7" NCoef="0" IVar="-1" Cut="0.0000000000000000e+00" cType="1" res="1.8894417211413383e-02" rms="4.2777374386787415e-01" purity="7.5852519273757935e-01" nType="-99"/>
                  </Node>
                  <Node pos="r" depth="6" NCoef="0" IVar="-1" Cut="0.0000000000000000e+00" cType="1" res="1.7437551170587540e-02" rms="4.3394342064857483e-01" purity="7.4793308973312378e-01" nType="-99"/>
                </Node>
              </Node>
              <Node pos="r" depth="4" NCoef="0" IVar="-1" Cut="0.0000000000000000e+00" cType="1" res="-1.8031591316685081e-03" rms="4.9955919384956360e-01" purity="4.8835384845733643e-01" nType="-99"/>
            </Node>
            <Node pos="r" depth="3" NCoef="0" IVar="2" Cut="1.8780628967285156e+02" cType="1" res="1.9019055366516113e-01" rms="4.5869705080986023e-01" purity="6.9810146093368530e-01" nType="0">
              <Node pos="l" depth="4" NCoef="0" IVar="1" Cut="1.2338072061538696e-01" cType="1" res="2.0212374627590179e-01" rms="4.5322778820991516e-01" purity="7.1042877435684204e-01" nType="0">
                <Node pos="l" depth="5" NCoef="0" IVar="3" Cut="8.7062388658523560e-01" cType="1" res="2.3462507128715515e-01" rms="4.3639999628067017e-01" purity="7.4388730525970459e-01" nType="0">
                  <Node pos="l" depth="6" NCoef="0" IVar="4" Cut="3.4997746348381042e-02" cType="1" res="2.1029935777187347e-01" rms="4.4984820485115051e-01" purity="7.1821087598800659e-01" nType="0">
                    <Node pos="l" depth="7" NCoef="0" IVar="-1" Cut="0.0000000000000000e+00" cType="1" res="1.5335216186940670e-02" rms="4.5869642496109009e-01" purity="6.9900912046432495e-01" nType="-99"/>
                    <Node pos="r" depth="7" NCoef="0" IVar="-1" Cut="0.0000000000000000e+00" cType="1" res="1.6707753762602806e-02" rms="4.4157025218009949e-01" purity="7.3449659347534180e-01" nType="-99"/>
                  </Node>
                  <Node pos="r" depth="6" NCoef="0" IVar="2" Cut="7.8993530273437500e+01" cType="1" res="2.5697740912437439e-01" rms="4.2243343591690063e-01" purity="7.6748085021972656e-01" nType="0">
                    <Node pos="l" depth="7" NCoef="0" IVar="-1" Cut="0.0000000000000000e+00" cType="1" res="2.2579168900847435e-02" rms="4.1511568427085876e-01" purity="7.7870947122573853e-01" nType="-99"/>
                    <Node pos="r" depth="7" NCoef="0" IVar="-1" Cut="0.0000000000000000e+00" cType="1" res="2.1019395440816879e-02" rms="4.3254670500755310e-01" purity="7.5084793567657471e-01" nType="-99"/>
                  </Node>
                </Node>
                <Node pos="r" depth="5" NCoef="0" IVar="4" Cut="3.1071742996573448e-02" cType="1" res="1.4725033938884735e-01" rms="4.7528535127639771e-01" purity="6.5393912792205811e-01" nType="0">
                  <Node pos="l" depth="6" NCoef="0" IVar="-1" Cut="0.0000000000000000e+00" cType="1" res="1.1341121047735214e-02" rms="4.7984537482261658e-01" purity="6.3890641927719116e-01" nType="-99"/>
                  <Node pos="r" depth="6" NCoef="0" IVar="2" Cut="1.0653893280029297e+02" cType="1" res="1.6120618581771851e-01" rms="4.7062557935714722e-01" purity="6.6774815320968628e-01" nType="0">
                    <Node pos="l" depth="7" NCoef="0" IVar="-1" Cut="0.0000000000000000e+00" cType="1" res="1.3440965674817562e-02" rms="4.6569076180458069e-01" purity="6.8091207742691040e-01" nType="-99"/>
                    <Node pos="r" depth="7" NCoef="0" IVar="-1" Cut="0.0000000000000000e+00" cType="1" res="1.2321651913225651e-02" rms="4.7529804706573486e-01" purity="6.5418255329132080e-01" nType="-99"/>
                  </Node>
                </Node>
              </Node>
              <Node pos="r" depth="4" NCoef="0" IVar="-1" Cut="0.0000000000000000e+00" cType="1" res="9.1422200202941895e-03" rms="4.8830384016036987e-01" purity="6.0696381330490112e-01" nType="-99"/>
            </Node>
          </Node>
        </Node>
      </Node>
    </BinaryTree>
    <BinaryTree type="DecisionTree" boostWeight="1.0000000000000000e+00" itree="2">
      <Node pos="s" depth="0" NCoef="0" IVar="3" Cut="6.7654424905776978e-01" cType="1" res="3.8837587926536798e-03" rms="4.8581337928771973e-01" purity="5.0023716688156128e-01" nType="0">
        <Node pos="l" depth="1" NCoef="0" IVar="3" Cut="5.0214380025863647e-01" cType="1" res="-2.7045193314552307e-01" rms="3.9219170808792114e-01" purity="1.9760824739933014e-01" nType="0">
          <Node pos="l" depth="2" NCoef="0" IVar="3" Cut="4.0509384870529175e-01" cType="1" res="-3.4752765297889709e-01" rms="3.1088668107986450e-01" purity="1.1018223315477371e-01" nType="0">
            <Node pos="l" depth="3" NCoef="0" IVar="4" Cut="1.5685297548770905e-01" cType="1" res="-3.6931949853897095e-01" rms="2.7745798230171204e-01" purity="8.5276417434215546e-02" nType="0">
              <Node pos="l" depth="4" NCoef="0" IVar="3" Cut="3.3991968631744385e-01" cType="1" res="-3.9841660857200623e-01" rms="2.2085706889629364e-01" purity="5.1706645637750626e-02" nType="0">
                <Node pos="l" depth="5" NCoef="0" IVar="5" Cut="5.0000000000000000e+00" cType="1" res="-4.0688413381576538e-01" rms="1.9785183668136597e-01" purity="4.0939845144748688e-02" nType="0">
                  <Node pos="l" depth="6" NCoef="0" IVar="4" Cut="8.6555048823356628e-02" cType="1" res="-3.7473097443580627e-01" rms="2.6523032784461975e-01" purity="7.6302856206893921e-02" nType="0">
                    <Node pos="l" depth="7" NCoef="0" IVar="-1" Cut="0.0000000000000000e+00" cType="1" res="-4.6114027500152588e-02" rms="2.4636614322662354e-01" purity="6.5007016062736511e-02" nType="-99"/>
                    <Node pos="r" depth="7" NCoef="0" IVar="-1" Cut="0.0000000000000000e+00" cType="1" res="-4.2542561888694763e-02" rms="2.8261911869049072e-01" purity="8.7765745818614960e-02" nType="-99"/>
                  </Node>
                  <Node pos="r" depth="6" NCoef="0" IVar="3" Cut="2.9617717862129211e-01" cType="1" res="-4.1683554649353027e-01" rms="1.7055657505989075e-01" purity="3.0029932036995888e-02" nType="0">
                    <Node pos="l" depth="7" NCoef="0" IVar="-1" Cut="0.0000000000000000e+00" cType="1" res="-5.1427144557237625e-02" rms="1.5469403564929962e-01" purity="2.4537488818168640e-02" nType="-99"/>
                    <Node pos="r" depth="7" NCoef="0" IVar="-1" Cut="0.0000000000000000e+00" cType="1" res="-4.5791767537593842e-02" rms="2.1125844120979309e-01" purity="4.6866770833730698e-02" nType="-99"/>
                  </Node>
                </Node>
                <Node pos="r" depth="5" NCoef="0" IVar="1" Cut="7.9475343227386475e-02" cType="1" res="-3.7851700186729431e-01" rms="2.6609492301940918e-01" purity="7.6937466859817505e-02" nType="0">
                  <Node pos="l" depth="6" NCoef="0" IVar="-1" Cut="0.0000000000000000e+00" cType="1" res="-3.7249945104122162e-02" rms="3.1451350450515747e-01" purity="1.1170634627342224e-01" nType="-99"/>
                  <Node pos="r" depth="6" NCoef="0" IVar="4" Cut="8.1351630389690399e-02" cType="1" res="-3.9358821511268616e-01" rms="2.4016416072845459e-01" purity="6.1619885265827179e-02" nType="0">
                    <Node pos="l" depth="7" NCoef="0" IVar="-1" Cut="0.0000000000000000e+00" cType="1" res="-4.6310767531394958e-02" rms="2.0780915021896362e-01" purity="4.5280478894710541e-02" nType="-99"/>
                    <Node pos="r" depth="7" NCoef="0" IVar="-1" Cut="0.0000000000000000e+00" cType="1" res="-4.3042063713073730e-02" rms="2.6560568809509277e-01" purity="7.6564013957977295e-02" nType="-99"/>
                  </Node>
                </Node>
              </Node>
              <Node pos="r" depth="4" NCoef="0" IVar="5" Cut="5.0000000000000000e+00" cType="1" res="2.2375681996345520e-01" rms="0.0000000000000000e+00" purity="1.4645974338054657e-01" nType="0">
                <Node pos="l" depth="5" NCoef="0" IVar="-1" Cut="0.0000000000000000e+00" cType="1" res="-2.7758913114666939e-02" rms="4.0776598453521729e-01" purity="2.1182499825954437e-01" nType="-99"/>
                <Node pos="r" depth="5" NCoef="0" IVar="4" Cut="2.6889649033546448e-01" cType="1" res="-3.3742675185203552e-01" rms="3.2710355520248413e-01" purity="1.2268890440464020e-01" nType="0">
                  <Node pos="l" depth="6" NCoef="0" IVar="3" Cut="3.0069556832313538e-01" cType="1" res="-3.5939201712608337e-01" rms="2.9784122109413147e-01" purity="9.8992384970188141e-02" nType="0">
                    <Node pos="l" depth="7" NCoef="0" IVar="-1" Cut="0.0000000000000000e+00" cType="1" res="-4.4167969375848770e-02" rms="2.6819038391113281e-01" purity="7.8261688351631165e-02" nType="-99"/>
                    <Node pos="r" depth="7" NCoef="0" IVar="-1" Cut="0.0000000000000000e+00" cType="1" res="-3.4333564341068268e-02" rms="3.4952738881111145e-01" purity="1.4300210773944855e-01" nType="-99"/>
                  </Node>
                  <Node pos="r" depth="6" NCoef="0" IVar="-1" Cut="0.0000000000000000e+00" cType="1" res="-2.9066391289234161e-02" rms="3.9828252792358398e-01" purity="1.9786970317363739e-01" nType="-99"/>
                </Node>
              </Node>
            </Node>
            <Node pos="r" depth="3" NCoef="0" IVar="0" Cut="7.1822077035903931e-01" cType="1" res="-2.9103508591651917e-01" rms="3.7843590974807739e-01" purity="1.7474733293056488e-01" nType="0">
              <Node pos="l" depth="4" NCoef="0" IVar="0" Cut="4.8651161789894104e-01" cType="1" res="-2.2963041067123413e-01" rms="4.2856630682945251e-01" purity="2.4317321181297302e-01" nType="0">
                <Node pos="l" depth="5" NCoef="0" IVar="0" Cut="2.1968156099319458e-01" cType="1" res="-2.0327118039131165e-01" rms="4.4485458731651306e-01" purity="2.7198705077171326e-01" nType="0">
                  <Node pos="l" depth="6" NCoef="0" IVar="-1" Cut="0.0000000000000000e+00" cType="1" res="-1.7130492255091667e-02" rms="4.5640197396278381e-01" purity="2.9581862688064575e-01" nType="-99"/>
                  <Node pos="r" depth="6" NCoef="0" IVar="-1" Cut="0.0000000000000000e+00" cType="1" res="-2.2123886272311211e-02" rms="4.3216058611869812e-01" purity="2.4865941703319550e-01" nType="-99"/>
                </Node>
                <Node pos="r" depth="5" NCoef="0" IVar="-1" Cut="0.0000000000000000e+00" cType="1" res="-2.9688190668821335e-02" rms="3.8825488090515137e-01" purity="1.8504896759986877e-01" nType="-99"/>
              </Node>
              <Node pos="r" depth="4" NCoef="0" IVar="3" Cut="4.6144765615463257e-01" cType="1" res="-3.3611848950386047e-01" rms="3.2971283793449402e-01" purity="1.2450900673866272e-01" nType="0">
                <Node pos="l" depth="5" NCoef="0" IVar="4" Cut="8.4421724081039429e-02" cType="1" res="-3.5466346144676208e-01" rms="3.0710640549659729e-01" purity="1.0579720139503479e-01" nType="0">
                  <Node pos="l" depth="6" NCoef="0" IVar="-1" Cut="0.0000000000000000e+00" cType="1" res="-4.0505286306142807e-02" rms="2.7743753790855408e-01" purity="8.4197096526622772e-02" nType="-99"/>
                  <Node pos="r" depth="6" NCoef="0" IVar="-1" Cut="0.0000000000000000e+00" cType="1" res="-3.5459000617265701e-02" rms="3.3614864945411682e-01" purity="1.3015276193618774e-01" nType="-99"/>
                </Node>
                <Node pos="r" depth="5" NCoef="0" IVar="-1" Cut="0.0000000000000000e+00" cType="1" res="-3.1757619231939316e-02" rms="3.6340346932411194e-01" purity="1.5698283910751343e-01" nType="-99"/>
              </Node>
            </Node>
          </Node>
          <Node pos="r" depth="2" NCoef="0" IVar="0" Cut="5.7583469152450562e-01" cType="1" res="-1.2920372188091278e-01" rms="4.7721514105796814e-01" purity="3.5782432556152344e-01" nType="0">
            <Node pos="l" depth="3" NCoef="0" IVar="0" Cut="1.8574234098196030e-02" cType="1" res="-8.4134906530380249e-02" rms="4.9023526906967163e-01" purity="4.0763729810714722e-01" nType="0">
              <Node pos="l" depth="4" NCoef="0" IVar="3" Cut="6.0905027389526367e-01" cType="1" res="-2.8289169073104858e-02" rms="4.9818047881126404e-01" purity="4.6795475482940674e-01" nType="0">
                <Node pos="l" depth="5" NCoef="0" IVar="-1" Cut="0.0000000000000000e+00" cType="1" res="-7.8359348699450493e-03" rms="4.8998343944549561e-01" purity="4.0255740284919739e-01" nType="-99"/>
                <Node pos="r" depth="5" NCoef="0" IVar="3" Cut="6.4824110269546509e-01" cType="1" res="2.6302115991711617e-02" rms="4.9912357330322266e-01" purity="5.2649146318435669e-01" nType="0">
                  <Node pos="l" depth="6" NCoef="0" IVar="-1" Cut="0.0000000000000000e+00" cType="1" res="6.6908530425280333e-04" rms="4.9979937076568604e-01" purity="5.0679427385330200e-01" nType="-99"/>
                  <Node pos="r" depth="6" NCoef="0" IVar="-1" Cut="0.0000000000000000e+00" cType="1" res="3.7394440732896328e-03" rms="4.9762675166130066e-01" purity="5.4796952009201050e-01" nType="-99"/>
                </Node>
              </Node>
              <Node pos="r" depth="4" NCoef="0" IVar="3" Cut="5.5279731750488281e-01" cType="1" res="-1.2325759977102280e-01" rms="4.8074281215667725e-01" purity="3.6538198590278625e-01" nType="0">
                <Node pos="l" depth="5" NCoef="0" IVar="-1" Cut="0.0000000000000000e+00" cType="1" res="-1.7559289932250977e-02" rms="4.5644959807395935e-01" purity="2.9735159873962402e-01" nType="-99"/>
                <Node pos="r" depth="5" NCoef="0" IVar="0" Cut="4.8408323526382446e-01" cType="1" res="-1.0618733614683151e-01" rms="4.8540890216827393e-01" purity="3.8307175040245056e-01" nType="0">
                  <Node pos="l" depth="6" NCoef="0" IVar="2" Cut="1.3234494018554688e+02" cType="1" res="-8.7475933134555817e-02" rms="4.9006634950637817e-01" purity="4.0345162153244019e-01" nType="0">
                    <Node pos="l" depth="7" NCoef="0" IVar="-1" Cut="0.0000000000000000e+00" cType="1" res="-5.0992229953408241e-03" rms="4.9501833319664001e-01" purity="4.3387570977210999e-01" nType="-99"/>
                    <Node pos="r" depth="7" NCoef="0" IVar="-1" Cut="0.0000000000000000e+00" cType="1" res="-1.0536952875554562e-02" rms="4.8427638411521912e-01" purity="3.7701681256294250e-01" nType="-99"/>
                  </Node>
                  <Node pos="r" depth="6" NCoef="0" IVar="-1" Cut="0.0000000000000000e+00" cType="1" res="-1.4883308671414852e-02" rms="4.6660840511322021e-01" purity="3.2173618674278259e-01" nType="-99"/>
                </Node>
              </Node>
            </Node>
            <Node pos="r" depth="3" NCoef="0" IVar="3" Cut="5.9777629375457764e-01" cType="1" res="-2.3898135125637054e-01" rms="4.2432743310928345e-01" purity="2.3649090528488159e-01" nType="0">
              <Node pos="l" depth="4" NCoef="0" IVar="4" Cut="6.0354989022016525e-02" cType="1" res="-2.6071399450302124e-01" rms="4.0909087657928467e-01" purity="2.1298854053020477e-01" nType="0">
                <Node pos="l" depth="5" NCoef="0" IVar="-1" Cut="0.0000000000000000e+00" cType="1" res="-2.9294438660144806e-02" rms="3.8339233398437500e-01" purity="1.7947562038898468e-01" nType="-99"/>
                <Node pos="r" depth="5" NCoef="0" IVar="-1" Cut="0.0000000000000000e+00" cType="1" res="-2.3240113630890846e-02" rms="4.2397210001945496e-01" purity="2.3559527099132538e-01" nType="-99"/>
              </Node>
              <Node pos="r" depth="4" NCoef="0" IVar="-1" Cut="0.0000000000000000e+00" cType="1" res="-1.6898572444915771e-02" rms="4.5894166827201843e-01" purity="3.0240410566329956e-01" nType="-99"/>
            </Node>
          </Node>
        </Node>
        <Node pos="r" depth="1" NCoef="0" IVar="3" Cut="8.2603406906127930e-01" cType="1" res="1.9096720218658447e-01" rms="4.5359379053115845e-01" purity="7.0661520957946777e-01" nType="0">
          <Node pos="l" depth="2" NCoef="0" IVar="1" Cut="7.0100414752960205e-01" cType="1" res="7.0245690643787384e-02" rms="4.9314755201339722e-01" purity="5.7641279697418213e-01" nType="0">
            <Node pos="l" depth="3" NCoef="0" IVar="3" Cut="7.6334381103515625e-01" cType="1" res="8.7106630206108093e-02" rms="4.9028444290161133e-01" purity="5.9393471479415894e-01" nType="0">
              <Node pos="l" depth="4" NCoef="0" IVar="5" Cut="3.0000000000000000e+00" cType="1" res="4.5846220105886459e-02" rms="4.9658718705177307e-01" purity="5.4880410432815552e-01" nType="0">
                <Node pos="l" depth="5" NCoef="0" IVar="3" Cut="7.3534339666366577e-01" cType="1" res="7.2534717619419098e-03" rms="4.9937692284584045e-01" purity="5.0870269536972046e-01" nType="0">
                  <Node pos="l" depth="6" NCoef="0" IVar="-1" Cut="0.0000000000000000e+00" cType="1" res="-2.2697790991514921e-03" rms="4.9882361292839050e-01" purity="4.7266837954521179e-01" nType="-99"/>
                  <Node pos="r" depth="6" NCoef="0" IVar="-1" Cut="0.0000000000000000e+00" cType="1" res="4.2630941607058048e-03" rms="4.9631133675575256e-01" purity="5.5781233310699463e-01" nType="-99"/>
                </Node>
                <Node pos="r" depth="5" NCoef="0" IVar="1" Cut="1.3808886706829071e-01" cType="1" res="6.8071477115154266e-02" rms="4.9414885044097900e-01" purity="5.7296448945999146e-01" nType="0">
                  <Node pos="l" depth="6" NCoef="0" IVar="0" Cut="1.2773576378822327e-01" cType="1" res="9.5002762973308563e-02" rms="4.8930773138999939e-01" purity="6.0117673873901367e-01" nType="0">
                    <Node pos="l" depth="7" NCoef="0" IVar="-1" Cut="0.0000000000000000e+00" cType="1" res="1.0566783137619495e-02" rms="4.8031502962112427e-01" purity="6.3855600357055664e-01" nType="-99"/>
                    <Node pos="r" depth="7" NCoef="0" IVar="-1" Cut="0.0000000000000000e+00" cType="1" res="3.1593025196343660e-03" rms="4.9843040108680725e-01" purity="5.3818112611770630e-01" nType="-99"/>
                  </Node>
                  <Node pos="r" depth="6" NCoef="0" IVar="-1" Cut="0.0000000000000000e+00" cType="1" res="1.1585776228457689e-03" rms="4.9938654899597168e-01" purity="5.1568967103958130e-01" nType="-99"/>
                </Node>
              </Node>
              <Node pos="r" depth="4" NCoef="0" IVar="0" Cut="1.5182675421237946e-01" cType="1" res="1.3641291856765747e-01" rms="4.7758349776268005e-01" purity="6.4704161882400513e-01" nType="0">
                <Node pos="l" depth="5" NCoef="0" IVar="1" Cut="1.5769954025745392e-01" cType="1" res="1.6757950186729431e-01" rms="4.6655881404876709e-01" purity="6.7945957183837891e-01" nType="0">
                  <Node pos="l" depth="6" NCoef="0" IVar="5" Cut="3.0000000000000000e+00" cType="1" res="1.8370430171489716e-01" rms="4.5990800857543945e-01" purity="6.9590157270431519e-01" nType="0">
                    <Node pos="l" depth="7" NCoef="0" IVar="-1" Cut="0.0000000000000000e+00" cType="1" res="1.2331250123679638e-02" rms="4.6511337161064148e-01" purity="6.8336427211761475e-01" nType="-99"/>
                    <Node pos="r" depth="7" NCoef="0" IVar="-1" Cut="0.0000000000000000e+00" cType="1" res="1.8012603744864464e-02" rms="4.5010903477668762e-01" purity="7.1762424707412720e-01" nType="-99"/>
                  </Node>
                  <Node pos="r" depth="6" NCoef="0" IVar="-1" Cut="0.0000000000000000e+00" cType="1" res="9.8588876426219940e-03" rms="4.8071104288101196e-01" purity="6.3713651895523071e-01" nType="-99"/>
                </Node>
                <Node pos="r" depth="5" NCoef="0" IVar="-1" Cut="0.0000000000000000e+00" cType="1" res="6.0985251329839230e-03" rms="4.9378365278244019e-01" purity="5.7773810625076294e-01" nType="-99"/>
              </Node>
            </Node>
            <Node pos="r" depth="3" NCoef="0" IVar="-1" Cut="0.0000000000000000e+00" cType="1" res="-6.9791772402822971e-03" rms="4.9299496412277222e-01" purity="4.1936075687408447e-01" nType="-99"/>
          </Node>
          <Node pos="r" depth="2" NCoef="0" IVar="5" Cut="2.0000000000000000e+00" cType="1" res="2.3467519879341125e-01" rms="4.3001821637153625e-01" purity="7.5360780954360962e-01" nType="0">
            <Node pos="l" depth="3" NCoef="0" IVar="3" Cut="9.6560436487197876e-01" cType="1" res="2.5814726948738098e-01" rms="4.1472095251083374e-01" purity="7.7859485149383545e-01" nType="0">
              <Node pos="l" depth="4" NCoef="0" IVar="3" Cut="9.4310754537582397e-01" cType="1" res="2.1328288316726685e-01" rms="4.4247728586196899e-01" purity="7.3183792829513550e-01" nType="0">
                <Node pos="l" depth="5" NCoef="0" IVar="-1" Cut="0.0000000000000000e+00" cType="1" res="1.5874382108449936e-02" rms="4.4860261678695679e-01" purity="7.1994519233703613e-01" nType="-99"/>
                <Node pos="r" depth="5" NCoef="0" IVar="-1" Cut="0.0000000000000000e+00" cType="1" res="1.6918033361434937e-02" rms="4.3652960658073425e-01" purity="7.4275827407836914e-01" nType="-99"/>
              </Node>
              <Node pos="r" depth="4" NCoef="0" IVar="3" Cut="1.0308369398117065e+00" cType="1" res="2.6188656687736511e-01" rms="4.1210275888442993e-01" purity="7.8249186277389526e-01" nType="0">
                <Node pos="l" depth="5" NCoef="0" IVar="1" Cut="9.4799679517745972e-01" cType="1" res="2.6434472203254700e-01" rms="4.1038718819618225e-01" purity="7.8503638505935669e-01" nType="0">
                  <Node pos="l" depth="6" NCoef="0" IVar="1" Cut="3.3000299334526062e-01" cType="1" res="2.7159512042999268e-01" rms="4.0509608387947083e-01" purity="7.9269546270370483e-01" nType="0">
                    <Node pos="l" depth="7" NCoef="0" IVar="-1" Cut="0.0000000000000000e+00" cType="1" res="2.1180689334869385e-02" rms="3.9822101593017578e-01" purity="8.0211907625198364e-01" nType="-99"/>
                    <Node pos="r" depth="7" NCoef="0" IVar="-1" Cut="0.0000000000000000e+00" cType="1" res="1.7204346135258675e-02" rms="4.3414112925529480e-01" purity="7.4746894836425781e-01" nType="-99"/>
                  </Node>
                  <Node pos="r" depth="6" NCoef="0" IVar="-1" Cut="0.0000000000000000e+00" cType="1" res="1.0783770121634007e-02" rms="4.7441768646240234e-01" purity="6.5671265125274658e-01" nType="-99"/>
                </Node>
                <Node pos="r" depth="5" NCoef="0" IVar="-1" Cut="0.0000000000000000e+00" cType="1" res="1.7666235566139221e-02" rms="4.2859673500061035e-01" purity="7.5621241331100464e-01" nType="-99"/>
              </Node>
            </Node>
            <Node pos="r" depth="3" NCoef="0" IVar="1" Cut="4.8326480388641357e-01" cType="1" res="1.7822141945362091e-01" rms="4.6018806099891663e-01" purity="6.9400507211685181e-01" nType="0">
              <Node pos="l" depth="4" NCoef="0" IVar="2" Cut="1.7581622314453125e+02" cType="1" res="1.9833742082118988e-01" rms="4.5085835456848145e-01" purity="7.1539682149887085e-01" nType="0">
                <Node pos="l" depth="5" NCoef="0" IVar="3" Cut="8.7887287139892578e-01" cType="1" res="2.1135601401329041e-01" rms="4.4411173462867737e-01" purity="7.2932660579681396e-01" nType="0">
                  <Node pos="l" depth="6" NCoef="0" IVar="3" Cut="8.5500925779342651e-01" cType="1" res="1.9602043926715851e-01" rms="4.5256876945495605e-01" purity="7.1232920885086060e-01" nType="0">
                    <Node pos="l" depth="7" NCoef="0" IVar="-1" Cut="0.0000000000000000e+00" cType="1" res="1.3693109154701233e-02" rms="4.5956990122795105e-01" purity="6.9682312011718750e-01" nType="-99"/>
                    <Node pos="r" depth="7" NCoef="0" IVar="-1" Cut="0.0000000000000000e+00" cType="1" res="1.6737213358283043e-02" rms="4.4448500871658325e-01" purity="7.2882050275802612e-01" nType="-99"/>
                  </Node>
                  <Node pos="r" depth="6" NCoef="0" IVar="1" Cut="-6.0312613844871521e-02" cType="1" res="2.3232074081897736e-01" rms="4.3140166997909546e-01" purity="7.5256317853927612e-01" nType="0">
                    <Node pos="l" depth="7" NCoef="0" IVar="-1" Cut="0.0000000000000000e+00" cType="1" res="2.1014222875237465e-02" rms="4.2231440544128418e-01" purity="7.6766091585159302e-01" nType="-99"/>
                    <Node pos="r" depth="7" NCoef="0" IVar="-1" Cut="0.0000000000000000e+00" cType="1" res="1.9597360864281654e-02" rms="4.3718951940536499e-01" purity="7.4235785007476807e-01" nType="-99"/>
                  </Node>
                </Node>
                <Node pos="r" depth="5" NCoef="0" IVar="-1" Cut="0.0000000000000000e+00" cType="1" res="9.9055161699652672e-03" rms="4.8481300473213196e-01" purity="6.2183690071105957e-01" nType="-99"/>
              </Node>
              <Node pos="r" depth="4" NCoef="0" IVar="-1" Cut="0.0000000000000000e+00" cType="1" res="5.3713452070951462e-03" rms="4.9455758929252625e-01" purity="5.7317727804183960e-01" nType="-99"/>
            </Node>
          </Node>
        </Node>
      </Node>
    </BinaryTree>
    <BinaryTree type="DecisionTree" boostWeight="1.0000000000000000e+00" itree="3">
      <Node pos="s" depth="0" NCoef="0" IVar="3" Cut="6.7608582973480225e-01" cType="1" res="6.0103042051196098e-03" rms="4.7965878248214722e-01" purity="5.0060254335403442e-01" nType="0">
        <Node pos="l" depth="1" NCoef="0" IVar="3" Cut="4.7984808683395386e-01" cType="1" res="-2.5353467464447021e-01" rms="3.9128056168556213e-01" purity="1.9956873357295990e-01" nType="0">
          <Node pos="l" depth="2" NCoef="0" IVar="4" Cut="1.5685297548770905e-01" cType="1" res="-3.3143532276153564e-01" rms="3.0463713407516479e-01" purity="1.0578453540802002e-01" nType="0">
            <Node pos="l" depth="3" NCoef="0" IVar="3" Cut="3.7163525819778442e-01" cType="1" res="-3.5361954569816589e-01" rms="2.6737454533576965e-01" purity="7.8827910125255585e-02" nType="0">
              <Node pos="l" depth="4" NCoef="0" IVar="5" Cut="4.0000000000000000e+00" cType="1" res="0.0000000000000000e+00" rms="0.0000000000000000e+00" purity="4.8680081963539124e-02" nType="0">
                <Node pos="l" depth="5" NCoef="0" IVar="-1" Cut="0.0000000000000000e+00" cType="1" res="-3.6753203719854355e-02" rms="3.1354084610939026e-01" purity="1.1050452291965485e-01" nType="-99"/>
                <Node pos="r" depth="5" NCoef="0" IVar="3" Cut="2.7589601278305054e-01" cType="1" res="-3.8416093587875366e-01" rms="1.9654923677444458e-01" purity="4.0429666638374329e-02" nType="0">
                  <Node pos="l" depth="6" NCoef="0" IVar="5" Cut="7.0000000000000000e+00" cType="1" res="-3.9379316568374634e-01" rms="1.6391484439373016e-01" purity="2.7679610997438431e-02" nType="0">
                    <Node pos="l" depth="7" NCoef="0" IVar="-1" Cut="0.0000000000000000e+00" cType="1" res="-4.8397950828075409e-02" rms="1.8931120634078979e-01" purity="3.7312302738428116e-02" nType="-99"/>
                    <Node pos="r" depth="7" NCoef="0" IVar="-1" Cut="0.0000000000000000e+00" cType="1" res="-4.9780886620283127e-02" rms="1.3701556622982025e-01" purity="1.9144745543599129e-02" nType="-99"/>
                  </Node>
                  <Node pos="r" depth="6" NCoef="0" IVar="0" Cut="1.3562302589416504e+00" cType="1" res="-3.7388265132904053e-01" rms="2.2572304308414459e-01" purity="5.3991049528121948e-02" nType="0">
                    <Node pos="l" depth="7" NCoef="0" IVar="-1" Cut="0.0000000000000000e+00" cType="1" res="-3.8885150104761124e-02" rms="2.8327834606170654e-01" purity="8.8233456015586853e-02" nType="-99"/>
                    <Node pos="r" depth="7" NCoef="0" IVar="-1" Cut="0.0000000000000000e+00" cType="1" res="-4.4833339750766754e-02" rms="1.9697976112365723e-01" purity="4.0430158376693726e-02" nType="-99"/>
                  </Node>
                </Node>
              </Node>
              <Node pos="r" depth="4" NCoef="0" IVar="0" Cut="6.4827066659927368e-01" cType="1" res="-3.1673339009284973e-01" rms="3.3128970861434937e-01" purity="1.2682794034481049e-01" nType="0">
                <Node pos="l" depth="5" NCoef="0" IVar="-1" Cut="0.0000000000000000e+00" cType="1" res="-2.4309225380420685e-02" rms="4.1194117069244385e-01" purity="2.1750372648239136e-01" nType="-99"/>
                <Node pos="r" depth="5" NCoef="0" IVar="4" Cut="9.1206461191177368e-02" cType="1" res="-3.3698245882987976e-01" rms="3.0343425273895264e-01" purity="1.0306992381811142e-01" nType="0">
                  <Node pos="l" depth="6" NCoef="0" IVar="2" Cut="1.3730131530761719e+02" cType="1" res="-3.5399460792541504e-01" rms="2.7688270807266235e-01" purity="8.3926849067211151e-02" nType="0">
                    <Node pos="l" depth="7" NCoef="0" IVar="-1" Cut="0.0000000000000000e+00" cType="1" res="-3.7193905562162399e-02" rms="3.0344527959823608e-01" purity="1.0288579016923904e-01" nType="-99"/>
                    <Node pos="r" depth="7" NCoef="0" IVar="-1" Cut="0.0000000000000000e+00" cType="1" res="-4.0512330830097198e-02" rms="2.4167919158935547e-01" purity="6.2460809946060181e-02" nType="-99"/>
                  </Node>
                  <Node pos="r" depth="6" NCoef="0" IVar="2" Cut="2.9502182006835938e+02" cType="1" res="-3.1172749400138855e-01" rms="3.3745953440666199e-01" purity="1.3148832321166992e-01" nType="0">
                    <Node pos="l" depth="7" NCoef="0" IVar="-1" Cut="0.0000000000000000e+00" cType="1" res="-3.1042700633406639e-02" rms="3.6527097225189209e-01" purity="1.5912179648876190e-01" nType="-99"/>
                    <Node pos="r" depth="7" NCoef="0" IVar="-1" Cut="0.0000000000000000e+00" cType="1" res="-3.6687374114990234e-02" rms="3.0411434173583984e-01" purity="1.0344591736793518e-01" nType="-99"/>
                  </Node>
                </Node>
              </Node>
            </Node>
            <Node pos="r" depth="3" NCoef="0" IVar="5" Cut="4.0000000000000000e+00" cType="1" res="0.0000000000000000e+00" rms="0.0000000000000000e+00" purity="1.6476897895336151e-01" nType="0">
              <Node pos="l" depth="4" NCoef="0" IVar="-1" Cut="0.0000000000000000e+00" cType="1" res="-2.0477134734392166e-02" rms="4.3930941820144653e-01" purity="2.6166844367980957e-01" nType="-99"/>
              <Node pos="r" depth="4" NCoef="0" IVar="3" Cut="3.7150859832763672e-01" cType="1" res="-2.9848739504814148e-01" rms="3.5202667117118835e-01" purity="1.4686696231365204e-01" nType="0">
                <Node pos="l" depth="5" NCoef="0" IVar="4" Cut="2.5203809142112732e-01" cType="1" res="-3.1442707777023315e-01" rms="3.3264905214309692e-01" purity="1.2804034352302551e-01" nType="0">
                  <Node pos="l" depth="6" NCoef="0" IVar="3" Cut="2.5168079137802124e-01" cType="1" res="-3.4234923124313354e-01" rms="2.9373872280120850e-01" purity="9.5990255475044250e-02" nType="0">
                    <Node pos="l" depth="7" NCoef="0" IVar="-1" Cut="0.0000000000000000e+00" cType="1" res="-4.5105010271072388e-02" rms="2.4547928571701050e-01" purity="6.4805932343006134e-02" nType="-99"/>
                    <Node pos="r" depth="7" NCoef="0" IVar="-1" Cut="0.0000000000000000e+00" cType="1" res="-3.5701390355825424e-02" rms="3.2786187529563904e-01" purity="1.2282577157020569e-01" nType="-99"/>
                  </Node>
                  <Node pos="r" depth="6" NCoef="0" IVar="-1" Cut="0.0000000000000000e+00" cType="1" res="-2.7867542579770088e-02" rms="3.9538910984992981e-01" purity="1.9466695189476013e-01" nType="-99"/>
                </Node>
                <Node pos="r" depth="5" NCoef="0" IVar="-1" Cut="0.0000000000000000e+00" cType="1" res="-2.2354137152433395e-02" rms="4.2229276895523071e-01" purity="2.3333419859409332e-01" nType="-99"/>
              </Node>
            </Node>
          </Node>
          <Node pos="r" depth="2" NCoef="0" IVar="0" Cut="5.7583469152450562e-01" cType="1" res="-1.3133162260055542e-01" rms="4.7247731685638428e-01" purity="3.4668838977813721e-01" nType="0">
            <Node pos="l" depth="3" NCoef="0" IVar="0" Cut="3.5287567973136902e-01" cType="1" res="-8.3361804485321045e-02" rms="4.8876324295997620e-01" purity="4.0290465950965881e-01" nType="0">
              <Node pos="l" depth="4" NCoef="0" IVar="3" Cut="6.1914885044097900e-01" cType="1" res="-4.9694277346134186e-02" rms="4.9533423781394958e-01" purity="4.4125401973724365e-01" nType="0">
                <Node pos="l" depth="5" NCoef="0" IVar="2" Cut="1.4628327941894531e+02" cType="1" res="-8.7596200406551361e-02" rms="4.8869550228118896e-01" purity="3.9807969331741333e-01" nType="0">
                  <Node pos="l" depth="6" NCoef="0" IVar="-1" Cut="0.0000000000000000e+00" cType="1" res="-2.8676243964582682e-03" rms="4.9734333157539368e-01" purity="4.5660808682441711e-01" nType="-99"/>
                  <Node pos="r" depth="6" NCoef="0" IVar="3" Cut="5.4282450675964355e-01" cType="1" res="-1.1254661530256271e-01" rms="4.8259106278419495e-01" purity="3.7083512544631958e-01" nType="0">
                    <Node pos="l" depth="7" NCoef="0" IVar="-1" Cut="0.0000000000000000e+00" cType="1" res="-1.2811376713216305e-02" rms="4.7280380129814148e-01" purity="3.3803904056549072e-01" nType="-99"/>
                    <Node pos="r" depth="7" NCoef="0" IVar="-1" Cut="0.0000000000000000e+00" cType="1" res="-8.7980488315224648e-03" rms="4.8772636055946350e-01" purity="3.9064985513687134e-01" nType="-99"/>
                  </Node>
                </Node>
                <Node pos="r" depth="5" NCoef="0" IVar="2" Cut="1.3236820983886719e+02" cType="1" res="1.1413970496505499e-03" rms="4.9960675835609436e-01" purity="4.9916127324104309e-01" nType="0">
                  <Node pos="l" depth="6" NCoef="0" IVar="-1" Cut="0.0000000000000000e+00" cType="1" res="3.2461138907819986e-03" rms="4.9809500575065613e-01" purity="5.3971129655838013e-01" nType="-99"/>
                  <Node pos="r" depth="6" NCoef="0" IVar="-1" Cut="0.0000000000000000e+00" cType="1" res="-2.4290776345878839e-03" rms="4.9877688288688660e-01" purity="4.6960276365280151e-01" nType="-99"/>
                </Node>
              </Node>
              <Node pos="r" depth="4" NCoef="0" IVar="3" Cut="5.5582326650619507e-01" cType="1" res="-1.4494043588638306e-01" rms="4.7031587362289429e-01" purity="3.3276292681694031e-01" nType="0">
                <Node pos="l" depth="5" NCoef="0" IVar="-1" Cut="0.0000000000000000e+00" cType="1" res="-1.8285468220710754e-02" rms="4.4623896479606628e-01" purity="2.7583670616149902e-01" nType="-99"/>
                <Node pos="r" depth="5" NCoef="0" IVar="4" Cut="5.3974632173776627e-02" cType="1" res="-1.2515461444854736e-01" rms="4.7787854075431824e-01" purity="3.5487112402915955e-01" nType="0">
                  <Node pos="l" depth="6" NCoef="0" IVar="-1" Cut="0.0000000000000000e+00" cType="1" res="-1.5110204927623272e-02" rms="4.6471714973449707e-01" purity="3.1702652573585510e-01" nType="-99"/>
                  <Node pos="r" depth="6" NCoef="0" IVar="-1" Cut="0.0000000000000000e+00" cType="1" res="-9.3269189819693565e-03" rms="4.8406624794006348e-01" purity="3.7689167261123657e-01" nType="-99"/>
                </Node>
              </Node>
            </Node>
            <Node pos="r" depth="3" NCoef="0" IVar="3" Cut="5.8113884925842285e-01" cType="1" res="-2.3289524018764496e-01" rms="4.1821399331092834e-01" purity="2.2766496241092682e-01" nType="0">
              <Node pos="l" depth="4" NCoef="0" IVar="1" Cut="2.5955274701118469e-01" cType="1" res="-2.6010012626647949e-01" rms="3.9694878458976746e-01" purity="1.9653268158435822e-01" nType="0">
                <Node pos="l" depth="5" NCoef="0" IVar="-1" Cut="0.0000000000000000e+00" cType="1" res="-2.3148648440837860e-02" rms="4.1651776432991028e-01" purity="2.2385770082473755e-01" nType="-99"/>
                <Node pos="r" depth="5" NCoef="0" IVar="-1" Cut="0.0000000000000000e+00" cType="1" res="-3.0283391475677490e-02" rms="3.6772978305816650e-01" purity="1.6165474057197571e-01" nType="-99"/>
              </Node>
              <Node pos="r" depth="4" NCoef="0" IVar="-1" Cut="0.0000000000000000e+00" cType="1" res="-1.5580077655613422e-02" rms="4.6005791425704956e-01" purity="3.0522975325584412e-01" nType="-99"/>
            </Node>
          </Node>
        </Node>
        <Node pos="r" depth="1" NCoef="0" IVar="3" Cut="8.2561457157135010e-01" cType="1" res="1.8350116908550262e-01" rms="4.5292419195175171e-01" purity="7.0646572113037109e-01" nType="0">
          <Node pos="l" depth="2" NCoef="0" IVar="1" Cut="7.0100414752960205e-01" cType="1" res="7.1795180439949036e-02" rms="4.9190238118171692e-01" purity="5.8069932460784912e-01" nType="0">
            <Node pos="l" depth="3" NCoef="0" IVar="0" Cut="3.9748448133468628e-01" cType="1" res="8.9264087378978729e-02" rms="4.8883420228958130e-01" purity="5.9953552484512329e-01" nType="0">
              <Node pos="l" depth="4" NCoef="0" IVar="0" Cut="1.9232451915740967e-01" cType="1" res="1.0449890792369843e-01" rms="4.8544043302536011e-01" purity="6.1601853370666504e-01" nType="0">
                <Node pos="l" depth="5" NCoef="0" IVar="3" Cut="7.2915166616439819e-01" cType="1" res="1.3203707337379456e-01" rms="4.7753119468688965e-01" purity="6.4610534906387329e-01" nType="0">
                  <Node pos="l" depth="6" NCoef="0" IVar="1" Cut="-1.3861127197742462e-02" cType="1" res="6.9808669388294220e-02" rms="4.9369183182716370e-01" purity="5.7700282335281372e-01" nType="0">
                    <Node pos="l" depth="7" NCoef="0" IVar="-1" Cut="0.0000000000000000e+00" cType="1" res="6.9479737430810928e-03" rms="4.9053299427032471e-01" purity="5.9624367952346802e-01" nType="-99"/>
                    <Node pos="r" depth="7" NCoef="0" IVar="-1" Cut="0.0000000000000000e+00" cType="1" res="4.5157913118600845e-03" rms="4.9610406160354614e-01" purity="5.5933582782745361e-01" nType="-99"/>
                  </Node>
                  <Node pos="r" depth="6" NCoef="0" IVar="1" Cut="1.0338024049997330e-01" cType="1" res="1.5421222150325775e-01" rms="4.6965014934539795e-01" purity="6.7073005437850952e-01" nType="0">
                    <Node pos="l" depth="7" NCoef="0" IVar="-1" Cut="0.0000000000000000e+00" cType="1" res="1.3336377218365669e-02" rms="4.6296834945678711e-01" purity="6.8828570842742920e-01" nType="-99"/>
                    <Node pos="r" depth="7" NCoef="0" IVar="-1" Cut="0.0000000000000000e+00" cType="1" res="9.7514456138014793e-03" rms="4.8076182603836060e-01" purity="6.3661205768585205e-01" nType="-99"/>
                  </Node>
                </Node>
                <Node pos="r" depth="5" NCoef="0" IVar="3" Cut="7.7258878946304321e-01" cType="1" res="4.6669725328683853e-02" rms="4.9669891595840454e-01" purity="5.5283725261688232e-01" nType="0">
                  <Node pos="l" depth="6" NCoef="0" IVar="4" Cut="4.7958195209503174e-02" cType="1" res="1.7222870141267776e-02" rms="4.9930983781814575e-01" purity="5.2075672149658203e-01" nType="0">
                    <Node pos="l" depth="7" NCoef="0" IVar="-1" Cut="0.0000000000000000e+00" cType="1" res="-5.7092448696494102e-04" rms="4.9966743588447571e-01" purity="4.9782288074493408e-01" nType="-99"/>
                    <Node pos="r" depth="7" NCoef="0" IVar="-1" Cut="0.0000000000000000e+00" cType="1" res="3.2281694002449512e-03" rms="4.9809536337852478e-01" purity="5.4060298204421997e-01" nType="-99"/>
                  </Node>
                  <Node pos="r" depth="6" NCoef="0" IVar="-1" Cut="0.0000000000000000e+00" cType="1" res="9.1985343024134636e-03" rms="4.8627400398254395e-01" purity="6.1627376079559326e-01" nType="-99"/>
                </Node>
              </Node>
              <Node pos="r" depth="4" NCoef="0" IVar="-1" Cut="0.0000000000000000e+00" cType="1" res="-3.1623751856386662e-03" rms="4.9846902489662170e-01" purity="4.6240177750587463e-01" nType="-99"/>
            </Node>
            <Node pos="r" depth="3" NCoef="0" IVar="-1" Cut="0.0000000000000000e+00" cType="1" res="-7.3372307233512402e-03" rms="4.9164003133773804e-01" purity="4.1202291846275330e-01" nType="-99"/>
          </Node>
          <Node pos="r" depth="2" NCoef="0" IVar="2" Cut="1.8824549865722656e+02" cType="1" res="2.2387430071830750e-01" rms="4.3091771006584167e-01" purity="7.5192058086395264e-01" nType="0">
            <Node pos="l" depth="3" NCoef="0" IVar="0" Cut="3.9769303798675537e-01" cType="1" res="2.3055253922939301e-01" rms="4.2682585120201111e-01" purity="7.5910937786102295e-01" nType="0">
              <Node pos="l" depth="4" NCoef="0" IVar="3" Cut="9.1026419401168823e-01" cType="1" res="2.3914845287799835e-01" rms="4.2146888375282288e-01" purity="7.6800423860549927e-01" nType="0">
                <Node pos="l" depth="5" NCoef="0" IVar="3" Cut="8.8295954465866089e-01" cType="1" res="1.8895372748374939e-01" rms="4.5171457529067993e-01" purity="7.1293050050735474e-01" nType="0">
                  <Node pos="l" depth="6" NCoef="0" IVar="1" Cut="1.9417978823184967e-02" cType="1" res="1.7308256030082703e-01" rms="4.5970222353935242e-01" purity="6.9551283121109009e-01" nType="0">
                    <Node pos="l" depth="7" NCoef="0" IVar="-1" Cut="0.0000000000000000e+00" cType="1" res="1.6141436994075775e-02" rms="4.4225835800170898e-01" purity="7.3314470052719116e-01" nType="-99"/>
                    <Node pos="r" depth="7" NCoef="0" IVar="-1" Cut="0.0000000000000000e+00" cType="1" res="1.1037618853151798e-02" rms="4.7337159514427185e-01" purity="6.5948903560638428e-01" nType="-99"/>
                  </Node>
                  <Node pos="r" depth="6" NCoef="0" IVar="1" Cut="7.4054099619388580e-02" cType="1" res="2.2421278059482574e-01" rms="4.3135827779769897e-01" purity="7.5162547826766968e-01" nType="0">
                    <Node pos="l" depth="7" NCoef="0" IVar="-1" Cut="0.0000000000000000e+00" cType="1" res="2.1717863157391548e-02" rms="4.1090080142021179e-01" purity="7.8486317396163940e-01" nType="-99"/>
                    <Node pos="r" depth="7" NCoef="0" IVar="-1" Cut="0.0000000000000000e+00" cType="1" res="1.6101920977234840e-02" rms="4.5504397153854370e-01" purity="7.0555979013442993e-01" nType="-99"/>
                  </Node>
                </Node>
                <Node pos="r" depth="5" NCoef="0" IVar="1" Cut="2.6646822690963745e-01" cType="1" res="2.5608623027801514e-01" rms="4.0937405824661255e-01" purity="7.8658843040466309e-01" nType="0">
                  <Node pos="l" depth="6" NCoef="0" IVar="3" Cut="9.8059928417205811e-01" cType="1" res="2.7273264527320862e-01" rms="3.9624130725860596e-01" purity="8.0488669872283936e-01" nType="0">
                    <Node pos="l" depth="7" NCoef="0" IVar="-1" Cut="0.0000000000000000e+00" cType="1" res="1.9911931827664375e-02" rms="4.1058370471000671e-01" purity="7.8519225120544434e-01" nType="-99"/>
                    <Node pos="r" depth="7" NCoef="0" IVar="-1" Cut="0.0000000000000000e+00" cType="1" res="2.0906666293740273e-02" rms="3.9330452680587769e-01" purity="8.0870717763900757e-01" nType="-99"/>
                  </Node>
                  <Node pos="r" depth="6" NCoef="0" IVar="3" Cut="9.8946034908294678e-01" cType="1" res="2.0618368685245514e-01" rms="4.4269931316375732e-01" purity="7.3173385858535767e-01" nType="0">
                    <Node pos="l" depth="7" NCoef="0" IVar="-1" Cut="0.0000000000000000e+00" cType="1" res="1.3366397470235825e-02" rms="4.6066856384277344e-01" purity="6.9314134120941162e-01" nType="-99"/>
                    <Node pos="r" depth="7" NCoef="0" IVar="-1" Cut="0.0000000000000000e+00" cType="1" res="1.6009723767638206e-02" rms="4.3842121958732605e-01" purity="7.3986858129501343e-01" nType="-99"/>
                  </Node>
                </Node>
              </Node>
              <Node pos="r" depth="4" NCoef="0" IVar="-1" Cut="0.0000000000000000e+00" cType="1" res="1.0257160756736994e-03" rms="4.9802500009536743e-01" purity="5.3353238105773926e-01" nType="-99"/>
            </Node>
            <Node pos="r" depth="3" NCoef="0" IVar="-1" Cut="0.0000000000000000e+00" cType="1" res="4.3038907460868359e-03" rms="4.9610865116119385e-01" purity="5.6189632415771484e-01" nType="-99"/>
          </Node>
        </Node>
      </Node>
    </BinaryTree>
    <BinaryTree type="DecisionTree" boostWeight="1.0000000000000000e+00" itree="4">
      <Node pos="s" depth="0" NCoef="0" IVar="3" Cut="6.7501425743103027e-01" cType="1" res="8.6326729506254196e-03" rms="4.7387030720710754e-01" purity="5.0190734863281250e-01" nType="0">
        <Node pos="l" depth="1" NCoef="0" IVar="3" Cut="5.0094032287597656e-01" cType="1" res="-2.4007010459899902e-01" rms="3.8878333568572998e-01" purity="1.9936624169349670e-01" nType="0">
          <Node pos="l" depth="2" NCoef="0" IVar="4" Cut="1.1743576824665070e-01" cType="1" res="-3.0893871188163757e-01" rms="3.1038817763328552e-01" purity="1.1125333607196808e-01" nType="0">
            <Node pos="l" depth="3" NCoef="0" IVar="3" Cut="4.2034009099006653e-01" cType="1" res="-3.3908233046531677e-01" rms="2.5923198461532593e-01" purity="7.4102073907852173e-02" nType="0">
              <Node pos="l" depth="4" NCoef="0" IVar="3" Cut="3.6625874042510986e-01" cType="1" res="-3.5804212093353271e-01" rms="2.1358110010623932e-01" purity="4.8361036926507950e-02" nType="0">
                <Node pos="l" depth="5" NCoef="0" IVar="5" Cut="5.0000000000000000e+00" cType="1" res="0.0000000000000000e+00" rms="0.0000000000000000e+00" purity="3.9372235536575317e-02" nType="0">
                  <Node pos="l" depth="6" NCoef="0" IVar="-1" Cut="0.0000000000000000e+00" cType="1" res="-4.1520837694406509e-02" rms="2.4786031246185303e-01" purity="6.5941192209720612e-02" nType="-99"/>
                  <Node pos="r" depth="6" NCoef="0" IVar="4" Cut="9.0996176004409790e-02" cType="1" res="-3.7058284878730774e-01" rms="1.6969539225101471e-01" purity="2.9787093400955200e-02" nType="0">
                    <Node pos="l" depth="7" NCoef="0" IVar="-1" Cut="0.0000000000000000e+00" cType="1" res="-4.5723505318164825e-02" rms="1.5839612483978271e-01" purity="2.5814436376094818e-02" nType="-99"/>
                    <Node pos="r" depth="7" NCoef="0" IVar="-1" Cut="0.0000000000000000e+00" cType="1" res="-4.4131852686405182e-02" rms="1.9367110729217529e-01" purity="3.9249729365110397e-02" nType="-99"/>
                  </Node>
                </Node>
                <Node pos="r" depth="5" NCoef="0" IVar="2" Cut="1.5919650268554688e+02" cType="1" res="-3.4100255370140076e-01" rms="2.6698434352874756e-01" purity="7.7550962567329407e-02" nType="0">
                  <Node pos="l" depth="6" NCoef="0" IVar="-1" Cut="0.0000000000000000e+00" cType="1" res="-3.6789748817682266e-02" rms="2.9304349422454834e-01" purity="9.5288865268230438e-02" nType="-99"/>
                  <Node pos="r" depth="6" NCoef="0" IVar="-1" Cut="0.0000000000000000e+00" cType="1" res="-4.0400169789791107e-02" rms="2.3416821658611298e-01" purity="5.8461397886276245e-02" nType="-99"/>
                </Node>
              </Node>
              <Node pos="r" depth="4" NCoef="0" IVar="0" Cut="8.0851548910140991e-01" cType="1" res="-2.9064869880676270e-01" rms="3.4507283568382263e-01" purity="1.3985872268676758e-01" nType="0">
                <Node pos="l" depth="5" NCoef="0" IVar="-1" Cut="0.0000000000000000e+00" cType="1" res="-2.4635618552565575e-02" rms="4.0012094378471375e-01" purity="2.0114220678806305e-01" nType="-99"/>
                <Node pos="r" depth="5" NCoef="0" IVar="4" Cut="6.8321377038955688e-02" cType="1" res="-3.2005801796913147e-01" rms="3.0379056930541992e-01" purity="1.0329937189817429e-01" nType="0">
                  <Node pos="l" depth="6" NCoef="0" IVar="-1" Cut="0.0000000000000000e+00" cType="1" res="-3.8049001246690750e-02" rms="2.6879367232322693e-01" purity="7.8590653836727142e-02" nType="-99"/>
                  <Node pos="r" depth="6" NCoef="0" IVar="-1" Cut="0.0000000000000000e+00" cType="1" res="-3.1719349324703217e-02" rms="3.3489719033241272e-01" purity="1.2934325635433197e-01" nType="-99"/>
                </Node>
              </Node>
            </Node>
            <Node pos="r" depth="3" NCoef="0" IVar="5" Cut="4.0000000000000000e+00" cType="1" res="2.0204448699951172e-01" rms="0.0000000000000000e+00" purity="1.5100379288196564e-01" nType="0">
              <Node pos="l" depth="4" NCoef="0" IVar="3" Cut="3.7190473079681396e-01" cType="1" res="-2.0144534111022949e-01" rms="4.2589795589447021e-01" purity="2.4097362160682678e-01" nType="0">
                <Node pos="l" depth="5" NCoef="0" IVar="-1" Cut="0.0000000000000000e+00" cType="1" res="-1.7463348805904388e-02" rms="4.4187220931053162e-01" purity="2.6994368433952332e-01" nType="-99"/>
                <Node pos="r" depth="5" NCoef="0" IVar="-1" Cut="0.0000000000000000e+00" cType="1" res="-2.3977190256118774e-02" rms="4.0745654702186584e-01" purity="2.1288588643074036e-01" nType="-99"/>
              </Node>
              <Node pos="r" depth="4" NCoef="0" IVar="3" Cut="3.7176495790481567e-01" cType="1" res="-2.9178220033645630e-01" rms="3.3605200052261353e-01" purity="1.3295263051986694e-01" nType="0">
                <Node pos="l" depth="5" NCoef="0" IVar="4" Cut="2.3075011372566223e-01" cType="1" res="-3.1241393089294434e-01" rms="3.0523636937141418e-01" purity="1.0593253374099731e-01" nType="0">
                  <Node pos="l" depth="6" NCoef="0" IVar="3" Cut="3.1290116906166077e-01" cType="1" res="-3.3628675341606140e-01" rms="2.6266482472419739e-01" purity="7.5451180338859558e-02" nType="0">
                    <Node pos="l" depth="7" NCoef="0" IVar="-1" Cut="0.0000000000000000e+00" cType="1" res="-4.3003931641578674e-02" rms="2.3231685161590576e-01" purity="5.7690374553203583e-02" nType="-99"/>
                    <Node pos="r" depth="7" NCoef="0" IVar="-1" Cut="0.0000000000000000e+00" cType="1" res="-3.3799022436141968e-02" rms="3.2480373978614807e-01" purity="1.2054675072431564e-01" nType="-99"/>
                  </Node>
                  <Node pos="r" depth="6" NCoef="0" IVar="1" Cut="1.9250439107418060e-01" cType="1" res="-2.5702798366546631e-01" rms="3.8061761856079102e-01" purity="1.7665064334869385e-01" nType="0">
                    <Node pos="l" depth="7" NCoef="0" IVar="-1" Cut="0.0000000000000000e+00" cType="1" res="-2.6133365929126740e-02" rms="3.9549052715301514e-01" purity="1.9521762430667877e-01" nType="-99"/>
                    <Node pos="r" depth="7" NCoef="0" IVar="-1" Cut="0.0000000000000000e+00" cType="1" res="-3.1409453600645065e-02" rms="3.5921818017959595e-01" purity="1.5274079144001007e-01" nType="-99"/>
                  </Node>
                </Node>
                <Node pos="r" depth="5" NCoef="0" IVar="0" Cut="5.6063479185104370e-01" cType="1" res="-2.3274500668048859e-01" rms="4.0592497587203979e-01" purity="2.1026985347270966e-01" nType="0">
                  <Node pos="l" depth="6" NCoef="0" IVar="-1" Cut="0.0000000000000000e+00" cType="1" res="-1.9780546426773071e-02" rms="4.3389943242073059e-01" purity="2.5249758362770081e-01" nType="-99"/>
                  <Node pos="r" depth="6" NCoef="0" IVar="-1" Cut="0.0000000000000000e+00" cType="1" res="-2.9540941119194031e-02" rms="3.6203804612159729e-01" purity="1.5604011714458466e-01" nType="-99"/>
                </Node>
              </Node>
            </Node>
          </Node>
          <Node pos="r" depth="2" NCoef="0" IVar="0" Cut="5.7583469152450562e-01" cType="1" res="-1.1391662061214447e-01" rms="4.7639659047126770e-01" purity="3.6077144742012024e-01" nType="0">
            <Node pos="l" depth="3" NCoef="0" IVar="0" Cut="3.3432310819625854e-01" cType="1" res="-7.3942460119724274e-02" rms="4.8992726206779480e-01" purity="4.1004958748817444e-01" nType="0">
              <Node pos="l" depth="4" NCoef="0" IVar="3" Cut="6.0762453079223633e-01" cType="1" res="-3.8242891430854797e-02" rms="4.9650713801383972e-01" purity="4.5223587751388550e-01" nType="0">
                <Node pos="l" depth="5" NCoef="0" IVar="2" Cut="1.5689862060546875e+02" cType="1" res="-7.7068887650966644e-02" rms="4.9038714170455933e-01" purity="4.0578374266624451e-01" nType="0">
                  <Node pos="l" depth="6" NCoef="0" IVar="-1" Cut="0.0000000000000000e+00" cType="1" res="-1.6650639008730650e-03" rms="4.9909362196922302e-01" purity="4.6969431638717651e-01" nType="-99"/>
                  <Node pos="r" depth="6" NCoef="0" IVar="-1" Cut="0.0000000000000000e+00" cType="1" res="-9.7475741058588028e-03" rms="4.8317107558250427e-01" purity="3.7266939878463745e-01" nType="-99"/>
                </Node>
                <Node pos="r" depth="5" NCoef="0" IVar="0" Cut="1.0782807134091854e-02" cType="1" res="-1.9546914845705032e-03" rms="4.9943822622299194e-01" purity="4.9565172195434570e-01" nType="0">
                  <Node pos="l" depth="6" NCoef="0" IVar="2" Cut="1.7541177368164062e+02" cType="1" res="1.9283495843410492e-02" rms="4.9932736158370972e-01" purity="5.1974552869796753e-01" nType="0">
                    <Node pos="l" depth="7" NCoef="0" IVar="-1" Cut="0.0000000000000000e+00" cType="1" res="3.0681681819260120e-03" rms="4.9795845150947571e-01" purity="5.4334050416946411e-01" nType="-99"/>
                    <Node pos="r" depth="7" NCoef="0" IVar="-1" Cut="0.0000000000000000e+00" cType="1" res="9.0451430878601968e-05" rms="4.9985721707344055e-01" purity="4.9847689270973206e-01" nType="-99"/>
                  </Node>
                  <Node pos="r" depth="6" NCoef="0" IVar="-1" Cut="0.0000000000000000e+00" cType="1" res="-4.3084430508315563e-03" rms="4.9671170115470886e-01" purity="4.4492319226264954e-01" nType="-99"/>
                </Node>
              </Node>
              <Node pos="r" depth="4" NCoef="0" IVar="2" Cut="2.0091282653808594e+02" cType="1" res="-1.3105632364749908e-01" rms="4.7364947199821472e-01" purity="3.4255802631378174e-01" nType="0">
                <Node pos="l" depth="5" NCoef="0" IVar="4" Cut="5.4946608841419220e-02" cType="1" res="-1.0842303931713104e-01" rms="4.8117062449455261e-01" purity="3.6717557907104492e-01" nType="0">
                  <Node pos="l" depth="6" NCoef="0" IVar="-1" Cut="0.0000000000000000e+00" cType="1" res="-1.3449702411890030e-02" rms="4.6865361928939819e-01" purity="3.2771176099777222e-01" nType="-99"/>
                  <Node pos="r" depth="6" NCoef="0" IVar="-1" Cut="0.0000000000000000e+00" cType="1" res="-6.4483429305255413e-03" rms="4.8991847038269043e-01" purity="4.0293151140213013e-01" nType="-99"/>
                </Node>
                <Node pos="r" depth="5" NCoef="0" IVar="-1" Cut="0.0000000000000000e+00" cType="1" res="-1.6180664300918579e-02" rms="4.5762130618095398e-01" purity="2.9975277185440063e-01" nType="-99"/>
              </Node>
            </Node>
            <Node pos="r" depth="3" NCoef="0" IVar="3" Cut="5.8517855405807495e-01" cType="1" res="-2.0958599448204041e-01" rms="4.2741620540618896e-01" purity="2.4283501505851746e-01" nType="0">
              <Node pos="l" depth="4" NCoef="0" IVar="2" Cut="2.0567819213867188e+02" cType="1" res="-2.3936595022678375e-01" rms="4.0517461299896240e-01" purity="2.0793388783931732e-01" nType="0">
                <Node pos="l" depth="5" NCoef="0" IVar="-1" Cut="0.0000000000000000e+00" cType="1" res="-2.1819610148668289e-02" rms="4.1882312297821045e-01" purity="2.2794719040393829e-01" nType="-99"/>
                <Node pos="r" depth="5" NCoef="0" IVar="-1" Cut="0.0000000000000000e+00" cType="1" res="-2.7751944959163666e-02" rms="3.7917086482048035e-01" purity="1.7462590336799622e-01" nType="-99"/>
              </Node>
              <Node pos="r" depth="4" NCoef="0" IVar="-1" Cut="0.0000000000000000e+00" cType="1" res="-1.3801197521388531e-02" rms="4.6469089388847351e-01" purity="3.1647467613220215e-01" nType="-99"/>
            </Node>
          </Node>
        </Node>
        <Node pos="r" depth="1" NCoef="0" IVar="3" Cut="8.2422852516174316e-01" cType="1" res="1.7812368273735046e-01" rms="4.5132640004158020e-01" purity="7.0808917284011841e-01" nType="0">
          <Node pos="l" depth="2" NCoef="0" IVar="0" Cut="4.2297554016113281e-01" cType="1" res="6.6886685788631439e-02" rms="4.9175369739532471e-01" purity="5.7851260900497437e-01" nType="0">
            <Node pos="l" depth="3" NCoef="0" IVar="0" Cut="1.7736941576004028e-01" cType="1" res="8.2376487553119659e-02" rms="4.8909598588943481e-01" purity="5.9552752971649170e-01" nType="0">
              <Node pos="l" depth="4" NCoef="0" IVar="3" Cut="7.7609765529632568e-01" cType="1" res="1.1433683335781097e-01" rms="4.8125663399696350e-01" purity="6.3133889436721802e-01" nType="0">
                <Node pos="l" depth="5" NCoef="0" IVar="1" Cut="-8.7919585406780243e-02" cType="1" res="8.9154064655303955e-02" rms="4.8844495415687561e-01" purity="6.0219514369964600e-01" nType="0">
                  <Node pos="l" depth="6" NCoef="0" IVar="-1" Cut="0.0000000000000000e+00" cType="1" res="9.3651721253991127e-03" rms="4.8031982779502869e-01" purity="6.3804888725280762e-01" nType="-99"/>
                  <Node pos="r" depth="6" NCoef="0" IVar="5" Cut="3.0000000000000000e+00" cType="1" res="7.5345553457736969e-02" rms="4.8996970057487488e-01" purity="5.8617103099822998e-01" nType="0">
                    <Node pos="l" depth="7" NCoef="0" IVar="-1" Cut="0.0000000000000000e+00" cType="1" res="3.8558349478989840e-03" rms="4.9568533897399902e-01" purity="5.5696427822113037e-01" nType="-99"/>
                    <Node pos="r" depth="7" NCoef="0" IVar="-1" Cut="0.0000000000000000e+00" cType="1" res="7.2299153544008732e-03" rms="4.8915526270866394e-01" purity="5.9848225116729736e-01" nType="-99"/>
                  </Node>
                </Node>
                <Node pos="r" depth="5" NCoef="0" IVar="5" Cut="3.0000000000000000e+00" cType="1" res="1.4764586091041565e-01" rms="4.6865022182464600e-01" purity="6.7046725749969482e-01" nType="0">
                  <Node pos="l" depth="6" NCoef="0" IVar="3" Cut="8.0250513553619385e-01" cType="1" res="1.3733457028865814e-01" rms="4.7377243638038635e-01" purity="6.5777498483657837e-01" nType="0">
                    <Node pos="l" depth="7" NCoef="0" IVar="-1" Cut="0.0000000000000000e+00" cType="1" res="1.0360819287598133e-02" rms="4.7054252028465271e-01" purity="6.6738498210906982e-01" nType="-99"/>
                    <Node pos="r" depth="7" NCoef="0" IVar="-1" Cut="0.0000000000000000e+00" cType="1" res="9.6132950857281685e-03" rms="4.7604963183403015e-01" purity="6.5051698684692383e-01" nType="-99"/>
                  </Node>
                  <Node pos="r" depth="6" NCoef="0" IVar="-1" Cut="0.0000000000000000e+00" cType="1" res="1.5245816670358181e-02" rms="4.5938804745674133e-01" purity="6.9612878561019897e-01" nType="-99"/>
                </Node>
              </Node>
              <Node pos="r" depth="4" NCoef="0" IVar="3" Cut="7.6647233963012695e-01" cType="1" res="2.3101288825273514e-02" rms="4.9791073799133301e-01" purity="5.2911019325256348e-01" nType="0">
                <Node pos="l" depth="5" NCoef="0" IVar="3" Cut="7.2520208358764648e-01" cType="1" res="-7.5675477273762226e-03" rms="4.9917343258857727e-01" purity="4.9427902698516846e-01" nType="0">
                  <Node pos="l" depth="6" NCoef="0" IVar="-1" Cut="0.0000000000000000e+00" cType="1" res="-3.3281643409281969e-03" rms="4.9779739975929260e-01" purity="4.6284317970275879e-01" nType="-99"/>
                  <Node pos="r" depth="6" NCoef="0" IVar="-1" Cut="0.0000000000000000e+00" cType="1" res="1.9651411566883326e-03" rms="4.9877166748046875e-01" purity="5.2715635299682617e-01" nType="-99"/>
                </Node>
                <Node pos="r" depth="5" NCoef="0" IVar="-1" Cut="0.0000000000000000e+00" cType="1" res="6.7838765680789948e-03" rms="4.9093788862228394e-01" purity="5.9110766649246216e-01" nType="-99"/>
              </Node>
            </Node>
            <Node pos="r" depth="3" NCoef="0" IVar="-1" Cut="0.0000000000000000e+00" cType="1" res="-7.2248848155140877e-03" rms="4.9252113699913025e-01" purity="4.1628351807594299e-01" nType="-99"/>
          </Node>
          <Node pos="r" depth="2" NCoef="0" IVar="5" Cut="2.0000000000000000e+00" cType="1" res="2.1828405559062958e-01" rms="4.2869532108306885e-01" purity="7.5470471382141113e-01" nType="0">
            <Node pos="l" depth="3" NCoef="0" IVar="1" Cut="2.2283615544438362e-02" cType="1" res="2.3976971209049225e-01" rms="4.1388151049613953e-01" purity="7.7922374010086060e-01" nType="0">
              <Node pos="l" depth="4" NCoef="0" IVar="3" Cut="1.0071600675582886e+00" cType="1" res="2.6150441169738770e-01" rms="3.9675265550613403e-01" purity="8.0375552177429199e-01" nType="0">
                <Node pos="l" depth="5" NCoef="0" IVar="3" Cut="1.0012615919113159e+00" cType="1" res="2.6036652922630310e-01" rms="3.9749106764793396e-01" purity="8.0280953645706177e-01" nType="0">
                  <Node pos="l" depth="6" NCoef="0" IVar="3" Cut="9.6136134862899780e-01" cType="1" res="2.5480762124061584e-01" rms="4.0176361799240112e-01" purity="7.9711854457855225e-01" nType="0">
                    <Node pos="l" depth="7" NCoef="0" IVar="-1" Cut="0.0000000000000000e+00" cType="1" res="1.7308194190263748e-02" rms="4.2540928721427917e-01" purity="7.6227664947509766e-01" nType="-99"/>
                    <Node pos="r" depth="7" NCoef="0" IVar="-1" Cut="0.0000000000000000e+00" cType="1" res="1.9646393135190010e-02" rms="3.9827159047126770e-01" purity="8.0185550451278687e-01" nType="-99"/>
                  </Node>
                  <Node pos="r" depth="6" NCoef="0" IVar="-1" Cut="0.0000000000000000e+00" cType="1" res="2.1125614643096924e-02" rms="3.7711334228515625e-01" purity="8.2788830995559692e-01" nType="-99"/>
                </Node>
                <Node pos="r" depth="5" NCoef="0" IVar="-1" Cut="0.0000000000000000e+00" cType="1" res="1.9569380208849907e-02" rms="3.9427915215492249e-01" purity="8.0688190460205078e-01" nType="-99"/>
              </Node>
              <Node pos="r" depth="4" NCoef="0" IVar="1" Cut="1.2339540719985962e+00" cType="1" res="2.1803635358810425e-01" rms="4.2922902107238770e-01" purity="7.5469350814819336e-01" nType="0">
                <Node pos="l" depth="5" NCoef="0" IVar="1" Cut="6.4648663997650146e-01" cType="1" res="2.2757336497306824e-01" rms="4.2314061522483826e-01" purity="7.6506716012954712e-01" nType="0">
                  <Node pos="l" depth="6" NCoef="0" IVar="1" Cut="2.6390811800956726e-01" cType="1" res="2.3916333913803101e-01" rms="4.1521358489990234e-01" purity="7.7775049209594727e-01" nType="0">
                    <Node pos="l" depth="7" NCoef="0" IVar="-1" Cut="0.0000000000000000e+00" cType="1" res="1.9405586645007133e-02" rms="4.0525850653648376e-01" purity="7.9234069585800171e-01" nType="-99"/>
                    <Node pos="r" depth="7" NCoef="0" IVar="-1" Cut="0.0000000000000000e+00" cType="1" res="1.6667312011122704e-02" rms="4.2938753962516785e-01" purity="7.5532329082489014e-01" nType="-99"/>
                  </Node>
                  <Node pos="r" depth="6" NCoef="0" IVar="-1" Cut="0.0000000000000000e+00" cType="1" res="1.1202060617506504e-02" rms="4.6491661667823792e-01" purity="6.8142139911651611e-01" nType="-99"/>
                </Node>
                <Node pos="r" depth="5" NCoef="0" IVar="-1" Cut="0.0000000000000000e+00" cType="1" res="7.8725814819335938e-03" rms="4.8277029395103455e-01" purity="6.2754184007644653e-01" nType="-99"/>
              </Node>
            </Node>
            <Node pos="r" depth="3" NCoef="0" IVar="1" Cut="4.9947732686996460e-01" cType="1" res="1.6733063757419586e-01" rms="4.5816421508789062e-01" purity="6.9710248708724976e-01" nType="0">
              <Node pos="l" depth="4" NCoef="0" IVar="2" Cut="1.7370501708984375e+02" cType="1" res="1.8660162389278412e-01" rms="4.4883424043655396e-01" purity="7.1866738796234131e-01" nType="0">
                <Node pos="l" depth="5" NCoef="0" IVar="3" Cut="8.7712240219116211e-01" cType="1" res="1.9826565682888031e-01" rms="4.4223549962043762e-01" purity="7.3236459493637085e-01" nType="0">
                  <Node pos="l" depth="6" NCoef="0" IVar="2" Cut="9.5534568786621094e+01" cType="1" res="1.8169839680194855e-01" rms="4.5260050892829895e-01" purity="7.1188032627105713e-01" nType="0">
                    <Node pos="l" depth="7" NCoef="0" IVar="-1" Cut="0.0000000000000000e+00" cType="1" res="1.4840215444564819e-02" rms="4.4703918695449829e-01" purity="7.2335076332092285e-01" nType="-99"/>
                    <Node pos="r" depth="7" NCoef="0" IVar="-1" Cut="0.0000000000000000e+00" cType="1" res="1.2467931956052780e-02" rms="4.6411290764808655e-01" purity="6.8538582324981689e-01" nType="-99"/>
                  </Node>
                  <Node pos="r" depth="6" NCoef="0" IVar="4" Cut="2.8693960979580879e-02" cType="1" res="2.1949878334999084e-01" rms="4.2764762043952942e-01" purity="7.5861781835556030e-01" nType="0">
                    <Node pos="l" depth="7" NCoef="0" IVar="-1" Cut="0.0000000000000000e+00" cType="1" res="1.8462076783180237e-02" rms="4.3482547998428345e-01" purity="7.4632632732391357e-01" nType="-99"/>
                    <Node pos="r" depth="7" NCoef="0" IVar="-1" Cut="0.0000000000000000e+00" cType="1" res="1.9716704264283180e-02" rms="4.1993576288223267e-01" purity="7.7097672224044800e-01" nType="-99"/>
                  </Node>
                </Node>
                <Node pos="r" depth="5" NCoef="0" IVar="-1" Cut="0.0000000000000000e+00" cType="1" res="1.0155683383345604e-02" rms="4.8128533363342285e-01" purity="6.3441562652587891e-01" nType="-99"/>
              </Node>
              <Node pos="r" depth="4" NCoef="0" IVar="-1" Cut="0.0000000000000000e+00" cType="1" res="4.5302333310246468e-03" rms="4.9458143115043640e-01" purity="5.7052206993103027e-01" nType="-99"/>
            </Node>
          </Node>
        </Node>
      </Node>
    </BinaryTree>
    <BinaryTree type="DecisionTree" boostWeight="1.0000000000000000e+00" itree="5">
      <Node pos="s" depth="0" NCoef="0" IVar="3" Cut="6.7608582973480225e-01" cType="1" res="7.0886798202991486e-03" rms="4.6874403953552246e-01" purity="4.9913045763969421e-01" nType="0">
        <Node pos="l" depth="1" NCoef="0" IVar="3" Cut="4.7984808683395386e-01" cType="1" res="-2.2925743460655212e-01" rms="3.8525834679603577e-01" purity="1.9725760817527771e-01" nType="0">
          <Node pos="l" depth="2" NCoef="0" IVar="4" Cut="1.2383532524108887e-01" cType="1" res="-2.9885256290435791e-01" rms="2.9867491126060486e-01" purity="1.0233134031295776e-01" nType="0">
            <Node pos="l" depth="3" NCoef="0" IVar="3" Cut="3.8709872961044312e-01" cType="1" res="-3.2636868953704834e-01" rms="2.4540127813816071e-01" purity="6.5760731697082520e-02" nType="0">
              <Node pos="l" depth="4" NCoef="0" IVar="5" Cut="4.0000000000000000e+00" cType="1" res="-3.4097275137901306e-01" rms="2.0080736279487610e-01" purity="4.2452085763216019e-02" nType="0">
                <Node pos="l" depth="5" NCoef="0" IVar="-1" Cut="0.0000000000000000e+00" cType="1" res="-3.4950055181980133e-02" rms="2.9981499910354614e-01" purity="9.9812291562557220e-02" nType="-99"/>
                <Node pos="r" depth="5" NCoef="0" IVar="4" Cut="1.0390018671751022e-01" cType="1" res="-3.4742721915245056e-01" rms="1.8177697062492371e-01" purity="3.4427728503942490e-02" nType="0">
                  <Node pos="l" depth="6" NCoef="0" IVar="2" Cut="1.5599650573730469e+02" cType="1" res="-3.5076871514320374e-01" rms="1.7184239625930786e-01" purity="3.0615324154496193e-02" nType="0">
                    <Node pos="l" depth="7" NCoef="0" IVar="-1" Cut="0.0000000000000000e+00" cType="1" res="-4.4095102697610855e-02" rms="1.8783757090568542e-01" purity="3.6850910633802414e-02" nType="-99"/>
                    <Node pos="r" depth="7" NCoef="0" IVar="-1" Cut="0.0000000000000000e+00" cType="1" res="-4.2862635105848312e-02" rms="1.4986392855644226e-01" purity="2.3064933717250824e-02" nType="-99"/>
                  </Node>
                  <Node pos="r" depth="6" NCoef="0" IVar="-1" Cut="0.0000000000000000e+00" cType="1" res="-4.1508909314870834e-02" rms="2.1552561223506927e-01" purity="4.9207773059606552e-02" nType="-99"/>
                </Node>
              </Node>
              <Node pos="r" depth="4" NCoef="0" IVar="0" Cut="7.5524157285690308e-01" cType="1" res="-2.9743486642837524e-01" rms="3.1356248259544373e-01" purity="1.1184579133987427e-01" nType="0">
                <Node pos="l" depth="5" NCoef="0" IVar="-1" Cut="0.0000000000000000e+00" cType="1" res="-2.6343520730733871e-02" rms="3.8464045524597168e-01" purity="1.8118003010749817e-01" nType="-99"/>
                <Node pos="r" depth="5" NCoef="0" IVar="2" Cut="1.5770567321777344e+02" cType="1" res="-3.1246447563171387e-01" rms="2.8744429349899292e-01" purity="9.1295398771762848e-02" nType="0">
                  <Node pos="l" depth="6" NCoef="0" IVar="-1" Cut="0.0000000000000000e+00" cType="1" res="-3.3117469400167465e-02" rms="3.1156298518180847e-01" purity="1.0925857722759247e-01" nType="-99"/>
                  <Node pos="r" depth="6" NCoef="0" IVar="-1" Cut="0.0000000000000000e+00" cType="1" res="-3.6927532404661179e-02" rms="2.5770071148872375e-01" purity="7.2002835571765900e-02" nType="-99"/>
                </Node>
              </Node>
            </Node>
            <Node pos="r" depth="3" NCoef="0" IVar="5" Cut="4.0000000000000000e+00" cType="1" res="1.9244210422039032e-01" rms="1.3841024041175842e-01" purity="1.4556774497032166e-01" nType="0">
              <Node pos="l" depth="4" NCoef="0" IVar="-1" Cut="0.0000000000000000e+00" cType="1" res="-2.1711809560656548e-02" rms="4.1742166876792908e-01" purity="2.2732955217361450e-01" nType="-99"/>
              <Node pos="r" depth="4" NCoef="0" IVar="3" Cut="3.8698160648345947e-01" cType="1" res="-2.7767583727836609e-01" rms="3.3301916718482971e-01" purity="1.3037407398223877e-01" nType="0">
                <Node pos="l" depth="5" NCoef="0" IVar="4" Cut="2.2008964419364929e-01" cType="1" res="-2.9315719008445740e-01" rms="3.0899360775947571e-01" purity="1.0919188708066940e-01" nType="0">
                  <Node pos="l" depth="6" NCoef="0" IVar="3" Cut="3.3697772026062012e-01" cType="1" res="-3.1904900074005127e-01" rms="2.6214754581451416e-01" purity="7.5372628867626190e-02" nType="0">
                    <Node pos="l" depth="7" NCoef="0" IVar="-1" Cut="0.0000000000000000e+00" cType="1" res="-4.1307084262371063e-02" rms="2.3539149761199951e-01" purity="5.9304155409336090e-02" nType="-99"/>
                    <Node pos="r" depth="7" NCoef="0" IVar="-1" Cut="0.0000000000000000e+00" cType="1" res="-3.1135627999901772e-02" rms="3.3632954955101013e-01" purity="1.3115112483501434e-01" nType="-99"/>
                  </Node>
                  <Node pos="r" depth="6" NCoef="0" IVar="5" Cut="8.0000000000000000e+00" cType="1" res="2.0183657109737396e-01" rms="0.0000000000000000e+00" purity="1.7264187335968018e-01" nType="0">
                    <Node pos="l" depth="7" NCoef="0" IVar="-1" Cut="0.0000000000000000e+00" cType="1" res="-2.6264457032084465e-02" rms="3.8518565893173218e-01" purity="1.8258750438690186e-01" nType="-99"/>
                    <Node pos="r" depth="7" NCoef="0" IVar="-1" Cut="0.0000000000000000e+00" cType="1" res="-2.8935911133885384e-02" rms="3.6429101228713989e-01" purity="1.5834526717662811e-01" nType="-99"/>
                  </Node>
                </Node>
                <Node pos="r" depth="5" NCoef="0" IVar="-1" Cut="0.0000000000000000e+00" cType="1" res="-2.1566590294241905e-02" rms="4.1330626606941223e-01" purity="2.1993620693683624e-01" nType="-99"/>
              </Node>
            </Node>
          </Node>
          <Node pos="r" depth="2" NCoef="0" IVar="0" Cut="5.7583469152450562e-01" cType="1" res="-1.2226489186286926e-01" rms="4.6964725852012634e-01" purity="3.4319317340850830e-01" nType="0">
            <Node pos="l" depth="3" NCoef="0" IVar="1" Cut="5.7838839292526245e-01" cType="1" res="-7.9226739704608917e-02" rms="4.8711141943931580e-01" purity="3.9914780855178833e-01" nType="0">
              <Node pos="l" depth="4" NCoef="0" IVar="3" Cut="5.4949432611465454e-01" cType="1" res="-6.3511684536933899e-02" rms="4.9034059047698975e-01" purity="4.1555002331733704e-01" nType="0">
                <Node pos="l" depth="5" NCoef="0" IVar="0" Cut="2.9717606306076050e-01" cType="1" res="-1.3717278838157654e-01" rms="4.6711471676826477e-01" purity="3.2584929466247559e-01" nType="0">
                  <Node pos="l" depth="6" NCoef="0" IVar="-1" Cut="0.0000000000000000e+00" cType="1" res="-9.9771162495017052e-03" rms="4.7924271225929260e-01" purity="3.5970342159271240e-01" nType="-99"/>
                  <Node pos="r" depth="6" NCoef="0" IVar="-1" Cut="0.0000000000000000e+00" cType="1" res="-1.6070393845438957e-02" rms="4.5119136571884155e-01" purity="2.8838816285133362e-01" nType="-99"/>
                </Node>
                <Node pos="r" depth="5" NCoef="0" IVar="0" Cut="2.9715847969055176e-01" cType="1" res="-4.0776822715997696e-02" rms="4.9508166313171387e-01" purity="4.4323536753654480e-01" nType="0">
                  <Node pos="l" depth="6" NCoef="0" IVar="2" Cut="1.9516941833496094e+02" cType="1" res="-1.1287525296211243e-02" rms="4.9870300292968750e-01" purity="4.8127466440200806e-01" nType="0">
                    <Node pos="l" depth="7" NCoef="0" IVar="-1" Cut="0.0000000000000000e+00" cType="1" res="1.4820287469774485e-03" rms="4.9929895997047424e-01" purity="5.1467841863632202e-01" nType="-99"/>
                    <Node pos="r" depth="7" NCoef="0" IVar="-1" Cut="0.0000000000000000e+00" cType="1" res="-3.8382399361580610e-03" rms="4.9617320299148560e-01" purity="4.4549652934074402e-01" nType="-99"/>
                  </Node>
                  <Node pos="r" depth="6" NCoef="0" IVar="4" Cut="5.3952623158693314e-02" cType="1" res="-7.8512452542781830e-02" rms="4.8781543970108032e-01" purity="3.9455881714820862e-01" nType="0">
                    <Node pos="l" depth="7" NCoef="0" IVar="-1" Cut="0.0000000000000000e+00" cType="1" res="-1.1401553638279438e-02" rms="4.7563728690147400e-01" purity="3.4773290157318115e-01" nType="-99"/>
                    <Node pos="r" depth="7" NCoef="0" IVar="-1" Cut="0.0000000000000000e+00" cType="1" res="-4.7673503868281841e-03" rms="4.9251592159271240e-01" purity="4.1935381293296814e-01" nType="-99"/>
                  </Node>
                </Node>
              </Node>
              <Node pos="r" depth="4" NCoef="0" IVar="-1" Cut="0.0000000000000000e+00" cType="1" res="-1.5893857926130295e-02" rms="4.5665889978408813e-01" purity="3.0220964550971985e-01" nType="-99"/>
            </Node>
            <Node pos="r" depth="3" NCoef="0" IVar="1" Cut="5.1841604709625244e-01" cType="1" res="-2.1344098448753357e-01" rms="4.1585275530815125e-01" purity="2.2465351223945618e-01" nType="0">
              <Node pos="l" depth="4" NCoef="0" IVar="2" Cut="1.0943792724609375e+02" cType="1" res="-1.8812054395675659e-01" rms="4.3255770206451416e-01" purity="2.5150471925735474e-01" nType="0">
                <Node pos="l" depth="5" NCoef="0" IVar="-1" Cut="0.0000000000000000e+00" cType="1" res="-1.3165234588086605e-02" rms="4.5804736018180847e-01" purity="3.0274534225463867e-01" nType="-99"/>
                <Node pos="r" depth="5" NCoef="0" IVar="3" Cut="5.3680229187011719e-01" cType="1" res="-2.1593689918518066e-01" rms="4.1476351022720337e-01" purity="2.2228115797042847e-01" nType="0">
                  <Node pos="l" depth="6" NCoef="0" IVar="-1" Cut="0.0000000000000000e+00" cType="1" res="-2.3657647892832756e-02" rms="3.9799988269805908e-01" purity="1.9753611087799072e-01" nType="-99"/>
                  <Node pos="r" depth="6" NCoef="0" IVar="-1" Cut="0.0000000000000000e+00" cType="1" res="-2.0104214549064636e-02" rms="4.2828491330146790e-01" purity="2.4370153248310089e-01" nType="-99"/>
                </Node>
              </Node>
              <Node pos="r" depth="4" NCoef="0" IVar="-1" Cut="0.0000000000000000e+00" cType="1" res="-3.0008658766746521e-02" rms="3.5760116577148438e-01" purity="1.5159158408641815e-01" nType="-99"/>
            </Node>
          </Node>
        </Node>
        <Node pos="r" depth="1" NCoef="0" IVar="3" Cut="8.2561016082763672e-01" cType="1" res="1.6859847307205200e-01" rms="4.5186829566955566e-01" purity="7.0541864633560181e-01" nType="0">
          <Node pos="l" depth="2" NCoef="0" IVar="0" Cut="4.2297556996345520e-01" cType="1" res="6.2628097832202911e-02" rms="4.9142912030220032e-01" purity="5.7700616121292114e-01" nType="0">
            <Node pos="l" depth="3" NCoef="0" IVar="0" Cut="1.3643803074955940e-02" cType="1" res="7.9363062977790833e-02" rms="4.8873373866081238e-01" purity="5.9585118293762207e-01" nType="0">
              <Node pos="l" depth="4" NCoef="0" IVar="1" Cut="4.9542412161827087e-01" cType="1" res="1.1237679421901703e-01" rms="4.8047769069671631e-01" purity="6.3400530815124512e-01" nType="0">
                <Node pos="l" depth="5" NCoef="0" IVar="3" Cut="7.2916644811630249e-01" cType="1" res="0.0000000000000000e+00" rms="0.0000000000000000e+00" purity="6.4942598342895508e-01" nType="0">
                  <Node pos="l" depth="6" NCoef="0" IVar="-1" Cut="0.0000000000000000e+00" cType="1" res="6.6718659363687038e-03" rms="4.9005323648452759e-01" purity="5.9749215841293335e-01" nType="-99"/>
                  <Node pos="r" depth="6" NCoef="0" IVar="1" Cut="-1.4745602384209633e-02" cType="1" res="0.0000000000000000e+00" rms="0.0000000000000000e+00" purity="6.6839838027954102e-01" nType="0">
                    <Node pos="l" depth="7" NCoef="0" IVar="-1" Cut="0.0000000000000000e+00" cType="1" res="1.2444692663848400e-02" rms="4.6245181560516357e-01" purity="6.8953114748001099e-01" nType="-99"/>
                    <Node pos="r" depth="7" NCoef="0" IVar="-1" Cut="0.0000000000000000e+00" cType="1" res="9.4659635797142982e-03" rms="4.7811061143875122e-01" purity="6.4550542831420898e-01" nType="-99"/>
                  </Node>
                </Node>
                <Node pos="r" depth="5" NCoef="0" IVar="-1" Cut="0.0000000000000000e+00" cType="1" res="2.8493406716734171e-03" rms="4.9731150269508362e-01" purity="5.4040509462356567e-01" nType="-99"/>
              </Node>
              <Node pos="r" depth="4" NCoef="0" IVar="3" Cut="7.7256226539611816e-01" cType="1" res="1.8974144011735916e-02" rms="4.9785259366035461e-01" purity="5.2605950832366943e-01" nType="0">
                <Node pos="l" depth="5" NCoef="0" IVar="1" Cut="1.3808192312717438e-01" cType="1" res="-5.7271788828074932e-03" rms="4.9902510643005371e-01" purity="4.9653530120849609e-01" nType="0">
                  <Node pos="l" depth="6" NCoef="0" IVar="0" Cut="3.0831271409988403e-01" cType="1" res="4.0143828839063644e-02" rms="4.9768695235252380e-01" purity="5.4480820894241333e-01" nType="0">
                    <Node pos="l" depth="7" NCoef="0" IVar="-1" Cut="0.0000000000000000e+00" cType="1" res="4.3221069499850273e-03" rms="4.9662983417510986e-01" purity="5.5506902933120728e-01" nType="-99"/>
                    <Node pos="r" depth="7" NCoef="0" IVar="-1" Cut="0.0000000000000000e+00" cType="1" res="2.7030573692172766e-03" rms="4.9865448474884033e-01" purity="5.3430986404418945e-01" nType="-99"/>
                  </Node>
                  <Node pos="r" depth="6" NCoef="0" IVar="-1" Cut="0.0000000000000000e+00" cType="1" res="-6.7683202214539051e-03" rms="4.9298125505447388e-01" purity="4.2340886592864990e-01" nType="-99"/>
                </Node>
                <Node pos="r" depth="5" NCoef="0" IVar="-1" Cut="0.0000000000000000e+00" cType="1" res="6.4104497432708740e-03" rms="4.9091941118240356e-01" purity="5.9093552827835083e-01" nType="-99"/>
              </Node>
            </Node>
            <Node pos="r" depth="3" NCoef="0" IVar="-1" Cut="0.0000000000000000e+00" cType="1" res="-8.8236005976796150e-03" rms="4.8817238211631775e-01" purity="3.9575663208961487e-01" nType="-99"/>
          </Node>
          <Node pos="r" depth="2" NCoef="0" IVar="0" Cut="5.7448899745941162e-01" cType="1" res="2.0705378055572510e-01" rms="4.3021962046623230e-01" purity="7.5201797485351562e-01" nType="0">
            <Node pos="l" depth="3" NCoef="0" IVar="0" Cut="1.8530968576669693e-02" cType="1" res="2.1633437275886536e-01" rms="4.2476192116737366e-01" purity="7.6181548833847046e-01" nType="0">
              <Node pos="l" depth="4" NCoef="0" IVar="3" Cut="9.6548211574554443e-01" cType="1" res="2.2424344718456268e-01" rms="4.1967949271202087e-01" purity="7.7017372846603394e-01" nType="0">
                <Node pos="l" depth="5" NCoef="0" IVar="1" Cut="1.9369328022003174e-01" cType="1" res="1.8812173604965210e-01" rms="4.4456076622009277e-01" purity="7.2687685489654541e-01" nType="0">
                  <Node pos="l" depth="6" NCoef="0" IVar="3" Cut="8.7524414062500000e-01" cType="1" res="2.1062429249286652e-01" rms="4.3071341514587402e-01" purity="7.5324779748916626e-01" nType="0">
                    <Node pos="l" depth="7" NCoef="0" IVar="-1" Cut="0.0000000000000000e+00" cType="1" res="1.4747683890163898e-02" rms="4.4611373543739319e-01" purity="7.2538238763809204e-01" nType="-99"/>
                    <Node pos="r" depth="7" NCoef="0" IVar="-1" Cut="0.0000000000000000e+00" cType="1" res="1.9115403294563293e-02" rms="4.1664516925811768e-01" purity="7.7636992931365967e-01" nType="-99"/>
                  </Node>
                  <Node pos="r" depth="6" NCoef="0" IVar="3" Cut="8.6170619726181030e-01" cType="1" res="1.3608974218368530e-01" rms="4.7093665599822998e-01" purity="6.6590005159378052e-01" nType="0">
                    <Node pos="l" depth="7" NCoef="0" IVar="-1" Cut="0.0000000000000000e+00" cType="1" res="9.1066118329763412e-03" rms="4.7726088762283325e-01" purity="6.4746922254562378e-01" nType="-99"/>
                    <Node pos="r" depth="7" NCoef="0" IVar="-1" Cut="0.0000000000000000e+00" cType="1" res="1.2220505625009537e-02" rms="4.6704623103141785e-01" purity="6.7654359340667725e-01" nType="-99"/>
                  </Node>
                </Node>
                <Node pos="r" depth="5" NCoef="0" IVar="1" Cut="7.5128328800201416e-01" cType="1" res="2.4211153388023376e-01" rms="4.0562206506729126e-01" purity="7.9159104824066162e-01" nType="0">
                  <Node pos="l" depth="6" NCoef="0" IVar="1" Cut="1.1269187182188034e-01" cType="1" res="2.4996884167194366e-01" rms="3.9922776818275452e-01" purity="8.0073118209838867e-01" nType="0">
                    <Node pos="l" depth="7" NCoef="0" IVar="-1" Cut="0.0000000000000000e+00" cType="1" res="1.9651226699352264e-02" rms="3.9102879166603088e-01" purity="8.1146311759948730e-01" nType="-99"/>
                    <Node pos="r" depth="7" NCoef="0" IVar="-1" Cut="0.0000000000000000e+00" cType="1" res="1.7731966450810432e-02" rms="4.1406863927841187e-01" purity="7.8005278110504150e-01" nType="-99"/>
                  </Node>
                  <Node pos="r" depth="6" NCoef="0" IVar="-1" Cut="0.0000000000000000e+00" cType="1" res="1.1130756698548794e-02" rms="4.6559795737266541e-01" purity="6.8159008026123047e-01" nType="-99"/>
                </Node>
              </Node>
              <Node pos="r" depth="4" NCoef="0" IVar="5" Cut="2.0000000000000000e+00" cType="1" res="4.6520650386810303e-02" rms="2.8934147953987122e-01" purity="6.4928734302520752e-01" nType="0">
                <Node pos="l" depth="5" NCoef="0" IVar="-1" Cut="0.0000000000000000e+00" cType="1" res="1.1240963824093342e-02" rms="4.6429029107093811e-01" purity="6.8258881568908691e-01" nType="-99"/>
                <Node pos="r" depth="5" NCoef="0" IVar="-1" Cut="0.0000000000000000e+00" cType="1" res="6.6223186440765858e-03" rms="4.8635682463645935e-01" purity="6.0867476463317871e-01" nType="-99"/>
              </Node>
            </Node>
            <Node pos="r" depth="3" NCoef="0" IVar="-1" Cut="0.0000000000000000e+00" cType="1" res="-1.1517425999045372e-02" rms="4.8773097991943359e-01" purity="3.9652821421623230e-01" nType="-99"/>
          </Node>
        </Node>
      </Node>
    </BinaryTree>
    <BinaryTree type="DecisionTree" boostWeight="1.0000000000000000e+00" itree="6">
      <Node pos="s" depth="0" NCoef="0" IVar="3" Cut="6.7633879184722900e-01" cType="1" res="7.0745833218097687e-03" rms="4.6399003267288208e-01" purity="4.9760836362838745e-01" nType="0">
        <Node pos="l" depth="1" NCoef="0" IVar="3" Cut="5.2372527122497559e-01" cType="1" res="-2.1586139500141144e-01" rms="3.8412174582481384e-01" purity="1.9823919236660004e-01" nType="0">
          <Node pos="l" depth="2" NCoef="0" IVar="3" Cut="4.3932721018791199e-01" cType="1" res="-2.6987919211387634e-01" rms="3.1865012645721436e-01" purity="1.2016816437244415e-01" nType="0">
            <Node pos="l" depth="3" NCoef="0" IVar="4" Cut="2.4732232093811035e-01" cType="1" res="-2.8566309809684753e-01" rms="2.8916877508163452e-01" purity="9.5549508929252625e-02" nType="0">
              <Node pos="l" depth="4" NCoef="0" IVar="4" Cut="1.3578085601329803e-01" cType="1" res="-2.9767361283302307e-01" rms="2.6746886968612671e-01" purity="7.9905942082405090e-02" nType="0">
                <Node pos="l" depth="5" NCoef="0" IVar="3" Cut="3.8272255659103394e-01" cType="1" res="-3.1357374787330627e-01" rms="2.2872804105281830e-01" purity="5.6440535932779312e-02" nType="0">
                  <Node pos="l" depth="6" NCoef="0" IVar="5" Cut="4.0000000000000000e+00" cType="1" res="-3.2123139500617981e-01" rms="2.0137615501880646e-01" purity="4.2689763009548187e-02" nType="0">
                    <Node pos="l" depth="7" NCoef="0" IVar="-1" Cut="0.0000000000000000e+00" cType="1" res="-3.6746267229318619e-02" rms="2.7459490299224854e-01" purity="8.2181818783283234e-02" nType="-99"/>
                    <Node pos="r" depth="7" NCoef="0" IVar="-1" Cut="0.0000000000000000e+00" cType="1" res="-4.1124794632196426e-02" rms="1.8912729620933533e-01" purity="3.7373039871454239e-02" nType="-99"/>
                  </Node>
                  <Node pos="r" depth="6" NCoef="0" IVar="1" Cut="4.6425262093544006e-01" cType="1" res="-2.8788676857948303e-01" rms="3.0144205689430237e-01" purity="1.0248821228742599e-01" nType="0">
                    <Node pos="l" depth="7" NCoef="0" IVar="-1" Cut="0.0000000000000000e+00" cType="1" res="-2.9968351125717163e-02" rms="3.2818037271499634e-01" purity="1.2432100623846054e-01" nType="-99"/>
                    <Node pos="r" depth="7" NCoef="0" IVar="-1" Cut="0.0000000000000000e+00" cType="1" res="-3.7914358079433441e-02" rms="2.4424357712268829e-01" purity="6.4554460346698761e-02" nType="-99"/>
                  </Node>
                </Node>
                <Node pos="r" depth="5" NCoef="0" IVar="3" Cut="3.8293784856796265e-01" cType="1" res="-2.6893824338912964e-01" rms="3.2403340935707092e-01" purity="1.2231349200010300e-01" nType="0">
                  <Node pos="l" depth="6" NCoef="0" IVar="5" Cut="5.0000000000000000e+00" cType="1" res="1.6800235211849213e-01" rms="0.0000000000000000e+00" purity="1.0343319922685623e-01" nType="0">
                    <Node pos="l" depth="7" NCoef="0" IVar="-1" Cut="0.0000000000000000e+00" cType="1" res="-2.8525751084089279e-02" rms="3.6046352982521057e-01" purity="1.5541802346706390e-01" nType="-99"/>
                    <Node pos="r" depth="7" NCoef="0" IVar="-1" Cut="0.0000000000000000e+00" cType="1" res="-3.5541638731956482e-02" rms="2.7711302042007446e-01" purity="8.4941640496253967e-02" nType="-99"/>
                  </Node>
                  <Node pos="r" depth="6" NCoef="0" IVar="-1" Cut="0.0000000000000000e+00" cType="1" res="-2.2993430495262146e-02" rms="4.0324985980987549e-01" purity="2.0527943968772888e-01" nType="-99"/>
                </Node>
              </Node>
              <Node pos="r" depth="4" NCoef="0" IVar="5" Cut="7.0000000000000000e+00" cType="1" res="2.0906451344490051e-01" rms="0.0000000000000000e+00" purity="2.3174524307250977e-01" nType="0">
                <Node pos="l" depth="5" NCoef="0" IVar="-1" Cut="0.0000000000000000e+00" cType="1" res="-1.4978448860347271e-02" rms="4.4373506307601929e-01" purity="2.7309381961822510e-01" nType="-99"/>
                <Node pos="r" depth="5" NCoef="0" IVar="-1" Cut="0.0000000000000000e+00" cType="1" res="-2.3860489949584007e-02" rms="3.9293649792671204e-01" purity="1.9141349196434021e-01" nType="-99"/>
              </Node>
            </Node>
            <Node pos="r" depth="3" NCoef="0" IVar="0" Cut="7.1822077035903931e-01" cType="1" res="-2.1607129275798798e-01" rms="3.9859879016876221e-01" purity="2.0409409701824188e-01" nType="0">
              <Node pos="l" depth="4" NCoef="0" IVar="0" Cut="3.9384272694587708e-01" cType="1" res="-1.6553717851638794e-01" rms="4.4283947348594666e-01" purity="2.7157819271087646e-01" nType="0">
                <Node pos="l" depth="5" NCoef="0" IVar="-1" Cut="0.0000000000000000e+00" cType="1" res="-1.2080308981239796e-02" rms="4.6450501680374146e-01" purity="3.1778496503829956e-01" nType="-99"/>
                <Node pos="r" depth="5" NCoef="0" IVar="-1" Cut="0.0000000000000000e+00" cType="1" res="-2.1262424066662788e-02" rms="4.1178387403488159e-01" purity="2.1728092432022095e-01" nType="-99"/>
              </Node>
              <Node pos="r" depth="4" NCoef="0" IVar="2" Cut="1.1986054229736328e+02" cType="1" res="-2.6787877082824707e-01" rms="3.3972799777984619e-01" purity="1.3490952551364899e-01" nType="0">
                <Node pos="l" depth="5" NCoef="0" IVar="-1" Cut="0.0000000000000000e+00" cType="1" res="-2.4957833811640739e-02" rms="3.7264448404312134e-01" purity="1.6921244561672211e-01" nType="-99"/>
                <Node pos="r" depth="5" NCoef="0" IVar="-1" Cut="0.0000000000000000e+00" cType="1" res="-3.1077882274985313e-02" rms="3.1838816404342651e-01" purity="1.1573537439107895e-01" nType="-99"/>
              </Node>
            </Node>
          </Node>
          <Node pos="r" depth="2" NCoef="0" IVar="0" Cut="5.7583469152450562e-01" cType="1" res="-9.7173623740673065e-02" rms="4.7764843702316284e-01" purity="3.6977660655975342e-01" nType="0">
            <Node pos="l" depth="3" NCoef="0" IVar="0" Cut="3.9005994796752930e-01" cType="1" res="-6.4077794551849365e-02" rms="4.9002104997634888e-01" purity="4.1451409459114075e-01" nType="0">
              <Node pos="l" depth="4" NCoef="0" IVar="3" Cut="6.0741865634918213e-01" cType="1" res="-3.8669142872095108e-02" rms="4.9537932872772217e-01" purity="4.4665473699569702e-01" nType="0">
                <Node pos="l" depth="5" NCoef="0" IVar="0" Cut="2.5163355469703674e-01" cType="1" res="-8.2789897918701172e-02" rms="4.8748803138732910e-01" purity="3.9305779337882996e-01" nType="0">
                  <Node pos="l" depth="6" NCoef="0" IVar="-1" Cut="0.0000000000000000e+00" cType="1" res="-6.0671870596706867e-03" rms="4.9102345108985901e-01" purity="4.1024264693260193e-01" nType="-99"/>
                  <Node pos="r" depth="6" NCoef="0" IVar="-1" Cut="0.0000000000000000e+00" cType="1" res="-1.0238763876259327e-02" rms="4.7950038313865662e-01" purity="3.6070817708969116e-01" nType="-99"/>
                </Node>
                <Node pos="r" depth="5" NCoef="0" IVar="2" Cut="1.7454167175292969e+02" cType="1" res="-4.4307173229753971e-03" rms="4.9873504042625427e-01" purity="4.8824676871299744e-01" nType="0">
                  <Node pos="l" depth="6" NCoef="0" IVar="-1" Cut="0.0000000000000000e+00" cType="1" res="1.5169484540820122e-03" rms="4.9852886795997620e-01" purity="5.1422107219696045e-01" nType="-99"/>
                  <Node pos="r" depth="6" NCoef="0" IVar="-1" Cut="0.0000000000000000e+00" cType="1" res="-2.7886575553566217e-03" rms="4.9763613939285278e-01" purity="4.5819568634033203e-01" nType="-99"/>
                </Node>
              </Node>
              <Node pos="r" depth="4" NCoef="0" IVar="2" Cut="1.3893359375000000e+02" cType="1" res="-1.2826003134250641e-01" rms="4.7014155983924866e-01" purity="3.3332687616348267e-01" nType="0">
                <Node pos="l" depth="5" NCoef="0" IVar="-1" Cut="0.0000000000000000e+00" cType="1" res="-8.2138553261756897e-03" rms="4.8175996541976929e-01" purity="3.7131586670875549e-01" nType="-99"/>
                <Node pos="r" depth="5" NCoef="0" IVar="-1" Cut="0.0000000000000000e+00" cType="1" res="-1.5334677882492542e-02" rms="4.5648106932640076e-01" purity="2.9792040586471558e-01" nType="-99"/>
              </Node>
            </Node>
            <Node pos="r" depth="3" NCoef="0" IVar="3" Cut="5.9744751453399658e-01" cType="1" res="-1.9127848744392395e-01" rms="4.2677262425422668e-01" purity="2.4256971478462219e-01" nType="0">
              <Node pos="l" depth="4" NCoef="0" IVar="2" Cut="1.3327043151855469e+02" cType="1" res="-2.1796531975269318e-01" rms="4.0584138035774231e-01" purity="2.0947289466857910e-01" nType="0">
                <Node pos="l" depth="5" NCoef="0" IVar="-1" Cut="0.0000000000000000e+00" cType="1" res="-1.9755112007260323e-02" rms="4.2144471406936646e-01" purity="2.3282101750373840e-01" nType="-99"/>
                <Node pos="r" depth="5" NCoef="0" IVar="-1" Cut="0.0000000000000000e+00" cType="1" res="-2.4099076166749001e-02" rms="3.9204484224319458e-01" purity="1.9058178365230560e-01" nType="-99"/>
              </Node>
              <Node pos="r" depth="4" NCoef="0" IVar="-1" Cut="0.0000000000000000e+00" cType="1" res="-1.2817662209272385e-02" rms="4.6254634857177734e-01" purity="3.1171759963035583e-01" nType="-99"/>
            </Node>
          </Node>
        </Node>
        <Node pos="r" depth="1" NCoef="0" IVar="3" Cut="8.2586044073104858e-01" cType="1" res="1.6077522933483124e-01" rms="4.5177221298217773e-01" purity="7.0400500297546387e-01" nType="0">
          <Node pos="l" depth="2" NCoef="0" IVar="0" Cut="3.5524508357048035e-01" cType="1" res="6.0586098581552505e-02" rms="4.9092391133308411e-01" purity="5.7736682891845703e-01" nType="0">
            <Node pos="l" depth="3" NCoef="0" IVar="1" Cut="7.0100414752960205e-01" cType="1" res="7.9375162720680237e-02" rms="4.8762330412864685e-01" purity="6.0059726238250732e-01" nType="0">
              <Node pos="l" depth="4" NCoef="0" IVar="0" Cut="1.1458847671747208e-02" cType="1" res="9.2742085456848145e-02" rms="4.8472970724105835e-01" purity="6.1634552478790283e-01" nType="0">
                <Node pos="l" depth="5" NCoef="0" IVar="3" Cut="7.4871128797531128e-01" cType="1" res="1.1566357314586639e-01" rms="4.7781404852867126e-01" purity="6.4435261487960815e-01" nType="0">
                  <Node pos="l" depth="6" NCoef="0" IVar="2" Cut="2.0314038085937500e+02" cType="1" res="8.0849990248680115e-02" rms="4.8912525177001953e-01" purity="6.0083222389221191e-01" nType="0">
                    <Node pos="l" depth="7" NCoef="0" IVar="-1" Cut="0.0000000000000000e+00" cType="1" res="8.0264108255505562e-03" rms="4.8383679986000061e-01" purity="6.2392681837081909e-01" nType="-99"/>
                    <Node pos="r" depth="7" NCoef="0" IVar="-1" Cut="0.0000000000000000e+00" cType="1" res="3.2169718760997057e-03" rms="4.9635145068168640e-01" purity="5.5618441104888916e-01" nType="-99"/>
                  </Node>
                  <Node pos="r" depth="6" NCoef="0" IVar="1" Cut="1.1269830912351608e-01" cType="1" res="1.3727003335952759e-01" rms="4.6936044096946716e-01" purity="6.7136287689208984e-01" nType="0">
                    <Node pos="l" depth="7" NCoef="0" IVar="-1" Cut="0.0000000000000000e+00" cType="1" res="1.1634818278253078e-02" rms="4.6374064683914185e-01" purity="6.8638873100280762e-01" nType="-99"/>
                    <Node pos="r" depth="7" NCoef="0" IVar="-1" Cut="0.0000000000000000e+00" cType="1" res="8.7839392945170403e-03" rms="4.7955501079559326e-01" purity="6.4072924852371216e-01" nType="-99"/>
                  </Node>
                </Node>
                <Node pos="r" depth="5" NCoef="0" IVar="3" Cut="7.5832563638687134e-01" cType="1" res="4.0204960852861404e-02" rms="4.9624165892601013e-01" purity="5.5215179920196533e-01" nType="0">
                  <Node pos="l" depth="6" NCoef="0" IVar="-1" Cut="0.0000000000000000e+00" cType="1" res="5.4577889386564493e-04" rms="4.9942258000373840e-01" purity="5.1059114933013916e-01" nType="-99"/>
                  <Node pos="r" depth="6" NCoef="0" IVar="-1" Cut="0.0000000000000000e+00" cType="1" res="6.7970403470098972e-03" rms="4.9013441801071167e-01" purity="5.9705233573913574e-01" nType="-99"/>
                </Node>
              </Node>
              <Node pos="r" depth="4" NCoef="0" IVar="-1" Cut="0.0000000000000000e+00" cType="1" res="-4.2608738876879215e-03" rms="4.9649053812026978e-01" purity="4.4744738936424255e-01" nType="-99"/>
            </Node>
            <Node pos="r" depth="3" NCoef="0" IVar="3" Cut="7.2459787130355835e-01" cType="1" res="-4.1007157415151596e-02" rms="4.9622574448585510e-01" purity="4.5175918936729431e-01" nType="0">
              <Node pos="l" depth="4" NCoef="0" IVar="-1" Cut="0.0000000000000000e+00" cType="1" res="-4.8187626525759697e-03" rms="4.9425601959228516e-01" purity="4.3106001615524292e-01" nType="-99"/>
              <Node pos="r" depth="4" NCoef="0" IVar="-1" Cut="0.0000000000000000e+00" cType="1" res="-1.9421536708250642e-03" rms="4.9791589379310608e-01" purity="4.7589349746704102e-01" nType="-99"/>
            </Node>
          </Node>
          <Node pos="r" depth="2" NCoef="0" IVar="2" Cut="1.8737040710449219e+02" cType="1" res="1.9757986068725586e-01" rms="4.3069463968276978e-01" purity="7.5052571296691895e-01" nType="0">
            <Node pos="l" depth="3" NCoef="0" IVar="3" Cut="9.3594139814376831e-01" cType="1" res="2.0364324748516083e-01" rms="4.2689239978790283e-01" purity="7.5764721632003784e-01" nType="0">
              <Node pos="l" depth="4" NCoef="0" IVar="1" Cut="-8.2693040370941162e-02" cType="1" res="1.6616076231002808e-01" rms="4.5124179124832153e-01" purity="7.1215498447418213e-01" nType="0">
                <Node pos="l" depth="5" NCoef="0" IVar="3" Cut="8.7910938262939453e-01" cType="1" res="1.9617438316345215e-01" rms="4.3376514315605164e-01" purity="7.4771600961685181e-01" nType="0">
                  <Node pos="l" depth="6" NCoef="0" IVar="-1" Cut="0.0000000000000000e+00" cType="1" res="1.3688068836927414e-02" rms="4.4521087408065796e-01" purity="7.2698521614074707e-01" nType="-99"/>
                  <Node pos="r" depth="6" NCoef="0" IVar="-1" Cut="0.0000000000000000e+00" cType="1" res="1.8326614052057266e-02" rms="4.1721630096435547e-01" purity="7.7528047561645508e-01" nType="-99"/>
                </Node>
                <Node pos="r" depth="5" NCoef="0" IVar="3" Cut="8.5072094202041626e-01" cType="1" res="1.5292319655418396e-01" rms="4.5811387896537781e-01" purity="6.9647067785263062e-01" nType="0">
                  <Node pos="l" depth="6" NCoef="0" IVar="-1" Cut="0.0000000000000000e+00" cType="1" res="9.9333450198173523e-03" rms="4.7154775261878967e-01" purity="6.6259926557540894e-01" nType="-99"/>
                  <Node pos="r" depth="6" NCoef="0" IVar="4" Cut="2.7818767353892326e-02" cType="1" res="1.6154690086841583e-01" rms="4.5339438319206238e-01" purity="7.0730555057525635e-01" nType="0">
                    <Node pos="l" depth="7" NCoef="0" IVar="-1" Cut="0.0000000000000000e+00" cType="1" res="1.2393234297633171e-02" rms="4.6084070205688477e-01" purity="6.8983018398284912e-01" nType="-99"/>
                    <Node pos="r" depth="7" NCoef="0" IVar="-1" Cut="0.0000000000000000e+00" cType="1" res="1.4596410095691681e-02" rms="4.4641730189323425e-01" purity="7.2205591201782227e-01" nType="-99"/>
                  </Node>
                </Node>
              </Node>
              <Node pos="r" depth="4" NCoef="0" IVar="1" Cut="1.1847726106643677e+00" cType="1" res="2.1850767731666565e-01" rms="4.1590812802314758e-01" purity="7.7568805217742920e-01" nType="0">
                <Node pos="l" depth="5" NCoef="0" IVar="0" Cut="2.9101207852363586e-01" cType="1" res="2.2328022122383118e-01" rms="4.1235774755477905e-01" purity="7.8138840198516846e-01" nType="0">
                  <Node pos="l" depth="6" NCoef="0" IVar="1" Cut="6.5325033664703369e-01" cType="1" res="2.3235477507114410e-01" rms="4.0584099292755127e-01" purity="7.9156720638275146e-01" nType="0">
                    <Node pos="l" depth="7" NCoef="0" IVar="-1" Cut="0.0000000000000000e+00" cType="1" res="1.8118299543857574e-02" rms="4.0262094140052795e-01" purity="7.9623168706893921e-01" nType="-99"/>
                    <Node pos="r" depth="7" NCoef="0" IVar="-1" Cut="0.0000000000000000e+00" cType="1" res="1.2766966596245766e-02" rms="4.5128288865089417e-01" purity="7.1467256546020508e-01" nType="-99"/>
                  </Node>
                  <Node pos="r" depth="6" NCoef="0" IVar="-1" Cut="0.0000000000000000e+00" cType="1" res="4.8040784895420074e-03" rms="4.8752710223197937e-01" purity="5.9892219305038452e-01" nType="-99"/>
                </Node>
                <Node pos="r" depth="5" NCoef="0" IVar="-1" Cut="0.0000000000000000e+00" cType="1" res="8.2011949270963669e-03" rms="4.7864475846290588e-01" purity="6.4132845401763916e-01" nType="-99"/>
              </Node>
            </Node>
            <Node pos="r" depth="3" NCoef="0" IVar="-1" Cut="0.0000000000000000e+00" cType="1" res="4.0340228006243706e-03" rms="4.9342110753059387e-01" purity="5.7070261240005493e-01" nType="-99"/>
          </Node>
        </Node>
      </Node>
    </BinaryTree>
    <BinaryTree type="DecisionTree" boostWeight="1.0000000000000000e+00" itree="7">
      <Node pos="s" depth="0" NCoef="0" IVar="3" Cut="6.6849672794342041e-01" cType="1" res="1.0553441941738129e-02" rms="4.5966237783432007e-01" purity="5.0023329257965088e-01" nType="0">
        <Node pos="l" depth="1" NCoef="0" IVar="3" Cut="4.7445783019065857e-01" cType="1" res="-2.0774765312671661e-01" rms="3.7946560978889465e-01" purity="1.9308115541934967e-01" nType="0">
          <Node pos="l" depth="2" NCoef="0" IVar="4" Cut="1.1563894897699356e-01" cType="1" res="-2.6494497060775757e-01" rms="2.9909735918045044e-01" purity="1.0353921353816986e-01" nType="0">
            <Node pos="l" depth="3" NCoef="0" IVar="3" Cut="4.4384774565696716e-01" cType="1" res="-2.9132595658302307e-01" rms="2.4225400388240814e-01" purity="6.4048983156681061e-02" nType="0">
              <Node pos="l" depth="4" NCoef="0" IVar="2" Cut="6.7326927185058594e+01" cType="1" res="-2.9656571149826050e-01" rms="2.2608757019042969e-01" purity="5.4908145219087601e-02" nType="0">
                <Node pos="l" depth="5" NCoef="0" IVar="-1" Cut="0.0000000000000000e+00" cType="1" res="-3.5478394478559494e-02" rms="2.6412487030029297e-01" purity="7.6792620122432709e-02" nType="-99"/>
                <Node pos="r" depth="5" NCoef="0" IVar="4" Cut="9.2383429408073425e-02" cType="1" res="-3.0107116699218750e-01" rms="2.1710248291492462e-01" purity="5.0373308360576630e-02" nType="0">
                  <Node pos="l" depth="6" NCoef="0" IVar="5" Cut="5.0000000000000000e+00" cType="1" res="-3.0862119793891907e-01" rms="1.9935224950313568e-01" purity="4.1845820844173431e-02" nType="0">
                    <Node pos="l" depth="7" NCoef="0" IVar="-1" Cut="0.0000000000000000e+00" cType="1" res="-3.6927685141563416e-02" rms="2.3620823025703430e-01" purity="5.9388075023889542e-02" nType="-99"/>
                    <Node pos="r" depth="7" NCoef="0" IVar="-1" Cut="0.0000000000000000e+00" cType="1" res="-3.8972292095422745e-02" rms="1.7793884873390198e-01" purity="3.3113986253738403e-02" nType="-99"/>
                  </Node>
                  <Node pos="r" depth="6" NCoef="0" IVar="3" Cut="3.4431341290473938e-01" cType="1" res="-2.8373315930366516e-01" rms="2.5218084454536438e-01" purity="6.9824121892452240e-02" nType="0">
                    <Node pos="l" depth="7" NCoef="0" IVar="-1" Cut="0.0000000000000000e+00" cType="1" res="-3.9556961506605148e-02" rms="2.0156066119670868e-01" purity="4.2681317776441574e-02" nType="-99"/>
                    <Node pos="r" depth="7" NCoef="0" IVar="-1" Cut="0.0000000000000000e+00" cType="1" res="-3.0045449733734131e-02" rms="3.1278043985366821e-01" purity="1.1152265965938568e-01" nType="-99"/>
                  </Node>
                </Node>
              </Node>
              <Node pos="r" depth="4" NCoef="0" IVar="-1" Cut="0.0000000000000000e+00" cType="1" res="-2.7996560558676720e-02" rms="3.3943805098533630e-01" purity="1.3452395796775818e-01" nType="-99"/>
            </Node>
            <Node pos="r" depth="3" NCoef="0" IVar="5" Cut="4.0000000000000000e+00" cType="1" res="1.7552661895751953e-01" rms="1.8083330988883972e-01" purity="1.4248141646385193e-01" nType="0">
              <Node pos="l" depth="4" NCoef="0" IVar="-1" Cut="0.0000000000000000e+00" cType="1" res="-1.8958289176225662e-02" rms="4.1864854097366333e-01" purity="2.3067732155323029e-01" nType="-99"/>
              <Node pos="r" depth="4" NCoef="0" IVar="3" Cut="3.6734378337860107e-01" cType="1" res="-2.5054624676704407e-01" rms="3.2712358236312866e-01" purity="1.2607426941394806e-01" nType="0">
                <Node pos="l" depth="5" NCoef="0" IVar="4" Cut="2.2687263786792755e-01" cType="1" res="-2.6581394672393799e-01" rms="2.9916033148765564e-01" purity="1.0203298181295395e-01" nType="0">
                  <Node pos="l" depth="6" NCoef="0" IVar="3" Cut="3.0811658501625061e-01" cType="1" res="-2.8356882929801941e-01" rms="2.5793048739433289e-01" purity="7.2609901428222656e-02" nType="0">
                    <Node pos="l" depth="7" NCoef="0" IVar="-1" Cut="0.0000000000000000e+00" cType="1" res="-3.8536723703145981e-02" rms="2.3009301722049713e-01" purity="5.6540697813034058e-02" nType="-99"/>
                    <Node pos="r" depth="7" NCoef="0" IVar="-1" Cut="0.0000000000000000e+00" cType="1" res="-3.0395211651921272e-02" rms="3.1312558054924011e-01" purity="1.1089933663606644e-01" nType="-99"/>
                  </Node>
                  <Node pos="r" depth="6" NCoef="0" IVar="5" Cut="7.0000000000000000e+00" cType="1" res="1.9009827077388763e-01" rms="0.0000000000000000e+00" purity="1.6879414021968842e-01" nType="0">
                    <Node pos="l" depth="7" NCoef="0" IVar="-1" Cut="0.0000000000000000e+00" cType="1" res="-2.2462716326117516e-02" rms="3.9768517017364502e-01" purity="1.9886243343353271e-01" nType="-99"/>
                    <Node pos="r" depth="7" NCoef="0" IVar="-1" Cut="0.0000000000000000e+00" cType="1" res="-2.8559921309351921e-02" rms="3.5173702239990234e-01" purity="1.4537419378757477e-01" nType="-99"/>
                  </Node>
                </Node>
                <Node pos="r" depth="5" NCoef="0" IVar="0" Cut="4.1360238194465637e-01" cType="1" res="-2.0329341292381287e-01" rms="3.9781561493873596e-01" purity="2.0048096776008606e-01" nType="0">
                  <Node pos="l" depth="6" NCoef="0" IVar="-1" Cut="0.0000000000000000e+00" cType="1" res="-1.3819638639688492e-02" rms="4.4787281751632690e-01" purity="2.7823963761329651e-01" nType="-99"/>
                  <Node pos="r" depth="6" NCoef="0" IVar="-1" Cut="0.0000000000000000e+00" cType="1" res="-2.7011485770344734e-02" rms="3.5329666733741760e-01" purity="1.4748215675354004e-01" nType="-99"/>
                </Node>
              </Node>
            </Node>
          </Node>
          <Node pos="r" depth="2" NCoef="0" IVar="0" Cut="5.7583463191986084e-01" cType="1" res="-1.1947610229253769e-01" rms="4.6402165293693542e-01" purity="3.3126950263977051e-01" nType="0">
            <Node pos="l" depth="3" NCoef="0" IVar="0" Cut="3.5289657115936279e-01" cType="1" res="-8.0353558063507080e-02" rms="4.8418471217155457e-01" purity="3.8896232843399048e-01" nType="0">
              <Node pos="l" depth="4" NCoef="0" IVar="3" Cut="5.6834602355957031e-01" cType="1" res="-5.0698395818471909e-02" rms="4.9247258901596069e-01" purity="4.2825365066528320e-01" nType="0">
                <Node pos="l" depth="5" NCoef="0" IVar="3" Cut="5.3200209140777588e-01" cType="1" res="-9.6964828670024872e-02" rms="4.7968703508377075e-01" purity="3.6364170908927917e-01" nType="0">
                  <Node pos="l" depth="6" NCoef="0" IVar="-1" Cut="0.0000000000000000e+00" cType="1" res="-9.7246374934911728e-03" rms="4.7479408979415894e-01" purity="3.4696632623672485e-01" nType="-99"/>
                  <Node pos="r" depth="6" NCoef="0" IVar="-1" Cut="0.0000000000000000e+00" cType="1" res="-7.9269921407103539e-03" rms="4.8517337441444397e-01" purity="3.8312309980392456e-01" nType="-99"/>
                </Node>
                <Node pos="r" depth="5" NCoef="0" IVar="2" Cut="1.4628327941894531e+02" cType="1" res="-2.6839423924684525e-02" rms="4.9725839495658875e-01" purity="4.6157315373420715e-01" nType="0">
                  <Node pos="l" depth="6" NCoef="0" IVar="-1" Cut="0.0000000000000000e+00" cType="1" res="2.7073835371993482e-04" rms="4.9928864836692810e-01" purity="4.9887797236442566e-01" nType="-99"/>
                  <Node pos="r" depth="6" NCoef="0" IVar="1" Cut="-2.4444825248792768e-04" cType="1" res="-4.7646824270486832e-02" rms="4.9478104710578918e-01" purity="4.3579253554344177e-01" nType="0">
                    <Node pos="l" depth="7" NCoef="0" IVar="-1" Cut="0.0000000000000000e+00" cType="1" res="-1.7514444189146161e-03" rms="4.9768370389938354e-01" purity="4.6478202939033508e-01" nType="-99"/>
                    <Node pos="r" depth="7" NCoef="0" IVar="-1" Cut="0.0000000000000000e+00" cType="1" res="-6.1665163375437260e-03" rms="4.9168050289154053e-01" purity="4.1484683752059937e-01" nType="-99"/>
                  </Node>
                </Node>
              </Node>
              <Node pos="r" depth="4" NCoef="0" IVar="2" Cut="1.6158781433105469e+02" cType="1" res="-1.3280409574508667e-01" rms="4.6455556154251099e-01" purity="3.1946855783462524e-01" nType="0">
                <Node pos="l" depth="5" NCoef="0" IVar="-1" Cut="0.0000000000000000e+00" cType="1" res="-9.6142794936895370e-03" rms="4.7526770830154419e-01" purity="3.5057953000068665e-01" nType="-99"/>
                <Node pos="r" depth="5" NCoef="0" IVar="-1" Cut="0.0000000000000000e+00" cType="1" res="-1.5623958781361580e-02" rms="4.5052787661552429e-01" purity="2.8497132658958435e-01" nType="-99"/>
              </Node>
            </Node>
            <Node pos="r" depth="3" NCoef="0" IVar="1" Cut="5.1841604709625244e-01" cType="1" res="-1.9493639469146729e-01" rms="4.1205957531929016e-01" purity="2.1999052166938782e-01" nType="0">
              <Node pos="l" depth="4" NCoef="0" IVar="2" Cut="2.1847502136230469e+02" cType="1" res="-1.6849088668823242e-01" rms="4.3066963553428650e-01" purity="2.4928668141365051e-01" nType="0">
                <Node pos="l" depth="5" NCoef="0" IVar="4" Cut="6.3359595835208893e-02" cType="1" res="-1.4366731047630310e-01" rms="4.4537237286567688e-01" purity="2.7660763263702393e-01" nType="0">
                  <Node pos="l" depth="6" NCoef="0" IVar="-1" Cut="0.0000000000000000e+00" cType="1" res="-1.7532132565975189e-02" rms="4.2799037694931030e-01" purity="2.4537892639636993e-01" nType="-99"/>
                  <Node pos="r" depth="6" NCoef="0" IVar="-1" Cut="0.0000000000000000e+00" cType="1" res="-9.8341256380081177e-03" rms="4.6385401487350464e-01" purity="3.1742253899574280e-01" nType="-99"/>
                </Node>
                <Node pos="r" depth="5" NCoef="0" IVar="-1" Cut="0.0000000000000000e+00" cType="1" res="-2.2239008918404579e-02" rms="3.9689958095550537e-01" purity="1.9724014401435852e-01" nType="-99"/>
              </Node>
              <Node pos="r" depth="4" NCoef="0" IVar="-1" Cut="0.0000000000000000e+00" cType="1" res="-2.9388697817921638e-02" rms="3.4619456529617310e-01" purity="1.4000384509563446e-01" nType="-99"/>
            </Node>
          </Node>
        </Node>
        <Node pos="r" depth="1" NCoef="0" IVar="3" Cut="8.1633430719375610e-01" cType="1" res="1.5544624626636505e-01" rms="4.5092260837554932e-01" purity="7.0409905910491943e-01" nType="0">
          <Node pos="l" depth="2" NCoef="0" IVar="0" Cut="3.6592659354209900e-01" cType="1" res="5.8564785867929459e-02" rms="4.9084141850471497e-01" purity="5.7504135370254517e-01" nType="0">
            <Node pos="l" depth="3" NCoef="0" IVar="0" Cut="2.1247015893459320e-01" cType="1" res="7.8150056302547455e-02" rms="4.8752251267433167e-01" purity="6.0026538372039795e-01" nType="0">
              <Node pos="l" depth="4" NCoef="0" IVar="1" Cut="-3.8841478526592255e-02" cType="1" res="9.9217787384986877e-02" rms="4.8194918036460876e-01" purity="6.2682223320007324e-01" nType="0">
                <Node pos="l" depth="5" NCoef="0" IVar="3" Cut="7.3049008846282959e-01" cType="1" res="1.3548569381237030e-01" rms="4.6931472420692444e-01" purity="6.6980838775634766e-01" nType="0">
                  <Node pos="l" depth="6" NCoef="0" IVar="-1" Cut="0.0000000000000000e+00" cType="1" res="7.2440197691321373e-03" rms="4.8657381534576416e-01" purity="6.1288267374038696e-01" nType="-99"/>
                  <Node pos="r" depth="6" NCoef="0" IVar="5" Cut="3.0000000000000000e+00" cType="1" res="1.4805230498313904e-01" rms="4.5195445418357849e-01" purity="6.9632387161254883e-01" nType="0">
                    <Node pos="l" depth="7" NCoef="0" IVar="-1" Cut="0.0000000000000000e+00" cType="1" res="1.0012654587626457e-02" rms="4.6748536825180054e-01" purity="6.7689251899719238e-01" nType="-99"/>
                    <Node pos="r" depth="7" NCoef="0" IVar="-1" Cut="0.0000000000000000e+00" cType="1" res="1.4751045964658260e-02" rms="4.5141783356666565e-01" purity="7.1456700563430786e-01" nType="-99"/>
                  </Node>
                </Node>
                <Node pos="r" depth="5" NCoef="0" IVar="3" Cut="7.4481117725372314e-01" cType="1" res="7.5198851525783539e-02" rms="4.8865792155265808e-01" purity="5.9835404157638550e-01" nType="0">
                  <Node pos="l" depth="6" NCoef="0" IVar="4" Cut="7.6967880129814148e-02" cType="1" res="4.0581367909908295e-02" rms="4.9630796909332275e-01" purity="5.5381190776824951e-01" nType="0">
                    <Node pos="l" depth="7" NCoef="0" IVar="-1" Cut="0.0000000000000000e+00" cType="1" res="2.3937714286148548e-03" rms="4.9708104133605957e-01" purity="5.4356509447097778e-01" nType="-99"/>
                    <Node pos="r" depth="7" NCoef="0" IVar="-1" Cut="0.0000000000000000e+00" cType="1" res="4.3401187285780907e-03" rms="4.9520051479339600e-01" purity="5.6436896324157715e-01" nType="-99"/>
                  </Node>
                  <Node pos="r" depth="6" NCoef="0" IVar="3" Cut="7.7480560541152954e-01" cType="1" res="9.9930658936500549e-02" rms="4.8159679770469666e-01" purity="6.3017630577087402e-01" nType="0">
                    <Node pos="l" depth="7" NCoef="0" IVar="-1" Cut="0.0000000000000000e+00" cType="1" res="6.4067579805850983e-03" rms="4.8775434494018555e-01" purity="6.0322040319442749e-01" nType="-99"/>
                    <Node pos="r" depth="7" NCoef="0" IVar="-1" Cut="0.0000000000000000e+00" cType="1" res="8.7407380342483521e-03" rms="4.7765636444091797e-01" purity="6.4533829689025879e-01" nType="-99"/>
                  </Node>
                </Node>
              </Node>
              <Node pos="r" depth="4" NCoef="0" IVar="3" Cut="7.4481546878814697e-01" cType="1" res="2.7636846527457237e-02" rms="4.9700844287872314e-01" purity="5.3659123182296753e-01" nType="0">
                <Node pos="l" depth="5" NCoef="0" IVar="-1" Cut="0.0000000000000000e+00" cType="1" res="-2.7868445613421500e-04" rms="4.9902445077896118e-01" purity="4.9663209915161133e-01" nType="-99"/>
                <Node pos="r" depth="5" NCoef="0" IVar="-1" Cut="0.0000000000000000e+00" cType="1" res="4.7742319293320179e-03" rms="4.9361377954483032e-01" purity="5.7201796770095825e-01" nType="-99"/>
              </Node>
            </Node>
            <Node pos="r" depth="3" NCoef="0" IVar="3" Cut="7.0665037631988525e-01" cType="1" res="-4.5925904065370560e-02" rms="4.9526196718215942e-01" purity="4.4046694040298462e-01" nType="0">
              <Node pos="l" depth="4" NCoef="0" IVar="-1" Cut="0.0000000000000000e+00" cType="1" res="-4.9089384265244007e-03" rms="4.9257224798202515e-01" purity="4.2116689682006836e-01" nType="-99"/>
              <Node pos="r" depth="4" NCoef="0" IVar="-1" Cut="0.0000000000000000e+00" cType="1" res="-3.2998216338455677e-03" rms="4.9715059995651245e-01" purity="4.5505061745643616e-01" nType="-99"/>
            </Node>
          </Node>
          <Node pos="r" depth="2" NCoef="0" IVar="1" Cut="5.0322329998016357e-01" cType="1" res="1.8901166319847107e-01" rms="4.3119356036186218e-01" purity="7.4881231784820557e-01" nType="0">
            <Node pos="l" depth="3" NCoef="0" IVar="5" Cut="2.0000000000000000e+00" cType="1" res="2.0274332165718079e-01" rms="4.2187905311584473e-01" purity="7.6542204618453979e-01" nType="0">
              <Node pos="l" depth="4" NCoef="0" IVar="3" Cut="1.0059491395950317e+00" cType="1" res="2.2140516340732574e-01" rms="4.0695968270301819e-01" purity="7.8915584087371826e-01" nType="0">
                <Node pos="l" depth="5" NCoef="0" IVar="3" Cut="9.6953666210174561e-01" cType="1" res="2.1884587407112122e-01" rms="4.0868499875068665e-01" purity="7.8672766685485840e-01" nType="0">
                  <Node pos="l" depth="6" NCoef="0" IVar="-1" Cut="0.0000000000000000e+00" cType="1" res="1.3140385970473289e-02" rms="4.4451600313186646e-01" purity="7.2745722532272339e-01" nType="-99"/>
                  <Node pos="r" depth="6" NCoef="0" IVar="3" Cut="1.0012508630752563e+00" cType="1" res="2.2589045763015747e-01" rms="4.0320345759391785e-01" purity="7.9452872276306152e-01" nType="0">
                    <Node pos="l" depth="7" NCoef="0" IVar="-1" Cut="0.0000000000000000e+00" cType="1" res="1.7253423109650612e-02" rms="4.0727183222770691e-01" purity="7.8882914781570435e-01" nType="-99"/>
                    <Node pos="r" depth="7" NCoef="0" IVar="-1" Cut="0.0000000000000000e+00" cType="1" res="1.8699578940868378e-02" rms="3.8547089695930481e-01" purity="8.1761407852172852e-01" nType="-99"/>
                  </Node>
                </Node>
                <Node pos="r" depth="5" NCoef="0" IVar="1" Cut="-9.8522286862134933e-03" cType="1" res="2.2934547066688538e-01" rms="4.0145581960678101e-01" purity="7.9668956995010376e-01" nType="0">
                  <Node pos="l" depth="6" NCoef="0" IVar="-1" Cut="0.0000000000000000e+00" cType="1" res="1.7614824697375298e-02" rms="3.9378368854522705e-01" purity="8.0721467733383179e-01" nType="-99"/>
                  <Node pos="r" depth="6" NCoef="0" IVar="1" Cut="1.2254255264997482e-01" cType="1" res="2.1941201388835907e-01" rms="4.0958207845687866e-01" purity="7.8499662876129150e-01" nType="0">
                    <Node pos="l" depth="7" NCoef="0" IVar="-1" Cut="0.0000000000000000e+00" cType="1" res="1.8138086423277855e-02" rms="3.9510846138000488e-01" purity="8.0518937110900879e-01" nType="-99"/>
                    <Node pos="r" depth="7" NCoef="0" IVar="-1" Cut="0.0000000000000000e+00" cType="1" res="1.5616362914443016e-02" rms="4.2021170258522034e-01" purity="7.6899951696395874e-01" nType="-99"/>
                  </Node>
                </Node>
              </Node>
              <Node pos="r" depth="4" NCoef="0" IVar="2" Cut="1.7581622314453125e+02" cType="1" res="1.6111277043819427e-01" rms="4.5079249143600464e-01" purity="7.1286141872406006e-01" nType="0">
                <Node pos="l" depth="5" NCoef="0" IVar="3" Cut="8.6141312122344971e-01" cType="1" res="1.7147032916545868e-01" rms="4.4475921988487244e-01" purity="7.2622168064117432e-01" nType="0">
                  <Node pos="l" depth="6" NCoef="0" IVar="1" Cut="-6.7672692239284515e-03" cType="1" res="1.4198534190654755e-01" rms="4.6275854110717773e-01" purity="6.8783986568450928e-01" nType="0">
                    <Node pos="l" depth="7" NCoef="0" IVar="-1" Cut="0.0000000000000000e+00" cType="1" res="1.1804022826254368e-02" rms="4.5579382777214050e-01" purity="7.0459538698196411e-01" nType="-99"/>
                    <Node pos="r" depth="7" NCoef="0" IVar="-1" Cut="0.0000000000000000e+00" cType="1" res="9.9327759817242622e-03" rms="4.6987539529800415e-01" purity="6.6918724775314331e-01" nType="-99"/>
                  </Node>
                  <Node pos="r" depth="6" NCoef="0" IVar="4" Cut="2.3555479943752289e-02" cType="1" res="1.9245332479476929e-01" rms="4.3026411533355713e-01" purity="7.5353604555130005e-01" nType="0">
                    <Node pos="l" depth="7" NCoef="0" IVar="-1" Cut="0.0000000000000000e+00" cType="1" res="1.5570126473903656e-02" rms="4.3999376893043518e-01" purity="7.3649239540100098e-01" nType="-99"/>
                    <Node pos="r" depth="7" NCoef="0" IVar="-1" Cut="0.0000000000000000e+00" cType="1" res="1.6916340216994286e-02" rms="4.2559945583343506e-01" purity="7.6118791103363037e-01" nType="-99"/>
                  </Node>
                </Node>
                <Node pos="r" depth="5" NCoef="0" IVar="-1" Cut="0.0000000000000000e+00" cType="1" res="8.6633525788784027e-03" rms="4.8141816258430481e-01" purity="6.3056904077529907e-01" nType="-99"/>
              </Node>
            </Node>
            <Node pos="r" depth="3" NCoef="0" IVar="5" Cut="2.0000000000000000e+00" cType="1" res="1.0626156628131866e-01" rms="4.7409480810165405e-01" purity="6.4613485336303711e-01" nType="0">
              <Node pos="l" depth="4" NCoef="0" IVar="3" Cut="1.0021432638168335e+00" cType="1" res="1.3128148019313812e-01" rms="4.6462637186050415e-01" purity="6.7975020408630371e-01" nType="0">
                <Node pos="l" depth="5" NCoef="0" IVar="3" Cut="9.9616843461990356e-01" cType="1" res="1.2948538362979889e-01" rms="4.6545225381851196e-01" purity="6.7796623706817627e-01" nType="0">
                  <Node pos="l" depth="6" NCoef="0" IVar="-1" Cut="0.0000000000000000e+00" cType="1" res="6.8995659239590168e-03" rms="4.8035204410552979e-01" purity="6.3198220729827881e-01" nType="-99"/>
                  <Node pos="r" depth="6" NCoef="0" IVar="-1" Cut="0.0000000000000000e+00" cType="1" res="1.1992907151579857e-02" rms="4.5138078927993774e-01" purity="7.1170997619628906e-01" nType="-99"/>
                </Node>
                <Node pos="r" depth="5" NCoef="0" IVar="-1" Cut="0.0000000000000000e+00" cType="1" res="1.0095321573317051e-02" rms="4.6270987391471863e-01" purity="6.8382185697555542e-01" nType="-99"/>
              </Node>
              <Node pos="r" depth="4" NCoef="0" IVar="-1" Cut="0.0000000000000000e+00" cType="1" res="4.1969250887632370e-03" rms="4.9253341555595398e-01" purity="5.7771903276443481e-01" nType="-99"/>
            </Node>
          </Node>
        </Node>
      </Node>
    </BinaryTree>
    <BinaryTree type="DecisionTree" boostWeight="1.0000000000000000e+00" itree="8">
      <Node pos="s" depth="0" NCoef="0" IVar="3" Cut="6.7608582973480225e-01" cType="1" res="1.1429670266807079e-02" rms="4.5566958189010620e-01" purity="5.0038945674896240e-01" nType="0">
        <Node pos="l" depth="1" NCoef="0" IVar="3" Cut="5.4526060819625854e-01" cType="1" res="-1.9337864220142365e-01" rms="3.8101163506507874e-01" purity="1.9793128967285156e-01" nType="0">
          <Node pos="l" depth="2" NCoef="0" IVar="3" Cut="4.5733571052551270e-01" cType="1" res="-2.3735542595386505e-01" rms="3.2527402043342590e-01" purity="1.2779177725315094e-01" nType="0">
            <Node pos="l" depth="3" NCoef="0" IVar="4" Cut="1.5685297548770905e-01" cType="1" res="-2.5447091460227966e-01" rms="2.9100820422172546e-01" purity="9.7319871187210083e-02" nType="0">
              <Node pos="l" depth="4" NCoef="0" IVar="3" Cut="3.9840647578239441e-01" cType="1" res="-2.7295890450477600e-01" rms="2.4837501347064972e-01" purity="6.7858822643756866e-02" nType="0">
                <Node pos="l" depth="5" NCoef="0" IVar="5" Cut="4.0000000000000000e+00" cType="1" res="0.0000000000000000e+00" rms="0.0000000000000000e+00" purity="5.2175957709550858e-02" nType="0">
                  <Node pos="l" depth="6" NCoef="0" IVar="-1" Cut="0.0000000000000000e+00" cType="1" res="-3.1979177147150040e-02" rms="2.9454764723777771e-01" purity="9.6131496131420135e-02" nType="-99"/>
                  <Node pos="r" depth="6" NCoef="0" IVar="4" Cut="1.0131425410509109e-01" cType="1" res="-2.8404974937438965e-01" rms="2.0790955424308777e-01" purity="4.5845754444599152e-02" nType="0">
                    <Node pos="l" depth="7" NCoef="0" IVar="-1" Cut="0.0000000000000000e+00" cType="1" res="-3.8515020161867142e-02" rms="1.8401056528091431e-01" purity="3.5291064530611038e-02" nType="-99"/>
                    <Node pos="r" depth="7" NCoef="0" IVar="-1" Cut="0.0000000000000000e+00" cType="1" res="-3.5514373332262039e-02" rms="2.4043223261833191e-01" purity="6.2531292438507080e-02" nType="-99"/>
                  </Node>
                </Node>
                <Node pos="r" depth="5" NCoef="0" IVar="4" Cut="1.0186811536550522e-01" cType="1" res="-2.4780429899692535e-01" rms="3.2319349050521851e-01" purity="1.2088087946176529e-01" nType="0">
                  <Node pos="l" depth="6" NCoef="0" IVar="2" Cut="1.3472982788085938e+02" cType="1" res="-2.7104079723358154e-01" rms="2.8211513161659241e-01" purity="8.8178291916847229e-02" nType="0">
                    <Node pos="l" depth="7" NCoef="0" IVar="-1" Cut="0.0000000000000000e+00" cType="1" res="-2.9762305319309235e-02" rms="3.1047657132148743e-01" purity="1.0909113287925720e-01" nType="-99"/>
                    <Node pos="r" depth="7" NCoef="0" IVar="-1" Cut="0.0000000000000000e+00" cType="1" res="-3.4044563770294189e-02" rms="2.4941007792949677e-01" purity="6.7423790693283081e-02" nType="-99"/>
                  </Node>
                  <Node pos="r" depth="6" NCoef="0" IVar="-1" Cut="0.0000000000000000e+00" cType="1" res="-2.3101616650819778e-02" rms="3.7852659821510315e-01" purity="1.7507493495941162e-01" nType="-99"/>
                </Node>
              </Node>
              <Node pos="r" depth="4" NCoef="0" IVar="5" Cut="4.0000000000000000e+00" cType="1" res="1.7728230357170105e-01" rms="8.2112297415733337e-02" purity="1.5927006304264069e-01" nType="0">
                <Node pos="l" depth="5" NCoef="0" IVar="-1" Cut="0.0000000000000000e+00" cType="1" res="-1.5048668719828129e-02" rms="4.4103464484214783e-01" purity="2.6571664214134216e-01" nType="-99"/>
                <Node pos="r" depth="5" NCoef="0" IVar="4" Cut="2.6889330148696899e-01" cType="1" res="-2.2812144458293915e-01" rms="3.4463796019554138e-01" purity="1.4094421267509460e-01" nType="0">
                  <Node pos="l" depth="6" NCoef="0" IVar="3" Cut="3.3933436870574951e-01" cType="1" res="-2.3818404972553253e-01" rms="3.2832935452461243e-01" purity="1.2571212649345398e-01" nType="0">
                    <Node pos="l" depth="7" NCoef="0" IVar="-1" Cut="0.0000000000000000e+00" cType="1" res="-3.1800035387277603e-02" rms="2.9745072126388550e-01" purity="9.9167115986347198e-02" nType="-99"/>
                    <Node pos="r" depth="7" NCoef="0" IVar="-1" Cut="0.0000000000000000e+00" cType="1" res="-2.1940298378467560e-02" rms="3.9147806167602539e-01" purity="1.9058632850646973e-01" nType="-99"/>
                  </Node>
                  <Node pos="r" depth="6" NCoef="0" IVar="-1" Cut="0.0000000000000000e+00" cType="1" res="-2.1766638383269310e-02" rms="3.9799475669860840e-01" purity="1.9847314059734344e-01" nType="-99"/>
                </Node>
              </Node>
            </Node>
            <Node pos="r" depth="3" NCoef="0" IVar="0" Cut="6.4827066659927368e-01" cType="1" res="-1.7835198342800140e-01" rms="4.1726672649383545e-01" purity="2.3283977806568146e-01" nType="0">
              <Node pos="l" depth="4" NCoef="0" IVar="0" Cut="2.0905541256070137e-02" cType="1" res="-1.3232401013374329e-01" rms="4.5631986856460571e-01" purity="3.0103561282157898e-01" nType="0">
                <Node pos="l" depth="5" NCoef="0" IVar="-1" Cut="0.0000000000000000e+00" cType="1" res="-7.3706954717636108e-03" rms="4.8076817393302917e-01" purity="3.6613857746124268e-01" nType="-99"/>
                <Node pos="r" depth="5" NCoef="0" IVar="2" Cut="2.0103097534179688e+02" cType="1" res="-1.5873536467552185e-01" rms="4.4070684909820557e-01" purity="2.6701256632804871e-01" nType="0">
                  <Node pos="l" depth="6" NCoef="0" IVar="-1" Cut="0.0000000000000000e+00" cType="1" res="-1.2479192577302456e-02" rms="4.5575749874114990e-01" purity="2.9950648546218872e-01" nType="-99"/>
                  <Node pos="r" depth="6" NCoef="0" IVar="-1" Cut="0.0000000000000000e+00" cType="1" res="-1.8469598144292831e-02" rms="4.2531418800354004e-01" purity="2.3837457597255707e-01" nType="-99"/>
                </Node>
              </Node>
              <Node pos="r" depth="4" NCoef="0" IVar="2" Cut="1.3727648925781250e+02" cType="1" res="-2.2717361152172089e-01" rms="3.6509427428245544e-01" purity="1.6050478816032410e-01" nType="0">
                <Node pos="l" depth="5" NCoef="0" IVar="-1" Cut="0.0000000000000000e+00" cType="1" res="-2.0931178703904152e-02" rms="3.9219209551811218e-01" purity="1.9287793338298798e-01" nType="-99"/>
                <Node pos="r" depth="5" NCoef="0" IVar="-1" Cut="0.0000000000000000e+00" cType="1" res="-2.7137052267789841e-02" rms="3.4301066398620605e-01" purity="1.3736474514007568e-01" nType="-99"/>
              </Node>
            </Node>
          </Node>
          <Node pos="r" depth="2" NCoef="0" IVar="0" Cut="3.6567077040672302e-01" cType="1" res="-7.5243234634399414e-02" rms="4.8142486810684204e-01" purity="3.8634806871414185e-01" nType="0">
            <Node pos="l" depth="3" NCoef="0" IVar="2" Cut="3.0543942260742188e+02" cType="1" res="-2.7418570592999458e-02" rms="4.9643173813819885e-01" purity="4.5784807205200195e-01" nType="0">
              <Node pos="l" depth="4" NCoef="0" IVar="4" Cut="6.6614165902137756e-02" cType="1" res="-7.3607270605862141e-03" rms="4.9819695949554443e-01" purity="4.8072040081024170e-01" nType="0">
                <Node pos="l" depth="5" NCoef="0" IVar="-1" Cut="0.0000000000000000e+00" cType="1" res="-3.5910559818148613e-03" rms="4.9561390280723572e-01" purity="4.4763976335525513e-01" nType="-99"/>
                <Node pos="r" depth="5" NCoef="0" IVar="3" Cut="6.0856318473815918e-01" cType="1" res="1.4536962844431400e-02" rms="4.9863675236701965e-01" purity="5.0210690498352051e-01" nType="0">
                  <Node pos="l" depth="6" NCoef="0" IVar="-1" Cut="0.0000000000000000e+00" cType="1" res="-1.7553783254697919e-03" rms="4.9718317389488220e-01" purity="4.5555856823921204e-01" nType="-99"/>
                  <Node pos="r" depth="6" NCoef="0" IVar="-1" Cut="0.0000000000000000e+00" cType="1" res="3.0758578795939684e-03" rms="4.9825155735015869e-01" purity="5.3309571743011475e-01" nType="-99"/>
                </Node>
              </Node>
              <Node pos="r" depth="4" NCoef="0" IVar="-1" Cut="0.0000000000000000e+00" cType="1" res="-7.3121930472552776e-03" rms="4.8813399672508240e-01" purity="3.9924952387809753e-01" nType="-99"/>
            </Node>
            <Node pos="r" depth="3" NCoef="0" IVar="1" Cut="5.1841604709625244e-01" cType="1" res="-1.2754777073860168e-01" rms="4.5878487825393677e-01" purity="3.0815044045448303e-01" nType="0">
              <Node pos="l" depth="4" NCoef="0" IVar="2" Cut="9.4317504882812500e+01" cType="1" res="-1.0319937020540237e-01" rms="4.7031405568122864e-01" purity="3.3687850832939148e-01" nType="0">
                <Node pos="l" depth="5" NCoef="0" IVar="-1" Cut="0.0000000000000000e+00" cType="1" res="-4.6292520128190517e-03" rms="4.8641404509544373e-01" purity="3.9204117655754089e-01" nType="-99"/>
                <Node pos="r" depth="5" NCoef="0" IVar="3" Cut="6.0015612840652466e-01" cType="1" res="-1.2802609801292419e-01" rms="4.6016424894332886e-01" purity="3.0975306034088135e-01" nType="0">
                  <Node pos="l" depth="6" NCoef="0" IVar="-1" Cut="0.0000000000000000e+00" cType="1" res="-1.5699667856097221e-02" rms="4.4093102216720581e-01" purity="2.6724192500114441e-01" nType="-99"/>
                  <Node pos="r" depth="6" NCoef="0" IVar="-1" Cut="0.0000000000000000e+00" cType="1" res="-9.0099032968282700e-03" rms="4.7602161765098572e-01" purity="3.5115846991539001e-01" nType="-99"/>
                </Node>
              </Node>
              <Node pos="r" depth="4" NCoef="0" IVar="-1" Cut="0.0000000000000000e+00" cType="1" res="-2.1543765440583229e-02" rms="4.0631541609764099e-01" purity="2.1028339862823486e-01" nType="-99"/>
            </Node>
          </Node>
        </Node>
        <Node pos="r" depth="1" NCoef="0" IVar="3" Cut="8.2561016082763672e-01" cType="1" res="1.5104402601718903e-01" rms="4.4958832859992981e-01" purity="7.0657008886337280e-01" nType="0">
          <Node pos="l" depth="2" NCoef="0" IVar="3" Cut="7.2914910316467285e-01" cType="1" res="5.8654632419347763e-02" rms="4.8982912302017212e-01" purity="5.8043003082275391e-01" nType="0">
            <Node pos="l" depth="3" NCoef="0" IVar="0" Cut="3.1588456034660339e-01" cType="1" res="1.7575100064277649e-02" rms="4.9656090140342712e-01" purity="5.2250504493713379e-01" nType="0">
              <Node pos="l" depth="4" NCoef="0" IVar="1" Cut="-4.4804420322179794e-02" cType="1" res="5.0771024078130722e-02" rms="4.9413600564002991e-01" purity="5.6532067060470581e-01" nType="0">
                <Node pos="l" depth="5" NCoef="0" IVar="-1" Cut="0.0000000000000000e+00" cType="1" res="7.7565326355397701e-03" rms="4.8579987883567810e-01" purity="6.1710315942764282e-01" nType="-99"/>
                <Node pos="r" depth="5" NCoef="0" IVar="3" Cut="7.0346641540527344e-01" cType="1" res="2.4745637550950050e-02" rms="4.9716535210609436e-01" purity="5.3472453355789185e-01" nType="0">
                  <Node pos="l" depth="6" NCoef="0" IVar="-1" Cut="0.0000000000000000e+00" cType="1" res="1.0165895801037550e-03" rms="4.9756273627281189e-01" purity="5.2159279584884644e-01" nType="-99"/>
                  <Node pos="r" depth="6" NCoef="0" IVar="-1" Cut="0.0000000000000000e+00" cType="1" res="3.0943381134420633e-03" rms="4.9650806188583374e-01" purity="5.4689520597457886e-01" nType="-99"/>
                </Node>
              </Node>
              <Node pos="r" depth="4" NCoef="0" IVar="-1" Cut="0.0000000000000000e+00" cType="1" res="-4.4544194824993610e-03" rms="4.9448063969612122e-01" purity="4.3346390128135681e-01" nType="-99"/>
            </Node>
            <Node pos="r" depth="3" NCoef="0" IVar="5" Cut="3.0000000000000000e+00" cType="1" res="7.8675769269466400e-02" rms="4.8508992791175842e-01" purity="6.0809946060180664e-01" nType="0">
              <Node pos="l" depth="4" NCoef="0" IVar="3" Cut="7.7582669258117676e-01" cType="1" res="6.4198009669780731e-02" rms="4.8900631070137024e-01" purity="5.9078645706176758e-01" nType="0">
                <Node pos="l" depth="5" NCoef="0" IVar="2" Cut="1.3858071899414062e+02" cType="1" res="2.7242874726653099e-02" rms="4.9574530124664307e-01" purity="5.4257935285568237e-01" nType="0">
                  <Node pos="l" depth="6" NCoef="0" IVar="-1" Cut="0.0000000000000000e+00" cType="1" res="3.1543951481580734e-03" rms="4.9436292052268982e-01" purity="5.5566829442977905e-01" nType="-99"/>
                  <Node pos="r" depth="6" NCoef="0" IVar="-1" Cut="0.0000000000000000e+00" cType="1" res="8.4002484800294042e-04" rms="4.9700614809989929e-01" purity="5.2555841207504272e-01" nType="-99"/>
                </Node>
                <Node pos="r" depth="5" NCoef="0" IVar="3" Cut="7.9992198944091797e-01" cType="1" res="8.4682248532772064e-02" rms="4.8401665687561035e-01" purity="6.1750769615173340e-01" nType="0">
                  <Node pos="l" depth="6" NCoef="0" IVar="-1" Cut="0.0000000000000000e+00" cType="1" res="5.2368855103850365e-03" rms="4.8855385184288025e-01" purity="5.9763020277023315e-01" nType="-99"/>
                  <Node pos="r" depth="6" NCoef="0" IVar="3" Cut="8.1401294469833374e-01" cType="1" res="9.7267106175422668e-02" rms="4.8045644164085388e-01" purity="6.3122802972793579e-01" nType="0">
                    <Node pos="l" depth="7" NCoef="0" IVar="-1" Cut="0.0000000000000000e+00" cType="1" res="8.0023081973195076e-03" rms="4.7870239615440369e-01" purity="6.3726127147674561e-01" nType="-99"/>
                    <Node pos="r" depth="7" NCoef="0" IVar="-1" Cut="0.0000000000000000e+00" cType="1" res="6.9190184585750103e-03" rms="4.8227310180664062e-01" purity="6.2452822923660278e-01" nType="-99"/>
                  </Node>
                </Node>
              </Node>
              <Node pos="r" depth="4" NCoef="0" IVar="2" Cut="9.4301536560058594e+01" cType="1" res="1.0215690732002258e-01" rms="4.7815188765525818e-01" purity="6.3746339082717896e-01" nType="0">
                <Node pos="l" depth="5" NCoef="0" IVar="-1" Cut="0.0000000000000000e+00" cType="1" res="1.0073433630168438e-02" rms="4.7313815355300903e-01" purity="6.5463894605636597e-01" nType="-99"/>
                <Node pos="r" depth="5" NCoef="0" IVar="3" Cut="7.6338028907775879e-01" cType="1" res="8.9901722967624664e-02" rms="4.8172387480735779e-01" purity="6.2389117479324341e-01" nType="0">
                  <Node pos="l" depth="6" NCoef="0" IVar="-1" Cut="0.0000000000000000e+00" cType="1" res="6.6919680684804916e-03" rms="4.8646780848503113e-01" purity="6.0390681028366089e-01" nType="-99"/>
                  <Node pos="r" depth="6" NCoef="0" IVar="-1" Cut="0.0000000000000000e+00" cType="1" res="9.2551559209823608e-03" rms="4.7670078277587891e-01" purity="6.4359092712402344e-01" nType="-99"/>
                </Node>
              </Node>
            </Node>
          </Node>
          <Node pos="r" depth="2" NCoef="0" IVar="1" Cut="5.0322329998016357e-01" cType="1" res="1.8470707535743713e-01" rms="4.2908325791358948e-01" purity="7.5253051519393921e-01" nType="0">
            <Node pos="l" depth="3" NCoef="0" IVar="5" Cut="2.0000000000000000e+00" cType="1" res="1.9730183482170105e-01" rms="4.2009383440017700e-01" purity="7.6855075359344482e-01" nType="0">
              <Node pos="l" depth="4" NCoef="0" IVar="3" Cut="9.5645624399185181e-01" cType="1" res="2.1411791443824768e-01" rms="4.0624469518661499e-01" purity="7.9024368524551392e-01" nType="0">
                <Node pos="l" depth="5" NCoef="0" IVar="-1" Cut="0.0000000000000000e+00" cType="1" res="1.3409559614956379e-02" rms="4.3823143839836121e-01" purity="7.3972195386886597e-01" nType="-99"/>
                <Node pos="r" depth="5" NCoef="0" IVar="1" Cut="-2.5720310211181641e-01" cType="1" res="2.1665716171264648e-01" rms="4.0404251217842102e-01" purity="7.9337447881698608e-01" nType="0">
                  <Node pos="l" depth="6" NCoef="0" IVar="-1" Cut="0.0000000000000000e+00" cType="1" res="1.4249367639422417e-02" rms="4.1696935892105103e-01" purity="7.7454495429992676e-01" nType="-99"/>
                  <Node pos="r" depth="6" NCoef="0" IVar="1" Cut="1.8434947729110718e-01" cType="1" res="2.1864156424999237e-01" rms="4.0271669626235962e-01" purity="7.9519277811050415e-01" nType="0">
                    <Node pos="l" depth="7" NCoef="0" IVar="-1" Cut="0.0000000000000000e+00" cType="1" res="1.7669396474957466e-02" rms="3.9580836892127991e-01" purity="8.0463296175003052e-01" nType="-99"/>
                    <Node pos="r" depth="7" NCoef="0" IVar="-1" Cut="0.0000000000000000e+00" cType="1" res="1.4961376786231995e-02" rms="4.2326754331588745e-01" purity="7.6479566097259521e-01" nType="-99"/>
                  </Node>
                </Node>
              </Node>
              <Node pos="r" depth="4" NCoef="0" IVar="2" Cut="1.7370501708984375e+02" cType="1" res="1.5768206119537354e-01" rms="4.4870561361312866e-01" purity="7.1757608652114868e-01" nType="0">
                <Node pos="l" depth="5" NCoef="0" IVar="4" Cut="1.9101954996585846e-02" cType="1" res="1.6746525466442108e-01" rms="4.4269949197769165e-01" purity="7.3072773218154907e-01" nType="0">
                  <Node pos="l" depth="6" NCoef="0" IVar="-1" Cut="0.0000000000000000e+00" cType="1" res="1.1634394526481628e-02" rms="4.5886680483818054e-01" purity="6.9615244865417480e-01" nType="-99"/>
                  <Node pos="r" depth="6" NCoef="0" IVar="2" Cut="1.0070101928710938e+02" cType="1" res="1.7544817924499512e-01" rms="4.3858519196510315e-01" purity="7.3850548267364502e-01" nType="0">
                    <Node pos="l" depth="7" NCoef="0" IVar="-1" Cut="0.0000000000000000e+00" cType="1" res="1.4890448190271854e-02" rms="4.3198803067207336e-01" purity="7.5049436092376709e-01" nType="-99"/>
                    <Node pos="r" depth="7" NCoef="0" IVar="-1" Cut="0.0000000000000000e+00" cType="1" res="1.3037314638495445e-02" rms="4.4996777176856995e-01" purity="7.1580725908279419e-01" nType="-99"/>
                  </Node>
                </Node>
                <Node pos="r" depth="5" NCoef="0" IVar="-1" Cut="0.0000000000000000e+00" cType="1" res="8.4699671715497971e-03" rms="4.8078918457031250e-01" purity="6.3311338424682617e-01" nType="-99"/>
              </Node>
            </Node>
            <Node pos="r" depth="3" NCoef="0" IVar="5" Cut="2.0000000000000000e+00" cType="1" res="1.0882679373025894e-01" rms="4.7169780731201172e-01" purity="6.5326321125030518e-01" nType="0">
              <Node pos="l" depth="4" NCoef="0" IVar="-1" Cut="0.0000000000000000e+00" cType="1" res="1.0159417986869812e-02" rms="4.6205312013626099e-01" purity="6.8629664182662964e-01" nType="-99"/>
              <Node pos="r" depth="4" NCoef="0" IVar="-1" Cut="0.0000000000000000e+00" cType="1" res="4.0519083850085735e-03" rms="4.9248272180557251e-01" purity="5.7978415489196777e-01" nType="-99"/>
            </Node>
          </Node>
        </Node>
      </Node>
    </BinaryTree>
    <BinaryTree type="DecisionTree" boostWeight="1.0000000000000000e+00" itree="9">
      <Node pos="s" depth="0" NCoef="0" IVar="3" Cut="6.6735237836837769e-01" cType="1" res="1.2216967530548573e-02" rms="4.5209839940071106e-01" purity="5.0038671493530273e-01" nType="0">
        <Node pos="l" depth="1" NCoef="0" IVar="3" Cut="5.3831088542938232e-01" cType="1" res="-1.8594497442245483e-01" rms="3.7674978375434875e-01" purity="1.9278717041015625e-01" nType="0">
          <Node pos="l" depth="2" NCoef="0" IVar="4" Cut="1.5685297548770905e-01" cType="1" res="-2.2374863922595978e-01" rms="3.2434573769569397e-01" purity="1.2722332775592804e-01" nType="0">
            <Node pos="l" depth="3" NCoef="0" IVar="3" Cut="4.3424445390701294e-01" cType="1" res="-2.4030345678329468e-01" rms="2.9600882530212402e-01" purity="1.0330259054899216e-01" nType="0">
              <Node pos="l" depth="4" NCoef="0" IVar="4" Cut="1.0636525601148605e-01" cType="1" res="-2.6005849242210388e-01" rms="2.3812294006347656e-01" purity="6.1776518821716309e-02" nType="0">
                <Node pos="l" depth="5" NCoef="0" IVar="2" Cut="2.7954379272460938e+02" cType="1" res="-2.6821750402450562e-01" rms="2.1441622078418732e-01" purity="4.8944652080535889e-02" nType="0">
                  <Node pos="l" depth="6" NCoef="0" IVar="4" Cut="7.5582966208457947e-02" cType="1" res="-2.6455795764923096e-01" rms="2.2162885963916779e-01" purity="5.2502077072858810e-02" nType="0">
                    <Node pos="l" depth="7" NCoef="0" IVar="-1" Cut="0.0000000000000000e+00" cType="1" res="-3.6249332129955292e-02" rms="2.0736750960350037e-01" purity="4.5539669692516327e-02" nType="-99"/>
                    <Node pos="r" depth="7" NCoef="0" IVar="-1" Cut="0.0000000000000000e+00" cType="1" res="-3.4294757992029190e-02" rms="2.5083085894584656e-01" purity="6.8541802465915680e-02" nType="-99"/>
                  </Node>
                  <Node pos="r" depth="6" NCoef="0" IVar="-1" Cut="0.0000000000000000e+00" cType="1" res="-3.5400804132223129e-02" rms="1.7878124117851257e-01" purity="3.3449262380599976e-02" nType="-99"/>
                </Node>
                <Node pos="r" depth="5" NCoef="0" IVar="3" Cut="3.1014955043792725e-01" cType="1" res="-2.4472466111183167e-01" rms="2.7659454941749573e-01" purity="8.5892274975776672e-02" nType="0">
                  <Node pos="l" depth="6" NCoef="0" IVar="5" Cut="7.0000000000000000e+00" cType="1" res="1.1589980870485306e-01" rms="0.0000000000000000e+00" purity="4.9929402768611908e-02" nType="0">
                    <Node pos="l" depth="7" NCoef="0" IVar="-1" Cut="0.0000000000000000e+00" cType="1" res="-3.4904900938272476e-02" rms="2.4707202613353729e-01" purity="6.6447526216506958e-02" nType="-99"/>
                    <Node pos="r" depth="7" NCoef="0" IVar="-1" Cut="0.0000000000000000e+00" cType="1" res="-3.9549712091684341e-02" rms="1.6759474575519562e-01" purity="2.8931424021720886e-02" nType="-99"/>
                  </Node>
                  <Node pos="r" depth="6" NCoef="0" IVar="2" Cut="2.7350103759765625e+02" cType="1" res="-2.2661983966827393e-01" rms="3.2402595877647400e-01" purity="1.2111188471317291e-01" nType="0">
                    <Node pos="l" depth="7" NCoef="0" IVar="-1" Cut="0.0000000000000000e+00" cType="1" res="-2.2518023848533630e-02" rms="3.6430242657661438e-01" purity="1.6007122397422791e-01" nType="-99"/>
                    <Node pos="r" depth="7" NCoef="0" IVar="-1" Cut="0.0000000000000000e+00" cType="1" res="-3.0455850064754486e-02" rms="2.8742253780364990e-01" purity="9.2240855097770691e-02" nType="-99"/>
                  </Node>
                </Node>
              </Node>
              <Node pos="r" depth="4" NCoef="0" IVar="0" Cut="6.4827072620391846e-01" cType="1" res="-1.9881656765937805e-01" rms="3.8731357455253601e-01" purity="1.9051010906696320e-01" nType="0">
                <Node pos="l" depth="5" NCoef="0" IVar="2" Cut="2.0650677490234375e+02" cType="1" res="-1.5596316754817963e-01" rms="4.3820142745971680e-01" purity="2.6386508345603943e-01" nType="0">
                  <Node pos="l" depth="6" NCoef="0" IVar="-1" Cut="0.0000000000000000e+00" cType="1" res="-1.2393216602504253e-02" rms="4.5223483443260193e-01" purity="2.9462555050849915e-01" nType="-99"/>
                  <Node pos="r" depth="6" NCoef="0" IVar="-1" Cut="0.0000000000000000e+00" cType="1" res="-1.8597781658172607e-02" rms="4.2138150334358215e-01" purity="2.3222984373569489e-01" nType="-99"/>
                </Node>
                <Node pos="r" depth="5" NCoef="0" IVar="4" Cut="9.1510310769081116e-02" cType="1" res="-2.2791719436645508e-01" rms="3.4552985429763794e-01" purity="1.4069667458534241e-01" nType="0">
                  <Node pos="l" depth="6" NCoef="0" IVar="2" Cut="1.0232824707031250e+02" cType="1" res="-2.4581311643123627e-01" rms="3.2380938529968262e-01" purity="1.2102299183607101e-01" nType="0">
                    <Node pos="l" depth="7" NCoef="0" IVar="-1" Cut="0.0000000000000000e+00" cType="1" res="-2.4534173309803009e-02" rms="3.5733830928802490e-01" purity="1.5371531248092651e-01" nType="-99"/>
                    <Node pos="r" depth="7" NCoef="0" IVar="-1" Cut="0.0000000000000000e+00" cType="1" res="-3.0386453494429588e-02" rms="2.9544773697853088e-01" purity="9.7142256796360016e-02" nType="-99"/>
                  </Node>
                  <Node pos="r" depth="6" NCoef="0" IVar="-1" Cut="0.0000000000000000e+00" cType="1" res="-2.1330937743186951e-02" rms="3.8074904680252075e-01" purity="1.7765429615974426e-01" nType="-99"/>
                </Node>
              </Node>
            </Node>
            <Node pos="r" depth="3" NCoef="0" IVar="3" Cut="4.3432235717773438e-01" cType="1" res="-1.8214461207389832e-01" rms="3.8335132598876953e-01" purity="1.8733873963356018e-01" nType="0">
              <Node pos="l" depth="4" NCoef="0" IVar="5" Cut="4.0000000000000000e+00" cType="1" res="1.7235572636127472e-01" rms="0.0000000000000000e+00" purity="1.6397413611412048e-01" nType="0">
                <Node pos="l" depth="5" NCoef="0" IVar="-1" Cut="0.0000000000000000e+00" cType="1" res="-1.2840219773352146e-02" rms="4.4683772325515747e-01" purity="2.7814462780952454e-01" nType="-99"/>
                <Node pos="r" depth="5" NCoef="0" IVar="4" Cut="2.6889336109161377e-01" cType="1" res="-2.1045687794685364e-01" rms="3.4866502881050110e-01" purity="1.4487500488758087e-01" nType="0">
                  <Node pos="l" depth="6" NCoef="0" IVar="2" Cut="2.7250360107421875e+02" cType="1" res="-2.2104278206825256e-01" rms="3.3113068342208862e-01" purity="1.2802039086818695e-01" nType="0">
                    <Node pos="l" depth="7" NCoef="0" IVar="-1" Cut="0.0000000000000000e+00" cType="1" res="-2.1159037947654724e-02" rms="3.7616688013076782e-01" purity="1.7441844940185547e-01" nType="-99"/>
                    <Node pos="r" depth="7" NCoef="0" IVar="-1" Cut="0.0000000000000000e+00" cType="1" res="-2.8493134304881096e-02" rms="3.1584116816520691e-01" purity="1.1481972038745880e-01" nType="-99"/>
                  </Node>
                  <Node pos="r" depth="6" NCoef="0" IVar="-1" Cut="0.0000000000000000e+00" cType="1" res="-1.9485540688037872e-02" rms="4.0400555729866028e-01" purity="2.0646779239177704e-01" nType="-99"/>
                </Node>
              </Node>
              <Node pos="r" depth="4" NCoef="0" IVar="-1" Cut="0.0000000000000000e+00" cType="1" res="-7.2553367353975773e-03" rms="4.7161456942558289e-01" purity="3.4258717298507690e-01" nType="-99"/>
            </Node>
          </Node>
          <Node pos="r" depth="2" NCoef="0" IVar="1" Cut="4.8374661803245544e-01" cType="1" res="-8.3040572702884674e-02" rms="4.7693878412246704e-01" purity="3.7125676870346069e-01" nType="0">
            <Node pos="l" depth="3" NCoef="0" IVar="0" Cut="4.3360722064971924e-01" cType="1" res="-5.8806851506233215e-02" rms="4.8499989509582520e-01" purity="4.0017098188400269e-01" nType="0">
              <Node pos="l" depth="4" NCoef="0" IVar="0" Cut="1.3983516022562981e-02" cType="1" res="-2.2889835759997368e-02" rms="4.9607294797897339e-01" purity="4.5571413636207581e-01" nType="0">
                <Node pos="l" depth="5" NCoef="0" IVar="5" Cut="4.0000000000000000e+00" cType="1" res="-1.2957076251041144e-04" rms="7.7957636676728725e-03" purity="4.8811158537864685e-01" nType="0">
                  <Node pos="l" depth="6" NCoef="0" IVar="-1" Cut="0.0000000000000000e+00" cType="1" res="-3.0975991394370794e-03" rms="4.9627554416656494e-01" purity="4.5164093375205994e-01" nType="-99"/>
                  <Node pos="r" depth="6" NCoef="0" IVar="-1" Cut="0.0000000000000000e+00" cType="1" res="3.3531209919601679e-03" rms="4.9764999747276306e-01" purity="5.2596753835678101e-01" nType="-99"/>
                </Node>
                <Node pos="r" depth="5" NCoef="0" IVar="2" Cut="1.5556454467773438e+02" cType="1" res="-4.8808373510837555e-02" rms="4.9222600460052490e-01" purity="4.2030194401741028e-01" nType="0">
                  <Node pos="l" depth="6" NCoef="0" IVar="-1" Cut="0.0000000000000000e+00" cType="1" res="-1.0795753914862871e-03" rms="4.9768501520156860e-01" purity="4.6323293447494507e-01" nType="-99"/>
                  <Node pos="r" depth="6" NCoef="0" IVar="-1" Cut="0.0000000000000000e+00" cType="1" res="-8.2304123789072037e-03" rms="4.8320850729942322e-01" purity="3.7409192323684692e-01" nType="-99"/>
                </Node>
              </Node>
              <Node pos="r" depth="4" NCoef="0" IVar="2" Cut="1.1063705444335938e+02" cType="1" res="-1.1462607234716415e-01" rms="4.6175876259803772e-01" purity="3.1385052204132080e-01" nType="0">
                <Node pos="l" depth="5" NCoef="0" IVar="-1" Cut="0.0000000000000000e+00" cType="1" res="-6.0327816754579544e-03" rms="4.8081859946250916e-01" purity="3.6883941292762756e-01" nType="-99"/>
                <Node pos="r" depth="5" NCoef="0" IVar="-1" Cut="0.0000000000000000e+00" cType="1" res="-1.4344363473355770e-02" rms="4.4622886180877686e-01" purity="2.7821573615074158e-01" nType="-99"/>
              </Node>
            </Node>
            <Node pos="r" depth="3" NCoef="0" IVar="4" Cut="7.6308287680149078e-02" cType="1" res="-1.7647784948348999e-01" rms="4.3194633722305298e-01" purity="2.5977292656898499e-01" nType="0">
              <Node pos="l" depth="4" NCoef="0" IVar="-1" Cut="0.0000000000000000e+00" cType="1" res="-2.1242378279566765e-02" rms="4.0749257802963257e-01" purity="2.1855850517749786e-01" nType="-99"/>
              <Node pos="r" depth="4" NCoef="0" IVar="-1" Cut="0.0000000000000000e+00" cType="1" res="-1.3252897188067436e-02" rms="4.5363408327102661e-01" purity="3.0331322550773621e-01" nType="-99"/>
            </Node>
          </Node>
        </Node>
        <Node pos="r" depth="1" NCoef="0" IVar="3" Cut="8.1482601165771484e-01" cType="1" res="1.4275166392326355e-01" rms="4.5013985037803650e-01" purity="7.0301085710525513e-01" nType="0">
          <Node pos="l" depth="2" NCoef="0" IVar="1" Cut="7.0100414752960205e-01" cType="1" res="4.8910520970821381e-02" rms="4.9079036712646484e-01" purity="5.6944209337234497e-01" nType="0">
            <Node pos="l" depth="3" NCoef="0" IVar="0" Cut="2.5405457615852356e-01" cType="1" res="6.4204379916191101e-02" rms="4.8867863416671753e-01" purity="5.8778023719787598e-01" nType="0">
              <Node pos="l" depth="4" NCoef="0" IVar="0" Cut="1.9668248295783997e-01" cType="1" res="9.3447580933570862e-02" rms="4.8143696784973145e-01" purity="6.2892067432403564e-01" nType="0">
                <Node pos="l" depth="5" NCoef="0" IVar="3" Cut="7.1492362022399902e-01" cType="1" res="1.0331652313470840e-01" rms="4.7834357619285583e-01" purity="6.4118915796279907e-01" nType="0">
                  <Node pos="l" depth="6" NCoef="0" IVar="-1" Cut="0.0000000000000000e+00" cType="1" res="4.5341001823544502e-03" rms="4.9349007010459900e-01" purity="5.7735842466354370e-01" nType="-99"/>
                  <Node pos="r" depth="6" NCoef="0" IVar="1" Cut="1.9437269866466522e-01" cType="1" res="1.1801441013813019e-01" rms="4.7256770730018616e-01" purity="6.6105991601943970e-01" nType="0">
                    <Node pos="l" depth="7" NCoef="0" IVar="-1" Cut="0.0000000000000000e+00" cType="1" res="1.0304817929863930e-02" rms="4.6789142489433289e-01" purity="6.7486494779586792e-01" nType="-99"/>
                    <Node pos="r" depth="7" NCoef="0" IVar="-1" Cut="0.0000000000000000e+00" cType="1" res="6.8105515092611313e-03" rms="4.8481407761573792e-01" purity="6.1963570117950439e-01" nType="-99"/>
                  </Node>
                </Node>
                <Node pos="r" depth="5" NCoef="0" IVar="-1" Cut="0.0000000000000000e+00" cType="1" res="1.9711754284799099e-03" rms="4.9758401513099670e-01" purity="5.3905677795410156e-01" nType="-99"/>
              </Node>
              <Node pos="r" depth="4" NCoef="0" IVar="2" Cut="1.9293186950683594e+02" cType="1" res="5.9058056212961674e-03" rms="4.9770334362983704e-01" purity="5.0576347112655640e-01" nType="0">
                <Node pos="l" depth="5" NCoef="0" IVar="4" Cut="3.9335705339908600e-02" cType="1" res="2.6900652796030045e-02" rms="4.9712488055229187e-01" purity="5.2811390161514282e-01" nType="0">
                  <Node pos="l" depth="6" NCoef="0" IVar="-1" Cut="0.0000000000000000e+00" cType="1" res="-1.4290066901594400e-03" rms="4.9770596623420715e-01" purity="4.8593008518218994e-01" nType="-99"/>
                  <Node pos="r" depth="6" NCoef="0" IVar="2" Cut="9.9502693176269531e+01" cType="1" res="5.5056605488061905e-02" rms="4.9471926689147949e-01" purity="5.5560380220413208e-01" nType="0">
                    <Node pos="l" depth="7" NCoef="0" IVar="-1" Cut="0.0000000000000000e+00" cType="1" res="6.5882308408617973e-03" rms="4.9122580885887146e-01" purity="5.8622217178344727e-01" nType="-99"/>
                    <Node pos="r" depth="7" NCoef="0" IVar="-1" Cut="0.0000000000000000e+00" cType="1" res="2.0848279818892479e-03" rms="4.9640315771102905e-01" purity="5.2399635314941406e-01" nType="-99"/>
                  </Node>
                </Node>
                <Node pos="r" depth="5" NCoef="0" IVar="-1" Cut="0.0000000000000000e+00" cType="1" res="-5.3765908814966679e-03" rms="4.9395292997360229e-01" purity="4.3733656406402588e-01" nType="-99"/>
              </Node>
            </Node>
            <Node pos="r" depth="3" NCoef="0" IVar="-1" Cut="0.0000000000000000e+00" cType="1" res="-7.5651044026017189e-03" rms="4.8833090066909790e-01" purity="4.0461304783821106e-01" nType="-99"/>
          </Node>
          <Node pos="r" depth="2" NCoef="0" IVar="0" Cut="5.7448899745941162e-01" cType="1" res="1.7522586882114410e-01" rms="4.3045035004615784e-01" purity="7.4923300743103027e-01" nType="0">
            <Node pos="l" depth="3" NCoef="0" IVar="5" Cut="2.0000000000000000e+00" cType="1" res="1.7716145515441895e-01" rms="4.0758758783340454e-01" purity="7.5887644290924072e-01" nType="0">
              <Node pos="l" depth="4" NCoef="0" IVar="1" Cut="2.6646822690963745e-01" cType="1" res="2.0230825245380402e-01" rms="4.1031175851821899e-01" purity="7.8405898809432983e-01" nType="0">
                <Node pos="l" depth="5" NCoef="0" IVar="0" Cut="2.0379994809627533e-01" cType="1" res="2.1664516627788544e-01" rms="3.9744037389755249e-01" purity="8.0297148227691650e-01" nType="0">
                  <Node pos="l" depth="6" NCoef="0" IVar="1" Cut="2.5362750515341759e-02" cType="1" res="2.2070483863353729e-01" rms="3.9397504925727844e-01" purity="8.0769789218902588e-01" nType="0">
                    <Node pos="l" depth="7" NCoef="0" IVar="-1" Cut="0.0000000000000000e+00" cType="1" res="1.7337592318654060e-02" rms="3.9051324129104614e-01" purity="8.1206899881362915e-01" nType="-99"/>
                    <Node pos="r" depth="7" NCoef="0" IVar="-1" Cut="0.0000000000000000e+00" cType="1" res="1.6740264371037483e-02" rms="4.0097537636756897e-01" purity="7.9859894514083862e-01" nType="-99"/>
                  </Node>
                  <Node pos="r" depth="6" NCoef="0" IVar="-1" Cut="0.0000000000000000e+00" cType="1" res="1.1366791091859341e-02" rms="4.5082077383995056e-01" purity="7.1443629264831543e-01" nType="-99"/>
                </Node>
                <Node pos="r" depth="5" NCoef="0" IVar="3" Cut="1.0051410198211670e+00" cType="1" res="1.5893580019474030e-01" rms="4.4419106841087341e-01" purity="7.2684460878372192e-01" nType="0">
                  <Node pos="l" depth="6" NCoef="0" IVar="4" Cut="7.2670074587222189e-05" cType="1" res="1.5787500143051147e-01" rms="4.4466906785964966e-01" purity="7.2573608160018921e-01" nType="0">
                    <Node pos="l" depth="7" NCoef="0" IVar="-1" Cut="0.0000000000000000e+00" cType="1" res="1.3624306768178940e-02" rms="4.3364214897155762e-01" purity="7.4686282873153687e-01" nType="-99"/>
                    <Node pos="r" depth="7" NCoef="0" IVar="-1" Cut="0.0000000000000000e+00" cType="1" res="6.7451898939907551e-03" rms="4.7439035773277283e-01" purity="6.5189999341964722e-01" nType="-99"/>
                  </Node>
                  <Node pos="r" depth="6" NCoef="0" IVar="-1" Cut="0.0000000000000000e+00" cType="1" res="1.2328063137829304e-02" rms="4.4258219003677368e-01" purity="7.3052489757537842e-01" nType="-99"/>
                </Node>
              </Node>
              <Node pos="r" depth="4" NCoef="0" IVar="0" Cut="1.8530968576669693e-02" cType="1" res="1.4389391243457794e-01" rms="4.5426508784294128e-01" purity="7.0439821481704712e-01" nType="0">
                <Node pos="l" depth="5" NCoef="0" IVar="1" Cut="2.6562744379043579e-01" cType="1" res="1.5475177764892578e-01" rms="4.4895082712173462e-01" purity="7.1660763025283813e-01" nType="0">
                  <Node pos="l" depth="6" NCoef="0" IVar="1" Cut="8.2552112638950348e-02" cType="1" res="1.7136304080486298e-01" rms="4.3829160928726196e-01" purity="7.3919874429702759e-01" nType="0">
                    <Node pos="l" depth="7" NCoef="0" IVar="-1" Cut="0.0000000000000000e+00" cType="1" res="1.4609181322157383e-02" rms="4.3341422080993652e-01" purity="7.4806714057922363e-01" nType="-99"/>
                    <Node pos="r" depth="7" NCoef="0" IVar="-1" Cut="0.0000000000000000e+00" cType="1" res="1.2191586196422577e-02" rms="4.5388221740722656e-01" purity="7.0842254161834717e-01" nType="-99"/>
                  </Node>
                  <Node pos="r" depth="6" NCoef="0" IVar="3" Cut="8.7500292062759399e-01" cType="1" res="1.0620367527008057e-01" rms="4.7542980313301086e-01" purity="6.5058302879333496e-01" nType="0">
                    <Node pos="l" depth="7" NCoef="0" IVar="-1" Cut="0.0000000000000000e+00" cType="1" res="7.6784025877714157e-03" rms="4.7914242744445801e-01" purity="6.3925337791442871e-01" nType="-99"/>
                    <Node pos="r" depth="7" NCoef="0" IVar="-1" Cut="0.0000000000000000e+00" cType="1" res="1.0462810285389423e-02" rms="4.6945568919181824e-01" purity="6.6800290346145630e-01" nType="-99"/>
                  </Node>
                </Node>
                <Node pos="r" depth="5" NCoef="0" IVar="-1" Cut="0.0000000000000000e+00" cType="1" res="5.3437086753547192e-03" rms="4.8526746034622192e-01" purity="6.1010473966598511e-01" nType="-99"/>
              </Node>
            </Node>
            <Node pos="r" depth="3" NCoef="0" IVar="-1" Cut="0.0000000000000000e+00" cType="1" res="-1.3309811241924763e-02" rms="4.8485335707664490e-01" purity="3.8885581493377686e-01" nType="-99"/>
          </Node>
        </Node>
      </Node>
    </BinaryTree>
    <BinaryTree type="DecisionTree" boostWeight="1.0000000000000000e+00" itree="10">
      <Node pos="s" depth="0" NCoef="0" IVar="3" Cut="6.7633879184722900e-01" cType="1" res="1.2350137345492840e-02" rms="4.4896286725997925e-01" purity="4.9992552399635315e-01" nType="0">
        <Node pos="l" depth="1" NCoef="0" IVar="3" Cut="5.0192350149154663e-01" cType="1" res="-1.7185872793197632e-01" rms="3.7987777590751648e-01" purity="1.9945229589939117e-01" nType="0">
          <Node pos="l" depth="2" NCoef="0" IVar="4" Cut="1.0452735424041748e-01" cType="1" res="-2.1829819679260254e-01" rms="3.0912885069847107e-01" purity="1.1287640780210495e-01" nType="0">
            <Node pos="l" depth="3" NCoef="0" IVar="3" Cut="4.5338630676269531e-01" cType="1" res="-2.4137879908084869e-01" rms="2.5560244917869568e-01" purity="7.3052853345870972e-02" nType="0">
              <Node pos="l" depth="4" NCoef="0" IVar="2" Cut="6.0067188262939453e+01" cType="1" res="-2.5014239549636841e-01" rms="2.2539657354354858e-01" purity="5.4623331874608994e-02" nType="0">
                <Node pos="l" depth="5" NCoef="0" IVar="-1" Cut="0.0000000000000000e+00" cType="1" res="-3.1204130500555038e-02" rms="2.6681080460548401e-01" purity="7.8948535025119781e-02" nType="-99"/>
                <Node pos="r" depth="5" NCoef="0" IVar="4" Cut="7.4290744960308075e-02" cType="1" res="-2.5452324748039246e-01" rms="2.1636123955249786e-01" purity="5.0003752112388611e-02" nType="0">
                  <Node pos="l" depth="6" NCoef="0" IVar="0" Cut="1.5392830371856689e+00" cType="1" res="-2.6138696074485779e-01" rms="1.9861410558223724e-01" purity="4.1726145893335342e-02" nType="0">
                    <Node pos="l" depth="7" NCoef="0" IVar="-1" Cut="0.0000000000000000e+00" cType="1" res="-3.1519193202257156e-02" rms="2.4340495467185974e-01" purity="6.3705332577228546e-02" nType="-99"/>
                    <Node pos="r" depth="7" NCoef="0" IVar="-1" Cut="0.0000000000000000e+00" cType="1" res="-3.7093546241521835e-02" rms="1.6263721883296967e-01" purity="2.7412425726652145e-02" nType="-99"/>
                  </Node>
                  <Node pos="r" depth="6" NCoef="0" IVar="2" Cut="2.7616946411132812e+02" cType="1" res="-2.4658896028995514e-01" rms="2.3496405780315399e-01" purity="5.9572469443082809e-02" nType="0">
                    <Node pos="l" depth="7" NCoef="0" IVar="-1" Cut="0.0000000000000000e+00" cType="1" res="-3.3223763108253479e-02" rms="2.4905185401439667e-01" purity="6.7446611821651459e-02" nType="-99"/>
                    <Node pos="r" depth="7" NCoef="0" IVar="-1" Cut="0.0000000000000000e+00" cType="1" res="-3.3337347209453583e-02" rms="2.0951682329177856e-01" purity="4.6776283532381058e-02" nType="-99"/>
                  </Node>
                </Node>
              </Node>
              <Node pos="r" depth="4" NCoef="0" IVar="3" Cut="4.7843173146247864e-01" cType="1" res="-1.9922488927841187e-01" rms="3.6479076743125916e-01" purity="1.6170091927051544e-01" nType="0">
                <Node pos="l" depth="5" NCoef="0" IVar="-1" Cut="0.0000000000000000e+00" cType="1" res="-2.4148596450686455e-02" rms="3.4621238708496094e-01" purity="1.4137999713420868e-01" nType="-99"/>
                <Node pos="r" depth="5" NCoef="0" IVar="-1" Cut="0.0000000000000000e+00" cType="1" res="-2.0557206124067307e-02" rms="3.8206356763839722e-01" purity="1.8188779056072235e-01" nType="-99"/>
              </Node>
            </Node>
            <Node pos="r" depth="3" NCoef="0" IVar="3" Cut="4.0486019849777222e-01" cType="1" res="-1.9962762296199799e-01" rms="3.4530198574066162e-01" purity="1.4509084820747375e-01" nType="0">
              <Node pos="l" depth="4" NCoef="0" IVar="4" Cut="2.0534966886043549e-01" cType="1" res="-2.1131010353565216e-01" rms="3.2136672735214233e-01" purity="1.2190678715705872e-01" nType="0">
                <Node pos="l" depth="5" NCoef="0" IVar="3" Cut="3.6608862876892090e-01" cType="1" res="-2.3204073309898376e-01" rms="2.7955466508865356e-01" purity="8.7908275425434113e-02" nType="0">
                  <Node pos="l" depth="6" NCoef="0" IVar="5" Cut="5.0000000000000000e+00" cType="1" res="1.2485290318727493e-01" rms="0.0000000000000000e+00" purity="7.5800679624080658e-02" nType="0">
                    <Node pos="l" depth="7" NCoef="0" IVar="-1" Cut="0.0000000000000000e+00" cType="1" res="-2.7255892753601074e-02" rms="3.2540899515151978e-01" purity="1.2303294241428375e-01" nType="-99"/>
                    <Node pos="r" depth="7" NCoef="0" IVar="-1" Cut="0.0000000000000000e+00" cType="1" res="-3.3965181559324265e-02" rms="2.3558843135833740e-01" purity="5.9846721589565277e-02" nType="-99"/>
                  </Node>
                  <Node pos="r" depth="6" NCoef="0" IVar="-1" Cut="0.0000000000000000e+00" cType="1" res="-2.3814544081687927e-02" rms="3.5107737779617310e-01" purity="1.4526760578155518e-01" nType="-99"/>
                </Node>
                <Node pos="r" depth="5" NCoef="0" IVar="5" Cut="5.0000000000000000e+00" cType="1" res="1.7834554612636566e-01" rms="0.0000000000000000e+00" purity="1.8697369098663330e-01" nType="0">
                  <Node pos="l" depth="6" NCoef="0" IVar="-1" Cut="0.0000000000000000e+00" cType="1" res="-1.0916201397776604e-02" rms="4.4609019160270691e-01" purity="2.7984610199928284e-01" nType="-99"/>
                  <Node pos="r" depth="6" NCoef="0" IVar="5" Cut="8.0000000000000000e+00" cType="1" res="0.0000000000000000e+00" rms="0.0000000000000000e+00" purity="1.5338499844074249e-01" nType="0">
                    <Node pos="l" depth="7" NCoef="0" IVar="-1" Cut="0.0000000000000000e+00" cType="1" res="-2.1975865587592125e-02" rms="3.7191504240036011e-01" purity="1.6807031631469727e-01" nType="-99"/>
                    <Node pos="r" depth="7" NCoef="0" IVar="-1" Cut="0.0000000000000000e+00" cType="1" res="-2.6293549686670303e-02" rms="3.4001368284225464e-01" purity="1.3458718359470367e-01" nType="-99"/>
                  </Node>
                </Node>
              </Node>
              <Node pos="r" depth="4" NCoef="0" IVar="2" Cut="3.0874383544921875e+02" cType="1" res="-1.6012638807296753e-01" rms="4.1372177004814148e-01" purity="2.2348174452781677e-01" nType="0">
                <Node pos="l" depth="5" NCoef="0" IVar="-1" Cut="0.0000000000000000e+00" cType="1" res="-1.3015647418797016e-02" rms="4.3505549430847168e-01" purity="2.5856417417526245e-01" nType="-99"/>
                <Node pos="r" depth="5" NCoef="0" IVar="-1" Cut="0.0000000000000000e+00" cType="1" res="-2.0344953984022141e-02" rms="3.9425712823867798e-01" purity="1.9643259048461914e-01" nType="-99"/>
              </Node>
            </Node>
          </Node>
          <Node pos="r" depth="2" NCoef="0" IVar="0" Cut="4.3360725045204163e-01" cType="1" res="-8.7193787097930908e-02" rms="4.7125166654586792e-01" purity="3.5729101300239563e-01" nType="0">
            <Node pos="l" depth="3" NCoef="0" IVar="3" Cut="6.0882854461669922e-01" cType="1" res="-3.9123270660638809e-02" rms="4.9239608645439148e-01" purity="4.3318575620651245e-01" nType="0">
              <Node pos="l" depth="4" NCoef="0" IVar="2" Cut="1.9516941833496094e+02" cType="1" res="-7.1877233684062958e-02" rms="4.8511478304862976e-01" purity="3.8682922720909119e-01" nType="0">
                <Node pos="l" depth="5" NCoef="0" IVar="-1" Cut="0.0000000000000000e+00" cType="1" res="-3.4691055770963430e-03" rms="4.9292433261871338e-01" purity="4.2608729004859924e-01" nType="-99"/>
                <Node pos="r" depth="5" NCoef="0" IVar="3" Cut="5.6055903434753418e-01" cType="1" res="-1.0038784891366959e-01" rms="4.7616115212440491e-01" purity="3.5139843821525574e-01" nType="0">
                  <Node pos="l" depth="6" NCoef="0" IVar="-1" Cut="0.0000000000000000e+00" cType="1" res="-1.0599851608276367e-02" rms="4.7001621127128601e-01" purity="3.3283492922782898e-01" nType="-99"/>
                  <Node pos="r" depth="6" NCoef="0" IVar="-1" Cut="0.0000000000000000e+00" cType="1" res="-8.3423294126987457e-03" rms="4.8230591416358948e-01" purity="3.7100803852081299e-01" nType="-99"/>
                </Node>
              </Node>
              <Node pos="r" depth="4" NCoef="0" IVar="0" Cut="1.8177048861980438e-01" cType="1" res="-7.4353129602968693e-03" rms="4.9729043245315552e-01" purity="4.7803354263305664e-01" nType="0">
                <Node pos="l" depth="5" NCoef="0" IVar="2" Cut="1.7607150268554688e+02" cType="1" res="1.9020622596144676e-02" rms="4.9876543879508972e-01" purity="5.1642781496047974e-01" nType="0">
                  <Node pos="l" depth="6" NCoef="0" IVar="-1" Cut="0.0000000000000000e+00" cType="1" res="1.9257419044151902e-03" rms="4.9810674786567688e-01" purity="5.3028011322021484e-01" nType="-99"/>
                  <Node pos="r" depth="6" NCoef="0" IVar="-1" Cut="0.0000000000000000e+00" cType="1" res="1.1880246456712484e-03" rms="4.9934110045433044e-01" purity="5.0312787294387817e-01" nType="-99"/>
                </Node>
                <Node pos="r" depth="5" NCoef="0" IVar="-1" Cut="0.0000000000000000e+00" cType="1" res="-3.4960298798978329e-03" rms="4.9372589588165283e-01" purity="4.3274459242820740e-01" nType="-99"/>
              </Node>
            </Node>
            <Node pos="r" depth="3" NCoef="0" IVar="1" Cut="5.1841604709625244e-01" cType="1" res="-1.4740486443042755e-01" rms="4.3593180179595947e-01" purity="2.6222842931747437e-01" nType="0">
              <Node pos="l" depth="4" NCoef="0" IVar="2" Cut="1.0306742095947266e+02" cType="1" res="-1.2672920525074005e-01" rms="4.5009794831275940e-01" purity="2.8902924060821533e-01" nType="0">
                <Node pos="l" depth="5" NCoef="0" IVar="-1" Cut="0.0000000000000000e+00" cType="1" res="-7.6511390507221222e-03" rms="4.7220665216445923e-01" purity="3.4296956658363342e-01" nType="-99"/>
                <Node pos="r" depth="5" NCoef="0" IVar="4" Cut="8.3453319966793060e-02" cType="1" res="-1.5001304447650909e-01" rms="4.3597352504730225e-01" purity="2.6002371311187744e-01" nType="0">
                  <Node pos="l" depth="6" NCoef="0" IVar="-1" Cut="0.0000000000000000e+00" cType="1" res="-1.9435936585068703e-02" rms="4.1080227494239807e-01" purity="2.2056543827056885e-01" nType="-99"/>
                  <Node pos="r" depth="6" NCoef="0" IVar="-1" Cut="0.0000000000000000e+00" cType="1" res="-1.0585444048047066e-02" rms="4.5696562528610229e-01" purity="3.0126833915710449e-01" nType="-99"/>
                </Node>
              </Node>
              <Node pos="r" depth="4" NCoef="0" IVar="-1" Cut="0.0000000000000000e+00" cType="1" res="-2.2479597479104996e-02" rms="3.8318976759910583e-01" purity="1.8110674619674683e-01" nType="-99"/>
            </Node>
          </Node>
        </Node>
        <Node pos="r" depth="1" NCoef="0" IVar="3" Cut="8.2585197687149048e-01" cType="1" res="1.3827009499073029e-01" rms="4.4906339049339294e-01" purity="7.0532059669494629e-01" nType="0">
          <Node pos="l" depth="2" NCoef="0" IVar="0" Cut="3.9748445153236389e-01" cType="1" res="5.3015824407339096e-02" rms="4.8908865451812744e-01" purity="5.7973080873489380e-01" nType="0">
            <Node pos="l" depth="3" NCoef="0" IVar="1" Cut="5.2134853601455688e-01" cType="1" res="6.8485297262668610e-02" rms="4.8649832606315613e-01" purity="6.0053479671478271e-01" nType="0">
              <Node pos="l" depth="4" NCoef="0" IVar="0" Cut="1.9231614470481873e-01" cType="1" res="8.3900950849056244e-02" rms="4.8300328850746155e-01" purity="6.2030398845672607e-01" nType="0">
                <Node pos="l" depth="5" NCoef="0" IVar="3" Cut="7.7762639522552490e-01" cType="1" res="1.0530646890401840e-01" rms="4.7534289956092834e-01" purity="6.5120255947113037e-01" nType="0">
                  <Node pos="l" depth="6" NCoef="0" IVar="1" Cut="1.1935145407915115e-01" cType="1" res="8.2858197391033173e-02" rms="4.8409128189086914e-01" purity="6.2138807773590088e-01" nType="0">
                    <Node pos="l" depth="7" NCoef="0" IVar="-1" Cut="0.0000000000000000e+00" cType="1" res="7.7923536300659180e-03" rms="4.7955518960952759e-01" purity="6.3896393775939941e-01" nType="-99"/>
                    <Node pos="r" depth="7" NCoef="0" IVar="-1" Cut="0.0000000000000000e+00" cType="1" res="4.0836478583514690e-03" rms="4.9307703971862793e-01" purity="5.7979607582092285e-01" nType="-99"/>
                  </Node>
                  <Node pos="r" depth="6" NCoef="0" IVar="1" Cut="6.1045948415994644e-02" cType="1" res="1.3579760491847992e-01" rms="4.6144983172416687e-01" purity="6.9169908761978149e-01" nType="0">
                    <Node pos="l" depth="7" NCoef="0" IVar="-1" Cut="0.0000000000000000e+00" cType="1" res="1.1644602753221989e-02" rms="4.5366784930229187e-01" purity="7.0980405807495117e-01" nType="-99"/>
                    <Node pos="r" depth="7" NCoef="0" IVar="-1" Cut="0.0000000000000000e+00" cType="1" res="8.4557477384805679e-03" rms="4.7408810257911682e-01" purity="6.5846884250640869e-01" nType="-99"/>
                  </Node>
                </Node>
                <Node pos="r" depth="5" NCoef="0" IVar="3" Cut="7.2457265853881836e-01" cType="1" res="3.8327936083078384e-02" rms="4.9585241079330444e-01" purity="5.5452001094818115e-01" nType="0">
                  <Node pos="l" depth="6" NCoef="0" IVar="-1" Cut="0.0000000000000000e+00" cType="1" res="-9.1736306785605848e-05" rms="4.9928006529808044e-01" purity="5.0098437070846558e-01" nType="-99"/>
                  <Node pos="r" depth="6" NCoef="0" IVar="2" Cut="9.6381477355957031e+01" cType="1" res="5.4058503359556198e-02" rms="4.9359863996505737e-01" purity="5.7592076063156128e-01" nType="0">
                    <Node pos="l" depth="7" NCoef="0" IVar="-1" Cut="0.0000000000000000e+00" cType="1" res="6.0086180455982685e-03" rms="4.9078950285911560e-01" purity="5.9374219179153442e-01" nType="-99"/>
                    <Node pos="r" depth="7" NCoef="0" IVar="-1" Cut="0.0000000000000000e+00" cType="1" res="3.4511743579059839e-03" rms="4.9569615721702576e-01" purity="5.5958378314971924e-01" nType="-99"/>
                  </Node>
                </Node>
              </Node>
              <Node pos="r" depth="4" NCoef="0" IVar="-1" Cut="0.0000000000000000e+00" cType="1" res="-2.4426039308309555e-03" rms="4.9709624052047729e-01" purity="4.7518199682235718e-01" nType="-99"/>
            </Node>
            <Node pos="r" depth="3" NCoef="0" IVar="-1" Cut="0.0000000000000000e+00" cType="1" res="-5.6954240426421165e-03" rms="4.9259379506111145e-01" purity="4.1973975300788879e-01" nType="-99"/>
          </Node>
          <Node pos="r" depth="2" NCoef="0" IVar="2" Cut="1.8824549865722656e+02" cType="1" res="1.6921083629131317e-01" rms="4.2945903539657593e-01" purity="7.5090003013610840e-01" nType="0">
            <Node pos="l" depth="3" NCoef="0" IVar="1" Cut="1.0190397500991821e-01" cType="1" res="1.7452575266361237e-01" rms="4.2596793174743652e-01" purity="7.5782477855682373e-01" nType="0">
              <Node pos="l" depth="4" NCoef="0" IVar="3" Cut="9.6017557382583618e-01" cType="1" res="1.9313789904117584e-01" rms="4.1097795963287354e-01" purity="7.8320795297622681e-01" nType="0">
                <Node pos="l" depth="5" NCoef="0" IVar="3" Cut="8.5619533061981201e-01" cType="1" res="1.6971719264984131e-01" rms="4.3275246024131775e-01" purity="7.4908757209777832e-01" nType="0">
                  <Node pos="l" depth="6" NCoef="0" IVar="-1" Cut="0.0000000000000000e+00" cType="1" res="1.1249265633523464e-02" rms="4.5193079113960266e-01" purity="7.1277540922164917e-01" nType="-99"/>
                  <Node pos="r" depth="6" NCoef="0" IVar="4" Cut="1.5149239450693130e-02" cType="1" res="1.7853373289108276e-01" rms="4.2540431022644043e-01" purity="7.6194727420806885e-01" nType="0">
                    <Node pos="l" depth="7" NCoef="0" IVar="-1" Cut="0.0000000000000000e+00" cType="1" res="1.3508940115571022e-02" rms="4.3439009785652161e-01" purity="7.4698495864868164e-01" nType="-99"/>
                    <Node pos="r" depth="7" NCoef="0" IVar="-1" Cut="0.0000000000000000e+00" cType="1" res="1.5767689794301987e-02" rms="4.2112743854522705e-01" purity="7.6867198944091797e-01" nType="-99"/>
                  </Node>
                </Node>
                <Node pos="r" depth="5" NCoef="0" IVar="3" Cut="1.0006242990493774e+00" cType="1" res="2.0421460270881653e-01" rms="3.9978983998298645e-01" purity="7.9934507608413696e-01" nType="0">
                  <Node pos="l" depth="6" NCoef="0" IVar="3" Cut="9.9018806219100952e-01" cType="1" res="1.9999288022518158e-01" rms="4.0280935168266296e-01" purity="7.9513800144195557e-01" nType="0">
                    <Node pos="l" depth="7" NCoef="0" IVar="-1" Cut="0.0000000000000000e+00" cType="1" res="1.4635498635470867e-02" rms="4.1291090846061707e-01" purity="7.8085255622863770e-01" nType="-99"/>
                    <Node pos="r" depth="7" NCoef="0" IVar="-1" Cut="0.0000000000000000e+00" cType="1" res="1.6438053920865059e-02" rms="3.9777553081512451e-01" purity="8.0190318822860718e-01" nType="-99"/>
                  </Node>
                  <Node pos="r" depth="6" NCoef="0" IVar="-1" Cut="0.0000000000000000e+00" cType="1" res="1.6071286052465439e-02" rms="3.9579936861991882e-01" purity="8.0476516485214233e-01" nType="-99"/>
                </Node>
              </Node>
              <Node pos="r" depth="4" NCoef="0" IVar="3" Cut="9.5277798175811768e-01" cType="1" res="1.4651958644390106e-01" rms="4.4611769914627075e-01" purity="7.1963000297546387e-01" nType="0">
                <Node pos="l" depth="5" NCoef="0" IVar="3" Cut="8.6271631717681885e-01" cType="1" res="9.9834933876991272e-02" rms="4.7202372550964355e-01" purity="6.5868568420410156e-01" nType="0">
                  <Node pos="l" depth="6" NCoef="0" IVar="-1" Cut="0.0000000000000000e+00" cType="1" res="5.8266799896955490e-03" rms="4.8263403773307800e-01" purity="6.2543100118637085e-01" nType="-99"/>
                  <Node pos="r" depth="6" NCoef="0" IVar="2" Cut="4.8673648834228516e+01" cType="1" res="1.1474214494228363e-01" rms="4.6508690714836121e-01" purity="6.7804461717605591e-01" nType="0">
                    <Node pos="l" depth="7" NCoef="0" IVar="-1" Cut="0.0000000000000000e+00" cType="1" res="7.0311212912201881e-03" rms="4.7509169578552246e-01" purity="6.4848870038986206e-01" nType="-99"/>
                    <Node pos="r" depth="7" NCoef="0" IVar="-1" Cut="0.0000000000000000e+00" cType="1" res="1.1699001304805279e-02" rms="4.5788642764091492e-01" purity="6.9588762521743774e-01" nType="-99"/>
                  </Node>
                </Node>
                <Node pos="r" depth="5" NCoef="0" IVar="3" Cut="1.0121426582336426e+00" cType="1" res="1.6598774492740631e-01" rms="4.3337544798851013e-01" purity="7.4504464864730835e-01" nType="0">
                  <Node pos="l" depth="6" NCoef="0" IVar="3" Cut="9.9872934818267822e-01" cType="1" res="1.6518764197826385e-01" rms="4.3383881449699402e-01" purity="7.4442702531814575e-01" nType="0">
                    <Node pos="l" depth="7" NCoef="0" IVar="-1" Cut="0.0000000000000000e+00" cType="1" res="1.2075804173946381e-02" rms="4.4264912605285645e-01" purity="7.2747081518173218e-01" nType="-99"/>
                    <Node pos="r" depth="7" NCoef="0" IVar="-1" Cut="0.0000000000000000e+00" cType="1" res="1.3965349644422531e-02" rms="4.2222923040390015e-01" purity="7.6467013359069824e-01" nType="-99"/>
                  </Node>
                  <Node pos="r" depth="6" NCoef="0" IVar="-1" Cut="0.0000000000000000e+00" cType="1" res="1.2866073288023472e-02" rms="4.3116316199302673e-01" purity="7.4795800447463989e-01" nType="-99"/>
                </Node>
              </Node>
            </Node>
            <Node pos="r" depth="3" NCoef="0" IVar="-1" Cut="0.0000000000000000e+00" cType="1" res="3.0505112372338772e-03" rms="4.9144890904426575e-01" purity="5.7421660423278809e-01" nType="-99"/>
          </Node>
        </Node>
      </Node>
    </BinaryTree>
    <BinaryTree type="DecisionTree" boostWeight="1.0000000000000000e+00" itree="11">
      <Node pos="s" depth="0" NCoef="0" IVar="3" Cut="6.7633879184722900e-01" cType="1" res="1.1493529193103313e-02" rms="4.4565850496292114e-01" purity="4.9829307198524475e-01" nType="0">
        <Node pos="l" depth="1" NCoef="0" IVar="3" Cut="5.4552704095840454e-01" cType="1" res="-1.6460742056369781e-01" rms="3.7685871124267578e-01" purity="1.9727987051010132e-01" nType="0">
          <Node pos="l" depth="2" NCoef="0" IVar="3" Cut="4.5761474967002869e-01" cType="1" res="-2.0233801007270813e-01" rms="3.2198297977447510e-01" purity="1.2628601491451263e-01" nType="0">
            <Node pos="l" depth="3" NCoef="0" IVar="4" Cut="1.5685297548770905e-01" cType="1" res="-2.1583218872547150e-01" rms="2.8859645128250122e-01" purity="9.6371725201606750e-02" nType="0">
              <Node pos="l" depth="4" NCoef="0" IVar="3" Cut="3.9864376187324524e-01" cType="1" res="-2.3192228376865387e-01" rms="2.4454902112483978e-01" purity="6.5883100032806396e-02" nType="0">
                <Node pos="l" depth="5" NCoef="0" IVar="5" Cut="4.0000000000000000e+00" cType="1" res="1.0341230779886246e-01" rms="6.8688057363033295e-02" purity="4.9962382763624191e-02" nType="0">
                  <Node pos="l" depth="6" NCoef="0" IVar="-1" Cut="0.0000000000000000e+00" cType="1" res="-2.7497367933392525e-02" rms="3.0172261595726013e-01" purity="1.0174979269504547e-01" nType="-99"/>
                  <Node pos="r" depth="6" NCoef="0" IVar="3" Cut="3.0877175927162170e-01" cType="1" res="-2.4250751733779907e-01" rms="2.0065830647945404e-01" purity="4.2539056390523911e-02" nType="0">
                    <Node pos="l" depth="7" NCoef="0" IVar="-1" Cut="0.0000000000000000e+00" cType="1" res="-3.7432581186294556e-02" rms="1.6660526394844055e-01" purity="2.8651054948568344e-02" nType="-99"/>
                    <Node pos="r" depth="7" NCoef="0" IVar="-1" Cut="0.0000000000000000e+00" cType="1" res="-3.1105671077966690e-02" rms="2.4215893447399139e-01" purity="6.3112631440162659e-02" nType="-99"/>
                  </Node>
                </Node>
                <Node pos="r" depth="5" NCoef="0" IVar="0" Cut="8.3837950229644775e-01" cType="1" res="-2.1158754825592041e-01" rms="3.2074949145317078e-01" purity="1.1915868520736694e-01" nType="0">
                  <Node pos="l" depth="6" NCoef="0" IVar="-1" Cut="0.0000000000000000e+00" cType="1" res="-2.0036324858665466e-02" rms="3.8024964928627014e-01" purity="1.7744000256061554e-01" nType="-99"/>
                  <Node pos="r" depth="6" NCoef="0" IVar="1" Cut="3.4738811850547791e-01" cType="1" res="-2.2867164015769958e-01" rms="2.8623753786087036e-01" purity="9.1143578290939331e-02" nType="0">
                    <Node pos="l" depth="7" NCoef="0" IVar="-1" Cut="0.0000000000000000e+00" cType="1" res="-2.5923224166035652e-02" rms="3.1277486681938171e-01" purity="1.1127575486898422e-01" nType="-99"/>
                    <Node pos="r" depth="7" NCoef="0" IVar="-1" Cut="0.0000000000000000e+00" cType="1" res="-3.1692210584878922e-02" rms="2.4949468672275543e-01" purity="6.7261457443237305e-02" nType="-99"/>
                  </Node>
                </Node>
              </Node>
              <Node pos="r" depth="4" NCoef="0" IVar="5" Cut="4.0000000000000000e+00" cType="1" res="1.6380050778388977e-01" rms="0.0000000000000000e+00" purity="1.5995918214321136e-01" nType="0">
                <Node pos="l" depth="5" NCoef="0" IVar="-1" Cut="0.0000000000000000e+00" cType="1" res="-1.3418580405414104e-02" rms="4.3915584683418274e-01" purity="2.6275065541267395e-01" nType="-99"/>
                <Node pos="r" depth="5" NCoef="0" IVar="3" Cut="3.6911895871162415e-01" cType="1" res="-1.9282524287700653e-01" rms="3.4421557188034058e-01" purity="1.4114394783973694e-01" nType="0">
                  <Node pos="l" depth="6" NCoef="0" IVar="4" Cut="2.6889654994010925e-01" cType="1" res="-2.0118284225463867e-01" rms="3.2819709181785583e-01" purity="1.2543600797653198e-01" nType="0">
                    <Node pos="l" depth="7" NCoef="0" IVar="-1" Cut="0.0000000000000000e+00" cType="1" res="-2.8379248455166817e-02" rms="3.0081251263618469e-01" purity="1.0170547664165497e-01" nType="-99"/>
                    <Node pos="r" depth="7" NCoef="0" IVar="-1" Cut="0.0000000000000000e+00" cType="1" res="-1.8416251987218857e-02" rms="3.9903429150581360e-01" purity="1.9968324899673462e-01" nType="-99"/>
                  </Node>
                  <Node pos="r" depth="6" NCoef="0" IVar="-1" Cut="0.0000000000000000e+00" cType="1" res="-1.6177970916032791e-02" rms="4.1359263658523560e-01" purity="2.2096395492553711e-01" nType="-99"/>
                </Node>
              </Node>
            </Node>
            <Node pos="r" depth="3" NCoef="0" IVar="0" Cut="6.4827066659927368e-01" cType="1" res="-1.5514925122261047e-01" rms="4.1484421491622925e-01" purity="2.3089542984962463e-01" nType="0">
              <Node pos="l" depth="4" NCoef="0" IVar="4" Cut="1.2139018625020981e-01" cType="1" res="-1.1614206433296204e-01" rms="4.5423156023025513e-01" purity="2.9814872145652771e-01" nType="0">
                <Node pos="l" depth="5" NCoef="0" IVar="-1" Cut="0.0000000000000000e+00" cType="1" res="-1.3836584985256195e-02" rms="4.3970000743865967e-01" purity="2.6973959803581238e-01" nType="-99"/>
                <Node pos="r" depth="5" NCoef="0" IVar="-1" Cut="0.0000000000000000e+00" cType="1" res="-8.2038734108209610e-03" rms="4.6886435151100159e-01" purity="3.3117401599884033e-01" nType="-99"/>
              </Node>
              <Node pos="r" depth="4" NCoef="0" IVar="4" Cut="7.0564553141593933e-02" cType="1" res="-1.9622132182121277e-01" rms="3.6436808109283447e-01" purity="1.6008207201957703e-01" nType="0">
                <Node pos="l" depth="5" NCoef="0" IVar="-1" Cut="0.0000000000000000e+00" cType="1" res="-2.5483489036560059e-02" rms="3.3464345335960388e-01" purity="1.3046121597290039e-01" nType="-99"/>
                <Node pos="r" depth="5" NCoef="0" IVar="-1" Cut="0.0000000000000000e+00" cType="1" res="-1.9031001254916191e-02" rms="3.8706099987030029e-01" purity="1.8626023828983307e-01" nType="-99"/>
              </Node>
            </Node>
          </Node>
          <Node pos="r" depth="2" NCoef="0" IVar="0" Cut="5.7583463191986084e-01" cType="1" res="-6.3466712832450867e-02" rms="4.8039209842681885e-01" purity="3.8758614659309387e-01" nType="0">
            <Node pos="l" depth="3" NCoef="0" IVar="0" Cut="1.8572278320789337e-02" cType="1" res="-4.4732637703418732e-02" rms="4.8977181315422058e-01" purity="4.2182531952857971e-01" nType="0">
              <Node pos="l" depth="4" NCoef="0" IVar="1" Cut="9.2805735766887665e-02" cType="1" res="-1.1382458033040166e-03" rms="4.9801695346832275e-01" purity="4.8569801449775696e-01" nType="0">
                <Node pos="l" depth="5" NCoef="0" IVar="-1" Cut="0.0000000000000000e+00" cType="1" res="2.4822207633405924e-03" rms="4.9811413884162903e-01" purity="5.1993793249130249e-01" nType="-99"/>
                <Node pos="r" depth="5" NCoef="0" IVar="-1" Cut="0.0000000000000000e+00" cType="1" res="-3.3808199223130941e-03" rms="4.9521106481552124e-01" purity="4.4321185350418091e-01" nType="-99"/>
              </Node>
              <Node pos="r" depth="4" NCoef="0" IVar="0" Cut="4.8395356535911560e-01" cType="1" res="-7.5513541698455811e-02" rms="4.8149403929710388e-01" purity="3.7672647833824158e-01" nType="0">
                <Node pos="l" depth="5" NCoef="0" IVar="3" Cut="5.9617227315902710e-01" cType="1" res="-6.0819946229457855e-02" rms="4.8755946755409241e-01" purity="3.9901208877563477e-01" nType="0">
                  <Node pos="l" depth="6" NCoef="0" IVar="-1" Cut="0.0000000000000000e+00" cType="1" res="-9.5205521211028099e-03" rms="4.7591549158096313e-01" purity="3.4980526566505432e-01" nType="-99"/>
                  <Node pos="r" depth="6" NCoef="0" IVar="4" Cut="6.1262339353561401e-02" cType="1" res="-4.2195431888103485e-02" rms="4.9174553155899048e-01" purity="4.2179957032203674e-01" nType="0">
                    <Node pos="l" depth="7" NCoef="0" IVar="-1" Cut="0.0000000000000000e+00" cType="1" res="-5.3580221720039845e-03" rms="4.8835331201553345e-01" purity="4.0631058812141418e-01" nType="-99"/>
                    <Node pos="r" depth="7" NCoef="0" IVar="-1" Cut="0.0000000000000000e+00" cType="1" res="-2.5429413653910160e-03" rms="4.9419248104095459e-01" purity="4.3498679995536804e-01" nType="-99"/>
                  </Node>
                </Node>
                <Node pos="r" depth="5" NCoef="0" IVar="-1" Cut="0.0000000000000000e+00" cType="1" res="-1.1174526065587997e-02" rms="4.6050265431404114e-01" purity="3.1122976541519165e-01" nType="-99"/>
              </Node>
            </Node>
            <Node pos="r" depth="3" NCoef="0" IVar="2" Cut="1.6395646667480469e+02" cType="1" res="-1.2639951705932617e-01" rms="4.4166517257690430e-01" purity="2.7256748080253601e-01" nType="0">
              <Node pos="l" depth="4" NCoef="0" IVar="-1" Cut="0.0000000000000000e+00" cType="1" res="-9.1110058128833771e-03" rms="4.5905327796936035e-01" purity="3.1010240316390991e-01" nType="-99"/>
              <Node pos="r" depth="4" NCoef="0" IVar="-1" Cut="0.0000000000000000e+00" cType="1" res="-1.7240639775991440e-02" rms="4.1544309258460999e-01" purity="2.2558438777923584e-01" nType="-99"/>
            </Node>
          </Node>
        </Node>
        <Node pos="r" depth="1" NCoef="0" IVar="3" Cut="8.2585197687149048e-01" cType="1" res="1.3216213881969452e-01" rms="4.4897317886352539e-01" purity="7.0455449819564819e-01" nType="0">
          <Node pos="l" depth="2" NCoef="0" IVar="1" Cut="5.1668083667755127e-01" cType="1" res="4.9560114741325378e-02" rms="4.8921185731887817e-01" purity="5.7802897691726685e-01" nType="0">
            <Node pos="l" depth="3" NCoef="0" IVar="0" Cut="4.2297556996345520e-01" cType="1" res="6.7126147449016571e-02" rms="4.8627179861068726e-01" purity="6.0087645053863525e-01" nType="0">
              <Node pos="l" depth="4" NCoef="0" IVar="0" Cut="1.9097299873828888e-01" cType="1" res="7.6774060726165771e-02" rms="4.8411923646926880e-01" purity="6.1513775587081909e-01" nType="0">
                <Node pos="l" depth="5" NCoef="0" IVar="3" Cut="7.3421937227249146e-01" cType="1" res="9.7444571554660797e-02" rms="4.7665458917617798e-01" purity="6.4741575717926025e-01" nType="0">
                  <Node pos="l" depth="6" NCoef="0" IVar="1" Cut="-5.2228625863790512e-03" cType="1" res="5.6828584522008896e-02" rms="4.9112179875373840e-01" purity="5.9034764766693115e-01" nType="0">
                    <Node pos="l" depth="7" NCoef="0" IVar="-1" Cut="0.0000000000000000e+00" cType="1" res="6.5948199480772018e-03" rms="4.8466908931732178e-01" purity="6.2166607379913330e-01" nType="-99"/>
                    <Node pos="r" depth="7" NCoef="0" IVar="-1" Cut="0.0000000000000000e+00" cType="1" res="2.3322219494730234e-03" rms="4.9676513671875000e-01" purity="5.5466455221176147e-01" nType="-99"/>
                  </Node>
                  <Node pos="r" depth="6" NCoef="0" IVar="1" Cut="1.4146654307842255e-01" cType="1" res="1.1363439261913300e-01" rms="4.6978613734245300e-01" purity="6.7016357183456421e-01" nType="0">
                    <Node pos="l" depth="7" NCoef="0" IVar="-1" Cut="0.0000000000000000e+00" cType="1" res="9.5608429983258247e-03" rms="4.6598327159881592e-01" purity="6.8066155910491943e-01" nType="-99"/>
                    <Node pos="r" depth="7" NCoef="0" IVar="-1" Cut="0.0000000000000000e+00" cType="1" res="7.3216431774199009e-03" rms="4.7964146733283997e-01" purity="6.4071899652481079e-01" nType="-99"/>
                  </Node>
                </Node>
                <Node pos="r" depth="5" NCoef="0" IVar="3" Cut="7.6315540075302124e-01" cType="1" res="3.6322835832834244e-02" rms="4.9591732025146484e-01" purity="5.5197119712829590e-01" nType="0">
                  <Node pos="l" depth="6" NCoef="0" IVar="2" Cut="1.2183621978759766e+02" cType="1" res="1.6387360170483589e-02" rms="4.9897971749305725e-01" purity="5.2140957117080688e-01" nType="0">
                    <Node pos="l" depth="7" NCoef="0" IVar="-1" Cut="0.0000000000000000e+00" cType="1" res="3.0175710562616587e-03" rms="4.9782943725585938e-01" purity="5.4258185625076294e-01" nType="-99"/>
                    <Node pos="r" depth="7" NCoef="0" IVar="-1" Cut="0.0000000000000000e+00" cType="1" res="-6.5981672378256917e-04" rms="4.9937564134597778e-01" purity="4.9525049328804016e-01" nType="-99"/>
                  </Node>
                  <Node pos="r" depth="6" NCoef="0" IVar="-1" Cut="0.0000000000000000e+00" cType="1" res="6.0536470264196396e-03" rms="4.8918446898460388e-01" purity="6.0154497623443604e-01" nType="-99"/>
                </Node>
              </Node>
              <Node pos="r" depth="4" NCoef="0" IVar="-1" Cut="0.0000000000000000e+00" cType="1" res="-2.9727139044553041e-03" rms="4.9714595079421997e-01" purity="4.5076718926429749e-01" nType="-99"/>
            </Node>
            <Node pos="r" depth="3" NCoef="0" IVar="3" Cut="7.4866420030593872e-01" cType="1" res="-5.0162084400653839e-02" rms="4.9387603998184204e-01" purity="4.4832414388656616e-01" nType="0">
              <Node pos="l" depth="4" NCoef="0" IVar="-1" Cut="0.0000000000000000e+00" cType="1" res="-8.0252299085259438e-03" rms="4.8632726073265076e-01" purity="3.9467808604240417e-01" nType="-99"/>
              <Node pos="r" depth="4" NCoef="0" IVar="-1" Cut="0.0000000000000000e+00" cType="1" res="-1.2105175992473960e-03" rms="4.9765744805335999e-01" purity="4.9516776204109192e-01" nType="-99"/>
            </Node>
          </Node>
          <Node pos="r" depth="2" NCoef="0" IVar="2" Cut="1.8824549865722656e+02" cType="1" res="1.6186890006065369e-01" rms="4.2972522974014282e-01" purity="7.5005775690078735e-01" nType="0">
            <Node pos="l" depth="3" NCoef="0" IVar="1" Cut="1.0190397500991821e-01" cType="1" res="1.6669914126396179e-01" rms="4.2645481228828430e-01" purity="7.5669223070144653e-01" nType="0">
              <Node pos="l" depth="4" NCoef="0" IVar="3" Cut="9.7742223739624023e-01" cType="1" res="1.8666440248489380e-01" rms="4.1026312112808228e-01" purity="7.8418391942977905e-01" nType="0">
                <Node pos="l" depth="5" NCoef="0" IVar="3" Cut="8.8453549146652222e-01" cType="1" res="1.6500124335289001e-01" rms="4.3034300208091736e-01" purity="7.5297951698303223e-01" nType="0">
                  <Node pos="l" depth="6" NCoef="0" IVar="2" Cut="6.7102699279785156e+01" cType="1" res="1.5176792442798615e-01" rms="4.4248288869857788e-01" purity="7.3166352510452271e-01" nType="0">
                    <Node pos="l" depth="7" NCoef="0" IVar="-1" Cut="0.0000000000000000e+00" cType="1" res="1.2761138379573822e-02" rms="4.3545234203338623e-01" purity="7.4479776620864868e-01" nType="-99"/>
                    <Node pos="r" depth="7" NCoef="0" IVar="-1" Cut="0.0000000000000000e+00" cType="1" res="1.1214264668524265e-02" rms="4.4973471760749817e-01" purity="7.1708500385284424e-01" nType="-99"/>
                  </Node>
                  <Node pos="r" depth="6" NCoef="0" IVar="4" Cut="2.5541447103023529e-02" cType="1" res="1.7797198891639709e-01" rms="4.1769540309906006e-01" purity="7.7387255430221558e-01" nType="0">
                    <Node pos="l" depth="7" NCoef="0" IVar="-1" Cut="0.0000000000000000e+00" cType="1" res="1.4081901870667934e-02" rms="4.2242473363876343e-01" purity="7.6637780666351318e-01" nType="-99"/>
                    <Node pos="r" depth="7" NCoef="0" IVar="-1" Cut="0.0000000000000000e+00" cType="1" res="1.7145475372672081e-02" rms="4.0711447596549988e-01" purity="7.8970545530319214e-01" nType="-99"/>
                  </Node>
                </Node>
                <Node pos="r" depth="5" NCoef="0" IVar="3" Cut="1.0104234218597412e+00" cType="1" res="1.9914472103118896e-01" rms="3.9770019054412842e-01" purity="8.0216097831726074e-01" nType="0">
                  <Node pos="l" depth="6" NCoef="0" IVar="3" Cut="9.9977844953536987e-01" cType="1" res="1.9770130515098572e-01" rms="3.9848688244819641e-01" purity="8.0112725496292114e-01" nType="0">
                    <Node pos="l" depth="7" NCoef="0" IVar="-1" Cut="0.0000000000000000e+00" cType="1" res="1.5246746130287647e-02" rms="4.0479546785354614e-01" purity="7.9242980480194092e-01" nType="-99"/>
                    <Node pos="r" depth="7" NCoef="0" IVar="-1" Cut="0.0000000000000000e+00" cType="1" res="1.6297960653901100e-02" rms="3.8781508803367615e-01" purity="8.1502389907836914e-01" nType="-99"/>
                  </Node>
                  <Node pos="r" depth="6" NCoef="0" IVar="-1" Cut="0.0000000000000000e+00" cType="1" res="1.5653163194656372e-02" rms="3.9506417512893677e-01" purity="8.0556148290634155e-01" nType="-99"/>
                </Node>
              </Node>
              <Node pos="r" depth="4" NCoef="0" IVar="3" Cut="9.6354103088378906e-01" cType="1" res="1.3669006526470184e-01" rms="4.4802609086036682e-01" purity="7.1537041664123535e-01" nType="0">
                <Node pos="l" depth="5" NCoef="0" IVar="3" Cut="8.6138731241226196e-01" cType="1" res="9.3689203262329102e-02" rms="4.7193926572799683e-01" purity="6.5761810541152954e-01" nType="0">
                  <Node pos="l" depth="6" NCoef="0" IVar="-1" Cut="0.0000000000000000e+00" cType="1" res="4.9671283923089504e-03" rms="4.8467868566513062e-01" purity="6.1709946393966675e-01" nType="-99"/>
                  <Node pos="r" depth="6" NCoef="0" IVar="4" Cut="3.0911037698388100e-02" cType="1" res="1.0899552702903748e-01" rms="4.6463659405708313e-01" purity="6.7803323268890381e-01" nType="0">
                    <Node pos="l" depth="7" NCoef="0" IVar="-1" Cut="0.0000000000000000e+00" cType="1" res="8.4420852363109589e-03" rms="4.6853652596473694e-01" purity="6.6715037822723389e-01" nType="-99"/>
                    <Node pos="r" depth="7" NCoef="0" IVar="-1" Cut="0.0000000000000000e+00" cType="1" res="1.0878846980631351e-02" rms="4.5792150497436523e-01" purity="6.9493418931961060e-01" nType="-99"/>
                  </Node>
                </Node>
                <Node pos="r" depth="5" NCoef="0" IVar="-1" Cut="0.0000000000000000e+00" cType="1" res="1.2204121798276901e-02" rms="4.3535175919532776e-01" purity="7.4156260490417480e-01" nType="-99"/>
              </Node>
            </Node>
            <Node pos="r" depth="3" NCoef="0" IVar="-1" Cut="0.0000000000000000e+00" cType="1" res="3.4897672012448311e-03" rms="4.9027624726295471e-01" purity="5.8058148622512817e-01" nType="-99"/>
          </Node>
        </Node>
      </Node>
    </BinaryTree>
    <BinaryTree type="DecisionTree" boostWeight="1.0000000000000000e+00" itree="12">
      <Node pos="s" depth="0" NCoef="0" IVar="3" Cut="6.7608582973480225e-01" cType="1" res="1.3105649501085281e-02" rms="4.4282445311546326e-01" purity="4.9901795387268066e-01" nType="0">
        <Node pos="l" depth="1" NCoef="0" IVar="3" Cut="5.4526060819625854e-01" cType="1" res="-1.5398913621902466e-01" rms="3.7705874443054199e-01" purity="1.9887679815292358e-01" nType="0">
          <Node pos="l" depth="2" NCoef="0" IVar="1" Cut="1.4958879351615906e-01" cType="1" res="-1.8976067006587982e-01" rms="3.2345619797706604e-01" purity="1.2807308137416840e-01" nType="0">
            <Node pos="l" depth="3" NCoef="0" IVar="3" Cut="4.7501212358474731e-01" cType="1" res="-1.5867230296134949e-01" rms="3.6777409911155701e-01" purity="1.7329667508602142e-01" nType="0">
              <Node pos="l" depth="4" NCoef="0" IVar="4" Cut="1.5771704912185669e-01" cType="1" res="-1.7374101281166077e-01" rms="3.4011313319206238e-01" purity="1.4053681492805481e-01" nType="0">
                <Node pos="l" depth="5" NCoef="0" IVar="3" Cut="3.5267072916030884e-01" cType="1" res="-1.8995110690593719e-01" rms="3.0409377813339233e-01" purity="1.0781165212392807e-01" nType="0">
                  <Node pos="l" depth="6" NCoef="0" IVar="2" Cut="2.3737701416015625e+02" cType="1" res="-2.1253754198551178e-01" rms="2.3291809856891632e-01" purity="5.9050075709819794e-02" nType="0">
                    <Node pos="l" depth="7" NCoef="0" IVar="-1" Cut="0.0000000000000000e+00" cType="1" res="-2.9376102611422539e-02" rms="2.5906628370285034e-01" purity="7.4135057628154755e-02" nType="-99"/>
                    <Node pos="r" depth="7" NCoef="0" IVar="-1" Cut="0.0000000000000000e+00" cType="1" res="-3.2919194549322128e-02" rms="1.9855290651321411e-01" purity="4.2441882193088531e-02" nType="-99"/>
                  </Node>
                  <Node pos="r" depth="6" NCoef="0" IVar="0" Cut="1.0494261980056763e+00" cType="1" res="-1.7094923555850983e-01" rms="3.5190755128860474e-01" purity="1.4883452653884888e-01" nType="0">
                    <Node pos="l" depth="7" NCoef="0" IVar="-1" Cut="0.0000000000000000e+00" cType="1" res="-1.7536852508783340e-02" rms="3.8266587257385254e-01" purity="1.8277710676193237e-01" nType="-99"/>
                    <Node pos="r" depth="7" NCoef="0" IVar="-1" Cut="0.0000000000000000e+00" cType="1" res="-2.4473886936903000e-02" rms="3.1198692321777344e-01" purity="1.1037365347146988e-01" nType="-99"/>
                  </Node>
                </Node>
                <Node pos="r" depth="5" NCoef="0" IVar="3" Cut="2.3030178248882294e-01" cType="1" res="-1.5064886212348938e-01" rms="3.8447967171669006e-01" purity="1.8715558946132660e-01" nType="0">
                  <Node pos="l" depth="6" NCoef="0" IVar="-1" Cut="0.0000000000000000e+00" cType="1" res="-1.4619891531765461e-02" rms="3.9894992113113403e-01" purity="2.0991328358650208e-01" nType="-99"/>
                  <Node pos="r" depth="6" NCoef="0" IVar="0" Cut="5.1476675271987915e-01" cType="1" res="-1.6718353331089020e-01" rms="3.7475532293319702e-01" purity="1.7381961643695831e-01" nType="0">
                    <Node pos="l" depth="7" NCoef="0" IVar="-1" Cut="0.0000000000000000e+00" cType="1" res="-1.4171384274959564e-02" rms="4.1698360443115234e-01" purity="2.2937768697738647e-01" nType="-99"/>
                    <Node pos="r" depth="7" NCoef="0" IVar="-1" Cut="0.0000000000000000e+00" cType="1" res="-2.6020180433988571e-02" rms="3.2409796118736267e-01" purity="1.1954537779092789e-01" nType="-99"/>
                  </Node>
                </Node>
              </Node>
              <Node pos="r" depth="4" NCoef="0" IVar="0" Cut="5.6207036972045898e-01" cType="1" res="-1.0671977698802948e-01" rms="4.4641327857971191e-01" purity="2.8624299168586731e-01" nType="0">
                <Node pos="l" depth="5" NCoef="0" IVar="-1" Cut="0.0000000000000000e+00" cType="1" res="-6.7625995725393295e-03" rms="4.7414889931678772e-01" purity="3.4837949275970459e-01" nType="-99"/>
                <Node pos="r" depth="5" NCoef="0" IVar="-1" Cut="0.0000000000000000e+00" cType="1" res="-1.5395429916679859e-02" rms="4.1055786609649658e-01" purity="2.1792477369308472e-01" nType="-99"/>
              </Node>
            </Node>
            <Node pos="r" depth="3" NCoef="0" IVar="3" Cut="4.7492104768753052e-01" cType="1" res="-2.1137367188930511e-01" rms="2.8668424487113953e-01" purity="9.6633113920688629e-02" nType="0">
              <Node pos="l" depth="4" NCoef="0" IVar="4" Cut="2.3024281859397888e-01" cType="1" res="-2.1754053235054016e-01" rms="2.6242461800575256e-01" purity="7.8060463070869446e-02" nType="0">
                <Node pos="l" depth="5" NCoef="0" IVar="4" Cut="1.6348953545093536e-01" cType="1" res="-2.2143167257308960e-01" rms="2.4925209581851959e-01" purity="6.9387055933475494e-02" nType="0">
                  <Node pos="l" depth="6" NCoef="0" IVar="4" Cut="8.9809939265251160e-02" cType="1" res="-2.2638486325740814e-01" rms="2.3195500671863556e-01" purity="5.8753140270709991e-02" nType="0">
                    <Node pos="l" depth="7" NCoef="0" IVar="-1" Cut="0.0000000000000000e+00" cType="1" res="-3.2928783446550369e-02" rms="2.0826093852519989e-01" purity="4.6180590987205505e-02" nType="-99"/>
                    <Node pos="r" depth="7" NCoef="0" IVar="-1" Cut="0.0000000000000000e+00" cType="1" res="-3.0579252168536186e-02" rms="2.5675231218338013e-01" purity="7.3457680642604828e-02" nType="-99"/>
                  </Node>
                  <Node pos="r" depth="6" NCoef="0" IVar="3" Cut="2.9102149605751038e-01" cType="1" res="-1.9429869949817657e-01" rms="3.2688075304031372e-01" purity="1.2763833999633789e-01" nType="0">
                    <Node pos="l" depth="7" NCoef="0" IVar="-1" Cut="0.0000000000000000e+00" cType="1" res="-3.0872760340571404e-02" rms="2.6742604374885559e-01" purity="7.9439789056777954e-02" nType="-99"/>
                    <Node pos="r" depth="7" NCoef="0" IVar="-1" Cut="0.0000000000000000e+00" cType="1" res="-2.0197251811623573e-02" rms="3.7448745965957642e-01" purity="1.7451281845569611e-01" nType="-99"/>
                  </Node>
                </Node>
                <Node pos="r" depth="5" NCoef="0" IVar="-1" Cut="0.0000000000000000e+00" cType="1" res="-2.1599330008029938e-02" rms="3.7024074792861938e-01" purity="1.6814197599887848e-01" nType="-99"/>
              </Node>
              <Node pos="r" depth="4" NCoef="0" IVar="0" Cut="7.6454335451126099e-01" cType="1" res="-1.7723312973976135e-01" rms="3.9314037561416626e-01" purity="1.9945348799228668e-01" nType="0">
                <Node pos="l" depth="5" NCoef="0" IVar="-1" Cut="0.0000000000000000e+00" cType="1" res="-1.4955002814531326e-02" rms="4.2752811312675476e-01" purity="2.4841813743114471e-01" nType="-99"/>
                <Node pos="r" depth="5" NCoef="0" IVar="-1" Cut="0.0000000000000000e+00" cType="1" res="-2.5042455643415451e-02" rms="3.3471232652664185e-01" purity="1.2995082139968872e-01" nType="-99"/>
              </Node>
            </Node>
          </Node>
          <Node pos="r" depth="2" NCoef="0" IVar="0" Cut="5.7583475112915039e-01" cType="1" res="-5.6881673634052277e-02" rms="4.8083624243736267e-01" purity="3.9108467102050781e-01" nType="0">
            <Node pos="l" depth="3" NCoef="0" IVar="0" Cut="3.9005994796752930e-01" cType="1" res="-3.7784148007631302e-02" rms="4.9033933877944946e-01" purity="4.2683270573616028e-01" nType="0">
              <Node pos="l" depth="4" NCoef="0" IVar="3" Cut="6.0856318473815918e-01" cType="1" res="-1.7342004925012589e-02" rms="4.9606603384017944e-01" purity="4.6051099896430969e-01" nType="0">
                <Node pos="l" depth="5" NCoef="0" IVar="3" Cut="5.7588410377502441e-01" cType="1" res="-4.6394255012273788e-02" rms="4.9139928817749023e-01" purity="4.1638991236686707e-01" nType="0">
                  <Node pos="l" depth="6" NCoef="0" IVar="-1" Cut="0.0000000000000000e+00" cType="1" res="-5.6692115031182766e-03" rms="4.8821166157722473e-01" purity="3.9738941192626953e-01" nType="-99"/>
                  <Node pos="r" depth="6" NCoef="0" IVar="-1" Cut="0.0000000000000000e+00" cType="1" res="-3.0445656739175320e-03" rms="4.9348959326744080e-01" purity="4.3083360791206360e-01" nType="-99"/>
                </Node>
                <Node pos="r" depth="5" NCoef="0" IVar="5" Cut="4.0000000000000000e+00" cType="1" res="1.0751257650554180e-02" rms="3.8118869066238403e-01" purity="4.8851069808006287e-01" nType="0">
                  <Node pos="l" depth="6" NCoef="0" IVar="3" Cut="6.5213757753372192e-01" cType="1" res="-1.8653584644198418e-02" rms="4.9731925129890442e-01" purity="4.6694335341453552e-01" nType="0">
                    <Node pos="l" depth="7" NCoef="0" IVar="-1" Cut="0.0000000000000000e+00" cType="1" res="-3.7392210215330124e-03" rms="4.9456876516342163e-01" purity="4.3869796395301819e-01" nType="-99"/>
                    <Node pos="r" depth="7" NCoef="0" IVar="-1" Cut="0.0000000000000000e+00" cType="1" res="8.0491724656894803e-04" rms="4.9888151884078979e-01" purity="4.9883714318275452e-01" nType="-99"/>
                  </Node>
                  <Node pos="r" depth="6" NCoef="0" IVar="-1" Cut="0.0000000000000000e+00" cType="1" res="2.6048091240227222e-03" rms="4.9790343642234802e-01" purity="5.1986891031265259e-01" nType="-99"/>
                </Node>
              </Node>
              <Node pos="r" depth="4" NCoef="0" IVar="2" Cut="1.3804759216308594e+02" cType="1" res="-9.1059967875480652e-02" rms="4.7093892097473145e-01" purity="3.3906117081642151e-01" nType="0">
                <Node pos="l" depth="5" NCoef="0" IVar="-1" Cut="0.0000000000000000e+00" cType="1" res="-5.1380982622504234e-03" rms="4.8316162824630737e-01" purity="3.8018858432769775e-01" nType="-99"/>
                <Node pos="r" depth="5" NCoef="0" IVar="-1" Cut="0.0000000000000000e+00" cType="1" res="-1.2156920507550240e-02" rms="4.5610317587852478e-01" purity="2.9831853508949280e-01" nType="-99"/>
              </Node>
            </Node>
            <Node pos="r" depth="3" NCoef="0" IVar="2" Cut="1.1319300842285156e+02" cType="1" res="-1.2048491090536118e-01" rms="4.4182139635086060e-01" purity="2.7202782034873962e-01" nType="0">
              <Node pos="l" depth="4" NCoef="0" IVar="-1" Cut="0.0000000000000000e+00" cType="1" res="-8.5855033248662949e-03" rms="4.6088862419128418e-01" purity="3.1330654025077820e-01" nType="-99"/>
              <Node pos="r" depth="4" NCoef="0" IVar="-1" Cut="0.0000000000000000e+00" cType="1" res="-1.4711821451783180e-02" rms="4.2704942822456360e-01" purity="2.4387763440608978e-01" nType="-99"/>
            </Node>
          </Node>
        </Node>
        <Node pos="r" depth="1" NCoef="0" IVar="3" Cut="8.2561016082763672e-01" cType="1" res="1.2803186476230621e-01" rms="4.4807106256484985e-01" purity="7.0545220375061035e-01" nType="0">
          <Node pos="l" depth="2" NCoef="0" IVar="1" Cut="-1.1595818214118481e-02" cType="1" res="4.4957891106605530e-02" rms="4.8941451311111450e-01" purity="5.7537204027175903e-01" nType="0">
            <Node pos="l" depth="3" NCoef="0" IVar="3" Cut="7.7254182100296021e-01" cType="1" res="8.4848843514919281e-02" rms="4.8059180378913879e-01" purity="6.2646913528442383e-01" nType="0">
              <Node pos="l" depth="4" NCoef="0" IVar="2" Cut="1.3854431152343750e+02" cType="1" res="6.4703054726123810e-02" rms="4.8782539367675781e-01" purity="5.9544354677200317e-01" nType="0">
                <Node pos="l" depth="5" NCoef="0" IVar="0" Cut="1.8475058674812317e-01" cType="1" res="9.0242467820644379e-02" rms="4.8200279474258423e-01" purity="6.2174415588378906e-01" nType="0">
                  <Node pos="l" depth="6" NCoef="0" IVar="-1" Cut="0.0000000000000000e+00" cType="1" res="9.0087130665779114e-03" rms="4.6980857849121094e-01" purity="6.7027145624160767e-01" nType="-99"/>
                  <Node pos="r" depth="6" NCoef="0" IVar="-1" Cut="0.0000000000000000e+00" cType="1" res="4.8776851035654545e-03" rms="4.9382284283638000e-01" purity="5.6563961505889893e-01" nType="-99"/>
                </Node>
                <Node pos="r" depth="5" NCoef="0" IVar="-1" Cut="0.0000000000000000e+00" cType="1" res="2.7977074496448040e-03" rms="4.9321144819259644e-01" purity="5.6209915876388550e-01" nType="-99"/>
              </Node>
              <Node pos="r" depth="4" NCoef="0" IVar="3" Cut="7.9822087287902832e-01" cType="1" res="1.1621981114149094e-01" rms="4.6737986803054810e-01" purity="6.7478203773498535e-01" nType="0">
                <Node pos="l" depth="5" NCoef="0" IVar="-1" Cut="0.0000000000000000e+00" cType="1" res="8.2079330459237099e-03" rms="4.7333979606628418e-01" purity="6.5674299001693726e-01" nType="-99"/>
                <Node pos="r" depth="5" NCoef="0" IVar="-1" Cut="0.0000000000000000e+00" cType="1" res="1.0339248925447464e-02" rms="4.6209946274757385e-01" purity="6.8933224678039551e-01" nType="-99"/>
              </Node>
            </Node>
            <Node pos="r" depth="3" NCoef="0" IVar="0" Cut="4.2297556996345520e-01" cType="1" res="1.5685014426708221e-02" rms="4.9374294281005859e-01" purity="5.3787583112716675e-01" nType="0">
              <Node pos="l" depth="4" NCoef="0" IVar="0" Cut="1.9101324677467346e-01" cType="1" res="2.6856718584895134e-02" rms="4.9311405420303345e-01" purity="5.5437499284744263e-01" nType="0">
                <Node pos="l" depth="5" NCoef="0" IVar="3" Cut="7.2914910316467285e-01" cType="1" res="5.0860442221164703e-02" rms="4.8920720815658569e-01" purity="5.8874720335006714e-01" nType="0">
                  <Node pos="l" depth="6" NCoef="0" IVar="-1" Cut="0.0000000000000000e+00" cType="1" res="7.8063580440357327e-04" rms="4.9781733751296997e-01" purity="5.2701610326766968e-01" nType="-99"/>
                  <Node pos="r" depth="6" NCoef="0" IVar="2" Cut="1.2365695190429688e+02" cType="1" res="6.5712839365005493e-02" rms="4.8522964119911194e-01" purity="6.1081659793853760e-01" nType="0">
                    <Node pos="l" depth="7" NCoef="0" IVar="-1" Cut="0.0000000000000000e+00" cType="1" res="6.2086926773190498e-03" rms="4.8100486397743225e-01" purity="6.2740391492843628e-01" nType="-99"/>
                    <Node pos="r" depth="7" NCoef="0" IVar="-1" Cut="0.0000000000000000e+00" cType="1" res="4.1439468041062355e-03" rms="4.8971426486968994e-01" purity="5.9101569652557373e-01" nType="-99"/>
                  </Node>
                </Node>
                <Node pos="r" depth="5" NCoef="0" IVar="3" Cut="7.4365741014480591e-01" cType="1" res="-1.6281023621559143e-02" rms="4.9715402722358704e-01" purity="4.9260362982749939e-01" nType="0">
                  <Node pos="l" depth="6" NCoef="0" IVar="-1" Cut="0.0000000000000000e+00" cType="1" res="-3.4001942258328199e-03" rms="4.9590089917182922e-01" purity="4.5565825700759888e-01" nType="-99"/>
                  <Node pos="r" depth="6" NCoef="0" IVar="-1" Cut="0.0000000000000000e+00" cType="1" res="3.5710234078578651e-04" rms="4.9745655059814453e-01" purity="5.2694571018218994e-01" nType="-99"/>
                </Node>
              </Node>
              <Node pos="r" depth="4" NCoef="0" IVar="-1" Cut="0.0000000000000000e+00" cType="1" res="-6.5451054833829403e-03" rms="4.8966354131698608e-01" purity="4.0598776936531067e-01" nType="-99"/>
            </Node>
          </Node>
          <Node pos="r" depth="2" NCoef="0" IVar="2" Cut="1.8824549865722656e+02" cType="1" res="1.5791293978691101e-01" rms="4.2831200361251831e-01" purity="7.5224107503890991e-01" nType="0">
            <Node pos="l" depth="3" NCoef="0" IVar="0" Cut="5.5945098400115967e-01" cType="1" res="1.6294999420642853e-01" rms="4.2488658428192139e-01" purity="7.5924307107925415e-01" nType="0">
              <Node pos="l" depth="4" NCoef="0" IVar="1" Cut="1.0112282037734985e+00" cType="1" res="1.6852697730064392e-01" rms="4.2141276597976685e-01" purity="7.6604259014129639e-01" nType="0">
                <Node pos="l" depth="5" NCoef="0" IVar="3" Cut="9.8653882741928101e-01" cType="1" res="1.7398449778556824e-01" rms="4.1730669140815735e-01" purity="7.7318620681762695e-01" nType="0">
                  <Node pos="l" depth="6" NCoef="0" IVar="0" Cut="1.8037535250186920e-02" cType="1" res="1.4937981963157654e-01" rms="4.3763327598571777e-01" purity="7.3892480134963989e-01" nType="0">
                    <Node pos="l" depth="7" NCoef="0" IVar="-1" Cut="0.0000000000000000e+00" cType="1" res="1.2727355584502220e-02" rms="4.3377658724784851e-01" purity="7.4633568525314331e-01" nType="-99"/>
                    <Node pos="r" depth="7" NCoef="0" IVar="-1" Cut="0.0000000000000000e+00" cType="1" res="7.4620698578655720e-03" rms="4.7139531373977661e-01" purity="6.6139596700668335e-01" nType="-99"/>
                  </Node>
                  <Node pos="r" depth="6" NCoef="0" IVar="0" Cut="1.8022912740707397e-01" cType="1" res="1.9062535464763641e-01" rms="4.0212592482566833e-01" purity="7.9635828733444214e-01" nType="0">
                    <Node pos="l" depth="7" NCoef="0" IVar="-1" Cut="0.0000000000000000e+00" cType="1" res="1.5222189947962761e-02" rms="3.9902949333190918e-01" purity="8.0075538158416748e-01" nType="-99"/>
                    <Node pos="r" depth="7" NCoef="0" IVar="-1" Cut="0.0000000000000000e+00" cType="1" res="1.0043834336102009e-02" rms="4.5048454403877258e-01" purity="7.1448898315429688e-01" nType="-99"/>
                  </Node>
                </Node>
                <Node pos="r" depth="5" NCoef="0" IVar="-1" Cut="0.0000000000000000e+00" cType="1" res="4.7388467937707901e-03" rms="4.8360058665275574e-01" purity="6.2344682216644287e-01" nType="-99"/>
              </Node>
              <Node pos="r" depth="4" NCoef="0" IVar="-1" Cut="0.0000000000000000e+00" cType="1" res="-5.5208578705787659e-03" rms="4.9745061993598938e-01" purity="4.8137018084526062e-01" nType="-99"/>
            </Node>
            <Node pos="r" depth="3" NCoef="0" IVar="-1" Cut="0.0000000000000000e+00" cType="1" res="2.4902557488530874e-03" rms="4.9139842391014099e-01" purity="5.7087469100952148e-01" nType="-99"/>
          </Node>
        </Node>
      </Node>
    </BinaryTree>
    <BinaryTree type="DecisionTree" boostWeight="1.0000000000000000e+00" itree="13">
      <Node pos="s" depth="0" NCoef="0" IVar="3" Cut="6.7569339275360107e-01" cType="1" res="1.5059802681207657e-02" rms="4.4047147035598755e-01" purity="5.0132143497467041e-01" nType="0">
        <Node pos="l" depth="1" NCoef="0" IVar="3" Cut="5.0166279077529907e-01" cType="1" res="-1.4556014537811279e-01" rms="3.7635889649391174e-01" purity="1.9882257282733917e-01" nType="0">
          <Node pos="l" depth="2" NCoef="0" IVar="4" Cut="2.3024281859397888e-01" cType="1" res="-1.8566825985908508e-01" rms="3.0562767386436462e-01" purity="1.1079724878072739e-01" nType="0">
            <Node pos="l" depth="3" NCoef="0" IVar="3" Cut="4.3746510148048401e-01" cType="1" res="-1.9284555315971375e-01" rms="2.9037797451019287e-01" purity="9.8351918160915375e-02" nType="0">
              <Node pos="l" depth="4" NCoef="0" IVar="4" Cut="1.9314983487129211e-01" cType="1" res="-2.0252257585525513e-01" rms="2.6004597544670105e-01" purity="7.5566418468952179e-02" nType="0">
                <Node pos="l" depth="5" NCoef="0" IVar="3" Cut="3.8186851143836975e-01" cType="1" res="-2.0568573474884033e-01" rms="2.4955117702484131e-01" purity="6.8844571709632874e-02" nType="0">
                  <Node pos="l" depth="6" NCoef="0" IVar="5" Cut="4.0000000000000000e+00" cType="1" res="9.5177270472049713e-02" rms="0.0000000000000000e+00" purity="5.4817739874124527e-02" nType="0">
                    <Node pos="l" depth="7" NCoef="0" IVar="-1" Cut="0.0000000000000000e+00" cType="1" res="-2.4938786402344704e-02" rms="3.1359884142875671e-01" purity="1.1160782724618912e-01" nType="-99"/>
                    <Node pos="r" depth="7" NCoef="0" IVar="-1" Cut="0.0000000000000000e+00" cType="1" res="-3.2458838075399399e-02" rms="2.1029551327228546e-01" purity="4.7027561813592911e-02" nType="-99"/>
                  </Node>
                  <Node pos="r" depth="6" NCoef="0" IVar="0" Cut="9.6610724925994873e-01" cType="1" res="-1.8852911889553070e-01" rms="3.1861817836761475e-01" purity="1.1752899736166000e-01" nType="0">
                    <Node pos="l" depth="7" NCoef="0" IVar="-1" Cut="0.0000000000000000e+00" cType="1" res="-1.8277557566761971e-02" rms="3.7629860639572144e-01" purity="1.7248761653900146e-01" nType="-99"/>
                    <Node pos="r" depth="7" NCoef="0" IVar="-1" Cut="0.0000000000000000e+00" cType="1" res="-2.8344556689262390e-02" rms="2.6914563775062561e-01" purity="7.9685188829898834e-02" nType="-99"/>
                  </Node>
                </Node>
                <Node pos="r" depth="5" NCoef="0" IVar="-1" Cut="0.0000000000000000e+00" cType="1" res="-2.2419173270463943e-02" rms="3.4094426035881042e-01" purity="1.3787081837654114e-01" nType="-99"/>
              </Node>
              <Node pos="r" depth="4" NCoef="0" IVar="4" Cut="1.1139996349811554e-01" cType="1" res="-1.5493987500667572e-01" rms="3.8459473848342896e-01" purity="1.8760441243648529e-01" nType="0">
                <Node pos="l" depth="5" NCoef="0" IVar="2" Cut="1.8640100097656250e+02" cType="1" res="-1.8192240595817566e-01" rms="3.4743455052375793e-01" purity="1.4428783953189850e-01" nType="0">
                  <Node pos="l" depth="6" NCoef="0" IVar="-1" Cut="0.0000000000000000e+00" cType="1" res="-1.9054437056183815e-02" rms="3.6751088500022888e-01" purity="1.6607621312141418e-01" nType="-99"/>
                  <Node pos="r" depth="6" NCoef="0" IVar="-1" Cut="0.0000000000000000e+00" cType="1" res="-2.5505332276225090e-02" rms="3.0962476134300232e-01" purity="1.0901720821857452e-01" nType="-99"/>
                </Node>
                <Node pos="r" depth="5" NCoef="0" IVar="-1" Cut="0.0000000000000000e+00" cType="1" res="-1.1926468461751938e-02" rms="4.3266838788986206e-01" purity="2.5475016236305237e-01" nType="-99"/>
              </Node>
            </Node>
            <Node pos="r" depth="3" NCoef="0" IVar="5" Cut="6.0000000000000000e+00" cType="1" res="1.8033862113952637e-01" rms="0.0000000000000000e+00" purity="2.1329650282859802e-01" nType="0">
              <Node pos="l" depth="4" NCoef="0" IVar="-1" Cut="0.0000000000000000e+00" cType="1" res="-7.8532481566071510e-03" rms="4.4858345389366150e-01" purity="2.8718402981758118e-01" nType="-99"/>
              <Node pos="r" depth="4" NCoef="0" IVar="-1" Cut="0.0000000000000000e+00" cType="1" res="-1.9737284630537033e-02" rms="3.7261494994163513e-01" purity="1.6802652180194855e-01" nType="-99"/>
            </Node>
          </Node>
          <Node pos="r" depth="2" NCoef="0" IVar="1" Cut="4.8374661803245544e-01" cType="1" res="-7.2029441595077515e-02" rms="4.7087675333023071e-01" purity="3.6020040512084961e-01" nType="0">
            <Node pos="l" depth="3" NCoef="0" IVar="0" Cut="2.8103512525558472e-01" cType="1" res="-4.8398438841104507e-02" rms="4.8029354214668274e-01" purity="3.9085713028907776e-01" nType="0">
              <Node pos="l" depth="4" NCoef="0" IVar="3" Cut="6.0831999778747559e-01" cType="1" res="-1.0962373344227672e-03" rms="4.9634030461311340e-01" purity="4.7735053300857544e-01" nType="0">
                <Node pos="l" depth="5" NCoef="0" IVar="3" Cut="5.6358337402343750e-01" cType="1" res="-3.9939060807228088e-02" rms="4.9142199754714966e-01" purity="4.1787728667259216e-01" nType="0">
                  <Node pos="l" depth="6" NCoef="0" IVar="-1" Cut="0.0000000000000000e+00" cType="1" res="-4.0653417818248272e-03" rms="4.8791581392288208e-01" purity="4.0028259158134460e-01" nType="-99"/>
                  <Node pos="r" depth="6" NCoef="0" IVar="-1" Cut="0.0000000000000000e+00" cType="1" res="-3.0592945404350758e-03" rms="4.9481284618377686e-01" purity="4.3529996275901794e-01" nType="-99"/>
                </Node>
                <Node pos="r" depth="5" NCoef="0" IVar="1" Cut="2.1937187761068344e-02" cType="1" res="3.3245123922824860e-02" rms="4.9813210964202881e-01" purity="5.2993148565292358e-01" nType="0">
                  <Node pos="l" depth="6" NCoef="0" IVar="-1" Cut="0.0000000000000000e+00" cType="1" res="5.0216396339237690e-03" rms="4.9596956372261047e-01" purity="5.5946218967437744e-01" nType="-99"/>
                  <Node pos="r" depth="6" NCoef="0" IVar="-1" Cut="0.0000000000000000e+00" cType="1" res="5.2670453442260623e-05" rms="4.9869874119758606e-01" purity="4.9513623118400574e-01" nType="-99"/>
                </Node>
              </Node>
              <Node pos="r" depth="4" NCoef="0" IVar="3" Cut="5.5779832601547241e-01" cType="1" res="-7.8929476439952850e-02" rms="4.6710836887359619e-01" purity="3.3503025770187378e-01" nType="0">
                <Node pos="l" depth="5" NCoef="0" IVar="5" Cut="4.0000000000000000e+00" cType="1" res="-1.1193732917308807e-01" rms="4.4146537780761719e-01" purity="2.7284723520278931e-01" nType="0">
                  <Node pos="l" depth="6" NCoef="0" IVar="-1" Cut="0.0000000000000000e+00" cType="1" res="-1.3738897629082203e-02" rms="4.2448449134826660e-01" purity="2.4184870719909668e-01" nType="-99"/>
                  <Node pos="r" depth="6" NCoef="0" IVar="-1" Cut="0.0000000000000000e+00" cType="1" res="-9.5290457829833031e-03" rms="4.5355808734893799e-01" purity="2.9618185758590698e-01" nType="-99"/>
                </Node>
                <Node pos="r" depth="5" NCoef="0" IVar="2" Cut="1.8410244750976562e+02" cType="1" res="-6.0889802873134613e-02" rms="4.7901630401611328e-01" purity="3.6784726381301880e-01" nType="0">
                  <Node pos="l" depth="6" NCoef="0" IVar="4" Cut="6.4805775880813599e-02" cType="1" res="-3.9022039622068405e-02" rms="4.8667040467262268e-01" purity="3.9648455381393433e-01" nType="0">
                    <Node pos="l" depth="7" NCoef="0" IVar="-1" Cut="0.0000000000000000e+00" cType="1" res="-6.6963359713554382e-03" rms="4.7837710380554199e-01" purity="3.6203503608703613e-01" nType="-99"/>
                    <Node pos="r" depth="7" NCoef="0" IVar="-1" Cut="0.0000000000000000e+00" cType="1" res="1.3051576679572463e-03" rms="4.9540117383003235e-01" purity="4.5378798246383667e-01" nType="-99"/>
                  </Node>
                  <Node pos="r" depth="6" NCoef="0" IVar="-1" Cut="0.0000000000000000e+00" cType="1" res="-9.6352165564894676e-03" rms="4.6324318647384644e-01" purity="3.1885668635368347e-01" nType="-99"/>
                </Node>
              </Node>
            </Node>
            <Node pos="r" depth="3" NCoef="0" IVar="0" Cut="5.7583469152450562e-01" cType="1" res="-1.6060785949230194e-01" rms="4.2215088009834290e-01" purity="2.4528697133064270e-01" nType="0">
              <Node pos="l" depth="4" NCoef="0" IVar="-1" Cut="0.0000000000000000e+00" cType="1" res="-1.2780252844095230e-02" rms="4.5596703886985779e-01" purity="3.0424451828002930e-01" nType="-99"/>
              <Node pos="r" depth="4" NCoef="0" IVar="-1" Cut="0.0000000000000000e+00" cType="1" res="-2.2813323885202408e-02" rms="3.6051666736602783e-01" purity="1.5467870235443115e-01" nType="-99"/>
            </Node>
          </Node>
        </Node>
        <Node pos="r" depth="1" NCoef="0" IVar="3" Cut="8.2485902309417725e-01" cType="1" res="1.2371367216110229e-01" rms="4.4741857051849365e-01" purity="7.0595145225524902e-01" nType="0">
          <Node pos="l" depth="2" NCoef="0" IVar="1" Cut="5.1668083667755127e-01" cType="1" res="4.5249462127685547e-02" rms="4.8868560791015625e-01" purity="5.7722854614257812e-01" nType="0">
            <Node pos="l" depth="3" NCoef="0" IVar="0" Cut="4.2297556996345520e-01" cType="1" res="6.2357950955629349e-02" rms="4.8588028550148010e-01" purity="6.0071164369583130e-01" nType="0">
              <Node pos="l" depth="4" NCoef="0" IVar="0" Cut="2.0461392402648926e-01" cType="1" res="7.1938112378120422e-02" rms="4.8382228612899780e-01" purity="6.1554759740829468e-01" nType="0">
                <Node pos="l" depth="5" NCoef="0" IVar="3" Cut="7.2381424903869629e-01" cType="1" res="9.0362556278705597e-02" rms="4.7682029008865356e-01" purity="6.4631587266921997e-01" nType="0">
                  <Node pos="l" depth="6" NCoef="0" IVar="-1" Cut="0.0000000000000000e+00" cType="1" res="4.4250367209315300e-03" rms="4.9141329526901245e-01" purity="5.8914905786514282e-01" nType="-99"/>
                  <Node pos="r" depth="6" NCoef="0" IVar="1" Cut="1.4138039946556091e-01" cType="1" res="1.0118907690048218e-01" rms="4.7181212902069092e-01" purity="6.6348433494567871e-01" nType="0">
                    <Node pos="l" depth="7" NCoef="0" IVar="-1" Cut="0.0000000000000000e+00" cType="1" res="9.0678539127111435e-03" rms="4.6632874011993408e-01" purity="6.7945444583892822e-01" nType="-99"/>
                    <Node pos="r" depth="7" NCoef="0" IVar="-1" Cut="0.0000000000000000e+00" cType="1" res="5.3766202181577682e-03" rms="4.8526132106781006e-01" purity="6.1827707290649414e-01" nType="-99"/>
                  </Node>
                </Node>
                <Node pos="r" depth="5" NCoef="0" IVar="3" Cut="7.1900528669357300e-01" cType="1" res="3.3391371369361877e-02" rms="4.9594426155090332e-01" purity="5.5117553472518921e-01" nType="0">
                  <Node pos="l" depth="6" NCoef="0" IVar="-1" Cut="0.0000000000000000e+00" cType="1" res="-5.5682775564491749e-04" rms="4.9950703978538513e-01" purity="4.9331012368202209e-01" nType="-99"/>
                  <Node pos="r" depth="6" NCoef="0" IVar="4" Cut="3.9617851376533508e-02" cType="1" res="4.8509795218706131e-02" rms="4.9374279379844666e-01" purity="5.7319366931915283e-01" nType="0">
                    <Node pos="l" depth="7" NCoef="0" IVar="-1" Cut="0.0000000000000000e+00" cType="1" res="2.2606428246945143e-03" rms="4.9676656723022461e-01" purity="5.5299574136734009e-01" nType="-99"/>
                    <Node pos="r" depth="7" NCoef="0" IVar="-1" Cut="0.0000000000000000e+00" cType="1" res="5.2438625134527683e-03" rms="4.9147900938987732e-01" purity="5.8497482538223267e-01" nType="-99"/>
                  </Node>
                </Node>
              </Node>
              <Node pos="r" depth="4" NCoef="0" IVar="-1" Cut="0.0000000000000000e+00" cType="1" res="-3.4704206045717001e-03" rms="4.9592962861061096e-01" purity="4.4284674525260925e-01" nType="-99"/>
            </Node>
            <Node pos="r" depth="3" NCoef="0" IVar="3" Cut="7.4789345264434814e-01" cType="1" res="-5.0597444176673889e-02" rms="4.9325838685035706e-01" purity="4.4566926360130310e-01" nType="0">
              <Node pos="l" depth="4" NCoef="0" IVar="-1" Cut="0.0000000000000000e+00" cType="1" res="-8.0723343417048454e-03" rms="4.8510912060737610e-01" purity="3.8861036300659180e-01" nType="-99"/>
              <Node pos="r" depth="4" NCoef="0" IVar="-1" Cut="0.0000000000000000e+00" cType="1" res="-1.2048418866470456e-03" rms="4.9747177958488464e-01" purity="4.9533328413963318e-01" nType="-99"/>
            </Node>
          </Node>
          <Node pos="r" depth="2" NCoef="0" IVar="2" Cut="1.8824555969238281e+02" cType="1" res="1.5186755359172821e-01" rms="4.2815962433815002e-01" purity="7.5213873386383057e-01" nType="0">
            <Node pos="l" depth="3" NCoef="0" IVar="0" Cut="3.6542326211929321e-01" cType="1" res="1.5663839876651764e-01" rms="4.2477196455001831e-01" purity="7.5908917188644409e-01" nType="0">
              <Node pos="l" depth="4" NCoef="0" IVar="1" Cut="1.0112282037734985e+00" cType="1" res="1.6427077353000641e-01" rms="4.1980534791946411e-01" purity="7.6863563060760498e-01" nType="0">
                <Node pos="l" depth="5" NCoef="0" IVar="3" Cut="9.1446387767791748e-01" cType="1" res="1.6916571557521820e-01" rms="4.1589409112930298e-01" purity="7.7547162771224976e-01" nType="0">
                  <Node pos="l" depth="6" NCoef="0" IVar="1" Cut="2.7449715137481689e-01" cType="1" res="1.3754184544086456e-01" rms="4.4387131929397583e-01" purity="7.2748500108718872e-01" nType="0">
                    <Node pos="l" depth="7" NCoef="0" IVar="-1" Cut="0.0000000000000000e+00" cType="1" res="1.2205051258206367e-02" rms="4.3700757622718811e-01" purity="7.4142336845397949e-01" nType="-99"/>
                    <Node pos="r" depth="7" NCoef="0" IVar="-1" Cut="0.0000000000000000e+00" cType="1" res="8.4883635863661766e-03" rms="4.6867594122886658e-01" purity="6.7191272974014282e-01" nType="-99"/>
                  </Node>
                  <Node pos="r" depth="6" NCoef="0" IVar="1" Cut="4.7345489263534546e-01" cType="1" res="1.8033191561698914e-01" rms="4.0496519207954407e-01" purity="7.9241538047790527e-01" nType="0">
                    <Node pos="l" depth="7" NCoef="0" IVar="-1" Cut="0.0000000000000000e+00" cType="1" res="1.4822841621935368e-02" rms="4.0014871954917908e-01" purity="7.9943829774856567e-01" nType="-99"/>
                    <Node pos="r" depth="7" NCoef="0" IVar="-1" Cut="0.0000000000000000e+00" cType="1" res="1.0677353478968143e-02" rms="4.4364154338836670e-01" purity="7.2946310043334961e-01" nType="-99"/>
                  </Node>
                </Node>
                <Node pos="r" depth="5" NCoef="0" IVar="-1" Cut="0.0000000000000000e+00" cType="1" res="5.3930417634546757e-03" rms="4.8010772466659546e-01" purity="6.3501906394958496e-01" nType="-99"/>
              </Node>
              <Node pos="r" depth="4" NCoef="0" IVar="-1" Cut="0.0000000000000000e+00" cType="1" res="-8.7148457532748580e-04" rms="4.9303898215293884e-01" purity="5.4997688531875610e-01" nType="-99"/>
            </Node>
            <Node pos="r" depth="3" NCoef="0" IVar="-1" Cut="0.0000000000000000e+00" cType="1" res="2.8598713688552380e-03" rms="4.9110269546508789e-01" purity="5.7668477296829224e-01" nType="-99"/>
          </Node>
        </Node>
      </Node>
    </BinaryTree>
    <BinaryTree type="DecisionTree" boostWeight="1.0000000000000000e+00" itree="14">
      <Node pos="s" depth="0" NCoef="0" IVar="3" Cut="6.7608582973480225e-01" cType="1" res="1.3450120575726032e-02" rms="4.3770000338554382e-01" purity="4.9899536371231079e-01" nType="0">
        <Node pos="l" depth="1" NCoef="0" IVar="3" Cut="5.4525941610336304e-01" cType="1" res="-1.4058813452720642e-01" rms="3.7341183423995972e-01" purity="1.9587475061416626e-01" nType="0">
          <Node pos="l" depth="2" NCoef="0" IVar="1" Cut="1.4958879351615906e-01" cType="1" res="-1.7107303440570831e-01" rms="3.2108503580093384e-01" purity="1.2638248503208160e-01" nType="0">
            <Node pos="l" depth="3" NCoef="0" IVar="3" Cut="4.7502589225769043e-01" cType="1" res="-1.3951700925827026e-01" rms="3.6831036210060120e-01" purity="1.7506578564643860e-01" nType="0">
              <Node pos="l" depth="4" NCoef="0" IVar="4" Cut="2.4782444536685944e-01" cType="1" res="-1.5193821489810944e-01" rms="3.4139931201934814e-01" purity="1.4308588206768036e-01" nType="0">
                <Node pos="l" depth="5" NCoef="0" IVar="4" Cut="1.4425764977931976e-01" cType="1" res="-1.6338643431663513e-01" rms="3.2286694645881653e-01" purity="1.2467598915100098e-01" nType="0">
                  <Node pos="l" depth="6" NCoef="0" IVar="2" Cut="2.1454653930664062e+02" cType="1" res="-1.7852811515331268e-01" rms="2.8897619247436523e-01" purity="9.5924034714698792e-02" nType="0">
                    <Node pos="l" depth="7" NCoef="0" IVar="-1" Cut="0.0000000000000000e+00" cType="1" res="-2.2661741822957993e-02" rms="3.1314468383789062e-01" purity="1.1502987146377563e-01" nType="-99"/>
                    <Node pos="r" depth="7" NCoef="0" IVar="-1" Cut="0.0000000000000000e+00" cType="1" res="-2.7631092816591263e-02" rms="2.5611200928688049e-01" purity="7.3587775230407715e-02" nType="-99"/>
                  </Node>
                  <Node pos="r" depth="6" NCoef="0" IVar="3" Cut="3.5276928544044495e-01" cType="1" res="-1.4043743908405304e-01" rms="3.6714646220207214e-01" purity="1.6825297474861145e-01" nType="0">
                    <Node pos="l" depth="7" NCoef="0" IVar="-1" Cut="0.0000000000000000e+00" cType="1" res="-2.2763617336750031e-02" rms="3.2206615805625916e-01" purity="1.2185484915971756e-01" nType="-99"/>
                    <Node pos="r" depth="7" NCoef="0" IVar="-1" Cut="0.0000000000000000e+00" cType="1" res="-1.1475303210318089e-02" rms="4.2581656575202942e-01" purity="2.4102315306663513e-01" nType="-99"/>
                  </Node>
                </Node>
                <Node pos="r" depth="5" NCoef="0" IVar="-1" Cut="0.0000000000000000e+00" cType="1" res="-8.4950523450970650e-03" rms="4.3786641955375671e-01" purity="2.6547059416770935e-01" nType="-99"/>
              </Node>
              <Node pos="r" depth="4" NCoef="0" IVar="0" Cut="5.3901034593582153e-01" cType="1" res="-9.6560917794704437e-02" rms="4.4645678997039795e-01" purity="2.8566139936447144e-01" nType="0">
                <Node pos="l" depth="5" NCoef="0" IVar="-1" Cut="0.0000000000000000e+00" cType="1" res="-6.4692315645515919e-03" rms="4.7303953766822815e-01" purity="3.4513720870018005e-01" nType="-99"/>
                <Node pos="r" depth="5" NCoef="0" IVar="-1" Cut="0.0000000000000000e+00" cType="1" res="-1.3300972059369087e-02" rms="4.1700762510299683e-01" purity="2.2737315297126770e-01" nType="-99"/>
              </Node>
            </Node>
            <Node pos="r" depth="3" NCoef="0" IVar="4" Cut="1.1532030999660492e-01" cType="1" res="-1.9317084550857544e-01" rms="2.8126722574234009e-01" purity="9.2290885746479034e-02" nType="0">
              <Node pos="l" depth="4" NCoef="0" IVar="2" Cut="1.5144442749023438e+02" cType="1" res="-2.0509712398052216e-01" rms="2.4437347054481506e-01" purity="6.6921763122081757e-02" nType="0">
                <Node pos="l" depth="5" NCoef="0" IVar="2" Cut="6.3656215667724609e+01" cType="1" res="-1.9608081877231598e-01" rms="2.6019397377967834e-01" purity="7.6920561492443085e-02" nType="0">
                  <Node pos="l" depth="6" NCoef="0" IVar="-1" Cut="0.0000000000000000e+00" cType="1" res="-2.6765000075101852e-02" rms="2.8151860833168030e-01" purity="8.9625760912895203e-02" nType="-99"/>
                  <Node pos="r" depth="6" NCoef="0" IVar="4" Cut="6.1845347285270691e-02" cType="1" res="-2.0194070041179657e-01" rms="2.4855817854404449e-01" purity="7.0522531867027283e-02" nType="0">
                    <Node pos="l" depth="7" NCoef="0" IVar="-1" Cut="0.0000000000000000e+00" cType="1" res="-3.0592547729611397e-02" rms="2.2149890661239624e-01" purity="5.4049570113420486e-02" nType="-99"/>
                    <Node pos="r" depth="7" NCoef="0" IVar="-1" Cut="0.0000000000000000e+00" cType="1" res="-2.8128722682595253e-02" rms="2.7044644951820374e-01" purity="8.5595801472663879e-02" nType="-99"/>
                  </Node>
                </Node>
                <Node pos="r" depth="5" NCoef="0" IVar="5" Cut="4.0000000000000000e+00" cType="1" res="-2.1509356796741486e-01" rms="2.2501936554908752e-01" purity="5.5767785757780075e-02" nType="0">
                  <Node pos="l" depth="6" NCoef="0" IVar="-1" Cut="0.0000000000000000e+00" cType="1" res="-3.2128948718309402e-02" rms="2.2828273475170135e-01" purity="5.5608149617910385e-02" nType="-99"/>
                  <Node pos="r" depth="6" NCoef="0" IVar="4" Cut="7.2845071554183960e-02" cType="1" res="-2.0990270376205444e-01" rms="2.2380915284156799e-01" purity="5.5810723453760147e-02" nType="0">
                    <Node pos="l" depth="7" NCoef="0" IVar="-1" Cut="0.0000000000000000e+00" cType="1" res="-3.1144483014941216e-02" rms="1.9159372150897980e-01" purity="3.9663475006818771e-02" nType="-99"/>
                    <Node pos="r" depth="7" NCoef="0" IVar="-1" Cut="0.0000000000000000e+00" cType="1" res="-2.8654538094997406e-02" rms="2.3882602155208588e-01" purity="6.4346775412559509e-02" nType="-99"/>
                  </Node>
                </Node>
              </Node>
              <Node pos="r" depth="4" NCoef="0" IVar="3" Cut="4.5727166533470154e-01" cType="1" res="-1.7614154517650604e-01" rms="3.2605043053627014e-01" purity="1.2851499021053314e-01" nType="0">
                <Node pos="l" depth="5" NCoef="0" IVar="5" Cut="6.0000000000000000e+00" cType="1" res="0.0000000000000000e+00" rms="0.0000000000000000e+00" purity="1.0713698714971542e-01" nType="0">
                  <Node pos="l" depth="6" NCoef="0" IVar="3" Cut="3.2556530833244324e-01" cType="1" res="-1.7330498993396759e-01" rms="3.3472520112991333e-01" purity="1.3288144767284393e-01" nType="0">
                    <Node pos="l" depth="7" NCoef="0" IVar="-1" Cut="0.0000000000000000e+00" cType="1" res="-2.2056955844163895e-02" rms="3.3380550146102905e-01" purity="1.3535559177398682e-01" nType="-99"/>
                    <Node pos="r" depth="7" NCoef="0" IVar="-1" Cut="0.0000000000000000e+00" cType="1" res="-2.3981356993317604e-02" rms="3.3503541350364685e-01" purity="1.3047547638416290e-01" nType="-99"/>
                  </Node>
                  <Node pos="r" depth="6" NCoef="0" IVar="3" Cut="2.6522830128669739e-01" cType="1" res="-1.9649489223957062e-01" rms="2.7000981569290161e-01" purity="8.2239314913749695e-02" nType="0">
                    <Node pos="l" depth="7" NCoef="0" IVar="-1" Cut="0.0000000000000000e+00" cType="1" res="-3.1035669147968292e-02" rms="2.4940051138401031e-01" purity="6.9258488714694977e-02" nType="-99"/>
                    <Node pos="r" depth="7" NCoef="0" IVar="-1" Cut="0.0000000000000000e+00" cType="1" res="-2.3870022967457771e-02" rms="3.0308133363723755e-01" purity="1.0584878176450729e-01" nType="-99"/>
                  </Node>
                </Node>
                <Node pos="r" depth="5" NCoef="0" IVar="-1" Cut="0.0000000000000000e+00" cType="1" res="-1.2619599699974060e-02" rms="4.3245369195938110e-01" purity="2.5662189722061157e-01" nType="-99"/>
              </Node>
            </Node>
          </Node>
          <Node pos="r" depth="2" NCoef="0" IVar="0" Cut="5.7583475112915039e-01" cType="1" res="-5.7998023927211761e-02" rms="4.7807165980339050e-01" purity="3.8414415717124939e-01" nType="0">
            <Node pos="l" depth="3" NCoef="0" IVar="0" Cut="3.3435228466987610e-01" cType="1" res="-3.8388106971979141e-02" rms="4.8894530534744263e-01" purity="4.2227628827095032e-01" nType="0">
              <Node pos="l" depth="4" NCoef="0" IVar="3" Cut="6.3387304544448853e-01" cType="1" res="-1.1997236870229244e-02" rms="4.9635267257690430e-01" purity="4.6768084168434143e-01" nType="0">
                <Node pos="l" depth="5" NCoef="0" IVar="2" Cut="1.5379490661621094e+02" cType="1" res="-3.4650087356567383e-02" rms="4.9354663491249084e-01" purity="4.3506714701652527e-01" nType="0">
                  <Node pos="l" depth="6" NCoef="0" IVar="-1" Cut="0.0000000000000000e+00" cType="1" res="-3.5415106685832143e-04" rms="4.9756193161010742e-01" purity="4.7861951589584351e-01" nType="-99"/>
                  <Node pos="r" depth="6" NCoef="0" IVar="-1" Cut="0.0000000000000000e+00" cType="1" res="-4.9048583023250103e-03" rms="4.9015048146247864e-01" purity="4.0847870707511902e-01" nType="-99"/>
                </Node>
                <Node pos="r" depth="5" NCoef="0" IVar="3" Cut="6.5566074848175049e-01" cType="1" res="2.0008033141493797e-02" rms="4.9853894114494324e-01" purity="5.1375949382781982e-01" nType="0">
                  <Node pos="l" depth="6" NCoef="0" IVar="-1" Cut="0.0000000000000000e+00" cType="1" res="1.0271212086081505e-03" rms="4.9816837906837463e-01" purity="5.0286167860031128e-01" nType="-99"/>
                  <Node pos="r" depth="6" NCoef="0" IVar="-1" Cut="0.0000000000000000e+00" cType="1" res="2.3477887734770775e-03" rms="4.9876853823661804e-01" purity="5.2398979663848877e-01" nType="-99"/>
                </Node>
              </Node>
              <Node pos="r" depth="4" NCoef="0" IVar="2" Cut="1.3833059692382812e+02" cType="1" res="-8.2690149545669556e-02" rms="4.7295227646827698e-01" purity="3.4605619311332703e-01" nType="0">
                <Node pos="l" depth="5" NCoef="0" IVar="-1" Cut="0.0000000000000000e+00" cType="1" res="-5.3595993667840958e-03" rms="4.8214828968048096e-01" purity="3.7915965914726257e-01" nType="-99"/>
                <Node pos="r" depth="5" NCoef="0" IVar="-1" Cut="0.0000000000000000e+00" cType="1" res="-1.0096219368278980e-02" rms="4.6274712681770325e-01" purity="3.1392621994018555e-01" nType="-99"/>
              </Node>
            </Node>
            <Node pos="r" depth="3" NCoef="0" IVar="1" Cut="7.1305245161056519e-02" cType="1" res="-1.2279693782329559e-01" rms="4.3397828936576843e-01" purity="2.5814053416252136e-01" nType="0">
              <Node pos="l" depth="4" NCoef="0" IVar="-1" Cut="0.0000000000000000e+00" cType="1" res="-5.6456504389643669e-03" rms="4.6886378526687622e-01" purity="3.3281773328781128e-01" nType="-99"/>
              <Node pos="r" depth="4" NCoef="0" IVar="-1" Cut="0.0000000000000000e+00" cType="1" res="-1.7705336213111877e-02" rms="4.0375703573226929e-01" purity="2.0886901021003723e-01" nType="-99"/>
            </Node>
          </Node>
        </Node>
        <Node pos="r" depth="1" NCoef="0" IVar="3" Cut="8.2561045885086060e-01" cType="1" res="1.1823707073926926e-01" rms="4.4713777303695679e-01" purity="7.0519787073135376e-01" nType="0">
          <Node pos="l" depth="2" NCoef="0" IVar="0" Cut="4.2297556996345520e-01" cType="1" res="4.2075872421264648e-02" rms="4.8844489455223083e-01" purity="5.7596027851104736e-01" nType="0">
            <Node pos="l" depth="3" NCoef="0" IVar="0" Cut="2.3194465041160583e-01" cType="1" res="5.4438680410385132e-02" rms="4.8673719167709351e-01" purity="5.9429687261581421e-01" nType="0">
              <Node pos="l" depth="4" NCoef="0" IVar="1" Cut="5.0333994626998901e-01" cType="1" res="7.3170810937881470e-02" rms="4.8148077726364136e-01" purity="6.2391352653503418e-01" nType="0">
                <Node pos="l" depth="5" NCoef="0" IVar="3" Cut="7.2432696819305420e-01" cType="1" res="8.4111936390399933e-02" rms="4.7781482338905334e-01" purity="6.4185184240341187e-01" nType="0">
                  <Node pos="l" depth="6" NCoef="0" IVar="-1" Cut="0.0000000000000000e+00" cType="1" res="3.3675376325845718e-03" rms="4.9334156513214111e-01" purity="5.7680451869964600e-01" nType="-99"/>
                  <Node pos="r" depth="6" NCoef="0" IVar="1" Cut="-9.1949664056301117e-03" cType="1" res="9.7502887248992920e-02" rms="4.7207635641098022e-01" purity="6.6210848093032837e-01" nType="0">
                    <Node pos="l" depth="7" NCoef="0" IVar="-1" Cut="0.0000000000000000e+00" cType="1" res="9.1558424755930901e-03" rms="4.6405473351478577e-01" purity="6.8504363298416138e-01" nType="-99"/>
                    <Node pos="r" depth="7" NCoef="0" IVar="-1" Cut="0.0000000000000000e+00" cType="1" res="6.4913006499409676e-03" rms="4.7975125908851624e-01" purity="6.3786762952804565e-01" nType="-99"/>
                  </Node>
                </Node>
                <Node pos="r" depth="5" NCoef="0" IVar="-1" Cut="0.0000000000000000e+00" cType="1" res="4.0037636063061655e-04" rms="4.9834999442100525e-01" purity="5.1204872131347656e-01" nType="-99"/>
              </Node>
              <Node pos="r" depth="4" NCoef="0" IVar="3" Cut="7.6762467622756958e-01" cType="1" res="7.4485023505985737e-03" rms="4.9657982587814331e-01" purity="5.2000230550765991e-01" nType="0">
                <Node pos="l" depth="5" NCoef="0" IVar="1" Cut="1.3808192312717438e-01" cType="1" res="-8.5812909528613091e-03" rms="4.9766987562179565e-01" purity="4.9294486641883850e-01" nType="0">
                  <Node pos="l" depth="6" NCoef="0" IVar="-1" Cut="0.0000000000000000e+00" cType="1" res="2.1268259733915329e-03" rms="4.9813804030418396e-01" purity="5.3454267978668213e-01" nType="-99"/>
                  <Node pos="r" depth="6" NCoef="0" IVar="-1" Cut="0.0000000000000000e+00" cType="1" res="-4.7937706112861633e-03" rms="4.9339854717254639e-01" purity="4.3601867556571960e-01" nType="-99"/>
                </Node>
                <Node pos="r" depth="5" NCoef="0" IVar="-1" Cut="0.0000000000000000e+00" cType="1" res="3.4707232844084501e-03" rms="4.9277397990226746e-01" purity="5.7475572824478149e-01" nType="-99"/>
              </Node>
            </Node>
            <Node pos="r" depth="3" NCoef="0" IVar="-1" Cut="0.0000000000000000e+00" cType="1" res="-6.6013992764055729e-03" rms="4.8913356661796570e-01" purity="4.0306904911994934e-01" nType="-99"/>
          </Node>
          <Node pos="r" depth="2" NCoef="0" IVar="1" Cut="5.0322329998016357e-01" cType="1" res="1.4610154926776886e-01" rms="4.2766153812408447e-01" purity="7.5248104333877563e-01" nType="0">
            <Node pos="l" depth="3" NCoef="0" IVar="5" Cut="2.0000000000000000e+00" cType="1" res="1.5789613127708435e-01" rms="4.1856107115745544e-01" purity="7.6935857534408569e-01" nType="0">
              <Node pos="l" depth="4" NCoef="0" IVar="3" Cut="9.5643019676208496e-01" cType="1" res="1.7170020937919617e-01" rms="4.0517032146453857e-01" purity="7.9095399379730225e-01" nType="0">
                <Node pos="l" depth="5" NCoef="0" IVar="-1" Cut="0.0000000000000000e+00" cType="1" res="1.1046818457543850e-02" rms="4.3702405691146851e-01" purity="7.4079149961471558e-01" nType="-99"/>
                <Node pos="r" depth="5" NCoef="0" IVar="3" Cut="1.0175988674163818e+00" cType="1" res="1.7385266721248627e-01" rms="4.0308916568756104e-01" purity="7.9394531250000000e-01" nType="0">
                  <Node pos="l" depth="6" NCoef="0" IVar="0" Cut="2.3829796910285950e-01" cType="1" res="1.7556285858154297e-01" rms="4.0175291895866394e-01" purity="7.9598581790924072e-01" nType="0">
                    <Node pos="l" depth="7" NCoef="0" IVar="-1" Cut="0.0000000000000000e+00" cType="1" res="1.4688454568386078e-02" rms="3.9610868692398071e-01" purity="8.0485707521438599e-01" nType="-99"/>
                    <Node pos="r" depth="7" NCoef="0" IVar="-1" Cut="0.0000000000000000e+00" cType="1" res="5.4950993508100510e-03" rms="4.7071084380149841e-01" purity="6.5311992168426514e-01" nType="-99"/>
                  </Node>
                  <Node pos="r" depth="6" NCoef="0" IVar="1" Cut="1.9678393378853798e-02" cType="1" res="1.6423982381820679e-01" rms="4.1038644313812256e-01" purity="7.8247624635696411e-01" nType="0">
                    <Node pos="l" depth="7" NCoef="0" IVar="-1" Cut="0.0000000000000000e+00" cType="1" res="1.3289117254316807e-02" rms="4.0650540590286255e-01" purity="7.8919851779937744e-01" nType="-99"/>
                    <Node pos="r" depth="7" NCoef="0" IVar="-1" Cut="0.0000000000000000e+00" cType="1" res="1.2334050610661507e-02" rms="4.1578009724617004e-01" purity="7.7294403314590454e-01" nType="-99"/>
                  </Node>
                </Node>
              </Node>
              <Node pos="r" depth="4" NCoef="0" IVar="2" Cut="1.5897486877441406e+02" cType="1" res="1.2463037669658661e-01" rms="4.4751822948455811e-01" purity="7.1775484085083008e-01" nType="0">
                <Node pos="l" depth="5" NCoef="0" IVar="3" Cut="8.7925744056701660e-01" cType="1" res="1.3255709409713745e-01" rms="4.4162324070930481e-01" purity="7.3158574104309082e-01" nType="0">
                  <Node pos="l" depth="6" NCoef="0" IVar="1" Cut="1.1273214593529701e-02" cType="1" res="1.1984533816576004e-01" rms="4.5229959487915039e-01" purity="7.1091967821121216e-01" nType="0">
                    <Node pos="l" depth="7" NCoef="0" IVar="-1" Cut="0.0000000000000000e+00" cType="1" res="1.0711138136684895e-02" rms="4.4309642910957336e-01" purity="7.3045641183853149e-01" nType="-99"/>
                    <Node pos="r" depth="7" NCoef="0" IVar="-1" Cut="0.0000000000000000e+00" cType="1" res="8.2782572135329247e-03" rms="4.6319076418876648e-01" purity="6.8581616878509521e-01" nType="-99"/>
                  </Node>
                  <Node pos="r" depth="6" NCoef="0" IVar="4" Cut="2.7858667075634003e-02" cType="1" res="1.5033110976219177e-01" rms="4.2561095952987671e-01" purity="7.6048177480697632e-01" nType="0">
                    <Node pos="l" depth="7" NCoef="0" IVar="-1" Cut="0.0000000000000000e+00" cType="1" res="1.3165526092052460e-02" rms="4.3200588226318359e-01" purity="7.4948376417160034e-01" nType="-99"/>
                    <Node pos="r" depth="7" NCoef="0" IVar="-1" Cut="0.0000000000000000e+00" cType="1" res="1.4301271177828312e-02" rms="4.1904702782630920e-01" purity="7.7126556634902954e-01" nType="-99"/>
                  </Node>
                </Node>
                <Node pos="r" depth="5" NCoef="0" IVar="-1" Cut="0.0000000000000000e+00" cType="1" res="7.8169414773583412e-03" rms="4.7235029935836792e-01" purity="6.5307915210723877e-01" nType="-99"/>
              </Node>
            </Node>
            <Node pos="r" depth="3" NCoef="0" IVar="5" Cut="2.0000000000000000e+00" cType="1" res="7.4481561779975891e-02" rms="4.7239238023757935e-01" purity="6.4688539505004883e-01" nType="0">
              <Node pos="l" depth="4" NCoef="0" IVar="-1" Cut="0.0000000000000000e+00" cType="1" res="7.2677824646234512e-03" rms="4.6390077471733093e-01" purity="6.7780435085296631e-01" nType="-99"/>
              <Node pos="r" depth="4" NCoef="0" IVar="-1" Cut="0.0000000000000000e+00" cType="1" res="2.2793971002101898e-03" rms="4.9174234271049500e-01" purity="5.7743978500366211e-01" nType="-99"/>
            </Node>
          </Node>
        </Node>
      </Node>
    </BinaryTree>
    <BinaryTree type="DecisionTree" boostWeight="1.0000000000000000e+00" itree="15">
      <Node pos="s" depth="0" NCoef="0" IVar="3" Cut="6.7633879184722900e-01" cType="1" res="1.3346410356462002e-02" rms="4.3602406978607178e-01" purity="4.9837309122085571e-01" nType="0">
        <Node pos="l" depth="1" NCoef="0" IVar="3" Cut="5.4552263021469116e-01" cType="1" res="-1.3213966786861420e-01" rms="3.7431851029396057e-01" purity="1.9731889665126801e-01" nType="0">
          <Node pos="l" depth="2" NCoef="0" IVar="3" Cut="4.5760962367057800e-01" cType="1" res="-1.6029515862464905e-01" rms="3.2282090187072754e-01" purity="1.2811824679374695e-01" nType="0">
            <Node pos="l" depth="3" NCoef="0" IVar="4" Cut="1.5685297548770905e-01" cType="1" res="-1.7041169106960297e-01" rms="2.9035067558288574e-01" purity="9.8432056605815887e-02" nType="0">
              <Node pos="l" depth="4" NCoef="0" IVar="3" Cut="3.3966892957687378e-01" cType="1" res="-1.8297223746776581e-01" rms="2.4848213791847229e-01" purity="6.8445563316345215e-02" nType="0">
                <Node pos="l" depth="5" NCoef="0" IVar="5" Cut="5.0000000000000000e+00" cType="1" res="7.6402612030506134e-02" rms="1.2512901425361633e-01" purity="4.1620858013629913e-02" nType="0">
                  <Node pos="l" depth="6" NCoef="0" IVar="3" Cut="2.7605071663856506e-01" cType="1" res="-1.7529842257499695e-01" rms="2.5792241096496582e-01" purity="7.2584919631481171e-02" nType="0">
                    <Node pos="l" depth="7" NCoef="0" IVar="-1" Cut="0.0000000000000000e+00" cType="1" res="-2.3379985243082047e-02" rms="2.9526379704475403e-01" purity="9.7584106028079987e-02" nType="-99"/>
                    <Node pos="r" depth="7" NCoef="0" IVar="-1" Cut="0.0000000000000000e+00" cType="1" res="-3.2320536673069000e-02" rms="2.0912727713584900e-01" purity="4.6685598790645599e-02" nType="-99"/>
                  </Node>
                  <Node pos="r" depth="6" NCoef="0" IVar="3" Cut="2.6309275627136230e-01" cType="1" res="-1.9798840582370758e-01" rms="1.7509891092777252e-01" purity="3.1882863491773605e-02" nType="0">
                    <Node pos="l" depth="7" NCoef="0" IVar="-1" Cut="0.0000000000000000e+00" cType="1" res="-3.5756446421146393e-02" rms="1.4610131084918976e-01" purity="2.1854119375348091e-02" nType="-99"/>
                    <Node pos="r" depth="7" NCoef="0" IVar="-1" Cut="0.0000000000000000e+00" cType="1" res="-2.9671842232346535e-02" rms="2.0671781897544861e-01" purity="4.5040167868137360e-02" nType="-99"/>
                  </Node>
                </Node>
                <Node pos="r" depth="5" NCoef="0" IVar="0" Cut="9.4634342193603516e-01" cType="1" res="-1.7111355066299438e-01" rms="2.9867520928382874e-01" purity="1.0162454098463058e-01" nType="0">
                  <Node pos="l" depth="6" NCoef="0" IVar="0" Cut="6.7156654596328735e-01" cType="1" res="-1.4529117941856384e-01" rms="3.5556766390800476e-01" purity="1.5156792104244232e-01" nType="0">
                    <Node pos="l" depth="7" NCoef="0" IVar="-1" Cut="0.0000000000000000e+00" cType="1" res="-1.6444293782114983e-02" rms="3.7767079472541809e-01" purity="1.7566017806529999e-01" nType="-99"/>
                    <Node pos="r" depth="7" NCoef="0" IVar="-1" Cut="0.0000000000000000e+00" cType="1" res="-2.0845603197813034e-02" rms="3.2977208495140076e-01" purity="1.2563791871070862e-01" nType="-99"/>
                  </Node>
                  <Node pos="r" depth="6" NCoef="0" IVar="2" Cut="2.8541607666015625e+02" cType="1" res="-1.8242284655570984e-01" rms="2.6923084259033203e-01" purity="7.9751081764698029e-02" nType="0">
                    <Node pos="l" depth="7" NCoef="0" IVar="-1" Cut="0.0000000000000000e+00" cType="1" res="-2.4391986429691315e-02" rms="2.8185930848121643e-01" purity="8.8553607463836670e-02" nType="-99"/>
                    <Node pos="r" depth="7" NCoef="0" IVar="-1" Cut="0.0000000000000000e+00" cType="1" res="-2.8943110257387161e-02" rms="2.3180542886257172e-01" purity="5.7362303137779236e-02" nType="-99"/>
                  </Node>
                </Node>
              </Node>
              <Node pos="r" depth="4" NCoef="0" IVar="5" Cut="4.0000000000000000e+00" cType="1" res="1.5078845620155334e-01" rms="0.0000000000000000e+00" purity="1.6092793643474579e-01" nType="0">
                <Node pos="l" depth="5" NCoef="0" IVar="-1" Cut="0.0000000000000000e+00" cType="1" res="-9.2495251446962357e-03" rms="4.4174930453300476e-01" purity="2.7038642764091492e-01" nType="-99"/>
                <Node pos="r" depth="5" NCoef="0" IVar="4" Cut="2.6889330148696899e-01" cType="1" res="-1.5497779846191406e-01" rms="3.4331244230270386e-01" purity="1.4119435846805573e-01" nType="0">
                  <Node pos="l" depth="6" NCoef="0" IVar="2" Cut="3.1539700317382812e+02" cType="1" res="-1.6487286984920502e-01" rms="3.2412827014923096e-01" purity="1.2315267324447632e-01" nType="0">
                    <Node pos="l" depth="7" NCoef="0" IVar="-1" Cut="0.0000000000000000e+00" cType="1" res="-1.7417397350072861e-02" rms="3.6203342676162720e-01" purity="1.6047543287277222e-01" nType="-99"/>
                    <Node pos="r" depth="7" NCoef="0" IVar="-1" Cut="0.0000000000000000e+00" cType="1" res="-2.4393344298005104e-02" rms="3.0626466870307922e-01" purity="1.0810305178165436e-01" nType="-99"/>
                  </Node>
                  <Node pos="r" depth="6" NCoef="0" IVar="-1" Cut="0.0000000000000000e+00" cType="1" res="-1.4396587386727333e-02" rms="4.0465271472930908e-01" purity="2.0826058089733124e-01" nType="-99"/>
                </Node>
              </Node>
            </Node>
            <Node pos="r" depth="3" NCoef="0" IVar="4" Cut="8.0151677131652832e-02" cType="1" res="-1.2538193166255951e-01" rms="4.1394689679145813e-01" purity="2.3056833446025848e-01" nType="0">
              <Node pos="l" depth="4" NCoef="0" IVar="2" Cut="9.3524620056152344e+01" cType="1" res="-1.6291913390159607e-01" rms="3.7274408340454102e-01" purity="1.7380739748477936e-01" nType="0">
                <Node pos="l" depth="5" NCoef="0" IVar="-1" Cut="0.0000000000000000e+00" cType="1" res="-1.2924172915518284e-02" rms="4.1098910570144653e-01" purity="2.2604715824127197e-01" nType="-99"/>
                <Node pos="r" depth="5" NCoef="0" IVar="-1" Cut="0.0000000000000000e+00" cType="1" res="-2.3333130404353142e-02" rms="3.3424496650695801e-01" purity="1.3141882419586182e-01" nType="-99"/>
              </Node>
              <Node pos="r" depth="4" NCoef="0" IVar="2" Cut="2.0315673828125000e+02" cType="1" res="-1.0053110122680664e-01" rms="4.3733355402946472e-01" purity="2.6814591884613037e-01" nType="0">
                <Node pos="l" depth="5" NCoef="0" IVar="-1" Cut="0.0000000000000000e+00" cType="1" res="-6.0070413164794445e-03" rms="4.5769643783569336e-01" purity="3.1201753020286560e-01" nType="-99"/>
                <Node pos="r" depth="5" NCoef="0" IVar="3" Cut="4.8883154988288879e-01" cType="1" res="-1.1984122544527054e-01" rms="4.2564451694488525e-01" purity="2.4658803641796112e-01" nType="0">
                  <Node pos="l" depth="6" NCoef="0" IVar="-1" Cut="0.0000000000000000e+00" cType="1" res="-1.6561461612582207e-02" rms="3.9348056912422180e-01" purity="1.9629400968551636e-01" nType="-99"/>
                  <Node pos="r" depth="6" NCoef="0" IVar="-1" Cut="0.0000000000000000e+00" cType="1" res="-1.0479492135345936e-02" rms="4.4310817122459412e-01" purity="2.7706503868103027e-01" nType="-99"/>
                </Node>
              </Node>
            </Node>
          </Node>
          <Node pos="r" depth="2" NCoef="0" IVar="0" Cut="5.7583475112915039e-01" cType="1" res="-5.6783232837915421e-02" rms="4.7791311144828796e-01" purity="3.8253018260002136e-01" nType="0">
            <Node pos="l" depth="3" NCoef="0" IVar="0" Cut="3.9002844691276550e-01" cType="1" res="-3.8720153272151947e-02" rms="4.8885062336921692e-01" purity="4.1984763741493225e-01" nType="0">
              <Node pos="l" depth="4" NCoef="0" IVar="3" Cut="6.5945595502853394e-01" cType="1" res="-2.3623291403055191e-02" rms="4.9476113915443420e-01" purity="4.5075044035911560e-01" nType="0">
                <Node pos="l" depth="5" NCoef="0" IVar="1" Cut="4.0881797671318054e-01" cType="1" res="-3.4291964024305344e-02" rms="4.9334540963172913e-01" purity="4.3599560856819153e-01" nType="0">
                  <Node pos="l" depth="6" NCoef="0" IVar="2" Cut="1.9609280395507812e+02" cType="1" res="-1.4064420014619827e-02" rms="4.9670597910881042e-01" purity="4.6001622080802917e-01" nType="0">
                    <Node pos="l" depth="7" NCoef="0" IVar="-1" Cut="0.0000000000000000e+00" cType="1" res="8.5905496962368488e-04" rms="4.9875825643539429e-01" purity="4.9253571033477783e-01" nType="-99"/>
                    <Node pos="r" depth="7" NCoef="0" IVar="-1" Cut="0.0000000000000000e+00" cType="1" res="-3.8375074509531260e-03" rms="4.9286192655563354e-01" purity="4.2262378334999084e-01" nType="-99"/>
                  </Node>
                  <Node pos="r" depth="6" NCoef="0" IVar="-1" Cut="0.0000000000000000e+00" cType="1" res="-1.0308866389095783e-02" rms="4.7209519147872925e-01" purity="3.4328475594520569e-01" nType="-99"/>
                </Node>
                <Node pos="r" depth="5" NCoef="0" IVar="-1" Cut="0.0000000000000000e+00" cType="1" res="2.0507038570940495e-03" rms="4.9826392531394958e-01" purity="5.1716357469558716e-01" nType="-99"/>
              </Node>
              <Node pos="r" depth="4" NCoef="0" IVar="4" Cut="6.2452498823404312e-02" cType="1" res="-7.7375881373882294e-02" rms="4.7118052840232849e-01" purity="3.4072059392929077e-01" nType="0">
                <Node pos="l" depth="5" NCoef="0" IVar="-1" Cut="0.0000000000000000e+00" cType="1" res="-1.0060840286314487e-02" rms="4.6043887734413147e-01" purity="3.1223529577255249e-01" nType="-99"/>
                <Node pos="r" depth="5" NCoef="0" IVar="-1" Cut="0.0000000000000000e+00" cType="1" res="-4.8413719050586224e-03" rms="4.7878715395927429e-01" purity="3.6509162187576294e-01" nType="-99"/>
              </Node>
            </Node>
            <Node pos="r" depth="3" NCoef="0" IVar="3" Cut="5.8345776796340942e-01" cType="1" res="-1.1709058284759521e-01" rms="4.3401747941970825e-01" purity="2.5793817639350891e-01" nType="0">
              <Node pos="l" depth="4" NCoef="0" IVar="-1" Cut="0.0000000000000000e+00" cType="1" res="-1.4607905410230160e-02" rms="4.1482800245285034e-01" purity="2.2459624707698822e-01" nType="-99"/>
              <Node pos="r" depth="4" NCoef="0" IVar="-1" Cut="0.0000000000000000e+00" cType="1" res="-1.0303619317710400e-02" rms="4.4818499684333801e-01" purity="2.8458228707313538e-01" nType="-99"/>
            </Node>
          </Node>
        </Node>
        <Node pos="r" depth="1" NCoef="0" IVar="0" Cut="7.8209793567657471e-01" cType="1" res="1.1290875077247620e-01" rms="4.4714465737342834e-01" purity="7.0439732074737549e-01" nType="0">
          <Node pos="l" depth="2" NCoef="0" IVar="0" Cut="1.7658631503582001e-01" cType="1" res="1.1923195421695709e-01" rms="4.4455191493034363e-01" purity="7.1222960948944092e-01" nType="0">
            <Node pos="l" depth="3" NCoef="0" IVar="3" Cut="9.0062719583511353e-01" cType="1" res="1.3816773891448975e-01" rms="4.3270975351333618e-01" purity="7.4221956729888916e-01" nType="0">
              <Node pos="l" depth="4" NCoef="0" IVar="3" Cut="7.8488892316818237e-01" cType="1" res="1.0037172585725784e-01" rms="4.6467331051826477e-01" purity="6.7477327585220337e-01" nType="0">
                <Node pos="l" depth="5" NCoef="0" IVar="3" Cut="7.1838414669036865e-01" cType="1" res="6.1200998723506927e-02" rms="4.8523750901222229e-01" purity="6.0933148860931396e-01" nType="0">
                  <Node pos="l" depth="6" NCoef="0" IVar="-1" Cut="0.0000000000000000e+00" cType="1" res="1.7497262451797724e-03" rms="4.9537518620491028e-01" purity="5.5328959226608276e-01" nType="-99"/>
                  <Node pos="r" depth="6" NCoef="0" IVar="5" Cut="3.0000000000000000e+00" cType="1" res="7.9765588045120239e-02" rms="4.7843033075332642e-01" purity="6.3502186536788940e-01" nType="0">
                    <Node pos="l" depth="7" NCoef="0" IVar="-1" Cut="0.0000000000000000e+00" cType="1" res="4.2229322716593742e-03" rms="4.8651325702667236e-01" purity="6.0668766498565674e-01" nType="-99"/>
                    <Node pos="r" depth="7" NCoef="0" IVar="-1" Cut="0.0000000000000000e+00" cType="1" res="7.8544374555349350e-03" rms="4.7475892305374146e-01" purity="6.5130198001861572e-01" nType="-99"/>
                  </Node>
                </Node>
                <Node pos="r" depth="5" NCoef="0" IVar="3" Cut="8.7822651863098145e-01" cType="1" res="1.1848579347133636e-01" rms="4.5370724797248840e-01" purity="7.0503610372543335e-01" nType="0">
                  <Node pos="l" depth="6" NCoef="0" IVar="3" Cut="8.5413628816604614e-01" cType="1" res="1.0962497442960739e-01" rms="4.6052753925323486e-01" purity="6.9043374061584473e-01" nType="0">
                    <Node pos="l" depth="7" NCoef="0" IVar="-1" Cut="0.0000000000000000e+00" cType="1" res="8.0516645684838295e-03" rms="4.6538382768630981e-01" purity="6.7833662033081055e-01" nType="-99"/>
                    <Node pos="r" depth="7" NCoef="0" IVar="-1" Cut="0.0000000000000000e+00" cType="1" res="1.0253133252263069e-02" rms="4.5013511180877686e-01" purity="7.1509420871734619e-01" nType="-99"/>
                  </Node>
                  <Node pos="r" depth="6" NCoef="0" IVar="3" Cut="8.9123612642288208e-01" cType="1" res="1.4871810376644135e-01" rms="4.2824518680572510e-01" purity="7.5485795736312866e-01" nType="0">
                    <Node pos="l" depth="7" NCoef="0" IVar="-1" Cut="0.0000000000000000e+00" cType="1" res="1.3244112953543663e-02" rms="4.2797726392745972e-01" purity="7.5619226694107056e-01" nType="-99"/>
                    <Node pos="r" depth="7" NCoef="0" IVar="-1" Cut="0.0000000000000000e+00" cType="1" res="1.3114420697093010e-02" rms="4.2863899469375610e-01" purity="7.5275540351867676e-01" nType="-99"/>
                  </Node>
                </Node>
              </Node>
              <Node pos="r" depth="4" NCoef="0" IVar="1" Cut="1.1261703968048096e+00" cType="1" res="1.6178490221500397e-01" rms="4.0971228480339050e-01" purity="7.8436398506164551e-01" nType="0">
                <Node pos="l" depth="5" NCoef="0" IVar="1" Cut="3.5341292619705200e-01" cType="1" res="1.6642244160175323e-01" rms="4.0567633509635925e-01" purity="7.9096519947052002e-01" nType="0">
                  <Node pos="l" depth="6" NCoef="0" IVar="3" Cut="1.0356633663177490e+00" cType="1" res="1.7217865586280823e-01" rms="3.9896360039710999e-01" purity="8.0072629451751709e-01" nType="0">
                    <Node pos="l" depth="7" NCoef="0" IVar="-1" Cut="0.0000000000000000e+00" cType="1" res="1.4242542907595634e-02" rms="3.9718347787857056e-01" purity="8.0331897735595703e-01" nType="-99"/>
                    <Node pos="r" depth="7" NCoef="0" IVar="-1" Cut="0.0000000000000000e+00" cType="1" res="1.1316838674247265e-02" rms="4.2167824506759644e-01" purity="7.6463001966476440e-01" nType="-99"/>
                  </Node>
                  <Node pos="r" depth="6" NCoef="0" IVar="1" Cut="7.0236718654632568e-01" cType="1" res="1.3619710505008698e-01" rms="4.3800422549247742e-01" purity="7.3971074819564819e-01" nType="0">
                    <Node pos="l" depth="7" NCoef="0" IVar="-1" Cut="0.0000000000000000e+00" cType="1" res="1.1388717219233513e-02" rms="4.3104088306427002e-01" purity="7.5280797481536865e-01" nType="-99"/>
                    <Node pos="r" depth="7" NCoef="0" IVar="-1" Cut="0.0000000000000000e+00" cType="1" res="8.8005373254418373e-03" rms="4.5528784394264221e-01" purity="7.0482337474822998e-01" nType="-99"/>
                  </Node>
                </Node>
                <Node pos="r" depth="5" NCoef="0" IVar="-1" Cut="0.0000000000000000e+00" cType="1" res="4.2719012126326561e-03" rms="4.8227551579475403e-01" purity="6.2989991903305054e-01" nType="-99"/>
              </Node>
            </Node>
            <Node pos="r" depth="3" NCoef="0" IVar="2" Cut="1.6426292419433594e+02" cType="1" res="2.1980177611112595e-02" rms="4.8957318067550659e-01" purity="5.5820477008819580e-01" nType="0">
              <Node pos="l" depth="4" NCoef="0" IVar="2" Cut="6.3579936981201172e+01" cType="1" res="3.8219157606363297e-02" rms="4.8650202155113220e-01" purity="5.8237427473068237e-01" nType="0">
                <Node pos="l" depth="5" NCoef="0" IVar="0" Cut="3.5259583592414856e-01" cType="1" res="5.9315048158168793e-02" rms="4.7926682233810425e-01" purity="6.1829650402069092e-01" nType="0">
                  <Node pos="l" depth="6" NCoef="0" IVar="3" Cut="8.3797115087509155e-01" cType="1" res="8.0898813903331757e-02" rms="4.7168159484863281e-01" purity="6.4790922403335571e-01" nType="0">
                    <Node pos="l" depth="7" NCoef="0" IVar="-1" Cut="0.0000000000000000e+00" cType="1" res="4.5475577935576439e-03" rms="4.9077650904655457e-01" purity="5.8043569326400757e-01" nType="-99"/>
                    <Node pos="r" depth="7" NCoef="0" IVar="-1" Cut="0.0000000000000000e+00" cType="1" res="9.6286749467253685e-03" rms="4.5031058788299561e-01" purity="7.1456044912338257e-01" nType="-99"/>
                  </Node>
                  <Node pos="r" depth="6" NCoef="0" IVar="-1" Cut="0.0000000000000000e+00" cType="1" res="2.2231116890907288e-03" rms="4.8844984173774719e-01" purity="5.7490509748458862e-01" nType="-99"/>
                </Node>
                <Node pos="r" depth="5" NCoef="0" IVar="4" Cut="4.3188631534576416e-02" cType="1" res="8.6158104240894318e-03" rms="4.9496337771415710e-01" purity="5.3196561336517334e-01" nType="0">
                  <Node pos="l" depth="6" NCoef="0" IVar="-1" Cut="0.0000000000000000e+00" cType="1" res="-2.9142240528017282e-03" rms="4.9479258060455322e-01" purity="4.9965679645538330e-01" nType="-99"/>
                  <Node pos="r" depth="6" NCoef="0" IVar="-1" Cut="0.0000000000000000e+00" cType="1" res="3.8010803982615471e-03" rms="4.9236384034156799e-01" purity="5.6066495180130005e-01" nType="-99"/>
                </Node>
              </Node>
              <Node pos="r" depth="4" NCoef="0" IVar="0" Cut="3.1356108188629150e-01" cType="1" res="-3.2703157514333725e-02" rms="4.9588114023208618e-01" purity="4.7681587934494019e-01" nType="0">
                <Node pos="l" depth="5" NCoef="0" IVar="-1" Cut="0.0000000000000000e+00" cType="1" res="5.2855978719890118e-04" rms="4.9639722704887390e-01" purity="5.3076273202896118e-01" nType="-99"/>
                <Node pos="r" depth="5" NCoef="0" IVar="-1" Cut="0.0000000000000000e+00" cType="1" res="-6.8000629544258118e-03" rms="4.9193784594535828e-01" purity="4.1830798983573914e-01" nType="-99"/>
              </Node>
            </Node>
          </Node>
          <Node pos="r" depth="2" NCoef="0" IVar="-1" Cut="0.0000000000000000e+00" cType="1" res="-1.9186146557331085e-02" rms="4.6232950687408447e-01" purity="3.1355395913124084e-01" nType="-99"/>
        </Node>
      </Node>
    </BinaryTree>
    <BinaryTree type="DecisionTree" boostWeight="1.0000000000000000e+00" itree="16">
      <Node pos="s" depth="0" NCoef="0" IVar="3" Cut="6.7633879184722900e-01" cType="1" res="1.6900008544325829e-02" rms="4.3396636843681335e-01" purity="5.0200045108795166e-01" nType="0">
        <Node pos="l" depth="1" NCoef="0" IVar="3" Cut="5.2372527122497559e-01" cType="1" res="-1.2166998535394669e-01" rms="3.7553030252456665e-01" purity="2.0049628615379333e-01" nType="0">
          <Node pos="l" depth="2" NCoef="0" IVar="3" Cut="4.7308492660522461e-01" cType="1" res="-1.5240113437175751e-01" rms="3.1602141261100769e-01" purity="1.2151525169610977e-01" nType="0">
            <Node pos="l" depth="3" NCoef="0" IVar="4" Cut="1.1746048927307129e-01" cType="1" res="-1.5955267846584320e-01" rms="2.9523584246635437e-01" purity="1.0238810628652573e-01" nType="0">
              <Node pos="l" depth="4" NCoef="0" IVar="1" Cut="2.8645029664039612e-01" cType="1" res="-1.7637628316879272e-01" rms="2.3978094756603241e-01" purity="6.3240483403205872e-02" nType="0">
                <Node pos="l" depth="5" NCoef="0" IVar="2" Cut="8.7173622131347656e+01" cType="1" res="-1.6241262853145599e-01" rms="2.7597063779830933e-01" purity="8.5883326828479767e-02" nType="0">
                  <Node pos="l" depth="6" NCoef="0" IVar="-1" Cut="0.0000000000000000e+00" cType="1" res="-1.9224375486373901e-02" rms="3.2322114706039429e-01" purity="1.2283736467361450e-01" nType="-99"/>
                  <Node pos="r" depth="6" NCoef="0" IVar="3" Cut="4.1216012835502625e-01" cType="1" res="-1.7195384204387665e-01" rms="2.6030012965202332e-01" purity="7.5454443693161011e-02" nType="0">
                    <Node pos="l" depth="7" NCoef="0" IVar="-1" Cut="0.0000000000000000e+00" cType="1" res="-2.9058115556836128e-02" rms="2.1959517896175385e-01" purity="5.1605626940727234e-02" nType="-99"/>
                    <Node pos="r" depth="7" NCoef="0" IVar="-1" Cut="0.0000000000000000e+00" cType="1" res="-1.9606204703450203e-02" rms="3.3555060625076294e-01" purity="1.3098952174186707e-01" nType="-99"/>
                  </Node>
                </Node>
                <Node pos="r" depth="5" NCoef="0" IVar="2" Cut="6.6430274963378906e+01" cType="1" res="-1.8554724752902985e-01" rms="2.1218892931938171e-01" purity="4.8369277268648148e-02" nType="0">
                  <Node pos="l" depth="6" NCoef="0" IVar="-1" Cut="0.0000000000000000e+00" cType="1" res="-2.8553415089845657e-02" rms="2.3855200409889221e-01" purity="6.2093406915664673e-02" nType="-99"/>
                  <Node pos="r" depth="6" NCoef="0" IVar="2" Cut="2.0589765930175781e+02" cType="1" res="-1.8831583857536316e-01" rms="2.0564314723014832e-01" purity="4.5258369296789169e-02" nType="0">
                    <Node pos="l" depth="7" NCoef="0" IVar="-1" Cut="0.0000000000000000e+00" cType="1" res="-3.0034575611352921e-02" rms="2.1200178563594818e-01" purity="4.8380803316831589e-02" nType="-99"/>
                    <Node pos="r" depth="7" NCoef="0" IVar="-1" Cut="0.0000000000000000e+00" cType="1" res="-2.9889985918998718e-02" rms="1.9648772478103638e-01" purity="4.0978237986564636e-02" nType="-99"/>
                  </Node>
                </Node>
              </Node>
              <Node pos="r" depth="4" NCoef="0" IVar="4" Cut="2.3077760636806488e-01" cType="1" res="-1.4207349717617035e-01" rms="3.4262233972549438e-01" purity="1.4306122064590454e-01" nType="0">
                <Node pos="l" depth="5" NCoef="0" IVar="3" Cut="3.8234120607376099e-01" cType="1" res="-1.5146517753601074e-01" rms="3.2241925597190857e-01" purity="1.2352573871612549e-01" nType="0">
                  <Node pos="l" depth="6" NCoef="0" IVar="4" Cut="2.0517954230308533e-01" cType="1" res="-1.6277103126049042e-01" rms="2.8579691052436829e-01" purity="9.2380240559577942e-02" nType="0">
                    <Node pos="l" depth="7" NCoef="0" IVar="-1" Cut="0.0000000000000000e+00" cType="1" res="-2.6267636567354202e-02" rms="2.6865309476852417e-01" purity="8.0327056348323822e-02" nType="-99"/>
                    <Node pos="r" depth="7" NCoef="0" IVar="-1" Cut="0.0000000000000000e+00" cType="1" res="-1.6802374273538589e-02" rms="3.5773316025733948e-01" purity="1.5326279401779175e-01" nType="-99"/>
                  </Node>
                  <Node pos="r" depth="6" NCoef="0" IVar="0" Cut="5.8085918426513672e-01" cType="1" res="-1.2296348810195923e-01" rms="3.9871335029602051e-01" purity="2.0204246044158936e-01" nType="0">
                    <Node pos="l" depth="7" NCoef="0" IVar="-1" Cut="0.0000000000000000e+00" cType="1" res="-1.0172277688980103e-02" rms="4.3337857723236084e-01" purity="2.5131091475486755e-01" nType="-99"/>
                    <Node pos="r" depth="7" NCoef="0" IVar="-1" Cut="0.0000000000000000e+00" cType="1" res="-1.9636346027255058e-02" rms="3.5450726747512817e-01" purity="1.4859628677368164e-01" nType="-99"/>
                  </Node>
                </Node>
                <Node pos="r" depth="5" NCoef="0" IVar="5" Cut="6.0000000000000000e+00" cType="1" res="0.0000000000000000e+00" rms="0.0000000000000000e+00" purity="2.0671482384204865e-01" nType="0">
                  <Node pos="l" depth="6" NCoef="0" IVar="-1" Cut="0.0000000000000000e+00" cType="1" res="-8.0583384260535240e-03" rms="4.3848860263824463e-01" purity="2.6873385906219482e-01" nType="-99"/>
                  <Node pos="r" depth="6" NCoef="0" IVar="-1" Cut="0.0000000000000000e+00" cType="1" res="-1.7518470063805580e-02" rms="3.7140861153602600e-01" purity="1.6754795610904694e-01" nType="-99"/>
                </Node>
              </Node>
            </Node>
            <Node pos="r" depth="3" NCoef="0" IVar="0" Cut="8.4310555458068848e-01" cType="1" res="-1.0742507129907608e-01" rms="4.2122286558151245e-01" purity="2.4180577695369720e-01" nType="0">
              <Node pos="l" depth="4" NCoef="0" IVar="2" Cut="2.0712750244140625e+02" cType="1" res="-8.4455825388431549e-02" rms="4.4517523050308228e-01" purity="2.8226178884506226e-01" nType="0">
                <Node pos="l" depth="5" NCoef="0" IVar="-1" Cut="0.0000000000000000e+00" cType="1" res="-5.2609280683100224e-03" rms="4.5708858966827393e-01" purity="3.1185752153396606e-01" nType="-99"/>
                <Node pos="r" depth="5" NCoef="0" IVar="-1" Cut="0.0000000000000000e+00" cType="1" res="-1.1933634988963604e-02" rms="4.3138414621353149e-01" purity="2.5396585464477539e-01" nType="-99"/>
              </Node>
              <Node pos="r" depth="4" NCoef="0" IVar="-1" Cut="0.0000000000000000e+00" cType="1" res="-1.9286846742033958e-02" rms="3.5710093379020691e-01" purity="1.5188014507293701e-01" nType="-99"/>
            </Node>
          </Node>
          <Node pos="r" depth="2" NCoef="0" IVar="1" Cut="4.5424854755401611e-01" cType="1" res="-5.3885851055383682e-02" rms="4.7446611523628235e-01" purity="3.7470588088035583e-01" nType="0">
            <Node pos="l" depth="3" NCoef="0" IVar="0" Cut="3.5398790240287781e-01" cType="1" res="-3.1809974461793900e-02" rms="4.8312962055206299e-01" purity="4.0594315528869629e-01" nType="0">
              <Node pos="l" depth="4" NCoef="0" IVar="2" Cut="1.9651112365722656e+02" cType="1" res="2.8309463523328304e-03" rms="4.9650254845619202e-01" purity="4.7856020927429199e-01" nType="0">
                <Node pos="l" depth="5" NCoef="0" IVar="4" Cut="7.7449657022953033e-02" cType="1" res="2.8543349355459213e-02" rms="4.9775886535644531e-01" purity="5.1515573263168335e-01" nType="0">
                  <Node pos="l" depth="6" NCoef="0" IVar="-1" Cut="0.0000000000000000e+00" cType="1" res="7.6409033499658108e-04" rms="4.9805653095245361e-01" purity="4.9586951732635498e-01" nType="-99"/>
                  <Node pos="r" depth="6" NCoef="0" IVar="-1" Cut="0.0000000000000000e+00" cType="1" res="4.0880632586777210e-03" rms="4.9648958444595337e-01" purity="5.3707921504974365e-01" nType="-99"/>
                </Node>
                <Node pos="r" depth="5" NCoef="0" IVar="3" Cut="6.0741978883743286e-01" cType="1" res="-2.6739368215203285e-02" rms="4.9339994788169861e-01" purity="4.3647390604019165e-01" nType="0">
                  <Node pos="l" depth="6" NCoef="0" IVar="-1" Cut="0.0000000000000000e+00" cType="1" res="-4.9966364167630672e-03" rms="4.8679643869400024e-01" purity="3.8886263966560364e-01" nType="-99"/>
                  <Node pos="r" depth="6" NCoef="0" IVar="-1" Cut="0.0000000000000000e+00" cType="1" res="5.4766296671004966e-05" rms="4.9854302406311035e-01" purity="4.8491054773330688e-01" nType="-99"/>
                </Node>
              </Node>
              <Node pos="r" depth="4" NCoef="0" IVar="3" Cut="6.2218499183654785e-01" cType="1" res="-6.8321123719215393e-02" rms="4.6584177017211914e-01" purity="3.2940554618835449e-01" nType="0">
                <Node pos="l" depth="5" NCoef="0" IVar="2" Cut="2.1847502136230469e+02" cType="1" res="-8.4432207047939301e-02" rms="4.5619198679924011e-01" purity="3.0343410372734070e-01" nType="0">
                  <Node pos="l" depth="6" NCoef="0" IVar="4" Cut="5.9515323489904404e-02" cType="1" res="-6.5794333815574646e-02" rms="4.6661993861198425e-01" purity="3.2878598570823669e-01" nType="0">
                    <Node pos="l" depth="7" NCoef="0" IVar="-1" Cut="0.0000000000000000e+00" cType="1" res="-1.0365446098148823e-02" rms="4.4868993759155273e-01" purity="2.8700590133666992e-01" nType="-99"/>
                    <Node pos="r" depth="7" NCoef="0" IVar="-1" Cut="0.0000000000000000e+00" cType="1" res="-2.2538902703672647e-03" rms="4.8200729489326477e-01" purity="3.7423169612884521e-01" nType="-99"/>
                  </Node>
                  <Node pos="r" depth="6" NCoef="0" IVar="-1" Cut="0.0000000000000000e+00" cType="1" res="-1.2363605201244354e-02" rms="4.3309357762336731e-01" purity="2.5449544191360474e-01" nType="-99"/>
                </Node>
                <Node pos="r" depth="5" NCoef="0" IVar="-1" Cut="0.0000000000000000e+00" cType="1" res="-2.8853665571659803e-03" rms="4.8546007275581360e-01" purity="3.8972988724708557e-01" nType="-99"/>
              </Node>
            </Node>
            <Node pos="r" depth="3" NCoef="0" IVar="4" Cut="7.6308287680149078e-02" cType="1" res="-1.3119252026081085e-01" rms="4.3403130769729614e-01" purity="2.6531738042831421e-01" nType="0">
              <Node pos="l" depth="4" NCoef="0" IVar="-1" Cut="0.0000000000000000e+00" cType="1" res="-1.6264101490378380e-02" rms="4.1371148824691772e-01" purity="2.2953404486179352e-01" nType="-99"/>
              <Node pos="r" depth="4" NCoef="0" IVar="-1" Cut="0.0000000000000000e+00" cType="1" res="-1.0339101776480675e-02" rms="4.5254749059677124e-01" purity="3.0213472247123718e-01" nType="-99"/>
            </Node>
          </Node>
        </Node>
        <Node pos="r" depth="1" NCoef="0" IVar="3" Cut="8.2585197687149048e-01" cType="1" res="1.1124834418296814e-01" rms="4.4559973478317261e-01" purity="7.0728600025177002e-01" nType="0">
          <Node pos="l" depth="2" NCoef="0" IVar="1" Cut="4.1477429866790771e-01" cType="1" res="4.6158965677022934e-02" rms="4.8656693100929260e-01" purity="5.8354681730270386e-01" nType="0">
            <Node pos="l" depth="3" NCoef="0" IVar="3" Cut="7.4387031793594360e-01" cType="1" res="6.4455881714820862e-02" rms="4.8296040296554565e-01" purity="6.1017900705337524e-01" nType="0">
              <Node pos="l" depth="4" NCoef="0" IVar="5" Cut="3.0000000000000000e+00" cType="1" res="2.9383612796664238e-02" rms="4.9226352572441101e-01" purity="5.5086994171142578e-01" nType="0">
                <Node pos="l" depth="5" NCoef="0" IVar="-1" Cut="0.0000000000000000e+00" cType="1" res="-1.4872188912704587e-03" rms="4.9667125940322876e-01" purity="4.8871958255767822e-01" nType="-99"/>
                <Node pos="r" depth="5" NCoef="0" IVar="2" Cut="9.0449752807617188e+01" cType="1" res="5.0828263163566589e-02" rms="4.9087151885032654e-01" purity="5.8154678344726562e-01" nType="0">
                  <Node pos="l" depth="6" NCoef="0" IVar="-1" Cut="0.0000000000000000e+00" cType="1" res="6.8297022953629494e-03" rms="4.8316904902458191e-01" purity="6.1895042657852173e-01" nType="-99"/>
                  <Node pos="r" depth="6" NCoef="0" IVar="-1" Cut="0.0000000000000000e+00" cType="1" res="2.5280176196247339e-03" rms="4.9439936876296997e-01" purity="5.5799573659896851e-01" nType="-99"/>
                </Node>
              </Node>
              <Node pos="r" depth="4" NCoef="0" IVar="0" Cut="1.8760618567466736e-01" cType="1" res="8.9842967689037323e-02" rms="4.7353839874267578e-01" purity="6.5171700716018677e-01" nType="0">
                <Node pos="l" depth="5" NCoef="0" IVar="1" Cut="9.0225912630558014e-02" cType="1" res="1.0702685266733170e-01" rms="4.6414434909820557e-01" purity="6.8456143140792847e-01" nType="0">
                  <Node pos="l" depth="6" NCoef="0" IVar="2" Cut="1.4632162475585938e+02" cType="1" res="1.1652722209692001e-01" rms="4.5870539546012878e-01" purity="6.9828468561172485e-01" nType="0">
                    <Node pos="l" depth="7" NCoef="0" IVar="-1" Cut="0.0000000000000000e+00" cType="1" res="9.6160769462585449e-03" rms="4.5507234334945679e-01" purity="7.0709246397018433e-01" nType="-99"/>
                    <Node pos="r" depth="7" NCoef="0" IVar="-1" Cut="0.0000000000000000e+00" cType="1" res="8.2492856308817863e-03" rms="4.6593853831291199e-01" purity="6.7945182323455811e-01" nType="-99"/>
                  </Node>
                  <Node pos="r" depth="6" NCoef="0" IVar="-1" Cut="0.0000000000000000e+00" cType="1" res="6.7983148619532585e-03" rms="4.7634971141815186e-01" purity="6.5110874176025391e-01" nType="-99"/>
                </Node>
                <Node pos="r" depth="5" NCoef="0" IVar="3" Cut="7.7562099695205688e-01" cType="1" res="5.4448109120130539e-02" rms="4.9042978882789612e-01" purity="5.8406502008438110e-01" nType="0">
                  <Node pos="l" depth="6" NCoef="0" IVar="-1" Cut="0.0000000000000000e+00" cType="1" res="3.0692608561366796e-03" rms="4.9512392282485962e-01" purity="5.5561709403991699e-01" nType="-99"/>
                  <Node pos="r" depth="6" NCoef="0" IVar="-1" Cut="0.0000000000000000e+00" cType="1" res="5.9938076883554459e-03" rms="4.8635926842689514e-01" purity="6.0569894313812256e-01" nType="-99"/>
                </Node>
              </Node>
            </Node>
            <Node pos="r" depth="3" NCoef="0" IVar="3" Cut="7.4869114160537720e-01" cType="1" res="-3.0153982341289520e-02" rms="4.9407619237899780e-01" purity="4.7246930003166199e-01" nType="0">
              <Node pos="l" depth="4" NCoef="0" IVar="-1" Cut="0.0000000000000000e+00" cType="1" res="-5.8738864026963711e-03" rms="4.8896086215972900e-01" purity="4.1483506560325623e-01" nType="-99"/>
              <Node pos="r" depth="4" NCoef="0" IVar="-1" Cut="0.0000000000000000e+00" cType="1" res="1.1699501192197204e-04" rms="4.9616238474845886e-01" purity="5.2111423015594482e-01" nType="-99"/>
            </Node>
          </Node>
          <Node pos="r" depth="2" NCoef="0" IVar="1" Cut="5.0322329998016357e-01" cType="1" res="1.3471581041812897e-01" rms="4.2744877934455872e-01" purity="7.5189924240112305e-01" nType="0">
            <Node pos="l" depth="3" NCoef="0" IVar="2" Cut="1.8824549865722656e+02" cType="1" res="1.4626960456371307e-01" rms="4.1827628016471863e-01" purity="7.6944750547409058e-01" nType="0">
              <Node pos="l" depth="4" NCoef="0" IVar="0" Cut="3.9769306778907776e-01" cType="1" res="1.4973378181457520e-01" rms="4.1530612111091614e-01" purity="7.7519834041595459e-01" nType="0">
                <Node pos="l" depth="5" NCoef="0" IVar="3" Cut="9.0164333581924438e-01" cType="1" res="1.5459913015365601e-01" rms="4.1151171922683716e-01" purity="7.8227418661117554e-01" nType="0">
                  <Node pos="l" depth="6" NCoef="0" IVar="3" Cut="8.6007696390151978e-01" cType="1" res="1.2351360172033310e-01" rms="4.4235870242118835e-01" purity="7.3104286193847656e-01" nType="0">
                    <Node pos="l" depth="7" NCoef="0" IVar="-1" Cut="0.0000000000000000e+00" cType="1" res="8.2146879285573959e-03" rms="4.5747360587120056e-01" purity="7.0016193389892578e-01" nType="-99"/>
                    <Node pos="r" depth="7" NCoef="0" IVar="-1" Cut="0.0000000000000000e+00" cType="1" res="1.1939545162022114e-02" rms="4.3076378107070923e-01" purity="7.5298207998275757e-01" nType="-99"/>
                  </Node>
                  <Node pos="r" depth="6" NCoef="0" IVar="0" Cut="1.2817939743399620e-02" cType="1" res="1.6384989023208618e-01" rms="4.0141052007675171e-01" purity="7.9752022027969360e-01" nType="0">
                    <Node pos="l" depth="7" NCoef="0" IVar="-1" Cut="0.0000000000000000e+00" cType="1" res="1.3599520549178123e-02" rms="3.9926350116729736e-01" purity="8.0058729648590088e-01" nType="-99"/>
                    <Node pos="r" depth="7" NCoef="0" IVar="-1" Cut="0.0000000000000000e+00" cType="1" res="9.5194308087229729e-03" rms="4.4539672136306763e-01" purity="7.2551113367080688e-01" nType="-99"/>
                  </Node>
                </Node>
                <Node pos="r" depth="5" NCoef="0" IVar="-1" Cut="0.0000000000000000e+00" cType="1" res="1.2966381618753076e-03" rms="4.9013999104499817e-01" purity="5.8047270774841309e-01" nType="-99"/>
              </Node>
              <Node pos="r" depth="4" NCoef="0" IVar="-1" Cut="0.0000000000000000e+00" cType="1" res="4.2399768717586994e-03" rms="4.8584702610969543e-01" purity="6.0354483127593994e-01" nType="-99"/>
            </Node>
            <Node pos="r" depth="3" NCoef="0" IVar="5" Cut="2.0000000000000000e+00" cType="1" res="6.5175339579582214e-02" rms="4.7276735305786133e-01" purity="6.4392107725143433e-01" nType="0">
              <Node pos="l" depth="4" NCoef="0" IVar="-1" Cut="0.0000000000000000e+00" cType="1" res="7.0395739749073982e-03" rms="4.6240350604057312e-01" purity="6.8174231052398682e-01" nType="-99"/>
              <Node pos="r" depth="4" NCoef="0" IVar="-1" Cut="0.0000000000000000e+00" cType="1" res="5.4222630569711328e-04" rms="4.9329221248626709e-01" purity="5.6111747026443481e-01" nType="-99"/>
            </Node>
          </Node>
        </Node>
      </Node>
    </BinaryTree>
    <BinaryTree type="DecisionTree" boostWeight="1.0000000000000000e+00" itree="17">
      <Node pos="s" depth="0" NCoef="0" IVar="3" Cut="6.7501425743103027e-01" cType="1" res="1.4389510266482830e-02" rms="4.3228527903556824e-01" purity="4.9879121780395508e-01" nType="0">
        <Node pos="l" depth="1" NCoef="0" IVar="3" Cut="5.4445958137512207e-01" cType="1" res="-1.1702384054660797e-01" rms="3.7299659848213196e-01" purity="1.9801713526248932e-01" nType="0">
          <Node pos="l" depth="2" NCoef="0" IVar="1" Cut="1.4958879351615906e-01" cType="1" res="-1.4290639758110046e-01" rms="3.2205656170845032e-01" purity="1.2825989723205566e-01" nType="0">
            <Node pos="l" depth="3" NCoef="0" IVar="3" Cut="4.3917000293731689e-01" cType="1" res="-1.1744628846645355e-01" rms="3.6611890792846680e-01" purity="1.7387035489082336e-01" nType="0">
              <Node pos="l" depth="4" NCoef="0" IVar="4" Cut="2.2162027657032013e-01" cType="1" res="-1.3449227809906006e-01" rms="3.2634526491165161e-01" purity="1.2882439792156219e-01" nType="0">
                <Node pos="l" depth="5" NCoef="0" IVar="4" Cut="7.2084769606590271e-02" cType="1" res="-1.4789538085460663e-01" rms="2.9640886187553406e-01" purity="1.0162324458360672e-01" nType="0">
                  <Node pos="l" depth="6" NCoef="0" IVar="-1" Cut="0.0000000000000000e+00" cType="1" res="-2.8756150975823402e-02" rms="2.1876071393489838e-01" purity="5.1272310316562653e-02" nType="-99"/>
                  <Node pos="r" depth="6" NCoef="0" IVar="2" Cut="3.1565673828125000e+02" cType="1" res="-1.3974644243717194e-01" rms="3.1378054618835449e-01" purity="1.1535564064979553e-01" nType="0">
                    <Node pos="l" depth="7" NCoef="0" IVar="-1" Cut="0.0000000000000000e+00" cType="1" res="-1.7023880034685135e-02" rms="3.3964255452156067e-01" purity="1.3815124332904816e-01" nType="-99"/>
                    <Node pos="r" depth="7" NCoef="0" IVar="-1" Cut="0.0000000000000000e+00" cType="1" res="-2.3271914571523666e-02" rms="2.8668764233589172e-01" purity="9.4875074923038483e-02" nType="-99"/>
                  </Node>
                </Node>
                <Node pos="r" depth="5" NCoef="0" IVar="-1" Cut="0.0000000000000000e+00" cType="1" res="-1.0211003012955189e-02" rms="4.1545492410659790e-01" purity="2.2985990345478058e-01" nType="-99"/>
              </Node>
              <Node pos="r" depth="4" NCoef="0" IVar="0" Cut="7.7215033769607544e-01" cType="1" res="-8.2719162106513977e-02" rms="4.3399885296821594e-01" purity="2.6564070582389832e-01" nType="0">
                <Node pos="l" depth="5" NCoef="0" IVar="0" Cut="3.4870058298110962e-01" cType="1" res="-5.7499513030052185e-02" rms="4.5977291464805603e-01" purity="3.1459200382232666e-01" nType="0">
                  <Node pos="l" depth="6" NCoef="0" IVar="-1" Cut="0.0000000000000000e+00" cType="1" res="-2.9307436197996140e-03" rms="4.7870397567749023e-01" purity="3.6492559313774109e-01" nType="-99"/>
                  <Node pos="r" depth="6" NCoef="0" IVar="-1" Cut="0.0000000000000000e+00" cType="1" res="-8.4025207906961441e-03" rms="4.4140678644180298e-01" purity="2.7098467946052551e-01" nType="-99"/>
                </Node>
                <Node pos="r" depth="5" NCoef="0" IVar="-1" Cut="0.0000000000000000e+00" cType="1" res="-1.5733541920781136e-02" rms="3.7553417682647705e-01" purity="1.7252832651138306e-01" nType="-99"/>
              </Node>
            </Node>
            <Node pos="r" depth="3" NCoef="0" IVar="3" Cut="4.5688977837562561e-01" cType="1" res="-1.6061350703239441e-01" rms="2.8612434864044189e-01" purity="9.6538528800010681e-02" nType="0">
              <Node pos="l" depth="4" NCoef="0" IVar="4" Cut="1.1532030999660492e-01" cType="1" res="-1.6594953835010529e-01" rms="2.5704365968704224e-01" purity="7.4387945234775543e-02" nType="0">
                <Node pos="l" depth="5" NCoef="0" IVar="4" Cut="8.1942997872829437e-02" cType="1" res="-1.7315728962421417e-01" rms="2.1323196589946747e-01" purity="4.8614725470542908e-02" nType="0">
                  <Node pos="l" depth="6" NCoef="0" IVar="2" Cut="6.1112922668457031e+01" cType="1" res="-1.7740070819854736e-01" rms="2.0071764290332794e-01" purity="4.2665719985961914e-02" nType="0">
                    <Node pos="l" depth="7" NCoef="0" IVar="-1" Cut="0.0000000000000000e+00" cType="1" res="-2.8679609298706055e-02" rms="2.3046141862869263e-01" purity="5.6932356208562851e-02" nType="-99"/>
                    <Node pos="r" depth="7" NCoef="0" IVar="-1" Cut="0.0000000000000000e+00" cType="1" res="-2.9627662152051926e-02" rms="1.9002681970596313e-01" purity="3.8067579269409180e-02" nType="-99"/>
                  </Node>
                  <Node pos="r" depth="6" NCoef="0" IVar="5" Cut="6.0000000000000000e+00" cType="1" res="-1.6526870429515839e-01" rms="2.3431526124477386e-01" purity="5.9545136988162994e-02" nType="0">
                    <Node pos="l" depth="7" NCoef="0" IVar="-1" Cut="0.0000000000000000e+00" cType="1" res="-2.8334578499197960e-02" rms="2.3750381171703339e-01" purity="6.0658521950244904e-02" nType="-99"/>
                    <Node pos="r" depth="7" NCoef="0" IVar="-1" Cut="0.0000000000000000e+00" cType="1" res="-2.6287965476512909e-02" rms="2.2993947565555573e-01" purity="5.8163437992334366e-02" nType="-99"/>
                  </Node>
                </Node>
                <Node pos="r" depth="5" NCoef="0" IVar="5" Cut="5.0000000000000000e+00" cType="1" res="0.0000000000000000e+00" rms="0.0000000000000000e+00" purity="1.0791543126106262e-01" nType="0">
                  <Node pos="l" depth="6" NCoef="0" IVar="-1" Cut="0.0000000000000000e+00" cType="1" res="-1.8692653626203537e-02" rms="3.5567086935043335e-01" purity="1.5346993505954742e-01" nType="-99"/>
                  <Node pos="r" depth="6" NCoef="0" IVar="3" Cut="2.9590764641761780e-01" cType="1" res="-1.6422398388385773e-01" rms="2.7918234467506409e-01" purity="8.8253296911716461e-02" nType="0">
                    <Node pos="l" depth="7" NCoef="0" IVar="-1" Cut="0.0000000000000000e+00" cType="1" res="-2.8444983065128326e-02" rms="2.4751482903957367e-01" purity="6.7755855619907379e-02" nType="-99"/>
                    <Node pos="r" depth="7" NCoef="0" IVar="-1" Cut="0.0000000000000000e+00" cType="1" res="-1.9408334046602249e-02" rms="3.3080250024795532e-01" purity="1.2787251174449921e-01" nType="-99"/>
                  </Node>
                </Node>
              </Node>
              <Node pos="r" depth="4" NCoef="0" IVar="0" Cut="6.4827072620391846e-01" cType="1" res="-1.3750253617763519e-01" rms="3.8681080937385559e-01" purity="1.9247516989707947e-01" nType="0">
                <Node pos="l" depth="5" NCoef="0" IVar="-1" Cut="0.0000000000000000e+00" cType="1" res="-1.0650399141013622e-02" rms="4.3753558397293091e-01" purity="2.6534131169319153e-01" nType="-99"/>
                <Node pos="r" depth="5" NCoef="0" IVar="-1" Cut="0.0000000000000000e+00" cType="1" res="-2.0534116774797440e-02" rms="3.3727520704269409e-01" purity="1.3272018730640411e-01" nType="-99"/>
              </Node>
            </Node>
          </Node>
          <Node pos="r" depth="2" NCoef="0" IVar="1" Cut="-4.6821840107440948e-02" cType="1" res="-4.7138184309005737e-02" rms="4.7752872109413147e-01" purity="3.8636916875839233e-01" nType="0">
            <Node pos="l" depth="3" NCoef="0" IVar="0" Cut="4.3360731005668640e-01" cType="1" res="2.6523792184889317e-03" rms="4.8990160226821899e-01" purity="4.5021057128906250e-01" nType="0">
              <Node pos="l" depth="4" NCoef="0" IVar="5" Cut="4.0000000000000000e+00" cType="1" res="2.2206395864486694e-02" rms="3.6526376008987427e-01" purity="5.0695514678955078e-01" nType="0">
                <Node pos="l" depth="5" NCoef="0" IVar="-1" Cut="0.0000000000000000e+00" cType="1" res="9.7890978213399649e-04" rms="4.9683353304862976e-01" purity="4.8708215355873108e-01" nType="-99"/>
                <Node pos="r" depth="5" NCoef="0" IVar="-1" Cut="0.0000000000000000e+00" cType="1" res="4.5502521097660065e-03" rms="4.9641045928001404e-01" purity="5.2769416570663452e-01" nType="-99"/>
              </Node>
              <Node pos="r" depth="4" NCoef="0" IVar="-1" Cut="0.0000000000000000e+00" cType="1" res="-5.2699954248964787e-03" rms="4.7036597132682800e-01" purity="3.3956801891326904e-01" nType="-99"/>
            </Node>
            <Node pos="r" depth="3" NCoef="0" IVar="0" Cut="5.7583475112915039e-01" cType="1" res="-7.1263544261455536e-02" rms="4.6952167153358459e-01" purity="3.5543569922447205e-01" nType="0">
              <Node pos="l" depth="4" NCoef="0" IVar="0" Cut="1.8575090914964676e-02" cType="1" res="-5.2415683865547180e-02" rms="4.8411020636558533e-01" purity="3.9688536524772644e-01" nType="0">
                <Node pos="l" depth="5" NCoef="0" IVar="3" Cut="6.2026768922805786e-01" cType="1" res="-2.4429773911833763e-02" rms="4.9483650922775269e-01" purity="4.5257776975631714e-01" nType="0">
                  <Node pos="l" depth="6" NCoef="0" IVar="-1" Cut="0.0000000000000000e+00" cType="1" res="-4.6345950104296207e-03" rms="4.8914605379104614e-01" purity="4.0843203663825989e-01" nType="-99"/>
                  <Node pos="r" depth="6" NCoef="0" IVar="-1" Cut="0.0000000000000000e+00" cType="1" res="4.8873858759179711e-05" rms="4.9876645207405090e-01" purity="4.9359369277954102e-01" nType="-99"/>
                </Node>
                <Node pos="r" depth="5" NCoef="0" IVar="2" Cut="1.3236477661132812e+02" cType="1" res="-7.0713639259338379e-02" rms="4.7607800364494324e-01" purity="3.6047211289405823e-01" nType="0">
                  <Node pos="l" depth="6" NCoef="0" IVar="-1" Cut="0.0000000000000000e+00" cType="1" res="-4.6583195216953754e-03" rms="4.8357835412025452e-01" purity="3.8987010717391968e-01" nType="-99"/>
                  <Node pos="r" depth="6" NCoef="0" IVar="-1" Cut="0.0000000000000000e+00" cType="1" res="-8.4723867475986481e-03" rms="4.6897473931312561e-01" purity="3.3554601669311523e-01" nType="-99"/>
                </Node>
              </Node>
              <Node pos="r" depth="4" NCoef="0" IVar="-1" Cut="0.0000000000000000e+00" cType="1" res="-1.3601944781839848e-02" rms="4.1858702898025513e-01" purity="2.3301875591278076e-01" nType="-99"/>
            </Node>
          </Node>
        </Node>
        <Node pos="r" depth="1" NCoef="0" IVar="3" Cut="8.2422333955764771e-01" cType="1" res="1.0388314723968506e-01" rms="4.4678288698196411e-01" purity="7.0362102985382080e-01" nType="0">
          <Node pos="l" depth="2" NCoef="0" IVar="3" Cut="7.2314828634262085e-01" cType="1" res="3.6648906767368317e-02" rms="4.8799130320549011e-01" purity="5.7460707426071167e-01" nType="0">
            <Node pos="l" depth="3" NCoef="0" IVar="5" Cut="3.0000000000000000e+00" cType="1" res="-5.5574784055352211e-03" rms="4.9482622742652893e-01" purity="5.0129264593124390e-01" nType="0">
              <Node pos="l" depth="4" NCoef="0" IVar="-1" Cut="0.0000000000000000e+00" cType="1" res="-2.9307759832590818e-03" rms="4.9438223242759705e-01" purity="4.5277115702629089e-01" nType="-99"/>
              <Node pos="r" depth="4" NCoef="0" IVar="1" Cut="1.6417188942432404e-01" cType="1" res="8.3698993548750877e-03" rms="4.9582469463348389e-01" purity="5.2496868371963501e-01" nType="0">
                <Node pos="l" depth="5" NCoef="0" IVar="-1" Cut="0.0000000000000000e+00" cType="1" res="2.2216122597455978e-03" rms="4.9512097239494324e-01" purity="5.5406671762466431e-01" nType="-99"/>
                <Node pos="r" depth="5" NCoef="0" IVar="-1" Cut="0.0000000000000000e+00" cType="1" res="-1.9269391195848584e-03" rms="4.9558740854263306e-01" purity="4.7372400760650635e-01" nType="-99"/>
              </Node>
            </Node>
            <Node pos="r" depth="3" NCoef="0" IVar="5" Cut="3.0000000000000000e+00" cType="1" res="5.4344598203897476e-02" rms="4.8333814740180969e-01" purity="6.0453498363494873e-01" nType="0">
              <Node pos="l" depth="4" NCoef="0" IVar="3" Cut="7.8836208581924438e-01" cType="1" res="4.0025856345891953e-02" rms="4.8778080940246582e-01" purity="5.8462339639663696e-01" nType="0">
                <Node pos="l" depth="5" NCoef="0" IVar="3" Cut="7.5050121545791626e-01" cType="1" res="1.8715072423219681e-02" rms="4.9302855134010315e-01" purity="5.4961675405502319e-01" nType="0">
                  <Node pos="l" depth="6" NCoef="0" IVar="-1" Cut="0.0000000000000000e+00" cType="1" res="-3.5358712193556130e-04" rms="4.9532330036163330e-01" purity="5.0905424356460571e-01" nType="-99"/>
                  <Node pos="r" depth="6" NCoef="0" IVar="3" Cut="7.7125978469848633e-01" cType="1" res="3.1401753425598145e-02" rms="4.9129995703697205e-01" purity="5.7193785905838013e-01" nType="0">
                    <Node pos="l" depth="7" NCoef="0" IVar="-1" Cut="0.0000000000000000e+00" cType="1" res="3.2400025520473719e-03" rms="4.9099946022033691e-01" purity="5.7351738214492798e-01" nType="-99"/>
                    <Node pos="r" depth="7" NCoef="0" IVar="-1" Cut="0.0000000000000000e+00" cType="1" res="1.6907494282349944e-03" rms="4.9140983819961548e-01" purity="5.7025802135467529e-01" nType="-99"/>
                  </Node>
                </Node>
                <Node pos="r" depth="5" NCoef="0" IVar="3" Cut="8.0687510967254639e-01" cType="1" res="6.2588579952716827e-02" rms="4.8113489151000977e-01" purity="6.2168651819229126e-01" nType="0">
                  <Node pos="l" depth="6" NCoef="0" IVar="-1" Cut="0.0000000000000000e+00" cType="1" res="5.7265111245214939e-03" rms="4.7904142737388611e-01" purity="6.2861704826354980e-01" nType="-99"/>
                  <Node pos="r" depth="6" NCoef="0" IVar="-1" Cut="0.0000000000000000e+00" cType="1" res="4.2767864651978016e-03" rms="4.8276892304420471e-01" purity="6.1569392681121826e-01" nType="-99"/>
                </Node>
              </Node>
              <Node pos="r" depth="4" NCoef="0" IVar="3" Cut="7.7204304933547974e-01" cType="1" res="7.5768992304801941e-02" rms="4.7646898031234741e-01" purity="6.3564306497573853e-01" nType="0">
                <Node pos="l" depth="5" NCoef="0" IVar="2" Cut="1.3009104919433594e+02" cType="1" res="6.1134595423936844e-02" rms="4.8329997062683105e-01" purity="6.1110466718673706e-01" nType="0">
                  <Node pos="l" depth="6" NCoef="0" IVar="-1" Cut="0.0000000000000000e+00" cType="1" res="6.2168380245566368e-03" rms="4.8024207353591919e-01" purity="6.2701827287673950e-01" nType="-99"/>
                  <Node pos="r" depth="6" NCoef="0" IVar="-1" Cut="0.0000000000000000e+00" cType="1" res="4.0039797313511372e-03" rms="4.8664346337318420e-01" purity="5.9109729528427124e-01" nType="-99"/>
                </Node>
                <Node pos="r" depth="5" NCoef="0" IVar="-1" Cut="0.0000000000000000e+00" cType="1" res="9.1408025473356247e-03" rms="4.6422770619392395e-01" purity="6.7534714937210083e-01" nType="-99"/>
              </Node>
            </Node>
          </Node>
          <Node pos="r" depth="2" NCoef="0" IVar="0" Cut="5.8072727918624878e-01" cType="1" res="1.2828394770622253e-01" rms="4.2825108766555786e-01" purity="7.5044304132461548e-01" nType="0">
            <Node pos="l" depth="3" NCoef="0" IVar="1" Cut="1.0112282037734985e+00" cType="1" res="1.3495288789272308e-01" rms="4.2452010512351990e-01" purity="7.5936943292617798e-01" nType="0">
              <Node pos="l" depth="4" NCoef="0" IVar="0" Cut="2.9967540502548218e-01" cType="1" res="1.4036844670772552e-01" rms="4.2032507061958313e-01" purity="7.6735591888427734e-01" nType="0">
                <Node pos="l" depth="5" NCoef="0" IVar="5" Cut="2.0000000000000000e+00" cType="1" res="1.3968081772327423e-01" rms="4.0968284010887146e-01" purity="7.7216273546218872e-01" nType="0">
                  <Node pos="l" depth="6" NCoef="0" IVar="1" Cut="4.8525625467300415e-01" cType="1" res="1.5457516908645630e-01" rms="4.0505135059356689e-01" purity="7.9226630926132202e-01" nType="0">
                    <Node pos="l" depth="7" NCoef="0" IVar="-1" Cut="0.0000000000000000e+00" cType="1" res="1.2941081076860428e-02" rms="4.0114060044288635e-01" purity="7.9806172847747803e-01" nType="-99"/>
                    <Node pos="r" depth="7" NCoef="0" IVar="-1" Cut="0.0000000000000000e+00" cType="1" res="1.0001616552472115e-02" rms="4.3913096189498901e-01" purity="7.3809236288070679e-01" nType="-99"/>
                  </Node>
                  <Node pos="r" depth="6" NCoef="0" IVar="1" Cut="-3.1926006078720093e-02" cType="1" res="1.1819458752870560e-01" rms="4.4533762335777283e-01" purity="7.2368460893630981e-01" nType="0">
                    <Node pos="l" depth="7" NCoef="0" IVar="-1" Cut="0.0000000000000000e+00" cType="1" res="1.1469993740320206e-02" rms="4.3170663714408875e-01" purity="7.5075292587280273e-01" nType="-99"/>
                    <Node pos="r" depth="7" NCoef="0" IVar="-1" Cut="0.0000000000000000e+00" cType="1" res="9.0441759675741196e-03" rms="4.5506381988525391e-01" purity="7.0298272371292114e-01" nType="-99"/>
                  </Node>
                </Node>
                <Node pos="r" depth="5" NCoef="0" IVar="-1" Cut="0.0000000000000000e+00" cType="1" res="3.4207948483526707e-03" rms="4.8000028729438782e-01" purity="6.3337737321853638e-01" nType="-99"/>
              </Node>
              <Node pos="r" depth="4" NCoef="0" IVar="-1" Cut="0.0000000000000000e+00" cType="1" res="2.4263337254524231e-03" rms="4.8710680007934570e-01" purity="6.0474538803100586e-01" nType="-99"/>
            </Node>
            <Node pos="r" depth="3" NCoef="0" IVar="-1" Cut="0.0000000000000000e+00" cType="1" res="-1.0834742337465286e-02" rms="4.8836132884025574e-01" purity="4.1546031832695007e-01" nType="-99"/>
          </Node>
        </Node>
      </Node>
    </BinaryTree>
    <BinaryTree type="DecisionTree" boostWeight="1.0000000000000000e+00" itree="18">
      <Node pos="s" depth="0" NCoef="0" IVar="3" Cut="6.7647039890289307e-01" cType="1" res="1.5149183571338654e-02" rms="4.2988103628158569e-01" purity="4.9906712770462036e-01" nType="0">
        <Node pos="l" depth="1" NCoef="0" IVar="3" Cut="5.4566681385040283e-01" cType="1" res="-1.1228653043508530e-01" rms="3.7170168757438660e-01" purity="1.9652155041694641e-01" nType="0">
          <Node pos="l" depth="2" NCoef="0" IVar="4" Cut="1.1746048927307129e-01" cType="1" res="-1.3596695661544800e-01" rms="3.2089114189147949e-01" purity="1.2739072740077972e-01" nType="0">
            <Node pos="l" depth="3" NCoef="0" IVar="3" Cut="4.9292123317718506e-01" cType="1" res="-1.5100811421871185e-01" rms="2.8271651268005371e-01" purity="9.5200486481189728e-02" nType="0">
              <Node pos="l" depth="4" NCoef="0" IVar="3" Cut="3.6588361859321594e-01" cType="1" res="-1.5738724172115326e-01" rms="2.4844548106193542e-01" purity="6.8964049220085144e-02" nType="0">
                <Node pos="l" depth="5" NCoef="0" IVar="5" Cut="5.0000000000000000e+00" cType="1" res="0.0000000000000000e+00" rms="0.0000000000000000e+00" purity="3.8940146565437317e-02" nType="0">
                  <Node pos="l" depth="6" NCoef="0" IVar="3" Cut="2.9528483748435974e-01" cType="1" res="-1.5210375189781189e-01" rms="2.4142183363437653e-01" purity="6.2540821731090546e-02" nType="0">
                    <Node pos="l" depth="7" NCoef="0" IVar="-1" Cut="0.0000000000000000e+00" cType="1" res="-2.4257175624370575e-02" rms="2.6205340027809143e-01" purity="7.4850946664810181e-02" nType="-99"/>
                    <Node pos="r" depth="7" NCoef="0" IVar="-1" Cut="0.0000000000000000e+00" cType="1" res="-2.8646906837821007e-02" rms="2.1792528033256531e-01" purity="5.0166372209787369e-02" nType="-99"/>
                  </Node>
                  <Node pos="r" depth="6" NCoef="0" IVar="3" Cut="2.3627950251102448e-01" cType="1" res="-1.6966587305068970e-01" rms="1.7128306627273560e-01" purity="3.0445797368884087e-02" nType="0">
                    <Node pos="l" depth="7" NCoef="0" IVar="-1" Cut="0.0000000000000000e+00" cType="1" res="-3.4971732646226883e-02" rms="1.3197003304958344e-01" purity="1.7758579924702644e-02" nType="-99"/>
                    <Node pos="r" depth="7" NCoef="0" IVar="-1" Cut="0.0000000000000000e+00" cType="1" res="-2.8920968994498253e-02" rms="1.9051516056060791e-01" purity="3.7907764315605164e-02" nType="-99"/>
                  </Node>
                </Node>
                <Node pos="r" depth="5" NCoef="0" IVar="0" Cut="9.4634348154067993e-01" cType="1" res="-1.4734405279159546e-01" rms="3.0661469697952271e-01" purity="1.0848067700862885e-01" nType="0">
                  <Node pos="l" depth="6" NCoef="0" IVar="4" Cut="7.9951547086238861e-02" cType="1" res="-1.2222693860530853e-01" rms="3.6405435204505920e-01" purity="1.6119354963302612e-01" nType="0">
                    <Node pos="l" depth="7" NCoef="0" IVar="-1" Cut="0.0000000000000000e+00" cType="1" res="-1.9220307469367981e-02" rms="3.3675190806388855e-01" purity="1.3428831100463867e-01" nType="-99"/>
                    <Node pos="r" depth="7" NCoef="0" IVar="-1" Cut="0.0000000000000000e+00" cType="1" res="-1.2380919419229031e-02" rms="3.8903987407684326e-01" purity="1.8914981186389923e-01" nType="-99"/>
                  </Node>
                  <Node pos="r" depth="6" NCoef="0" IVar="5" Cut="4.0000000000000000e+00" cType="1" res="-1.6154868900775909e-01" rms="2.6547822356224060e-01" purity="7.7005669474601746e-02" nType="0">
                    <Node pos="l" depth="7" NCoef="0" IVar="-1" Cut="0.0000000000000000e+00" cType="1" res="-2.7386473491787910e-02" rms="2.5186207890510559e-01" purity="6.8698987364768982e-02" nType="-99"/>
                    <Node pos="r" depth="7" NCoef="0" IVar="-1" Cut="0.0000000000000000e+00" cType="1" res="-2.2785568609833717e-02" rms="2.7160388231277466e-01" purity="8.1234917044639587e-02" nType="-99"/>
                  </Node>
                </Node>
              </Node>
              <Node pos="r" depth="4" NCoef="0" IVar="2" Cut="1.3150169372558594e+02" cType="1" res="-1.1986625194549561e-01" rms="4.0942206978797913e-01" purity="2.2328244149684906e-01" nType="0">
                <Node pos="l" depth="5" NCoef="0" IVar="-1" Cut="0.0000000000000000e+00" cType="1" res="-8.9124497026205063e-03" rms="4.3440464138984680e-01" purity="2.6627472043037415e-01" nType="-99"/>
                <Node pos="r" depth="5" NCoef="0" IVar="-1" Cut="0.0000000000000000e+00" cType="1" res="-1.7121946439146996e-02" rms="3.8353368639945984e-01" purity="1.8545936048030853e-01" nType="-99"/>
              </Node>
            </Node>
            <Node pos="r" depth="3" NCoef="0" IVar="3" Cut="4.7537979483604431e-01" cType="1" res="-1.1826776713132858e-01" rms="3.5986965894699097e-01" purity="1.6526956856250763e-01" nType="0">
              <Node pos="l" depth="4" NCoef="0" IVar="5" Cut="4.0000000000000000e+00" cType="1" res="1.3249811530113220e-01" rms="0.0000000000000000e+00" purity="1.4188833534717560e-01" nType="0">
                <Node pos="l" depth="5" NCoef="0" IVar="-1" Cut="0.0000000000000000e+00" cType="1" res="-1.0436451993882656e-02" rms="4.1466978192329407e-01" purity="2.2848451137542725e-01" nType="-99"/>
                <Node pos="r" depth="5" NCoef="0" IVar="1" Cut="7.5091958045959473e-01" cType="1" res="-1.3542118668556213e-01" rms="3.2489144802093506e-01" purity="1.2597683072090149e-01" nType="0">
                  <Node pos="l" depth="6" NCoef="0" IVar="2" Cut="2.3345213317871094e+02" cType="1" res="-1.2885396182537079e-01" rms="3.3729544281959534e-01" purity="1.3727842271327972e-01" nType="0">
                    <Node pos="l" depth="7" NCoef="0" IVar="-1" Cut="0.0000000000000000e+00" cType="1" res="-1.3963526114821434e-02" rms="3.6084732413291931e-01" purity="1.6405288875102997e-01" nType="-99"/>
                    <Node pos="r" depth="7" NCoef="0" IVar="-1" Cut="0.0000000000000000e+00" cType="1" res="-1.8918696790933609e-02" rms="3.3111172914505005e-01" purity="1.3100017607212067e-01" nType="-99"/>
                  </Node>
                  <Node pos="r" depth="6" NCoef="0" IVar="-1" Cut="0.0000000000000000e+00" cType="1" res="-2.6341712102293968e-02" rms="2.6463761925697327e-01" purity="7.8403025865554810e-02" nType="-99"/>
                </Node>
              </Node>
              <Node pos="r" depth="4" NCoef="0" IVar="-1" Cut="0.0000000000000000e+00" cType="1" res="-5.2178869955241680e-03" rms="4.6344578266143799e-01" purity="3.2326048612594604e-01" nType="-99"/>
            </Node>
          </Node>
          <Node pos="r" depth="2" NCoef="0" IVar="3" Cut="6.0896044969558716e-01" cType="1" res="-4.8182975500822067e-02" rms="4.7728174924850464e-01" purity="3.8366052508354187e-01" nType="0">
            <Node pos="l" depth="3" NCoef="0" IVar="4" Cut="7.5469516217708588e-02" cType="1" res="-7.8441455960273743e-02" rms="4.6259108185768127e-01" purity="3.2954761385917664e-01" nType="0">
              <Node pos="l" depth="4" NCoef="0" IVar="2" Cut="1.0015418243408203e+02" cType="1" res="-1.0537028312683105e-01" rms="4.4592368602752686e-01" purity="2.8887841105461121e-01" nType="0">
                <Node pos="l" depth="5" NCoef="0" IVar="-1" Cut="0.0000000000000000e+00" cType="1" res="-7.1745025925338268e-03" rms="4.6315598487854004e-01" purity="3.2950252294540405e-01" nType="-99"/>
                <Node pos="r" depth="5" NCoef="0" IVar="-1" Cut="0.0000000000000000e+00" cType="1" res="-1.4130518771708012e-02" rms="4.2470031976699829e-01" purity="2.4602395296096802e-01" nType="-99"/>
              </Node>
              <Node pos="r" depth="4" NCoef="0" IVar="2" Cut="1.9448725891113281e+02" cType="1" res="-5.8297619223594666e-02" rms="4.7367662191390991e-01" purity="3.5996979475021362e-01" nType="0">
                <Node pos="l" depth="5" NCoef="0" IVar="-1" Cut="0.0000000000000000e+00" cType="1" res="-7.7444862108677626e-04" rms="4.8885840177536011e-01" purity="4.2558801174163818e-01" nType="-99"/>
                <Node pos="r" depth="5" NCoef="0" IVar="-1" Cut="0.0000000000000000e+00" cType="1" res="-8.6122406646609306e-03" rms="4.6237885951995850e-01" purity="3.2239237427711487e-01" nType="-99"/>
              </Node>
            </Node>
            <Node pos="r" depth="3" NCoef="0" IVar="1" Cut="1.9871324300765991e-01" cType="1" res="-2.2078121080994606e-02" rms="4.8809683322906494e-01" purity="4.3034526705741882e-01" nType="0">
              <Node pos="l" depth="4" NCoef="0" IVar="2" Cut="8.8940536499023438e+01" cType="1" res="1.0522864758968353e-02" rms="4.9475118517875671e-01" purity="4.7414594888687134e-01" nType="0">
                <Node pos="l" depth="5" NCoef="0" IVar="-1" Cut="0.0000000000000000e+00" cType="1" res="3.3900386188179255e-03" rms="4.9559846520423889e-01" purity="5.0904613733291626e-01" nType="-99"/>
                <Node pos="r" depth="5" NCoef="0" IVar="0" Cut="1.4481380581855774e-01" cType="1" res="-2.7906978502869606e-03" rms="4.9378985166549683e-01" purity="4.5915618538856506e-01" nType="0">
                  <Node pos="l" depth="6" NCoef="0" IVar="-1" Cut="0.0000000000000000e+00" cType="1" res="1.8033194355666637e-03" rms="4.9867105484008789e-01" purity="5.2236670255661011e-01" nType="-99"/>
                  <Node pos="r" depth="6" NCoef="0" IVar="-1" Cut="0.0000000000000000e+00" cType="1" res="-1.9016710575670004e-03" rms="4.8943135142326355e-01" purity="4.1273522377014160e-01" nType="-99"/>
                </Node>
              </Node>
              <Node pos="r" depth="4" NCoef="0" IVar="3" Cut="6.4162498712539673e-01" cType="1" res="-7.7037908136844635e-02" rms="4.7159355878829956e-01" purity="3.5650464892387390e-01" nType="0">
                <Node pos="l" depth="5" NCoef="0" IVar="-1" Cut="0.0000000000000000e+00" cType="1" res="-8.1906095147132874e-03" rms="4.6385890245437622e-01" purity="3.3690974116325378e-01" nType="-99"/>
                <Node pos="r" depth="5" NCoef="0" IVar="-1" Cut="0.0000000000000000e+00" cType="1" res="-6.3178376294672489e-03" rms="4.7846651077270508e-01" purity="3.7459501624107361e-01" nType="-99"/>
              </Node>
            </Node>
          </Node>
        </Node>
        <Node pos="r" depth="1" NCoef="0" IVar="3" Cut="8.2596194744110107e-01" cType="1" res="1.0270244628190994e-01" rms="4.4498893618583679e-01" purity="7.0692759752273560e-01" nType="0">
          <Node pos="l" depth="2" NCoef="0" IVar="1" Cut="3.3702519536018372e-01" cType="1" res="3.8918778300285339e-02" rms="4.8713409900665283e-01" purity="5.7971239089965820e-01" nType="0">
            <Node pos="l" depth="3" NCoef="0" IVar="0" Cut="4.2297556996345520e-01" cType="1" res="5.9560749679803848e-02" rms="4.8315376043319702e-01" purity="6.1054927110671997e-01" nType="0">
              <Node pos="l" depth="4" NCoef="0" IVar="3" Cut="7.7773880958557129e-01" cType="1" res="6.7075356841087341e-02" rms="4.8125520348548889e-01" purity="6.2471342086791992e-01" nType="0">
                <Node pos="l" depth="5" NCoef="0" IVar="2" Cut="1.0217102050781250e+02" cType="1" res="5.1324047148227692e-02" rms="4.8845192790031433e-01" purity="5.9557348489761353e-01" nType="0">
                  <Node pos="l" depth="6" NCoef="0" IVar="5" Cut="3.0000000000000000e+00" cType="1" res="4.4838275760412216e-02" rms="3.6534604430198669e-01" purity="6.2352782487869263e-01" nType="0">
                    <Node pos="l" depth="7" NCoef="0" IVar="-1" Cut="0.0000000000000000e+00" cType="1" res="4.5468774624168873e-03" rms="4.8954594135284424e-01" purity="5.9233260154724121e-01" nType="-99"/>
                    <Node pos="r" depth="7" NCoef="0" IVar="-1" Cut="0.0000000000000000e+00" cType="1" res="7.1747498586773872e-03" rms="4.7865054011344910e-01" purity="6.4126330614089966e-01" nType="-99"/>
                  </Node>
                  <Node pos="r" depth="6" NCoef="0" IVar="0" Cut="1.3640757650136948e-02" cType="1" res="3.1274840235710144e-02" rms="4.9199369549751282e-01" purity="5.7321286201477051e-01" nType="0">
                    <Node pos="l" depth="7" NCoef="0" IVar="-1" Cut="0.0000000000000000e+00" cType="1" res="4.1048950515687466e-03" rms="4.8721736669540405e-01" purity="6.0704892873764038e-01" nType="-99"/>
                    <Node pos="r" depth="7" NCoef="0" IVar="-1" Cut="0.0000000000000000e+00" cType="1" res="1.1660301242955029e-04" rms="4.9884948134422302e-01" purity="5.1386296749114990e-01" nType="-99"/>
                  </Node>
                </Node>
                <Node pos="r" depth="5" NCoef="0" IVar="2" Cut="5.7517398834228516e+01" cType="1" res="9.3100979924201965e-02" rms="4.6796208620071411e-01" purity="6.7286086082458496e-01" nType="0">
                  <Node pos="l" depth="6" NCoef="0" IVar="-1" Cut="0.0000000000000000e+00" cType="1" res="8.3606382831931114e-03" rms="4.6112006902694702e-01" purity="6.9086474180221558e-01" nType="-99"/>
                  <Node pos="r" depth="6" NCoef="0" IVar="3" Cut="7.9796296358108521e-01" cType="1" res="8.5719220340251923e-02" rms="4.7082975506782532e-01" purity="6.6473954916000366e-01" nType="0">
                    <Node pos="l" depth="7" NCoef="0" IVar="-1" Cut="0.0000000000000000e+00" cType="1" res="6.5748691558837891e-03" rms="4.7414469718933105e-01" purity="6.5412271022796631e-01" nType="-99"/>
                    <Node pos="r" depth="7" NCoef="0" IVar="-1" Cut="0.0000000000000000e+00" cType="1" res="7.5571662746369839e-03" rms="4.6839794516563416e-01" purity="6.7218834161758423e-01" nType="-99"/>
                  </Node>
                </Node>
              </Node>
              <Node pos="r" depth="4" NCoef="0" IVar="-1" Cut="0.0000000000000000e+00" cType="1" res="-2.0910140592604876e-03" rms="4.9616163969039917e-01" purity="4.5334038138389587e-01" nType="-99"/>
            </Node>
            <Node pos="r" depth="3" NCoef="0" IVar="5" Cut="3.0000000000000000e+00" cType="1" res="-2.7258422225713730e-02" rms="4.9310317635536194e-01" purity="4.7925636172294617e-01" nType="0">
              <Node pos="l" depth="4" NCoef="0" IVar="3" Cut="7.6812052726745605e-01" cType="1" res="-5.2246160805225372e-02" rms="4.9212327599525452e-01" purity="4.5427936315536499e-01" nType="0">
                <Node pos="l" depth="5" NCoef="0" IVar="-1" Cut="0.0000000000000000e+00" cType="1" res="-7.8552570194005966e-03" rms="4.8337700963020325e-01" purity="3.9132148027420044e-01" nType="-99"/>
                <Node pos="r" depth="5" NCoef="0" IVar="-1" Cut="0.0000000000000000e+00" cType="1" res="-1.5040331054478884e-03" rms="4.9719735980033875e-01" purity="5.0924813747406006e-01" nType="-99"/>
              </Node>
              <Node pos="r" depth="4" NCoef="0" IVar="-1" Cut="0.0000000000000000e+00" cType="1" res="3.7343063740991056e-04" rms="4.9453195929527283e-01" purity="5.1333695650100708e-01" nType="-99"/>
            </Node>
          </Node>
          <Node pos="r" depth="2" NCoef="0" IVar="2" Cut="1.8723973083496094e+02" cType="1" res="1.2596239149570465e-01" rms="4.2622140049934387e-01" purity="7.5331902503967285e-01" nType="0">
            <Node pos="l" depth="3" NCoef="0" IVar="0" Cut="4.9305471777915955e-01" cType="1" res="1.3051353394985199e-01" rms="4.2293775081634521e-01" purity="7.6059103012084961e-01" nType="0">
              <Node pos="l" depth="4" NCoef="0" IVar="0" Cut="1.7493322491645813e-01" cType="1" res="1.3533516228199005e-01" rms="4.1967192292213440e-01" purity="7.6785153150558472e-01" nType="0">
                <Node pos="l" depth="5" NCoef="0" IVar="3" Cut="9.7840988636016846e-01" cType="1" res="1.3996735215187073e-01" rms="4.1597408056259155e-01" purity="7.7419936656951904e-01" nType="0">
                  <Node pos="l" depth="6" NCoef="0" IVar="1" Cut="2.6295031420886517e-03" cType="1" res="1.1762629449367523e-01" rms="4.3784487247467041e-01" purity="7.3704189062118530e-01" nType="0">
                    <Node pos="l" depth="7" NCoef="0" IVar="-1" Cut="0.0000000000000000e+00" cType="1" res="1.1194567196071148e-02" rms="4.2354726791381836e-01" purity="7.6463294029235840e-01" nType="-99"/>
                    <Node pos="r" depth="7" NCoef="0" IVar="-1" Cut="0.0000000000000000e+00" cType="1" res="8.7164677679538727e-03" rms="4.5033633708953857e-01" purity="7.1124207973480225e-01" nType="-99"/>
                  </Node>
                  <Node pos="r" depth="6" NCoef="0" IVar="1" Cut="-1.5643326565623283e-02" cType="1" res="1.5183159708976746e-01" rms="4.0337565541267395e-01" purity="7.9393184185028076e-01" nType="0">
                    <Node pos="l" depth="7" NCoef="0" IVar="-1" Cut="0.0000000000000000e+00" cType="1" res="1.3173802755773067e-02" rms="3.9075177907943726e-01" purity="8.1189996004104614e-01" nType="-99"/>
                    <Node pos="r" depth="7" NCoef="0" IVar="-1" Cut="0.0000000000000000e+00" cType="1" res="1.1821394786238670e-02" rms="4.1292291879653931e-01" purity="7.7978277206420898e-01" nType="-99"/>
                  </Node>
                </Node>
                <Node pos="r" depth="5" NCoef="0" IVar="0" Cut="2.9807859659194946e-01" cType="1" res="6.3916265964508057e-02" rms="4.6726447343826294e-01" purity="6.6998106241226196e-01" nType="0">
                  <Node pos="l" depth="6" NCoef="0" IVar="-1" Cut="0.0000000000000000e+00" cType="1" res="7.8209415078163147e-03" rms="4.5662483572959900e-01" purity="6.9624215364456177e-01" nType="-99"/>
                  <Node pos="r" depth="6" NCoef="0" IVar="-1" Cut="0.0000000000000000e+00" cType="1" res="3.4658520016819239e-03" rms="4.7782900929450989e-01" purity="6.4085531234741211e-01" nType="-99"/>
                </Node>
              </Node>
              <Node pos="r" depth="4" NCoef="0" IVar="-1" Cut="0.0000000000000000e+00" cType="1" res="-3.0467882752418518e-03" rms="4.9542334675788879e-01" purity="5.0943440198898315e-01" nType="-99"/>
            </Node>
            <Node pos="r" depth="3" NCoef="0" IVar="-1" Cut="0.0000000000000000e+00" cType="1" res="9.0404268121346831e-04" rms="4.8869523406028748e-01" purity="5.6766027212142944e-01" nType="-99"/>
          </Node>
        </Node>
      </Node>
    </BinaryTree>
    <BinaryTree type="DecisionTree" boostWeight="1.0000000000000000e+00" itree="19">
      <Node pos="s" depth="0" NCoef="0" IVar="3" Cut="6.7608582973480225e-01" cType="1" res="1.6344498842954636e-02" rms="4.2878654599189758e-01" purity="5.0020438432693481e-01" nType="0">
        <Node pos="l" depth="1" NCoef="0" IVar="3" Cut="5.4525941610336304e-01" cType="1" res="-1.0402181744575500e-01" rms="3.7311178445816040e-01" purity="1.9899106025695801e-01" nType="0">
          <Node pos="l" depth="2" NCoef="0" IVar="1" Cut="7.5091958045959473e-01" cType="1" res="-1.2707032263278961e-01" rms="3.2286620140075684e-01" purity="1.2917396426200867e-01" nType="0">
            <Node pos="l" depth="3" NCoef="0" IVar="3" Cut="4.7491335868835449e-01" cType="1" res="-1.1826945841312408e-01" rms="3.4209439158439636e-01" purity="1.4772763848304749e-01" nType="0">
              <Node pos="l" depth="4" NCoef="0" IVar="4" Cut="1.5732595324516296e-01" cType="1" res="-1.2710361182689667e-01" rms="3.1364914774894714e-01" purity="1.1775664240121841e-01" nType="0">
                <Node pos="l" depth="5" NCoef="0" IVar="2" Cut="1.4584385681152344e+02" cType="1" res="-1.4094908535480499e-01" rms="2.7255424857139587e-01" purity="8.4337845444679260e-02" nType="0">
                  <Node pos="l" depth="6" NCoef="0" IVar="4" Cut="7.1422383189201355e-02" cType="1" res="-1.2423526495695114e-01" rms="2.9252552986145020e-01" purity="9.8582103848457336e-02" nType="0">
                    <Node pos="l" depth="7" NCoef="0" IVar="-1" Cut="0.0000000000000000e+00" cType="1" res="-2.3765176534652710e-02" rms="2.5687852501869202e-01" purity="7.3254480957984924e-02" nType="-99"/>
                    <Node pos="r" depth="7" NCoef="0" IVar="-1" Cut="0.0000000000000000e+00" cType="1" res="-1.4942199923098087e-02" rms="3.4033468365669250e-01" purity="1.3951614499092102e-01" nType="-99"/>
                  </Node>
                  <Node pos="r" depth="6" NCoef="0" IVar="4" Cut="1.0267288982868195e-01" cType="1" res="-1.5012526512145996e-01" rms="2.6048490405082703e-01" purity="7.6517499983310699e-02" nType="0">
                    <Node pos="l" depth="7" NCoef="0" IVar="-1" Cut="0.0000000000000000e+00" cType="1" res="-2.6704568415880203e-02" rms="2.1664611995220184e-01" purity="5.0600156188011169e-02" nType="-99"/>
                    <Node pos="r" depth="7" NCoef="0" IVar="-1" Cut="0.0000000000000000e+00" cType="1" res="-2.1159000694751740e-02" rms="2.9250508546829224e-01" purity="9.8774731159210205e-02" nType="-99"/>
                  </Node>
                </Node>
                <Node pos="r" depth="5" NCoef="0" IVar="5" Cut="4.0000000000000000e+00" cType="1" res="1.5168967843055725e-01" rms="2.7731552720069885e-01" purity="1.7869541049003601e-01" nType="0">
                  <Node pos="l" depth="6" NCoef="0" IVar="-1" Cut="0.0000000000000000e+00" cType="1" res="-4.8760022036731243e-03" rms="4.5157149434089661e-01" purity="2.9155787825584412e-01" nType="-99"/>
                  <Node pos="r" depth="6" NCoef="0" IVar="3" Cut="3.2176214456558228e-01" cType="1" res="-1.1277016997337341e-01" rms="3.5885536670684814e-01" purity="1.5744313597679138e-01" nType="0">
                    <Node pos="l" depth="7" NCoef="0" IVar="-1" Cut="0.0000000000000000e+00" cType="1" res="-1.7925074324011803e-02" rms="3.3793890476226807e-01" purity="1.3627240061759949e-01" nType="-99"/>
                    <Node pos="r" depth="7" NCoef="0" IVar="-1" Cut="0.0000000000000000e+00" cType="1" res="-1.1166116222739220e-02" rms="3.9831435680389404e-01" purity="2.0192706584930420e-01" nType="-99"/>
                  </Node>
                </Node>
              </Node>
              <Node pos="r" depth="4" NCoef="0" IVar="0" Cut="5.6207031011581421e-01" cType="1" res="-8.3866827189922333e-02" rms="4.3379753828048706e-01" purity="2.6444315910339355e-01" nType="0">
                <Node pos="l" depth="5" NCoef="0" IVar="1" Cut="4.7291461378335953e-02" cType="1" res="-5.6745793670415878e-02" rms="4.6734204888343811e-01" purity="3.3128577470779419e-01" nType="0">
                  <Node pos="l" depth="6" NCoef="0" IVar="-1" Cut="0.0000000000000000e+00" cType="1" res="-3.5214659292250872e-03" rms="4.7571599483489990e-01" purity="3.5744360089302063e-01" nType="-99"/>
                  <Node pos="r" depth="6" NCoef="0" IVar="-1" Cut="0.0000000000000000e+00" cType="1" res="-7.4743684381246567e-03" rms="4.5767366886138916e-01" purity="3.0433717370033264e-01" nType="-99"/>
                </Node>
                <Node pos="r" depth="5" NCoef="0" IVar="2" Cut="1.4527053833007812e+02" cType="1" res="-1.0984515398740768e-01" rms="3.9729866385459900e-01" purity="2.0041683316230774e-01" nType="0">
                  <Node pos="l" depth="6" NCoef="0" IVar="-1" Cut="0.0000000000000000e+00" cType="1" res="-9.8719876259565353e-03" rms="4.1787168383598328e-01" purity="2.2909823060035706e-01" nType="-99"/>
                  <Node pos="r" depth="6" NCoef="0" IVar="-1" Cut="0.0000000000000000e+00" cType="1" res="-1.5246692113578320e-02" rms="3.7948915362358093e-01" purity="1.7783731222152710e-01" nType="-99"/>
                </Node>
              </Node>
            </Node>
            <Node pos="r" depth="3" NCoef="0" IVar="5" Cut="5.0000000000000000e+00" cType="1" res="0.0000000000000000e+00" rms="0.0000000000000000e+00" purity="7.1320965886116028e-02" nType="0">
              <Node pos="l" depth="4" NCoef="0" IVar="3" Cut="3.3939284086227417e-01" cType="1" res="-1.4201952517032623e-01" rms="3.0392232537269592e-01" purity="1.0553054511547089e-01" nType="0">
                <Node pos="l" depth="5" NCoef="0" IVar="-1" Cut="0.0000000000000000e+00" cType="1" res="-1.9030064344406128e-02" rms="3.0962002277374268e-01" purity="1.1024408787488937e-01" nType="-99"/>
                <Node pos="r" depth="5" NCoef="0" IVar="-1" Cut="0.0000000000000000e+00" cType="1" res="-2.3096820339560509e-02" rms="2.9855287075042725e-01" purity="1.0230246186256409e-01" nType="-99"/>
              </Node>
              <Node pos="r" depth="4" NCoef="0" IVar="3" Cut="3.1708392500877380e-01" cType="1" res="-1.6284649074077606e-01" rms="2.0944635570049286e-01" purity="4.8500575125217438e-02" nType="0">
                <Node pos="l" depth="5" NCoef="0" IVar="3" Cut="1.8462646007537842e-01" cType="1" res="-1.6651861369609833e-01" rms="1.7527270317077637e-01" purity="3.2982897013425827e-02" nType="0">
                  <Node pos="l" depth="6" NCoef="0" IVar="-1" Cut="0.0000000000000000e+00" cType="1" res="-3.2702788710594177e-02" rms="1.7207019031047821e-01" purity="3.1685885041952133e-02" nType="-99"/>
                  <Node pos="r" depth="6" NCoef="0" IVar="-1" Cut="0.0000000000000000e+00" cType="1" res="-3.0867410823702812e-02" rms="1.7748874425888062e-01" purity="3.3943042159080505e-02" nType="-99"/>
                </Node>
                <Node pos="r" depth="5" NCoef="0" IVar="-1" Cut="0.0000000000000000e+00" cType="1" res="-2.2953784093260765e-02" rms="2.7898281812667847e-01" purity="8.8736034929752350e-02" nType="-99"/>
              </Node>
            </Node>
          </Node>
          <Node pos="r" depth="2" NCoef="0" IVar="1" Cut="6.2054418027400970e-02" cType="1" res="-4.1722826659679413e-02" rms="4.7793000936508179e-01" purity="3.8770329952239990e-01" nType="0">
            <Node pos="l" depth="3" NCoef="0" IVar="2" Cut="1.5384400939941406e+02" cType="1" res="3.5165259614586830e-03" rms="4.9048846960067749e-01" purity="4.4829219579696655e-01" nType="0">
              <Node pos="l" depth="4" NCoef="0" IVar="4" Cut="6.0163512825965881e-02" cType="1" res="3.4254934638738632e-02" rms="4.9362868070602417e-01" purity="4.8810684680938721e-01" nType="0">
                <Node pos="l" depth="5" NCoef="0" IVar="-1" Cut="0.0000000000000000e+00" cType="1" res="1.9830363453365862e-04" rms="4.8961541056632996e-01" purity="4.4536307454109192e-01" nType="-99"/>
                <Node pos="r" depth="5" NCoef="0" IVar="-1" Cut="0.0000000000000000e+00" cType="1" res="5.3119491785764694e-03" rms="4.9555274844169617e-01" purity="5.3140717744827271e-01" nType="-99"/>
              </Node>
              <Node pos="r" depth="4" NCoef="0" IVar="3" Cut="6.2125676870346069e-01" cType="1" res="-2.6527617126703262e-02" rms="4.8552262783050537e-01" purity="4.0937682986259460e-01" nType="0">
                <Node pos="l" depth="5" NCoef="0" IVar="-1" Cut="0.0000000000000000e+00" cType="1" res="-4.3524703942239285e-03" rms="4.7795262932777405e-01" purity="3.7208110094070435e-01" nType="-99"/>
                <Node pos="r" depth="5" NCoef="0" IVar="-1" Cut="0.0000000000000000e+00" cType="1" res="4.1348161175847054e-05" rms="4.9498349428176880e-01" purity="4.6312245726585388e-01" nType="-99"/>
              </Node>
            </Node>
            <Node pos="r" depth="3" NCoef="0" IVar="1" Cut="8.3903121948242188e-01" cType="1" res="-8.1556417047977448e-02" rms="4.6294683218002319e-01" purity="3.3435431122779846e-01" nType="0">
              <Node pos="l" depth="4" NCoef="0" IVar="3" Cut="6.4653402566909790e-01" cType="1" res="-6.7672155797481537e-02" rms="4.7078952193260193e-01" purity="3.5521215200424194e-01" nType="0">
                <Node pos="l" depth="5" NCoef="0" IVar="0" Cut="2.8662613034248352e-01" cType="1" res="-8.2828857004642487e-02" rms="4.6327099204063416e-01" purity="3.3019307255744934e-01" nType="0">
                  <Node pos="l" depth="6" NCoef="0" IVar="-1" Cut="0.0000000000000000e+00" cType="1" res="-4.0994682349264622e-03" rms="4.9080201983451843e-01" purity="4.1524171829223633e-01" nType="-99"/>
                  <Node pos="r" depth="6" NCoef="0" IVar="0" Cut="5.6406152248382568e-01" cType="1" res="-1.0432203859090805e-01" rms="4.4534921646118164e-01" purity="2.8157934546470642e-01" nType="0">
                    <Node pos="l" depth="7" NCoef="0" IVar="-1" Cut="0.0000000000000000e+00" cType="1" res="-8.6223930120468140e-03" rms="4.6624249219894409e-01" purity="3.2631623744964600e-01" nType="-99"/>
                    <Node pos="r" depth="7" NCoef="0" IVar="-1" Cut="0.0000000000000000e+00" cType="1" res="-1.2801418080925941e-02" rms="4.2160239815711975e-01" purity="2.3422822356224060e-01" nType="-99"/>
                  </Node>
                </Node>
                <Node pos="r" depth="5" NCoef="0" IVar="-1" Cut="0.0000000000000000e+00" cType="1" res="-1.7082395497709513e-03" rms="4.9094650149345398e-01" purity="4.3527489900588989e-01" nType="-99"/>
              </Node>
              <Node pos="r" depth="4" NCoef="0" IVar="-1" Cut="0.0000000000000000e+00" cType="1" res="-1.4856603927910328e-02" rms="4.2033076286315918e-01" purity="2.4068105220794678e-01" nType="-99"/>
            </Node>
          </Node>
        </Node>
        <Node pos="r" depth="1" NCoef="0" IVar="5" Cut="2.0000000000000000e+00" cType="1" res="9.9062256515026093e-02" rms="4.4461986422538757e-01" purity="7.0704907178878784e-01" nType="0">
          <Node pos="l" depth="2" NCoef="0" IVar="1" Cut="7.2159433364868164e-01" cType="1" res="1.3459795713424683e-01" rms="4.1295099258422852e-01" purity="7.7670383453369141e-01" nType="0">
            <Node pos="l" depth="3" NCoef="0" IVar="3" Cut="9.5581579208374023e-01" cType="1" res="1.4208589494228363e-01" rms="4.0603175759315491e-01" purity="7.8863918781280518e-01" nType="0">
              <Node pos="l" depth="4" NCoef="0" IVar="-1" Cut="0.0000000000000000e+00" cType="1" res="9.4342734664678574e-03" rms="4.3498927354812622e-01" purity="7.4297666549682617e-01" nType="-99"/>
              <Node pos="r" depth="4" NCoef="0" IVar="3" Cut="1.0167245864868164e+00" cType="1" res="1.4374402165412903e-01" rms="4.0418183803558350e-01" purity="7.9135769605636597e-01" nType="0">
                <Node pos="l" depth="5" NCoef="0" IVar="3" Cut="9.9904245138168335e-01" cType="1" res="1.4443755149841309e-01" rms="4.0360739827156067e-01" purity="7.9255110025405884e-01" nType="0">
                  <Node pos="l" depth="6" NCoef="0" IVar="3" Cut="9.7673696279525757e-01" cType="1" res="1.3466124236583710e-01" rms="4.1116118431091309e-01" purity="7.8175318241119385e-01" nType="0">
                    <Node pos="l" depth="7" NCoef="0" IVar="-1" Cut="0.0000000000000000e+00" cType="1" res="9.3081323429942131e-03" rms="4.2741596698760986e-01" purity="7.5573813915252686e-01" nType="-99"/>
                    <Node pos="r" depth="7" NCoef="0" IVar="-1" Cut="0.0000000000000000e+00" cType="1" res="1.1801886372268200e-02" rms="4.0845099091529846e-01" purity="7.8584438562393188e-01" nType="-99"/>
                  </Node>
                  <Node pos="r" depth="6" NCoef="0" IVar="3" Cut="1.0007534027099609e+00" cType="1" res="1.5701766312122345e-01" rms="3.9331665635108948e-01" purity="8.0644571781158447e-01" nType="0">
                    <Node pos="l" depth="7" NCoef="0" IVar="-1" Cut="0.0000000000000000e+00" cType="1" res="1.2232763692736626e-02" rms="3.9891412854194641e-01" purity="7.9818773269653320e-01" nType="-99"/>
                    <Node pos="r" depth="7" NCoef="0" IVar="-1" Cut="0.0000000000000000e+00" cType="1" res="1.2953939847648144e-02" rms="3.9109301567077637e-01" purity="8.0964028835296631e-01" nType="-99"/>
                  </Node>
                </Node>
                <Node pos="r" depth="5" NCoef="0" IVar="1" Cut="3.7147991359233856e-02" cType="1" res="1.4004532992839813e-01" rms="4.0721181035041809e-01" purity="7.8499317169189453e-01" nType="0">
                  <Node pos="l" depth="6" NCoef="0" IVar="-1" Cut="0.0000000000000000e+00" cType="1" res="1.2269639410078526e-02" rms="3.9635133743286133e-01" purity="8.0099195241928101e-01" nType="-99"/>
                  <Node pos="r" depth="6" NCoef="0" IVar="-1" Cut="0.0000000000000000e+00" cType="1" res="1.0014493949711323e-02" rms="4.2179352045059204e-01" purity="7.6212167739868164e-01" nType="-99"/>
                </Node>
              </Node>
            </Node>
            <Node pos="r" depth="3" NCoef="0" IVar="-1" Cut="0.0000000000000000e+00" cType="1" res="4.2396080680191517e-03" rms="4.7391179203987122e-01" purity="6.4777916669845581e-01" nType="-99"/>
          </Node>
          <Node pos="r" depth="2" NCoef="0" IVar="1" Cut="6.9237715005874634e-01" cType="1" res="6.0948554426431656e-02" rms="4.7330257296562195e-01" purity="6.3259088993072510e-01" nType="0">
            <Node pos="l" depth="3" NCoef="0" IVar="3" Cut="8.2561045885086060e-01" cType="1" res="7.3033623397350311e-02" rms="4.6953672170639038e-01" purity="6.5071249008178711e-01" nType="0">
              <Node pos="l" depth="4" NCoef="0" IVar="0" Cut="4.2297556996345520e-01" cType="1" res="4.9308549612760544e-02" rms="4.8545131087303162e-01" purity="5.9755802154541016e-01" nType="0">
                <Node pos="l" depth="5" NCoef="0" IVar="0" Cut="1.3640929013490677e-02" cType="1" res="5.6290544569492340e-02" rms="4.8379340767860413e-01" purity="6.1172854900360107e-01" nType="0">
                  <Node pos="l" depth="6" NCoef="0" IVar="3" Cut="7.2914880514144897e-01" cType="1" res="7.2410270571708679e-02" rms="4.7710853815078735e-01" purity="6.4399170875549316e-01" nType="0">
                    <Node pos="l" depth="7" NCoef="0" IVar="-1" Cut="0.0000000000000000e+00" cType="1" res="4.1630719788372517e-03" rms="4.9032095074653625e-01" purity="5.9479945898056030e-01" nType="-99"/>
                    <Node pos="r" depth="7" NCoef="0" IVar="-1" Cut="0.0000000000000000e+00" cType="1" res="6.4751277677714825e-03" rms="4.7188913822174072e-01" purity="6.6221147775650024e-01" nType="-99"/>
                  </Node>
                  <Node pos="r" depth="6" NCoef="0" IVar="3" Cut="7.7255547046661377e-01" cType="1" res="2.6244355365633965e-02" rms="4.9461293220520020e-01" purity="5.5159193277359009e-01" nType="0">
                    <Node pos="l" depth="7" NCoef="0" IVar="-1" Cut="0.0000000000000000e+00" cType="1" res="8.6414505494758487e-04" rms="4.9779742956161499e-01" purity="5.2225631475448608e-01" nType="-99"/>
                    <Node pos="r" depth="7" NCoef="0" IVar="-1" Cut="0.0000000000000000e+00" cType="1" res="5.4146866314113140e-03" rms="4.8592036962509155e-01" purity="6.1415261030197144e-01" nType="-99"/>
                  </Node>
                </Node>
                <Node pos="r" depth="5" NCoef="0" IVar="-1" Cut="0.0000000000000000e+00" cType="1" res="-1.9124670652672648e-03" rms="4.9649894237518311e-01" purity="4.5234671235084534e-01" nType="-99"/>
              </Node>
              <Node pos="r" depth="4" NCoef="0" IVar="2" Cut="1.7581622314453125e+02" cType="1" res="1.0174621641635895e-01" rms="4.4784578680992126e-01" purity="7.1504127979278564e-01" nType="0">
                <Node pos="l" depth="5" NCoef="0" IVar="1" Cut="1.0444457828998566e-01" cType="1" res="1.0823713243007660e-01" rms="4.4247946143150330e-01" purity="7.2849482297897339e-01" nType="0">
                  <Node pos="l" depth="6" NCoef="0" IVar="3" Cut="8.7039715051651001e-01" cType="1" res="1.1980616301298141e-01" rms="4.3262624740600586e-01" purity="7.4815040826797485e-01" nType="0">
                    <Node pos="l" depth="7" NCoef="0" IVar="-1" Cut="0.0000000000000000e+00" cType="1" res="8.5443472489714622e-03" rms="4.4734501838684082e-01" purity="7.2145748138427734e-01" nType="-99"/>
                    <Node pos="r" depth="7" NCoef="0" IVar="-1" Cut="0.0000000000000000e+00" cType="1" res="1.2201208621263504e-02" rms="4.1861009597778320e-01" purity="7.7208000421524048e-01" nType="-99"/>
                  </Node>
                  <Node pos="r" depth="6" NCoef="0" IVar="3" Cut="8.7925428152084351e-01" cType="1" res="8.4815725684165955e-02" rms="4.6089577674865723e-01" purity="6.8870228528976440e-01" nType="0">
                    <Node pos="l" depth="7" NCoef="0" IVar="-1" Cut="0.0000000000000000e+00" cType="1" res="5.7755205780267715e-03" rms="4.7007995843887329e-01" purity="6.6608810424804688e-01" nType="-99"/>
                    <Node pos="r" depth="7" NCoef="0" IVar="-1" Cut="0.0000000000000000e+00" cType="1" res="9.7760437056422234e-03" rms="4.4674292206764221e-01" purity="7.2085946798324585e-01" nType="-99"/>
                  </Node>
                </Node>
                <Node pos="r" depth="5" NCoef="0" IVar="-1" Cut="0.0000000000000000e+00" cType="1" res="5.5139786563813686e-03" rms="4.7835028171539307e-01" purity="6.2999391555786133e-01" nType="-99"/>
              </Node>
            </Node>
            <Node pos="r" depth="3" NCoef="0" IVar="3" Cut="8.2350492477416992e-01" cType="1" res="-4.7711722552776337e-02" rms="4.9276715517044067e-01" purity="4.6965411305427551e-01" nType="0">
              <Node pos="l" depth="4" NCoef="0" IVar="-1" Cut="0.0000000000000000e+00" cType="1" res="-4.9949116073548794e-03" rms="4.9069717526435852e-01" purity="4.2710891366004944e-01" nType="-99"/>
              <Node pos="r" depth="4" NCoef="0" IVar="-1" Cut="0.0000000000000000e+00" cType="1" res="-2.8909931425005198e-03" rms="4.9504083395004272e-01" purity="5.2370935678482056e-01" nType="-99"/>
            </Node>
          </Node>
        </Node>
      </Node>
    </BinaryTree>
    <BinaryTree type="DecisionTree" boostWeight="1.0000000000000000e+00" itree="20">
      <Node pos="s" depth="0" NCoef="0" IVar="3" Cut="6.7608582973480225e-01" cType="1" res="1.4582511968910694e-02" rms="4.2782607674598694e-01" purity="4.9861630797386169e-01" nType="0">
        <Node pos="l" depth="1" NCoef="0" IVar="3" Cut="5.4525941610336304e-01" cType="1" res="-9.9994070827960968e-02" rms="3.7221157550811768e-01" purity="1.9710768759250641e-01" nType="0">
          <Node pos="l" depth="2" NCoef="0" IVar="4" Cut="1.5685297548770905e-01" cType="1" res="-1.2001615762710571e-01" rms="3.2342201471328735e-01" purity="1.2930549681186676e-01" nType="0">
            <Node pos="l" depth="3" NCoef="0" IVar="3" Cut="3.8714584708213806e-01" cType="1" res="-1.2843167781829834e-01" rms="3.0071657896041870e-01" purity="1.0927079617977142e-01" nType="0">
              <Node pos="l" depth="4" NCoef="0" IVar="3" Cut="1.5024864673614502e-01" cType="1" res="-1.4088165760040283e-01" rms="2.2200797498226166e-01" purity="5.2867297083139420e-02" nType="0">
                <Node pos="l" depth="5" NCoef="0" IVar="-1" Cut="0.0000000000000000e+00" cType="1" res="-2.1062538027763367e-02" rms="2.5852257013320923e-01" purity="7.5100086629390717e-02" nType="-99"/>
                <Node pos="r" depth="5" NCoef="0" IVar="0" Cut="1.0641700029373169e+00" cType="1" res="-1.4405786991119385e-01" rms="2.1773797273635864e-01" purity="5.0627745687961578e-02" nType="0">
                  <Node pos="l" depth="6" NCoef="0" IVar="-1" Cut="0.0000000000000000e+00" cType="1" res="-1.8640631809830666e-02" rms="2.9672798514366150e-01" purity="9.8812974989414215e-02" nType="-99"/>
                  <Node pos="r" depth="6" NCoef="0" IVar="2" Cut="8.7966392517089844e+01" cType="1" res="-1.4799080789089203e-01" rms="2.0542147755622864e-01" purity="4.4613189995288849e-02" nType="0">
                    <Node pos="l" depth="7" NCoef="0" IVar="-1" Cut="0.0000000000000000e+00" cType="1" res="-2.6168018579483032e-02" rms="2.3133128881454468e-01" purity="5.7382557541131973e-02" nType="-99"/>
                    <Node pos="r" depth="7" NCoef="0" IVar="-1" Cut="0.0000000000000000e+00" cType="1" res="-2.8216477483510971e-02" rms="1.9834905862808228e-01" purity="4.1471291333436966e-02" nType="-99"/>
                  </Node>
                </Node>
              </Node>
              <Node pos="r" depth="4" NCoef="0" IVar="2" Cut="2.0541806030273438e+02" cType="1" res="-1.1437683552503586e-01" rms="3.6946505308151245e-01" purity="1.7294502258300781e-01" nType="0">
                <Node pos="l" depth="5" NCoef="0" IVar="4" Cut="9.6260242164134979e-02" cType="1" res="-9.6907250583171844e-02" rms="3.8254383206367493e-01" purity="1.9068935513496399e-01" nType="0">
                  <Node pos="l" depth="6" NCoef="0" IVar="2" Cut="6.6434646606445312e+01" cType="1" res="-1.1959170550107956e-01" rms="3.5579353570938110e-01" purity="1.5718634426593781e-01" nType="0">
                    <Node pos="l" depth="7" NCoef="0" IVar="-1" Cut="0.0000000000000000e+00" cType="1" res="-1.1020993813872337e-02" rms="3.8829669356346130e-01" purity="1.9580000638961792e-01" nType="-99"/>
                    <Node pos="r" depth="7" NCoef="0" IVar="-1" Cut="0.0000000000000000e+00" cType="1" res="-1.8017347902059555e-02" rms="3.3823812007904053e-01" purity="1.3894985616207123e-01" nType="-99"/>
                  </Node>
                  <Node pos="r" depth="6" NCoef="0" IVar="-1" Cut="0.0000000000000000e+00" cType="1" res="-3.6540094297379255e-03" rms="4.4314035773277283e-01" purity="2.8492128849029541e-01" nType="-99"/>
                </Node>
                <Node pos="r" depth="5" NCoef="0" IVar="5" Cut="4.0000000000000000e+00" cType="1" res="-1.3592156767845154e-01" rms="3.5080307722091675e-01" purity="1.5028281509876251e-01" nType="0">
                  <Node pos="l" depth="6" NCoef="0" IVar="-1" Cut="0.0000000000000000e+00" cType="1" res="-2.1571077406406403e-02" rms="3.1993976235389709e-01" purity="1.2163281440734863e-01" nType="-99"/>
                  <Node pos="r" depth="6" NCoef="0" IVar="1" Cut="2.9938912391662598e-01" cType="1" res="-1.2489530444145203e-01" rms="3.6323541402816772e-01" purity="1.6320230066776276e-01" nType="0">
                    <Node pos="l" depth="7" NCoef="0" IVar="-1" Cut="0.0000000000000000e+00" cType="1" res="-1.3367494568228722e-02" rms="3.8407814502716064e-01" purity="1.8685570359230042e-01" nType="-99"/>
                    <Node pos="r" depth="7" NCoef="0" IVar="-1" Cut="0.0000000000000000e+00" cType="1" res="-1.9391357898712158e-02" rms="3.2316747307777405e-01" purity="1.2285576015710831e-01" nType="-99"/>
                  </Node>
                </Node>
              </Node>
            </Node>
            <Node pos="r" depth="3" NCoef="0" IVar="1" Cut="3.2125732302665710e-01" cType="1" res="-9.8194822669029236e-02" rms="3.7508401274681091e-01" purity="1.8125520646572113e-01" nType="0">
              <Node pos="l" depth="4" NCoef="0" IVar="3" Cut="3.5184484720230103e-01" cType="1" res="-8.0965749919414520e-02" rms="3.9449104666709900e-01" purity="2.0681115984916687e-01" nType="0">
                <Node pos="l" depth="5" NCoef="0" IVar="3" Cut="1.7071166634559631e-01" cType="1" res="-1.0060165077447891e-01" rms="3.6334973573684692e-01" purity="1.6560424864292145e-01" nType="0">
                  <Node pos="l" depth="6" NCoef="0" IVar="-1" Cut="0.0000000000000000e+00" cType="1" res="-5.7113883085548878e-03" rms="4.1630747914314270e-01" purity="2.4004921317100525e-01" nType="-99"/>
                  <Node pos="r" depth="6" NCoef="0" IVar="0" Cut="1.1794710159301758e+00" cType="1" res="-1.2335333973169327e-01" rms="3.3666476607322693e-01" purity="1.3513785600662231e-01" nType="0">
                    <Node pos="l" depth="7" NCoef="0" IVar="-1" Cut="0.0000000000000000e+00" cType="1" res="-1.3854028657078743e-02" rms="3.6960515379905701e-01" purity="1.6870412230491638e-01" nType="-99"/>
                    <Node pos="r" depth="7" NCoef="0" IVar="-1" Cut="0.0000000000000000e+00" cType="1" res="-2.5254013016819954e-02" rms="2.7570062875747681e-01" purity="8.3955153822898865e-02" nType="-99"/>
                  </Node>
                </Node>
                <Node pos="r" depth="5" NCoef="0" IVar="-1" Cut="0.0000000000000000e+00" cType="1" res="-4.6072099357843399e-03" rms="4.4676002860069275e-01" purity="2.8748548030853271e-01" nType="-99"/>
              </Node>
              <Node pos="r" depth="4" NCoef="0" IVar="5" Cut="7.0000000000000000e+00" cType="1" res="1.2801094353199005e-01" rms="2.8681918978691101e-01" purity="1.3312958180904388e-01" nType="0">
                <Node pos="l" depth="5" NCoef="0" IVar="-1" Cut="0.0000000000000000e+00" cType="1" res="-1.6557034105062485e-02" rms="3.5911053419113159e-01" purity="1.5943203866481781e-01" nType="-99"/>
                <Node pos="r" depth="5" NCoef="0" IVar="-1" Cut="0.0000000000000000e+00" cType="1" res="-2.3409666493535042e-02" rms="2.8399962186813354e-01" purity="8.9422494173049927e-02" nType="-99"/>
              </Node>
            </Node>
          </Node>
          <Node pos="r" depth="2" NCoef="0" IVar="1" Cut="1.9871324300765991e-01" cType="1" res="-4.5489504933357239e-02" rms="4.7630941867828369e-01" purity="3.8168016076087952e-01" nType="0">
            <Node pos="l" depth="3" NCoef="0" IVar="5" Cut="4.0000000000000000e+00" cType="1" res="-1.6473324969410896e-02" rms="4.8740324378013611e-01" purity="4.2552351951599121e-01" nType="0">
              <Node pos="l" depth="4" NCoef="0" IVar="4" Cut="5.9159919619560242e-02" cType="1" res="-3.6446522921323776e-02" rms="4.8275166749954224e-01" purity="3.9852607250213623e-01" nType="0">
                <Node pos="l" depth="5" NCoef="0" IVar="-1" Cut="0.0000000000000000e+00" cType="1" res="-8.1042097881436348e-03" rms="4.6548184752464294e-01" purity="3.3329778909683228e-01" nType="-99"/>
                <Node pos="r" depth="5" NCoef="0" IVar="3" Cut="6.1288046836853027e-01" cType="1" res="-1.6631197184324265e-02" rms="4.8806527256965637e-01" purity="4.2455664277076721e-01" nType="0">
                  <Node pos="l" depth="6" NCoef="0" IVar="-1" Cut="0.0000000000000000e+00" cType="1" res="-4.6870321966707706e-03" rms="4.7585335373878479e-01" purity="3.6281576752662659e-01" nType="-99"/>
                  <Node pos="r" depth="6" NCoef="0" IVar="-1" Cut="0.0000000000000000e+00" cType="1" res="8.3276629447937012e-04" rms="4.9587365984916687e-01" purity="4.7311717271804810e-01" nType="-99"/>
                </Node>
              </Node>
              <Node pos="r" depth="4" NCoef="0" IVar="2" Cut="1.9549830627441406e+02" cType="1" res="1.3055889867246151e-02" rms="4.9315032362937927e-01" purity="4.6650603413581848e-01" nType="0">
                <Node pos="l" depth="5" NCoef="0" IVar="-1" Cut="0.0000000000000000e+00" cType="1" res="3.0373409390449524e-03" rms="4.9538782238960266e-01" purity="4.9784463644027710e-01" nType="-99"/>
                <Node pos="r" depth="5" NCoef="0" IVar="-1" Cut="0.0000000000000000e+00" cType="1" res="-1.8126318464055657e-03" rms="4.8799106478691101e-01" purity="4.1922083497047424e-01" nType="-99"/>
              </Node>
            </Node>
            <Node pos="r" depth="3" NCoef="0" IVar="0" Cut="5.7583475112915039e-01" cType="1" res="-9.0096607804298401e-02" rms="4.5477807521820068e-01" purity="3.1354191899299622e-01" nType="0">
              <Node pos="l" depth="4" NCoef="0" IVar="0" Cut="1.8570894375443459e-02" cType="1" res="-7.2747275233268738e-02" rms="4.7434219717979431e-01" purity="3.5884678363800049e-01" nType="0">
                <Node pos="l" depth="5" NCoef="0" IVar="-1" Cut="0.0000000000000000e+00" cType="1" res="-2.7371433097869158e-03" rms="4.9303978681564331e-01" purity="4.2986866831779480e-01" nType="-99"/>
                <Node pos="r" depth="5" NCoef="0" IVar="-1" Cut="0.0000000000000000e+00" cType="1" res="-9.5788650214672089e-03" rms="4.6012336015701294e-01" purity="3.1368622183799744e-01" nType="-99"/>
              </Node>
              <Node pos="r" depth="4" NCoef="0" IVar="-1" Cut="0.0000000000000000e+00" cType="1" res="-1.4995164237916470e-02" rms="3.9995262026786804e-01" purity="2.0303988456726074e-01" nType="-99"/>
            </Node>
          </Node>
        </Node>
        <Node pos="r" depth="1" NCoef="0" IVar="0" Cut="7.9670566320419312e-01" cType="1" res="9.2785112559795380e-02" rms="4.4534018635749817e-01" purity="7.0440667867660522e-01" nType="0">
          <Node pos="l" depth="2" NCoef="0" IVar="0" Cut="2.5694627314805984e-02" cType="1" res="9.8459929227828979e-02" rms="4.4315925240516663e-01" purity="7.1217286586761475e-01" nType="0">
            <Node pos="l" depth="3" NCoef="0" IVar="3" Cut="9.0035927295684814e-01" cType="1" res="1.1448793113231659e-01" rms="4.3202194571495056e-01" purity="7.4218463897705078e-01" nType="0">
              <Node pos="l" depth="4" NCoef="0" IVar="3" Cut="7.9182481765747070e-01" cType="1" res="8.1114366650581360e-02" rms="4.6518853306770325e-01" purity="6.7220503091812134e-01" nType="0">
                <Node pos="l" depth="5" NCoef="0" IVar="2" Cut="2.0340447998046875e+02" cType="1" res="5.4721977561712265e-02" rms="4.8329460620880127e-01" purity="6.1522895097732544e-01" nType="0">
                  <Node pos="l" depth="6" NCoef="0" IVar="4" Cut="4.6193402260541916e-02" cType="1" res="6.9318942725658417e-02" rms="4.7859656810760498e-01" purity="6.3440060615539551e-01" nType="0">
                    <Node pos="l" depth="7" NCoef="0" IVar="-1" Cut="0.0000000000000000e+00" cType="1" res="3.8930808659642935e-03" rms="4.8266452550888062e-01" purity="6.1778330802917480e-01" nType="-99"/>
                    <Node pos="r" depth="7" NCoef="0" IVar="-1" Cut="0.0000000000000000e+00" cType="1" res="6.5302620641887188e-03" rms="4.7525441646575928e-01" purity="6.4563608169555664e-01" nType="-99"/>
                  </Node>
                  <Node pos="r" depth="6" NCoef="0" IVar="-1" Cut="0.0000000000000000e+00" cType="1" res="1.9503260264173150e-03" rms="4.9197098612785339e-01" purity="5.7293748855590820e-01" nType="-99"/>
                </Node>
                <Node pos="r" depth="5" NCoef="0" IVar="1" Cut="2.1781903505325317e-01" cType="1" res="9.4902925193309784e-02" rms="4.5483428239822388e-01" purity="7.0197188854217529e-01" nType="0">
                  <Node pos="l" depth="6" NCoef="0" IVar="3" Cut="8.7582778930664062e-01" cType="1" res="0.0000000000000000e+00" rms="0.0000000000000000e+00" purity="7.2555685043334961e-01" nType="0">
                    <Node pos="l" depth="7" NCoef="0" IVar="-1" Cut="0.0000000000000000e+00" cType="1" res="8.0894641578197479e-03" rms="4.5324090123176575e-01" purity="7.1017897129058838e-01" nType="-99"/>
                    <Node pos="r" depth="7" NCoef="0" IVar="-1" Cut="0.0000000000000000e+00" cType="1" res="1.1704090982675552e-02" rms="4.2132937908172607e-01" purity="7.6893329620361328e-01" nType="-99"/>
                  </Node>
                  <Node pos="r" depth="6" NCoef="0" IVar="3" Cut="8.4785002470016479e-01" cType="1" res="6.5655574202537537e-02" rms="4.7609993815422058e-01" purity="6.4430123567581177e-01" nType="0">
                    <Node pos="l" depth="7" NCoef="0" IVar="-1" Cut="0.0000000000000000e+00" cType="1" res="4.1216062381863594e-03" rms="4.8434188961982727e-01" purity="6.1622637510299683e-01" nType="-99"/>
                    <Node pos="r" depth="7" NCoef="0" IVar="-1" Cut="0.0000000000000000e+00" cType="1" res="6.3669024966657162e-03" rms="4.6932950615882874e-01" purity="6.6622996330261230e-01" nType="-99"/>
                  </Node>
                </Node>
              </Node>
              <Node pos="r" depth="4" NCoef="0" IVar="1" Cut="1.1643596887588501e+00" cType="1" res="1.3537389039993286e-01" rms="4.0851780772209167e-01" purity="7.8597950935363770e-01" nType="0">
                <Node pos="l" depth="5" NCoef="0" IVar="1" Cut="4.6965754032135010e-01" cType="1" res="1.3816609978675842e-01" rms="4.0540570020675659e-01" purity="7.9120039939880371e-01" nType="0">
                  <Node pos="l" depth="6" NCoef="0" IVar="3" Cut="9.6788984537124634e-01" cType="1" res="1.4283269643783569e-01" rms="3.9964234828948975e-01" purity="7.9986935853958130e-01" nType="0">
                    <Node pos="l" depth="7" NCoef="0" IVar="-1" Cut="0.0000000000000000e+00" cType="1" res="1.1467746458947659e-02" rms="4.1844540834426880e-01" purity="7.7328330278396606e-01" nType="-99"/>
                    <Node pos="r" depth="7" NCoef="0" IVar="-1" Cut="0.0000000000000000e+00" cType="1" res="1.2156677432358265e-02" rms="3.9664286375045776e-01" purity="8.0393898487091064e-01" nType="-99"/>
                  </Node>
                  <Node pos="r" depth="6" NCoef="0" IVar="1" Cut="7.1620559692382812e-01" cType="1" res="9.9373266100883484e-02" rms="4.4859534502029419e-01" purity="7.1913605928421021e-01" nType="0">
                    <Node pos="l" depth="7" NCoef="0" IVar="-1" Cut="0.0000000000000000e+00" cType="1" res="9.0844407677650452e-03" rms="4.3779334425926208e-01" purity="7.4178636074066162e-01" nType="-99"/>
                    <Node pos="r" depth="7" NCoef="0" IVar="-1" Cut="0.0000000000000000e+00" cType="1" res="6.1232503503561020e-03" rms="4.6294933557510376e-01" purity="6.8621993064880371e-01" nType="-99"/>
                  </Node>
                </Node>
                <Node pos="r" depth="5" NCoef="0" IVar="-1" Cut="0.0000000000000000e+00" cType="1" res="5.2494420669972897e-03" rms="4.7363594174385071e-01" purity="6.5744483470916748e-01" nType="-99"/>
              </Node>
            </Node>
            <Node pos="r" depth="3" NCoef="0" IVar="2" Cut="1.5046643066406250e+02" cType="1" res="1.7203539609909058e-02" rms="4.8774987459182739e-01" purity="5.6002318859100342e-01" nType="0">
              <Node pos="l" depth="4" NCoef="0" IVar="2" Cut="8.2509422302246094e+01" cType="1" res="3.5104852169752121e-02" rms="4.8396912217140198e-01" purity="5.8812695741653442e-01" nType="0">
                <Node pos="l" depth="5" NCoef="0" IVar="3" Cut="8.5149830579757690e-01" cType="1" res="5.2227593958377838e-02" rms="4.7887372970581055e-01" purity="6.1509484052658081e-01" nType="0">
                  <Node pos="l" depth="6" NCoef="0" IVar="4" Cut="3.3895134925842285e-02" cType="1" res="3.4540232270956039e-02" rms="4.9131956696510315e-01" purity="5.6022727489471436e-01" nType="0">
                    <Node pos="l" depth="7" NCoef="0" IVar="-1" Cut="0.0000000000000000e+00" cType="1" res="-7.8280099842231721e-05" rms="4.9453356862068176e-01" purity="5.2626281976699829e-01" nType="-99"/>
                    <Node pos="r" depth="7" NCoef="0" IVar="-1" Cut="0.0000000000000000e+00" cType="1" res="5.7191099040210247e-03" rms="4.8534354567527771e-01" purity="5.9495979547500610e-01" nType="-99"/>
                  </Node>
                  <Node pos="r" depth="6" NCoef="0" IVar="0" Cut="3.4989389777183533e-01" cType="1" res="7.3080487549304962e-02" rms="4.6290433406829834e-01" purity="6.7978215217590332e-01" nType="0">
                    <Node pos="l" depth="7" NCoef="0" IVar="-1" Cut="0.0000000000000000e+00" cType="1" res="8.5082594305276871e-03" rms="4.4626003503799438e-01" purity="7.2142672538757324e-01" nType="-99"/>
                    <Node pos="r" depth="7" NCoef="0" IVar="-1" Cut="0.0000000000000000e+00" cType="1" res="4.0335413068532944e-03" rms="4.7923088073730469e-01" purity="6.3480883836746216e-01" nType="-99"/>
                  </Node>
                </Node>
                <Node pos="r" depth="5" NCoef="0" IVar="-1" Cut="0.0000000000000000e+00" cType="1" res="-8.6954998550936580e-04" rms="4.9426186084747314e-01" purity="5.1751041412353516e-01" nType="-99"/>
              </Node>
              <Node pos="r" depth="4" NCoef="0" IVar="0" Cut="3.2935830950737000e-01" cType="1" res="-3.4650430083274841e-02" rms="4.9489861726760864e-01" purity="4.7861644625663757e-01" nType="0">
                <Node pos="l" depth="5" NCoef="0" IVar="-1" Cut="0.0000000000000000e+00" cType="1" res="-4.7181709669530392e-04" rms="4.9581408500671387e-01" purity="5.2609008550643921e-01" nType="-99"/>
                <Node pos="r" depth="5" NCoef="0" IVar="-1" Cut="0.0000000000000000e+00" cType="1" res="-6.8883947096765041e-03" rms="4.9076974391937256e-01" purity="4.1364267468452454e-01" nType="-99"/>
              </Node>
            </Node>
          </Node>
          <Node pos="r" depth="2" NCoef="0" IVar="-1" Cut="0.0000000000000000e+00" cType="1" res="-1.8471075221896172e-02" rms="4.6041721105575562e-01" purity="3.0966198444366455e-01" nType="-99"/>
        </Node>
      </Node>
    </BinaryTree>
    <BinaryTree type="DecisionTree" boostWeight="1.0000000000000000e+00" itree="21">
      <Node pos="s" depth="0" NCoef="0" IVar="3" Cut="6.7647039890289307e-01" cType="1" res="1.6327545046806335e-02" rms="4.2637091875076294e-01" purity="5.0040483474731445e-01" nType="0">
        <Node pos="l" depth="1" NCoef="0" IVar="3" Cut="5.2386587858200073e-01" cType="1" res="-9.2241168022155762e-02" rms="3.7300577759742737e-01" purity="2.0023362338542938e-01" nType="0">
          <Node pos="l" depth="2" NCoef="0" IVar="4" Cut="2.1311327815055847e-01" cType="1" res="-1.1561282724142075e-01" rms="3.1456539034843445e-01" purity="1.2059251964092255e-01" nType="0">
            <Node pos="l" depth="3" NCoef="0" IVar="3" Cut="3.8883325457572937e-01" cType="1" res="-1.2175109237432480e-01" rms="2.9988321661949158e-01" purity="1.0799714922904968e-01" nType="0">
              <Node pos="l" depth="4" NCoef="0" IVar="3" Cut="1.3838914036750793e-01" cType="1" res="-1.3268271088600159e-01" rms="2.3874351382255554e-01" purity="6.2579721212387085e-02" nType="0">
                <Node pos="l" depth="5" NCoef="0" IVar="-1" Cut="0.0000000000000000e+00" cType="1" res="-1.9418857991695404e-02" rms="2.6969090104103088e-01" purity="8.4773190319538116e-02" nType="-99"/>
                <Node pos="r" depth="5" NCoef="0" IVar="0" Cut="1.0641698837280273e+00" cType="1" res="-1.3519929349422455e-01" rms="2.3573438823223114e-01" purity="6.0679137706756592e-02" nType="0">
                  <Node pos="l" depth="6" NCoef="0" IVar="0" Cut="6.1788946390151978e-01" cType="1" res="-1.0918891429901123e-01" rms="3.1705060601234436e-01" purity="1.1553776264190674e-01" nType="0">
                    <Node pos="l" depth="7" NCoef="0" IVar="-1" Cut="0.0000000000000000e+00" cType="1" res="-1.1536403559148312e-02" rms="3.6230555176734924e-01" purity="1.5773451328277588e-01" nType="-99"/>
                    <Node pos="r" depth="7" NCoef="0" IVar="-1" Cut="0.0000000000000000e+00" cType="1" res="-2.2909028455615044e-02" rms="2.6891267299652100e-01" purity="7.9046875238418579e-02" nType="-99"/>
                  </Node>
                  <Node pos="r" depth="6" NCoef="0" IVar="0" Cut="1.5619853734970093e+00" cType="1" res="-1.4039948582649231e-01" rms="2.1545663475990295e-01" purity="4.9711361527442932e-02" nType="0">
                    <Node pos="l" depth="7" NCoef="0" IVar="-1" Cut="0.0000000000000000e+00" cType="1" res="-2.2510886192321777e-02" rms="2.5788283348083496e-01" purity="7.2259180247783661e-02" nType="-99"/>
                    <Node pos="r" depth="7" NCoef="0" IVar="-1" Cut="0.0000000000000000e+00" cType="1" res="-2.8011148795485497e-02" rms="2.0183385908603668e-01" purity="4.3386876583099365e-02" nType="-99"/>
                  </Node>
                </Node>
              </Node>
              <Node pos="r" depth="4" NCoef="0" IVar="1" Cut="1.0704803466796875e-01" cType="1" res="-1.0576292127370834e-01" rms="3.7103086709976196e-01" purity="1.7442297935485840e-01" nType="0">
                <Node pos="l" depth="5" NCoef="0" IVar="2" Cut="1.9628202819824219e+02" cType="1" res="-7.3202818632125854e-02" rms="4.0899911522865295e-01" purity="2.2397267818450928e-01" nType="0">
                  <Node pos="l" depth="6" NCoef="0" IVar="-1" Cut="0.0000000000000000e+00" cType="1" res="-5.1644681952893734e-03" rms="4.2413589358329773e-01" purity="2.5102439522743225e-01" nType="-99"/>
                  <Node pos="r" depth="6" NCoef="0" IVar="4" Cut="1.2101180106401443e-01" cType="1" res="-9.7799167037010193e-02" rms="3.9416423439979553e-01" purity="2.0125749707221985e-01" nType="0">
                    <Node pos="l" depth="7" NCoef="0" IVar="-1" Cut="0.0000000000000000e+00" cType="1" res="-1.7307721078395844e-02" rms="3.4357658028602600e-01" purity="1.4053751528263092e-01" nType="-99"/>
                    <Node pos="r" depth="7" NCoef="0" IVar="-1" Cut="0.0000000000000000e+00" cType="1" res="-8.0441841855645180e-03" rms="4.3044131994247437e-01" purity="2.5250223278999329e-01" nType="-99"/>
                  </Node>
                </Node>
                <Node pos="r" depth="5" NCoef="0" IVar="2" Cut="2.9805191040039062e+02" cType="1" res="-1.2975305318832397e-01" rms="3.3835789561271667e-01" purity="1.3791498541831970e-01" nType="0">
                  <Node pos="l" depth="6" NCoef="0" IVar="4" Cut="9.6320882439613342e-02" cType="1" res="-1.1963987350463867e-01" rms="3.4209570288658142e-01" purity="1.4218382537364960e-01" nType="0">
                    <Node pos="l" depth="7" NCoef="0" IVar="-1" Cut="0.0000000000000000e+00" cType="1" res="-1.9349887967109680e-02" rms="3.1217554211616516e-01" purity="1.1308067291975021e-01" nType="-99"/>
                    <Node pos="r" depth="7" NCoef="0" IVar="-1" Cut="0.0000000000000000e+00" cType="1" res="-1.0404753498733044e-02" rms="4.0250954031944275e-01" purity="2.1150782704353333e-01" nType="-99"/>
                  </Node>
                  <Node pos="r" depth="6" NCoef="0" IVar="-1" Cut="0.0000000000000000e+00" cType="1" res="-1.9591510295867920e-02" rms="3.2937714457511902e-01" purity="1.2896466255187988e-01" nType="-99"/>
                </Node>
              </Node>
            </Node>
            <Node pos="r" depth="3" NCoef="0" IVar="5" Cut="5.0000000000000000e+00" cType="1" res="1.6326123476028442e-01" rms="0.0000000000000000e+00" purity="2.0553696155548096e-01" nType="0">
              <Node pos="l" depth="4" NCoef="0" IVar="-1" Cut="0.0000000000000000e+00" cType="1" res="-2.6901306118816137e-03" rms="4.5072525739669800e-01" purity="2.9515746235847473e-01" nType="-99"/>
              <Node pos="r" depth="4" NCoef="0" IVar="3" Cut="2.0214965939521790e-01" cType="1" res="-9.4144724309444427e-02" rms="3.7222811579704285e-01" purity="1.7021234333515167e-01" nType="0">
                <Node pos="l" depth="5" NCoef="0" IVar="-1" Cut="0.0000000000000000e+00" cType="1" res="-1.4693511649966240e-02" rms="3.6417266726493835e-01" purity="1.6146618127822876e-01" nType="-99"/>
                <Node pos="r" depth="5" NCoef="0" IVar="-1" Cut="0.0000000000000000e+00" cType="1" res="-1.1612549424171448e-02" rms="3.8004583120346069e-01" purity="1.7915607988834381e-01" nType="-99"/>
              </Node>
            </Node>
          </Node>
          <Node pos="r" depth="2" NCoef="0" IVar="1" Cut="4.8374661803245544e-01" cType="1" res="-4.0723852813243866e-02" rms="4.7312453389167786e-01" purity="3.7578371167182922e-01" nType="0">
            <Node pos="l" depth="3" NCoef="0" IVar="0" Cut="3.3819395303726196e-01" cType="1" res="-2.5508651509881020e-02" rms="4.8118075728416443e-01" purity="4.0246281027793884e-01" nType="0">
              <Node pos="l" depth="4" NCoef="0" IVar="3" Cut="6.1739367246627808e-01" cType="1" res="3.1671077013015747e-03" rms="4.9531325697898865e-01" purity="4.7606238722801208e-01" nType="0">
                <Node pos="l" depth="5" NCoef="0" IVar="1" Cut="-2.0596880465745926e-02" cType="1" res="-2.5724861770868301e-02" rms="4.9154555797576904e-01" purity="4.2425006628036499e-01" nType="0">
                  <Node pos="l" depth="6" NCoef="0" IVar="-1" Cut="0.0000000000000000e+00" cType="1" res="-4.5958999544382095e-04" rms="4.9442100524902344e-01" purity="4.5069056749343872e-01" nType="-99"/>
                  <Node pos="r" depth="6" NCoef="0" IVar="-1" Cut="0.0000000000000000e+00" cType="1" res="-3.9839353412389755e-03" rms="4.8824691772460938e-01" purity="4.0071472525596619e-01" nType="-99"/>
                </Node>
                <Node pos="r" depth="5" NCoef="0" IVar="2" Cut="1.4095223999023438e+02" cType="1" res="3.1566929072141647e-02" rms="4.9735599756240845e-01" purity="5.2699220180511475e-01" nType="0">
                  <Node pos="l" depth="6" NCoef="0" IVar="-1" Cut="0.0000000000000000e+00" cType="1" res="4.4024959206581116e-03" rms="4.9439764022827148e-01" purity="5.6047689914703369e-01" nType="-99"/>
                  <Node pos="r" depth="6" NCoef="0" IVar="-1" Cut="0.0000000000000000e+00" cType="1" res="1.1352282017469406e-03" rms="4.9890896677970886e-01" purity="5.0034034252166748e-01" nType="-99"/>
                </Node>
              </Node>
              <Node pos="r" depth="4" NCoef="0" IVar="2" Cut="1.1049950408935547e+02" cType="1" res="-5.2526157349348068e-02" rms="4.6586260199546814e-01" purity="3.3311930298805237e-01" nType="0">
                <Node pos="l" depth="5" NCoef="0" IVar="4" Cut="4.6504665166139603e-02" cType="1" res="-2.2053752094507217e-02" rms="4.8188889026641846e-01" purity="3.8014006614685059e-01" nType="0">
                  <Node pos="l" depth="6" NCoef="0" IVar="-1" Cut="0.0000000000000000e+00" cType="1" res="-5.0147078000009060e-03" rms="4.7230193018913269e-01" purity="3.4415802359580994e-01" nType="-99"/>
                  <Node pos="r" depth="6" NCoef="0" IVar="-1" Cut="0.0000000000000000e+00" cType="1" res="6.7768571898341179e-04" rms="4.8953789472579956e-01" purity="4.1632598638534546e-01" nType="-99"/>
                </Node>
                <Node pos="r" depth="5" NCoef="0" IVar="4" Cut="9.0255916118621826e-02" cType="1" res="-7.2487056255340576e-02" rms="4.5395126938819885e-01" purity="3.0231848359107971e-01" nType="0">
                  <Node pos="l" depth="6" NCoef="0" IVar="-1" Cut="0.0000000000000000e+00" cType="1" res="-1.0363914072513580e-02" rms="4.4004747271537781e-01" purity="2.7438691258430481e-01" nType="-99"/>
                  <Node pos="r" depth="6" NCoef="0" IVar="-1" Cut="0.0000000000000000e+00" cType="1" res="-3.1132241711020470e-03" rms="4.7046989202499390e-01" purity="3.4298881888389587e-01" nType="-99"/>
                </Node>
              </Node>
            </Node>
            <Node pos="r" depth="3" NCoef="0" IVar="3" Cut="5.9772080183029175e-01" cType="1" res="-1.0068239271640778e-01" rms="4.3479079008102417e-01" purity="2.7064937353134155e-01" nType="0">
              <Node pos="l" depth="4" NCoef="0" IVar="-1" Cut="0.0000000000000000e+00" cType="1" res="-1.4100794680416584e-02" rms="4.0628778934478760e-01" purity="2.1690601110458374e-01" nType="-99"/>
              <Node pos="r" depth="4" NCoef="0" IVar="-1" Cut="0.0000000000000000e+00" cType="1" res="-7.1623753756284714e-03" rms="4.5976892113685608e-01" purity="3.2386389374732971e-01" nType="-99"/>
            </Node>
          </Node>
        </Node>
        <Node pos="r" depth="1" NCoef="0" IVar="5" Cut="2.0000000000000000e+00" cType="1" res="9.0887114405632019e-02" rms="4.4428145885467529e-01" purity="7.0638203620910645e-01" nType="0">
          <Node pos="l" depth="2" NCoef="0" IVar="3" Cut="9.7810709476470947e-01" cType="1" res="1.2359973788261414e-01" rms="4.1338309645652771e-01" purity="7.7570003271102905e-01" nType="0">
            <Node pos="l" depth="3" NCoef="0" IVar="3" Cut="9.5889288187026978e-01" cType="1" res="9.4874635338783264e-02" rms="4.3583589792251587e-01" purity="7.3652416467666626e-01" nType="0">
              <Node pos="l" depth="4" NCoef="0" IVar="-1" Cut="0.0000000000000000e+00" cType="1" res="7.0926011539995670e-03" rms="4.4432494044303894e-01" purity="7.1791619062423706e-01" nType="-99"/>
              <Node pos="r" depth="4" NCoef="0" IVar="-1" Cut="0.0000000000000000e+00" cType="1" res="8.8780866935849190e-03" rms="4.2669630050659180e-01" purity="7.5541490316390991e-01" nType="-99"/>
            </Node>
            <Node pos="r" depth="3" NCoef="0" IVar="3" Cut="1.0429418087005615e+00" cType="1" res="1.2753944098949432e-01" rms="4.1005095839500427e-01" purity="7.8107309341430664e-01" nType="0">
              <Node pos="l" depth="4" NCoef="0" IVar="1" Cut="7.2159433364868164e-01" cType="1" res="1.2985926866531372e-01" rms="4.0852198004722595e-01" purity="7.8394198417663574e-01" nType="0">
                <Node pos="l" depth="5" NCoef="0" IVar="3" Cut="1.0011174678802490e+00" cType="1" res="1.3546678423881531e-01" rms="4.0213337540626526e-01" purity="7.9460632801055908e-01" nType="0">
                  <Node pos="l" depth="6" NCoef="0" IVar="3" Cut="9.9963289499282837e-01" cType="1" res="1.2845234572887421e-01" rms="4.0717527270317078e-01" purity="7.8716796636581421e-01" nType="0">
                    <Node pos="l" depth="7" NCoef="0" IVar="-1" Cut="0.0000000000000000e+00" cType="1" res="1.0821483097970486e-02" rms="4.0980672836303711e-01" purity="7.8341555595397949e-01" nType="-99"/>
                    <Node pos="r" depth="7" NCoef="0" IVar="-1" Cut="0.0000000000000000e+00" cType="1" res="1.1868113651871681e-02" rms="3.9349457621574402e-01" purity="8.0561989545822144e-01" nType="-99"/>
                  </Node>
                  <Node pos="r" depth="6" NCoef="0" IVar="3" Cut="1.0173054933547974e+00" cType="1" res="1.4610175788402557e-01" rms="3.9412814378738403e-01" purity="8.0588400363922119e-01" nType="0">
                    <Node pos="l" depth="7" NCoef="0" IVar="-1" Cut="0.0000000000000000e+00" cType="1" res="1.2333212420344353e-02" rms="3.9053255319595337e-01" purity="8.1063222885131836e-01" nType="-99"/>
                    <Node pos="r" depth="7" NCoef="0" IVar="-1" Cut="0.0000000000000000e+00" cType="1" res="1.1118199676275253e-02" rms="4.0323215723037720e-01" purity="7.9343557357788086e-01" nType="-99"/>
                  </Node>
                </Node>
                <Node pos="r" depth="5" NCoef="0" IVar="-1" Cut="0.0000000000000000e+00" cType="1" res="5.5477558635175228e-03" rms="4.6670582890510559e-01" purity="6.7115342617034912e-01" nType="-99"/>
              </Node>
              <Node pos="r" depth="4" NCoef="0" IVar="-1" Cut="0.0000000000000000e+00" cType="1" res="7.4561005458235741e-03" rms="4.3161833286285400e-01" purity="7.3625987768173218e-01" nType="-99"/>
            </Node>
          </Node>
          <Node pos="r" depth="2" NCoef="0" IVar="3" Cut="7.5121724605560303e-01" cType="1" res="5.5911991745233536e-02" rms="4.7258710861206055e-01" purity="6.3253152370452881e-01" nType="0">
            <Node pos="l" depth="3" NCoef="0" IVar="1" Cut="2.9554784297943115e-01" cType="1" res="9.1683221980929375e-03" rms="4.9216595292091370e-01" purity="5.2961003780364990e-01" nType="0">
              <Node pos="l" depth="4" NCoef="0" IVar="5" Cut="3.0000000000000000e+00" cType="1" res="3.1932186335325241e-02" rms="4.9111691117286682e-01" purity="5.6392186880111694e-01" nType="0">
                <Node pos="l" depth="5" NCoef="0" IVar="-1" Cut="0.0000000000000000e+00" cType="1" res="4.7878265831968747e-06" rms="4.9626386165618896e-01" purity="5.1174151897430420e-01" nType="-99"/>
                <Node pos="r" depth="5" NCoef="0" IVar="3" Cut="7.1022176742553711e-01" cType="1" res="4.8244830220937729e-02" rms="4.8800015449523926e-01" purity="5.9138953685760498e-01" nType="0">
                  <Node pos="l" depth="6" NCoef="0" IVar="-1" Cut="0.0000000000000000e+00" cType="1" res="1.1802318040281534e-03" rms="4.9647369980812073e-01" purity="5.4257845878601074e-01" nType="-99"/>
                  <Node pos="r" depth="6" NCoef="0" IVar="-1" Cut="0.0000000000000000e+00" cType="1" res="6.4813401550054550e-03" rms="4.7892558574676514e-01" purity="6.3201349973678589e-01" nType="-99"/>
                </Node>
              </Node>
              <Node pos="r" depth="4" NCoef="0" IVar="-1" Cut="0.0000000000000000e+00" cType="1" res="-4.6405154280364513e-03" rms="4.8890784382820129e-01" purity="4.3434435129165649e-01" nType="-99"/>
            </Node>
            <Node pos="r" depth="3" NCoef="0" IVar="2" Cut="1.8775959777832031e+02" cType="1" res="7.1922793984413147e-02" rms="4.6461164951324463e-01" purity="6.6778457164764404e-01" nType="0">
              <Node pos="l" depth="4" NCoef="0" IVar="3" Cut="8.5768032073974609e-01" cType="1" res="7.7269725501537323e-02" rms="4.6088102459907532e-01" purity="6.8001508712768555e-01" nType="0">
                <Node pos="l" depth="5" NCoef="0" IVar="4" Cut="4.3577380478382111e-02" cType="1" res="6.4588926732540131e-02" rms="4.7349661588668823e-01" purity="6.4675647020339966e-01" nType="0">
                  <Node pos="l" depth="6" NCoef="0" IVar="5" Cut="3.0000000000000000e+00" cType="1" res="4.6885062009096146e-02" rms="4.7691637277603149e-01" purity="6.2792313098907471e-01" nType="0">
                    <Node pos="l" depth="7" NCoef="0" IVar="-1" Cut="0.0000000000000000e+00" cType="1" res="2.7646212838590145e-03" rms="4.8116299510002136e-01" purity="6.1545562744140625e-01" nType="-99"/>
                    <Node pos="r" depth="7" NCoef="0" IVar="-1" Cut="0.0000000000000000e+00" cType="1" res="7.2855292819440365e-03" rms="4.6823433041572571e-01" purity="6.6501551866531372e-01" nType="-99"/>
                  </Node>
                  <Node pos="r" depth="6" NCoef="0" IVar="1" Cut="2.1754530072212219e-01" cType="1" res="8.9193701744079590e-02" rms="4.6608486771583557e-01" purity="6.7069959640502930e-01" nType="0">
                    <Node pos="l" depth="7" NCoef="0" IVar="-1" Cut="0.0000000000000000e+00" cType="1" res="8.2915192469954491e-03" rms="4.5679366588592529e-01" purity="6.9860917329788208e-01" nType="-99"/>
                    <Node pos="r" depth="7" NCoef="0" IVar="-1" Cut="0.0000000000000000e+00" cType="1" res="3.3968356437981129e-03" rms="4.8665991425514221e-01" purity="5.9826761484146118e-01" nType="-99"/>
                  </Node>
                </Node>
                <Node pos="r" depth="5" NCoef="0" IVar="1" Cut="-1.0347292572259903e-01" cType="1" res="9.4033211469650269e-02" rms="4.4309687614440918e-01" purity="7.2398155927658081e-01" nType="0">
                  <Node pos="l" depth="6" NCoef="0" IVar="-1" Cut="0.0000000000000000e+00" cType="1" res="9.8647717386484146e-03" rms="4.2859789729118347e-01" purity="7.5553184747695923e-01" nType="-99"/>
                  <Node pos="r" depth="6" NCoef="0" IVar="4" Cut="2.0766871050000191e-02" cType="1" res="8.8553987443447113e-02" rms="4.4805416464805603e-01" purity="7.1266961097717285e-01" nType="0">
                    <Node pos="l" depth="7" NCoef="0" IVar="-1" Cut="0.0000000000000000e+00" cType="1" res="6.6450480371713638e-03" rms="4.5844134688377380e-01" purity="6.9358992576599121e-01" nType="-99"/>
                    <Node pos="r" depth="7" NCoef="0" IVar="-1" Cut="0.0000000000000000e+00" cType="1" res="8.5469661280512810e-03" rms="4.4466307759284973e-01" purity="7.1854144334793091e-01" nType="-99"/>
                  </Node>
                </Node>
              </Node>
              <Node pos="r" depth="4" NCoef="0" IVar="3" Cut="8.2358288764953613e-01" cType="1" res="4.5074272900819778e-02" rms="4.8201289772987366e-01" purity="6.0637176036834717e-01" nType="0">
                <Node pos="l" depth="5" NCoef="0" IVar="-1" Cut="0.0000000000000000e+00" cType="1" res="4.2522442527115345e-03" rms="4.8241588473320007e-01" purity="6.0883462429046631e-01" nType="-99"/>
                <Node pos="r" depth="5" NCoef="0" IVar="-1" Cut="0.0000000000000000e+00" cType="1" res="3.7091895937919617e-03" rms="4.8146182298660278e-01" purity="6.0322850942611694e-01" nType="-99"/>
              </Node>
            </Node>
          </Node>
        </Node>
      </Node>
    </BinaryTree>
    <BinaryTree type="DecisionTree" boostWeight="1.0000000000000000e+00" itree="22">
      <Node pos="s" depth="0" NCoef="0" IVar="3" Cut="6.6849672794342041e-01" cType="1" res="1.8429927527904510e-02" rms="4.2486190795898438e-01" purity="5.0336998701095581e-01" nType="0">
        <Node pos="l" depth="1" NCoef="0" IVar="3" Cut="5.3913873434066772e-01" cType="1" res="-8.8559381663799286e-02" rms="3.7004989385604858e-01" purity="1.9559165835380554e-01" nType="0">
          <Node pos="l" depth="2" NCoef="0" IVar="4" Cut="1.5687771141529083e-01" cType="1" res="-1.0870557278394699e-01" rms="3.1949120759963989e-01" purity="1.2595818936824799e-01" nType="0">
            <Node pos="l" depth="3" NCoef="0" IVar="2" Cut="2.0541806030273438e+02" cType="1" res="-1.1906833946704865e-01" rms="2.9274374246597290e-01" purity="1.0273219645023346e-01" nType="0">
              <Node pos="l" depth="4" NCoef="0" IVar="4" Cut="6.0950998216867447e-02" cType="1" res="-1.0949473083019257e-01" rms="3.0370107293128967e-01" purity="1.1308488249778748e-01" nType="0">
                <Node pos="l" depth="5" NCoef="0" IVar="2" Cut="4.6580589294433594e+01" cType="1" res="-1.2651547789573669e-01" rms="2.7082583308219910e-01" purity="8.6157001554965973e-02" nType="0">
                  <Node pos="l" depth="6" NCoef="0" IVar="-1" Cut="0.0000000000000000e+00" cType="1" res="-1.5711203217506409e-02" rms="3.1362846493721008e-01" purity="1.2129663676023483e-01" nType="-99"/>
                  <Node pos="r" depth="6" NCoef="0" IVar="4" Cut="4.9211539328098297e-02" cType="1" res="-1.3727664947509766e-01" rms="2.5298309326171875e-01" purity="7.3648273944854736e-02" nType="0">
                    <Node pos="l" depth="7" NCoef="0" IVar="-1" Cut="0.0000000000000000e+00" cType="1" res="-2.4163218215107918e-02" rms="2.4135018885135651e-01" purity="6.5499976277351379e-02" nType="-99"/>
                    <Node pos="r" depth="7" NCoef="0" IVar="-1" Cut="0.0000000000000000e+00" cType="1" res="-2.0742680877447128e-02" rms="2.7545139193534851e-01" purity="9.0993173420429230e-02" nType="-99"/>
                  </Node>
                </Node>
                <Node pos="r" depth="5" NCoef="0" IVar="3" Cut="4.5227426290512085e-01" cType="1" res="-9.4635680317878723e-02" rms="3.2901296019554138e-01" purity="1.3659280538558960e-01" nType="0">
                  <Node pos="l" depth="6" NCoef="0" IVar="3" Cut="2.9214227199554443e-01" cType="1" res="-1.0871734470129013e-01" rms="2.7645274996757507e-01" purity="8.6458206176757812e-02" nType="0">
                    <Node pos="l" depth="7" NCoef="0" IVar="-1" Cut="0.0000000000000000e+00" cType="1" res="-2.7364015579223633e-02" rms="2.1099831163883209e-01" purity="4.7555357217788696e-02" nType="-99"/>
                    <Node pos="r" depth="7" NCoef="0" IVar="-1" Cut="0.0000000000000000e+00" cType="1" res="-1.6578245908021927e-02" rms="3.1219786405563354e-01" purity="1.1239741742610931e-01" nType="-99"/>
                  </Node>
                  <Node pos="r" depth="6" NCoef="0" IVar="-1" Cut="0.0000000000000000e+00" cType="1" res="-6.5912790596485138e-03" rms="4.3209168314933777e-01" purity="2.6296091079711914e-01" nType="-99"/>
                </Node>
              </Node>
              <Node pos="r" depth="4" NCoef="0" IVar="4" Cut="1.4117458462715149e-01" cType="1" res="-1.3067036867141724e-01" rms="2.7844762802124023e-01" purity="9.0186014771461487e-02" nType="0">
                <Node pos="l" depth="5" NCoef="0" IVar="4" Cut="7.2792448103427887e-02" cType="1" res="-1.3515008985996246e-01" rms="2.6719373464584351e-01" purity="8.2000434398651123e-02" nType="0">
                  <Node pos="l" depth="6" NCoef="0" IVar="-1" Cut="0.0000000000000000e+00" cType="1" res="-2.4682179093360901e-02" rms="2.1498115360736847e-01" purity="5.0474852323532104e-02" nType="-99"/>
                  <Node pos="r" depth="6" NCoef="0" IVar="5" Cut="4.0000000000000000e+00" cType="1" res="9.3843027949333191e-02" rms="0.0000000000000000e+00" purity="8.8606834411621094e-02" nType="0">
                    <Node pos="l" depth="7" NCoef="0" IVar="-1" Cut="0.0000000000000000e+00" cType="1" res="-2.1924162283539772e-02" rms="2.9791909456253052e-01" purity="1.0119960457086563e-01" nType="-99"/>
                    <Node pos="r" depth="7" NCoef="0" IVar="-1" Cut="0.0000000000000000e+00" cType="1" res="-2.1033400669693947e-02" rms="2.7139526605606079e-01" purity="8.5616141557693481e-02" nType="-99"/>
                  </Node>
                </Node>
                <Node pos="r" depth="5" NCoef="0" IVar="-1" Cut="0.0000000000000000e+00" cType="1" res="-1.5902647748589516e-02" rms="3.3245712518692017e-01" purity="1.3512189686298370e-01" nType="-99"/>
              </Node>
            </Node>
            <Node pos="r" depth="3" NCoef="0" IVar="5" Cut="5.0000000000000000e+00" cType="1" res="1.4945951104164124e-01" rms="2.3451361060142517e-01" purity="1.8490250408649445e-01" nType="0">
              <Node pos="l" depth="4" NCoef="0" IVar="3" Cut="3.1353515386581421e-01" cType="1" res="-5.1974002271890640e-02" rms="4.2868027091026306e-01" purity="2.5738641619682312e-01" nType="0">
                <Node pos="l" depth="5" NCoef="0" IVar="-1" Cut="0.0000000000000000e+00" cType="1" res="-2.2105500102043152e-03" rms="4.3714830279350281e-01" purity="2.7492544054985046e-01" nType="-99"/>
                <Node pos="r" depth="5" NCoef="0" IVar="-1" Cut="0.0000000000000000e+00" cType="1" res="-8.4920758381485939e-03" rms="4.2173680663108826e-01" purity="2.4615371227264404e-01" nType="-99"/>
              </Node>
              <Node pos="r" depth="4" NCoef="0" IVar="3" Cut="3.4777477383613586e-01" cType="1" res="-9.8685517907142639e-02" rms="3.4630227088928223e-01" purity="1.4612857997417450e-01" nType="0">
                <Node pos="l" depth="5" NCoef="0" IVar="4" Cut="2.6895752549171448e-01" cType="1" res="-1.0925533622503281e-01" rms="3.2453581690788269e-01" purity="1.2318478524684906e-01" nType="0">
                  <Node pos="l" depth="6" NCoef="0" IVar="3" Cut="2.1320334076881409e-01" cType="1" res="-1.2335755676031113e-01" rms="2.9063805937767029e-01" purity="9.4179235398769379e-02" nType="0">
                    <Node pos="l" depth="7" NCoef="0" IVar="-1" Cut="0.0000000000000000e+00" cType="1" res="-2.5608576834201813e-02" rms="2.5333949923515320e-01" purity="6.9203190505504608e-02" nType="-99"/>
                    <Node pos="r" depth="7" NCoef="0" IVar="-1" Cut="0.0000000000000000e+00" cType="1" res="-1.8045235425233841e-02" rms="3.1002324819564819e-01" purity="1.0898598283529282e-01" nType="-99"/>
                  </Node>
                  <Node pos="r" depth="6" NCoef="0" IVar="-1" Cut="0.0000000000000000e+00" cType="1" res="-9.4735249876976013e-03" rms="4.0169787406921387e-01" purity="2.0405198633670807e-01" nType="-99"/>
                </Node>
                <Node pos="r" depth="5" NCoef="0" IVar="-1" Cut="0.0000000000000000e+00" cType="1" res="-6.7317690700292587e-03" rms="4.2024129629135132e-01" purity="2.3875598609447479e-01" nType="-99"/>
              </Node>
            </Node>
          </Node>
          <Node pos="r" depth="2" NCoef="0" IVar="0" Cut="4.3360722064971924e-01" cType="1" res="-3.4321237355470657e-02" rms="4.7619295120239258e-01" purity="3.8306084275245667e-01" nType="0">
            <Node pos="l" depth="3" NCoef="0" IVar="2" Cut="1.7451918029785156e+02" cType="1" res="-9.0535013005137444e-03" rms="4.9272575974464417e-01" purity="4.4762799143791199e-01" nType="0">
              <Node pos="l" depth="4" NCoef="0" IVar="4" Cut="5.0759099423885345e-02" cType="1" res="1.0233147069811821e-02" rms="4.9565327167510986e-01" purity="4.7954356670379639e-01" nType="0">
                <Node pos="l" depth="5" NCoef="0" IVar="-1" Cut="0.0000000000000000e+00" cType="1" res="-1.4028310542926192e-03" rms="4.9182412028312683e-01" purity="4.4316428899765015e-01" nType="-99"/>
                <Node pos="r" depth="5" NCoef="0" IVar="-1" Cut="0.0000000000000000e+00" cType="1" res="1.9504708470776677e-03" rms="4.9711862206459045e-01" purity="4.9886482954025269e-01" nType="-99"/>
              </Node>
              <Node pos="r" depth="4" NCoef="0" IVar="0" Cut="1.3986871577799320e-02" cType="1" res="-2.7651978656649590e-02" rms="4.8916640877723694e-01" purity="4.1685116291046143e-01" nType="0">
                <Node pos="l" depth="5" NCoef="0" IVar="-1" Cut="0.0000000000000000e+00" cType="1" res="-6.4186356030404568e-04" rms="4.9434787034988403e-01" purity="4.5275515317916870e-01" nType="-99"/>
                <Node pos="r" depth="5" NCoef="0" IVar="-1" Cut="0.0000000000000000e+00" cType="1" res="-5.5277440696954727e-03" rms="4.8005464673042297e-01" purity="3.6508464813232422e-01" nType="-99"/>
              </Node>
            </Node>
            <Node pos="r" depth="3" NCoef="0" IVar="2" Cut="2.1847502136230469e+02" cType="1" res="-6.9633707404136658e-02" rms="4.4970381259918213e-01" purity="2.9282623529434204e-01" nType="0">
              <Node pos="l" depth="4" NCoef="0" IVar="4" Cut="5.3178757429122925e-02" cType="1" res="-5.7317145168781281e-02" rms="4.5828118920326233e-01" purity="3.1210163235664368e-01" nType="0">
                <Node pos="l" depth="5" NCoef="0" IVar="-1" Cut="0.0000000000000000e+00" cType="1" res="-9.6506988629698753e-03" rms="4.3949609994888306e-01" purity="2.6965656876564026e-01" nType="-99"/>
                <Node pos="r" depth="5" NCoef="0" IVar="-1" Cut="0.0000000000000000e+00" cType="1" res="-2.4002643767744303e-03" rms="4.7252577543258667e-01" purity="3.5103300213813782e-01" nType="-99"/>
              </Node>
              <Node pos="r" depth="4" NCoef="0" IVar="-1" Cut="0.0000000000000000e+00" cType="1" res="-1.0392092168331146e-02" rms="4.2916804552078247e-01" purity="2.5076419115066528e-01" nType="-99"/>
            </Node>
          </Node>
        </Node>
        <Node pos="r" depth="1" NCoef="0" IVar="3" Cut="8.1633347272872925e-01" cType="1" res="8.8950514793395996e-02" rms="4.4351840019226074e-01" purity="7.0623797178268433e-01" nType="0">
          <Node pos="l" depth="2" NCoef="0" IVar="1" Cut="2.9554784297943115e-01" cType="1" res="2.9031941667199135e-02" rms="4.8745572566986084e-01" purity="5.6934583187103271e-01" nType="0">
            <Node pos="l" depth="3" NCoef="0" IVar="3" Cut="7.2572362422943115e-01" cType="1" res="4.6150140464305878e-02" rms="4.8456329107284546e-01" purity="5.9880805015563965e-01" nType="0">
              <Node pos="l" depth="4" NCoef="0" IVar="0" Cut="2.4652667343616486e-01" cType="1" res="1.4123653061687946e-02" rms="4.9543887376785278e-01" purity="5.3134840726852417e-01" nType="0">
                <Node pos="l" depth="5" NCoef="0" IVar="3" Cut="6.9803136587142944e-01" cType="1" res="3.2683465629816055e-02" rms="4.9307832121849060e-01" purity="5.7735657691955566e-01" nType="0">
                  <Node pos="l" depth="6" NCoef="0" IVar="-1" Cut="0.0000000000000000e+00" cType="1" res="2.2197922226041555e-03" rms="4.9508994817733765e-01" purity="5.6517070531845093e-01" nType="-99"/>
                  <Node pos="r" depth="6" NCoef="0" IVar="-1" Cut="0.0000000000000000e+00" cType="1" res="3.1557932961732149e-03" rms="4.9120393395423889e-01" purity="5.8831626176834106e-01" nType="-99"/>
                </Node>
                <Node pos="r" depth="5" NCoef="0" IVar="-1" Cut="0.0000000000000000e+00" cType="1" res="-8.4708048962056637e-04" rms="4.9743899703025818e-01" purity="4.7227621078491211e-01" nType="-99"/>
              </Node>
              <Node pos="r" depth="4" NCoef="0" IVar="2" Cut="1.0714538574218750e+02" cType="1" res="6.3414745032787323e-02" rms="4.7770819067955017e-01" purity="6.3517373800277710e-01" nType="0">
                <Node pos="l" depth="5" NCoef="0" IVar="4" Cut="4.5757394284009933e-02" cType="1" res="7.6741643249988556e-02" rms="4.7309443354606628e-01" purity="6.5193772315979004e-01" nType="0">
                  <Node pos="l" depth="6" NCoef="0" IVar="2" Cut="4.5385047912597656e+01" cType="1" res="5.4157506674528122e-02" rms="4.7916162014007568e-01" purity="6.2873792648315430e-01" nType="0">
                    <Node pos="l" depth="7" NCoef="0" IVar="-1" Cut="0.0000000000000000e+00" cType="1" res="5.6384168565273285e-03" rms="4.7439381480216980e-01" purity="6.4630091190338135e-01" nType="-99"/>
                    <Node pos="r" depth="7" NCoef="0" IVar="-1" Cut="0.0000000000000000e+00" cType="1" res="3.0098836869001389e-03" rms="4.8444029688835144e-01" purity="6.0631620883941650e-01" nType="-99"/>
                  </Node>
                  <Node pos="r" depth="6" NCoef="0" IVar="-1" Cut="0.0000000000000000e+00" cType="1" res="8.6082499474287033e-03" rms="4.6080383658409119e-01" purity="6.8938624858856201e-01" nType="-99"/>
                </Node>
                <Node pos="r" depth="5" NCoef="0" IVar="5" Cut="3.0000000000000000e+00" cType="1" res="4.9017813056707382e-02" rms="4.8188620805740356e-01" purity="6.1634296178817749e-01" nType="0">
                  <Node pos="l" depth="6" NCoef="0" IVar="-1" Cut="0.0000000000000000e+00" cType="1" res="3.0076769180595875e-03" rms="4.8710909485816956e-01" purity="5.9585022926330566e-01" nType="-99"/>
                  <Node pos="r" depth="6" NCoef="0" IVar="-1" Cut="0.0000000000000000e+00" cType="1" res="5.9192632324993610e-03" rms="4.7549340128898621e-01" purity="6.4389723539352417e-01" nType="-99"/>
                </Node>
              </Node>
            </Node>
            <Node pos="r" depth="3" NCoef="0" IVar="3" Cut="7.5433766841888428e-01" cType="1" res="-1.9664073362946510e-02" rms="4.9234747886657715e-01" purity="4.8553484678268433e-01" nType="0">
              <Node pos="l" depth="4" NCoef="0" IVar="3" Cut="7.1279716491699219e-01" cType="1" res="-4.5102190226316452e-02" rms="4.9051418900489807e-01" purity="4.3591162562370300e-01" nType="0">
                <Node pos="l" depth="5" NCoef="0" IVar="-1" Cut="0.0000000000000000e+00" cType="1" res="-4.6622524969279766e-03" rms="4.8788517713546753e-01" purity="4.1640138626098633e-01" nType="-99"/>
                <Node pos="r" depth="5" NCoef="0" IVar="-1" Cut="0.0000000000000000e+00" cType="1" res="-3.2707585487514734e-03" rms="4.9315458536148071e-01" purity="4.5643919706344604e-01" nType="-99"/>
              </Node>
              <Node pos="r" depth="4" NCoef="0" IVar="-1" Cut="0.0000000000000000e+00" cType="1" res="9.1276888269931078e-04" rms="4.9280589818954468e-01" purity="5.4536586999893188e-01" nType="-99"/>
            </Node>
          </Node>
          <Node pos="r" depth="2" NCoef="0" IVar="2" Cut="1.8824549865722656e+02" cType="1" res="1.0948874056339264e-01" rms="4.2548248171806335e-01" purity="7.5316029787063599e-01" nType="0">
            <Node pos="l" depth="3" NCoef="0" IVar="1" Cut="7.2159433364868164e-01" cType="1" res="1.1346582323312759e-01" rms="4.2219507694244385e-01" purity="7.6050400733947754e-01" nType="0">
              <Node pos="l" depth="4" NCoef="0" IVar="3" Cut="8.8009506464004517e-01" cType="1" res="1.2021391838788986e-01" rms="4.1608434915542603e-01" purity="7.7238917350769043e-01" nType="0">
                <Node pos="l" depth="5" NCoef="0" IVar="3" Cut="8.5952687263488770e-01" cType="1" res="8.6823865771293640e-02" rms="4.5481491088867188e-01" purity="7.0307028293609619e-01" nType="0">
                  <Node pos="l" depth="6" NCoef="0" IVar="2" Cut="7.9203071594238281e+01" cType="1" res="7.6572924852371216e-02" rms="4.6254435181617737e-01" purity="6.8534344434738159e-01" nType="0">
                    <Node pos="l" depth="7" NCoef="0" IVar="-1" Cut="0.0000000000000000e+00" cType="1" res="6.9999033585190773e-03" rms="4.5667862892150879e-01" purity="6.9984346628189087e-01" nType="-99"/>
                    <Node pos="r" depth="7" NCoef="0" IVar="-1" Cut="0.0000000000000000e+00" cType="1" res="4.8420876264572144e-03" rms="4.7025877237319946e-01" purity="6.6442781686782837e-01" nType="-99"/>
                  </Node>
                  <Node pos="r" depth="6" NCoef="0" IVar="3" Cut="8.7080579996109009e-01" cType="1" res="1.0445606708526611e-01" rms="4.4064566493034363e-01" purity="7.3356157541275024e-01" nType="0">
                    <Node pos="l" depth="7" NCoef="0" IVar="-1" Cut="0.0000000000000000e+00" cType="1" res="9.8387226462364197e-03" rms="4.3574920296669006e-01" purity="7.4341374635696411e-01" nType="-99"/>
                    <Node pos="r" depth="7" NCoef="0" IVar="-1" Cut="0.0000000000000000e+00" cType="1" res="7.8110164031386375e-03" rms="4.4616430997848511e-01" purity="7.2104227542877197e-01" nType="-99"/>
                  </Node>
                </Node>
                <Node pos="r" depth="5" NCoef="0" IVar="0" Cut="2.9101207852363586e-01" cType="1" res="1.2758044898509979e-01" rms="4.0667474269866943e-01" purity="7.8768229484558105e-01" nType="0">
                  <Node pos="l" depth="6" NCoef="0" IVar="3" Cut="9.6612465381622314e-01" cType="1" res="1.3318186998367310e-01" rms="4.0148776769638062e-01" purity="7.9707258939743042e-01" nType="0">
                    <Node pos="l" depth="7" NCoef="0" IVar="-1" Cut="0.0000000000000000e+00" cType="1" res="1.0528593324124813e-02" rms="4.2313382029533386e-01" purity="7.6518601179122925e-01" nType="-99"/>
                    <Node pos="r" depth="7" NCoef="0" IVar="-1" Cut="0.0000000000000000e+00" cType="1" res="1.1638727039098740e-02" rms="3.9599266648292542e-01" purity="8.0472725629806519e-01" nType="-99"/>
                  </Node>
                  <Node pos="r" depth="6" NCoef="0" IVar="-1" Cut="0.0000000000000000e+00" cType="1" res="2.2509123664349318e-03" rms="4.7925794124603271e-01" purity="6.1995631456375122e-01" nType="-99"/>
                </Node>
              </Node>
              <Node pos="r" depth="4" NCoef="0" IVar="3" Cut="9.5464015007019043e-01" cType="1" res="3.9142340421676636e-02" rms="4.7816553711891174e-01" purity="6.2960094213485718e-01" nType="0">
                <Node pos="l" depth="5" NCoef="0" IVar="-1" Cut="0.0000000000000000e+00" cType="1" res="-4.0683135739527643e-04" rms="4.9336260557174683e-01" purity="5.6083321571350098e-01" nType="-99"/>
                <Node pos="r" depth="5" NCoef="0" IVar="-1" Cut="0.0000000000000000e+00" cType="1" res="4.7339801676571369e-03" rms="4.6946796774864197e-01" purity="6.6178321838378906e-01" nType="-99"/>
              </Node>
            </Node>
            <Node pos="r" depth="3" NCoef="0" IVar="-1" Cut="0.0000000000000000e+00" cType="1" res="1.5048501081764698e-03" rms="4.8700863122940063e-01" purity="5.8144330978393555e-01" nType="-99"/>
          </Node>
        </Node>
      </Node>
    </BinaryTree>
    <BinaryTree type="DecisionTree" boostWeight="1.0000000000000000e+00" itree="23">
      <Node pos="s" depth="0" NCoef="0" IVar="3" Cut="6.7608582973480225e-01" cType="1" res="1.4256110414862633e-02" rms="4.2422890663146973e-01" purity="4.9839708209037781e-01" nType="0">
        <Node pos="l" depth="1" NCoef="0" IVar="3" Cut="5.8886766433715820e-01" cType="1" res="-8.4109149873256683e-02" rms="3.7095826864242554e-01" purity="1.9839802384376526e-01" nType="0">
          <Node pos="l" depth="2" NCoef="0" IVar="3" Cut="4.3694192171096802e-01" cType="1" res="-9.8834037780761719e-02" rms="3.3784431219100952e-01" purity="1.4817303419113159e-01" nType="0">
            <Node pos="l" depth="3" NCoef="0" IVar="5" Cut="3.0000000000000000e+00" cType="1" res="9.1888688504695892e-02" rms="1.4561830461025238e-01" purity="9.2438273131847382e-02" nType="0">
              <Node pos="l" depth="4" NCoef="0" IVar="-1" Cut="0.0000000000000000e+00" cType="1" res="-7.0164222270250320e-03" rms="3.8392347097396851e-01" purity="1.9580803811550140e-01" nType="-99"/>
              <Node pos="r" depth="4" NCoef="0" IVar="4" Cut="2.0731034874916077e-01" cType="1" res="-1.1491875350475311e-01" rms="2.7535745501518250e-01" purity="8.7319560348987579e-02" nType="0">
                <Node pos="l" depth="5" NCoef="0" IVar="3" Cut="3.3830595016479492e-01" cType="1" res="-1.2096749991178513e-01" rms="2.4847948551177979e-01" purity="6.8642266094684601e-02" nType="0">
                  <Node pos="l" depth="6" NCoef="0" IVar="1" Cut="1.7467960119247437e+00" cType="1" res="-1.2745225429534912e-01" rms="2.0688797533512115e-01" purity="4.5750264078378677e-02" nType="0">
                    <Node pos="l" depth="7" NCoef="0" IVar="-1" Cut="0.0000000000000000e+00" cType="1" res="-2.6746384799480438e-02" rms="2.0317468047142029e-01" purity="4.4049307703971863e-02" nType="-99"/>
                    <Node pos="r" depth="7" NCoef="0" IVar="-1" Cut="0.0000000000000000e+00" cType="1" res="-2.2998098284006119e-02" rms="2.3124903440475464e-01" purity="5.8186165988445282e-02" nType="-99"/>
                  </Node>
                  <Node pos="r" depth="6" NCoef="0" IVar="0" Cut="6.7125976085662842e-01" cType="1" res="-1.1093843728303909e-01" rms="3.0144226551055908e-01" purity="1.0404615849256516e-01" nType="0">
                    <Node pos="l" depth="7" NCoef="0" IVar="-1" Cut="0.0000000000000000e+00" cType="1" res="-9.7880614921450615e-03" rms="3.8987973332405090e-01" purity="1.8891960382461548e-01" nType="-99"/>
                    <Node pos="r" depth="7" NCoef="0" IVar="-1" Cut="0.0000000000000000e+00" cType="1" res="-2.0483160391449928e-02" rms="2.7335220575332642e-01" purity="8.2275494933128357e-02" nType="-99"/>
                  </Node>
                </Node>
                <Node pos="r" depth="5" NCoef="0" IVar="5" Cut="6.0000000000000000e+00" cType="1" res="1.4889274537563324e-01" rms="8.2331605255603790e-02" purity="1.7587842047214508e-01" nType="0">
                  <Node pos="l" depth="6" NCoef="0" IVar="-1" Cut="0.0000000000000000e+00" cType="1" res="-9.1747101396322250e-03" rms="4.0697020292282104e-01" purity="2.1620500087738037e-01" nType="-99"/>
                  <Node pos="r" depth="6" NCoef="0" IVar="3" Cut="1.9740666449069977e-01" cType="1" res="-9.5079377293586731e-02" rms="3.5631141066551208e-01" purity="1.5169188380241394e-01" nType="0">
                    <Node pos="l" depth="7" NCoef="0" IVar="-1" Cut="0.0000000000000000e+00" cType="1" res="-1.6799315810203552e-02" rms="3.4229663014411926e-01" purity="1.3830846548080444e-01" nType="-99"/>
                    <Node pos="r" depth="7" NCoef="0" IVar="-1" Cut="0.0000000000000000e+00" cType="1" res="-1.1042267084121704e-02" rms="3.7108564376831055e-01" purity="1.6723349690437317e-01" nType="-99"/>
                  </Node>
                </Node>
              </Node>
            </Node>
            <Node pos="r" depth="3" NCoef="0" IVar="0" Cut="3.6567080020904541e-01" cType="1" res="-7.5173504650592804e-02" rms="4.2063796520233154e-01" purity="2.5032025575637817e-01" nType="0">
              <Node pos="l" depth="4" NCoef="0" IVar="5" Cut="4.0000000000000000e+00" cType="1" res="-9.5420014113187790e-03" rms="3.7772127985954285e-01" purity="3.6605077981948853e-01" nType="0">
                <Node pos="l" depth="5" NCoef="0" IVar="-1" Cut="0.0000000000000000e+00" cType="1" res="-6.1709131114184856e-03" rms="4.7149288654327393e-01" purity="3.3489778637886047e-01" nType="-99"/>
                <Node pos="r" depth="5" NCoef="0" IVar="1" Cut="1.4629861712455750e-01" cType="1" res="-1.0615534149110317e-02" rms="4.7980076074600220e-01" purity="3.7888365983963013e-01" nType="0">
                  <Node pos="l" depth="6" NCoef="0" IVar="-1" Cut="0.0000000000000000e+00" cType="1" res="1.6679752152413130e-03" rms="4.8878988623619080e-01" purity="4.1735357046127319e-01" nType="-99"/>
                  <Node pos="r" depth="6" NCoef="0" IVar="-1" Cut="0.0000000000000000e+00" cType="1" res="-5.3862542845308781e-03" rms="4.6254786849021912e-01" purity="3.2064640522003174e-01" nType="-99"/>
                </Node>
              </Node>
              <Node pos="r" depth="4" NCoef="0" IVar="1" Cut="4.8456255346536636e-02" cType="1" res="-9.7334191203117371e-02" rms="3.8982602953910828e-01" purity="1.9780696928501129e-01" nType="0">
                <Node pos="l" depth="5" NCoef="0" IVar="0" Cut="7.0794236660003662e-01" cType="1" res="-6.4671427011489868e-02" rms="4.2407199740409851e-01" purity="2.5005105137825012e-01" nType="0">
                  <Node pos="l" depth="6" NCoef="0" IVar="-1" Cut="0.0000000000000000e+00" cType="1" res="-3.3798380754888058e-03" rms="4.5843595266342163e-01" purity="3.1495341658592224e-01" nType="-99"/>
                  <Node pos="r" depth="6" NCoef="0" IVar="-1" Cut="0.0000000000000000e+00" cType="1" res="-1.1863799765706062e-02" rms="3.8699603080749512e-01" purity="1.8961042165756226e-01" nType="-99"/>
                </Node>
                <Node pos="r" depth="5" NCoef="0" IVar="4" Cut="7.0463024079799652e-02" cType="1" res="-1.1620467156171799e-01" rms="3.6727207899093628e-01" purity="1.6762366890907288e-01" nType="0">
                  <Node pos="l" depth="6" NCoef="0" IVar="2" Cut="9.0031478881835938e+01" cType="1" res="-1.3477136194705963e-01" rms="3.4465214610099792e-01" purity="1.4334361255168915e-01" nType="0">
                    <Node pos="l" depth="7" NCoef="0" IVar="-1" Cut="0.0000000000000000e+00" cType="1" res="-1.3330009765923023e-02" rms="3.8105621933937073e-01" purity="1.8201987445354462e-01" nType="-99"/>
                    <Node pos="r" depth="7" NCoef="0" IVar="-1" Cut="0.0000000000000000e+00" cType="1" res="-2.1255142986774445e-02" rms="3.0613178014755249e-01" purity="1.0865642130374908e-01" nType="-99"/>
                  </Node>
                  <Node pos="r" depth="6" NCoef="0" IVar="2" Cut="2.7539575195312500e+02" cType="1" res="-1.0120452940464020e-01" rms="3.8392123579978943e-01" purity="1.8723967671394348e-01" nType="0">
                    <Node pos="l" depth="7" NCoef="0" IVar="-1" Cut="0.0000000000000000e+00" cType="1" res="-8.9160734787583351e-03" rms="4.0905332565307617e-01" purity="2.2189345955848694e-01" nType="-99"/>
                    <Node pos="r" depth="7" NCoef="0" IVar="-1" Cut="0.0000000000000000e+00" cType="1" res="-1.6961369663476944e-02" rms="3.5192573070526123e-01" purity="1.4901934564113617e-01" nType="-99"/>
                  </Node>
                </Node>
              </Node>
            </Node>
          </Node>
          <Node pos="r" depth="2" NCoef="0" IVar="5" Cut="3.0000000000000000e+00" cType="1" res="-1.8447790294885635e-02" rms="4.8374834656715393e-01" purity="4.1755697131156921e-01" nType="0">
            <Node pos="l" depth="3" NCoef="0" IVar="-1" Cut="0.0000000000000000e+00" cType="1" res="-6.6749025136232376e-03" rms="4.6417596936225891e-01" purity="3.3520895242691040e-01" nType="-99"/>
            <Node pos="r" depth="3" NCoef="0" IVar="4" Cut="6.0539510101079941e-02" cType="1" res="-5.7575851678848267e-03" rms="4.8931163549423218e-01" purity="4.4032686948776245e-01" nType="0">
              <Node pos="l" depth="4" NCoef="0" IVar="2" Cut="8.0276245117187500e+01" cType="1" res="-3.5096511244773865e-02" rms="4.8275053501129150e-01" purity="4.0098601579666138e-01" nType="0">
                <Node pos="l" depth="5" NCoef="0" IVar="-1" Cut="0.0000000000000000e+00" cType="1" res="8.4430779679678380e-05" rms="4.9176558852195740e-01" purity="4.4789302349090576e-01" nType="-99"/>
                <Node pos="r" depth="5" NCoef="0" IVar="-1" Cut="0.0000000000000000e+00" cType="1" res="-6.8498793989419937e-03" rms="4.7055661678314209e-01" purity="3.5319367051124573e-01" nType="-99"/>
              </Node>
              <Node pos="r" depth="4" NCoef="0" IVar="2" Cut="1.6465983581542969e+02" cType="1" res="1.1453054845333099e-02" rms="4.9230685830116272e-01" purity="4.6340480446815491e-01" nType="0">
                <Node pos="l" depth="5" NCoef="0" IVar="-1" Cut="0.0000000000000000e+00" cType="1" res="4.6304035931825638e-03" rms="4.9707761406898499e-01" purity="5.2650618553161621e-01" nType="-99"/>
                <Node pos="r" depth="5" NCoef="0" IVar="3" Cut="6.3105064630508423e-01" cType="1" res="-1.5880662947893143e-02" rms="4.8737615346908569e-01" purity="4.2539846897125244e-01" nType="0">
                  <Node pos="l" depth="6" NCoef="0" IVar="-1" Cut="0.0000000000000000e+00" cType="1" res="-4.3920311145484447e-03" rms="4.7876119613647461e-01" purity="3.7828320264816284e-01" nType="-99"/>
                  <Node pos="r" depth="6" NCoef="0" IVar="-1" Cut="0.0000000000000000e+00" cType="1" res="1.5078398864716291e-03" rms="4.9446645379066467e-01" purity="4.7644054889678955e-01" nType="-99"/>
                </Node>
              </Node>
            </Node>
          </Node>
        </Node>
        <Node pos="r" depth="1" NCoef="0" IVar="0" Cut="6.1459439992904663e-01" cType="1" res="8.1598721444606781e-02" rms="4.4475999474525452e-01" purity="7.0378178358078003e-01" nType="0">
          <Node pos="l" depth="2" NCoef="0" IVar="3" Cut="8.2560217380523682e-01" cType="1" res="8.7883383035659790e-02" rms="4.4212105870246887e-01" purity="7.1355348825454712e-01" nType="0">
            <Node pos="l" depth="3" NCoef="0" IVar="1" Cut="7.0100414752960205e-01" cType="1" res="3.3580631017684937e-02" rms="4.8595440387725830e-01" purity="5.8505702018737793e-01" nType="0">
              <Node pos="l" depth="4" NCoef="0" IVar="3" Cut="7.5807893276214600e-01" cType="1" res="4.4169709086418152e-02" rms="4.8426684737205505e-01" purity="6.0246521234512329e-01" nType="0">
                <Node pos="l" depth="5" NCoef="0" IVar="0" Cut="1.9815003499388695e-02" cType="1" res="2.1847682073712349e-02" rms="4.9269065260887146e-01" purity="5.5548894405364990e-01" nType="0">
                  <Node pos="l" depth="6" NCoef="0" IVar="2" Cut="2.0537400817871094e+02" cType="1" res="4.0411349385976791e-02" rms="4.8829460144042969e-01" purity="6.0096526145935059e-01" nType="0">
                    <Node pos="l" depth="7" NCoef="0" IVar="-1" Cut="0.0000000000000000e+00" cType="1" res="4.2135398834943771e-03" rms="4.8433518409729004e-01" purity="6.1767905950546265e-01" nType="-99"/>
                    <Node pos="r" depth="7" NCoef="0" IVar="-1" Cut="0.0000000000000000e+00" cType="1" res="1.4684997731819749e-03" rms="4.9526813626289368e-01" purity="5.6757783889770508e-01" nType="-99"/>
                  </Node>
                  <Node pos="r" depth="6" NCoef="0" IVar="4" Cut="4.7958195209503174e-02" cType="1" res="2.7286863769404590e-04" rms="4.9688032269477844e-01" purity="5.0263607501983643e-01" nType="0">
                    <Node pos="l" depth="7" NCoef="0" IVar="-1" Cut="0.0000000000000000e+00" cType="1" res="-2.1811239421367645e-03" rms="4.9606484174728394e-01" purity="4.8199868202209473e-01" nType="-99"/>
                    <Node pos="r" depth="7" NCoef="0" IVar="-1" Cut="0.0000000000000000e+00" cType="1" res="1.7086553853005171e-03" rms="4.9664828181266785e-01" purity="5.1871156692504883e-01" nType="-99"/>
                  </Node>
                </Node>
                <Node pos="r" depth="5" NCoef="0" IVar="0" Cut="1.9787332415580750e-01" cType="1" res="6.6687606275081635e-02" rms="4.7455531358718872e-01" purity="6.4985370635986328e-01" nType="0">
                  <Node pos="l" depth="6" NCoef="0" IVar="1" Cut="5.9261605143547058e-02" cType="1" res="7.6786145567893982e-02" rms="4.6776634454727173e-01" purity="6.7354190349578857e-01" nType="0">
                    <Node pos="l" depth="7" NCoef="0" IVar="-1" Cut="0.0000000000000000e+00" cType="1" res="7.2294804267585278e-03" rms="4.5937252044677734e-01" purity="6.9598668813705444e-01" nType="-99"/>
                    <Node pos="r" depth="7" NCoef="0" IVar="-1" Cut="0.0000000000000000e+00" cType="1" res="4.6293507330119610e-03" rms="4.7939911484718323e-01" purity="6.3986939191818237e-01" nType="-99"/>
                  </Node>
                  <Node pos="r" depth="6" NCoef="0" IVar="-1" Cut="0.0000000000000000e+00" cType="1" res="3.6144168116152287e-03" rms="4.9045765399932861e-01" purity="5.8963042497634888e-01" nType="-99"/>
                </Node>
              </Node>
              <Node pos="r" depth="4" NCoef="0" IVar="-1" Cut="0.0000000000000000e+00" cType="1" res="-5.6855613365769386e-03" rms="4.9047803878784180e-01" purity="4.2106372117996216e-01" nType="-99"/>
            </Node>
            <Node pos="r" depth="3" NCoef="0" IVar="0" Cut="1.7826111614704132e-01" cType="1" res="1.0729940235614777e-01" rms="4.2366763949394226e-01" purity="7.5949752330780029e-01" nType="0">
              <Node pos="l" depth="4" NCoef="0" IVar="3" Cut="9.6547073125839233e-01" cType="1" res="1.1290099471807480e-01" rms="4.1910552978515625e-01" purity="7.6810467243194580e-01" nType="0">
                <Node pos="l" depth="5" NCoef="0" IVar="1" Cut="1.8120913207530975e-01" cType="1" res="9.2217043042182922e-02" rms="4.4428724050521851e-01" purity="7.2391104698181152e-01" nType="0">
                  <Node pos="l" depth="6" NCoef="0" IVar="1" Cut="6.6129460930824280e-02" cType="1" res="1.0726697742938995e-01" rms="4.3140313029289246e-01" purity="7.5128686428070068e-01" nType="0">
                    <Node pos="l" depth="7" NCoef="0" IVar="-1" Cut="0.0000000000000000e+00" cType="1" res="9.7820237278938293e-03" rms="4.2753848433494568e-01" purity="7.5786066055297852e-01" nType="-99"/>
                    <Node pos="r" depth="7" NCoef="0" IVar="-1" Cut="0.0000000000000000e+00" cType="1" res="7.6007083989679813e-03" rms="4.4780355691909790e-01" purity="7.2165066003799438e-01" nType="-99"/>
                  </Node>
                  <Node pos="r" depth="6" NCoef="0" IVar="3" Cut="8.6171638965606689e-01" cType="1" res="5.8494847267866135e-02" rms="4.7013503313064575e-01" purity="6.6257029771804810e-01" nType="0">
                    <Node pos="l" depth="7" NCoef="0" IVar="-1" Cut="0.0000000000000000e+00" cType="1" res="2.4673233274370432e-03" rms="4.8484033346176147e-01" purity="6.1668282747268677e-01" nType="-99"/>
                    <Node pos="r" depth="7" NCoef="0" IVar="-1" Cut="0.0000000000000000e+00" cType="1" res="6.4874854870140553e-03" rms="4.6132305264472961e-01" purity="6.8726432323455811e-01" nType="-99"/>
                  </Node>
                </Node>
                <Node pos="r" depth="5" NCoef="0" IVar="3" Cut="1.0308969020843506e+00" cType="1" res="1.2332593649625778e-01" rms="4.0542212128639221e-01" purity="7.9037868976593018e-01" nType="0">
                  <Node pos="l" depth="6" NCoef="0" IVar="3" Cut="1.0013489723205566e+00" cType="1" res="1.2535278499126434e-01" rms="4.0381237864494324e-01" purity="7.9304361343383789e-01" nType="0">
                    <Node pos="l" depth="7" NCoef="0" IVar="-1" Cut="0.0000000000000000e+00" cType="1" res="1.0160989128053188e-02" rms="4.0926665067672729e-01" purity="7.8516882658004761e-01" nType="-99"/>
                    <Node pos="r" depth="7" NCoef="0" IVar="-1" Cut="0.0000000000000000e+00" cType="1" res="1.1589839123189449e-02" rms="3.9240798354148865e-01" purity="8.0865776538848877e-01" nType="-99"/>
                  </Node>
                  <Node pos="r" depth="6" NCoef="0" IVar="-1" Cut="0.0000000000000000e+00" cType="1" res="8.5896952077746391e-03" rms="4.2078214883804321e-01" purity="7.6347577571868896e-01" nType="-99"/>
                </Node>
              </Node>
              <Node pos="r" depth="4" NCoef="0" IVar="0" Cut="3.1887972354888916e-01" cType="1" res="3.4568119794130325e-02" rms="4.7298881411552429e-01" purity="6.4774250984191895e-01" nType="0">
                <Node pos="l" depth="5" NCoef="0" IVar="-1" Cut="0.0000000000000000e+00" cType="1" res="4.4867042452096939e-03" rms="4.6468660235404968e-01" purity="6.7185866832733154e-01" nType="-99"/>
                <Node pos="r" depth="5" NCoef="0" IVar="-1" Cut="0.0000000000000000e+00" cType="1" res="1.6313944943249226e-03" rms="4.8170691728591919e-01" purity="6.2070178985595703e-01" nType="-99"/>
              </Node>
            </Node>
          </Node>
          <Node pos="r" depth="2" NCoef="0" IVar="-1" Cut="0.0000000000000000e+00" cType="1" res="-1.1381134390830994e-02" rms="4.8029604554176331e-01" purity="3.7987089157104492e-01" nType="-99"/>
        </Node>
      </Node>
    </BinaryTree>
    <BinaryTree type="DecisionTree" boostWeight="1.0000000000000000e+00" itree="24">
      <Node pos="s" depth="0" NCoef="0" IVar="3" Cut="6.7633879184722900e-01" cType="1" res="1.6584895551204681e-02" rms="4.2310237884521484e-01" purity="5.0069576501846313e-01" nType="0">
        <Node pos="l" depth="1" NCoef="0" IVar="3" Cut="5.2372527122497559e-01" cType="1" res="-7.7144511044025421e-02" rms="3.7137752771377563e-01" purity="1.9999834895133972e-01" nType="0">
          <Node pos="l" depth="2" NCoef="0" IVar="3" Cut="4.2245066165924072e-01" cType="1" res="-9.7788237035274506e-02" rms="3.1388723850250244e-01" purity="1.2054728716611862e-01" nType="0">
            <Node pos="l" depth="3" NCoef="0" IVar="3" Cut="1.3660153746604919e-01" cType="1" res="-1.0455229133367538e-01" rms="2.8026530146598816e-01" purity="9.1563768684864044e-02" nType="0">
              <Node pos="l" depth="4" NCoef="0" IVar="5" Cut="8.0000000000000000e+00" cType="1" res="1.2070980668067932e-01" rms="2.3760934174060822e-01" purity="1.4917868375778198e-01" nType="0">
                <Node pos="l" depth="5" NCoef="0" IVar="-1" Cut="0.0000000000000000e+00" cType="1" res="-2.1384591236710548e-03" rms="3.9804375171661377e-01" purity="2.1730095148086548e-01" nType="-99"/>
                <Node pos="r" depth="5" NCoef="0" IVar="-1" Cut="0.0000000000000000e+00" cType="1" res="-2.2074695676565170e-02" rms="2.6356723904609680e-01" purity="8.0931127071380615e-02" nType="-99"/>
              </Node>
              <Node pos="r" depth="4" NCoef="0" IVar="0" Cut="6.2314194440841675e-01" cType="1" res="-1.0888165235519409e-01" rms="2.7192577719688416e-01" purity="8.4893450140953064e-02" nType="0">
                <Node pos="l" depth="5" NCoef="0" IVar="0" Cut="2.0098316669464111e-01" cType="1" res="-5.6227408349514008e-02" rms="3.9496961236000061e-01" purity="2.0022164285182953e-01" nType="0">
                  <Node pos="l" depth="6" NCoef="0" IVar="-1" Cut="0.0000000000000000e+00" cType="1" res="-4.9405158497393131e-03" rms="4.1642192006111145e-01" purity="2.3323594033718109e-01" nType="-99"/>
                  <Node pos="r" depth="6" NCoef="0" IVar="-1" Cut="0.0000000000000000e+00" cType="1" res="-1.0086970403790474e-02" rms="3.7628912925720215e-01" purity="1.7375983297824860e-01" nType="-99"/>
                </Node>
                <Node pos="r" depth="5" NCoef="0" IVar="1" Cut="1.7258428269997239e-03" cType="1" res="-1.1919964104890823e-01" rms="2.3919473588466644e-01" purity="6.2294021248817444e-02" nType="0">
                  <Node pos="l" depth="6" NCoef="0" IVar="2" Cut="3.3375527954101562e+02" cType="1" res="-1.0453428328037262e-01" rms="2.8416505455970764e-01" purity="9.0601280331611633e-02" nType="0">
                    <Node pos="l" depth="7" NCoef="0" IVar="-1" Cut="0.0000000000000000e+00" cType="1" res="-1.7299242317676544e-02" rms="2.8968214988708496e-01" purity="9.6123218536376953e-02" nType="-99"/>
                    <Node pos="r" depth="7" NCoef="0" IVar="-1" Cut="0.0000000000000000e+00" cType="1" res="-2.1291736513376236e-02" rms="2.7538299560546875e-01" purity="8.3038888871669769e-02" nType="-99"/>
                  </Node>
                  <Node pos="r" depth="6" NCoef="0" IVar="2" Cut="1.5206933593750000e+02" cType="1" res="-1.2338664382696152e-01" rms="2.2453439235687256e-01" purity="5.4212227463722229e-02" nType="0">
                    <Node pos="l" depth="7" NCoef="0" IVar="-1" Cut="0.0000000000000000e+00" cType="1" res="-2.4727892130613327e-02" rms="2.2001862525939941e-01" purity="5.1918100565671921e-02" nType="-99"/>
                    <Node pos="r" depth="7" NCoef="0" IVar="-1" Cut="0.0000000000000000e+00" cType="1" res="-2.4483248591423035e-02" rms="2.2692120075225830e-01" purity="5.5500887334346771e-02" nType="-99"/>
                  </Node>
                </Node>
              </Node>
            </Node>
            <Node pos="r" depth="3" NCoef="0" IVar="0" Cut="6.4827066659927368e-01" cType="1" res="-7.9737871885299683e-02" rms="3.8908374309539795e-01" purity="1.9789183139801025e-01" nType="0">
              <Node pos="l" depth="4" NCoef="0" IVar="2" Cut="2.0756710815429688e+02" cType="1" res="-5.0232749432325363e-02" rms="4.4185820221900940e-01" purity="2.7549168467521667e-01" nType="0">
                <Node pos="l" depth="5" NCoef="0" IVar="-1" Cut="0.0000000000000000e+00" cType="1" res="-2.5123474188148975e-03" rms="4.5626777410507202e-01" purity="3.0733969807624817e-01" nType="-99"/>
                <Node pos="r" depth="5" NCoef="0" IVar="-1" Cut="0.0000000000000000e+00" cType="1" res="-7.5682988390326500e-03" rms="4.3105125427246094e-01" purity="2.5422748923301697e-01" nType="-99"/>
              </Node>
              <Node pos="r" depth="4" NCoef="0" IVar="1" Cut="5.8500967919826508e-02" cType="1" res="-1.0177414119243622e-01" rms="3.4278064966201782e-01" purity="1.3993541896343231e-01" nType="0">
                <Node pos="l" depth="5" NCoef="0" IVar="-1" Cut="0.0000000000000000e+00" cType="1" res="-9.9883507937192917e-03" rms="3.8120988011360168e-01" purity="1.8048596382141113e-01" nType="-99"/>
                <Node pos="r" depth="5" NCoef="0" IVar="5" Cut="4.0000000000000000e+00" cType="1" res="-1.1442396789789200e-01" rms="3.2012370228767395e-01" purity="1.1922671645879745e-01" nType="0">
                  <Node pos="l" depth="6" NCoef="0" IVar="-1" Cut="0.0000000000000000e+00" cType="1" res="-2.0526330918073654e-02" rms="2.9991275072097778e-01" purity="1.0350104421377182e-01" nType="-99"/>
                  <Node pos="r" depth="6" NCoef="0" IVar="-1" Cut="0.0000000000000000e+00" cType="1" res="-1.4554205350577831e-02" rms="3.3409550786018372e-01" purity="1.3075123727321625e-01" nType="-99"/>
                </Node>
              </Node>
            </Node>
          </Node>
          <Node pos="r" depth="2" NCoef="0" IVar="0" Cut="5.7583463191986084e-01" cType="1" res="-3.0584027990698814e-02" rms="4.7291359305381775e-01" purity="3.7919464707374573e-01" nType="0">
            <Node pos="l" depth="3" NCoef="0" IVar="0" Cut="1.8574157729744911e-02" cType="1" res="-1.4634173363447189e-02" rms="4.8664346337318420e-01" purity="4.2414641380310059e-01" nType="0">
              <Node pos="l" depth="4" NCoef="0" IVar="1" Cut="-8.3827935159206390e-02" cType="1" res="1.6633473336696625e-02" rms="4.9555730819702148e-01" purity="4.8797222971916199e-01" nType="0">
                <Node pos="l" depth="5" NCoef="0" IVar="-1" Cut="0.0000000000000000e+00" cType="1" res="4.2895465157926083e-03" rms="4.9522665143013000e-01" purity="5.3801035881042480e-01" nType="-99"/>
                <Node pos="r" depth="5" NCoef="0" IVar="3" Cut="6.0741978883743286e-01" cType="1" res="3.6497190012596548e-04" rms="4.9483418464660645e-01" purity="4.6578100323677063e-01" nType="0">
                  <Node pos="l" depth="6" NCoef="0" IVar="-1" Cut="0.0000000000000000e+00" cType="1" res="-2.5006695650517941e-03" rms="4.8895910382270813e-01" purity="4.0517717599868774e-01" nType="-99"/>
                  <Node pos="r" depth="6" NCoef="0" IVar="-1" Cut="0.0000000000000000e+00" cType="1" res="1.7458216752856970e-03" rms="4.9808195233345032e-01" purity="5.1012498140335083e-01" nType="-99"/>
                </Node>
              </Node>
              <Node pos="r" depth="4" NCoef="0" IVar="2" Cut="2.0091282653808594e+02" cType="1" res="-3.6531232297420502e-02" rms="4.7908911108970642e-01" purity="3.7944853305816650e-01" nType="0">
                <Node pos="l" depth="5" NCoef="0" IVar="1" Cut="1.4903905987739563e-01" cType="1" res="-2.1530263125896454e-02" rms="4.8441392183303833e-01" purity="4.0551733970642090e-01" nType="0">
                  <Node pos="l" depth="6" NCoef="0" IVar="0" Cut="3.7952744960784912e-01" cType="1" res="8.8346824049949646e-03" rms="4.9261116981506348e-01" purity="4.4956684112548828e-01" nType="0">
                    <Node pos="l" depth="7" NCoef="0" IVar="-1" Cut="0.0000000000000000e+00" cType="1" res="2.9530948959290981e-03" rms="4.9698641896247864e-01" purity="5.0123387575149536e-01" nType="-99"/>
                    <Node pos="r" depth="7" NCoef="0" IVar="-1" Cut="0.0000000000000000e+00" cType="1" res="-1.4765299856662750e-03" rms="4.8685395717620850e-01" purity="3.9727970957756042e-01" nType="-99"/>
                  </Node>
                  <Node pos="r" depth="6" NCoef="0" IVar="-1" Cut="0.0000000000000000e+00" cType="1" res="-6.2558185309171677e-03" rms="4.6898853778839111e-01" purity="3.4233665466308594e-01" nType="-99"/>
                </Node>
                <Node pos="r" depth="5" NCoef="0" IVar="-1" Cut="0.0000000000000000e+00" cType="1" res="-6.2259151600301266e-03" rms="4.6867081522941589e-01" purity="3.3462348580360413e-01" nType="-99"/>
              </Node>
            </Node>
            <Node pos="r" depth="3" NCoef="0" IVar="5" Cut="3.0000000000000000e+00" cType="1" res="-7.5144365429878235e-02" rms="4.2829492688179016e-01" purity="2.5223690271377563e-01" nType="0">
              <Node pos="l" depth="4" NCoef="0" IVar="-1" Cut="0.0000000000000000e+00" cType="1" res="-1.1618415825068951e-02" rms="4.1351708769798279e-01" purity="2.2741036117076874e-01" nType="-99"/>
              <Node pos="r" depth="4" NCoef="0" IVar="2" Cut="1.4416511535644531e+02" cType="1" res="-6.0891520231962204e-02" rms="4.3552565574645996e-01" purity="2.6519522070884705e-01" nType="0">
                <Node pos="l" depth="5" NCoef="0" IVar="-1" Cut="0.0000000000000000e+00" cType="1" res="-3.8674888201057911e-03" rms="4.5299786329269409e-01" purity="3.0316743254661560e-01" nType="-99"/>
                <Node pos="r" depth="5" NCoef="0" IVar="-1" Cut="0.0000000000000000e+00" cType="1" res="-9.7926398739218712e-03" rms="4.1618677973747253e-01" purity="2.2766517102718353e-01" nType="-99"/>
              </Node>
            </Node>
          </Node>
        </Node>
        <Node pos="r" depth="1" NCoef="0" IVar="0" Cut="7.9670566320419312e-01" cType="1" res="8.0535255372524261e-02" rms="4.4381311535835266e-01" purity="7.0585769414901733e-01" nType="0">
          <Node pos="l" depth="2" NCoef="0" IVar="3" Cut="8.2585638761520386e-01" cType="1" res="8.5763752460479736e-02" rms="4.4190901517868042e-01" purity="7.1362054347991943e-01" nType="0">
            <Node pos="l" depth="3" NCoef="0" IVar="0" Cut="2.5684477761387825e-02" cType="1" res="3.3762004226446152e-02" rms="4.8582783341407776e-01" purity="5.8490931987762451e-01" nType="0">
              <Node pos="l" depth="4" NCoef="0" IVar="3" Cut="7.1493792533874512e-01" cType="1" res="5.7344265282154083e-02" rms="4.7819367051124573e-01" purity="6.3319194316864014e-01" nType="0">
                <Node pos="l" depth="5" NCoef="0" IVar="-1" Cut="0.0000000000000000e+00" cType="1" res="1.7482575494796038e-03" rms="4.9419102072715759e-01" purity="5.6119674444198608e-01" nType="-99"/>
                <Node pos="r" depth="5" NCoef="0" IVar="1" Cut="3.3425351977348328e-01" cType="1" res="6.5349608659744263e-02" rms="4.7419005632400513e-01" purity="6.4920961856842041e-01" nType="0">
                  <Node pos="l" depth="6" NCoef="0" IVar="3" Cut="7.8650420904159546e-01" cType="1" res="7.4158370494842529e-02" rms="4.6883943676948547e-01" purity="6.7082637548446655e-01" nType="0">
                    <Node pos="l" depth="7" NCoef="0" IVar="-1" Cut="0.0000000000000000e+00" cType="1" res="4.9755135551095009e-03" rms="4.7666028141975403e-01" purity="6.4841121435165405e-01" nType="-99"/>
                    <Node pos="r" depth="7" NCoef="0" IVar="-1" Cut="0.0000000000000000e+00" cType="1" res="7.3510743677616119e-03" rms="4.5805302262306213e-01" purity="6.9951969385147095e-01" nType="-99"/>
                  </Node>
                  <Node pos="r" depth="6" NCoef="0" IVar="-1" Cut="0.0000000000000000e+00" cType="1" res="2.6804099325090647e-03" rms="4.9169570207595825e-01" purity="5.7124882936477661e-01" nType="-99"/>
                </Node>
              </Node>
              <Node pos="r" depth="4" NCoef="0" IVar="3" Cut="7.7281153202056885e-01" cType="1" res="-1.9539985805749893e-03" rms="4.9503231048583984e-01" purity="5.1178389787673950e-01" nType="0">
                <Node pos="l" depth="5" NCoef="0" IVar="1" Cut="3.6713078618049622e-01" cType="1" res="-1.3033672235906124e-02" rms="4.9621468782424927e-01" purity="4.8600241541862488e-01" nType="0">
                  <Node pos="l" depth="6" NCoef="0" IVar="2" Cut="9.9270736694335938e+01" cType="1" res="7.9523604363203049e-03" rms="4.9789321422576904e-01" purity="5.1701724529266357e-01" nType="0">
                    <Node pos="l" depth="7" NCoef="0" IVar="-1" Cut="0.0000000000000000e+00" cType="1" res="3.0040394049137831e-03" rms="4.9614176154136658e-01" purity="5.5157482624053955e-01" nType="-99"/>
                    <Node pos="r" depth="7" NCoef="0" IVar="-1" Cut="0.0000000000000000e+00" cType="1" res="-1.5097133582457900e-03" rms="4.9813893437385559e-01" purity="4.8641124367713928e-01" nType="-99"/>
                  </Node>
                  <Node pos="r" depth="6" NCoef="0" IVar="-1" Cut="0.0000000000000000e+00" cType="1" res="-7.2647402994334698e-03" rms="4.8461589217185974e-01" purity="3.8601583242416382e-01" nType="-99"/>
                </Node>
                <Node pos="r" depth="5" NCoef="0" IVar="-1" Cut="0.0000000000000000e+00" cType="1" res="2.1128205116838217e-03" rms="4.9127367138862610e-01" purity="5.7218426465988159e-01" nType="-99"/>
              </Node>
            </Node>
            <Node pos="r" depth="3" NCoef="0" IVar="0" Cut="2.5667607784271240e-01" cType="1" res="1.0452979803085327e-01" rms="4.2338129878044128e-01" purity="7.6006895303726196e-01" nType="0">
              <Node pos="l" depth="4" NCoef="0" IVar="3" Cut="9.6570938825607300e-01" cType="1" res="1.0851294547319412e-01" rms="4.1984966397285461e-01" purity="7.6719385385513306e-01" nType="0">
                <Node pos="l" depth="5" NCoef="0" IVar="3" Cut="8.4841388463973999e-01" cType="1" res="9.0629756450653076e-02" rms="4.4452804327011108e-01" purity="7.2461396455764771e-01" nType="0">
                  <Node pos="l" depth="6" NCoef="0" IVar="2" Cut="8.8408416748046875e+01" cType="1" res="7.2755426168441772e-02" rms="4.6381551027297974e-01" purity="6.8222224712371826e-01" nType="0">
                    <Node pos="l" depth="7" NCoef="0" IVar="-1" Cut="0.0000000000000000e+00" cType="1" res="6.6043077968060970e-03" rms="4.5506983995437622e-01" purity="7.0271271467208862e-01" nType="-99"/>
                    <Node pos="r" depth="7" NCoef="0" IVar="-1" Cut="0.0000000000000000e+00" cType="1" res="5.1257223822176456e-03" rms="4.7314709424972534e-01" purity="6.5915668010711670e-01" nType="-99"/>
                  </Node>
                  <Node pos="r" depth="6" NCoef="0" IVar="2" Cut="1.6834492492675781e+02" cType="1" res="9.5238775014877319e-02" rms="4.3929943442344666e-01" purity="7.3554497957229614e-01" nType="0">
                    <Node pos="l" depth="7" NCoef="0" IVar="-1" Cut="0.0000000000000000e+00" cType="1" res="8.1113660708069801e-03" rms="4.3833735585212708e-01" purity="7.3673009872436523e-01" nType="-99"/>
                    <Node pos="r" depth="7" NCoef="0" IVar="-1" Cut="0.0000000000000000e+00" cType="1" res="1.1794829741120338e-02" rms="4.4548264145851135e-01" purity="7.2590339183807373e-01" nType="-99"/>
                  </Node>
                </Node>
                <Node pos="r" depth="5" NCoef="0" IVar="3" Cut="1.0311245918273926e+00" cType="1" res="1.1776639521121979e-01" rms="4.0618336200714111e-01" purity="7.8922629356384277e-01" nType="0">
                  <Node pos="l" depth="6" NCoef="0" IVar="3" Cut="9.9946713447570801e-01" cType="1" res="1.1938476562500000e-01" rms="4.0480935573577881e-01" purity="7.9166895151138306e-01" nType="0">
                    <Node pos="l" depth="7" NCoef="0" IVar="-1" Cut="0.0000000000000000e+00" cType="1" res="9.6819372847676277e-03" rms="4.1177475452423096e-01" purity="7.8155487775802612e-01" nType="-99"/>
                    <Node pos="r" depth="7" NCoef="0" IVar="-1" Cut="0.0000000000000000e+00" cType="1" res="1.0856237262487411e-02" rms="3.9645379781723022e-01" purity="8.0322098731994629e-01" nType="-99"/>
                  </Node>
                  <Node pos="r" depth="6" NCoef="0" IVar="-1" Cut="0.0000000000000000e+00" cType="1" res="8.5207987576723099e-03" rms="4.1911450028419495e-01" purity="7.6522094011306763e-01" nType="-99"/>
                </Node>
              </Node>
              <Node pos="r" depth="4" NCoef="0" IVar="0" Cut="4.1319450736045837e-01" cType="1" res="3.6161791533231735e-02" rms="4.7478434443473816e-01" purity="6.3777559995651245e-01" nType="0">
                <Node pos="l" depth="5" NCoef="0" IVar="-1" Cut="0.0000000000000000e+00" cType="1" res="4.3918569572269917e-03" rms="4.6483704447746277e-01" purity="6.7492949962615967e-01" nType="-99"/>
                <Node pos="r" depth="5" NCoef="0" IVar="-1" Cut="0.0000000000000000e+00" cType="1" res="1.5131623949855566e-03" rms="4.8559609055519104e-01" purity="5.9419083595275879e-01" nType="-99"/>
              </Node>
            </Node>
          </Node>
          <Node pos="r" depth="2" NCoef="0" IVar="-1" Cut="0.0000000000000000e+00" cType="1" res="-1.7901722341775894e-02" rms="4.5822444558143616e-01" purity="3.0645948648452759e-01" nType="-99"/>
        </Node>
      </Node>
    </BinaryTree>
    <BinaryTree type="DecisionTree" boostWeight="1.0000000000000000e+00" itree="25">
      <Node pos="s" depth="0" NCoef="0" IVar="3" Cut="6.7608582973480225e-01" cType="1" res="1.6143074259161949e-02" rms="4.2204788327217102e-01" purity="5.0137239694595337e-01" nType="0">
        <Node pos="l" depth="1" NCoef="0" IVar="3" Cut="4.7983956336975098e-01" cType="1" res="-7.5037024915218353e-02" rms="3.7074577808380127e-01" purity="1.9892059266567230e-01" nType="0">
          <Node pos="l" depth="2" NCoef="0" IVar="1" Cut="1.4958879351615906e-01" cType="1" res="-9.7061552107334137e-02" rms="2.9558470845222473e-01" purity="1.0347724705934525e-01" nType="0">
            <Node pos="l" depth="3" NCoef="0" IVar="3" Cut="1.8619775772094727e-01" cType="1" res="-7.9684488475322723e-02" rms="3.3913111686706543e-01" purity="1.4184817671775818e-01" nType="0">
              <Node pos="l" depth="4" NCoef="0" IVar="-1" Cut="0.0000000000000000e+00" cType="1" res="-7.1293194778263569e-03" rms="3.7635990977287292e-01" purity="1.8742847442626953e-01" nType="-99"/>
              <Node pos="r" depth="4" NCoef="0" IVar="0" Cut="7.8631359338760376e-01" cType="1" res="-8.4763176739215851e-02" rms="3.3265870809555054e-01" purity="1.3473479449748993e-01" nType="0">
                <Node pos="l" depth="5" NCoef="0" IVar="2" Cut="3.7655026245117188e+02" cType="1" res="-5.0446286797523499e-02" rms="4.0976667404174805e-01" purity="2.2003859281539917e-01" nType="0">
                  <Node pos="l" depth="6" NCoef="0" IVar="-1" Cut="0.0000000000000000e+00" cType="1" res="-4.0104771032929420e-03" rms="4.2033934593200684e-01" purity="2.3790216445922852e-01" nType="-99"/>
                  <Node pos="r" depth="6" NCoef="0" IVar="-1" Cut="0.0000000000000000e+00" cType="1" res="-9.1458642855286598e-03" rms="3.9718672633171082e-01" purity="2.0101748406887054e-01" nType="-99"/>
                </Node>
                <Node pos="r" depth="5" NCoef="0" IVar="2" Cut="1.5162423706054688e+02" cType="1" res="-1.0356745123863220e-01" rms="2.7981051802635193e-01" purity="8.7991744279861450e-02" nType="0">
                  <Node pos="l" depth="6" NCoef="0" IVar="-1" Cut="0.0000000000000000e+00" cType="1" res="-1.4956350438296795e-02" rms="3.0550062656402588e-01" purity="1.0790722072124481e-01" nType="-99"/>
                  <Node pos="r" depth="6" NCoef="0" IVar="2" Cut="4.4225701904296875e+02" cType="1" res="-1.1264035105705261e-01" rms="2.6850059628486633e-01" purity="8.0164745450019836e-02" nType="0">
                    <Node pos="l" depth="7" NCoef="0" IVar="-1" Cut="0.0000000000000000e+00" cType="1" res="-2.0386591553688049e-02" rms="2.6725187897682190e-01" purity="7.9463079571723938e-02" nType="-99"/>
                    <Node pos="r" depth="7" NCoef="0" IVar="-1" Cut="0.0000000000000000e+00" cType="1" res="-2.0535327494144440e-02" rms="2.7099385857582092e-01" purity="8.1710569560527802e-02" nType="-99"/>
                  </Node>
                </Node>
              </Node>
            </Node>
            <Node pos="r" depth="3" NCoef="0" IVar="5" Cut="9.0000000000000000e+00" cType="1" res="0.0000000000000000e+00" rms="0.0000000000000000e+00" purity="7.9003930091857910e-02" nType="0">
              <Node pos="l" depth="4" NCoef="0" IVar="3" Cut="1.5562948584556580e-01" cType="1" res="-1.0541944950819016e-01" rms="2.7076670527458191e-01" purity="8.3737082779407501e-02" nType="0">
                <Node pos="l" depth="5" NCoef="0" IVar="-1" Cut="0.0000000000000000e+00" cType="1" res="-1.0563935153186321e-02" rms="3.2854372262954712e-01" purity="1.3519534468650818e-01" nType="-99"/>
                <Node pos="r" depth="5" NCoef="0" IVar="0" Cut="6.2314212322235107e-01" cType="1" res="-1.0928851366043091e-01" rms="2.6499998569488525e-01" purity="7.9433873295783997e-02" nType="0">
                  <Node pos="l" depth="6" NCoef="0" IVar="-1" Cut="0.0000000000000000e+00" cType="1" res="-1.0832947678864002e-02" rms="3.8074105978012085e-01" purity="1.7994375526905060e-01" nType="-99"/>
                  <Node pos="r" depth="6" NCoef="0" IVar="2" Cut="4.8938735961914062e+02" cType="1" res="-1.1472166329622269e-01" rms="2.3871098458766937e-01" purity="6.1892896890640259e-02" nType="0">
                    <Node pos="l" depth="7" NCoef="0" IVar="-1" Cut="0.0000000000000000e+00" cType="1" res="-2.2694386541843414e-02" rms="2.3670205473899841e-01" purity="6.0863863676786423e-02" nType="-99"/>
                    <Node pos="r" depth="7" NCoef="0" IVar="-1" Cut="0.0000000000000000e+00" cType="1" res="-2.2694714367389679e-02" rms="2.5070494413375854e-01" purity="6.8547844886779785e-02" nType="-99"/>
                  </Node>
                </Node>
              </Node>
              <Node pos="r" depth="4" NCoef="0" IVar="-1" Cut="0.0000000000000000e+00" cType="1" res="-2.6831068098545074e-02" rms="1.9525004923343658e-01" purity="4.1538771241903305e-02" nType="-99"/>
            </Node>
          </Node>
          <Node pos="r" depth="2" NCoef="0" IVar="1" Cut="-1.9544705748558044e-01" cType="1" res="-4.1059732437133789e-02" rms="4.6131485700607300e-01" purity="3.4616121649742126e-01" nType="0">
            <Node pos="l" depth="3" NCoef="0" IVar="-1" Cut="0.0000000000000000e+00" cType="1" res="2.1973182447254658e-03" rms="4.8227056860923767e-01" purity="4.3627342581748962e-01" nType="-99"/>
            <Node pos="r" depth="3" NCoef="0" IVar="1" Cut="8.2708507776260376e-01" cType="1" res="-5.0654999911785126e-02" rms="4.5738691091537476e-01" purity="3.3301070332527161e-01" nType="0">
              <Node pos="l" depth="4" NCoef="0" IVar="1" Cut="1.6733413934707642e-01" cType="1" res="-3.9401315152645111e-02" rms="4.6487250924110413e-01" purity="3.5145875811576843e-01" nType="0">
                <Node pos="l" depth="5" NCoef="0" IVar="3" Cut="6.1277037858963013e-01" cType="1" res="-2.0260520279407501e-02" rms="4.7605499625205994e-01" purity="3.8721325993537903e-01" nType="0">
                  <Node pos="l" depth="6" NCoef="0" IVar="0" Cut="3.5398784279823303e-01" cType="1" res="-3.6515932530164719e-02" rms="4.6457508206367493e-01" purity="3.3989861607551575e-01" nType="0">
                    <Node pos="l" depth="7" NCoef="0" IVar="-1" Cut="0.0000000000000000e+00" cType="1" res="-9.2372385552152991e-04" rms="4.8998808860778809e-01" purity="4.2078843712806702e-01" nType="-99"/>
                    <Node pos="r" depth="7" NCoef="0" IVar="-1" Cut="0.0000000000000000e+00" cType="1" res="-5.6502502411603928e-03" rms="4.4579523801803589e-01" purity="2.8550991415977478e-01" nType="-99"/>
                  </Node>
                  <Node pos="r" depth="6" NCoef="0" IVar="3" Cut="6.5156829357147217e-01" cType="1" res="8.5503412410616875e-03" rms="4.9443790316581726e-01" purity="4.7107300162315369e-01" nType="0">
                    <Node pos="l" depth="7" NCoef="0" IVar="-1" Cut="0.0000000000000000e+00" cType="1" res="-4.8857595538720489e-04" rms="4.9297440052032471e-01" purity="4.4949972629547119e-01" nType="-99"/>
                    <Node pos="r" depth="7" NCoef="0" IVar="-1" Cut="0.0000000000000000e+00" cType="1" res="2.5338339619338512e-03" rms="4.9585902690887451e-01" purity="5.0256162881851196e-01" nType="-99"/>
                  </Node>
                </Node>
                <Node pos="r" depth="5" NCoef="0" IVar="0" Cut="4.9967691302299500e-01" cType="1" res="-6.5127931535243988e-02" rms="4.4811823964118958e-01" purity="3.0340215563774109e-01" nType="0">
                  <Node pos="l" depth="6" NCoef="0" IVar="3" Cut="6.1913734674453735e-01" cType="1" res="-4.5354194939136505e-02" rms="4.7739472985267639e-01" purity="3.7331604957580566e-01" nType="0">
                    <Node pos="l" depth="7" NCoef="0" IVar="-1" Cut="0.0000000000000000e+00" cType="1" res="-6.2162466347217560e-03" rms="4.6663567423820496e-01" purity="3.3040741086006165e-01" nType="-99"/>
                    <Node pos="r" depth="7" NCoef="0" IVar="-1" Cut="0.0000000000000000e+00" cType="1" res="-1.4983264263719320e-03" rms="4.9180704355239868e-01" purity="4.3800455331802368e-01" nType="-99"/>
                  </Node>
                  <Node pos="r" depth="6" NCoef="0" IVar="2" Cut="1.6246618652343750e+02" cType="1" res="-8.9889600872993469e-02" rms="4.0715661644935608e-01" purity="2.1585248410701752e-01" nType="0">
                    <Node pos="l" depth="7" NCoef="0" IVar="-1" Cut="0.0000000000000000e+00" cType="1" res="-7.7717024832963943e-03" rms="4.2722064256668091e-01" purity="2.4640002846717834e-01" nType="-99"/>
                    <Node pos="r" depth="7" NCoef="0" IVar="-1" Cut="0.0000000000000000e+00" cType="1" res="-1.3892359100282192e-02" rms="3.8192519545555115e-01" purity="1.8140636384487152e-01" nType="-99"/>
                  </Node>
                </Node>
              </Node>
              <Node pos="r" depth="4" NCoef="0" IVar="-1" Cut="0.0000000000000000e+00" cType="1" res="-1.6028013080358505e-02" rms="3.8485169410705566e-01" purity="1.9209176301956177e-01" nType="-99"/>
            </Node>
          </Node>
        </Node>
        <Node pos="r" depth="1" NCoef="0" IVar="0" Cut="7.9670566320419312e-01" cType="1" res="7.8049153089523315e-02" rms="4.4301399588584900e-01" purity="7.0671999454498291e-01" nType="0">
          <Node pos="l" depth="2" NCoef="0" IVar="3" Cut="8.2561016082763672e-01" cType="1" res="8.2638509571552277e-02" rms="4.4129019975662231e-01" purity="7.1412384510040283e-01" nType="0">
            <Node pos="l" depth="3" NCoef="0" IVar="0" Cut="2.5694730877876282e-01" cType="1" res="2.9959362000226974e-02" rms="4.8643872141838074e-01" purity="5.8257263898849487e-01" nType="0">
              <Node pos="l" depth="4" NCoef="0" IVar="3" Cut="7.2432613372802734e-01" cType="1" res="4.6609073877334595e-02" rms="4.8169243335723877e-01" purity="6.1897194385528564e-01" nType="0">
                <Node pos="l" depth="5" NCoef="0" IVar="3" Cut="6.9787466526031494e-01" cType="1" res="2.3695437237620354e-02" rms="4.9347853660583496e-01" purity="5.6173443794250488e-01" nType="0">
                  <Node pos="l" depth="6" NCoef="0" IVar="-1" Cut="0.0000000000000000e+00" cType="1" res="1.0283619631081820e-03" rms="4.9562823772430420e-01" purity="5.4772984981536865e-01" nType="-99"/>
                  <Node pos="r" depth="6" NCoef="0" IVar="-1" Cut="0.0000000000000000e+00" cType="1" res="2.6566421147435904e-03" rms="4.9175092577934265e-01" purity="5.7185989618301392e-01" nType="-99"/>
                </Node>
                <Node pos="r" depth="5" NCoef="0" IVar="0" Cut="1.9892241060733795e-01" cType="1" res="5.3631767630577087e-02" rms="4.7780203819274902e-01" purity="6.3651442527770996e-01" nType="0">
                  <Node pos="l" depth="6" NCoef="0" IVar="1" Cut="-5.5851705372333527e-02" cType="1" res="5.8008752763271332e-02" rms="4.7566211223602295e-01" purity="6.4613360166549683e-01" nType="0">
                    <Node pos="l" depth="7" NCoef="0" IVar="-1" Cut="0.0000000000000000e+00" cType="1" res="5.9982524253427982e-03" rms="4.6494844555854797e-01" purity="6.8153268098831177e-01" nType="-99"/>
                    <Node pos="r" depth="7" NCoef="0" IVar="-1" Cut="0.0000000000000000e+00" cType="1" res="3.9932001382112503e-03" rms="4.8163345456123352e-01" purity="6.2520438432693481e-01" nType="-99"/>
                  </Node>
                  <Node pos="r" depth="6" NCoef="0" IVar="-1" Cut="0.0000000000000000e+00" cType="1" res="2.2979276254773140e-03" rms="4.9074178934097290e-01" purity="5.7287901639938354e-01" nType="-99"/>
                </Node>
              </Node>
              <Node pos="r" depth="4" NCoef="0" IVar="4" Cut="5.3128689527511597e-02" cType="1" res="-1.1719556525349617e-02" rms="4.9567553400993347e-01" purity="4.9145492911338806e-01" nType="0">
                <Node pos="l" depth="5" NCoef="0" IVar="3" Cut="7.4844944477081299e-01" cType="1" res="-2.9848735779523849e-02" rms="4.9432930350303650e-01" purity="4.7800689935684204e-01" nType="0">
                  <Node pos="l" depth="6" NCoef="0" IVar="-1" Cut="0.0000000000000000e+00" cType="1" res="-5.6724851019680500e-03" rms="4.9088951945304871e-01" purity="4.2294904589653015e-01" nType="-99"/>
                  <Node pos="r" depth="6" NCoef="0" IVar="-1" Cut="0.0000000000000000e+00" cType="1" res="8.1903161481022835e-04" rms="4.9546146392822266e-01" purity="5.4262572526931763e-01" nType="-99"/>
                </Node>
                <Node pos="r" depth="5" NCoef="0" IVar="0" Cut="3.6141550540924072e-01" cType="1" res="8.9300768449902534e-03" rms="4.9639853835105896e-01" purity="5.0677251815795898e-01" nType="0">
                  <Node pos="l" depth="6" NCoef="0" IVar="-1" Cut="0.0000000000000000e+00" cType="1" res="-4.3627010199998040e-06" rms="4.9584701657295227e-01" purity="5.2006375789642334e-01" nType="-99"/>
                  <Node pos="r" depth="6" NCoef="0" IVar="-1" Cut="0.0000000000000000e+00" cType="1" res="1.5040303114801645e-03" rms="4.9678957462310791e-01" purity="4.9337816238403320e-01" nType="-99"/>
                </Node>
              </Node>
            </Node>
            <Node pos="r" depth="3" NCoef="0" IVar="1" Cut="7.0828992128372192e-01" cType="1" res="1.0147100687026978e-01" rms="4.2239370942115784e-01" purity="7.6115262508392334e-01" nType="0">
              <Node pos="l" depth="4" NCoef="0" IVar="0" Cut="1.7957884073257446e-01" cType="1" res="1.0758029669523239e-01" rms="4.1638725996017456e-01" purity="7.7255469560623169e-01" nType="0">
                <Node pos="l" depth="5" NCoef="0" IVar="5" Cut="2.0000000000000000e+00" cType="1" res="1.1205210536718369e-01" rms="4.1117015480995178e-01" purity="7.8137218952178955e-01" nType="0">
                  <Node pos="l" depth="6" NCoef="0" IVar="1" Cut="2.0985519513487816e-02" cType="1" res="1.2035374343395233e-01" rms="3.9903169870376587e-01" purity="8.0056279897689819e-01" nType="0">
                    <Node pos="l" depth="7" NCoef="0" IVar="-1" Cut="0.0000000000000000e+00" cType="1" res="1.1153743602335453e-02" rms="3.8884541392326355e-01" purity="8.1400501728057861e-01" nType="-99"/>
                    <Node pos="r" depth="7" NCoef="0" IVar="-1" Cut="0.0000000000000000e+00" cType="1" res="9.5330718904733658e-03" rms="4.1060864925384521e-01" purity="7.8456187248229980e-01" nType="-99"/>
                  </Node>
                  <Node pos="r" depth="6" NCoef="0" IVar="1" Cut="3.3647224307060242e-02" cType="1" res="9.1394789516925812e-02" rms="4.4119262695312500e-01" purity="7.3241233825683594e-01" nType="0">
                    <Node pos="l" depth="7" NCoef="0" IVar="-1" Cut="0.0000000000000000e+00" cType="1" res="8.7436446920037270e-03" rms="4.3272086977958679e-01" purity="7.4919676780700684e-01" nType="-99"/>
                    <Node pos="r" depth="7" NCoef="0" IVar="-1" Cut="0.0000000000000000e+00" cType="1" res="7.3090684600174427e-03" rms="4.5189017057418823e-01" purity="7.1044939756393433e-01" nType="-99"/>
                  </Node>
                </Node>
                <Node pos="r" depth="5" NCoef="0" IVar="0" Cut="2.9874712228775024e-01" cType="1" res="5.1677003502845764e-02" rms="4.6743375062942505e-01" purity="6.6583329439163208e-01" nType="0">
                  <Node pos="l" depth="6" NCoef="0" IVar="-1" Cut="0.0000000000000000e+00" cType="1" res="7.0650805719196796e-03" rms="4.5195367932319641e-01" purity="7.0741564035415649e-01" nType="-99"/>
                  <Node pos="r" depth="6" NCoef="0" IVar="-1" Cut="0.0000000000000000e+00" cType="1" res="2.8416041750460863e-03" rms="4.7849470376968384e-01" purity="6.3327789306640625e-01" nType="-99"/>
                </Node>
              </Node>
              <Node pos="r" depth="4" NCoef="0" IVar="3" Cut="9.6293854713439941e-01" cType="1" res="3.6179885268211365e-02" rms="4.7707206010818481e-01" purity="6.3929700851440430e-01" nType="0">
                <Node pos="l" depth="5" NCoef="0" IVar="-1" Cut="0.0000000000000000e+00" cType="1" res="-3.0443142168223858e-04" rms="4.9446123838424683e-01" purity="5.7172685861587524e-01" nType="-99"/>
                <Node pos="r" depth="5" NCoef="0" IVar="-1" Cut="0.0000000000000000e+00" cType="1" res="4.3902602046728134e-03" rms="4.6705070137977600e-01" purity="6.7249619960784912e-01" nType="-99"/>
              </Node>
            </Node>
          </Node>
          <Node pos="r" depth="2" NCoef="0" IVar="-1" Cut="0.0000000000000000e+00" cType="1" res="-1.4245517551898956e-02" rms="4.6715891361236572e-01" purity="3.3017152547836304e-01" nType="-99"/>
        </Node>
      </Node>
    </BinaryTree>
    <BinaryTree type="DecisionTree" boostWeight="1.0000000000000000e+00" itree="26">
      <Node pos="s" depth="0" NCoef="0" IVar="3" Cut="6.7476129531860352e-01" cType="1" res="1.4506877399981022e-02" rms="4.2089468240737915e-01" purity="4.9913689494132996e-01" nType="0">
        <Node pos="l" depth="1" NCoef="0" IVar="3" Cut="5.4418891668319702e-01" cType="1" res="-7.3225274682044983e-02" rms="3.6821243166923523e-01" purity="1.9567947089672089e-01" nType="0">
          <Node pos="l" depth="2" NCoef="0" IVar="3" Cut="4.0379273891448975e-01" cType="1" res="-8.7712079286575317e-02" rms="3.1877398490905762e-01" purity="1.2657754123210907e-01" nType="0">
            <Node pos="l" depth="3" NCoef="0" IVar="3" Cut="1.3036009669303894e-01" cType="1" res="-9.6902608871459961e-02" rms="2.7142640948295593e-01" purity="8.5299834609031677e-02" nType="0">
              <Node pos="l" depth="4" NCoef="0" IVar="-1" Cut="0.0000000000000000e+00" cType="1" res="-9.9622784182429314e-03" rms="3.3980098366737366e-01" purity="1.4857715368270874e-01" nType="-99"/>
              <Node pos="r" depth="4" NCoef="0" IVar="0" Cut="7.9814887046813965e-01" cType="1" res="-1.0113164782524109e-01" rms="2.6229888200759888e-01" purity="7.8191988170146942e-02" nType="0">
                <Node pos="l" depth="5" NCoef="0" IVar="3" Cut="2.6266142725944519e-01" cType="1" res="-6.2605187296867371e-02" rms="3.7540185451507568e-01" purity="1.7481702566146851e-01" nType="0">
                  <Node pos="l" depth="6" NCoef="0" IVar="-1" Cut="0.0000000000000000e+00" cType="1" res="-4.4544460251927376e-03" rms="4.0154841542243958e-01" purity="2.1211545169353485e-01" nType="-99"/>
                  <Node pos="r" depth="6" NCoef="0" IVar="3" Cut="3.4005370736122131e-01" cType="1" res="-7.6351910829544067e-02" rms="3.6265680193901062e-01" purity="1.5869587659835815e-01" nType="0">
                    <Node pos="l" depth="7" NCoef="0" IVar="-1" Cut="0.0000000000000000e+00" cType="1" res="-1.4103117398917675e-02" rms="3.3945345878601074e-01" purity="1.3624019920825958e-01" nType="-99"/>
                    <Node pos="r" depth="7" NCoef="0" IVar="-1" Cut="0.0000000000000000e+00" cType="1" res="-9.4123939052224159e-03" rms="3.7901446223258972e-01" purity="1.7575721442699432e-01" nType="-99"/>
                  </Node>
                </Node>
                <Node pos="r" depth="5" NCoef="0" IVar="2" Cut="5.1575073242187500e+02" cType="1" res="-1.1049706488847733e-01" rms="2.2543086111545563e-01" purity="5.4703358560800552e-02" nType="0">
                  <Node pos="l" depth="6" NCoef="0" IVar="2" Cut="6.7693565368652344e+01" cType="1" res="-1.0680881142616272e-01" rms="2.2273409366607666e-01" purity="5.3436297923326492e-02" nType="0">
                    <Node pos="l" depth="7" NCoef="0" IVar="-1" Cut="0.0000000000000000e+00" cType="1" res="-2.0520327612757683e-02" rms="2.4458090960979462e-01" purity="6.4656540751457214e-02" nType="-99"/>
                    <Node pos="r" depth="7" NCoef="0" IVar="-1" Cut="0.0000000000000000e+00" cType="1" res="-2.3802725598216057e-02" rms="2.1956129372119904e-01" purity="5.1948223263025284e-02" nType="-99"/>
                  </Node>
                  <Node pos="r" depth="6" NCoef="0" IVar="3" Cut="2.6244899630546570e-01" cType="1" res="-1.3045941293239594e-01" rms="2.3851288855075836e-01" purity="6.1561249196529388e-02" nType="0">
                    <Node pos="l" depth="7" NCoef="0" IVar="-1" Cut="0.0000000000000000e+00" cType="1" res="-2.2673692554235458e-02" rms="2.5157245993614197e-01" purity="6.9483935832977295e-02" nType="-99"/>
                    <Node pos="r" depth="7" NCoef="0" IVar="-1" Cut="0.0000000000000000e+00" cType="1" res="-2.4017967283725739e-02" rms="2.2420783340930939e-01" purity="5.3502615541219711e-02" nType="-99"/>
                  </Node>
                </Node>
              </Node>
            </Node>
            <Node pos="r" depth="3" NCoef="0" IVar="0" Cut="6.4827066659927368e-01" cType="1" res="-7.1108452975749969e-02" rms="3.8945254683494568e-01" purity="2.0114995539188385e-01" nType="0">
              <Node pos="l" depth="4" NCoef="0" IVar="0" Cut="4.6002587676048279e-01" cType="1" res="-3.7207204848527908e-02" rms="4.4789940118789673e-01" purity="2.8972405195236206e-01" nType="0">
                <Node pos="l" depth="5" NCoef="0" IVar="2" Cut="3.2499154663085938e+02" cType="1" res="-2.3529134690761566e-02" rms="4.6028342843055725e-01" purity="3.1670808792114258e-01" nType="0">
                  <Node pos="l" depth="6" NCoef="0" IVar="-1" Cut="0.0000000000000000e+00" cType="1" res="-6.2419654568657279e-04" rms="4.6758878231048584e-01" purity="3.4089115262031555e-01" nType="-99"/>
                  <Node pos="r" depth="6" NCoef="0" IVar="-1" Cut="0.0000000000000000e+00" cType="1" res="-4.8703337088227272e-03" rms="4.5002040266990662e-01" purity="2.8640538454055786e-01" nType="-99"/>
                </Node>
                <Node pos="r" depth="5" NCoef="0" IVar="-1" Cut="0.0000000000000000e+00" cType="1" res="-8.2167955115437508e-03" rms="4.1601812839508057e-01" purity="2.2710183262825012e-01" nType="-99"/>
              </Node>
              <Node pos="r" depth="4" NCoef="0" IVar="2" Cut="1.2779769897460938e+02" cType="1" res="-9.7282312810420990e-02" rms="3.3513543009757996e-01" purity="1.3276527822017670e-01" nType="0">
                <Node pos="l" depth="5" NCoef="0" IVar="4" Cut="4.7351814806461334e-02" cType="1" res="-7.8411102294921875e-02" rms="3.5831391811370850e-01" purity="1.5635491907596588e-01" nType="0">
                  <Node pos="l" depth="6" NCoef="0" IVar="-1" Cut="0.0000000000000000e+00" cType="1" res="-1.6285143792629242e-02" rms="3.2128265500068665e-01" purity="1.2072251737117767e-01" nType="-99"/>
                  <Node pos="r" depth="6" NCoef="0" IVar="-1" Cut="0.0000000000000000e+00" cType="1" res="-7.1742399595677853e-03" rms="3.8820251822471619e-01" purity="1.9015878438949585e-01" nType="-99"/>
                </Node>
                <Node pos="r" depth="5" NCoef="0" IVar="4" Cut="9.5641165971755981e-02" cType="1" res="-1.0812271386384964e-01" rms="3.2056295871734619e-01" purity="1.1921442300081253e-01" nType="0">
                  <Node pos="l" depth="6" NCoef="0" IVar="-1" Cut="0.0000000000000000e+00" cType="1" res="-1.8857985734939575e-02" rms="2.8788954019546509e-01" purity="9.3115486204624176e-02" nType="-99"/>
                  <Node pos="r" depth="6" NCoef="0" IVar="-1" Cut="0.0000000000000000e+00" cType="1" res="-1.3782641850411892e-02" rms="3.5218280553817749e-01" purity="1.4753083884716034e-01" nType="-99"/>
                </Node>
              </Node>
            </Node>
          </Node>
          <Node pos="r" depth="2" NCoef="0" IVar="1" Cut="2.6037967205047607e-01" cType="1" res="-3.4039370715618134e-02" rms="4.7470664978027344e-01" purity="3.8259577751159668e-01" nType="0">
            <Node pos="l" depth="3" NCoef="0" IVar="5" Cut="3.0000000000000000e+00" cType="1" res="-1.4074037782847881e-02" rms="4.8461776971817017e-01" purity="4.2020863294601440e-01" nType="0">
              <Node pos="l" depth="4" NCoef="0" IVar="-1" Cut="0.0000000000000000e+00" cType="1" res="-6.3908104784786701e-03" rms="4.6638584136962891e-01" purity="3.4210142493247986e-01" nType="-99"/>
              <Node pos="r" depth="4" NCoef="0" IVar="2" Cut="2.0872532653808594e+02" cType="1" res="-3.7092689890414476e-03" rms="4.8766708374023438e-01" purity="4.3604722619056702e-01" nType="0">
                <Node pos="l" depth="5" NCoef="0" IVar="4" Cut="6.2150213867425919e-02" cType="1" res="1.3629955239593983e-02" rms="4.9022835493087769e-01" purity="4.6226581931114197e-01" nType="0">
                  <Node pos="l" depth="6" NCoef="0" IVar="-1" Cut="0.0000000000000000e+00" cType="1" res="-1.5895167598500848e-03" rms="4.8420810699462891e-01" purity="4.1596144437789917e-01" nType="-99"/>
                  <Node pos="r" depth="6" NCoef="0" IVar="-1" Cut="0.0000000000000000e+00" cType="1" res="3.7649576552212238e-03" rms="4.9427118897438049e-01" purity="5.0919979810714722e-01" nType="-99"/>
                </Node>
                <Node pos="r" depth="5" NCoef="0" IVar="4" Cut="1.0082181543111801e-01" cType="1" res="-3.3698447048664093e-02" rms="4.8173421621322632e-01" purity="3.9070072770118713e-01" nType="0">
                  <Node pos="l" depth="6" NCoef="0" IVar="-1" Cut="0.0000000000000000e+00" cType="1" res="-5.4345526732504368e-03" rms="4.7331646084785461e-01" purity="3.5741862654685974e-01" nType="-99"/>
                  <Node pos="r" depth="6" NCoef="0" IVar="-1" Cut="0.0000000000000000e+00" cType="1" res="-1.1409267317503691e-03" rms="4.8898947238922119e-01" purity="4.2371371388435364e-01" nType="-99"/>
                </Node>
              </Node>
            </Node>
            <Node pos="r" depth="3" NCoef="0" IVar="0" Cut="2.7986565232276917e-01" cType="1" res="-7.2479464113712311e-02" rms="4.5200276374816895e-01" purity="3.0900606513023376e-01" nType="0">
              <Node pos="l" depth="4" NCoef="0" IVar="-1" Cut="0.0000000000000000e+00" cType="1" res="-2.7818102389574051e-03" rms="4.8919093608856201e-01" purity="4.1354185342788696e-01" nType="-99"/>
              <Node pos="r" depth="4" NCoef="0" IVar="4" Cut="6.1007812619209290e-02" cType="1" res="-9.4479314982891083e-02" rms="4.2941454052925110e-01" purity="2.5372213125228882e-01" nType="0">
                <Node pos="l" depth="5" NCoef="0" IVar="-1" Cut="0.0000000000000000e+00" cType="1" res="-1.3205347582697868e-02" rms="4.1494607925415039e-01" purity="2.2543410956859589e-01" nType="-99"/>
                <Node pos="r" depth="5" NCoef="0" IVar="-1" Cut="0.0000000000000000e+00" cType="1" res="-7.8605851158499718e-03" rms="4.3964213132858276e-01" purity="2.7656990289688110e-01" nType="-99"/>
              </Node>
            </Node>
          </Node>
        </Node>
        <Node pos="r" depth="1" NCoef="0" IVar="5" Cut="2.0000000000000000e+00" cType="1" res="7.4139177799224854e-02" rms="4.4335713982582092e-01" purity="7.0520180463790894e-01" nType="0">
          <Node pos="l" depth="2" NCoef="0" IVar="1" Cut="8.2654766738414764e-02" cType="1" res="1.0240991413593292e-01" rms="4.1256088018417358e-01" purity="7.7584731578826904e-01" nType="0">
            <Node pos="l" depth="3" NCoef="0" IVar="3" Cut="9.5696741342544556e-01" cType="1" res="1.1576903611421585e-01" rms="3.9751893281936646e-01" purity="8.0057251453399658e-01" nType="0">
              <Node pos="l" depth="4" NCoef="0" IVar="-1" Cut="0.0000000000000000e+00" cType="1" res="7.2963130660355091e-03" rms="4.3489038944244385e-01" purity="7.4567180871963501e-01" nType="-99"/>
              <Node pos="r" depth="4" NCoef="0" IVar="3" Cut="1.0181204080581665e+00" cType="1" res="1.1807075887918472e-01" rms="3.9466661214828491e-01" purity="8.0441737174987793e-01" nType="0">
                <Node pos="l" depth="5" NCoef="0" IVar="3" Cut="9.9050098657608032e-01" cType="1" res="1.1872635781764984e-01" rms="3.9383330941200256e-01" purity="8.0579590797424316e-01" nType="0">
                  <Node pos="l" depth="6" NCoef="0" IVar="3" Cut="9.8400986194610596e-01" cType="1" res="1.0024946182966232e-01" rms="4.1081717610359192e-01" purity="7.8286123275756836e-01" nType="0">
                    <Node pos="l" depth="7" NCoef="0" IVar="-1" Cut="0.0000000000000000e+00" cType="1" res="7.9857856035232544e-03" rms="4.1794812679290771e-01" purity="7.7214449644088745e-01" nType="-99"/>
                    <Node pos="r" depth="7" NCoef="0" IVar="-1" Cut="0.0000000000000000e+00" cType="1" res="1.0220748372375965e-02" rms="3.9882531762123108e-01" purity="7.9993885755538940e-01" nType="-99"/>
                  </Node>
                  <Node pos="r" depth="6" NCoef="0" IVar="3" Cut="9.9941247701644897e-01" cType="1" res="1.2402625381946564e-01" rms="3.8866269588470459e-01" purity="8.1237441301345825e-01" nType="0">
                    <Node pos="l" depth="7" NCoef="0" IVar="-1" Cut="0.0000000000000000e+00" cType="1" res="1.0672652162611485e-02" rms="3.9346769452095032e-01" purity="8.0570960044860840e-01" nType="-99"/>
                    <Node pos="r" depth="7" NCoef="0" IVar="-1" Cut="0.0000000000000000e+00" cType="1" res="1.1143815703690052e-02" rms="3.8456860184669495e-01" purity="8.1790918111801147e-01" nType="-99"/>
                  </Node>
                </Node>
                <Node pos="r" depth="5" NCoef="0" IVar="-1" Cut="0.0000000000000000e+00" cType="1" res="9.7670247778296471e-03" rms="3.9923080801963806e-01" purity="7.9678261280059814e-01" nType="-99"/>
              </Node>
            </Node>
            <Node pos="r" depth="3" NCoef="0" IVar="3" Cut="9.7467195987701416e-01" cType="1" res="8.4135986864566803e-02" rms="4.3162080645561218e-01" purity="7.4202567338943481e-01" nType="0">
              <Node pos="l" depth="4" NCoef="0" IVar="-1" Cut="0.0000000000000000e+00" cType="1" res="3.0651986598968506e-03" rms="4.5907962322235107e-01" purity="6.7817509174346924e-01" nType="-99"/>
              <Node pos="r" depth="4" NCoef="0" IVar="-1" Cut="0.0000000000000000e+00" cType="1" res="7.5609995983541012e-03" rms="4.2852520942687988e-01" purity="7.4832093715667725e-01" nType="-99"/>
            </Node>
          </Node>
          <Node pos="r" depth="2" NCoef="0" IVar="3" Cut="7.4825936555862427e-01" cType="1" res="4.3928064405918121e-02" rms="4.7216963768005371e-01" purity="6.3000249862670898e-01" nType="0">
            <Node pos="l" depth="3" NCoef="0" IVar="1" Cut="2.1065157651901245e-01" cType="1" res="5.2034459076821804e-03" rms="4.9194681644439697e-01" purity="5.2448862791061401e-01" nType="0">
              <Node pos="l" depth="4" NCoef="0" IVar="2" Cut="1.8389503479003906e+02" cType="1" res="2.7049444615840912e-02" rms="4.9129042029380798e-01" purity="5.6316316127777100e-01" nType="0">
                <Node pos="l" depth="5" NCoef="0" IVar="4" Cut="4.4607568532228470e-02" cType="1" res="4.5125178992748260e-02" rms="4.8878762125968933e-01" purity="5.8269321918487549e-01" nType="0">
                  <Node pos="l" depth="6" NCoef="0" IVar="-1" Cut="0.0000000000000000e+00" cType="1" res="6.5274600638076663e-04" rms="4.9338379502296448e-01" purity="5.3950369358062744e-01" nType="-99"/>
                  <Node pos="r" depth="6" NCoef="0" IVar="-1" Cut="0.0000000000000000e+00" cType="1" res="5.6362212635576725e-03" rms="4.8399317264556885e-01" purity="6.1197298765182495e-01" nType="-99"/>
                </Node>
                <Node pos="r" depth="5" NCoef="0" IVar="-1" Cut="0.0000000000000000e+00" cType="1" res="-9.2392455553635955e-04" rms="4.9434000253677368e-01" purity="5.2262103557586670e-01" nType="-99"/>
              </Node>
              <Node pos="r" depth="4" NCoef="0" IVar="3" Cut="7.1270126104354858e-01" cType="1" res="-3.8621652871370316e-02" rms="4.9033498764038086e-01" purity="4.4690403342247009e-01" nType="0">
                <Node pos="l" depth="5" NCoef="0" IVar="-1" Cut="0.0000000000000000e+00" cType="1" res="-4.1973646730184555e-03" rms="4.8763915896415710e-01" purity="4.2727535963058472e-01" nType="-99"/>
                <Node pos="r" depth="5" NCoef="0" IVar="-1" Cut="0.0000000000000000e+00" cType="1" res="-2.5709834881126881e-03" rms="4.9282854795455933e-01" purity="4.6641099452972412e-01" nType="-99"/>
              </Node>
            </Node>
            <Node pos="r" depth="3" NCoef="0" IVar="2" Cut="1.8780628967285156e+02" cType="1" res="5.6832190603017807e-02" rms="4.6467635035514832e-01" purity="6.6516268253326416e-01" nType="0">
              <Node pos="l" depth="4" NCoef="0" IVar="1" Cut="5.2134853601455688e-01" cType="1" res="6.2963142991065979e-02" rms="4.6057641506195068e-01" purity="6.7905575037002563e-01" nType="0">
                <Node pos="l" depth="5" NCoef="0" IVar="0" Cut="1.9453330338001251e-01" cType="1" res="7.3021419346332550e-02" rms="4.5489424467086792e-01" purity="6.9812321662902832e-01" nType="0">
                  <Node pos="l" depth="6" NCoef="0" IVar="3" Cut="9.0069103240966797e-01" cType="1" res="8.0871678888797760e-02" rms="4.4687208533287048e-01" purity="7.2032785415649414e-01" nType="0">
                    <Node pos="l" depth="7" NCoef="0" IVar="-1" Cut="0.0000000000000000e+00" cType="1" res="6.5251882188022137e-03" rms="4.5135641098022461e-01" purity="7.1158277988433838e-01" nType="-99"/>
                    <Node pos="r" depth="7" NCoef="0" IVar="-1" Cut="0.0000000000000000e+00" cType="1" res="1.0765731334686279e-02" rms="4.1529941558837891e-01" purity="7.7766370773315430e-01" nType="-99"/>
                  </Node>
                  <Node pos="r" depth="6" NCoef="0" IVar="4" Cut="4.3629858642816544e-02" cType="1" res="4.0253877639770508e-02" rms="4.8558565974235535e-01" purity="6.0543948411941528e-01" nType="0">
                    <Node pos="l" depth="7" NCoef="0" IVar="-1" Cut="0.0000000000000000e+00" cType="1" res="1.7065154388546944e-03" rms="4.8873755335807800e-01" purity="5.8760654926300049e-01" nType="-99"/>
                    <Node pos="r" depth="7" NCoef="0" IVar="-1" Cut="0.0000000000000000e+00" cType="1" res="6.3602919690310955e-03" rms="4.7784063220024109e-01" purity="6.3627272844314575e-01" nType="-99"/>
                  </Node>
                </Node>
                <Node pos="r" depth="5" NCoef="0" IVar="2" Cut="7.3099830627441406e+01" cType="1" res="-4.7500561922788620e-03" rms="4.9181696772575378e-01" purity="5.5069202184677124e-01" nType="0">
                  <Node pos="l" depth="6" NCoef="0" IVar="-1" Cut="0.0000000000000000e+00" cType="1" res="-1.2597877066582441e-03" rms="4.9352583289146423e-01" purity="5.3952640295028687e-01" nType="-99"/>
                  <Node pos="r" depth="6" NCoef="0" IVar="-1" Cut="0.0000000000000000e+00" cType="1" res="3.7377417902462184e-04" rms="4.9017724394798279e-01" purity="5.6015521287918091e-01" nType="-99"/>
                </Node>
              </Node>
              <Node pos="r" depth="4" NCoef="0" IVar="1" Cut="1.6484538093209267e-02" cType="1" res="2.6739420369267464e-02" rms="4.8317047953605652e-01" purity="5.9697085618972778e-01" nType="0">
                <Node pos="l" depth="5" NCoef="0" IVar="-1" Cut="0.0000000000000000e+00" cType="1" res="5.1921419799327850e-03" rms="4.7364836931228638e-01" purity="6.4448153972625732e-01" nType="-99"/>
                <Node pos="r" depth="5" NCoef="0" IVar="-1" Cut="0.0000000000000000e+00" cType="1" res="4.2468917672522366e-04" rms="4.8873275518417358e-01" purity="5.6274491548538208e-01" nType="-99"/>
              </Node>
            </Node>
          </Node>
        </Node>
      </Node>
    </BinaryTree>
    <BinaryTree type="DecisionTree" boostWeight="1.0000000000000000e+00" itree="27">
      <Node pos="s" depth="0" NCoef="0" IVar="3" Cut="6.7633879184722900e-01" cType="1" res="1.4892188832163811e-02" rms="4.2001065611839294e-01" purity="4.9980404973030090e-01" nType="0">
        <Node pos="l" depth="1" NCoef="0" IVar="3" Cut="4.8012173175811768e-01" cType="1" res="-6.9579541683197021e-02" rms="3.6798447370529175e-01" purity="1.9591818749904633e-01" nType="0">
          <Node pos="l" depth="2" NCoef="0" IVar="4" Cut="2.4732232093811035e-01" cType="1" res="-8.9191667735576630e-02" rms="2.9162287712097168e-01" purity="1.0085694491863251e-01" nType="0">
            <Node pos="l" depth="3" NCoef="0" IVar="3" Cut="4.1824898123741150e-01" cType="1" res="-9.3158558011054993e-02" rms="2.7829238772392273e-01" purity="9.0082980692386627e-02" nType="0">
              <Node pos="l" depth="4" NCoef="0" IVar="5" Cut="4.0000000000000000e+00" cType="1" res="7.3338404297828674e-02" rms="7.0213988423347473e-02" purity="7.1690090000629425e-02" nType="0">
                <Node pos="l" depth="5" NCoef="0" IVar="3" Cut="3.1201359629631042e-01" cType="1" res="-7.6981104910373688e-02" rms="3.2449862360954285e-01" purity="1.2479077279567719e-01" nType="0">
                  <Node pos="l" depth="6" NCoef="0" IVar="-1" Cut="0.0000000000000000e+00" cType="1" res="-3.5093335900455713e-03" rms="3.7578725814819336e-01" purity="1.8063093721866608e-01" nType="-99"/>
                  <Node pos="r" depth="6" NCoef="0" IVar="-1" Cut="0.0000000000000000e+00" cType="1" res="-2.1485216915607452e-02" rms="2.7395144104957581e-01" purity="8.4001764655113220e-02" nType="-99"/>
                </Node>
                <Node pos="r" depth="5" NCoef="0" IVar="3" Cut="3.3742341399192810e-01" cType="1" res="-1.0094369202852249e-01" rms="2.3902951180934906e-01" purity="6.3259631395339966e-02" nType="0">
                  <Node pos="l" depth="6" NCoef="0" IVar="3" Cut="2.1792343258857727e-01" cType="1" res="-1.0756670683622360e-01" rms="2.0545646548271179e-01" purity="4.5148853212594986e-02" nType="0">
                    <Node pos="l" depth="7" NCoef="0" IVar="-1" Cut="0.0000000000000000e+00" cType="1" res="-2.7714656665921211e-02" rms="1.8319499492645264e-01" purity="3.5629566758871078e-02" nType="-99"/>
                    <Node pos="r" depth="7" NCoef="0" IVar="-1" Cut="0.0000000000000000e+00" cType="1" res="-2.3232100531458855e-02" rms="2.1596240997314453e-01" purity="5.0069164484739304e-02" nType="-99"/>
                  </Node>
                  <Node pos="r" depth="6" NCoef="0" IVar="0" Cut="8.6885505914688110e-01" cType="1" res="-8.6833141744136810e-02" rms="2.9771792888641357e-01" purity="1.0184527188539505e-01" nType="0">
                    <Node pos="l" depth="7" NCoef="0" IVar="-1" Cut="0.0000000000000000e+00" cType="1" res="-9.6714319661259651e-03" rms="3.6804437637329102e-01" purity="1.6503998637199402e-01" nType="-99"/>
                    <Node pos="r" depth="7" NCoef="0" IVar="-1" Cut="0.0000000000000000e+00" cType="1" res="-1.8920712172985077e-02" rms="2.5614634156227112e-01" purity="7.1233868598937988e-02" nType="-99"/>
                  </Node>
                </Node>
              </Node>
              <Node pos="r" depth="4" NCoef="0" IVar="4" Cut="1.0428388416767120e-01" cType="1" res="-7.5526855885982513e-02" rms="3.6124023795127869e-01" purity="1.6211727261543274e-01" nType="0">
                <Node pos="l" depth="5" NCoef="0" IVar="2" Cut="1.5010942077636719e+02" cType="1" res="-9.6994049847126007e-02" rms="3.0918493866920471e-01" purity="1.1047164350748062e-01" nType="0">
                  <Node pos="l" depth="6" NCoef="0" IVar="-1" Cut="0.0000000000000000e+00" cType="1" res="-1.2303014285862446e-02" rms="3.3905479311943054e-01" purity="1.3663434982299805e-01" nType="-99"/>
                  <Node pos="r" depth="6" NCoef="0" IVar="-1" Cut="0.0000000000000000e+00" cType="1" res="-1.9717814400792122e-02" rms="2.7074646949768066e-01" purity="8.1557862460613251e-02" nType="-99"/>
                </Node>
                <Node pos="r" depth="5" NCoef="0" IVar="2" Cut="3.6575463867187500e+02" cType="1" res="-5.0584916025400162e-02" rms="4.1217115521430969e-01" purity="2.2212246060371399e-01" nType="0">
                  <Node pos="l" depth="6" NCoef="0" IVar="-1" Cut="0.0000000000000000e+00" cType="1" res="-2.7382518164813519e-03" rms="4.3140617012977600e-01" purity="2.5267428159713745e-01" nType="-99"/>
                  <Node pos="r" depth="6" NCoef="0" IVar="-1" Cut="0.0000000000000000e+00" cType="1" res="-1.0736455209553242e-02" rms="3.8755738735198975e-01" purity="1.8859171867370605e-01" nType="-99"/>
                </Node>
              </Node>
            </Node>
            <Node pos="r" depth="3" NCoef="0" IVar="5" Cut="7.0000000000000000e+00" cType="1" res="-4.8134617507457733e-02" rms="4.0227633714675903e-01" purity="2.1236686408519745e-01" nType="0">
              <Node pos="l" depth="4" NCoef="0" IVar="-1" Cut="0.0000000000000000e+00" cType="1" res="-3.2248352654278278e-03" rms="4.3162089586257935e-01" purity="2.5857782363891602e-01" nType="-99"/>
              <Node pos="r" depth="4" NCoef="0" IVar="-1" Cut="0.0000000000000000e+00" cType="1" res="-1.0753233917057514e-02" rms="3.6985784769058228e-01" purity="1.6692444682121277e-01" nType="-99"/>
            </Node>
          </Node>
          <Node pos="r" depth="2" NCoef="0" IVar="3" Cut="6.3203251361846924e-01" cType="1" res="-3.9057672023773193e-02" rms="4.6072757244110107e-01" purity="3.4385967254638672e-01" nType="0">
            <Node pos="l" depth="3" NCoef="0" IVar="1" Cut="6.4835423231124878e-01" cType="1" res="-5.2230320870876312e-02" rms="4.4991576671600342e-01" purity="3.0899477005004883e-01" nType="0">
              <Node pos="l" depth="4" NCoef="0" IVar="0" Cut="4.3360731005668640e-01" cType="1" res="-4.1492756456136703e-02" rms="4.5921027660369873e-01" purity="3.2932469248771667e-01" nType="0">
                <Node pos="l" depth="5" NCoef="0" IVar="2" Cut="3.8882373046875000e+02" cType="1" res="-2.2516800090670586e-02" rms="4.8568326234817505e-01" purity="4.0238964557647705e-01" nType="0">
                  <Node pos="l" depth="6" NCoef="0" IVar="2" Cut="1.1391300201416016e+02" cType="1" res="-1.2267079204320908e-02" rms="4.8877871036529541e-01" purity="4.1891181468963623e-01" nType="0">
                    <Node pos="l" depth="7" NCoef="0" IVar="-1" Cut="0.0000000000000000e+00" cType="1" res="1.4990853378549218e-03" rms="4.9481543898582458e-01" purity="4.6507784724235535e-01" nType="-99"/>
                    <Node pos="r" depth="7" NCoef="0" IVar="-1" Cut="0.0000000000000000e+00" cType="1" res="-2.5577566120773554e-03" rms="4.8497915267944336e-01" purity="3.9550495147705078e-01" nType="-99"/>
                  </Node>
                  <Node pos="r" depth="6" NCoef="0" IVar="-1" Cut="0.0000000000000000e+00" cType="1" res="-5.4634232074022293e-03" rms="4.7402879595756531e-01" purity="3.4899455308914185e-01" nType="-99"/>
                </Node>
                <Node pos="r" depth="5" NCoef="0" IVar="4" Cut="6.0533761978149414e-02" cType="1" res="-5.9429328888654709e-02" rms="4.3193513154983521e-01" purity="2.6026174426078796e-01" nType="0">
                  <Node pos="l" depth="6" NCoef="0" IVar="-1" Cut="0.0000000000000000e+00" cType="1" res="-9.3399873003363609e-03" rms="4.1883969306945801e-01" purity="2.3597016930580139e-01" nType="-99"/>
                  <Node pos="r" depth="6" NCoef="0" IVar="2" Cut="1.9383926391601562e+02" cType="1" res="-4.5426581054925919e-02" rms="4.3893849849700928e-01" purity="2.7470618486404419e-01" nType="0">
                    <Node pos="l" depth="7" NCoef="0" IVar="-1" Cut="0.0000000000000000e+00" cType="1" res="-9.1934553347527981e-04" rms="4.6394559741020203e-01" purity="3.3200120925903320e-01" nType="-99"/>
                    <Node pos="r" depth="7" NCoef="0" IVar="-1" Cut="0.0000000000000000e+00" cType="1" res="-8.5363211110234261e-03" rms="4.1685914993286133e-01" purity="2.3123268783092499e-01" nType="-99"/>
                  </Node>
                </Node>
              </Node>
              <Node pos="r" depth="4" NCoef="0" IVar="-1" Cut="0.0000000000000000e+00" cType="1" res="-1.3189323246479034e-02" rms="3.8983610272407532e-01" purity="1.9747826457023621e-01" nType="-99"/>
            </Node>
            <Node pos="r" depth="3" NCoef="0" IVar="5" Cut="4.0000000000000000e+00" cType="1" res="2.9419769998639822e-03" rms="4.8858892917633057e-01" purity="4.4989687204360962e-01" nType="0">
              <Node pos="l" depth="4" NCoef="0" IVar="3" Cut="6.4918977022171021e-01" cType="1" res="-1.2202953919768333e-02" rms="4.8717367649078369e-01" purity="4.2484885454177856e-01" nType="0">
                <Node pos="l" depth="5" NCoef="0" IVar="-1" Cut="0.0000000000000000e+00" cType="1" res="-3.1798181589692831e-03" rms="4.8181143403053284e-01" purity="3.9007395505905151e-01" nType="-99"/>
                <Node pos="r" depth="5" NCoef="0" IVar="-1" Cut="0.0000000000000000e+00" cType="1" res="-6.6828770286520012e-06" rms="4.8970535397529602e-01" purity="4.4415777921676636e-01" nType="-99"/>
              </Node>
              <Node pos="r" depth="4" NCoef="0" IVar="-1" Cut="0.0000000000000000e+00" cType="1" res="3.2008083071559668e-03" rms="4.9565339088439941e-01" purity="5.1640105247497559e-01" nType="-99"/>
            </Node>
          </Node>
        </Node>
        <Node pos="r" depth="1" NCoef="0" IVar="0" Cut="7.9670566320419312e-01" cType="1" res="7.2310693562030792e-02" rms="4.4286406040191650e-01" purity="7.0636630058288574e-01" nType="0">
          <Node pos="l" depth="2" NCoef="0" IVar="0" Cut="2.5694627314805984e-02" cType="1" res="7.6709732413291931e-02" rms="4.4124191999435425e-01" purity="7.1374845504760742e-01" nType="0">
            <Node pos="l" depth="3" NCoef="0" IVar="3" Cut="9.0059185028076172e-01" cType="1" res="8.9806251227855682e-02" rms="4.3039306998252869e-01" purity="7.4390929937362671e-01" nType="0">
              <Node pos="l" depth="4" NCoef="0" IVar="3" Cut="7.7038305997848511e-01" cType="1" res="6.3851192593574524e-02" rms="4.6447530388832092e-01" purity="6.7318457365036011e-01" nType="0">
                <Node pos="l" depth="5" NCoef="0" IVar="1" Cut="3.3053469657897949e-01" cType="1" res="0.0000000000000000e+00" rms="0.0000000000000000e+00" purity="6.0107535123825073e-01" nType="0">
                  <Node pos="l" depth="6" NCoef="0" IVar="2" Cut="2.0529956054687500e+02" cType="1" res="0.0000000000000000e+00" rms="0.0000000000000000e+00" purity="6.2548714876174927e-01" nType="0">
                    <Node pos="l" depth="7" NCoef="0" IVar="-1" Cut="0.0000000000000000e+00" cType="1" res="4.9414155073463917e-03" rms="4.7748944163322449e-01" purity="6.4448159933090210e-01" nType="-99"/>
                    <Node pos="r" depth="7" NCoef="0" IVar="-1" Cut="0.0000000000000000e+00" cType="1" res="1.5772796468809247e-03" rms="4.9197089672088623e-01" purity="5.8379817008972168e-01" nType="-99"/>
                  </Node>
                  <Node pos="r" depth="6" NCoef="0" IVar="-1" Cut="0.0000000000000000e+00" cType="1" res="5.5123829952208325e-05" rms="4.9764862656593323e-01" purity="5.1389223337173462e-01" nType="-99"/>
                </Node>
                <Node pos="r" depth="5" NCoef="0" IVar="3" Cut="8.5858994722366333e-01" cType="1" res="7.3166407644748688e-02" rms="4.5610404014587402e-01" purity="6.9889116287231445e-01" nType="0">
                  <Node pos="l" depth="6" NCoef="0" IVar="5" Cut="3.0000000000000000e+00" cType="1" res="-4.0659480873728171e-05" rms="4.8413546755909920e-03" purity="6.7843121290206909e-01" nType="0">
                    <Node pos="l" depth="7" NCoef="0" IVar="-1" Cut="0.0000000000000000e+00" cType="1" res="5.0547458231449127e-03" rms="4.6635586023330688e-01" purity="6.7474675178527832e-01" nType="-99"/>
                    <Node pos="r" depth="7" NCoef="0" IVar="-1" Cut="0.0000000000000000e+00" cType="1" res="7.4891359545290470e-03" rms="4.5920634269714355e-01" purity="6.9242715835571289e-01" nType="-99"/>
                  </Node>
                  <Node pos="r" depth="6" NCoef="0" IVar="3" Cut="8.8433200120925903e-01" cType="1" res="0.0000000000000000e+00" rms="0.0000000000000000e+00" purity="7.2926318645477295e-01" nType="0">
                    <Node pos="l" depth="7" NCoef="0" IVar="-1" Cut="0.0000000000000000e+00" cType="1" res="6.9446610286831856e-03" rms="4.4790324568748474e-01" purity="7.2002822160720825e-01" nType="-99"/>
                    <Node pos="r" depth="7" NCoef="0" IVar="-1" Cut="0.0000000000000000e+00" cType="1" res="8.4273098036646843e-03" rms="4.3290382623672485e-01" purity="7.4567097425460815e-01" nType="-99"/>
                  </Node>
                </Node>
              </Node>
              <Node pos="r" depth="4" NCoef="0" IVar="3" Cut="9.6811449527740479e-01" cType="1" res="1.0601764917373657e-01" rms="4.0682309865951538e-01" purity="7.8808355331420898e-01" nType="0">
                <Node pos="l" depth="5" NCoef="0" IVar="5" Cut="2.0000000000000000e+00" cType="1" res="0.0000000000000000e+00" rms="0.0000000000000000e+00" purity="7.5407594442367554e-01" nType="0">
                  <Node pos="l" depth="6" NCoef="0" IVar="-1" Cut="0.0000000000000000e+00" cType="1" res="6.1600874178111553e-03" rms="4.3621006608009338e-01" purity="7.4045896530151367e-01" nType="-99"/>
                  <Node pos="r" depth="6" NCoef="0" IVar="-1" Cut="0.0000000000000000e+00" cType="1" res="1.0454609990119934e-02" rms="4.1946145892143250e-01" purity="7.6856535673141479e-01" nType="-99"/>
                </Node>
                <Node pos="r" depth="5" NCoef="0" IVar="3" Cut="1.0334564447402954e+00" cType="1" res="1.0867471992969513e-01" rms="4.0344259142875671e-01" purity="7.9312360286712646e-01" nType="0">
                  <Node pos="l" depth="6" NCoef="0" IVar="3" Cut="9.9972105026245117e-01" cType="1" res="1.1043198406696320e-01" rms="4.0190145373344421e-01" purity="7.9568904638290405e-01" nType="0">
                    <Node pos="l" depth="7" NCoef="0" IVar="-1" Cut="0.0000000000000000e+00" cType="1" res="9.2576425522565842e-03" rms="4.0759402513504028e-01" purity="7.8753924369812012e-01" nType="-99"/>
                    <Node pos="r" depth="7" NCoef="0" IVar="-1" Cut="0.0000000000000000e+00" cType="1" res="1.0120791383087635e-02" rms="3.9480957388877869e-01" purity="8.0546283721923828e-01" nType="-99"/>
                  </Node>
                  <Node pos="r" depth="6" NCoef="0" IVar="-1" Cut="0.0000000000000000e+00" cType="1" res="7.5367186218500137e-03" rms="4.1975730657577515e-01" purity="7.6449751853942871e-01" nType="-99"/>
                </Node>
              </Node>
            </Node>
            <Node pos="r" depth="3" NCoef="0" IVar="2" Cut="1.6426292419433594e+02" cType="1" res="1.0356376878917217e-02" rms="4.8716786503791809e-01" purity="5.6093889474868774e-01" nType="0">
              <Node pos="l" depth="4" NCoef="0" IVar="2" Cut="4.7685771942138672e+01" cType="1" res="2.2685499861836433e-02" rms="4.8393034934997559e-01" purity="5.8489340543746948e-01" nType="0">
                <Node pos="l" depth="5" NCoef="0" IVar="3" Cut="8.5172748565673828e-01" cType="1" res="4.5819673687219620e-02" rms="4.7311428189277649e-01" purity="6.3642317056655884e-01" nType="0">
                  <Node pos="l" depth="6" NCoef="0" IVar="-1" Cut="0.0000000000000000e+00" cType="1" res="2.3704457562416792e-03" rms="4.9138402938842773e-01" purity="5.5954879522323608e-01" nType="-99"/>
                  <Node pos="r" depth="6" NCoef="0" IVar="-1" Cut="0.0000000000000000e+00" cType="1" res="4.8151309601962566e-03" rms="4.6135571599006653e-01" purity="6.8304938077926636e-01" nType="-99"/>
                </Node>
                <Node pos="r" depth="5" NCoef="0" IVar="4" Cut="3.6848247051239014e-02" cType="1" res="1.5990799292922020e-03" rms="4.9263709783554077e-01" purity="5.3792482614517212e-01" nType="0">
                  <Node pos="l" depth="6" NCoef="0" IVar="-1" Cut="0.0000000000000000e+00" cType="1" res="-3.4161591902375221e-03" rms="4.9252095818519592e-01" purity="5.0452774763107300e-01" nType="-99"/>
                  <Node pos="r" depth="6" NCoef="0" IVar="4" Cut="5.5569835007190704e-02" cType="1" res="2.4713242426514626e-02" rms="4.9125549197196960e-01" purity="5.5789458751678467e-01" nType="0">
                    <Node pos="l" depth="7" NCoef="0" IVar="-1" Cut="0.0000000000000000e+00" cType="1" res="1.9141603843308985e-04" rms="4.9059519171714783e-01" purity="5.4537647962570190e-01" nType="-99"/>
                    <Node pos="r" depth="7" NCoef="0" IVar="-1" Cut="0.0000000000000000e+00" cType="1" res="4.3511046096682549e-03" rms="4.9065387248992920e-01" purity="5.7322406768798828e-01" nType="-99"/>
                  </Node>
                </Node>
              </Node>
              <Node pos="r" depth="4" NCoef="0" IVar="0" Cut="3.0904620885848999e-01" cType="1" res="-3.0735958367586136e-02" rms="4.9559658765792847e-01" purity="4.8109972476959229e-01" nType="0">
                <Node pos="l" depth="5" NCoef="0" IVar="-1" Cut="0.0000000000000000e+00" cType="1" res="-1.5364851569756866e-03" rms="4.9580836296081543e-01" purity="5.2113878726959229e-01" nType="-99"/>
                <Node pos="r" depth="5" NCoef="0" IVar="-1" Cut="0.0000000000000000e+00" cType="1" res="-4.0976172313094139e-03" rms="4.9500018358230591e-01" purity="4.4207343459129333e-01" nType="-99"/>
              </Node>
            </Node>
          </Node>
          <Node pos="r" depth="2" NCoef="0" IVar="-1" Cut="0.0000000000000000e+00" cType="1" res="-1.4518445357680321e-02" rms="4.6618890762329102e-01" purity="3.2202008366584778e-01" nType="-99"/>
        </Node>
      </Node>
    </BinaryTree>
    <BinaryTree type="DecisionTree" boostWeight="1.0000000000000000e+00" itree="28">
      <Node pos="s" depth="0" NCoef="0" IVar="3" Cut="7.7308648824691772e-01" cType="1" res="1.4891473576426506e-02" rms="4.2005747556686401e-01" purity="4.9997654557228088e-01" nType="0">
        <Node pos="l" depth="1" NCoef="0" IVar="3" Cut="6.2360113859176636e-01" cType="1" res="-4.9073837697505951e-02" rms="3.9737686514854431e-01" purity="2.6523125171661377e-01" nType="0">
          <Node pos="l" depth="2" NCoef="0" IVar="1" Cut="1.4958879351615906e-01" cType="1" res="-6.9517306983470917e-02" rms="3.5236978530883789e-01" purity="1.6937127709388733e-01" nType="0">
            <Node pos="l" depth="3" NCoef="0" IVar="3" Cut="4.2266634106636047e-01" cType="1" res="-4.6246752142906189e-02" rms="3.9598619937896729e-01" purity="2.2791767120361328e-01" nType="0">
              <Node pos="l" depth="4" NCoef="0" IVar="4" Cut="2.4865347146987915e-01" cType="1" res="-6.8030744791030884e-02" rms="3.2270610332489014e-01" purity="1.2722758948802948e-01" nType="0">
                <Node pos="l" depth="5" NCoef="0" IVar="4" Cut="1.7696882784366608e-01" cType="1" res="-7.5367219746112823e-02" rms="2.9996395111083984e-01" purity="1.0607220232486725e-01" nType="0">
                  <Node pos="l" depth="6" NCoef="0" IVar="2" Cut="2.6008267211914062e+02" cType="1" res="-8.4331624209880829e-02" rms="2.7056449651718140e-01" purity="8.2560651004314423e-02" nType="0">
                    <Node pos="l" depth="7" NCoef="0" IVar="-1" Cut="0.0000000000000000e+00" cType="1" res="-1.4564003795385361e-02" rms="2.8733652830123901e-01" purity="9.4911202788352966e-02" nType="-99"/>
                    <Node pos="r" depth="7" NCoef="0" IVar="-1" Cut="0.0000000000000000e+00" cType="1" res="-2.0266763865947723e-02" rms="2.4731709063053131e-01" purity="6.7402958869934082e-02" nType="-99"/>
                  </Node>
                  <Node pos="r" depth="6" NCoef="0" IVar="-1" Cut="0.0000000000000000e+00" cType="1" res="-8.0945808440446854e-03" rms="3.6534425616264343e-01" purity="1.6812677681446075e-01" nType="-99"/>
                </Node>
                <Node pos="r" depth="5" NCoef="0" IVar="-1" Cut="0.0000000000000000e+00" cType="1" res="-3.6302041262388229e-03" rms="4.2393258213996887e-01" purity="2.4298597872257233e-01" nType="-99"/>
              </Node>
              <Node pos="r" depth="4" NCoef="0" IVar="2" Cut="1.6156799316406250e+02" cType="1" res="-2.5682564824819565e-02" rms="4.5348760485649109e-01" purity="3.2296958565711975e-01" nType="0">
                <Node pos="l" depth="5" NCoef="0" IVar="4" Cut="6.5140545368194580e-02" cType="1" res="4.3829921633005142e-03" rms="4.6755638718605042e-01" purity="3.6876052618026733e-01" nType="0">
                  <Node pos="l" depth="6" NCoef="0" IVar="-1" Cut="0.0000000000000000e+00" cType="1" res="-3.5481560043990612e-03" rms="4.4742032885551453e-01" purity="3.1276819109916687e-01" nType="-99"/>
                  <Node pos="r" depth="6" NCoef="0" IVar="-1" Cut="0.0000000000000000e+00" cType="1" res="3.8906356785446405e-03" rms="4.8376500606536865e-01" purity="4.2440581321716309e-01" nType="-99"/>
                </Node>
                <Node pos="r" depth="5" NCoef="0" IVar="4" Cut="1.0425491631031036e-01" cType="1" res="-4.8474684357643127e-02" rms="4.4116106629371643e-01" purity="2.8825634717941284e-01" nType="0">
                  <Node pos="l" depth="6" NCoef="0" IVar="-1" Cut="0.0000000000000000e+00" cType="1" res="-9.4269197434186935e-03" rms="4.0980780124664307e-01" purity="2.3595540225505829e-01" nType="-99"/>
                  <Node pos="r" depth="6" NCoef="0" IVar="2" Cut="3.1647335815429688e+02" cType="1" res="-2.6236422359943390e-02" rms="4.6003332734107971e-01" purity="3.2398417592048645e-01" nType="0">
                    <Node pos="l" depth="7" NCoef="0" IVar="-1" Cut="0.0000000000000000e+00" cType="1" res="4.8849376616999507e-04" rms="4.7198584675788879e-01" purity="3.6253717541694641e-01" nType="-99"/>
                    <Node pos="r" depth="7" NCoef="0" IVar="-1" Cut="0.0000000000000000e+00" cType="1" res="-5.0309407524764538e-03" rms="4.5112460851669312e-01" purity="2.9937663674354553e-01" nType="-99"/>
                  </Node>
                </Node>
              </Node>
            </Node>
            <Node pos="r" depth="3" NCoef="0" IVar="4" Cut="1.1532030999660492e-01" cType="1" res="-8.7323047220706940e-02" rms="3.1377971172332764e-01" purity="1.2457378953695297e-01" nType="0">
              <Node pos="l" depth="4" NCoef="0" IVar="2" Cut="8.6649238586425781e+01" cType="1" res="-9.4263501465320587e-02" rms="2.9422903060913086e-01" purity="1.0811614245176315e-01" nType="0">
                <Node pos="l" depth="5" NCoef="0" IVar="3" Cut="4.8528295755386353e-01" cType="1" res="-7.7694006264209747e-02" rms="3.2149744033813477e-01" purity="1.3283996284008026e-01" nType="0">
                  <Node pos="l" depth="6" NCoef="0" IVar="2" Cut="5.8778106689453125e+01" cType="1" res="-8.7125539779663086e-02" rms="2.4825480580329895e-01" purity="6.7372545599937439e-02" nType="0">
                    <Node pos="l" depth="7" NCoef="0" IVar="-1" Cut="0.0000000000000000e+00" cType="1" res="-1.6860697418451309e-02" rms="2.6753628253936768e-01" purity="7.9976588487625122e-02" nType="-99"/>
                    <Node pos="r" depth="7" NCoef="0" IVar="-1" Cut="0.0000000000000000e+00" cType="1" res="-2.3409834131598473e-02" rms="2.2188413143157959e-01" purity="5.2080392837524414e-02" nType="-99"/>
                  </Node>
                  <Node pos="r" depth="6" NCoef="0" IVar="-1" Cut="0.0000000000000000e+00" cType="1" res="-6.3025210984051228e-03" rms="4.3609821796417236e-01" purity="2.6995161175727844e-01" nType="-99"/>
                </Node>
                <Node pos="r" depth="5" NCoef="0" IVar="4" Cut="9.5991723239421844e-02" cType="1" res="-1.0078939050436020e-01" rms="2.8250190615653992e-01" purity="9.8378680646419525e-02" nType="0">
                  <Node pos="l" depth="6" NCoef="0" IVar="3" Cut="4.8544046282768250e-01" cType="1" res="-1.0726568102836609e-01" rms="2.7166786789894104e-01" purity="8.8668912649154663e-02" nType="0">
                    <Node pos="l" depth="7" NCoef="0" IVar="-1" Cut="0.0000000000000000e+00" cType="1" res="-2.2097088396549225e-02" rms="2.1120157837867737e-01" purity="4.8151712864637375e-02" nType="-99"/>
                    <Node pos="r" depth="7" NCoef="0" IVar="-1" Cut="0.0000000000000000e+00" cType="1" res="-1.4758569188416004e-02" rms="3.7975955009460449e-01" purity="1.8685902655124664e-01" nType="-99"/>
                  </Node>
                  <Node pos="r" depth="6" NCoef="0" IVar="3" Cut="3.6785200238227844e-01" cType="1" res="-8.1820793449878693e-02" rms="3.1130316853523254e-01" purity="1.2681792676448822e-01" nType="0">
                    <Node pos="l" depth="7" NCoef="0" IVar="-1" Cut="0.0000000000000000e+00" cType="1" res="-2.6946442201733589e-02" rms="1.7000178992748260e-01" purity="3.0171893537044525e-02" nType="-99"/>
                    <Node pos="r" depth="7" NCoef="0" IVar="-1" Cut="0.0000000000000000e+00" cType="1" res="-7.9370224848389626e-03" rms="3.9382463693618774e-01" purity="2.1094794571399689e-01" nType="-99"/>
                  </Node>
                </Node>
              </Node>
              <Node pos="r" depth="4" NCoef="0" IVar="3" Cut="4.6372535824775696e-01" cType="1" res="-7.6243028044700623e-02" rms="3.4239584207534790e-01" purity="1.5084746479988098e-01" nType="0">
                <Node pos="l" depth="5" NCoef="0" IVar="3" Cut="3.8957813382148743e-01" cType="1" res="-8.6407184600830078e-02" rms="3.0564692616462708e-01" purity="1.0929065197706223e-01" nType="0">
                  <Node pos="l" depth="6" NCoef="0" IVar="2" Cut="7.4985083007812500e+02" cType="1" res="-8.1498868763446808e-02" rms="2.9761490225791931e-01" purity="1.0355412960052490e-01" nType="0">
                    <Node pos="l" depth="7" NCoef="0" IVar="-1" Cut="0.0000000000000000e+00" cType="1" res="-1.8139041960239410e-02" rms="2.7652317285537720e-01" purity="8.6606770753860474e-02" nType="-99"/>
                    <Node pos="r" depth="7" NCoef="0" IVar="-1" Cut="0.0000000000000000e+00" cType="1" res="-8.1749744713306427e-03" rms="3.6405694484710693e-01" purity="1.6648748517036438e-01" nType="-99"/>
                  </Node>
                  <Node pos="r" depth="6" NCoef="0" IVar="-1" Cut="0.0000000000000000e+00" cType="1" res="-1.6043705865740776e-02" rms="3.4179985523223877e-01" purity="1.3785165548324585e-01" nType="-99"/>
                </Node>
                <Node pos="r" depth="5" NCoef="0" IVar="-1" Cut="0.0000000000000000e+00" cType="1" res="-3.9167245849967003e-03" rms="4.5410475134849548e-01" purity="3.0942329764366150e-01" nType="-99"/>
              </Node>
            </Node>
          </Node>
          <Node pos="r" depth="2" NCoef="0" IVar="1" Cut="3.4767001867294312e-01" cType="1" res="2.4853078648447990e-03" rms="4.8918232321739197e-01" purity="5.0699347257614136e-01" nType="0">
            <Node pos="l" depth="3" NCoef="0" IVar="2" Cut="1.3177957153320312e+02" cType="1" res="1.8349697813391685e-02" rms="4.9037003517150879e-01" purity="5.3834891319274902e-01" nType="0">
              <Node pos="l" depth="4" NCoef="0" IVar="4" Cut="6.2103405594825745e-02" cType="1" res="3.6335650831460953e-02" rms="4.8836341500282288e-01" purity="5.6481426954269409e-01" nType="0">
                <Node pos="l" depth="5" NCoef="0" IVar="2" Cut="4.3133159637451172e+01" cType="1" res="1.7732262611389160e-02" rms="4.8969787359237671e-01" purity="5.4319798946380615e-01" nType="0">
                  <Node pos="l" depth="6" NCoef="0" IVar="-1" Cut="0.0000000000000000e+00" cType="1" res="4.2587979696691036e-03" rms="4.8550167679786682e-01" purity="5.8613640069961548e-01" nType="-99"/>
                  <Node pos="r" depth="6" NCoef="0" IVar="3" Cut="7.0559227466583252e-01" cType="1" res="-2.4279428180307150e-03" rms="4.9092623591423035e-01" purity="5.1879113912582397e-01" nType="0">
                    <Node pos="l" depth="7" NCoef="0" IVar="-1" Cut="0.0000000000000000e+00" cType="1" res="-2.8412840329110622e-03" rms="4.9175092577934265e-01" purity="4.4678509235382080e-01" nType="-99"/>
                    <Node pos="r" depth="7" NCoef="0" IVar="-1" Cut="0.0000000000000000e+00" cType="1" res="1.7795049352571368e-03" rms="4.8906299471855164e-01" purity="5.7589787244796753e-01" nType="-99"/>
                  </Node>
                </Node>
                <Node pos="r" depth="5" NCoef="0" IVar="-1" Cut="0.0000000000000000e+00" cType="1" res="5.7478365488350391e-03" rms="4.8337715864181519e-01" purity="6.0916841030120850e-01" nType="-99"/>
              </Node>
              <Node pos="r" depth="4" NCoef="0" IVar="4" Cut="9.7739696502685547e-02" cType="1" res="-1.4986260794103146e-03" rms="4.9181208014488220e-01" purity="5.0914311408996582e-01" nType="0">
                <Node pos="l" depth="5" NCoef="0" IVar="4" Cut="6.3967578113079071e-02" cType="1" res="-1.3320037163794041e-02" rms="4.9128928780555725e-01" purity="4.9679625034332275e-01" nType="0">
                  <Node pos="l" depth="6" NCoef="0" IVar="-1" Cut="0.0000000000000000e+00" cType="1" res="-4.5680589973926544e-03" rms="4.8902258276939392e-01" purity="4.5684838294982910e-01" nType="-99"/>
                  <Node pos="r" depth="6" NCoef="0" IVar="0" Cut="1.6910690069198608e-01" cType="1" res="8.9641194790601730e-03" rms="4.9140018224716187e-01" purity="5.2189296483993530e-01" nType="0">
                    <Node pos="l" depth="7" NCoef="0" IVar="-1" Cut="0.0000000000000000e+00" cType="1" res="2.7212048880755901e-03" rms="4.8889839649200439e-01" purity="5.9426957368850708e-01" nType="-99"/>
                    <Node pos="r" depth="7" NCoef="0" IVar="-1" Cut="0.0000000000000000e+00" cType="1" res="-1.3574789045378566e-03" rms="4.9288815259933472e-01" purity="4.4611316919326782e-01" nType="-99"/>
                  </Node>
                </Node>
                <Node pos="r" depth="5" NCoef="0" IVar="-1" Cut="0.0000000000000000e+00" cType="1" res="2.5259878020733595e-03" rms="4.9183836579322815e-01" purity="5.4133051633834839e-01" nType="-99"/>
              </Node>
            </Node>
            <Node pos="r" depth="3" NCoef="0" IVar="4" Cut="6.4301617443561554e-02" cType="1" res="-4.8043854534626007e-02" rms="4.8191171884536743e-01" purity="4.0712440013885498e-01" nType="0">
              <Node pos="l" depth="4" NCoef="0" IVar="-1" Cut="0.0000000000000000e+00" cType="1" res="-6.5962974913418293e-03" rms="4.7460573911666870e-01" purity="3.8279756903648376e-01" nType="-99"/>
              <Node pos="r" depth="4" NCoef="0" IVar="-1" Cut="0.0000000000000000e+00" cType="1" res="-2.1275957114994526e-03" rms="4.8819032311439514e-01" purity="4.3236961960792542e-01" nType="-99"/>
            </Node>
          </Node>
        </Node>
        <Node pos="r" depth="1" NCoef="0" IVar="3" Cut="1.0596076250076294e+00" cType="1" res="7.9538457095623016e-02" rms="4.3228623270988464e-01" purity="7.3722350597381592e-01" nType="0">
          <Node pos="l" depth="2" NCoef="0" IVar="0" Cut="6.1459434032440186e-01" cType="1" res="8.2656852900981903e-02" rms="4.3107530474662781e-01" purity="7.4086785316467285e-01" nType="0">
            <Node pos="l" depth="3" NCoef="0" IVar="3" Cut="9.6714586019515991e-01" cType="1" res="8.6135245859622955e-02" rms="4.2898523807525635e-01" purity="7.4773639440536499e-01" nType="0">
              <Node pos="l" depth="4" NCoef="0" IVar="1" Cut="5.3110039234161377e-01" cType="1" res="6.4555920660495758e-02" rms="4.5641401410102844e-01" purity="6.9354671239852905e-01" nType="0">
                <Node pos="l" depth="5" NCoef="0" IVar="0" Cut="1.7838124930858612e-01" cType="1" res="7.3252014815807343e-02" rms="4.5020630955696106e-01" purity="7.1140235662460327e-01" nType="0">
                  <Node pos="l" depth="6" NCoef="0" IVar="1" Cut="4.1192151606082916e-02" cType="1" res="7.9154603183269501e-02" rms="4.4433876872062683e-01" purity="7.2627907991409302e-01" nType="0">
                    <Node pos="l" depth="7" NCoef="0" IVar="-1" Cut="0.0000000000000000e+00" cType="1" res="7.6690586283802986e-03" rms="4.3615260720252991e-01" purity="7.4217528104782104e-01" nType="-99"/>
                    <Node pos="r" depth="7" NCoef="0" IVar="-1" Cut="0.0000000000000000e+00" cType="1" res="5.7951202616095543e-03" rms="4.5651778578758240e-01" purity="7.0150911808013916e-01" nType="-99"/>
                  </Node>
                  <Node pos="r" depth="6" NCoef="0" IVar="4" Cut="3.5802230238914490e-02" cType="1" res="3.9318107068538666e-02" rms="4.8115378618240356e-01" purity="6.2587606906890869e-01" nType="0">
                    <Node pos="l" depth="7" NCoef="0" IVar="-1" Cut="0.0000000000000000e+00" cType="1" res="1.9931569695472717e-03" rms="4.8221981525421143e-01" purity="6.1672753095626831e-01" nType="-99"/>
                    <Node pos="r" depth="7" NCoef="0" IVar="-1" Cut="0.0000000000000000e+00" cType="1" res="4.8745861276984215e-03" rms="4.7963827848434448e-01" purity="6.3410061597824097e-01" nType="-99"/>
                  </Node>
                </Node>
                <Node pos="r" depth="5" NCoef="0" IVar="4" Cut="3.2555758953094482e-02" cType="1" res="5.3979721851646900e-03" rms="4.9253034591674805e-01" purity="5.7207828760147095e-01" nType="0">
                  <Node pos="l" depth="6" NCoef="0" IVar="-1" Cut="0.0000000000000000e+00" cType="1" res="-2.2853950504213572e-03" rms="4.9475517868995667e-01" purity="5.5309051275253296e-01" nType="-99"/>
                  <Node pos="r" depth="6" NCoef="0" IVar="-1" Cut="0.0000000000000000e+00" cType="1" res="2.2717586252838373e-03" rms="4.8967209458351135e-01" purity="5.8578759431838989e-01" nType="-99"/>
                </Node>
              </Node>
              <Node pos="r" depth="4" NCoef="0" IVar="1" Cut="2.6646822690963745e-01" cType="1" res="1.0252323746681213e-01" rms="4.0615642070770264e-01" purity="7.8888958692550659e-01" nType="0">
                <Node pos="l" depth="5" NCoef="0" IVar="3" Cut="9.9993783235549927e-01" cType="1" res="1.1111020296812057e-01" rms="3.9432033896446228e-01" purity="8.0667376518249512e-01" nType="0">
                  <Node pos="l" depth="6" NCoef="0" IVar="3" Cut="9.9887979030609131e-01" cType="1" res="1.0152835398912430e-01" rms="4.0232008695602417e-01" purity="7.9591876268386841e-01" nType="0">
                    <Node pos="l" depth="7" NCoef="0" IVar="-1" Cut="0.0000000000000000e+00" cType="1" res="9.0795336291193962e-03" rms="4.0430176258087158e-01" purity="7.9310035705566406e-01" nType="-99"/>
                    <Node pos="r" depth="7" NCoef="0" IVar="-1" Cut="0.0000000000000000e+00" cType="1" res="1.0488132014870644e-02" rms="3.8706755638122559e-01" purity="8.1647562980651855e-01" nType="-99"/>
                  </Node>
                  <Node pos="r" depth="6" NCoef="0" IVar="3" Cut="1.0268596410751343e+00" cType="1" res="1.2181229889392853e-01" rms="3.8490706682205200e-01" purity="8.1868624687194824e-01" nType="0">
                    <Node pos="l" depth="7" NCoef="0" IVar="-1" Cut="0.0000000000000000e+00" cType="1" res="1.0932259261608124e-02" rms="3.8174369931221008e-01" purity="8.2261610031127930e-01" nType="-99"/>
                    <Node pos="r" depth="7" NCoef="0" IVar="-1" Cut="0.0000000000000000e+00" cType="1" res="9.3341618776321411e-03" rms="3.9974772930145264e-01" purity="7.9949915409088135e-01" nType="-99"/>
                  </Node>
                </Node>
                <Node pos="r" depth="5" NCoef="0" IVar="3" Cut="9.9997842311859131e-01" cType="1" res="7.7562332153320312e-02" rms="4.3779730796813965e-01" purity="7.3719376325607300e-01" nType="0">
                  <Node pos="l" depth="6" NCoef="0" IVar="3" Cut="9.9469375610351562e-01" cType="1" res="6.2256403267383575e-02" rms="4.4598627090454102e-01" purity="7.2072404623031616e-01" nType="0">
                    <Node pos="l" depth="7" NCoef="0" IVar="-1" Cut="0.0000000000000000e+00" cType="1" res="4.6713743358850479e-03" rms="4.5121785998344421e-01" purity="7.0987510681152344e-01" nType="-99"/>
                    <Node pos="r" depth="7" NCoef="0" IVar="-1" Cut="0.0000000000000000e+00" cType="1" res="5.9056268073618412e-03" rms="4.4216081500053406e-01" purity="7.2837293148040771e-01" nType="-99"/>
                  </Node>
                  <Node pos="r" depth="6" NCoef="0" IVar="3" Cut="1.0057433843612671e+00" cType="1" res="9.4894267618656158e-02" rms="4.2767459154129028e-01" purity="7.5584357976913452e-01" nType="0">
                    <Node pos="l" depth="7" NCoef="0" IVar="-1" Cut="0.0000000000000000e+00" cType="1" res="8.1422319635748863e-03" rms="4.2292872071266174e-01" purity="7.6416110992431641e-01" nType="-99"/>
                    <Node pos="r" depth="7" NCoef="0" IVar="-1" Cut="0.0000000000000000e+00" cType="1" res="7.0374123752117157e-03" rms="4.3284130096435547e-01" purity="7.4642944335937500e-01" nType="-99"/>
                  </Node>
                </Node>
              </Node>
            </Node>
            <Node pos="r" depth="3" NCoef="0" IVar="-1" Cut="0.0000000000000000e+00" cType="1" res="-5.9903729707002640e-03" rms="4.9059528112411499e-01" purity="4.4130137562751770e-01" nType="-99"/>
          </Node>
          <Node pos="r" depth="2" NCoef="0" IVar="-1" Cut="0.0000000000000000e+00" cType="1" res="-5.1230825483798981e-03" rms="4.6211969852447510e-01" purity="5.7812261581420898e-01" nType="-99"/>
        </Node>
      </Node>
    </BinaryTree>
    <BinaryTree type="DecisionTree" boostWeight="1.0000000000000000e+00" itree="29">
      <Node pos="s" depth="0" NCoef="0" IVar="3" Cut="6.7647039890289307e-01" cType="1" res="1.3790612109005451e-02" rms="4.1886627674102783e-01" purity="4.9887260794639587e-01" nType="0">
        <Node pos="l" depth="1" NCoef="0" IVar="3" Cut="5.6746739149093628e-01" cType="1" res="-6.2330175191164017e-02" rms="3.6802685260772705e-01" purity="1.9658516347408295e-01" nType="0">
          <Node pos="l" depth="2" NCoef="0" IVar="1" Cut="8.8432794809341431e-01" cType="1" res="-7.3977798223495483e-02" rms="3.2754117250442505e-01" purity="1.3715806603431702e-01" nType="0">
            <Node pos="l" depth="3" NCoef="0" IVar="4" Cut="1.1746048927307129e-01" cType="1" res="-6.7850269377231598e-02" rms="3.4426102042198181e-01" purity="1.5400484204292297e-01" nType="0">
              <Node pos="l" depth="4" NCoef="0" IVar="2" Cut="8.8488479614257812e+01" cType="1" res="-7.9318247735500336e-02" rms="3.1690528988838196e-01" purity="1.2744648754596710e-01" nType="0">
                <Node pos="l" depth="5" NCoef="0" IVar="4" Cut="4.9455650150775909e-02" cType="1" res="-5.6750256568193436e-02" rms="3.5366350412368774e-01" purity="1.6673998534679413e-01" nType="0">
                  <Node pos="l" depth="6" NCoef="0" IVar="-1" Cut="0.0000000000000000e+00" cType="1" res="-1.3565129600465298e-02" rms="3.2120862603187561e-01" purity="1.3058063387870789e-01" nType="-99"/>
                  <Node pos="r" depth="6" NCoef="0" IVar="-1" Cut="0.0000000000000000e+00" cType="1" res="-2.9042745009064674e-03" rms="3.9291182160377502e-01" purity="2.1875253319740295e-01" nType="-99"/>
                </Node>
                <Node pos="r" depth="5" NCoef="0" IVar="2" Cut="3.9588363647460938e+02" cType="1" res="-8.6968071758747101e-02" rms="3.0305546522140503e-01" purity="1.1412725597620010e-01" nType="0">
                  <Node pos="l" depth="6" NCoef="0" IVar="4" Cut="7.8057445585727692e-02" cType="1" res="-8.3694301545619965e-02" rms="3.0602067708969116e-01" purity="1.1744547635316849e-01" nType="0">
                    <Node pos="l" depth="7" NCoef="0" IVar="-1" Cut="0.0000000000000000e+00" cType="1" res="-1.6706038266420364e-02" rms="2.8316324949264526e-01" purity="9.7237028181552887e-02" nType="-99"/>
                    <Node pos="r" depth="7" NCoef="0" IVar="-1" Cut="0.0000000000000000e+00" cType="1" res="-1.1967368423938751e-02" rms="3.2760339975357056e-01" purity="1.3842557370662689e-01" nType="-99"/>
                  </Node>
                  <Node pos="r" depth="6" NCoef="0" IVar="-1" Cut="0.0000000000000000e+00" cType="1" res="-1.8189843744039536e-02" rms="2.7732381224632263e-01" purity="8.8058985769748688e-02" nType="-99"/>
                </Node>
              </Node>
              <Node pos="r" depth="4" NCoef="0" IVar="3" Cut="4.3960341811180115e-01" cType="1" res="-5.5455736815929413e-02" rms="3.7117096781730652e-01" purity="1.8270896375179291e-01" nType="0">
                <Node pos="l" depth="5" NCoef="0" IVar="4" Cut="2.3077291250228882e-01" cType="1" res="-6.5138600766658783e-02" rms="3.3888924121856689e-01" purity="1.4130057394504547e-01" nType="0">
                  <Node pos="l" depth="6" NCoef="0" IVar="2" Cut="3.1537231445312500e+02" cType="1" res="-7.7693015336990356e-02" rms="3.0900999903678894e-01" purity="1.1222950369119644e-01" nType="0">
                    <Node pos="l" depth="7" NCoef="0" IVar="-1" Cut="0.0000000000000000e+00" cType="1" res="-1.1035120114684105e-02" rms="3.3040162920951843e-01" purity="1.3168348371982574e-01" nType="-99"/>
                    <Node pos="r" depth="7" NCoef="0" IVar="-1" Cut="0.0000000000000000e+00" cType="1" res="-1.6003366559743881e-02" rms="2.9500791430473328e-01" purity="1.0062745958566666e-01" nType="-99"/>
                  </Node>
                  <Node pos="r" depth="6" NCoef="0" IVar="5" Cut="7.0000000000000000e+00" cType="1" res="1.6784279048442841e-01" rms="3.8366016000509262e-02" purity="2.2202737629413605e-01" nType="0">
                    <Node pos="l" depth="7" NCoef="0" IVar="-1" Cut="0.0000000000000000e+00" cType="1" res="-2.9612728394567966e-03" rms="4.2483195662498474e-01" purity="2.5110876560211182e-01" nType="-99"/>
                    <Node pos="r" depth="7" NCoef="0" IVar="-1" Cut="0.0000000000000000e+00" cType="1" res="-5.8920071460306644e-03" rms="3.8897237181663513e-01" purity="1.8869420886039734e-01" nType="-99"/>
                  </Node>
                </Node>
                <Node pos="r" depth="5" NCoef="0" IVar="2" Cut="3.7742056274414062e+02" cType="1" res="-2.5287637487053871e-02" rms="4.5605012774467468e-01" purity="3.1172162294387817e-01" nType="0">
                  <Node pos="l" depth="6" NCoef="0" IVar="-1" Cut="0.0000000000000000e+00" cType="1" res="3.8780755858169869e-05" rms="4.6992611885070801e-01" purity="3.4641826152801514e-01" nType="-99"/>
                  <Node pos="r" depth="6" NCoef="0" IVar="-1" Cut="0.0000000000000000e+00" cType="1" res="-6.1517409048974514e-03" rms="4.3754354119300842e-01" purity="2.7151641249656677e-01" nType="-99"/>
                </Node>
              </Node>
            </Node>
            <Node pos="r" depth="3" NCoef="0" IVar="3" Cut="3.8456270098686218e-01" cType="1" res="-9.9647060036659241e-02" rms="2.4374677240848541e-01" purity="6.6584080457687378e-02" nType="0">
              <Node pos="l" depth="4" NCoef="0" IVar="5" Cut="5.0000000000000000e+00" cType="1" res="5.6958645582199097e-02" rms="1.0934056341648102e-01" purity="5.2563387900590897e-02" nType="0">
                <Node pos="l" depth="5" NCoef="0" IVar="-1" Cut="0.0000000000000000e+00" cType="1" res="-1.3910887762904167e-02" rms="2.9306823015213013e-01" purity="9.6710838377475739e-02" nType="-99"/>
                <Node pos="r" depth="5" NCoef="0" IVar="3" Cut="1.8638783693313599e-01" cType="1" res="-1.0343892127275467e-01" rms="1.7889147996902466e-01" purity="3.3659532666206360e-02" nType="0">
                  <Node pos="l" depth="6" NCoef="0" IVar="-1" Cut="0.0000000000000000e+00" cType="1" res="-2.7771763503551483e-02" rms="1.7326088249683380e-01" purity="3.1635370105504990e-02" nType="-99"/>
                  <Node pos="r" depth="6" NCoef="0" IVar="-1" Cut="0.0000000000000000e+00" cType="1" res="-2.5492712855339050e-02" rms="1.8228614330291748e-01" purity="3.4953773021697998e-02" nType="-99"/>
                </Node>
              </Node>
              <Node pos="r" depth="4" NCoef="0" IVar="-1" Cut="0.0000000000000000e+00" cType="1" res="-1.9247654825448990e-02" rms="2.9733771085739136e-01" purity="1.0436959564685822e-01" nType="-99"/>
            </Node>
          </Node>
          <Node pos="r" depth="2" NCoef="0" IVar="0" Cut="4.3360722064971924e-01" cType="1" res="-2.2754164412617683e-02" rms="4.7864365577697754e-01" purity="3.9850509166717529e-01" nType="0">
            <Node pos="l" depth="3" NCoef="0" IVar="0" Cut="1.3986478559672832e-02" cType="1" res="-4.9237040802836418e-03" rms="4.9251857399940491e-01" purity="4.5583990216255188e-01" nType="0">
              <Node pos="l" depth="4" NCoef="0" IVar="1" Cut="9.2805735766887665e-02" cType="1" res="1.3916491530835629e-02" rms="4.9587351083755493e-01" purity="4.9417316913604736e-01" nType="0">
                <Node pos="l" depth="5" NCoef="0" IVar="-1" Cut="0.0000000000000000e+00" cType="1" res="3.4030068200081587e-03" rms="4.9525579810142517e-01" purity="5.3861451148986816e-01" nType="-99"/>
                <Node pos="r" depth="5" NCoef="0" IVar="-1" Cut="0.0000000000000000e+00" cType="1" res="-1.7730683321133256e-03" rms="4.9448892474174500e-01" purity="4.3941253423690796e-01" nType="-99"/>
              </Node>
              <Node pos="r" depth="4" NCoef="0" IVar="1" Cut="6.4821027219295502e-02" cType="1" res="-2.6350738480687141e-02" rms="4.8779141902923584e-01" purity="4.1224327683448792e-01" nType="0">
                <Node pos="l" depth="5" NCoef="0" IVar="-1" Cut="0.0000000000000000e+00" cType="1" res="-2.4518743157386780e-04" rms="4.9423038959503174e-01" purity="4.5388191938400269e-01" nType="-99"/>
                <Node pos="r" depth="5" NCoef="0" IVar="-1" Cut="0.0000000000000000e+00" cType="1" res="-4.7344197519123554e-03" rms="4.8026597499847412e-01" purity="3.7140795588493347e-01" nType="-99"/>
              </Node>
            </Node>
            <Node pos="r" depth="3" NCoef="0" IVar="5" Cut="3.0000000000000000e+00" cType="1" res="-5.1490072160959244e-02" rms="4.5204818248748779e-01" purity="3.0178397893905640e-01" nType="0">
              <Node pos="l" depth="4" NCoef="0" IVar="-1" Cut="0.0000000000000000e+00" cType="1" res="-7.6482221484184265e-03" rms="4.4259867072105408e-01" purity="2.7886566519737244e-01" nType="-99"/>
              <Node pos="r" depth="4" NCoef="0" IVar="3" Cut="6.0260415077209473e-01" cType="1" res="-3.9332151412963867e-02" rms="4.5885801315307617e-01" purity="3.1720036268234253e-01" nType="0">
                <Node pos="l" depth="5" NCoef="0" IVar="-1" Cut="0.0000000000000000e+00" cType="1" res="-5.1435329951345921e-03" rms="4.4998741149902344e-01" purity="2.9404824972152710e-01" nType="-99"/>
                <Node pos="r" depth="5" NCoef="0" IVar="-1" Cut="0.0000000000000000e+00" cType="1" res="-3.0493598897010088e-03" rms="4.6704262495040894e-01" purity="3.3943718671798706e-01" nType="-99"/>
              </Node>
            </Node>
          </Node>
        </Node>
        <Node pos="r" depth="1" NCoef="0" IVar="5" Cut="2.0000000000000000e+00" cType="1" res="6.5817318856716156e-02" rms="4.4279208779335022e-01" purity="7.0523208379745483e-01" nType="0">
          <Node pos="l" depth="2" NCoef="0" IVar="3" Cut="9.8665285110473633e-01" cType="1" res="9.1334022581577301e-02" rms="4.1250240802764893e-01" purity="7.7553629875183105e-01" nType="0">
            <Node pos="l" depth="3" NCoef="0" IVar="3" Cut="9.6752566099166870e-01" cType="1" res="6.5140657126903534e-02" rms="4.3326508998870850e-01" purity="7.3956841230392456e-01" nType="0">
              <Node pos="l" depth="4" NCoef="0" IVar="-1" Cut="0.0000000000000000e+00" cType="1" res="3.7025376223027706e-03" rms="4.5013454556465149e-01" purity="7.0588314533233643e-01" nType="-99"/>
              <Node pos="r" depth="4" NCoef="0" IVar="3" Cut="9.7986650466918945e-01" cType="1" res="8.4116481244564056e-02" rms="4.1797816753387451e-01" purity="7.6717549562454224e-01" nType="0">
                <Node pos="l" depth="5" NCoef="0" IVar="-1" Cut="0.0000000000000000e+00" cType="1" res="7.6269791461527348e-03" rms="4.1574186086654663e-01" purity="7.6965045928955078e-01" nType="-99"/>
                <Node pos="r" depth="5" NCoef="0" IVar="-1" Cut="0.0000000000000000e+00" cType="1" res="7.1762031875550747e-03" rms="4.2021313309669495e-01" purity="7.6465004682540894e-01" nType="-99"/>
              </Node>
            </Node>
            <Node pos="r" depth="3" NCoef="0" IVar="1" Cut="4.0915766358375549e-01" cType="1" res="9.6998386085033417e-02" rms="4.0765219926834106e-01" purity="7.8331440687179565e-01" nType="0">
              <Node pos="l" depth="4" NCoef="0" IVar="0" Cut="2.3829798400402069e-01" cType="1" res="1.0417541116476059e-01" rms="3.9774352312088013e-01" purity="7.9959356784820557e-01" nType="0">
                <Node pos="l" depth="5" NCoef="0" IVar="1" Cut="-3.3312898129224777e-02" cType="1" res="1.0866710543632507e-01" rms="3.9234399795532227e-01" purity="8.0957448482513428e-01" nType="0">
                  <Node pos="l" depth="6" NCoef="0" IVar="-1" Cut="0.0000000000000000e+00" cType="1" res="9.9988784641027451e-03" rms="3.8713434338569641e-01" purity="8.1625908613204956e-01" nType="-99"/>
                  <Node pos="r" depth="6" NCoef="0" IVar="1" Cut="3.0923604965209961e-01" cType="1" res="1.0563649982213974e-01" rms="3.9738494157791138e-01" purity="8.0299097299575806e-01" nType="0">
                    <Node pos="l" depth="7" NCoef="0" IVar="-1" Cut="0.0000000000000000e+00" cType="1" res="1.0002036578953266e-02" rms="3.9303624629974365e-01" purity="8.0878347158432007e-01" nType="-99"/>
                    <Node pos="r" depth="7" NCoef="0" IVar="-1" Cut="0.0000000000000000e+00" cType="1" res="6.9325352087616920e-03" rms="4.2434695363044739e-01" purity="7.6416331529617310e-01" nType="-99"/>
                  </Node>
                </Node>
                <Node pos="r" depth="5" NCoef="0" IVar="-1" Cut="0.0000000000000000e+00" cType="1" res="3.0348317231982946e-03" rms="4.6704974770545959e-01" purity="6.4772164821624756e-01" nType="-99"/>
              </Node>
              <Node pos="r" depth="4" NCoef="0" IVar="-1" Cut="0.0000000000000000e+00" cType="1" res="5.3489021956920624e-03" rms="4.4745293259620667e-01" purity="7.1137249469757080e-01" nType="-99"/>
            </Node>
          </Node>
          <Node pos="r" depth="2" NCoef="0" IVar="1" Cut="4.8326480388641357e-01" cType="1" res="3.8418754935264587e-02" rms="4.7157612442970276e-01" purity="6.3009685277938843e-01" nType="0">
            <Node pos="l" depth="3" NCoef="0" IVar="3" Cut="8.2596194744110107e-01" cType="1" res="5.0979878753423691e-02" rms="4.6708020567893982e-01" purity="6.5452688932418823e-01" nType="0">
              <Node pos="l" depth="4" NCoef="0" IVar="3" Cut="7.1505010128021240e-01" cType="1" res="3.6770429462194443e-02" rms="4.8337393999099731e-01" purity="6.0266101360321045e-01" nType="0">
                <Node pos="l" depth="5" NCoef="0" IVar="2" Cut="1.7821278381347656e+02" cType="1" res="8.4331342950463295e-03" rms="4.9454656243324280e-01" purity="5.2794784307479858e-01" nType="0">
                  <Node pos="l" depth="6" NCoef="0" IVar="-1" Cut="0.0000000000000000e+00" cType="1" res="2.2515226155519485e-03" rms="4.9299576878547668e-01" purity="5.4874151945114136e-01" nType="-99"/>
                  <Node pos="r" depth="6" NCoef="0" IVar="-1" Cut="0.0000000000000000e+00" cType="1" res="-2.2892386186867952e-03" rms="4.9550747871398926e-01" purity="4.9087277054786682e-01" nType="-99"/>
                </Node>
                <Node pos="r" depth="5" NCoef="0" IVar="5" Cut="3.0000000000000000e+00" cType="1" res="4.6052716672420502e-02" rms="4.7625559568405151e-01" purity="6.2473320960998535e-01" nType="0">
                  <Node pos="l" depth="6" NCoef="0" IVar="4" Cut="4.6716354787349701e-02" cType="1" res="3.4744754433631897e-02" rms="4.8382419347763062e-01" purity="6.0747492313385010e-01" nType="0">
                    <Node pos="l" depth="7" NCoef="0" IVar="-1" Cut="0.0000000000000000e+00" cType="1" res="9.5429678913205862e-04" rms="4.8929113149642944e-01" purity="5.7980364561080933e-01" nType="-99"/>
                    <Node pos="r" depth="7" NCoef="0" IVar="-1" Cut="0.0000000000000000e+00" cType="1" res="3.9474456571042538e-03" rms="4.7980082035064697e-01" purity="6.2478327751159668e-01" nType="-99"/>
                  </Node>
                  <Node pos="r" depth="6" NCoef="0" IVar="1" Cut="8.4690796211361885e-03" cType="1" res="5.9807840734720230e-02" rms="4.7344163060188293e-01" purity="6.4907687902450562e-01" nType="0">
                    <Node pos="l" depth="7" NCoef="0" IVar="-1" Cut="0.0000000000000000e+00" cType="1" res="6.4602722413837910e-03" rms="4.6655035018920898e-01" purity="6.7111259698867798e-01" nType="-99"/>
                    <Node pos="r" depth="7" NCoef="0" IVar="-1" Cut="0.0000000000000000e+00" cType="1" res="4.0497696027159691e-03" rms="4.8131647706031799e-01" purity="6.2212097644805908e-01" nType="-99"/>
                  </Node>
                </Node>
              </Node>
              <Node pos="r" depth="4" NCoef="0" IVar="2" Cut="1.7581622314453125e+02" cType="1" res="6.8224102258682251e-02" rms="4.4590082764625549e-01" purity="7.1746999025344849e-01" nType="0">
                <Node pos="l" depth="5" NCoef="0" IVar="4" Cut="1.9101954996585846e-02" cType="1" res="7.1997113525867462e-02" rms="4.4169285893440247e-01" purity="7.2951346635818481e-01" nType="0">
                  <Node pos="l" depth="6" NCoef="0" IVar="-1" Cut="0.0000000000000000e+00" cType="1" res="4.3641515076160431e-03" rms="4.5443218946456909e-01" purity="7.0304483175277710e-01" nType="-99"/>
                  <Node pos="r" depth="6" NCoef="0" IVar="2" Cut="1.2272885131835938e+02" cType="1" res="7.8064486384391785e-02" rms="4.3852829933166504e-01" purity="7.3550963401794434e-01" nType="0">
                    <Node pos="l" depth="7" NCoef="0" IVar="-1" Cut="0.0000000000000000e+00" cType="1" res="7.4405302293598652e-03" rms="4.3557491898536682e-01" purity="7.4170732498168945e-01" nType="-99"/>
                    <Node pos="r" depth="7" NCoef="0" IVar="-1" Cut="0.0000000000000000e+00" cType="1" res="5.3501762449741364e-03" rms="4.4815313816070557e-01" purity="7.1369016170501709e-01" nType="-99"/>
                  </Node>
                </Node>
                <Node pos="r" depth="5" NCoef="0" IVar="-1" Cut="0.0000000000000000e+00" cType="1" res="4.0660905651748180e-03" rms="4.7101768851280212e-01" purity="6.4107120037078857e-01" nType="-99"/>
              </Node>
            </Node>
            <Node pos="r" depth="3" NCoef="0" IVar="3" Cut="7.5020051002502441e-01" cType="1" res="-2.8475401923060417e-02" rms="4.8943158984184265e-01" purity="4.9999517202377319e-01" nType="0">
              <Node pos="l" depth="4" NCoef="0" IVar="-1" Cut="0.0000000000000000e+00" cType="1" res="-5.9562912210822105e-03" rms="4.8242372274398804e-01" purity="3.9357420802116394e-01" nType="-99"/>
              <Node pos="r" depth="4" NCoef="0" IVar="2" Cut="1.1524397277832031e+02" cType="1" res="-1.4705179259181023e-02" rms="4.9120041728019714e-01" purity="5.3829491138458252e-01" nType="0">
                <Node pos="l" depth="5" NCoef="0" IVar="-1" Cut="0.0000000000000000e+00" cType="1" res="-1.5616057207807899e-03" rms="4.9259144067764282e-01" purity="5.4123872518539429e-01" nType="-99"/>
                <Node pos="r" depth="5" NCoef="0" IVar="-1" Cut="0.0000000000000000e+00" cType="1" res="-8.6508528329432011e-04" rms="4.8958733677864075e-01" purity="5.3497904539108276e-01" nType="-99"/>
              </Node>
            </Node>
          </Node>
        </Node>
      </Node>
    </BinaryTree>
    <BinaryTree type="DecisionTree" boostWeight="1.0000000000000000e+00" itree="30">
      <Node pos="s" depth="0" NCoef="0" IVar="3" Cut="6.7608582973480225e-01" cType="1" res="1.5140576288104057e-02" rms="4.1888362169265747e-01" purity="5.0051808357238770e-01" nType="0">
        <Node pos="l" depth="1" NCoef="0" IVar="3" Cut="5.4525929689407349e-01" cType="1" res="-5.5805921554565430e-02" rms="3.7002375721931458e-01" purity="1.9946028292179108e-01" nType="0">
          <Node pos="l" depth="2" NCoef="0" IVar="4" Cut="2.0697842538356781e-01" cType="1" res="-6.8923868238925934e-02" rms="3.2104045152664185e-01" purity="1.2895679473876953e-01" nType="0">
            <Node pos="l" depth="3" NCoef="0" IVar="3" Cut="4.0458551049232483e-01" cType="1" res="-7.3535569012165070e-02" rms="3.0810323357582092e-01" purity="1.1778054386377335e-01" nType="0">
              <Node pos="l" depth="4" NCoef="0" IVar="2" Cut="3.0516683959960938e+02" cType="1" res="-8.3686508238315582e-02" rms="2.3873130977153778e-01" purity="6.2694221735000610e-02" nType="0">
                <Node pos="l" depth="5" NCoef="0" IVar="4" Cut="1.0027804225683212e-01" cType="1" res="-7.7177003026008606e-02" rms="2.4087364971637726e-01" purity="6.4112678170204163e-02" nType="0">
                  <Node pos="l" depth="6" NCoef="0" IVar="1" Cut="1.3261487483978271e+00" cType="1" res="-8.4554441273212433e-02" rms="2.1133935451507568e-01" purity="4.7645073384046555e-02" nType="0">
                    <Node pos="l" depth="7" NCoef="0" IVar="-1" Cut="0.0000000000000000e+00" cType="1" res="-2.2304199635982513e-02" rms="2.0479887723922729e-01" purity="4.4688176363706589e-02" nType="-99"/>
                    <Node pos="r" depth="7" NCoef="0" IVar="-1" Cut="0.0000000000000000e+00" cType="1" res="-1.8318718299269676e-02" rms="2.3449048399925232e-01" purity="5.9194382280111313e-02" nType="-99"/>
                  </Node>
                  <Node pos="r" depth="6" NCoef="0" IVar="3" Cut="3.0191403627395630e-01" cType="1" res="-6.2784463167190552e-02" rms="2.8941741585731506e-01" purity="9.6239112317562103e-02" nType="0">
                    <Node pos="l" depth="7" NCoef="0" IVar="-1" Cut="0.0000000000000000e+00" cType="1" res="-1.9666166976094246e-02" rms="2.4024939537048340e-01" purity="6.3921160995960236e-02" nType="-99"/>
                    <Node pos="r" depth="7" NCoef="0" IVar="-1" Cut="0.0000000000000000e+00" cType="1" res="-8.6199436336755753e-03" rms="3.3799704909324646e-01" purity="1.3475249707698822e-01" nType="-99"/>
                  </Node>
                </Node>
                <Node pos="r" depth="5" NCoef="0" IVar="3" Cut="3.0020636320114136e-01" cType="1" res="-9.5559939742088318e-02" rms="2.3430800437927246e-01" purity="6.0106940567493439e-02" nType="0">
                  <Node pos="l" depth="6" NCoef="0" IVar="5" Cut="6.0000000000000000e+00" cType="1" res="-8.8999867439270020e-02" rms="2.1869495511054993e-01" purity="5.2768457680940628e-02" nType="0">
                    <Node pos="l" depth="7" NCoef="0" IVar="-1" Cut="0.0000000000000000e+00" cType="1" res="-1.4933680184185505e-02" rms="2.7575686573982239e-01" purity="8.7651222944259644e-02" nType="-99"/>
                    <Node pos="r" depth="7" NCoef="0" IVar="-1" Cut="0.0000000000000000e+00" cType="1" res="-2.5027196854352951e-02" rms="1.7662476003170013e-01" purity="3.2677799463272095e-02" nType="-99"/>
                  </Node>
                  <Node pos="r" depth="6" NCoef="0" IVar="0" Cut="1.2593114376068115e+00" cType="1" res="-1.0286243259906769e-01" rms="2.5037318468093872e-01" purity="6.8290509283542633e-02" nType="0">
                    <Node pos="l" depth="7" NCoef="0" IVar="-1" Cut="0.0000000000000000e+00" cType="1" res="-1.7248518764972687e-02" rms="2.8681322932243347e-01" purity="9.1121383011341095e-02" nType="-99"/>
                    <Node pos="r" depth="7" NCoef="0" IVar="-1" Cut="0.0000000000000000e+00" cType="1" res="-2.3375466465950012e-02" rms="2.0309141278266907e-01" purity="4.3384119868278503e-02" nType="-99"/>
                  </Node>
                </Node>
              </Node>
              <Node pos="r" depth="4" NCoef="0" IVar="4" Cut="9.4111010432243347e-02" cType="1" res="-5.8530155569314957e-02" rms="3.8810655474662781e-01" purity="1.9921077787876129e-01" nType="0">
                <Node pos="l" depth="5" NCoef="0" IVar="2" Cut="8.9238777160644531e+01" cType="1" res="-8.1764683127403259e-02" rms="3.4674015641212463e-01" purity="1.4857402443885803e-01" nType="0">
                  <Node pos="l" depth="6" NCoef="0" IVar="-1" Cut="0.0000000000000000e+00" cType="1" res="-6.0294247232377529e-03" rms="3.9101460576057434e-01" purity="2.0083563029766083e-01" nType="-99"/>
                  <Node pos="r" depth="6" NCoef="0" IVar="5" Cut="5.0000000000000000e+00" cType="1" res="-1.0124896466732025e-01" rms="3.1699517369270325e-01" purity="1.1986788362264633e-01" nType="0">
                    <Node pos="l" depth="7" NCoef="0" IVar="-1" Cut="0.0000000000000000e+00" cType="1" res="-1.8305623903870583e-02" rms="2.9970350861549377e-01" purity="1.0279460251331329e-01" nType="-99"/>
                    <Node pos="r" depth="7" NCoef="0" IVar="-1" Cut="0.0000000000000000e+00" cType="1" res="-1.1932034976780415e-02" rms="3.4472581744194031e-01" purity="1.4776287972927094e-01" nType="-99"/>
                  </Node>
                </Node>
                <Node pos="r" depth="5" NCoef="0" IVar="2" Cut="4.7385382080078125e+02" cType="1" res="-3.5432148724794388e-02" rms="4.2399981617927551e-01" purity="2.4954999983310699e-01" nType="0">
                  <Node pos="l" depth="6" NCoef="0" IVar="4" Cut="1.3412964344024658e-01" cType="1" res="-1.8112687394022942e-02" rms="4.3334466218948364e-01" purity="2.6796492934226990e-01" nType="0">
                    <Node pos="l" depth="7" NCoef="0" IVar="-1" Cut="0.0000000000000000e+00" cType="1" res="-4.8325331881642342e-03" rms="4.1209790110588074e-01" purity="2.3107975721359253e-01" nType="-99"/>
                    <Node pos="r" depth="7" NCoef="0" IVar="-1" Cut="0.0000000000000000e+00" cType="1" res="1.1997361434623599e-03" rms="4.6191343665122986e-01" purity="3.2343316078186035e-01" nType="-99"/>
                  </Node>
                  <Node pos="r" depth="6" NCoef="0" IVar="-1" Cut="0.0000000000000000e+00" cType="1" res="-1.0313249193131924e-02" rms="3.9411321282386780e-01" purity="2.0015953481197357e-01" nType="-99"/>
                </Node>
              </Node>
            </Node>
            <Node pos="r" depth="3" NCoef="0" IVar="5" Cut="5.0000000000000000e+00" cType="1" res="0.0000000000000000e+00" rms="0.0000000000000000e+00" purity="1.9909763336181641e-01" nType="0">
              <Node pos="l" depth="4" NCoef="0" IVar="-1" Cut="0.0000000000000000e+00" cType="1" res="-7.1758004196453840e-05" rms="4.4562894105911255e-01" purity="2.8625112771987915e-01" nType="-99"/>
              <Node pos="r" depth="4" NCoef="0" IVar="3" Cut="1.7548646032810211e-01" cType="1" res="-5.5925831198692322e-02" rms="3.6594763398170471e-01" purity="1.6382457315921783e-01" nType="0">
                <Node pos="l" depth="5" NCoef="0" IVar="-1" Cut="0.0000000000000000e+00" cType="1" res="-1.1794240213930607e-02" rms="3.5192826390266418e-01" purity="1.4930568635463715e-01" nType="-99"/>
                <Node pos="r" depth="5" NCoef="0" IVar="-1" Cut="0.0000000000000000e+00" cType="1" res="-7.2130779735743999e-03" rms="3.7429320812225342e-01" purity="1.7310513556003571e-01" nType="-99"/>
              </Node>
            </Node>
          </Node>
          <Node pos="r" depth="2" NCoef="0" IVar="5" Cut="3.0000000000000000e+00" cType="1" res="-1.8978079780936241e-02" rms="4.7510942816734314e-01" purity="3.9063352346420288e-01" nType="0">
            <Node pos="l" depth="3" NCoef="0" IVar="3" Cut="6.2546205520629883e-01" cType="1" res="-7.1324430406093597e-02" rms="4.4874683022499084e-01" purity="3.0601608753204346e-01" nType="0">
              <Node pos="l" depth="4" NCoef="0" IVar="-1" Cut="0.0000000000000000e+00" cType="1" res="-1.1324612423777580e-02" rms="4.1956177353858948e-01" purity="2.4291539192199707e-01" nType="-99"/>
              <Node pos="r" depth="4" NCoef="0" IVar="-1" Cut="0.0000000000000000e+00" cType="1" res="-3.7410308141261339e-03" rms="4.7319170832633972e-01" purity="3.6712235212326050e-01" nType="-99"/>
            </Node>
            <Node pos="r" depth="3" NCoef="0" IVar="1" Cut="-4.6821840107440948e-02" cType="1" res="-8.2421768456697464e-03" rms="4.8189875483512878e-01" purity="4.1049891710281372e-01" nType="0">
              <Node pos="l" depth="4" NCoef="0" IVar="2" Cut="1.4628327941894531e+02" cType="1" res="2.9744319617748260e-02" rms="4.9233156442642212e-01" purity="4.7458994388580322e-01" nType="0">
                <Node pos="l" depth="5" NCoef="0" IVar="-1" Cut="0.0000000000000000e+00" cType="1" res="4.9732257612049580e-03" rms="4.9376690387725830e-01" purity="5.2259320020675659e-01" nType="-99"/>
                <Node pos="r" depth="5" NCoef="0" IVar="-1" Cut="0.0000000000000000e+00" cType="1" res="3.5474830656312406e-04" rms="4.8961427807807922e-01" purity="4.3415039777755737e-01" nType="-99"/>
              </Node>
              <Node pos="r" depth="4" NCoef="0" IVar="4" Cut="8.6275912821292877e-02" cType="1" res="-2.7403587475419044e-02" rms="4.7539919614791870e-01" purity="3.7816965579986572e-01" nType="0">
                <Node pos="l" depth="5" NCoef="0" IVar="2" Cut="8.0577217102050781e+01" cType="1" res="-4.4311802834272385e-02" rms="4.6763771772384644e-01" purity="3.5257470607757568e-01" nType="0">
                  <Node pos="l" depth="6" NCoef="0" IVar="-1" Cut="0.0000000000000000e+00" cType="1" res="-7.0976791903376579e-04" rms="4.8280939459800720e-01" purity="4.0281373262405396e-01" nType="-99"/>
                  <Node pos="r" depth="6" NCoef="0" IVar="3" Cut="6.1278027296066284e-01" cType="1" res="-6.6437967121601105e-02" rms="4.5683810114860535e-01" purity="3.2232922315597534e-01" nType="0">
                    <Node pos="l" depth="7" NCoef="0" IVar="-1" Cut="0.0000000000000000e+00" cType="1" res="-1.0347341187298298e-02" rms="4.2765700817108154e-01" purity="2.5319841504096985e-01" nType="-99"/>
                    <Node pos="r" depth="7" NCoef="0" IVar="-1" Cut="0.0000000000000000e+00" cType="1" res="-3.5818424075841904e-03" rms="4.8105266690254211e-01" purity="3.8761469721794128e-01" nType="-99"/>
                  </Node>
                </Node>
                <Node pos="r" depth="5" NCoef="0" IVar="2" Cut="2.3997628784179688e+02" cType="1" res="-2.6238034479320049e-03" rms="4.8548766970634460e-01" purity="4.1568025946617126e-01" nType="0">
                  <Node pos="l" depth="6" NCoef="0" IVar="-1" Cut="0.0000000000000000e+00" cType="1" res="2.2014833521097898e-03" rms="4.9466148018836975e-01" purity="4.6146205067634583e-01" nType="-99"/>
                  <Node pos="r" depth="6" NCoef="0" IVar="-1" Cut="0.0000000000000000e+00" cType="1" res="-2.4112148676067591e-03" rms="4.7693106532096863e-01" purity="3.7945160269737244e-01" nType="-99"/>
                </Node>
              </Node>
            </Node>
          </Node>
        </Node>
        <Node pos="r" depth="1" NCoef="0" IVar="0" Cut="7.9670566320419312e-01" cType="1" res="6.3392937183380127e-02" rms="4.4263735413551331e-01" purity="7.0527452230453491e-01" nType="0">
          <Node pos="l" depth="2" NCoef="0" IVar="0" Cut="2.5694675743579865e-02" cType="1" res="6.7476458847522736e-02" rms="4.4121319055557251e-01" purity="7.1257978677749634e-01" nType="0">
            <Node pos="l" depth="3" NCoef="0" IVar="3" Cut="9.0036702156066895e-01" cType="1" res="7.9275831580162048e-02" rms="4.3074643611907959e-01" purity="7.4261188507080078e-01" nType="0">
              <Node pos="l" depth="4" NCoef="0" IVar="1" Cut="2.1781903505325317e-01" cType="1" res="5.5205963551998138e-02" rms="4.6503475308418274e-01" purity="6.7125093936920166e-01" nType="0">
                <Node pos="l" depth="5" NCoef="0" IVar="3" Cut="7.1227264404296875e-01" cType="1" res="6.4695961773395538e-02" rms="4.5708888769149780e-01" purity="6.9636946916580200e-01" nType="0">
                  <Node pos="l" depth="6" NCoef="0" IVar="-1" Cut="0.0000000000000000e+00" cType="1" res="2.0181909203529358e-03" rms="4.9171844124794006e-01" purity="5.8594530820846558e-01" nType="-99"/>
                  <Node pos="r" depth="6" NCoef="0" IVar="1" Cut="1.4030429720878601e-01" cType="1" res="6.8310171365737915e-02" rms="4.5364311337471008e-01" purity="7.0638835430145264e-01" nType="0">
                    <Node pos="l" depth="7" NCoef="0" IVar="-1" Cut="0.0000000000000000e+00" cType="1" res="6.1623621731996536e-03" rms="4.5138123631477356e-01" purity="7.1165245771408081e-01" nType="-99"/>
                    <Node pos="r" depth="7" NCoef="0" IVar="-1" Cut="0.0000000000000000e+00" cType="1" res="2.9915855266153812e-03" rms="4.7311380505561829e-01" purity="6.5667319297790527e-01" nType="-99"/>
                  </Node>
                </Node>
                <Node pos="r" depth="5" NCoef="0" IVar="3" Cut="7.4843174219131470e-01" cType="1" res="3.2237164676189423e-02" rms="4.8295512795448303e-01" purity="6.1045628786087036e-01" nType="0">
                  <Node pos="l" depth="6" NCoef="0" IVar="-1" Cut="0.0000000000000000e+00" cType="1" res="4.5685656368732452e-04" rms="4.9781048297882080e-01" purity="5.1927626132965088e-01" nType="-99"/>
                  <Node pos="r" depth="6" NCoef="0" IVar="3" Cut="8.6113816499710083e-01" cType="1" res="0.0000000000000000e+00" rms="0.0000000000000000e+00" purity="6.3208794593811035e-01" nType="0">
                    <Node pos="l" depth="7" NCoef="0" IVar="-1" Cut="0.0000000000000000e+00" cType="1" res="2.6650915388017893e-03" rms="4.8450341820716858e-01" purity="6.1235266923904419e-01" nType="-99"/>
                    <Node pos="r" depth="7" NCoef="0" IVar="-1" Cut="0.0000000000000000e+00" cType="1" res="4.3354295194149017e-03" rms="4.6821913123130798e-01" purity="6.7107897996902466e-01" nType="-99"/>
                  </Node>
                </Node>
              </Node>
              <Node pos="r" depth="4" NCoef="0" IVar="1" Cut="9.6015524864196777e-01" cType="1" res="9.4321690499782562e-02" rms="4.0712946653366089e-01" purity="7.8721892833709717e-01" nType="0">
                <Node pos="l" depth="5" NCoef="0" IVar="1" Cut="2.5423321127891541e-01" cType="1" res="9.7595341503620148e-02" rms="4.0297275781631470e-01" purity="7.9427176713943481e-01" nType="0">
                  <Node pos="l" depth="6" NCoef="0" IVar="1" Cut="-2.7179309725761414e-01" cType="1" res="1.0217469185590744e-01" rms="3.9542466402053833e-01" purity="8.0511718988418579e-01" nType="0">
                    <Node pos="l" depth="7" NCoef="0" IVar="-1" Cut="0.0000000000000000e+00" cType="1" res="7.2324275970458984e-03" rms="4.0492242574691772e-01" purity="7.9265362024307251e-01" nType="-99"/>
                    <Node pos="r" depth="7" NCoef="0" IVar="-1" Cut="0.0000000000000000e+00" cType="1" res="9.5607163384556770e-03" rms="3.9449474215507507e-01" purity="8.0627971887588501e-01" nType="-99"/>
                  </Node>
                  <Node pos="r" depth="6" NCoef="0" IVar="1" Cut="6.4134383201599121e-01" cType="1" res="0.0000000000000000e+00" rms="0.0000000000000000e+00" purity="7.5530344247817993e-01" nType="0">
                    <Node pos="l" depth="7" NCoef="0" IVar="-1" Cut="0.0000000000000000e+00" cType="1" res="7.5233723036944866e-03" rms="4.2181485891342163e-01" purity="7.6746243238449097e-01" nType="-99"/>
                    <Node pos="r" depth="7" NCoef="0" IVar="-1" Cut="0.0000000000000000e+00" cType="1" res="5.0382856279611588e-03" rms="4.5205733180046082e-01" purity="7.1073728799819946e-01" nType="-99"/>
                  </Node>
                </Node>
                <Node pos="r" depth="5" NCoef="0" IVar="-1" Cut="0.0000000000000000e+00" cType="1" res="2.8098747134208679e-03" rms="4.7219288349151611e-01" purity="6.5964043140411377e-01" nType="-99"/>
              </Node>
            </Node>
            <Node pos="r" depth="3" NCoef="0" IVar="1" Cut="3.6713078618049622e-01" cType="1" res="7.5053512118756771e-03" rms="4.8657110333442688e-01" purity="5.5993962287902832e-01" nType="0">
              <Node pos="l" depth="4" NCoef="0" IVar="2" Cut="1.5046745300292969e+02" cType="1" res="2.7811458334326744e-02" rms="4.8408058285713196e-01" purity="5.9115260839462280e-01" nType="0">
                <Node pos="l" depth="5" NCoef="0" IVar="2" Cut="7.7656433105468750e+01" cType="1" res="3.8305982947349548e-02" rms="4.7987949848175049e-01" purity="6.1480075120925903e-01" nType="0">
                  <Node pos="l" depth="6" NCoef="0" IVar="4" Cut="2.4304047226905823e-02" cType="1" res="5.6848023086786270e-02" rms="4.7263467311859131e-01" purity="6.4681237936019897e-01" nType="0">
                    <Node pos="l" depth="7" NCoef="0" IVar="-1" Cut="0.0000000000000000e+00" cType="1" res="3.0613678973168135e-03" rms="4.7012904286384583e-01" purity="6.4744859933853149e-01" nType="-99"/>
                    <Node pos="r" depth="7" NCoef="0" IVar="-1" Cut="0.0000000000000000e+00" cType="1" res="7.3351841419935226e-03" rms="4.7434449195861816e-01" purity="6.4589339494705200e-01" nType="-99"/>
                  </Node>
                  <Node pos="r" depth="6" NCoef="0" IVar="-1" Cut="0.0000000000000000e+00" cType="1" res="-3.2195472158491611e-04" rms="4.9329954385757446e-01" purity="5.4247170686721802e-01" nType="-99"/>
                </Node>
                <Node pos="r" depth="5" NCoef="0" IVar="-1" Cut="0.0000000000000000e+00" cType="1" res="-3.7454350967891514e-04" rms="4.9526786804199219e-01" purity="5.1927787065505981e-01" nType="-99"/>
              </Node>
              <Node pos="r" depth="4" NCoef="0" IVar="0" Cut="3.2942834496498108e-01" cType="1" res="-6.0951191931962967e-02" rms="4.8869699239730835e-01" purity="4.5471367239952087e-01" nType="0">
                <Node pos="l" depth="5" NCoef="0" IVar="-1" Cut="0.0000000000000000e+00" cType="1" res="-7.1978559717535973e-03" rms="4.8662170767784119e-01" purity="4.5474967360496521e-01" nType="-99"/>
                <Node pos="r" depth="5" NCoef="0" IVar="-1" Cut="0.0000000000000000e+00" cType="1" res="-3.8709419313818216e-03" rms="4.9017131328582764e-01" purity="4.5467969775199890e-01" nType="-99"/>
              </Node>
            </Node>
          </Node>
          <Node pos="r" depth="2" NCoef="0" IVar="-1" Cut="0.0000000000000000e+00" cType="1" res="-1.4352826401591301e-02" rms="4.6364653110504150e-01" purity="3.1881743669509888e-01" nType="-99"/>
        </Node>
      </Node>
    </BinaryTree>
    <BinaryTree type="DecisionTree" boostWeight="1.0000000000000000e+00" itree="31">
      <Node pos="s" depth="0" NCoef="0" IVar="3" Cut="7.7113348245620728e-01" cType="1" res="1.4207971282303333e-02" rms="4.1718587279319763e-01" purity="4.9960833787918091e-01" nType="0">
        <Node pos="l" depth="1" NCoef="0" IVar="3" Cut="5.7216840982437134e-01" cType="1" res="-4.3569222092628479e-02" rms="3.9420071244239807e-01" purity="2.6178547739982605e-01" nType="0">
          <Node pos="l" depth="2" NCoef="0" IVar="4" Cut="1.1073324084281921e-01" cType="1" res="-6.6634051501750946e-02" rms="3.2833203673362732e-01" purity="1.3888967037200928e-01" nType="0">
            <Node pos="l" depth="3" NCoef="0" IVar="3" Cut="5.1689696311950684e-01" cType="1" res="-7.6165258884429932e-02" rms="2.9820689558982849e-01" purity="1.1190328747034073e-01" nType="0">
              <Node pos="l" depth="4" NCoef="0" IVar="2" Cut="6.3272811889648438e+01" cType="1" res="-8.1410408020019531e-02" rms="2.5990948081016541e-01" purity="7.7851898968219757e-02" nType="0">
                <Node pos="l" depth="5" NCoef="0" IVar="4" Cut="3.5808369517326355e-02" cType="1" res="-5.5878512561321259e-02" rms="3.0615970492362976e-01" purity="1.1265918612480164e-01" nType="0">
                  <Node pos="l" depth="6" NCoef="0" IVar="-1" Cut="0.0000000000000000e+00" cType="1" res="-1.4851568266749382e-02" rms="2.8261941671371460e-01" purity="9.2321693897247314e-02" nType="-99"/>
                  <Node pos="r" depth="6" NCoef="0" IVar="-1" Cut="0.0000000000000000e+00" cType="1" res="-6.9862036034464836e-03" rms="3.3137795329093933e-01" purity="1.3731826841831207e-01" nType="-99"/>
                </Node>
                <Node pos="r" depth="5" NCoef="0" IVar="4" Cut="7.5361795723438263e-02" cType="1" res="-8.6613669991493225e-02" rms="2.4911341071128845e-01" purity="7.0758365094661713e-02" nType="0">
                  <Node pos="l" depth="6" NCoef="0" IVar="3" Cut="2.6728439331054688e-01" cType="1" res="-9.6544928848743439e-02" rms="2.2413456439971924e-01" purity="5.5647380650043488e-02" nType="0">
                    <Node pos="l" depth="7" NCoef="0" IVar="-1" Cut="0.0000000000000000e+00" cType="1" res="-2.3694528266787529e-02" rms="1.8009953200817108e-01" purity="3.4553036093711853e-02" nType="-99"/>
                    <Node pos="r" depth="7" NCoef="0" IVar="-1" Cut="0.0000000000000000e+00" cType="1" res="-2.0313132554292679e-02" rms="2.3647595942020416e-01" purity="6.2478404492139816e-02" nType="-99"/>
                  </Node>
                  <Node pos="r" depth="6" NCoef="0" IVar="2" Cut="2.9095849609375000e+02" cType="1" res="-7.6465271413326263e-02" rms="2.7190694212913513e-01" purity="8.6199745535850525e-02" nType="0">
                    <Node pos="l" depth="7" NCoef="0" IVar="-1" Cut="0.0000000000000000e+00" cType="1" res="-1.3338992372155190e-02" rms="2.9231739044189453e-01" purity="1.0171531885862350e-01" nType="-99"/>
                    <Node pos="r" depth="7" NCoef="0" IVar="-1" Cut="0.0000000000000000e+00" cType="1" res="-2.0044485107064247e-02" rms="2.3105756938457489e-01" purity="5.9358384460210800e-02" nType="-99"/>
                  </Node>
                </Node>
              </Node>
              <Node pos="r" depth="4" NCoef="0" IVar="0" Cut="6.9746816158294678e-01" cType="1" res="-5.2005890756845474e-02" rms="4.3205139040946960e-01" purity="2.6874536275863647e-01" nType="0">
                <Node pos="l" depth="5" NCoef="0" IVar="-1" Cut="0.0000000000000000e+00" cType="1" res="-3.3169975504279137e-03" rms="4.5809924602508545e-01" purity="3.1986144185066223e-01" nType="-99"/>
                <Node pos="r" depth="5" NCoef="0" IVar="-1" Cut="0.0000000000000000e+00" cType="1" res="-1.0817536152899265e-02" rms="3.8319176435470581e-01" purity="1.8471524119377136e-01" nType="-99"/>
              </Node>
            </Node>
            <Node pos="r" depth="3" NCoef="0" IVar="3" Cut="4.0608659386634827e-01" cType="1" res="-5.6461445987224579e-02" rms="3.5741597414016724e-01" purity="1.6769209504127502e-01" nType="0">
              <Node pos="l" depth="4" NCoef="0" IVar="5" Cut="4.0000000000000000e+00" cType="1" res="1.0315818339586258e-01" rms="2.2343130409717560e-01" purity="1.1953525245189667e-01" nType="0">
                <Node pos="l" depth="5" NCoef="0" IVar="-1" Cut="0.0000000000000000e+00" cType="1" res="-1.9809538498520851e-03" rms="4.1120764613151550e-01" purity="2.3236265778541565e-01" nType="-99"/>
                <Node pos="r" depth="5" NCoef="0" IVar="4" Cut="2.0740719139575958e-01" cType="1" res="-7.3775179684162140e-02" rms="2.9640120267868042e-01" purity="1.0270936787128448e-01" nType="0">
                  <Node pos="l" depth="6" NCoef="0" IVar="3" Cut="2.0965132117271423e-01" cType="1" res="-8.1296399235725403e-02" rms="2.5324705243110657e-01" purity="7.1344867348670959e-02" nType="0">
                    <Node pos="l" depth="7" NCoef="0" IVar="-1" Cut="0.0000000000000000e+00" cType="1" res="-2.7923705056309700e-02" rms="1.6955885291099548e-01" purity="3.0232831835746765e-02" nType="-99"/>
                    <Node pos="r" depth="7" NCoef="0" IVar="-1" Cut="0.0000000000000000e+00" cType="1" res="-1.6193686053156853e-02" rms="2.7131015062332153e-01" purity="8.2551330327987671e-02" nType="-99"/>
                  </Node>
                  <Node pos="r" depth="6" NCoef="0" IVar="3" Cut="1.6285568475723267e-01" cType="1" res="-5.9938557446002960e-02" rms="3.6220791935920715e-01" purity="1.6040994226932526e-01" nType="0">
                    <Node pos="l" depth="7" NCoef="0" IVar="-1" Cut="0.0000000000000000e+00" cType="1" res="-7.4013737030327320e-03" rms="3.7340241670608521e-01" purity="1.7533683776855469e-01" nType="-99"/>
                    <Node pos="r" depth="7" NCoef="0" IVar="-1" Cut="0.0000000000000000e+00" cType="1" res="-1.0745679028332233e-02" rms="3.5601064562797546e-01" purity="1.5259283781051636e-01" nType="-99"/>
                  </Node>
                </Node>
              </Node>
              <Node pos="r" depth="4" NCoef="0" IVar="2" Cut="2.9128195190429688e+02" cType="1" res="-3.5702209919691086e-02" rms="4.3580374121665955e-01" purity="2.7217978239059448e-01" nType="0">
                <Node pos="l" depth="5" NCoef="0" IVar="3" Cut="4.8645088076591492e-01" cType="1" res="9.8285533022135496e-04" rms="4.5858681201934814e-01" purity="3.2377412915229797e-01" nType="0">
                  <Node pos="l" depth="6" NCoef="0" IVar="-1" Cut="0.0000000000000000e+00" cType="1" res="-1.5037371776998043e-03" rms="4.3548989295959473e-01" purity="2.6391583681106567e-01" nType="-99"/>
                  <Node pos="r" depth="6" NCoef="0" IVar="-1" Cut="0.0000000000000000e+00" cType="1" res="1.3760770671069622e-03" rms="4.8032158613204956e-01" purity="3.8395801186561584e-01" nType="-99"/>
                </Node>
                <Node pos="r" depth="5" NCoef="0" IVar="0" Cut="2.9042956233024597e-01" cType="1" res="-6.1941344290971756e-02" rms="4.1677227616310120e-01" purity="2.3527672886848450e-01" nType="0">
                  <Node pos="l" depth="6" NCoef="0" IVar="-1" Cut="0.0000000000000000e+00" cType="1" res="-4.0142866782844067e-03" rms="4.5822682976722717e-01" purity="3.0751907825469971e-01" nType="-99"/>
                  <Node pos="r" depth="6" NCoef="0" IVar="-1" Cut="0.0000000000000000e+00" cType="1" res="-1.1050637811422348e-02" rms="3.8051638007164001e-01" purity="1.7937833070755005e-01" nType="-99"/>
                </Node>
              </Node>
            </Node>
          </Node>
          <Node pos="r" depth="2" NCoef="0" IVar="1" Cut="5.4197620600461960e-02" cType="1" res="-3.6401282995939255e-03" rms="4.8504549264907837e-01" purity="4.7453880310058594e-01" nType="0">
            <Node pos="l" depth="3" NCoef="0" IVar="0" Cut="4.3125379085540771e-01" cType="1" res="1.8561882898211479e-02" rms="4.8862525820732117e-01" purity="5.2301245927810669e-01" nType="0">
              <Node pos="l" depth="4" NCoef="0" IVar="5" Cut="3.0000000000000000e+00" cType="1" res="2.1410148590803146e-02" rms="3.7086427211761475e-01" purity="5.5903041362762451e-01" nType="0">
                <Node pos="l" depth="5" NCoef="0" IVar="-1" Cut="0.0000000000000000e+00" cType="1" res="3.1803888850845397e-04" rms="4.9457833170890808e-01" purity="5.4220938682556152e-01" nType="-99"/>
                <Node pos="r" depth="5" NCoef="0" IVar="2" Cut="1.4628327941894531e+02" cType="1" res="3.5800617188215256e-02" rms="4.8902127146720886e-01" purity="5.6487274169921875e-01" nType="0">
                  <Node pos="l" depth="6" NCoef="0" IVar="4" Cut="5.7558864355087280e-02" cType="1" res="5.1795858889818192e-02" rms="4.8590603470802307e-01" purity="5.9677368402481079e-01" nType="0">
                    <Node pos="l" depth="7" NCoef="0" IVar="-1" Cut="0.0000000000000000e+00" cType="1" res="2.3018065840005875e-03" rms="4.9031499028205872e-01" purity="5.7183837890625000e-01" nType="-99"/>
                    <Node pos="r" depth="7" NCoef="0" IVar="-1" Cut="0.0000000000000000e+00" cType="1" res="6.9211171939969063e-03" rms="4.7698780894279480e-01" purity="6.3333564996719360e-01" nType="-99"/>
                  </Node>
                  <Node pos="r" depth="6" NCoef="0" IVar="3" Cut="6.6200929880142212e-01" cType="1" res="1.6411494463682175e-02" rms="4.9207445979118347e-01" purity="5.2620309591293335e-01" nType="0">
                    <Node pos="l" depth="7" NCoef="0" IVar="-1" Cut="0.0000000000000000e+00" cType="1" res="-1.5704575343988836e-04" rms="4.9659249186515808e-01" purity="4.5650973916053772e-01" nType="-99"/>
                    <Node pos="r" depth="7" NCoef="0" IVar="-1" Cut="0.0000000000000000e+00" cType="1" res="2.8567507397383451e-03" rms="4.8760288953781128e-01" purity="5.8631676435470581e-01" nType="-99"/>
                  </Node>
                </Node>
              </Node>
              <Node pos="r" depth="4" NCoef="0" IVar="-1" Cut="0.0000000000000000e+00" cType="1" res="-1.5938958385959268e-03" rms="4.7885790467262268e-01" purity="3.8075447082519531e-01" nType="-99"/>
            </Node>
            <Node pos="r" depth="3" NCoef="0" IVar="0" Cut="5.7583469152450562e-01" cType="1" res="-2.4436267092823982e-02" rms="4.8073917627334595e-01" purity="4.2913457751274109e-01" nType="0">
              <Node pos="l" depth="4" NCoef="0" IVar="0" Cut="1.8575079739093781e-02" cType="1" res="-1.4321518130600452e-02" rms="4.8843368887901306e-01" purity="4.5842334628105164e-01" nType="0">
                <Node pos="l" depth="5" NCoef="0" IVar="2" Cut="2.0496136474609375e+02" cType="1" res="1.5713045373558998e-02" rms="4.9385714530944824e-01" purity="5.2738040685653687e-01" nType="0">
                  <Node pos="l" depth="6" NCoef="0" IVar="2" Cut="9.9510345458984375e+01" cType="1" res="2.9735006392002106e-02" rms="4.9241834878921509e-01" purity="5.5682736635208130e-01" nType="0">
                    <Node pos="l" depth="7" NCoef="0" IVar="-1" Cut="0.0000000000000000e+00" cType="1" res="3.1128721311688423e-03" rms="4.9058660864830017e-01" purity="5.7282835245132446e-01" nType="-99"/>
                    <Node pos="r" depth="7" NCoef="0" IVar="-1" Cut="0.0000000000000000e+00" cType="1" res="1.5721318777650595e-03" rms="4.9409425258636475e-01" purity="5.4018276929855347e-01" nType="-99"/>
                  </Node>
                  <Node pos="r" depth="6" NCoef="0" IVar="-1" Cut="0.0000000000000000e+00" cType="1" res="-3.6712992005050182e-04" rms="4.9520784616470337e-01" purity="4.8571947216987610e-01" nType="-99"/>
                </Node>
                <Node pos="r" depth="5" NCoef="0" IVar="4" Cut="5.9380710124969482e-02" cType="1" res="-4.1217505931854248e-02" rms="4.8193937540054321e-01" purity="3.9667221903800964e-01" nType="0">
                  <Node pos="l" depth="6" NCoef="0" IVar="2" Cut="8.8574363708496094e+01" cType="1" res="-5.7441081851720810e-02" rms="4.7857728600502014e-01" purity="3.8842484354972839e-01" nType="0">
                    <Node pos="l" depth="7" NCoef="0" IVar="-1" Cut="0.0000000000000000e+00" cType="1" res="-3.3957725390791893e-03" rms="4.8375192284584045e-01" purity="4.1614130139350891e-01" nType="-99"/>
                    <Node pos="r" depth="7" NCoef="0" IVar="-1" Cut="0.0000000000000000e+00" cType="1" res="-7.5620133429765701e-03" rms="4.7176346182823181e-01" purity="3.5748842358589172e-01" nType="-99"/>
                  </Node>
                  <Node pos="r" depth="6" NCoef="0" IVar="0" Cut="3.6620980501174927e-01" cType="1" res="-2.3439059033989906e-02" rms="4.8497414588928223e-01" purity="4.0571004152297974e-01" nType="0">
                    <Node pos="l" depth="7" NCoef="0" IVar="-1" Cut="0.0000000000000000e+00" cType="1" res="-1.9624279811978340e-03" rms="4.9117800593376160e-01" purity="4.3759337067604065e-01" nType="-99"/>
                    <Node pos="r" depth="7" NCoef="0" IVar="-1" Cut="0.0000000000000000e+00" cType="1" res="-2.4151126854121685e-03" rms="4.7859948873519897e-01" purity="3.7341463565826416e-01" nType="-99"/>
                  </Node>
                </Node>
              </Node>
              <Node pos="r" depth="4" NCoef="0" IVar="-1" Cut="0.0000000000000000e+00" cType="1" res="-9.3940347433090210e-03" rms="4.2654490470886230e-01" purity="2.5297278165817261e-01" nType="-99"/>
            </Node>
          </Node>
        </Node>
        <Node pos="r" depth="1" NCoef="0" IVar="1" Cut="5.0322329998016357e-01" cType="1" res="7.2115004062652588e-02" rms="4.3131995201110840e-01" purity="7.3796570301055908e-01" nType="0">
          <Node pos="l" depth="2" NCoef="0" IVar="5" Cut="2.0000000000000000e+00" cType="1" res="8.0876208841800690e-02" rms="4.2351141571998596e-01" purity="7.5625342130661011e-01" nType="0">
            <Node pos="l" depth="3" NCoef="0" IVar="3" Cut="9.7327482700347900e-01" cType="1" res="9.2799574136734009e-02" rms="4.0303015708923340e-01" purity="7.9204571247100830e-01" nType="0">
              <Node pos="l" depth="4" NCoef="0" IVar="3" Cut="9.5388102531433105e-01" cType="1" res="8.2219071686267853e-02" rms="4.2376607656478882e-01" purity="7.6166790723800659e-01" nType="0">
                <Node pos="l" depth="5" NCoef="0" IVar="-1" Cut="0.0000000000000000e+00" cType="1" res="6.6362097859382629e-03" rms="4.3279251456260681e-01" purity="7.4732577800750732e-01" nType="-99"/>
                <Node pos="r" depth="5" NCoef="0" IVar="-1" Cut="0.0000000000000000e+00" cType="1" res="7.7017461881041527e-03" rms="4.1434186697006226e-01" purity="7.7613383531570435e-01" nType="-99"/>
              </Node>
              <Node pos="r" depth="4" NCoef="0" IVar="3" Cut="1.0336216688156128e+00" cType="1" res="9.4034448266029358e-02" rms="4.0052184462547302e-01" purity="7.9559117555618286e-01" nType="0">
                <Node pos="l" depth="5" NCoef="0" IVar="3" Cut="9.9858450889587402e-01" cType="1" res="9.4932124018669128e-02" rms="3.9944347739219666e-01" purity="7.9767978191375732e-01" nType="0">
                  <Node pos="l" depth="6" NCoef="0" IVar="3" Cut="9.9205589294433594e-01" cType="1" res="8.3958797156810760e-02" rms="4.0836313366889954e-01" purity="7.8459924459457397e-01" nType="0">
                    <Node pos="l" depth="7" NCoef="0" IVar="-1" Cut="0.0000000000000000e+00" cType="1" res="7.1843857876956463e-03" rms="4.1366931796073914e-01" purity="7.7682089805603027e-01" nType="-99"/>
                    <Node pos="r" depth="7" NCoef="0" IVar="-1" Cut="0.0000000000000000e+00" cType="1" res="8.2573546096682549e-03" rms="4.0469312667846680e-01" purity="7.8983777761459351e-01" nType="-99"/>
                  </Node>
                  <Node pos="r" depth="6" NCoef="0" IVar="3" Cut="1.0064941644668579e+00" cType="1" res="1.0420189052820206e-01" rms="3.9151075482368469e-01" purity="8.0872958898544312e-01" nType="0">
                    <Node pos="l" depth="7" NCoef="0" IVar="-1" Cut="0.0000000000000000e+00" cType="1" res="8.9321816340088844e-03" rms="3.9383745193481445e-01" purity="8.0503767728805542e-01" nType="-99"/>
                    <Node pos="r" depth="7" NCoef="0" IVar="-1" Cut="0.0000000000000000e+00" cType="1" res="9.9068237468600273e-03" rms="3.8732844591140747e-01" purity="8.1512820720672607e-01" nType="-99"/>
                  </Node>
                </Node>
                <Node pos="r" depth="5" NCoef="0" IVar="-1" Cut="0.0000000000000000e+00" cType="1" res="7.3287156410515308e-03" rms="4.1191539168357849e-01" purity="7.7292943000793457e-01" nType="-99"/>
              </Node>
            </Node>
            <Node pos="r" depth="3" NCoef="0" IVar="3" Cut="8.3748286962509155e-01" cType="1" res="6.1609338968992233e-02" rms="4.5394879579544067e-01" purity="6.9864445924758911e-01" nType="0">
              <Node pos="l" depth="4" NCoef="0" IVar="4" Cut="4.3417979031801224e-02" cType="1" res="5.4821416735649109e-02" rms="4.6918666362762451e-01" purity="6.6301667690277100e-01" nType="0">
                <Node pos="l" depth="5" NCoef="0" IVar="4" Cut="2.5403030216693878e-02" cType="1" res="3.2253652811050415e-02" rms="4.7701239585876465e-01" purity="6.3974368572235107e-01" nType="0">
                  <Node pos="l" depth="6" NCoef="0" IVar="-1" Cut="0.0000000000000000e+00" cType="1" res="5.1268481183797121e-04" rms="4.8328569531440735e-01" purity="6.1621183156967163e-01" nType="-99"/>
                  <Node pos="r" depth="6" NCoef="0" IVar="-1" Cut="0.0000000000000000e+00" cType="1" res="4.0692668408155441e-03" rms="4.7251433134078979e-01" purity="6.5382331609725952e-01" nType="-99"/>
                </Node>
                <Node pos="r" depth="5" NCoef="0" IVar="2" Cut="1.3521887207031250e+02" cType="1" res="7.2083689272403717e-02" rms="4.6236854791641235e-01" purity="6.8081837892532349e-01" nType="0">
                  <Node pos="l" depth="6" NCoef="0" IVar="-1" Cut="0.0000000000000000e+00" cType="1" res="6.6417390480637550e-03" rms="4.5394897460937500e-01" purity="7.0233660936355591e-01" nType="-99"/>
                  <Node pos="r" depth="6" NCoef="0" IVar="-1" Cut="0.0000000000000000e+00" cType="1" res="5.0752614624798298e-03" rms="4.6999385952949524e-01" purity="6.5997982025146484e-01" nType="-99"/>
                </Node>
              </Node>
              <Node pos="r" depth="4" NCoef="0" IVar="2" Cut="1.7581622314453125e+02" cType="1" res="6.6348493099212646e-02" rms="4.4293785095214844e-01" purity="7.2351878881454468e-01" nType="0">
                <Node pos="l" depth="5" NCoef="0" IVar="2" Cut="9.6615272521972656e+01" cType="1" res="6.9427303969860077e-02" rms="4.3902239203453064e-01" purity="7.3473924398422241e-01" nType="0">
                  <Node pos="l" depth="6" NCoef="0" IVar="4" Cut="2.1266374737024307e-02" cType="1" res="7.7109813690185547e-02" rms="4.3475019931793213e-01" purity="7.4303674697875977e-01" nType="0">
                    <Node pos="l" depth="7" NCoef="0" IVar="-1" Cut="0.0000000000000000e+00" cType="1" res="5.0037056207656860e-03" rms="4.4770461320877075e-01" purity="7.1695625782012939e-01" nType="-99"/>
                    <Node pos="r" depth="7" NCoef="0" IVar="-1" Cut="0.0000000000000000e+00" cType="1" res="7.9317353665828705e-03" rms="4.2765656113624573e-01" purity="7.5592571496963501e-01" nType="-99"/>
                  </Node>
                  <Node pos="r" depth="6" NCoef="0" IVar="3" Cut="8.8189655542373657e-01" cType="1" res="5.1357325166463852e-02" rms="4.4839212298393250e-01" purity="7.1522259712219238e-01" nType="0">
                    <Node pos="l" depth="7" NCoef="0" IVar="-1" Cut="0.0000000000000000e+00" cType="1" res="4.0590269491076469e-03" rms="4.5758697390556335e-01" purity="6.9711107015609741e-01" nType="-99"/>
                    <Node pos="r" depth="7" NCoef="0" IVar="-1" Cut="0.0000000000000000e+00" cType="1" res="5.9496369212865829e-03" rms="4.3659460544586182e-01" purity="7.3772078752517700e-01" nType="-99"/>
                  </Node>
                </Node>
                <Node pos="r" depth="5" NCoef="0" IVar="-1" Cut="0.0000000000000000e+00" cType="1" res="4.1903778910636902e-03" rms="4.6870961785316467e-01" purity="6.4547550678253174e-01" nType="-99"/>
              </Node>
            </Node>
          </Node>
          <Node pos="r" depth="2" NCoef="0" IVar="5" Cut="2.0000000000000000e+00" cType="1" res="1.8526054918766022e-02" rms="4.7281584143638611e-01" purity="6.2452226877212524e-01" nType="0">
            <Node pos="l" depth="3" NCoef="0" IVar="-1" Cut="0.0000000000000000e+00" cType="1" res="3.2093883492052555e-03" rms="4.5987221598625183e-01" purity="6.7881929874420166e-01" nType="-99"/>
            <Node pos="r" depth="3" NCoef="0" IVar="3" Cut="8.4176850318908691e-01" cType="1" res="-1.2818356044590473e-02" rms="4.9061703681945801e-01" purity="5.4403120279312134e-01" nType="0">
              <Node pos="l" depth="4" NCoef="0" IVar="-1" Cut="0.0000000000000000e+00" cType="1" res="-1.2977105798199773e-03" rms="4.9456462264060974e-01" purity="5.1707410812377930e-01" nType="-99"/>
              <Node pos="r" depth="4" NCoef="0" IVar="-1" Cut="0.0000000000000000e+00" cType="1" res="-8.7432353757321835e-04" rms="4.8708045482635498e-01" purity="5.6787854433059692e-01" nType="-99"/>
            </Node>
          </Node>
        </Node>
      </Node>
    </BinaryTree>
    <BinaryTree type="DecisionTree" boostWeight="1.0000000000000000e+00" itree="32">
      <Node pos="s" depth="0" NCoef="0" IVar="3" Cut="6.7654424905776978e-01" cType="1" res="1.4179702848196030e-02" rms="4.1700711846351624e-01" purity="5.0009489059448242e-01" nType="0">
        <Node pos="l" depth="1" NCoef="0" IVar="3" Cut="5.6754320859909058e-01" cType="1" res="-5.1974259316921234e-02" rms="3.6789891123771667e-01" purity="1.9782502949237823e-01" nType="0">
          <Node pos="l" depth="2" NCoef="0" IVar="4" Cut="2.1308937668800354e-01" cType="1" res="-6.3449524343013763e-02" rms="3.2635593414306641e-01" purity="1.3599708676338196e-01" nType="0">
            <Node pos="l" depth="3" NCoef="0" IVar="3" Cut="4.2135086655616760e-01" cType="1" res="-6.6877894103527069e-02" rms="3.1676709651947021e-01" purity="1.2768952548503876e-01" nType="0">
              <Node pos="l" depth="4" NCoef="0" IVar="4" Cut="1.4445869624614716e-01" cType="1" res="-7.5364030897617340e-02" rms="2.4507172405719757e-01" purity="6.6950581967830658e-02" nType="0">
                <Node pos="l" depth="5" NCoef="0" IVar="3" Cut="1.6374467313289642e-01" cType="1" res="-7.9283520579338074e-02" rms="2.1873736381530762e-01" purity="5.1761023700237274e-02" nType="0">
                  <Node pos="l" depth="6" NCoef="0" IVar="-1" Cut="0.0000000000000000e+00" cType="1" res="-1.8364718183875084e-02" rms="2.2440427541732788e-01" purity="5.5031672120094299e-02" nType="-99"/>
                  <Node pos="r" depth="6" NCoef="0" IVar="0" Cut="1.0641700029373169e+00" cType="1" res="-8.0762714147567749e-02" rms="2.1805869042873383e-01" purity="5.1403887569904327e-02" nType="0">
                    <Node pos="l" depth="7" NCoef="0" IVar="-1" Cut="0.0000000000000000e+00" cType="1" res="-9.8602483049035072e-03" rms="3.1413862109184265e-01" purity="1.1382290720939636e-01" nType="-99"/>
                    <Node pos="r" depth="7" NCoef="0" IVar="-1" Cut="0.0000000000000000e+00" cType="1" res="-2.2645335644483566e-02" rms="1.9638401269912720e-01" purity="4.0671575814485550e-02" nType="-99"/>
                  </Node>
                </Node>
                <Node pos="r" depth="5" NCoef="0" IVar="2" Cut="2.6793093872070312e+02" cType="1" res="-6.4382053911685944e-02" rms="3.0678832530975342e-01" purity="1.0951003432273865e-01" nType="0">
                  <Node pos="l" depth="6" NCoef="0" IVar="-1" Cut="0.0000000000000000e+00" cType="1" res="-6.6677085123956203e-03" rms="3.4551790356636047e-01" purity="1.4465065300464630e-01" nType="-99"/>
                  <Node pos="r" depth="6" NCoef="0" IVar="3" Cut="2.8958681225776672e-01" cType="1" res="-7.6272457838058472e-02" rms="2.8852239251136780e-01" purity="9.5059745013713837e-02" nType="0">
                    <Node pos="l" depth="7" NCoef="0" IVar="-1" Cut="0.0000000000000000e+00" cType="1" res="-1.5547638759016991e-02" rms="2.6584166288375854e-01" purity="8.0734655261039734e-02" nType="-99"/>
                    <Node pos="r" depth="7" NCoef="0" IVar="-1" Cut="0.0000000000000000e+00" cType="1" res="-1.4901435002684593e-02" rms="3.0844935774803162e-01" purity="1.0878861695528030e-01" nType="-99"/>
                  </Node>
                </Node>
              </Node>
              <Node pos="r" depth="4" NCoef="0" IVar="1" Cut="9.7216063737869263e-01" cType="1" res="-5.3845789283514023e-02" rms="4.0239363908767700e-01" purity="2.2096593677997589e-01" nType="0">
                <Node pos="l" depth="5" NCoef="0" IVar="1" Cut="1.1658262461423874e-01" cType="1" res="-4.8136182129383087e-02" rms="4.1014820337295532e-01" purity="2.3211717605590820e-01" nType="0">
                  <Node pos="l" depth="6" NCoef="0" IVar="2" Cut="1.4993054199218750e+02" cType="1" res="-2.6579430326819420e-02" rms="4.3628960847854614e-01" purity="2.7564877271652222e-01" nType="0">
                    <Node pos="l" depth="7" NCoef="0" IVar="-1" Cut="0.0000000000000000e+00" cType="1" res="-8.6184008978307247e-05" rms="4.5248392224311829e-01" purity="3.1160905957221985e-01" nType="-99"/>
                    <Node pos="r" depth="7" NCoef="0" IVar="-1" Cut="0.0000000000000000e+00" cType="1" res="-4.9867373891174793e-03" rms="4.2594632506370544e-01" purity="2.5488182902336121e-01" nType="-99"/>
                  </Node>
                  <Node pos="r" depth="6" NCoef="0" IVar="0" Cut="5.5891966819763184e-01" cType="1" res="-7.0619858801364899e-02" rms="3.7967467308044434e-01" purity="1.8671374022960663e-01" nType="0">
                    <Node pos="l" depth="7" NCoef="0" IVar="-1" Cut="0.0000000000000000e+00" cType="1" res="-5.5948626250028610e-03" rms="4.4108662009239197e-01" purity="2.7421060204505920e-01" nType="-99"/>
                    <Node pos="r" depth="7" NCoef="0" IVar="-1" Cut="0.0000000000000000e+00" cType="1" res="-1.2741762213408947e-02" rms="3.3629134297370911e-01" purity="1.3345077633857727e-01" nType="-99"/>
                  </Node>
                </Node>
                <Node pos="r" depth="5" NCoef="0" IVar="-1" Cut="0.0000000000000000e+00" cType="1" res="-1.7064156010746956e-02" rms="3.1678056716918945e-01" purity="1.1750159412622452e-01" nType="-99"/>
              </Node>
            </Node>
            <Node pos="r" depth="3" NCoef="0" IVar="5" Cut="5.0000000000000000e+00" cType="1" res="1.5341609716415405e-01" rms="1.1146257072687149e-01" purity="1.9838392734527588e-01" nType="0">
              <Node pos="l" depth="4" NCoef="0" IVar="-1" Cut="0.0000000000000000e+00" cType="1" res="5.2790262270718813e-04" rms="4.4764563441276550e-01" purity="2.9315754771232605e-01" nType="-99"/>
              <Node pos="r" depth="4" NCoef="0" IVar="2" Cut="6.1678045654296875e+02" cType="1" res="-5.4150994867086411e-02" rms="3.6362528800964355e-01" purity="1.6134946048259735e-01" nType="0">
                <Node pos="l" depth="5" NCoef="0" IVar="-1" Cut="0.0000000000000000e+00" cType="1" res="-7.4000107124447823e-03" rms="3.6984622478485107e-01" purity="1.6766370832920074e-01" nType="-99"/>
                <Node pos="r" depth="5" NCoef="0" IVar="-1" Cut="0.0000000000000000e+00" cType="1" res="-9.7246682271361351e-03" rms="3.5878363251686096e-01" purity="1.5667256712913513e-01" nType="-99"/>
              </Node>
            </Node>
          </Node>
          <Node pos="r" depth="2" NCoef="0" IVar="5" Cut="3.0000000000000000e+00" cType="1" res="-1.3178051449358463e-02" rms="4.7975367307662964e-01" purity="4.0547490119934082e-01" nType="0">
            <Node pos="l" depth="3" NCoef="0" IVar="-1" Cut="0.0000000000000000e+00" cType="1" res="-6.2006195075809956e-03" rms="4.5392224192619324e-01" purity="3.1818717718124390e-01" nType="-99"/>
            <Node pos="r" depth="3" NCoef="0" IVar="2" Cut="1.4579931640625000e+02" cType="1" res="-4.5342353405430913e-04" rms="4.8566153645515442e-01" purity="4.2847988009452820e-01" nType="0">
              <Node pos="l" depth="4" NCoef="0" IVar="4" Cut="6.5637744963169098e-02" cType="1" res="2.1055284887552261e-02" rms="4.9030360579490662e-01" purity="4.6401789784431458e-01" nType="0">
                <Node pos="l" depth="5" NCoef="0" IVar="2" Cut="6.1671009063720703e+01" cType="1" res="-5.8242953382432461e-03" rms="4.8543876409530640e-01" purity="4.2149528861045837e-01" nType="0">
                  <Node pos="l" depth="6" NCoef="0" IVar="-1" Cut="0.0000000000000000e+00" cType="1" res="1.8267147243022919e-03" rms="4.9018174409866333e-01" purity="4.5414346456527710e-01" nType="-99"/>
                  <Node pos="r" depth="6" NCoef="0" IVar="-1" Cut="0.0000000000000000e+00" cType="1" res="-3.0890856869518757e-03" rms="4.7918328642845154e-01" purity="3.8897231221199036e-01" nType="-99"/>
                </Node>
                <Node pos="r" depth="5" NCoef="0" IVar="-1" Cut="0.0000000000000000e+00" cType="1" res="5.1956344395875931e-03" rms="4.9499887228012085e-01" purity="5.3298038244247437e-01" nType="-99"/>
              </Node>
              <Node pos="r" depth="4" NCoef="0" IVar="4" Cut="1.0361227393150330e-01" cType="1" res="-1.9995659589767456e-02" rms="4.8057115077972412e-01" purity="3.9619109034538269e-01" nType="0">
                <Node pos="l" depth="5" NCoef="0" IVar="3" Cut="6.2027430534362793e-01" cType="1" res="-3.2365571707487106e-02" rms="4.7567978501319885e-01" purity="3.7312772870063782e-01" nType="0">
                  <Node pos="l" depth="6" NCoef="0" IVar="-1" Cut="0.0000000000000000e+00" cType="1" res="-5.5245184339582920e-03" rms="4.5921316742897034e-01" purity="3.1743296980857849e-01" nType="-99"/>
                  <Node pos="r" depth="6" NCoef="0" IVar="-1" Cut="0.0000000000000000e+00" cType="1" res="-1.3051090063527226e-03" rms="4.8855859041213989e-01" purity="4.2073041200637817e-01" nType="-99"/>
                </Node>
                <Node pos="r" depth="5" NCoef="0" IVar="-1" Cut="0.0000000000000000e+00" cType="1" res="-5.9755118854809552e-05" rms="4.8749929666519165e-01" purity="4.3229132890701294e-01" nType="-99"/>
              </Node>
            </Node>
          </Node>
        </Node>
        <Node pos="r" depth="1" NCoef="0" IVar="0" Cut="7.9670566320419312e-01" cType="1" res="5.9309542179107666e-02" rms="4.4177833199501038e-01" purity="7.0630162954330444e-01" nType="0">
          <Node pos="l" depth="2" NCoef="0" IVar="0" Cut="2.5694627314805984e-02" cType="1" res="6.3597932457923889e-02" rms="4.4034048914909363e-01" purity="7.1416974067687988e-01" nType="0">
            <Node pos="l" depth="3" NCoef="0" IVar="3" Cut="9.7551876306533813e-01" cType="1" res="7.3998592793941498e-02" rms="4.3028229475021362e-01" purity="7.4317854642868042e-01" nType="0">
              <Node pos="l" depth="4" NCoef="0" IVar="3" Cut="7.9227918386459351e-01" cType="1" res="5.4791435599327087e-02" rms="4.5803448557853699e-01" purity="6.8731814622879028e-01" nType="0">
                <Node pos="l" depth="5" NCoef="0" IVar="2" Cut="2.0329711914062500e+02" cType="1" res="3.1870268285274506e-02" rms="4.8374348878860474e-01" purity="6.1071819067001343e-01" nType="0">
                  <Node pos="l" depth="6" NCoef="0" IVar="4" Cut="6.5978214144706726e-02" cType="1" res="4.3447185307741165e-02" rms="4.7908923029899597e-01" purity="6.3024878501892090e-01" nType="0">
                    <Node pos="l" depth="7" NCoef="0" IVar="-1" Cut="0.0000000000000000e+00" cType="1" res="2.3198705166578293e-03" rms="4.8197788000106812e-01" purity="6.1825048923492432e-01" nType="-99"/>
                    <Node pos="r" depth="7" NCoef="0" IVar="-1" Cut="0.0000000000000000e+00" cType="1" res="5.3482460789382458e-03" rms="4.7292131185531616e-01" purity="6.5076887607574463e-01" nType="-99"/>
                  </Node>
                  <Node pos="r" depth="6" NCoef="0" IVar="-1" Cut="0.0000000000000000e+00" cType="1" res="6.1388994799926877e-04" rms="4.9266591668128967e-01" purity="5.6880563497543335e-01" nType="-99"/>
                </Node>
                <Node pos="r" depth="5" NCoef="0" IVar="1" Cut="-5.1911000162363052e-02" cType="1" res="6.3516780734062195e-02" rms="4.4755187630653381e-01" purity="7.1647733449935913e-01" nType="0">
                  <Node pos="l" depth="6" NCoef="0" IVar="1" Cut="-1.2997104227542877e-01" cType="1" res="7.8250735998153687e-02" rms="4.3298378586769104e-01" purity="7.4898737668991089e-01" nType="0">
                    <Node pos="l" depth="7" NCoef="0" IVar="-1" Cut="0.0000000000000000e+00" cType="1" res="6.0097081586718559e-03" rms="4.3935433030128479e-01" purity="7.3779511451721191e-01" nType="-99"/>
                    <Node pos="r" depth="7" NCoef="0" IVar="-1" Cut="0.0000000000000000e+00" cType="1" res="8.1977471709251404e-03" rms="4.2368486523628235e-01" purity="7.6451992988586426e-01" nType="-99"/>
                  </Node>
                  <Node pos="r" depth="6" NCoef="0" IVar="3" Cut="8.9276653528213501e-01" cType="1" res="5.4871514439582825e-02" rms="4.5566141605377197e-01" purity="6.9740182161331177e-01" nType="0">
                    <Node pos="l" depth="7" NCoef="0" IVar="-1" Cut="0.0000000000000000e+00" cType="1" res="4.3111555278301239e-03" rms="4.6481576561927795e-01" purity="6.7725813388824463e-01" nType="-99"/>
                    <Node pos="r" depth="7" NCoef="0" IVar="-1" Cut="0.0000000000000000e+00" cType="1" res="6.0155550017952919e-03" rms="4.3668201565742493e-01" purity="7.3760908842086792e-01" nType="-99"/>
                  </Node>
                </Node>
              </Node>
              <Node pos="r" depth="4" NCoef="0" IVar="1" Cut="9.9330705404281616e-01" cType="1" res="9.1496661305427551e-02" rms="4.0254375338554382e-01" purity="7.9406839609146118e-01" nType="0">
                <Node pos="l" depth="5" NCoef="0" IVar="3" Cut="1.0406281948089600e+00" cType="1" res="9.3969546258449554e-02" rms="3.9850324392318726e-01" purity="8.0058574676513672e-01" nType="0">
                  <Node pos="l" depth="6" NCoef="0" IVar="3" Cut="9.9862551689147949e-01" cType="1" res="9.6299752593040466e-02" rms="3.9630028605461121e-01" purity="8.0398339033126831e-01" nType="0">
                    <Node pos="l" depth="7" NCoef="0" IVar="-1" Cut="0.0000000000000000e+00" cType="1" res="8.0162687227129936e-03" rms="4.0548110008239746e-01" purity="7.9160410165786743e-01" nType="-99"/>
                    <Node pos="r" depth="7" NCoef="0" IVar="-1" Cut="0.0000000000000000e+00" cType="1" res="9.2733614146709442e-03" rms="3.8877031207084656e-01" purity="8.1367105245590210e-01" nType="-99"/>
                  </Node>
                  <Node pos="r" depth="6" NCoef="0" IVar="-1" Cut="0.0000000000000000e+00" cType="1" res="5.3792307153344154e-03" rms="4.2719435691833496e-01" purity="7.5234109163284302e-01" nType="-99"/>
                </Node>
                <Node pos="r" depth="5" NCoef="0" IVar="-1" Cut="0.0000000000000000e+00" cType="1" res="3.8304743357002735e-03" rms="4.6697306632995605e-01" purity="6.7707175016403198e-01" nType="-99"/>
              </Node>
            </Node>
            <Node pos="r" depth="3" NCoef="0" IVar="2" Cut="1.6426292419433594e+02" cType="1" res="9.8152253776788712e-03" rms="4.8552075028419495e-01" purity="5.6416267156600952e-01" nType="0">
              <Node pos="l" depth="4" NCoef="0" IVar="2" Cut="4.7684951782226562e+01" cType="1" res="2.0873872563242912e-02" rms="4.8254427313804626e-01" purity="5.8804887533187866e-01" nType="0">
                <Node pos="l" depth="5" NCoef="0" IVar="4" Cut="1.3592493720352650e-02" cType="1" res="3.7136249244213104e-02" rms="4.7306343913078308e-01" purity="6.3646227121353149e-01" nType="0">
                  <Node pos="l" depth="6" NCoef="0" IVar="0" Cut="3.3025950193405151e-01" cType="1" res="3.0495885759592056e-02" rms="4.6760717034339905e-01" purity="6.5668725967407227e-01" nType="0">
                    <Node pos="l" depth="7" NCoef="0" IVar="-1" Cut="0.0000000000000000e+00" cType="1" res="3.7280675023794174e-03" rms="4.5476853847503662e-01" purity="6.8737649917602539e-01" nType="-99"/>
                    <Node pos="r" depth="7" NCoef="0" IVar="-1" Cut="0.0000000000000000e+00" cType="1" res="1.8095730338245630e-03" rms="4.7951775789260864e-01" purity="6.2711215019226074e-01" nType="-99"/>
                  </Node>
                  <Node pos="r" depth="6" NCoef="0" IVar="-1" Cut="0.0000000000000000e+00" cType="1" res="4.2183869518339634e-03" rms="4.8285511136054993e-01" purity="5.9864616394042969e-01" nType="-99"/>
                </Node>
                <Node pos="r" depth="5" NCoef="0" IVar="4" Cut="3.9595238864421844e-02" cType="1" res="6.1926399357616901e-03" rms="4.9048322439193726e-01" purity="5.4434263706207275e-01" nType="0">
                  <Node pos="l" depth="6" NCoef="0" IVar="-1" Cut="0.0000000000000000e+00" cType="1" res="-3.1857511494308710e-03" rms="4.9080815911293030e-01" purity="5.0838536024093628e-01" nType="-99"/>
                  <Node pos="r" depth="6" NCoef="0" IVar="4" Cut="5.4879896342754364e-02" cType="1" res="3.5358600318431854e-02" rms="4.8816925287246704e-01" purity="5.7015419006347656e-01" nType="0">
                    <Node pos="l" depth="7" NCoef="0" IVar="-1" Cut="0.0000000000000000e+00" cType="1" res="9.5108873210847378e-04" rms="4.8799985647201538e-01" purity="5.5614614486694336e-01" nType="-99"/>
                    <Node pos="r" depth="7" NCoef="0" IVar="-1" Cut="0.0000000000000000e+00" cType="1" res="4.9924240447580814e-03" rms="4.8710155487060547e-01" purity="5.8407831192016602e-01" nType="-99"/>
                  </Node>
                </Node>
              </Node>
              <Node pos="r" depth="4" NCoef="0" IVar="0" Cut="3.0982634425163269e-01" cType="1" res="-2.7744455263018608e-02" rms="4.9365049600601196e-01" purity="4.8303538560867310e-01" nType="0">
                <Node pos="l" depth="5" NCoef="0" IVar="-1" Cut="0.0000000000000000e+00" cType="1" res="7.2909992013592273e-05" rms="4.9355587363243103e-01" purity="5.3889107704162598e-01" nType="-99"/>
                <Node pos="r" depth="5" NCoef="0" IVar="-1" Cut="0.0000000000000000e+00" cType="1" res="-5.3683407604694366e-03" rms="4.9191746115684509e-01" purity="4.2315399646759033e-01" nType="-99"/>
              </Node>
            </Node>
          </Node>
          <Node pos="r" depth="2" NCoef="0" IVar="-1" Cut="0.0000000000000000e+00" cType="1" res="-1.4637482352554798e-02" rms="4.5985674858093262e-01" purity="3.0995932221412659e-01" nType="-99"/>
        </Node>
      </Node>
    </BinaryTree>
    <BinaryTree type="DecisionTree" boostWeight="1.0000000000000000e+00" itree="33">
      <Node pos="s" depth="0" NCoef="0" IVar="3" Cut="7.7137583494186401e-01" cType="1" res="1.3662531971931458e-02" rms="4.1762837767601013e-01" purity="4.9923297762870789e-01" nType="0">
        <Node pos="l" depth="1" NCoef="0" IVar="3" Cut="5.9730267524719238e-01" cType="1" res="-3.7227224558591843e-02" rms="3.9620563387870789e-01" purity="2.6426532864570618e-01" nType="0">
          <Node pos="l" depth="2" NCoef="0" IVar="4" Cut="1.5675626695156097e-01" cType="1" res="-5.4562054574489594e-02" rms="3.4188583493232727e-01" purity="1.5479569137096405e-01" nType="0">
            <Node pos="l" depth="3" NCoef="0" IVar="3" Cut="3.4734356403350830e-01" cType="1" res="-6.0103867202997208e-02" rms="3.2871249318122864e-01" purity="1.4324110746383667e-01" nType="0">
              <Node pos="l" depth="4" NCoef="0" IVar="5" Cut="5.0000000000000000e+00" cType="1" res="0.0000000000000000e+00" rms="0.0000000000000000e+00" purity="4.2903907597064972e-02" nType="0">
                <Node pos="l" depth="5" NCoef="0" IVar="3" Cut="2.8176349401473999e-01" cType="1" res="-5.7452149689197540e-02" rms="2.6015827059745789e-01" purity="7.4712574481964111e-02" nType="0">
                  <Node pos="l" depth="6" NCoef="0" IVar="-1" Cut="0.0000000000000000e+00" cType="1" res="-9.6062058582901955e-03" rms="2.9069384932518005e-01" purity="9.5834389328956604e-02" nType="-99"/>
                  <Node pos="r" depth="6" NCoef="0" IVar="-1" Cut="0.0000000000000000e+00" cType="1" res="-2.0383590832352638e-02" rms="2.2131147980690002e-01" purity="5.2201911807060242e-02" nType="-99"/>
                </Node>
                <Node pos="r" depth="5" NCoef="0" IVar="3" Cut="3.0268210172653198e-01" cType="1" res="-8.0250449478626251e-02" rms="1.7692373692989349e-01" purity="3.2760135829448700e-02" nType="0">
                  <Node pos="l" depth="6" NCoef="0" IVar="3" Cut="2.6378509402275085e-01" cType="1" res="-8.5051879286766052e-02" rms="1.5522001683712006e-01" purity="2.4833871051669121e-02" nType="0">
                    <Node pos="l" depth="7" NCoef="0" IVar="-1" Cut="0.0000000000000000e+00" cType="1" res="-2.7790125459432602e-02" rms="1.4335577189922333e-01" purity="2.1041691303253174e-02" nType="-99"/>
                    <Node pos="r" depth="7" NCoef="0" IVar="-1" Cut="0.0000000000000000e+00" cType="1" res="-2.2208495065569878e-02" rms="1.8309998512268066e-01" purity="3.5009071230888367e-02" nType="-99"/>
                  </Node>
                  <Node pos="r" depth="6" NCoef="0" IVar="-1" Cut="0.0000000000000000e+00" cType="1" res="-1.6983976587653160e-02" rms="2.3126062750816345e-01" purity="5.7472623884677887e-02" nType="-99"/>
                </Node>
              </Node>
              <Node pos="r" depth="4" NCoef="0" IVar="0" Cut="7.3134171962738037e-01" cType="1" res="-5.2048165351152420e-02" rms="3.8108167052268982e-01" purity="1.9847407937049866e-01" nType="0">
                <Node pos="l" depth="5" NCoef="0" IVar="2" Cut="2.0553045654296875e+02" cType="1" res="-3.4960664808750153e-02" rms="4.4277936220169067e-01" purity="2.9060378670692444e-01" nType="0">
                  <Node pos="l" depth="6" NCoef="0" IVar="4" Cut="5.5781580507755280e-02" cType="1" res="-1.3862245716154575e-02" rms="4.5728853344917297e-01" purity="3.2693573832511902e-01" nType="0">
                    <Node pos="l" depth="7" NCoef="0" IVar="-1" Cut="0.0000000000000000e+00" cType="1" res="-5.3641293197870255e-03" rms="4.3840137124061584e-01" purity="2.7589228749275208e-01" nType="-99"/>
                    <Node pos="r" depth="7" NCoef="0" IVar="-1" Cut="0.0000000000000000e+00" cType="1" res="4.1011290159076452e-04" rms="4.6583414077758789e-01" purity="3.5355281829833984e-01" nType="-99"/>
                  </Node>
                  <Node pos="r" depth="6" NCoef="0" IVar="0" Cut="5.4258060455322266e-01" cType="1" res="-5.9787448495626450e-02" rms="4.2372921109199524e-01" purity="2.4785153567790985e-01" nType="0">
                    <Node pos="l" depth="7" NCoef="0" IVar="-1" Cut="0.0000000000000000e+00" cType="1" res="-5.3443340584635735e-03" rms="4.4586026668548584e-01" purity="2.8360888361930847e-01" nType="-99"/>
                    <Node pos="r" depth="7" NCoef="0" IVar="-1" Cut="0.0000000000000000e+00" cType="1" res="-1.2246942147612572e-02" rms="3.6235064268112183e-01" purity="1.6013447940349579e-01" nType="-99"/>
                  </Node>
                </Node>
                <Node pos="r" depth="5" NCoef="0" IVar="4" Cut="8.1081531941890717e-02" cType="1" res="-6.6975697875022888e-02" rms="3.1676530838012695e-01" purity="1.1799010634422302e-01" nType="0">
                  <Node pos="l" depth="6" NCoef="0" IVar="2" Cut="6.1949161529541016e+01" cType="1" res="-7.8375086188316345e-02" rms="2.9628241062164307e-01" purity="1.0115093737840652e-01" nType="0">
                    <Node pos="l" depth="7" NCoef="0" IVar="-1" Cut="0.0000000000000000e+00" cType="1" res="-7.0749279111623764e-03" rms="3.5230663418769836e-01" purity="1.5395967662334442e-01" nType="-99"/>
                    <Node pos="r" depth="7" NCoef="0" IVar="-1" Cut="0.0000000000000000e+00" cType="1" res="-1.6917683184146881e-02" rms="2.7447822690010071e-01" purity="8.3888225257396698e-02" nType="-99"/>
                  </Node>
                  <Node pos="r" depth="6" NCoef="0" IVar="2" Cut="3.1558038330078125e+02" cType="1" res="-5.4085180163383484e-02" rms="3.3797439932823181e-01" purity="1.3703197240829468e-01" nType="0">
                    <Node pos="l" depth="7" NCoef="0" IVar="-1" Cut="0.0000000000000000e+00" cType="1" res="-6.0660857707262039e-03" rms="3.6289995908737183e-01" purity="1.6285045444965363e-01" nType="-99"/>
                    <Node pos="r" depth="7" NCoef="0" IVar="-1" Cut="0.0000000000000000e+00" cType="1" res="-1.4281816780567169e-02" rms="2.9857200384140015e-01" purity="1.0150784254074097e-01" nType="-99"/>
                  </Node>
                </Node>
              </Node>
            </Node>
            <Node pos="r" depth="3" NCoef="0" IVar="5" Cut="4.0000000000000000e+00" cType="1" res="1.4419190585613251e-01" rms="0.0000000000000000e+00" purity="1.8908782303333282e-01" nType="0">
              <Node pos="l" depth="4" NCoef="0" IVar="-1" Cut="0.0000000000000000e+00" cType="1" res="7.0352852344512939e-04" rms="4.5333164930343628e-01" purity="3.1133934855461121e-01" nType="-99"/>
              <Node pos="r" depth="4" NCoef="0" IVar="3" Cut="3.4696167707443237e-01" cType="1" res="-4.8613499850034714e-02" rms="3.5677269101142883e-01" purity="1.6010569036006927e-01" nType="0">
                <Node pos="l" depth="5" NCoef="0" IVar="4" Cut="2.6881155371665955e-01" cType="1" res="-5.7552076876163483e-02" rms="3.2870584726333618e-01" purity="1.2820321321487427e-01" nType="0">
                  <Node pos="l" depth="6" NCoef="0" IVar="2" Cut="3.6430859375000000e+02" cType="1" res="-6.7812241613864899e-02" rms="2.9710483551025391e-01" purity="9.9658623337745667e-02" nType="0">
                    <Node pos="l" depth="7" NCoef="0" IVar="-1" Cut="0.0000000000000000e+00" cType="1" res="-1.0008514858782291e-02" rms="3.2038778066635132e-01" purity="1.1883957684040070e-01" nType="-99"/>
                    <Node pos="r" depth="7" NCoef="0" IVar="-1" Cut="0.0000000000000000e+00" cType="1" res="-1.5967307612299919e-02" rms="2.8398925065994263e-01" purity="8.9912064373493195e-02" nType="-99"/>
                  </Node>
                  <Node pos="r" depth="6" NCoef="0" IVar="-1" Cut="0.0000000000000000e+00" cType="1" res="-4.3471446260809898e-03" rms="4.0186509490013123e-01" purity="2.0692354440689087e-01" nType="-99"/>
                </Node>
                <Node pos="r" depth="5" NCoef="0" IVar="-1" Cut="0.0000000000000000e+00" cType="1" res="-3.1909700483083725e-03" rms="4.2120516300201416e-01" purity="2.4450398981571198e-01" nType="-99"/>
              </Node>
            </Node>
          </Node>
          <Node pos="r" depth="2" NCoef="0" IVar="1" Cut="5.4197620600461960e-02" cType="1" res="-1.6702278517186642e-03" rms="4.8717188835144043e-01" purity="4.8880815505981445e-01" nType="0">
            <Node pos="l" depth="3" NCoef="0" IVar="2" Cut="3.2187933349609375e+02" cType="1" res="1.8148358911275864e-02" rms="4.8981481790542603e-01" purity="5.3588801622390747e-01" nType="0">
              <Node pos="l" depth="4" NCoef="0" IVar="4" Cut="5.9293054044246674e-02" cType="1" res="2.4608550593256950e-02" rms="4.8903405666351318e-01" purity="5.4533869028091431e-01" nType="0">
                <Node pos="l" depth="5" NCoef="0" IVar="2" Cut="8.3735145568847656e+01" cType="1" res="1.6322055598720908e-03" rms="4.8995006084442139e-01" purity="5.2205723524093628e-01" nType="0">
                  <Node pos="l" depth="6" NCoef="0" IVar="-1" Cut="0.0000000000000000e+00" cType="1" res="2.5931927375495434e-03" rms="4.8708951473236084e-01" purity="5.6390309333801270e-01" nType="-99"/>
                  <Node pos="r" depth="6" NCoef="0" IVar="-1" Cut="0.0000000000000000e+00" cType="1" res="-3.3706261310726404e-03" rms="4.9107605218887329e-01" purity="4.6681082248687744e-01" nType="-99"/>
                </Node>
                <Node pos="r" depth="5" NCoef="0" IVar="2" Cut="1.5249995422363281e+02" cType="1" res="4.6992894262075424e-02" rms="4.8709884285926819e-01" purity="5.6802028417587280e-01" nType="0">
                  <Node pos="l" depth="6" NCoef="0" IVar="-1" Cut="0.0000000000000000e+00" cType="1" res="5.7264268398284912e-03" rms="4.8258268833160400e-01" purity="6.0984349250793457e-01" nType="-99"/>
                  <Node pos="r" depth="6" NCoef="0" IVar="-1" Cut="0.0000000000000000e+00" cType="1" res="1.7835985636338592e-03" rms="4.9030569195747375e-01" purity="5.2474230527877808e-01" nType="-99"/>
                </Node>
              </Node>
              <Node pos="r" depth="4" NCoef="0" IVar="-1" Cut="0.0000000000000000e+00" cType="1" res="-2.3249236401170492e-03" rms="4.9283039569854736e-01" purity="4.7280958294868469e-01" nType="-99"/>
            </Node>
            <Node pos="r" depth="3" NCoef="0" IVar="0" Cut="4.2297551035881042e-01" cType="1" res="-2.0551392808556557e-02" rms="4.8388612270355225e-01" purity="4.4395515322685242e-01" nType="0">
              <Node pos="l" depth="4" NCoef="0" IVar="0" Cut="1.7732831835746765e-01" cType="1" res="-8.0357622355222702e-03" rms="4.9162623286247253e-01" purity="4.8679131269454956e-01" nType="0">
                <Node pos="l" depth="5" NCoef="0" IVar="2" Cut="1.6499172973632812e+02" cType="1" res="1.8859082832932472e-02" rms="4.9297854304313660e-01" purity="5.3799617290496826e-01" nType="0">
                  <Node pos="l" depth="6" NCoef="0" IVar="-1" Cut="0.0000000000000000e+00" cType="1" res="2.6050140149891376e-03" rms="4.9116307497024536e-01" purity="5.6792545318603516e-01" nType="-99"/>
                  <Node pos="r" depth="6" NCoef="0" IVar="-1" Cut="0.0000000000000000e+00" cType="1" res="3.9043166907504201e-04" rms="4.9447500705718994e-01" purity="5.0650388002395630e-01" nType="-99"/>
                </Node>
                <Node pos="r" depth="5" NCoef="0" IVar="3" Cut="7.1522420644760132e-01" cType="1" res="-4.1930716484785080e-02" rms="4.8780921101570129e-01" purity="4.2225888371467590e-01" nType="0">
                  <Node pos="l" depth="6" NCoef="0" IVar="-1" Cut="0.0000000000000000e+00" cType="1" res="-5.4473355412483215e-03" rms="4.8288133740425110e-01" purity="3.8645717501640320e-01" nType="-99"/>
                  <Node pos="r" depth="6" NCoef="0" IVar="-1" Cut="0.0000000000000000e+00" cType="1" res="-1.5058761928230524e-03" rms="4.9434375762939453e-01" purity="4.7771909832954407e-01" nType="-99"/>
                </Node>
              </Node>
              <Node pos="r" depth="4" NCoef="0" IVar="3" Cut="6.5348261594772339e-01" cType="1" res="-5.9018950909376144e-02" rms="4.5714059472084045e-01" purity="3.1229573488235474e-01" nType="0">
                <Node pos="l" depth="5" NCoef="0" IVar="-1" Cut="0.0000000000000000e+00" cType="1" res="-7.3060425929725170e-03" rms="4.3860805034637451e-01" purity="2.6838201284408569e-01" nType="-99"/>
                <Node pos="r" depth="5" NCoef="0" IVar="-1" Cut="0.0000000000000000e+00" cType="1" res="-4.7480021603405476e-03" rms="4.7417813539505005e-01" purity="3.5462987422943115e-01" nType="-99"/>
              </Node>
            </Node>
          </Node>
        </Node>
        <Node pos="r" depth="1" NCoef="0" IVar="3" Cut="1.0573526620864868e+00" cType="1" res="6.4970269799232483e-02" rms="4.3214312195777893e-01" purity="7.3613053560256958e-01" nType="0">
          <Node pos="l" depth="2" NCoef="0" IVar="0" Cut="5.8072727918624878e-01" cType="1" res="6.7506588995456696e-02" rms="4.3128749728202820e-01" purity="7.3931205272674561e-01" nType="0">
            <Node pos="l" depth="3" NCoef="0" IVar="3" Cut="8.7285071611404419e-01" cType="1" res="7.0746101438999176e-02" rms="4.2923891544342041e-01" purity="7.4666196107864380e-01" nType="0">
              <Node pos="l" depth="4" NCoef="0" IVar="1" Cut="5.2134853601455688e-01" cType="1" res="4.5472454279661179e-02" rms="4.6836099028587341e-01" purity="6.6396743059158325e-01" nType="0">
                <Node pos="l" depth="5" NCoef="0" IVar="0" Cut="1.8729627132415771e-02" cType="1" res="5.0972420722246170e-02" rms="4.6371772885322571e-01" purity="6.8034553527832031e-01" nType="0">
                  <Node pos="l" depth="6" NCoef="0" IVar="1" Cut="3.6470389459282160e-03" cType="1" res="5.6787624955177307e-02" rms="4.5781627297401428e-01" purity="6.9800382852554321e-01" nType="0">
                    <Node pos="l" depth="7" NCoef="0" IVar="-1" Cut="0.0000000000000000e+00" cType="1" res="5.6776856072247028e-03" rms="4.4862231612205505e-01" purity="7.1885627508163452e-01" nType="-99"/>
                    <Node pos="r" depth="7" NCoef="0" IVar="-1" Cut="0.0000000000000000e+00" cType="1" res="3.5950022283941507e-03" rms="4.6864098310470581e-01" purity="6.7201972007751465e-01" nType="-99"/>
                  </Node>
                  <Node pos="r" depth="6" NCoef="0" IVar="2" Cut="9.1333503723144531e+01" cType="1" res="2.8603969141840935e-02" rms="4.8510077595710754e-01" purity="6.1242216825485229e-01" nType="0">
                    <Node pos="l" depth="7" NCoef="0" IVar="-1" Cut="0.0000000000000000e+00" cType="1" res="3.7294365465641022e-03" rms="4.7983080148696899e-01" purity="6.3372236490249634e-01" nType="-99"/>
                    <Node pos="r" depth="7" NCoef="0" IVar="-1" Cut="0.0000000000000000e+00" cType="1" res="1.2865338940173388e-03" rms="4.9036958813667297e-01" purity="5.8918023109436035e-01" nType="-99"/>
                  </Node>
                </Node>
                <Node pos="r" depth="5" NCoef="0" IVar="-1" Cut="0.0000000000000000e+00" cType="1" res="1.0078065097332001e-03" rms="4.9394184350967407e-01" purity="5.6603240966796875e-01" nType="-99"/>
              </Node>
              <Node pos="r" depth="4" NCoef="0" IVar="0" Cut="2.6219174265861511e-01" cType="1" res="7.9979576170444489e-02" rms="4.1364014148712158e-01" purity="7.7687370777130127e-01" nType="0">
                <Node pos="l" depth="5" NCoef="0" IVar="1" Cut="1.2629072368144989e-01" cType="1" res="8.2559481263160706e-02" rms="4.1082122921943665e-01" purity="7.8196126222610474e-01" nType="0">
                  <Node pos="l" depth="6" NCoef="0" IVar="3" Cut="9.9188530445098877e-01" cType="1" res="8.9941181242465973e-02" rms="3.9821958541870117e-01" purity="8.0170953273773193e-01" nType="0">
                    <Node pos="l" depth="7" NCoef="0" IVar="-1" Cut="0.0000000000000000e+00" cType="1" res="7.7893980778753757e-03" rms="4.1329768300056458e-01" purity="7.8097242116928101e-01" nType="-99"/>
                    <Node pos="r" depth="7" NCoef="0" IVar="-1" Cut="0.0000000000000000e+00" cType="1" res="8.9117158204317093e-03" rms="3.8812595605850220e-01" purity="8.1502825021743774e-01" nType="-99"/>
                  </Node>
                  <Node pos="r" depth="6" NCoef="0" IVar="1" Cut="1.2913321256637573e+00" cType="1" res="7.0045582950115204e-02" rms="4.3105533719062805e-01" purity="7.4848288297653198e-01" nType="0">
                    <Node pos="l" depth="7" NCoef="0" IVar="-1" Cut="0.0000000000000000e+00" cType="1" res="6.5657510422170162e-03" rms="4.2650780081748962e-01" purity="7.5731605291366577e-01" nType="-99"/>
                    <Node pos="r" depth="7" NCoef="0" IVar="-1" Cut="0.0000000000000000e+00" cType="1" res="3.0396464280784130e-03" rms="4.7334328293800354e-01" purity="6.5908163785934448e-01" nType="-99"/>
                  </Node>
                </Node>
                <Node pos="r" depth="5" NCoef="0" IVar="-1" Cut="0.0000000000000000e+00" cType="1" res="1.6933047445490956e-03" rms="4.7071045637130737e-01" purity="6.5810990333557129e-01" nType="-99"/>
              </Node>
            </Node>
            <Node pos="r" depth="3" NCoef="0" IVar="-1" Cut="0.0000000000000000e+00" cType="1" res="-5.4625910706818104e-03" rms="4.8953342437744141e-01" purity="4.4264194369316101e-01" nType="-99"/>
          </Node>
          <Node pos="r" depth="2" NCoef="0" IVar="-1" Cut="0.0000000000000000e+00" cType="1" res="-3.2993040513247252e-03" rms="4.5362326502799988e-01" purity="6.0849696397781372e-01" nType="-99"/>
        </Node>
      </Node>
    </BinaryTree>
    <BinaryTree type="DecisionTree" boostWeight="1.0000000000000000e+00" itree="34">
      <Node pos="s" depth="0" NCoef="0" IVar="3" Cut="6.6849672794342041e-01" cType="1" res="1.3084708712995052e-02" rms="4.1692784428596497e-01" purity="4.9956920742988586e-01" nType="0">
        <Node pos="l" depth="1" NCoef="0" IVar="3" Cut="4.9602013826370239e-01" cType="1" res="-4.6855218708515167e-02" rms="3.6581611633300781e-01" purity="1.9353123009204865e-01" nType="0">
          <Node pos="l" depth="2" NCoef="0" IVar="3" Cut="1.2811939418315887e-01" cType="1" res="-5.8504462242126465e-02" rms="3.0035901069641113e-01" purity="1.0869771242141724e-01" nType="0">
            <Node pos="l" depth="3" NCoef="0" IVar="-1" Cut="0.0000000000000000e+00" cType="1" res="-3.9812102913856506e-03" rms="3.4981170296669006e-01" purity="1.5874995291233063e-01" nType="-99"/>
            <Node pos="r" depth="3" NCoef="0" IVar="0" Cut="7.0954185724258423e-01" cType="1" res="-6.1461504548788071e-02" rms="2.9587820172309875e-01" purity="1.0472383350133896e-01" nType="0">
              <Node pos="l" depth="4" NCoef="0" IVar="0" Cut="1.8308413028717041e-01" cType="1" res="-3.1225400045514107e-02" rms="4.0278714895248413e-01" purity="2.1214652061462402e-01" nType="0">
                <Node pos="l" depth="5" NCoef="0" IVar="-1" Cut="0.0000000000000000e+00" cType="1" res="-1.3966410188004375e-03" rms="4.3134102225303650e-01" purity="2.5539970397949219e-01" nType="-99"/>
                <Node pos="r" depth="5" NCoef="0" IVar="2" Cut="3.2859161376953125e+02" cType="1" res="-4.2668640613555908e-02" rms="3.8533431291580200e-01" purity="1.8782806396484375e-01" nType="0">
                  <Node pos="l" depth="6" NCoef="0" IVar="-1" Cut="0.0000000000000000e+00" cType="1" res="-4.7440249472856522e-03" rms="3.9566665887832642e-01" purity="2.0258840918540955e-01" nType="-99"/>
                  <Node pos="r" depth="6" NCoef="0" IVar="-1" Cut="0.0000000000000000e+00" cType="1" res="-7.8636715188622475e-03" rms="3.7493354082107544e-01" purity="1.7371299862861633e-01" nType="-99"/>
                </Node>
              </Node>
              <Node pos="r" depth="4" NCoef="0" IVar="2" Cut="1.7176451110839844e+02" cType="1" res="-7.0963799953460693e-02" rms="2.5237348675727844e-01" purity="7.0964127779006958e-02" nType="0">
                <Node pos="l" depth="5" NCoef="0" IVar="4" Cut="7.3479220271110535e-02" cType="1" res="-6.0358747839927673e-02" rms="2.6006269454956055e-01" purity="7.6728783547878265e-02" nType="0">
                  <Node pos="l" depth="6" NCoef="0" IVar="5" Cut="5.0000000000000000e+00" cType="1" res="-7.0842660963535309e-02" rms="2.3430858552455902e-01" purity="6.0107309371232986e-02" nType="0">
                    <Node pos="l" depth="7" NCoef="0" IVar="-1" Cut="0.0000000000000000e+00" cType="1" res="-1.3189229182898998e-02" rms="2.8220966458320618e-01" purity="8.8427938520908356e-02" nType="-99"/>
                    <Node pos="r" depth="7" NCoef="0" IVar="-1" Cut="0.0000000000000000e+00" cType="1" res="-2.1673867478966713e-02" rms="1.9466271996498108e-01" purity="4.0850520133972168e-02" nType="-99"/>
                  </Node>
                  <Node pos="r" depth="6" NCoef="0" IVar="0" Cut="1.7287454605102539e+00" cType="1" res="-4.3461784720420837e-02" rms="2.9607105255126953e-01" purity="1.0347517579793930e-01" nType="0">
                    <Node pos="l" depth="7" NCoef="0" IVar="-1" Cut="0.0000000000000000e+00" cType="1" res="-4.0297186933457851e-03" rms="3.4759265184402466e-01" purity="1.4800611138343811e-01" nType="-99"/>
                    <Node pos="r" depth="7" NCoef="0" IVar="-1" Cut="0.0000000000000000e+00" cType="1" res="-2.1118242293596268e-02" rms="2.1673323214054108e-01" purity="5.0602581351995468e-02" nType="-99"/>
                  </Node>
                </Node>
                <Node pos="r" depth="5" NCoef="0" IVar="5" Cut="4.0000000000000000e+00" cType="1" res="-7.7986955642700195e-02" rms="2.4688978493213654e-01" purity="6.7139416933059692e-02" nType="0">
                  <Node pos="l" depth="6" NCoef="0" IVar="-1" Cut="0.0000000000000000e+00" cType="1" res="-1.7973506823182106e-02" rms="2.7542546391487122e-01" purity="8.5094586014747620e-02" nType="-99"/>
                  <Node pos="r" depth="6" NCoef="0" IVar="3" Cut="1.8742816150188446e-01" cType="1" res="-7.5692966580390930e-02" rms="2.4111306667327881e-01" purity="6.3784934580326080e-02" nType="0">
                    <Node pos="l" depth="7" NCoef="0" IVar="-1" Cut="0.0000000000000000e+00" cType="1" res="-2.2913640365004539e-02" rms="2.1596573293209076e-01" purity="5.0916977226734161e-02" nType="-99"/>
                    <Node pos="r" depth="7" NCoef="0" IVar="-1" Cut="0.0000000000000000e+00" cType="1" res="-1.7233408987522125e-02" rms="2.4434831738471985e-01" purity="6.5579950809478760e-02" nType="-99"/>
                  </Node>
                </Node>
              </Node>
            </Node>
          </Node>
          <Node pos="r" depth="2" NCoef="0" IVar="0" Cut="5.7583463191986084e-01" cType="1" res="-2.5459552183747292e-02" rms="4.6173965930938721e-01" purity="3.4934136271476746e-01" nType="0">
            <Node pos="l" depth="3" NCoef="0" IVar="1" Cut="6.3251566886901855e-01" cType="1" res="-1.2734077870845795e-02" rms="4.8179849982261658e-01" purity="4.0340960025787354e-01" nType="0">
              <Node pos="l" depth="4" NCoef="0" IVar="2" Cut="1.6197506713867188e+02" cType="1" res="-5.7416753843426704e-03" rms="4.8561078310012817e-01" purity="4.1815987229347229e-01" nType="0">
                <Node pos="l" depth="5" NCoef="0" IVar="5" Cut="4.0000000000000000e+00" cType="1" res="8.6479047313332558e-03" rms="2.8909733891487122e-01" purity="4.5673730969429016e-01" nType="0">
                  <Node pos="l" depth="6" NCoef="0" IVar="-1" Cut="0.0000000000000000e+00" cType="1" res="-1.4478589873760939e-03" rms="4.8816919326782227e-01" purity="4.2775297164916992e-01" nType="-99"/>
                  <Node pos="r" depth="6" NCoef="0" IVar="2" Cut="8.9938751220703125e+01" cType="1" res="3.8824558258056641e-02" rms="4.9175861477851868e-01" purity="4.8314139246940613e-01" nType="0">
                    <Node pos="l" depth="7" NCoef="0" IVar="-1" Cut="0.0000000000000000e+00" cType="1" res="5.5658183991909027e-03" rms="4.9233168363571167e-01" purity="5.0999391078948975e-01" nType="-99"/>
                    <Node pos="r" depth="7" NCoef="0" IVar="-1" Cut="0.0000000000000000e+00" cType="1" res="1.2203385122120380e-03" rms="4.8985359072685242e-01" purity="4.5575726032257080e-01" nType="-99"/>
                  </Node>
                </Node>
                <Node pos="r" depth="5" NCoef="0" IVar="4" Cut="8.9641116559505463e-02" cType="1" res="-2.1301088854670525e-02" rms="4.8048770427703857e-01" purity="3.8472723960876465e-01" nType="0">
                  <Node pos="l" depth="6" NCoef="0" IVar="-1" Cut="0.0000000000000000e+00" cType="1" res="-4.9408394843339920e-03" rms="4.6997666358947754e-01" purity="3.4610590338706970e-01" nType="-99"/>
                  <Node pos="r" depth="6" NCoef="0" IVar="3" Cut="6.0727006196975708e-01" cType="1" res="-8.6191836744546890e-03" rms="4.8465850949287415e-01" purity="4.0227887034416199e-01" nType="0">
                    <Node pos="l" depth="7" NCoef="0" IVar="-1" Cut="0.0000000000000000e+00" cType="1" res="-2.5044002104550600e-03" rms="4.7706350684165955e-01" purity="3.5969665646553040e-01" nType="-99"/>
                    <Node pos="r" depth="7" NCoef="0" IVar="-1" Cut="0.0000000000000000e+00" cType="1" res="2.0499716047197580e-03" rms="4.9728125333786011e-01" purity="4.8355215787887573e-01" nType="-99"/>
                  </Node>
                </Node>
              </Node>
              <Node pos="r" depth="4" NCoef="0" IVar="-1" Cut="0.0000000000000000e+00" cType="1" res="-6.3359714113175869e-03" rms="4.5069584250450134e-01" purity="2.9866239428520203e-01" nType="-99"/>
            </Node>
            <Node pos="r" depth="3" NCoef="0" IVar="5" Cut="3.0000000000000000e+00" cType="1" res="-5.3511489182710648e-02" rms="4.1145005822181702e-01" purity="2.2807772457599640e-01" nType="0">
              <Node pos="l" depth="4" NCoef="0" IVar="-1" Cut="0.0000000000000000e+00" cType="1" res="-9.6445595845580101e-03" rms="4.0113756060600281e-01" purity="2.1015568077564240e-01" nType="-99"/>
              <Node pos="r" depth="4" NCoef="0" IVar="1" Cut="8.8853528723120689e-03" cType="1" res="-4.4411487877368927e-02" rms="4.1572916507720947e-01" purity="2.3545572161674500e-01" nType="0">
                <Node pos="l" depth="5" NCoef="0" IVar="-1" Cut="0.0000000000000000e+00" cType="1" res="4.6892059617675841e-04" rms="4.5612099766731262e-01" purity="3.1157028675079346e-01" nType="-99"/>
                <Node pos="r" depth="5" NCoef="0" IVar="4" Cut="6.5440319478511810e-02" cType="1" res="-6.8388909101486206e-02" rms="3.9209911227226257e-01" purity="1.9796216487884521e-01" nType="0">
                  <Node pos="l" depth="6" NCoef="0" IVar="-1" Cut="0.0000000000000000e+00" cType="1" res="-1.0156808421015739e-02" rms="3.8328793644905090e-01" purity="1.8689037859439850e-01" nType="-99"/>
                  <Node pos="r" depth="6" NCoef="0" IVar="-1" Cut="0.0000000000000000e+00" cType="1" res="-7.5671444647014141e-03" rms="4.0041831135749817e-01" purity="2.0899227261543274e-01" nType="-99"/>
                </Node>
              </Node>
            </Node>
          </Node>
        </Node>
        <Node pos="r" depth="1" NCoef="0" IVar="0" Cut="6.1459439992904663e-01" cType="1" res="5.2638415247201920e-02" rms="4.4305068254470825e-01" purity="7.0152038335800171e-01" nType="0">
          <Node pos="l" depth="2" NCoef="0" IVar="0" Cut="1.9821064546704292e-02" cType="1" res="5.7093404233455658e-02" rms="4.4120848178863525e-01" purity="7.1131145954132080e-01" nType="0">
            <Node pos="l" depth="3" NCoef="0" IVar="3" Cut="8.7986308336257935e-01" cType="1" res="6.7215099930763245e-02" rms="4.3129476904869080e-01" purity="7.4099946022033691e-01" nType="0">
              <Node pos="l" depth="4" NCoef="0" IVar="3" Cut="7.7077102661132812e-01" cType="1" res="4.4601377099752426e-02" rms="4.6973371505737305e-01" purity="6.5784674882888794e-01" nType="0">
                <Node pos="l" depth="5" NCoef="0" IVar="4" Cut="8.0927342176437378e-02" cType="1" res="2.6818528771400452e-02" rms="4.8730593919754028e-01" purity="5.9475833177566528e-01" nType="0">
                  <Node pos="l" depth="6" NCoef="0" IVar="2" Cut="7.5389122009277344e+01" cType="1" res="1.2998555786907673e-02" rms="4.8788005113601685e-01" purity="5.8929991722106934e-01" nType="0">
                    <Node pos="l" depth="7" NCoef="0" IVar="-1" Cut="0.0000000000000000e+00" cType="1" res="2.5755383539944887e-03" rms="4.8201876878738403e-01" purity="6.1277627944946289e-01" nType="-99"/>
                    <Node pos="r" depth="7" NCoef="0" IVar="-1" Cut="0.0000000000000000e+00" cType="1" res="-1.1812078446382657e-04" rms="4.9178498983383179e-01" purity="5.7153165340423584e-01" nType="-99"/>
                  </Node>
                  <Node pos="r" depth="6" NCoef="0" IVar="-1" Cut="0.0000000000000000e+00" cType="1" res="3.7733486387878656e-03" rms="4.8579224944114685e-01" purity="6.0260015726089478e-01" nType="-99"/>
                </Node>
                <Node pos="r" depth="5" NCoef="0" IVar="2" Cut="1.4915657043457031e+02" cType="1" res="5.2927177399396896e-02" rms="4.6104082465171814e-01" purity="6.8738430738449097e-01" nType="0">
                  <Node pos="l" depth="6" NCoef="0" IVar="1" Cut="1.5552736818790436e-01" cType="1" res="5.0237175077199936e-02" rms="4.5862826704978943e-01" purity="6.9216197729110718e-01" nType="0">
                    <Node pos="l" depth="7" NCoef="0" IVar="-1" Cut="0.0000000000000000e+00" cType="1" res="5.2553121931850910e-03" rms="4.4844460487365723e-01" purity="7.2028714418411255e-01" nType="-99"/>
                    <Node pos="r" depth="7" NCoef="0" IVar="-1" Cut="0.0000000000000000e+00" cType="1" res="2.1021582651883364e-03" rms="4.7792100906372070e-01" purity="6.3450568914413452e-01" nType="-99"/>
                  </Node>
                  <Node pos="r" depth="6" NCoef="0" IVar="3" Cut="8.2707720994949341e-01" cType="1" res="6.0176111757755280e-02" rms="4.6740302443504333e-01" purity="6.7450964450836182e-01" nType="0">
                    <Node pos="l" depth="7" NCoef="0" IVar="-1" Cut="0.0000000000000000e+00" cType="1" res="4.3623368255794048e-03" rms="4.7222343087196350e-01" purity="6.5999287366867065e-01" nType="-99"/>
                    <Node pos="r" depth="7" NCoef="0" IVar="-1" Cut="0.0000000000000000e+00" cType="1" res="6.1750467866659164e-03" rms="4.6196150779724121e-01" purity="6.9012719392776489e-01" nType="-99"/>
                  </Node>
                </Node>
              </Node>
              <Node pos="r" depth="4" NCoef="0" IVar="1" Cut="1.1643596887588501e+00" cType="1" res="7.8414350748062134e-02" rms="4.1046804189682007e-01" purity="7.8218013048171997e-01" nType="0">
                <Node pos="l" depth="5" NCoef="0" IVar="1" Cut="6.2391060590744019e-01" cType="1" res="8.0916345119476318e-02" rms="4.0728440880775452e-01" purity="7.8784382343292236e-01" nType="0">
                  <Node pos="l" depth="6" NCoef="0" IVar="1" Cut="2.6472967118024826e-02" cType="1" res="8.3716720342636108e-02" rms="4.0338942408561707e-01" purity="7.9419708251953125e-01" nType="0">
                    <Node pos="l" depth="7" NCoef="0" IVar="-1" Cut="0.0000000000000000e+00" cType="1" res="8.3983428776264191e-03" rms="3.9445066452026367e-01" purity="8.0656534433364868e-01" nType="-99"/>
                    <Node pos="r" depth="7" NCoef="0" IVar="-1" Cut="0.0000000000000000e+00" cType="1" res="7.0515680126845837e-03" rms="4.1468709707260132e-01" purity="7.7798467874526978e-01" nType="-99"/>
                  </Node>
                  <Node pos="r" depth="6" NCoef="0" IVar="-1" Cut="0.0000000000000000e+00" cType="1" res="3.1915097497403622e-03" rms="4.6118998527526855e-01" purity="6.8963325023651123e-01" nType="-99"/>
                </Node>
                <Node pos="r" depth="5" NCoef="0" IVar="-1" Cut="0.0000000000000000e+00" cType="1" res="1.3590549351647496e-03" rms="4.7879660129547119e-01" purity="6.4121764898300171e-01" nType="-99"/>
              </Node>
            </Node>
            <Node pos="r" depth="3" NCoef="0" IVar="3" Cut="7.3605382442474365e-01" cType="1" res="4.3289172463119030e-03" rms="4.8624885082244873e-01" purity="5.5654776096343994e-01" nType="0">
              <Node pos="l" depth="4" NCoef="0" IVar="3" Cut="6.9684499502182007e-01" cType="1" res="-1.9336577504873276e-02" rms="4.9339497089385986e-01" purity="4.6124720573425293e-01" nType="0">
                <Node pos="l" depth="5" NCoef="0" IVar="-1" Cut="0.0000000000000000e+00" cType="1" res="-3.4284221474081278e-03" rms="4.9043625593185425e-01" purity="4.2859664559364319e-01" nType="-99"/>
                <Node pos="r" depth="5" NCoef="0" IVar="-1" Cut="0.0000000000000000e+00" cType="1" res="-5.2928173681721091e-04" rms="4.9515551328659058e-01" purity="4.8546117544174194e-01" nType="-99"/>
              </Node>
              <Node pos="r" depth="4" NCoef="0" IVar="5" Cut="2.0000000000000000e+00" cType="1" res="4.8595513217151165e-03" rms="3.0116519331932068e-01" purity="6.0196501016616821e-01" nType="0">
                <Node pos="l" depth="5" NCoef="0" IVar="-1" Cut="0.0000000000000000e+00" cType="1" res="3.2821597997099161e-03" rms="4.6020135283470154e-01" purity="6.8784904479980469e-01" nType="-99"/>
                <Node pos="r" depth="5" NCoef="0" IVar="3" Cut="7.9506200551986694e-01" cType="1" res="7.3498566634953022e-03" rms="4.9019619822502136e-01" purity="5.6980282068252563e-01" nType="0">
                  <Node pos="l" depth="6" NCoef="0" IVar="0" Cut="2.9778149724006653e-01" cType="1" res="1.4781852252781391e-02" rms="4.9365255236625671e-01" purity="5.4913431406021118e-01" nType="0">
                    <Node pos="l" depth="7" NCoef="0" IVar="-1" Cut="0.0000000000000000e+00" cType="1" res="5.2530958782881498e-04" rms="4.9192851781845093e-01" purity="5.5852299928665161e-01" nType="-99"/>
                    <Node pos="r" depth="7" NCoef="0" IVar="-1" Cut="0.0000000000000000e+00" cType="1" res="1.9307581242173910e-03" rms="4.9509361386299133e-01" purity="5.4045826196670532e-01" nType="-99"/>
                  </Node>
                  <Node pos="r" depth="6" NCoef="0" IVar="0" Cut="2.5356853008270264e-01" cType="1" res="-6.5543812524992973e-05" rms="4.8660996556282043e-01" purity="5.9042513370513916e-01" nType="0">
                    <Node pos="l" depth="7" NCoef="0" IVar="-1" Cut="0.0000000000000000e+00" cType="1" res="3.2065622508525848e-04" rms="4.8565682768821716e-01" purity="5.9735965728759766e-01" nType="-99"/>
                    <Node pos="r" depth="7" NCoef="0" IVar="-1" Cut="0.0000000000000000e+00" cType="1" res="-3.4258450614288449e-04" rms="4.8765289783477783e-01" purity="5.8261275291442871e-01" nType="-99"/>
                  </Node>
                </Node>
              </Node>
            </Node>
          </Node>
          <Node pos="r" depth="2" NCoef="0" IVar="-1" Cut="0.0000000000000000e+00" cType="1" res="-8.5016665980219841e-03" rms="4.7721201181411743e-01" purity="3.8007554411888123e-01" nType="-99"/>
        </Node>
      </Node>
    </BinaryTree>
    <BinaryTree type="DecisionTree" boostWeight="1.0000000000000000e+00" itree="35">
      <Node pos="s" depth="0" NCoef="0" IVar="3" Cut="6.7608582973480225e-01" cType="1" res="1.2614091858267784e-02" rms="4.1642981767654419e-01" purity="4.9886336922645569e-01" nType="0">
        <Node pos="l" depth="1" NCoef="0" IVar="1" Cut="1.4958879351615906e-01" cType="1" res="-4.4452924281358719e-02" rms="3.6749136447906494e-01" purity="1.9660577178001404e-01" nType="0">
          <Node pos="l" depth="2" NCoef="0" IVar="3" Cut="5.4537385702133179e-01" cType="1" res="-2.5514317676424980e-02" rms="4.0772175788879395e-01" purity="2.5954923033714294e-01" nType="0">
            <Node pos="l" depth="3" NCoef="0" IVar="3" Cut="3.8725605607032776e-01" cType="1" res="-3.9609126746654510e-02" rms="3.6119154095649719e-01" purity="1.7158755660057068e-01" nType="0">
              <Node pos="l" depth="4" NCoef="0" IVar="4" Cut="1.5823003649711609e-01" cType="1" res="-5.1481943577528000e-02" rms="3.0580380558967590e-01" purity="1.1390648037195206e-01" nType="0">
                <Node pos="l" depth="5" NCoef="0" IVar="2" Cut="1.4736154174804688e+02" cType="1" res="-6.5258406102657318e-02" rms="2.2945441305637360e-01" purity="5.7616636157035828e-02" nType="0">
                  <Node pos="l" depth="6" NCoef="0" IVar="-1" Cut="0.0000000000000000e+00" cType="1" res="-1.3671793974936008e-02" rms="2.5847125053405762e-01" purity="7.4004672467708588e-02" nType="-99"/>
                  <Node pos="r" depth="6" NCoef="0" IVar="4" Cut="1.0734631121158600e-01" cType="1" res="-7.1992412209510803e-02" rms="2.1476633846759796e-01" purity="5.0233203917741776e-02" nType="0">
                    <Node pos="l" depth="7" NCoef="0" IVar="-1" Cut="0.0000000000000000e+00" cType="1" res="-2.2588314488530159e-02" rms="1.8052953481674194e-01" purity="3.4341234713792801e-02" nType="-99"/>
                    <Node pos="r" depth="7" NCoef="0" IVar="-1" Cut="0.0000000000000000e+00" cType="1" res="-1.6533540561795235e-02" rms="2.4043318629264832e-01" purity="6.4076572656631470e-02" nType="-99"/>
                  </Node>
                </Node>
                <Node pos="r" depth="5" NCoef="0" IVar="3" Cut="2.7502289414405823e-01" cType="1" res="-3.7328030914068222e-02" rms="3.6756896972656250e-01" purity="1.7173853516578674e-01" nType="0">
                  <Node pos="l" depth="6" NCoef="0" IVar="-1" Cut="0.0000000000000000e+00" cType="1" res="-4.3945997022092342e-03" rms="3.7683361768722534e-01" purity="1.8380749225616455e-01" nType="-99"/>
                  <Node pos="r" depth="6" NCoef="0" IVar="-1" Cut="0.0000000000000000e+00" cType="1" res="-8.8058859109878540e-03" rms="3.5168778896331787e-01" purity="1.5249486267566681e-01" nType="-99"/>
                </Node>
              </Node>
              <Node pos="r" depth="4" NCoef="0" IVar="4" Cut="1.0343731194734573e-01" cType="1" res="-2.6496374979615211e-02" rms="4.1344073414802551e-01" purity="2.3529255390167236e-01" nType="0">
                <Node pos="l" depth="5" NCoef="0" IVar="2" Cut="1.1984711456298828e+02" cType="1" res="-4.2763929814100266e-02" rms="3.8232368230819702e-01" purity="1.9200423359870911e-01" nType="0">
                  <Node pos="l" depth="6" NCoef="0" IVar="-1" Cut="0.0000000000000000e+00" cType="1" res="-1.7710215179249644e-03" rms="4.1720652580261230e-01" purity="2.4237003922462463e-01" nType="-99"/>
                  <Node pos="r" depth="6" NCoef="0" IVar="-1" Cut="0.0000000000000000e+00" cType="1" res="-1.0053110308945179e-02" rms="3.5041016340255737e-01" purity="1.5197885036468506e-01" nType="-99"/>
                </Node>
                <Node pos="r" depth="5" NCoef="0" IVar="2" Cut="3.4954959106445312e+02" cType="1" res="-1.1389746330678463e-02" rms="4.3983405828475952e-01" purity="2.7549165487289429e-01" nType="0">
                  <Node pos="l" depth="6" NCoef="0" IVar="-1" Cut="0.0000000000000000e+00" cType="1" res="1.7759695183485746e-03" rms="4.5865255594253540e-01" purity="3.1367996335029602e-01" nType="-99"/>
                  <Node pos="r" depth="6" NCoef="0" IVar="-1" Cut="0.0000000000000000e+00" cType="1" res="-5.2067353390157223e-03" rms="4.1629806160926819e-01" purity="2.3382833600044250e-01" nType="-99"/>
                </Node>
              </Node>
            </Node>
            <Node pos="r" depth="3" NCoef="0" IVar="5" Cut="3.0000000000000000e+00" cType="1" res="3.0244772788137197e-03" rms="4.8605802655220032e-01" purity="4.3520238995552063e-01" nType="0">
              <Node pos="l" depth="4" NCoef="0" IVar="-1" Cut="0.0000000000000000e+00" cType="1" res="-4.0104659274220467e-03" rms="4.7050842642784119e-01" purity="3.5538458824157715e-01" nType="-99"/>
              <Node pos="r" depth="4" NCoef="0" IVar="0" Cut="3.3819404244422913e-01" cType="1" res="1.1781597509980202e-02" rms="4.8892685770988464e-01" purity="4.5132914185523987e-01" nType="0">
                <Node pos="l" depth="5" NCoef="0" IVar="0" Cut="1.8545238673686981e-01" cType="1" res="2.4926032871007919e-02" rms="4.9609816074371338e-01" purity="5.0809580087661743e-01" nType="0">
                  <Node pos="l" depth="6" NCoef="0" IVar="-1" Cut="0.0000000000000000e+00" cType="1" res="3.0196669977158308e-03" rms="4.9585327506065369e-01" purity="5.2950191497802734e-01" nType="-99"/>
                  <Node pos="r" depth="6" NCoef="0" IVar="-1" Cut="0.0000000000000000e+00" cType="1" res="5.1227316725999117e-04" rms="4.9592763185501099e-01" purity="4.7100409865379333e-01" nType="-99"/>
                </Node>
                <Node pos="r" depth="5" NCoef="0" IVar="2" Cut="1.3833059692382812e+02" cType="1" res="-5.3910650312900543e-03" rms="4.7885292768478394e-01" purity="3.7716582417488098e-01" nType="0">
                  <Node pos="l" depth="6" NCoef="0" IVar="-1" Cut="0.0000000000000000e+00" cType="1" res="1.1294697178527713e-03" rms="4.8835074901580811e-01" purity="4.1654106974601746e-01" nType="-99"/>
                  <Node pos="r" depth="6" NCoef="0" IVar="-1" Cut="0.0000000000000000e+00" cType="1" res="-2.2568923886865377e-03" rms="4.6914497017860413e-01" purity="3.4017500281333923e-01" nType="-99"/>
                </Node>
              </Node>
            </Node>
          </Node>
          <Node pos="r" depth="2" NCoef="0" IVar="3" Cut="6.3247728347778320e-01" cType="1" res="-6.0002941638231277e-02" rms="3.3001005649566650e-01" purity="1.4492444694042206e-01" nType="0">
            <Node pos="l" depth="3" NCoef="0" IVar="4" Cut="1.0078105330467224e-01" cType="1" res="-6.1953328549861908e-02" rms="3.1570672988891602e-01" purity="1.2687204778194427e-01" nType="0">
              <Node pos="l" depth="4" NCoef="0" IVar="5" Cut="3.0000000000000000e+00" cType="1" res="-6.8260021507740021e-02" rms="2.9632124304771423e-01" purity="1.0988053679466248e-01" nType="0">
                <Node pos="l" depth="5" NCoef="0" IVar="-1" Cut="0.0000000000000000e+00" cType="1" res="-1.6148772090673447e-02" rms="3.1502759456634521e-01" purity="1.1235079914331436e-01" nType="-99"/>
                <Node pos="r" depth="5" NCoef="0" IVar="2" Cut="5.7720981597900391e+01" cType="1" res="-6.5768644213676453e-02" rms="2.9420614242553711e-01" purity="1.0962519049644470e-01" nType="0">
                  <Node pos="l" depth="6" NCoef="0" IVar="-1" Cut="0.0000000000000000e+00" cType="1" res="-8.2270987331867218e-03" rms="3.3244907855987549e-01" purity="1.4225786924362183e-01" nType="-99"/>
                  <Node pos="r" depth="6" NCoef="0" IVar="4" Cut="5.1573626697063446e-02" cType="1" res="-7.0200830698013306e-02" rms="2.8524988889694214e-01" purity="1.0271145403385162e-01" nType="0">
                    <Node pos="l" depth="7" NCoef="0" IVar="-1" Cut="0.0000000000000000e+00" cType="1" res="-1.7118891701102257e-02" rms="2.5880211591720581e-01" purity="8.1060066819190979e-02" nType="-99"/>
                    <Node pos="r" depth="7" NCoef="0" IVar="-1" Cut="0.0000000000000000e+00" cType="1" res="-1.2464880011975765e-02" rms="2.9386803507804871e-01" purity="1.1041187494993210e-01" nType="-99"/>
                  </Node>
                </Node>
              </Node>
              <Node pos="r" depth="4" NCoef="0" IVar="3" Cut="4.6924120187759399e-01" cType="1" res="-5.4800871759653091e-02" rms="3.3617797493934631e-01" purity="1.4612133800983429e-01" nType="0">
                <Node pos="l" depth="5" NCoef="0" IVar="4" Cut="1.9798094034194946e-01" cType="1" res="-6.1282128095626831e-02" rms="2.9529216885566711e-01" purity="1.0188107192516327e-01" nType="0">
                  <Node pos="l" depth="6" NCoef="0" IVar="5" Cut="6.0000000000000000e+00" cType="1" res="7.7439121901988983e-02" rms="0.0000000000000000e+00" purity="8.3226300776004791e-02" nType="0">
                    <Node pos="l" depth="7" NCoef="0" IVar="-1" Cut="0.0000000000000000e+00" cType="1" res="-1.2365437112748623e-02" rms="3.0333027243614197e-01" purity="1.0611506551504135e-01" nType="-99"/>
                    <Node pos="r" depth="7" NCoef="0" IVar="-1" Cut="0.0000000000000000e+00" cType="1" res="-1.8679071217775345e-02" rms="2.2506801784038544e-01" purity="5.5813468992710114e-02" nType="-99"/>
                  </Node>
                  <Node pos="r" depth="6" NCoef="0" IVar="-1" Cut="0.0000000000000000e+00" cType="1" res="-8.6938645690679550e-03" rms="3.5361915826797485e-01" purity="1.5258598327636719e-01" nType="-99"/>
                </Node>
                <Node pos="r" depth="5" NCoef="0" IVar="5" Cut="4.0000000000000000e+00" cType="1" res="-3.1455587595701218e-02" rms="4.5052227377891541e-01" purity="3.0158588290214539e-01" nType="0">
                  <Node pos="l" depth="6" NCoef="0" IVar="-1" Cut="0.0000000000000000e+00" cType="1" res="-5.1093851216137409e-03" rms="4.4279229640960693e-01" purity="2.8738301992416382e-01" nType="-99"/>
                  <Node pos="r" depth="6" NCoef="0" IVar="-1" Cut="0.0000000000000000e+00" cType="1" res="-1.7579519189894199e-03" rms="4.5814463496208191e-01" purity="3.1635862588882446e-01" nType="-99"/>
                </Node>
              </Node>
            </Node>
            <Node pos="r" depth="3" NCoef="0" IVar="-1" Cut="0.0000000000000000e+00" cType="1" res="-3.2862005755305290e-03" rms="4.7688049077987671e-01" purity="3.7789404392242432e-01" nType="-99"/>
          </Node>
        </Node>
        <Node pos="r" depth="1" NCoef="0" IVar="0" Cut="5.7448899745941162e-01" cType="1" res="5.1433596760034561e-02" rms="4.4247978925704956e-01" purity="7.0447236299514771e-01" nType="0">
          <Node pos="l" depth="2" NCoef="0" IVar="0" Cut="1.8530983477830887e-02" cType="1" res="5.5831663310527802e-02" rms="4.4047549366950989e-01" purity="7.1468168497085571e-01" nType="0">
            <Node pos="l" depth="3" NCoef="0" IVar="3" Cut="9.7511637210845947e-01" cType="1" res="6.4302556216716766e-02" rms="4.3141993880271912e-01" purity="7.4139553308486938e-01" nType="0">
              <Node pos="l" depth="4" NCoef="0" IVar="3" Cut="8.3042103052139282e-01" cType="1" res="4.9426037818193436e-02" rms="4.5773133635520935e-01" purity="6.8827563524246216e-01" nType="0">
                <Node pos="l" depth="5" NCoef="0" IVar="5" Cut="3.0000000000000000e+00" cType="1" res="-2.4875995222828351e-05" rms="3.6272609140723944e-03" purity="6.3323462009429932e-01" nType="0">
                  <Node pos="l" depth="6" NCoef="0" IVar="3" Cut="7.7566152811050415e-01" cType="1" res="2.7105279266834259e-02" rms="4.7995835542678833e-01" purity="6.2632381916046143e-01" nType="0">
                    <Node pos="l" depth="7" NCoef="0" IVar="-1" Cut="0.0000000000000000e+00" cType="1" res="2.3818311456125230e-04" rms="4.9271836876869202e-01" purity="5.6900310516357422e-01" nType="-99"/>
                    <Node pos="r" depth="7" NCoef="0" IVar="-1" Cut="0.0000000000000000e+00" cType="1" res="3.0486120376735926e-03" rms="4.7281223535537720e-01" purity="6.5568965673446655e-01" nType="-99"/>
                  </Node>
                  <Node pos="r" depth="6" NCoef="0" IVar="4" Cut="4.8831675201654434e-02" cType="1" res="4.6168487519025803e-02" rms="4.7659695148468018e-01" purity="6.3965195417404175e-01" nType="0">
                    <Node pos="l" depth="7" NCoef="0" IVar="-1" Cut="0.0000000000000000e+00" cType="1" res="2.8971519786864519e-03" rms="4.7746801376342773e-01" purity="6.3649642467498779e-01" nType="-99"/>
                    <Node pos="r" depth="7" NCoef="0" IVar="-1" Cut="0.0000000000000000e+00" cType="1" res="4.8902030102908611e-03" rms="4.7566485404968262e-01" purity="6.4203554391860962e-01" nType="-99"/>
                  </Node>
                </Node>
                <Node pos="r" depth="5" NCoef="0" IVar="1" Cut="8.0056348815560341e-03" cType="1" res="5.8519069105386734e-02" rms="4.4185486435890198e-01" purity="7.2852003574371338e-01" nType="0">
                  <Node pos="l" depth="6" NCoef="0" IVar="1" Cut="-1.5587286651134491e-01" cType="1" res="0.0000000000000000e+00" rms="0.0000000000000000e+00" purity="7.6004004478454590e-01" nType="0">
                    <Node pos="l" depth="7" NCoef="0" IVar="-1" Cut="0.0000000000000000e+00" cType="1" res="4.8874639905989170e-03" rms="4.3879550695419312e-01" purity="7.3887419700622559e-01" nType="-99"/>
                    <Node pos="r" depth="7" NCoef="0" IVar="-1" Cut="0.0000000000000000e+00" cType="1" res="7.5539047829806805e-03" rms="4.1976717114448547e-01" purity="7.7095586061477661e-01" nType="-99"/>
                  </Node>
                  <Node pos="r" depth="6" NCoef="0" IVar="4" Cut="4.6338453888893127e-02" cType="1" res="4.6334184706211090e-02" rms="4.5551306009292603e-01" purity="6.9880592823028564e-01" nType="0">
                    <Node pos="l" depth="7" NCoef="0" IVar="-1" Cut="0.0000000000000000e+00" cType="1" res="3.6560117732733488e-03" rms="4.5562577247619629e-01" purity="6.9791203737258911e-01" nType="-99"/>
                    <Node pos="r" depth="7" NCoef="0" IVar="-1" Cut="0.0000000000000000e+00" cType="1" res="6.2236925587058067e-03" rms="4.5384725928306580e-01" purity="7.0280241966247559e-01" nType="-99"/>
                  </Node>
                </Node>
              </Node>
              <Node pos="r" depth="4" NCoef="0" IVar="3" Cut="1.0402293205261230e+00" cType="1" res="7.7991023659706116e-02" rms="4.0522301197052002e-01" purity="7.9027330875396729e-01" nType="0">
                <Node pos="l" depth="5" NCoef="0" IVar="3" Cut="1.0003218650817871e+00" cType="1" res="8.0027945339679718e-02" rms="4.0329515933990479e-01" purity="7.9354459047317505e-01" nType="0">
                  <Node pos="l" depth="6" NCoef="0" IVar="1" Cut="1.8185909092426300e-01" cType="1" res="7.1872688829898834e-02" rms="4.1015893220901489e-01" purity="7.8355675935745239e-01" nType="0">
                    <Node pos="l" depth="7" NCoef="0" IVar="-1" Cut="0.0000000000000000e+00" cType="1" res="7.6670614071190357e-03" rms="3.9761489629745483e-01" purity="8.0301195383071899e-01" nType="-99"/>
                    <Node pos="r" depth="7" NCoef="0" IVar="-1" Cut="0.0000000000000000e+00" cType="1" res="5.1378831267356873e-03" rms="4.3415755033493042e-01" purity="7.4398797750473022e-01" nType="-99"/>
                  </Node>
                  <Node pos="r" depth="6" NCoef="0" IVar="3" Cut="1.0054709911346436e+00" cType="1" res="9.0540297329425812e-02" rms="3.9402240514755249e-01" purity="8.0641907453536987e-01" nType="0">
                    <Node pos="l" depth="7" NCoef="0" IVar="-1" Cut="0.0000000000000000e+00" cType="1" res="8.3844801411032677e-03" rms="3.9175391197204590e-01" purity="8.0927568674087524e-01" nType="-99"/>
                    <Node pos="r" depth="7" NCoef="0" IVar="-1" Cut="0.0000000000000000e+00" cType="1" res="7.9412227496504784e-03" rms="3.9611303806304932e-01" purity="8.0374169349670410e-01" nType="-99"/>
                  </Node>
                </Node>
                <Node pos="r" depth="5" NCoef="0" IVar="-1" Cut="0.0000000000000000e+00" cType="1" res="4.3827621266245842e-03" rms="4.3084427714347839e-01" purity="7.4340355396270752e-01" nType="-99"/>
              </Node>
            </Node>
            <Node pos="r" depth="3" NCoef="0" IVar="3" Cut="7.3707693815231323e-01" cType="1" res="9.1700572520494461e-03" rms="4.8470419645309448e-01" purity="5.6752943992614746e-01" nType="0">
              <Node pos="l" depth="4" NCoef="0" IVar="3" Cut="6.9972991943359375e-01" cType="1" res="-1.7199542373418808e-02" rms="4.9293607473373413e-01" purity="4.6958357095718384e-01" nType="0">
                <Node pos="l" depth="5" NCoef="0" IVar="-1" Cut="0.0000000000000000e+00" cType="1" res="-4.0376288816332817e-03" rms="4.8903784155845642e-01" purity="4.3146514892578125e-01" nType="-99"/>
                <Node pos="r" depth="5" NCoef="0" IVar="-1" Cut="0.0000000000000000e+00" cType="1" res="-1.1312078640912659e-05" rms="4.9458533525466919e-01" purity="4.9335572123527527e-01" nType="-99"/>
              </Node>
              <Node pos="r" depth="4" NCoef="0" IVar="2" Cut="1.6426394653320312e+02" cType="1" res="2.0811134949326515e-02" rms="4.8056522011756897e-01" purity="6.1076843738555908e-01" nType="0">
                <Node pos="l" depth="5" NCoef="0" IVar="4" Cut="3.8211774080991745e-02" cType="1" res="2.5048341602087021e-02" rms="4.7681167721748352e-01" purity="6.2596195936203003e-01" nType="0">
                  <Node pos="l" depth="6" NCoef="0" IVar="3" Cut="8.8629728555679321e-01" cType="1" res="1.5547838062047958e-02" rms="4.7517353296279907e-01" purity="6.2859660387039185e-01" nType="0">
                    <Node pos="l" depth="7" NCoef="0" IVar="-1" Cut="0.0000000000000000e+00" cType="1" res="-9.9552911706268787e-04" rms="4.9117651581764221e-01" purity="5.5714523792266846e-01" nType="-99"/>
                    <Node pos="r" depth="7" NCoef="0" IVar="-1" Cut="0.0000000000000000e+00" cType="1" res="3.4834204707294703e-03" rms="4.5911073684692383e-01" purity="6.9247651100158691e-01" nType="-99"/>
                  </Node>
                  <Node pos="r" depth="6" NCoef="0" IVar="-1" Cut="0.0000000000000000e+00" cType="1" res="4.1051968000829220e-03" rms="4.7998142242431641e-01" purity="6.1957138776779175e-01" nType="-99"/>
                </Node>
                <Node pos="r" depth="5" NCoef="0" IVar="-1" Cut="0.0000000000000000e+00" cType="1" res="2.4775337078608572e-04" rms="4.9587029218673706e-01" purity="5.4587405920028687e-01" nType="-99"/>
              </Node>
            </Node>
          </Node>
          <Node pos="r" depth="2" NCoef="0" IVar="-1" Cut="0.0000000000000000e+00" cType="1" res="-7.2342460043728352e-03" rms="4.8049798607826233e-01" purity="3.9839702844619751e-01" nType="-99"/>
        </Node>
      </Node>
    </BinaryTree>
    <BinaryTree type="DecisionTree" boostWeight="1.0000000000000000e+00" itree="36">
      <Node pos="s" depth="0" NCoef="0" IVar="3" Cut="7.7113348245620728e-01" cType="1" res="1.2447707355022430e-02" rms="4.1650930047035217e-01" purity="4.9973347783088684e-01" nType="0">
        <Node pos="l" depth="1" NCoef="0" IVar="3" Cut="6.2190777063369751e-01" cType="1" res="-3.2541215419769287e-02" rms="3.9507660269737244e-01" purity="2.6256167888641357e-01" nType="0">
          <Node pos="l" depth="2" NCoef="0" IVar="3" Cut="4.8151171207427979e-01" cType="1" res="-4.4781468808650970e-02" rms="3.5053980350494385e-01" purity="1.6771993041038513e-01" nType="0">
            <Node pos="l" depth="3" NCoef="0" IVar="5" Cut="3.0000000000000000e+00" cType="1" res="9.1186583042144775e-02" rms="0.0000000000000000e+00" purity="1.0610675066709518e-01" nType="0">
              <Node pos="l" depth="4" NCoef="0" IVar="-1" Cut="0.0000000000000000e+00" cType="1" res="-1.1156930122524500e-03" rms="3.7657651305198669e-01" purity="1.8964822590351105e-01" nType="-99"/>
              <Node pos="r" depth="4" NCoef="0" IVar="4" Cut="1.1743576824665070e-01" cType="1" res="-5.3308125585317612e-02" rms="2.9273882508277893e-01" purity="1.0167962312698364e-01" nType="0">
                <Node pos="l" depth="5" NCoef="0" IVar="2" Cut="6.8271728515625000e+01" cType="1" res="-6.0289822518825531e-02" rms="2.4491427838802338e-01" purity="6.7296698689460754e-02" nType="0">
                  <Node pos="l" depth="6" NCoef="0" IVar="2" Cut="4.6330135345458984e+01" cType="1" res="-4.1930656880140305e-02" rms="2.8006151318550110e-01" purity="9.0618126094341278e-02" nType="0">
                    <Node pos="l" depth="7" NCoef="0" IVar="-1" Cut="0.0000000000000000e+00" cType="1" res="-1.0273513384163380e-02" rms="2.8285613656044006e-01" purity="9.1087780892848969e-02" nType="-99"/>
                    <Node pos="r" depth="7" NCoef="0" IVar="-1" Cut="0.0000000000000000e+00" cType="1" res="-1.0855309665203094e-02" rms="2.7716958522796631e-01" purity="9.0138256549835205e-02" nType="-99"/>
                  </Node>
                  <Node pos="r" depth="6" NCoef="0" IVar="4" Cut="6.3845001161098480e-02" cType="1" res="-6.4114473760128021e-02" rms="2.3675784468650818e-01" purity="6.2438290566205978e-02" nType="0">
                    <Node pos="l" depth="7" NCoef="0" IVar="-1" Cut="0.0000000000000000e+00" cType="1" res="-2.0487563684582710e-02" rms="1.9846844673156738e-01" purity="4.1601177304983139e-02" nType="-99"/>
                    <Node pos="r" depth="7" NCoef="0" IVar="-1" Cut="0.0000000000000000e+00" cType="1" res="-1.4570185914635658e-02" rms="2.5221183896064758e-01" purity="7.2011210024356842e-02" nType="-99"/>
                  </Node>
                </Node>
                <Node pos="r" depth="5" NCoef="0" IVar="2" Cut="2.4473220825195312e+02" cType="1" res="-4.6080205589532852e-02" rms="3.3498227596282959e-01" purity="1.3727509975433350e-01" nType="0">
                  <Node pos="l" depth="6" NCoef="0" IVar="1" Cut="3.2411715388298035e-01" cType="1" res="-2.5848252698779106e-02" rms="3.5026824474334717e-01" purity="1.5549495816230774e-01" nType="0">
                    <Node pos="l" depth="7" NCoef="0" IVar="-1" Cut="0.0000000000000000e+00" cType="1" res="-3.3785655978135765e-04" rms="3.8767778873443604e-01" purity="1.9921666383743286e-01" nType="-99"/>
                    <Node pos="r" depth="7" NCoef="0" IVar="-1" Cut="0.0000000000000000e+00" cType="1" res="-1.3440809212625027e-02" rms="2.8827342391014099e-01" purity="9.5702230930328369e-02" nType="-99"/>
                  </Node>
                  <Node pos="r" depth="6" NCoef="0" IVar="3" Cut="1.2437083572149277e-01" cType="1" res="-5.2023492753505707e-02" rms="3.3012199401855469e-01" purity="1.3192290067672729e-01" nType="0">
                    <Node pos="l" depth="7" NCoef="0" IVar="-1" Cut="0.0000000000000000e+00" cType="1" res="-4.1352892294526100e-03" rms="3.6576682329177856e-01" purity="1.7335057258605957e-01" nType="-99"/>
                    <Node pos="r" depth="7" NCoef="0" IVar="-1" Cut="0.0000000000000000e+00" cType="1" res="-1.0315319523215294e-02" rms="3.2496851682662964e-01" purity="1.2647761404514313e-01" nType="-99"/>
                  </Node>
                </Node>
              </Node>
            </Node>
            <Node pos="r" depth="3" NCoef="0" IVar="1" Cut="6.4244860410690308e-01" cType="1" res="-3.0945401638746262e-02" rms="4.4654583930969238e-01" purity="3.0586692690849304e-01" nType="0">
              <Node pos="l" depth="4" NCoef="0" IVar="1" Cut="-2.5339411571621895e-02" cType="1" res="-2.2347088903188705e-02" rms="4.5671859383583069e-01" purity="3.2707628607749939e-01" nType="0">
                <Node pos="l" depth="5" NCoef="0" IVar="5" Cut="4.0000000000000000e+00" cType="1" res="1.1899578385055065e-03" rms="4.7270232439041138e-01" purity="3.7401089072227478e-01" nType="0">
                  <Node pos="l" depth="6" NCoef="0" IVar="-1" Cut="0.0000000000000000e+00" cType="1" res="-2.1964730694890022e-03" rms="4.6390578150749207e-01" purity="3.4072110056877136e-01" nType="-99"/>
                  <Node pos="r" depth="6" NCoef="0" IVar="-1" Cut="0.0000000000000000e+00" cType="1" res="2.0736726000905037e-03" rms="4.7975045442581177e-01" purity="4.0248137712478638e-01" nType="-99"/>
                </Node>
                <Node pos="r" depth="5" NCoef="0" IVar="1" Cut="1.0389228165149689e-01" cType="1" res="-3.8092263042926788e-02" rms="4.4485521316528320e-01" purity="2.9585039615631104e-01" nType="0">
                  <Node pos="l" depth="6" NCoef="0" IVar="-1" Cut="0.0000000000000000e+00" cType="1" res="-1.3878616737201810e-03" rms="4.6629366278648376e-01" purity="3.4925374388694763e-01" nType="-99"/>
                  <Node pos="r" depth="6" NCoef="0" IVar="2" Cut="2.0508070373535156e+02" cType="1" res="-4.8917241394519806e-02" rms="4.3454506993293762e-01" purity="2.7210342884063721e-01" nType="0">
                    <Node pos="l" depth="7" NCoef="0" IVar="-1" Cut="0.0000000000000000e+00" cType="1" res="-3.8976850919425488e-03" rms="4.4367593526840210e-01" purity="2.8940373659133911e-01" nType="-99"/>
                    <Node pos="r" depth="7" NCoef="0" IVar="-1" Cut="0.0000000000000000e+00" cType="1" res="-7.3626297526061535e-03" rms="4.2260992527008057e-01" purity="2.5103661417961121e-01" nType="-99"/>
                  </Node>
                </Node>
              </Node>
              <Node pos="r" depth="4" NCoef="0" IVar="-1" Cut="0.0000000000000000e+00" cType="1" res="-9.8064187914133072e-03" rms="3.8564607501029968e-01" purity="1.9448871910572052e-01" nType="-99"/>
            </Node>
          </Node>
          <Node pos="r" depth="2" NCoef="0" IVar="1" Cut="1.6746361553668976e-01" cType="1" res="-1.7430160660296679e-03" rms="4.8817461729049683e-01" purity="5.0119686126708984e-01" nType="0">
            <Node pos="l" depth="3" NCoef="0" IVar="5" Cut="3.0000000000000000e+00" cType="1" res="1.5661610290408134e-02" rms="4.8932388424873352e-01" purity="5.4086333513259888e-01" nType="0">
              <Node pos="l" depth="4" NCoef="0" IVar="3" Cut="7.2300267219543457e-01" cType="1" res="-7.6708518899977207e-03" rms="4.9195444583892822e-01" purity="5.0269049406051636e-01" nType="0">
                <Node pos="l" depth="5" NCoef="0" IVar="-1" Cut="0.0000000000000000e+00" cType="1" res="-2.0243751350790262e-03" rms="4.8948663473129272e-01" purity="4.4596758484840393e-01" nType="-99"/>
                <Node pos="r" depth="5" NCoef="0" IVar="-1" Cut="0.0000000000000000e+00" cType="1" res="6.8271323107182980e-04" rms="4.9395644664764404e-01" purity="5.6069886684417725e-01" nType="-99"/>
              </Node>
              <Node pos="r" depth="4" NCoef="0" IVar="2" Cut="2.0218290710449219e+02" cType="1" res="2.5527559220790863e-02" rms="4.8849093914031982e-01" purity="5.5976444482803345e-01" nType="0">
                <Node pos="l" depth="5" NCoef="0" IVar="4" Cut="5.9338059276342392e-02" cType="1" res="3.6095384508371353e-02" rms="4.8695889115333557e-01" purity="5.7893276214599609e-01" nType="0">
                  <Node pos="l" depth="6" NCoef="0" IVar="2" Cut="5.9921989440917969e+01" cType="1" res="1.1479163542389870e-02" rms="4.8992857336997986e-01" purity="5.5082482099533081e-01" nType="0">
                    <Node pos="l" depth="7" NCoef="0" IVar="-1" Cut="0.0000000000000000e+00" cType="1" res="3.9883237332105637e-03" rms="4.8506018519401550e-01" purity="5.9657603502273560e-01" nType="-99"/>
                    <Node pos="r" depth="7" NCoef="0" IVar="-1" Cut="0.0000000000000000e+00" cType="1" res="-1.7131485510617495e-03" rms="4.9205285310745239e-01" purity="5.1175504922866821e-01" nType="-99"/>
                  </Node>
                  <Node pos="r" depth="6" NCoef="0" IVar="-1" Cut="0.0000000000000000e+00" cType="1" res="6.0269702225923538e-03" rms="4.7984346747398376e-01" purity="6.2243509292602539e-01" nType="-99"/>
                </Node>
                <Node pos="r" depth="5" NCoef="0" IVar="-1" Cut="0.0000000000000000e+00" cType="1" res="-1.3413440319709480e-04" rms="4.9135196208953857e-01" purity="5.1080250740051270e-01" nType="-99"/>
              </Node>
            </Node>
            <Node pos="r" depth="3" NCoef="0" IVar="0" Cut="4.2297551035881042e-01" cType="1" res="-2.8518671169877052e-02" rms="4.8415067791938782e-01" purity="4.3594279885292053e-01" nType="0">
              <Node pos="l" depth="4" NCoef="0" IVar="0" Cut="1.9088456034660339e-01" cType="1" res="-1.3974602334201336e-02" rms="4.9268534779548645e-01" purity="4.7748866677284241e-01" nType="0">
                <Node pos="l" depth="5" NCoef="0" IVar="3" Cut="7.1337044239044189e-01" cType="1" res="9.8121622577309608e-03" rms="4.9537786841392517e-01" purity="5.2669316530227661e-01" nType="0">
                  <Node pos="l" depth="6" NCoef="0" IVar="-1" Cut="0.0000000000000000e+00" cType="1" res="-1.1253298725932837e-03" rms="4.9876621365547180e-01" purity="4.7734990715980530e-01" nType="-99"/>
                  <Node pos="r" depth="6" NCoef="0" IVar="-1" Cut="0.0000000000000000e+00" cType="1" res="2.9458280187100172e-03" rms="4.9017426371574402e-01" purity="5.8288168907165527e-01" nType="-99"/>
                </Node>
                <Node pos="r" depth="5" NCoef="0" IVar="-1" Cut="0.0000000000000000e+00" cType="1" res="-4.2986362241208553e-03" rms="4.8710370063781738e-01" purity="4.1021245718002319e-01" nType="-99"/>
              </Node>
              <Node pos="r" depth="4" NCoef="0" IVar="-1" Cut="0.0000000000000000e+00" cType="1" res="-8.1231100484728813e-03" rms="4.4936156272888184e-01" purity="2.9067707061767578e-01" nType="-99"/>
            </Node>
          </Node>
        </Node>
        <Node pos="r" depth="1" NCoef="0" IVar="3" Cut="1.0571445226669312e+00" cType="1" res="5.7176522910594940e-02" rms="4.3215844035148621e-01" purity="7.3553401231765747e-01" nType="0">
          <Node pos="l" depth="2" NCoef="0" IVar="0" Cut="4.9305471777915955e-01" cType="1" res="5.9664525091648102e-02" rms="4.3134862184524536e-01" purity="7.3877763748168945e-01" nType="0">
            <Node pos="l" depth="3" NCoef="0" IVar="3" Cut="9.9254870414733887e-01" cType="1" res="6.2931872904300690e-02" rms="4.2905771732330322e-01" purity="7.4719130992889404e-01" nType="0">
              <Node pos="l" depth="4" NCoef="0" IVar="1" Cut="6.6480696201324463e-01" cType="1" res="5.0736952573060989e-02" rms="4.4809046387672424e-01" purity="7.1060580015182495e-01" nType="0">
                <Node pos="l" depth="5" NCoef="0" IVar="0" Cut="2.2263120114803314e-01" cType="1" res="5.7111661881208420e-02" rms="4.4290879368782043e-01" purity="7.2474449872970581e-01" nType="0">
                  <Node pos="l" depth="6" NCoef="0" IVar="1" Cut="1.6628609597682953e-01" cType="1" res="6.0703795403242111e-02" rms="4.3839088082313538e-01" purity="7.3582816123962402e-01" nType="0">
                    <Node pos="l" depth="7" NCoef="0" IVar="-1" Cut="0.0000000000000000e+00" cType="1" res="6.0290284454822540e-03" rms="4.3189486861228943e-01" purity="7.4874746799468994e-01" nType="-99"/>
                    <Node pos="r" depth="7" NCoef="0" IVar="-1" Cut="0.0000000000000000e+00" cType="1" res="4.1190800257027149e-03" rms="4.5670625567436218e-01" purity="6.9776219129562378e-01" nType="-99"/>
                  </Node>
                  <Node pos="r" depth="6" NCoef="0" IVar="2" Cut="6.7957550048828125e+01" cType="1" res="2.3891799151897430e-02" rms="4.8142203688621521e-01" purity="6.2224256992340088e-01" nType="0">
                    <Node pos="l" depth="7" NCoef="0" IVar="-1" Cut="0.0000000000000000e+00" cType="1" res="4.0999012999236584e-03" rms="4.6799150109291077e-01" purity="6.6610139608383179e-01" nType="-99"/>
                    <Node pos="r" depth="7" NCoef="0" IVar="-1" Cut="0.0000000000000000e+00" cType="1" res="2.4146873329300433e-04" rms="4.9274447560310364e-01" purity="5.8110088109970093e-01" nType="-99"/>
                  </Node>
                </Node>
                <Node pos="r" depth="5" NCoef="0" IVar="4" Cut="3.1206946820020676e-02" cType="1" res="-1.4573474414646626e-02" rms="4.9335998296737671e-01" purity="5.6575202941894531e-01" nType="0">
                  <Node pos="l" depth="6" NCoef="0" IVar="-1" Cut="0.0000000000000000e+00" cType="1" res="-3.2978064846247435e-03" rms="4.9358659982681274e-01" purity="5.6276839971542358e-01" nType="-99"/>
                  <Node pos="r" depth="6" NCoef="0" IVar="-1" Cut="0.0000000000000000e+00" cType="1" res="6.8819487933069468e-04" rms="4.9204850196838379e-01" purity="5.6866788864135742e-01" nType="-99"/>
                </Node>
              </Node>
              <Node pos="r" depth="4" NCoef="0" IVar="3" Cut="9.9880146980285645e-01" cType="1" res="7.7833168208599091e-02" rms="4.0408819913864136e-01" purity="7.9189622402191162e-01" nType="0">
                <Node pos="l" depth="5" NCoef="0" IVar="1" Cut="1.5469010174274445e-01" cType="1" res="6.8566918373107910e-02" rms="4.1150611639022827e-01" purity="7.8024643659591675e-01" nType="0">
                  <Node pos="l" depth="6" NCoef="0" IVar="3" Cut="9.9638217687606812e-01" cType="1" res="7.9980820417404175e-02" rms="3.9524510502815247e-01" purity="8.0529993772506714e-01" nType="0">
                    <Node pos="l" depth="7" NCoef="0" IVar="-1" Cut="0.0000000000000000e+00" cType="1" res="8.6321942508220673e-03" rms="3.8916322588920593e-01" purity="8.1304979324340820e-01" nType="-99"/>
                    <Node pos="r" depth="7" NCoef="0" IVar="-1" Cut="0.0000000000000000e+00" cType="1" res="6.9645456969738007e-03" rms="4.0090978145599365e-01" purity="7.9777818918228149e-01" nType="-99"/>
                  </Node>
                  <Node pos="r" depth="6" NCoef="0" IVar="3" Cut="9.9638211727142334e-01" cType="1" res="4.9899965524673462e-02" rms="4.3615439534187317e-01" purity="7.3927241563796997e-01" nType="0">
                    <Node pos="l" depth="7" NCoef="0" IVar="-1" Cut="0.0000000000000000e+00" cType="1" res="5.2246418781578541e-03" rms="4.3351143598556519e-01" purity="7.4537670612335205e-01" nType="-99"/>
                    <Node pos="r" depth="7" NCoef="0" IVar="-1" Cut="0.0000000000000000e+00" cType="1" res="4.0885722264647484e-03" rms="4.3836253881454468e-01" purity="7.3396754264831543e-01" nType="-99"/>
                  </Node>
                </Node>
                <Node pos="r" depth="5" NCoef="0" IVar="3" Cut="1.0006830692291260e+00" cType="1" res="8.2148678600788116e-02" rms="4.0051344037055969e-01" purity="7.9732179641723633e-01" nType="0">
                  <Node pos="l" depth="6" NCoef="0" IVar="3" Cut="9.9995434284210205e-01" cType="1" res="7.6462782919406891e-02" rms="4.0650993585586548e-01" purity="7.8911000490188599e-01" nType="0">
                    <Node pos="l" depth="7" NCoef="0" IVar="-1" Cut="0.0000000000000000e+00" cType="1" res="7.3556983843445778e-03" rms="4.0428569912910461e-01" purity="7.9306310415267944e-01" nType="-99"/>
                    <Node pos="r" depth="7" NCoef="0" IVar="-1" Cut="0.0000000000000000e+00" cType="1" res="6.1802892014384270e-03" rms="4.1012719273567200e-01" purity="7.8242075443267822e-01" nType="-99"/>
                  </Node>
                  <Node pos="r" depth="6" NCoef="0" IVar="3" Cut="1.0025042295455933e+00" cType="1" res="8.3815805613994598e-02" rms="3.9872279763221741e-01" purity="7.9972958564758301e-01" nType="0">
                    <Node pos="l" depth="7" NCoef="0" IVar="-1" Cut="0.0000000000000000e+00" cType="1" res="7.9310005530714989e-03" rms="3.9540094137191772e-01" purity="8.0450081825256348e-01" nType="-99"/>
                    <Node pos="r" depth="7" NCoef="0" IVar="-1" Cut="0.0000000000000000e+00" cType="1" res="7.5034345500171185e-03" rms="3.9976003766059875e-01" purity="7.9821223020553589e-01" nType="-99"/>
                  </Node>
                </Node>
              </Node>
            </Node>
            <Node pos="r" depth="3" NCoef="0" IVar="-1" Cut="0.0000000000000000e+00" cType="1" res="-3.8562500849366188e-03" rms="4.8733031749725342e-01" purity="4.7198808193206787e-01" nType="-99"/>
          </Node>
          <Node pos="r" depth="2" NCoef="0" IVar="-1" Cut="0.0000000000000000e+00" cType="1" res="-4.1837035678327084e-03" rms="4.5258182287216187e-01" purity="6.0152256488800049e-01" nType="-99"/>
        </Node>
      </Node>
    </BinaryTree>
    <BinaryTree type="DecisionTree" boostWeight="1.0000000000000000e+00" itree="37">
      <Node pos="s" depth="0" NCoef="0" IVar="3" Cut="6.7608582973480225e-01" cType="1" res="1.2983710505068302e-02" rms="4.1552460193634033e-01" purity="4.9949693679809570e-01" nType="0">
        <Node pos="l" depth="1" NCoef="0" IVar="3" Cut="5.8886897563934326e-01" cType="1" res="-3.9145402610301971e-02" rms="3.6765396595001221e-01" purity="1.9785648584365845e-01" nType="0">
          <Node pos="l" depth="2" NCoef="0" IVar="1" Cut="7.5091958045959473e-01" cType="1" res="-4.6602521091699600e-02" rms="3.3591845631599426e-01" purity="1.4834216237068176e-01" nType="0">
            <Node pos="l" depth="3" NCoef="0" IVar="3" Cut="4.3694192171096802e-01" cType="1" res="-4.1201718151569366e-02" rms="3.5483673214912415e-01" purity="1.6925610601902008e-01" nType="0">
              <Node pos="l" depth="4" NCoef="0" IVar="4" Cut="2.4777951836585999e-01" cType="1" res="-4.9706835299730301e-02" rms="2.9547968506813049e-01" purity="1.0423848032951355e-01" nType="0">
                <Node pos="l" depth="5" NCoef="0" IVar="4" Cut="1.9201736152172089e-01" cType="1" res="-5.4809998720884323e-02" rms="2.7530431747436523e-01" purity="8.7529167532920837e-02" nType="0">
                  <Node pos="l" depth="6" NCoef="0" IVar="2" Cut="1.4382971191406250e+02" cType="1" res="-5.8707639575004578e-02" rms="2.5632530450820923e-01" purity="7.3918506503105164e-02" nType="0">
                    <Node pos="l" depth="7" NCoef="0" IVar="-1" Cut="0.0000000000000000e+00" cType="1" res="-1.1822787113487720e-02" rms="2.6833552122116089e-01" purity="8.1556439399719238e-02" nType="-99"/>
                    <Node pos="r" depth="7" NCoef="0" IVar="-1" Cut="0.0000000000000000e+00" cType="1" res="-1.5535529702901840e-02" rms="2.5095552206039429e-01" purity="7.0747464895248413e-02" nType="-99"/>
                  </Node>
                  <Node pos="r" depth="6" NCoef="0" IVar="5" Cut="6.0000000000000000e+00" cType="1" res="-3.3989679068326950e-02" rms="3.5936266183853149e-01" purity="1.6018880903720856e-01" nType="0">
                    <Node pos="l" depth="7" NCoef="0" IVar="-1" Cut="0.0000000000000000e+00" cType="1" res="-2.2231701295822859e-03" rms="3.9761945605278015e-01" purity="2.0591738820075989e-01" nType="-99"/>
                    <Node pos="r" depth="7" NCoef="0" IVar="-1" Cut="0.0000000000000000e+00" cType="1" res="-1.0828646831214428e-02" rms="3.1273505091667175e-01" purity="1.1200795322656631e-01" nType="-99"/>
                  </Node>
                </Node>
                <Node pos="r" depth="5" NCoef="0" IVar="-1" Cut="0.0000000000000000e+00" cType="1" res="-1.7409097636118531e-03" rms="4.1287752985954285e-01" purity="2.2722794115543365e-01" nType="-99"/>
              </Node>
              <Node pos="r" depth="4" NCoef="0" IVar="5" Cut="5.0000000000000000e+00" cType="1" res="-2.8044516220688820e-02" rms="4.2951267957687378e-01" purity="2.6857432723045349e-01" nType="0">
                <Node pos="l" depth="5" NCoef="0" IVar="4" Cut="8.0254465341567993e-02" cType="1" res="-3.7338156253099442e-02" rms="4.2558005452156067e-01" purity="2.6029664278030396e-01" nType="0">
                  <Node pos="l" depth="6" NCoef="0" IVar="2" Cut="7.5384193420410156e+01" cType="1" res="-5.6055177003145218e-02" rms="3.9462330937385559e-01" purity="2.1182197332382202e-01" nType="0">
                    <Node pos="l" depth="7" NCoef="0" IVar="-1" Cut="0.0000000000000000e+00" cType="1" res="-1.4482282567769289e-03" rms="4.3690109252929688e-01" purity="2.8247973322868347e-01" nType="-99"/>
                    <Node pos="r" depth="7" NCoef="0" IVar="-1" Cut="0.0000000000000000e+00" cType="1" res="-1.1017041280865669e-02" rms="3.6606028676033020e-01" purity="1.7152950167655945e-01" nType="-99"/>
                  </Node>
                  <Node pos="r" depth="6" NCoef="0" IVar="2" Cut="1.9505477905273438e+02" cType="1" res="-2.5538221001625061e-02" rms="4.4358274340629578e-01" purity="2.9085695743560791e-01" nType="0">
                    <Node pos="l" depth="7" NCoef="0" IVar="-1" Cut="0.0000000000000000e+00" cType="1" res="8.9374609524384141e-04" rms="4.6509927511215210e-01" purity="3.5173881053924561e-01" nType="-99"/>
                    <Node pos="r" depth="7" NCoef="0" IVar="-1" Cut="0.0000000000000000e+00" cType="1" res="-5.0647095777094364e-03" rms="4.3137758970260620e-01" purity="2.6037299633026123e-01" nType="-99"/>
                  </Node>
                </Node>
                <Node pos="r" depth="5" NCoef="0" IVar="2" Cut="1.4622448730468750e+02" cType="1" res="-4.4343946501612663e-03" rms="4.3916648626327515e-01" purity="2.9013359546661377e-01" nType="0">
                  <Node pos="l" depth="6" NCoef="0" IVar="-1" Cut="0.0000000000000000e+00" cType="1" res="2.7330629527568817e-03" rms="4.5477643609046936e-01" purity="3.3195310831069946e-01" nType="-99"/>
                  <Node pos="r" depth="6" NCoef="0" IVar="-1" Cut="0.0000000000000000e+00" cType="1" res="-2.6051686145365238e-03" rms="4.2869019508361816e-01" purity="2.6525145769119263e-01" nType="-99"/>
                </Node>
              </Node>
            </Node>
            <Node pos="r" depth="3" NCoef="0" IVar="3" Cut="4.5602133870124817e-01" cType="1" res="-6.4594656229019165e-02" rms="2.6246175169944763e-01" purity="7.8669823706150055e-02" nType="0">
              <Node pos="l" depth="4" NCoef="0" IVar="5" Cut="5.0000000000000000e+00" cType="1" res="5.9378266334533691e-02" rms="1.6079422831535339e-01" purity="6.1102051287889481e-02" nType="0">
                <Node pos="l" depth="5" NCoef="0" IVar="3" Cut="3.2679760456085205e-01" cType="1" res="-5.0822813063859940e-02" rms="2.8386390209197998e-01" purity="9.0138070285320282e-02" nType="0">
                  <Node pos="l" depth="6" NCoef="0" IVar="-1" Cut="0.0000000000000000e+00" cType="1" res="-9.9074365571141243e-03" rms="2.9430755972862244e-01" purity="9.8273225128650665e-02" nType="-99"/>
                  <Node pos="r" depth="6" NCoef="0" IVar="-1" Cut="0.0000000000000000e+00" cType="1" res="-1.4375193975865841e-02" rms="2.7262040972709656e-01" purity="8.2031093537807465e-02" nType="-99"/>
                </Node>
                <Node pos="r" depth="5" NCoef="0" IVar="3" Cut="1.6206292808055878e-01" cType="1" res="-6.7217722535133362e-02" rms="2.0559659600257874e-01" purity="4.5728720724582672e-02" nType="0">
                  <Node pos="l" depth="6" NCoef="0" IVar="-1" Cut="0.0000000000000000e+00" cType="1" res="-2.4438787251710892e-02" rms="1.7928951978683472e-01" purity="3.3860187977552414e-02" nType="-99"/>
                  <Node pos="r" depth="6" NCoef="0" IVar="0" Cut="1.8694275617599487e+00" cType="1" res="-6.1660490930080414e-02" rms="2.1371221542358398e-01" purity="4.9857817590236664e-02" nType="0">
                    <Node pos="l" depth="7" NCoef="0" IVar="-1" Cut="0.0000000000000000e+00" cType="1" res="-1.3094356283545494e-02" rms="2.6590374112129211e-01" purity="7.8545331954956055e-02" nType="-99"/>
                    <Node pos="r" depth="7" NCoef="0" IVar="-1" Cut="0.0000000000000000e+00" cType="1" res="-2.4001259356737137e-02" rms="1.5906991064548492e-01" purity="2.6644792407751083e-02" nType="-99"/>
                  </Node>
                </Node>
              </Node>
              <Node pos="r" depth="4" NCoef="0" IVar="-1" Cut="0.0000000000000000e+00" cType="1" res="-1.1457376182079315e-02" rms="3.5828685760498047e-01" purity="1.5758018195629120e-01" nType="-99"/>
            </Node>
          </Node>
          <Node pos="r" depth="2" NCoef="0" IVar="5" Cut="3.0000000000000000e+00" cType="1" res="-5.9065581299364567e-03" rms="4.8219460248947144e-01" purity="4.1693070530891418e-01" nType="0">
            <Node pos="l" depth="3" NCoef="0" IVar="-1" Cut="0.0000000000000000e+00" cType="1" res="-4.8907664604485035e-03" rms="4.6056547760963440e-01" purity="3.2623469829559326e-01" nType="-99"/>
            <Node pos="r" depth="3" NCoef="0" IVar="3" Cut="6.5637940168380737e-01" cType="1" res="5.8281798847019672e-03" rms="4.8753952980041504e-01" purity="4.4226273894309998e-01" nType="0">
              <Node pos="l" depth="4" NCoef="0" IVar="2" Cut="1.3236477661132812e+02" cType="1" res="-1.5165491495281458e-03" rms="4.8557418584823608e-01" purity="4.2454954981803894e-01" nType="0">
                <Node pos="l" depth="5" NCoef="0" IVar="-1" Cut="0.0000000000000000e+00" cType="1" res="1.2038988061249256e-03" rms="4.8994690179824829e-01" purity="4.5472168922424316e-01" nType="-99"/>
                <Node pos="r" depth="5" NCoef="0" IVar="4" Cut="8.6897403001785278e-02" cType="1" res="-1.3009455054998398e-02" rms="4.8189389705657959e-01" purity="4.0152344107627869e-01" nType="0">
                  <Node pos="l" depth="6" NCoef="0" IVar="-1" Cut="0.0000000000000000e+00" cType="1" res="-4.0747043676674366e-03" rms="4.6725010871887207e-01" purity="3.5094791650772095e-01" nType="-99"/>
                  <Node pos="r" depth="6" NCoef="0" IVar="-1" Cut="0.0000000000000000e+00" cType="1" res="8.8271667482331395e-04" rms="4.9217697978019714e-01" purity="4.4211688637733459e-01" nType="-99"/>
                </Node>
              </Node>
              <Node pos="r" depth="4" NCoef="0" IVar="-1" Cut="0.0000000000000000e+00" cType="1" res="2.6738340966403484e-03" rms="4.9331718683242798e-01" purity="5.0214958190917969e-01" nType="-99"/>
            </Node>
          </Node>
        </Node>
        <Node pos="r" depth="1" NCoef="0" IVar="0" Cut="7.8209787607192993e-01" cType="1" res="4.8557732254266739e-02" rms="4.4173023104667664e-01" purity="7.0534271001815796e-01" nType="0">
          <Node pos="l" depth="2" NCoef="0" IVar="0" Cut="1.7652225494384766e-01" cType="1" res="5.1864124834537506e-02" rms="4.4053435325622559e-01" purity="7.1286404132843018e-01" nType="0">
            <Node pos="l" depth="3" NCoef="0" IVar="3" Cut="9.7514730691909790e-01" cType="1" res="6.0643281787633896e-02" rms="4.3063110113143921e-01" purity="7.4237793684005737e-01" nType="0">
              <Node pos="l" depth="4" NCoef="0" IVar="1" Cut="2.3088856041431427e-01" cType="1" res="4.5667681843042374e-02" rms="4.5758897066116333e-01" purity="6.8821752071380615e-01" nType="0">
                <Node pos="l" depth="5" NCoef="0" IVar="3" Cut="8.7868517637252808e-01" cType="1" res="5.3798768669366837e-02" rms="4.4882869720458984e-01" purity="7.1288979053497314e-01" nType="0">
                  <Node pos="l" depth="6" NCoef="0" IVar="2" Cut="1.0689469146728516e+02" cType="1" res="4.7532495111227036e-02" rms="4.6242448687553406e-01" purity="6.8408936262130737e-01" nType="0">
                    <Node pos="l" depth="7" NCoef="0" IVar="-1" Cut="0.0000000000000000e+00" cType="1" res="4.7372742556035519e-03" rms="4.5426148176193237e-01" purity="7.0575672388076782e-01" nType="-99"/>
                    <Node pos="r" depth="7" NCoef="0" IVar="-1" Cut="0.0000000000000000e+00" cType="1" res="3.0847054440528154e-03" rms="4.7248482704162598e-01" purity="6.5606039762496948e-01" nType="-99"/>
                  </Node>
                  <Node pos="r" depth="6" NCoef="0" IVar="5" Cut="2.0000000000000000e+00" cType="1" res="6.6333070397377014e-02" rms="4.1960877180099487e-01" purity="7.7114331722259521e-01" nType="0">
                    <Node pos="l" depth="7" NCoef="0" IVar="-1" Cut="0.0000000000000000e+00" cType="1" res="5.2990075200796127e-03" rms="4.2289000749588013e-01" purity="7.6648271083831787e-01" nType="-99"/>
                    <Node pos="r" depth="7" NCoef="0" IVar="-1" Cut="0.0000000000000000e+00" cType="1" res="7.4725914746522903e-03" rms="4.1748479008674622e-01" purity="7.7423048019409180e-01" nType="-99"/>
                  </Node>
                </Node>
                <Node pos="r" depth="5" NCoef="0" IVar="2" Cut="4.1197540283203125e+01" cType="1" res="2.3766385391354561e-02" rms="4.7970595955848694e-01" purity="6.2176209688186646e-01" nType="0">
                  <Node pos="l" depth="6" NCoef="0" IVar="-1" Cut="0.0000000000000000e+00" cType="1" res="6.5203959820792079e-04" rms="4.7506913542747498e-01" purity="6.3304471969604492e-01" nType="-99"/>
                  <Node pos="r" depth="6" NCoef="0" IVar="3" Cut="7.9189038276672363e-01" cType="1" res="2.8973894193768501e-02" rms="4.8110127449035645e-01" purity="6.1806541681289673e-01" nType="0">
                    <Node pos="l" depth="7" NCoef="0" IVar="-1" Cut="0.0000000000000000e+00" cType="1" res="1.3510941062122583e-03" rms="4.9337688088417053e-01" purity="5.5666679143905640e-01" nType="-99"/>
                    <Node pos="r" depth="7" NCoef="0" IVar="-1" Cut="0.0000000000000000e+00" cType="1" res="3.0626314692199230e-03" rms="4.7455433011054993e-01" purity="6.4954096078872681e-01" nType="-99"/>
                  </Node>
                </Node>
              </Node>
              <Node pos="r" depth="4" NCoef="0" IVar="1" Cut="8.6326915025711060e-01" cType="1" res="7.4426509439945221e-02" rms="4.0374338626861572e-01" purity="7.9222619533538818e-01" nType="0">
                <Node pos="l" depth="5" NCoef="0" IVar="1" Cut="1.8851667642593384e-01" cType="1" res="7.7727332711219788e-02" rms="3.9875110983848572e-01" purity="8.0045908689498901e-01" nType="0">
                  <Node pos="l" depth="6" NCoef="0" IVar="1" Cut="-2.2280274331569672e-01" cType="1" res="8.1709019839763641e-02" rms="3.9064884185791016e-01" purity="8.1151592731475830e-01" nType="0">
                    <Node pos="l" depth="7" NCoef="0" IVar="-1" Cut="0.0000000000000000e+00" cType="1" res="5.9405392967164516e-03" rms="4.0226003527641296e-01" purity="7.9664111137390137e-01" nType="-99"/>
                    <Node pos="r" depth="7" NCoef="0" IVar="-1" Cut="0.0000000000000000e+00" cType="1" res="8.1858327612280846e-03" rms="3.8845103979110718e-01" purity="8.1419432163238525e-01" nType="-99"/>
                  </Node>
                  <Node pos="r" depth="6" NCoef="0" IVar="1" Cut="4.2789798974990845e-01" cType="1" res="6.7109912633895874e-02" rms="4.1940745711326599e-01" purity="7.7097523212432861e-01" nType="0">
                    <Node pos="l" depth="7" NCoef="0" IVar="-1" Cut="0.0000000000000000e+00" cType="1" res="6.5060392953455448e-03" rms="4.1058260202407837e-01" purity="7.8473377227783203e-01" nType="-99"/>
                    <Node pos="r" depth="7" NCoef="0" IVar="-1" Cut="0.0000000000000000e+00" cType="1" res="5.3273178637027740e-03" rms="4.3234342336654663e-01" purity="7.5019073486328125e-01" nType="-99"/>
                  </Node>
                </Node>
                <Node pos="r" depth="5" NCoef="0" IVar="-1" Cut="0.0000000000000000e+00" cType="1" res="2.0487115252763033e-03" rms="4.6948832273483276e-01" purity="6.6888672113418579e-01" nType="-99"/>
              </Node>
            </Node>
            <Node pos="r" depth="3" NCoef="0" IVar="2" Cut="1.6426292419433594e+02" cType="1" res="6.6016665659844875e-03" rms="4.8590561747550964e-01" purity="5.6069982051849365e-01" nType="0">
              <Node pos="l" depth="4" NCoef="0" IVar="2" Cut="8.4770004272460938e+01" cType="1" res="1.7527494579553604e-02" rms="4.8301658034324646e-01" purity="5.8605384826660156e-01" nType="0">
                <Node pos="l" depth="5" NCoef="0" IVar="4" Cut="3.3097516745328903e-02" cType="1" res="2.8475245460867882e-02" rms="4.7819671034812927e-01" purity="6.1274015903472900e-01" nType="0">
                  <Node pos="l" depth="6" NCoef="0" IVar="2" Cut="2.4608398437500000e+01" cType="1" res="1.7440738156437874e-02" rms="4.7547507286071777e-01" purity="6.1841380596160889e-01" nType="0">
                    <Node pos="l" depth="7" NCoef="0" IVar="-1" Cut="0.0000000000000000e+00" cType="1" res="2.9914625920355320e-03" rms="4.6767133474349976e-01" purity="6.5951299667358398e-01" nType="-99"/>
                    <Node pos="r" depth="7" NCoef="0" IVar="-1" Cut="0.0000000000000000e+00" cType="1" res="-1.5696010086685419e-03" rms="4.8953840136528015e-01" purity="5.3276193141937256e-01" nType="-99"/>
                  </Node>
                  <Node pos="r" depth="6" NCoef="0" IVar="-1" Cut="0.0000000000000000e+00" cType="1" res="4.3803090229630470e-03" rms="4.8326933383941650e-01" purity="6.0018736124038696e-01" nType="-99"/>
                </Node>
                <Node pos="r" depth="5" NCoef="0" IVar="2" Cut="1.2066691589355469e+02" cType="1" res="-8.5479971021413803e-03" rms="4.9332988262176514e-01" purity="5.2249211072921753e-01" nType="0">
                  <Node pos="l" depth="6" NCoef="0" IVar="-1" Cut="0.0000000000000000e+00" cType="1" res="-6.6008995054289699e-04" rms="4.9329870939254761e-01" purity="5.2585822343826294e-01" nType="-99"/>
                  <Node pos="r" depth="6" NCoef="0" IVar="-1" Cut="0.0000000000000000e+00" cType="1" res="-8.8499655248597264e-04" rms="4.9335980415344238e-01" purity="5.1892334222793579e-01" nType="-99"/>
                </Node>
              </Node>
              <Node pos="r" depth="4" NCoef="0" IVar="0" Cut="3.1356108188629150e-01" cType="1" res="-2.9969790950417519e-02" rms="4.9369734525680542e-01" purity="4.7583341598510742e-01" nType="0">
                <Node pos="l" depth="5" NCoef="0" IVar="-1" Cut="0.0000000000000000e+00" cType="1" res="-9.6991640748456120e-04" rms="4.9367529153823853e-01" purity="5.2523183822631836e-01" nType="-99"/>
                <Node pos="r" depth="5" NCoef="0" IVar="-1" Cut="0.0000000000000000e+00" cType="1" res="-4.7024162486195564e-03" rms="4.9285626411437988e-01" purity="4.2291188240051270e-01" nType="-99"/>
              </Node>
            </Node>
          </Node>
          <Node pos="r" depth="2" NCoef="0" IVar="-1" Cut="0.0000000000000000e+00" cType="1" res="-1.0800474323332310e-02" rms="4.6906825900077820e-01" purity="3.3316996693611145e-01" nType="-99"/>
        </Node>
      </Node>
    </BinaryTree>
    <BinaryTree type="DecisionTree" boostWeight="1.0000000000000000e+00" itree="38">
      <Node pos="s" depth="0" NCoef="0" IVar="3" Cut="7.7288961410522461e-01" cType="1" res="1.4111669734120369e-02" rms="4.1490542888641357e-01" purity="5.0076341629028320e-01" nType="0">
        <Node pos="l" depth="1" NCoef="0" IVar="3" Cut="5.9846854209899902e-01" cType="1" res="-2.7134638279676437e-02" rms="3.9468953013420105e-01" purity="2.6481568813323975e-01" nType="0">
          <Node pos="l" depth="2" NCoef="0" IVar="1" Cut="1.4958879351615906e-01" cType="1" res="-4.2522545903921127e-02" rms="3.4049174189567566e-01" purity="1.5369336307048798e-01" nType="0">
            <Node pos="l" depth="3" NCoef="0" IVar="2" Cut="1.9356190490722656e+02" cType="1" res="-2.7386926114559174e-02" rms="3.8403069972991943e-01" purity="2.0691649615764618e-01" nType="0">
              <Node pos="l" depth="4" NCoef="0" IVar="4" Cut="1.0518826544284821e-01" cType="1" res="-1.1683101765811443e-02" rms="4.0350484848022461e-01" purity="2.4317298829555511e-01" nType="0">
                <Node pos="l" depth="5" NCoef="0" IVar="2" Cut="7.5956649780273438e+01" cType="1" res="-2.6525774970650673e-02" rms="3.8829752802848816e-01" purity="2.1918791532516479e-01" nType="0">
                  <Node pos="l" depth="6" NCoef="0" IVar="-1" Cut="0.0000000000000000e+00" cType="1" res="9.1150682419538498e-04" rms="4.2255818843841553e-01" purity="2.7411851286888123e-01" nType="-99"/>
                  <Node pos="r" depth="6" NCoef="0" IVar="4" Cut="6.1235520988702774e-02" cType="1" res="-4.4781323522329330e-02" rms="3.6704018712043762e-01" purity="1.8930980563163757e-01" nType="0">
                    <Node pos="l" depth="7" NCoef="0" IVar="-1" Cut="0.0000000000000000e+00" cType="1" res="-1.0368033312261105e-02" rms="3.3623364567756653e-01" purity="1.5020182728767395e-01" nType="-99"/>
                    <Node pos="r" depth="7" NCoef="0" IVar="-1" Cut="0.0000000000000000e+00" cType="1" res="-4.0089534595608711e-03" rms="3.9118030667304993e-01" purity="2.2344985604286194e-01" nType="-99"/>
                  </Node>
                </Node>
                <Node pos="r" depth="5" NCoef="0" IVar="-1" Cut="0.0000000000000000e+00" cType="1" res="3.2196105457842350e-03" rms="4.3748828768730164e-01" purity="3.0404147505760193e-01" nType="-99"/>
              </Node>
              <Node pos="r" depth="4" NCoef="0" IVar="4" Cut="1.8937534093856812e-01" cType="1" res="-3.6971826106309891e-02" rms="3.7131717801094055e-01" purity="1.8478716909885406e-01" nType="0">
                <Node pos="l" depth="5" NCoef="0" IVar="4" Cut="9.9130563437938690e-02" cType="1" res="-4.5853890478610992e-02" rms="3.5834446549415588e-01" purity="1.7246982455253601e-01" nType="0">
                  <Node pos="l" depth="6" NCoef="0" IVar="-1" Cut="0.0000000000000000e+00" cType="1" res="-1.2170040048658848e-02" rms="3.1308025121688843e-01" purity="1.2520034611225128e-01" nType="-99"/>
                  <Node pos="r" depth="6" NCoef="0" IVar="2" Cut="5.3673663330078125e+02" cType="1" res="-3.5123836249113083e-02" rms="3.7525236606597900e-01" purity="1.9236624240875244e-01" nType="0">
                    <Node pos="l" depth="7" NCoef="0" IVar="-1" Cut="0.0000000000000000e+00" cType="1" res="-3.8625055458396673e-03" rms="3.8228756189346313e-01" purity="2.0351126790046692e-01" nType="-99"/>
                    <Node pos="r" depth="7" NCoef="0" IVar="-1" Cut="0.0000000000000000e+00" cType="1" res="-9.7377607598900795e-03" rms="3.5246405005455017e-01" purity="1.5996813774108887e-01" nType="-99"/>
                  </Node>
                </Node>
                <Node pos="r" depth="5" NCoef="0" IVar="5" Cut="6.0000000000000000e+00" cType="1" res="-1.6211500391364098e-02" rms="3.9919000864028931e-01" purity="2.1353973448276520e-01" nType="0">
                  <Node pos="l" depth="6" NCoef="0" IVar="-1" Cut="0.0000000000000000e+00" cType="1" res="3.3412282937206328e-04" rms="4.2869213223457336e-01" purity="2.6161903142929077e-01" nType="-99"/>
                  <Node pos="r" depth="6" NCoef="0" IVar="-1" Cut="0.0000000000000000e+00" cType="1" res="-5.7977205142378807e-03" rms="3.6711439490318298e-01" purity="1.6647572815418243e-01" nType="-99"/>
                </Node>
              </Node>
            </Node>
            <Node pos="r" depth="3" NCoef="0" IVar="3" Cut="1.3563996553421021e-01" cType="1" res="-5.3732849657535553e-02" rms="3.0376845598220825e-01" purity="1.1427327245473862e-01" nType="0">
              <Node pos="l" depth="4" NCoef="0" IVar="-1" Cut="0.0000000000000000e+00" cType="1" res="-6.5764109604060650e-03" rms="3.0715000629425049e-01" purity="1.1664659529924393e-01" nType="-99"/>
              <Node pos="r" depth="4" NCoef="0" IVar="0" Cut="6.7811453342437744e-01" cType="1" res="-5.5610325187444687e-02" rms="3.0343058705329895e-01" purity="1.1409578472375870e-01" nType="0">
                <Node pos="l" depth="5" NCoef="0" IVar="0" Cut="4.5932853221893311e-01" cType="1" res="-3.8882642984390259e-02" rms="4.1347524523735046e-01" purity="2.3419813811779022e-01" nType="0">
                  <Node pos="l" depth="6" NCoef="0" IVar="5" Cut="5.0000000000000000e+00" cType="1" res="-1.4069129712879658e-02" rms="3.1416422128677368e-01" purity="2.5958803296089172e-01" nType="0">
                    <Node pos="l" depth="7" NCoef="0" IVar="-1" Cut="0.0000000000000000e+00" cType="1" res="-4.6078665181994438e-03" rms="4.3936985731124878e-01" purity="2.7503496408462524e-01" nType="-99"/>
                    <Node pos="r" depth="7" NCoef="0" IVar="-1" Cut="0.0000000000000000e+00" cType="1" res="-2.5372656527906656e-03" rms="4.1439864039421082e-01" purity="2.3928654193878174e-01" nType="-99"/>
                  </Node>
                  <Node pos="r" depth="6" NCoef="0" IVar="-1" Cut="0.0000000000000000e+00" cType="1" res="-7.6536154374480247e-03" rms="3.8131096959114075e-01" purity="1.8488171696662903e-01" nType="-99"/>
                </Node>
                <Node pos="r" depth="5" NCoef="0" IVar="1" Cut="1.4125175476074219e+00" cType="1" res="-6.1576005071401596e-02" rms="2.5258505344390869e-01" purity="7.1263067424297333e-02" nType="0">
                  <Node pos="l" depth="6" NCoef="0" IVar="1" Cut="3.1254366040229797e-01" cType="1" res="-6.3817352056503296e-02" rms="2.5196292996406555e-01" purity="7.1265496313571930e-02" nType="0">
                    <Node pos="l" depth="7" NCoef="0" IVar="-1" Cut="0.0000000000000000e+00" cType="1" res="-1.1097363196313381e-02" rms="2.8898718953132629e-01" purity="9.7574450075626373e-02" nType="-99"/>
                    <Node pos="r" depth="7" NCoef="0" IVar="-1" Cut="0.0000000000000000e+00" cType="1" res="-1.6950611025094986e-02" rms="2.3965531587600708e-01" purity="6.3404418528079987e-02" nType="-99"/>
                  </Node>
                  <Node pos="r" depth="6" NCoef="0" IVar="5" Cut="5.0000000000000000e+00" cType="1" res="-4.9076985567808151e-02" rms="2.5564455986022949e-01" purity="7.1249574422836304e-02" nType="0">
                    <Node pos="l" depth="7" NCoef="0" IVar="-1" Cut="0.0000000000000000e+00" cType="1" res="-8.9947385713458061e-03" rms="3.0757153034210205e-01" purity="1.0498251020908356e-01" nType="-99"/>
                    <Node pos="r" depth="7" NCoef="0" IVar="-1" Cut="0.0000000000000000e+00" cType="1" res="-2.0757425576448441e-02" rms="1.9046166539192200e-01" purity="3.8009591400623322e-02" nType="-99"/>
                  </Node>
                </Node>
              </Node>
            </Node>
          </Node>
          <Node pos="r" depth="2" NCoef="0" IVar="5" Cut="3.0000000000000000e+00" cType="1" res="5.2909348160028458e-03" rms="4.8643165826797485e-01" purity="4.9556976556777954e-01" nType="0">
            <Node pos="l" depth="3" NCoef="0" IVar="4" Cut="5.4819822311401367e-02" cType="1" res="-1.8702093511819839e-02" rms="4.8451745510101318e-01" purity="4.5667845010757446e-01" nType="0">
              <Node pos="l" depth="4" NCoef="0" IVar="-1" Cut="0.0000000000000000e+00" cType="1" res="-4.5648366212844849e-03" rms="4.7604498267173767e-01" purity="4.1368687152862549e-01" nType="-99"/>
              <Node pos="r" depth="4" NCoef="0" IVar="2" Cut="1.4103126525878906e+02" cType="1" res="-2.3649760987609625e-03" rms="4.8790597915649414e-01" purity="4.7829854488372803e-01" nType="0">
                <Node pos="l" depth="5" NCoef="0" IVar="-1" Cut="0.0000000000000000e+00" cType="1" res="2.8901940677314997e-03" rms="4.8788526654243469e-01" purity="5.3672969341278076e-01" nType="-99"/>
                <Node pos="r" depth="5" NCoef="0" IVar="3" Cut="6.9980603456497192e-01" cType="1" res="-2.3989301174879074e-02" rms="4.8657733201980591e-01" purity="4.4570985436439514e-01" nType="0">
                  <Node pos="l" depth="6" NCoef="0" IVar="-1" Cut="0.0000000000000000e+00" cType="1" res="-2.6963076088577509e-03" rms="4.7785580158233643e-01" purity="3.8220718502998352e-01" nType="-99"/>
                  <Node pos="r" depth="6" NCoef="0" IVar="-1" Cut="0.0000000000000000e+00" cType="1" res="-1.7534767976030707e-03" rms="4.9407863616943359e-01" purity="5.0146871805191040e-01" nType="-99"/>
                </Node>
              </Node>
            </Node>
            <Node pos="r" depth="3" NCoef="0" IVar="1" Cut="-4.6821840107440948e-02" cType="1" res="1.6474312171339989e-02" rms="4.8755952715873718e-01" purity="5.1484012603759766e-01" nType="0">
              <Node pos="l" depth="4" NCoef="0" IVar="2" Cut="1.3303219604492188e+02" cType="1" res="3.8705855607986450e-02" rms="4.8521915078163147e-01" purity="5.6816589832305908e-01" nType="0">
                <Node pos="l" depth="5" NCoef="0" IVar="-1" Cut="0.0000000000000000e+00" cType="1" res="4.9553085118532181e-03" rms="4.8019015789031982e-01" purity="6.0852062702178955e-01" nType="-99"/>
                <Node pos="r" depth="5" NCoef="0" IVar="-1" Cut="0.0000000000000000e+00" cType="1" res="1.4328070683404803e-03" rms="4.8935815691947937e-01" purity="5.2595496177673340e-01" nType="-99"/>
              </Node>
              <Node pos="r" depth="4" NCoef="0" IVar="4" Cut="5.0887238234281540e-02" cType="1" res="3.9688111282885075e-03" rms="4.8842659592628479e-01" purity="4.8484373092651367e-01" nType="0">
                <Node pos="l" depth="5" NCoef="0" IVar="3" Cut="7.0537108182907104e-01" cType="1" res="-1.4640914276242256e-02" rms="4.8513486981391907e-01" purity="4.7019657492637634e-01" nType="0">
                  <Node pos="l" depth="6" NCoef="0" IVar="-1" Cut="0.0000000000000000e+00" cType="1" res="-3.4223347902297974e-03" rms="4.7875291109085083e-01" purity="4.0015023946762085e-01" nType="-99"/>
                  <Node pos="r" depth="6" NCoef="0" IVar="-1" Cut="0.0000000000000000e+00" cType="1" res="1.2711505405604839e-03" rms="4.9188527464866638e-01" purity="5.6208866834640503e-01" nType="-99"/>
                </Node>
                <Node pos="r" depth="5" NCoef="0" IVar="2" Cut="2.3390821838378906e+02" cType="1" res="1.4418257400393486e-02" rms="4.8995545506477356e-01" purity="4.9306812882423401e-01" nType="0">
                  <Node pos="l" depth="6" NCoef="0" IVar="4" Cut="7.8265830874443054e-02" cType="1" res="2.7531508356332779e-02" rms="4.9197602272033691e-01" purity="5.1867592334747314e-01" nType="0">
                    <Node pos="l" depth="7" NCoef="0" IVar="-1" Cut="0.0000000000000000e+00" cType="1" res="8.8247831445187330e-04" rms="4.9100974202156067e-01" purity="4.9879381060600281e-01" nType="-99"/>
                    <Node pos="r" depth="7" NCoef="0" IVar="-1" Cut="0.0000000000000000e+00" cType="1" res="4.2648492380976677e-03" rms="4.9226436018943787e-01" purity="5.4478496313095093e-01" nType="-99"/>
                  </Node>
                  <Node pos="r" depth="6" NCoef="0" IVar="-1" Cut="0.0000000000000000e+00" cType="1" res="-5.4093328071758151e-04" rms="4.8614251613616943e-01" purity="4.5369186997413635e-01" nType="-99"/>
                </Node>
              </Node>
            </Node>
          </Node>
        </Node>
        <Node pos="r" depth="1" NCoef="0" IVar="3" Cut="1.0594283342361450e+00" cType="1" res="5.5714655667543411e-02" rms="4.3035793304443359e-01" purity="7.3875153064727783e-01" nType="0">
          <Node pos="l" depth="2" NCoef="0" IVar="0" Cut="5.8072727918624878e-01" cType="1" res="5.8361791074275970e-02" rms="4.2940327525138855e-01" purity="7.4226075410842896e-01" nType="0">
            <Node pos="l" depth="3" NCoef="0" IVar="1" Cut="1.0190397500991821e-01" cType="1" res="6.0744501650333405e-02" rms="4.2756554484367371e-01" purity="7.4941635131835938e-01" nType="0">
              <Node pos="l" depth="4" NCoef="0" IVar="3" Cut="8.8379222154617310e-01" cType="1" res="7.1352653205394745e-02" rms="4.1363963484764099e-01" purity="7.7595824003219604e-01" nType="0">
                <Node pos="l" depth="5" NCoef="0" IVar="2" Cut="1.0685140991210938e+02" cType="1" res="5.7086493819952011e-02" rms="4.5187696814537048e-01" purity="7.1000027656555176e-01" nType="0">
                  <Node pos="l" depth="6" NCoef="0" IVar="4" Cut="3.1251456588506699e-02" cType="1" res="6.3211746513843536e-02" rms="4.4592633843421936e-01" purity="7.2345077991485596e-01" nType="0">
                    <Node pos="l" depth="7" NCoef="0" IVar="-1" Cut="0.0000000000000000e+00" cType="1" res="4.4753449037671089e-03" rms="4.5160380005836487e-01" purity="7.1060699224472046e-01" nType="-99"/>
                    <Node pos="r" depth="7" NCoef="0" IVar="-1" Cut="0.0000000000000000e+00" cType="1" res="6.2352083623409271e-03" rms="4.4051674008369446e-01" purity="7.3469841480255127e-01" nType="-99"/>
                  </Node>
                  <Node pos="r" depth="6" NCoef="0" IVar="3" Cut="8.4443920850753784e-01" cType="1" res="4.6912945806980133e-02" rms="4.6141129732131958e-01" purity="6.8766009807586670e-01" nType="0">
                    <Node pos="l" depth="7" NCoef="0" IVar="-1" Cut="0.0000000000000000e+00" cType="1" res="3.4548004623502493e-03" rms="4.6994924545288086e-01" purity="6.6637563705444336e-01" nType="-99"/>
                    <Node pos="r" depth="7" NCoef="0" IVar="-1" Cut="0.0000000000000000e+00" cType="1" res="5.6601585820317268e-03" rms="4.4614046812057495e-01" purity="7.2391819953918457e-01" nType="-99"/>
                  </Node>
                </Node>
                <Node pos="r" depth="5" NCoef="0" IVar="3" Cut="1.0027450323104858e+00" cType="1" res="7.7349819242954254e-02" rms="3.9631277322769165e-01" purity="8.0368554592132568e-01" nType="0">
                  <Node pos="l" depth="6" NCoef="0" IVar="3" Cut="9.9890792369842529e-01" cType="1" res="7.3152676224708557e-02" rms="4.0128225088119507e-01" purity="7.9718852043151855e-01" nType="0">
                    <Node pos="l" depth="7" NCoef="0" IVar="-1" Cut="0.0000000000000000e+00" cType="1" res="6.8739424459636211e-03" rms="4.0630370378494263e-01" purity="7.9043728113174438e-01" nType="-99"/>
                    <Node pos="r" depth="7" NCoef="0" IVar="-1" Cut="0.0000000000000000e+00" cType="1" res="8.0723017454147339e-03" rms="3.8328889012336731e-01" purity="8.2037973403930664e-01" nType="-99"/>
                  </Node>
                  <Node pos="r" depth="6" NCoef="0" IVar="3" Cut="1.0118808746337891e+00" cType="1" res="8.9187510311603546e-02" rms="3.8170003890991211e-01" purity="8.2200974225997925e-01" nType="0">
                    <Node pos="l" depth="7" NCoef="0" IVar="-1" Cut="0.0000000000000000e+00" cType="1" res="8.1287529319524765e-03" rms="3.8241517543792725e-01" purity="8.2062900066375732e-01" nType="-99"/>
                    <Node pos="r" depth="7" NCoef="0" IVar="-1" Cut="0.0000000000000000e+00" cType="1" res="8.7191481143236160e-03" rms="3.8106724619865417e-01" purity="8.2314521074295044e-01" nType="-99"/>
                  </Node>
                </Node>
              </Node>
              <Node pos="r" depth="4" NCoef="0" IVar="0" Cut="1.6859729588031769e-01" cType="1" res="4.4908463954925537e-02" rms="4.4708079099655151e-01" purity="7.0979410409927368e-01" nType="0">
                <Node pos="l" depth="5" NCoef="0" IVar="3" Cut="9.9471503496170044e-01" cType="1" res="5.1372785121202469e-02" rms="4.4172710180282593e-01" purity="7.2449672222137451e-01" nType="0">
                  <Node pos="l" depth="6" NCoef="0" IVar="2" Cut="8.4111991882324219e+01" cType="1" res="3.7409611046314240e-02" rms="4.6021148562431335e-01" purity="6.8524074554443359e-01" nType="0">
                    <Node pos="l" depth="7" NCoef="0" IVar="-1" Cut="0.0000000000000000e+00" cType="1" res="2.9292770195752382e-03" rms="4.5520484447479248e-01" purity="6.9681382179260254e-01" nType="-99"/>
                    <Node pos="r" depth="7" NCoef="0" IVar="-1" Cut="0.0000000000000000e+00" cType="1" res="3.9412137120962143e-03" rms="4.6880123019218445e-01" purity="6.6487157344818115e-01" nType="-99"/>
                  </Node>
                  <Node pos="r" depth="6" NCoef="0" IVar="3" Cut="1.0009779930114746e+00" cType="1" res="6.7897193133831024e-02" rms="4.1819754242897034e-01" purity="7.7095329761505127e-01" nType="0">
                    <Node pos="l" depth="7" NCoef="0" IVar="-1" Cut="0.0000000000000000e+00" cType="1" res="5.2906093187630177e-03" rms="4.2571809887886047e-01" purity="7.5857770442962646e-01" nType="-99"/>
                    <Node pos="r" depth="7" NCoef="0" IVar="-1" Cut="0.0000000000000000e+00" cType="1" res="6.8016541190445423e-03" rms="4.1064080595970154e-01" purity="7.8282833099365234e-01" nType="-99"/>
                  </Node>
                </Node>
                <Node pos="r" depth="5" NCoef="0" IVar="-1" Cut="0.0000000000000000e+00" cType="1" res="-9.8361086566001177e-04" rms="4.8728653788566589e-01" purity="5.8300393819808960e-01" nType="-99"/>
              </Node>
            </Node>
            <Node pos="r" depth="3" NCoef="0" IVar="-1" Cut="0.0000000000000000e+00" cType="1" res="-3.2593298237770796e-03" rms="4.8800802230834961e-01" purity="4.5552104711532593e-01" nType="-99"/>
          </Node>
          <Node pos="r" depth="2" NCoef="0" IVar="-1" Cut="0.0000000000000000e+00" cType="1" res="-5.3123626857995987e-03" rms="4.5519697666168213e-01" purity="5.8849912881851196e-01" nType="-99"/>
        </Node>
      </Node>
    </BinaryTree>
    <BinaryTree type="DecisionTree" boostWeight="1.0000000000000000e+00" itree="39">
      <Node pos="s" depth="0" NCoef="0" IVar="3" Cut="6.7608582973480225e-01" cType="1" res="1.4240557327866554e-02" rms="4.1396290063858032e-01" purity="5.0110864639282227e-01" nType="0">
        <Node pos="l" depth="1" NCoef="0" IVar="1" Cut="1.4958879351615906e-01" cType="1" res="-3.4579735249280930e-02" rms="3.6711791157722473e-01" purity="1.9807432591915131e-01" nType="0">
          <Node pos="l" depth="2" NCoef="0" IVar="3" Cut="4.7994175553321838e-01" cType="1" res="-1.6764780506491661e-02" rms="4.0891811251640320e-01" purity="2.6388984918594360e-01" nType="0">
            <Node pos="l" depth="3" NCoef="0" IVar="2" Cut="1.8515830993652344e+02" cType="1" res="-3.6250956356525421e-02" rms="3.3532494306564331e-01" purity="1.3985380530357361e-01" nType="0">
              <Node pos="l" depth="4" NCoef="0" IVar="4" Cut="6.9479100406169891e-02" cType="1" res="-1.6615958884358406e-02" rms="3.4041661024093628e-01" purity="1.4588873088359833e-01" nType="0">
                <Node pos="l" depth="5" NCoef="0" IVar="-1" Cut="0.0000000000000000e+00" cType="1" res="-1.0418463498353958e-02" rms="2.8587400913238525e-01" purity="9.3495123088359833e-02" nType="-99"/>
                <Node pos="r" depth="5" NCoef="0" IVar="-1" Cut="0.0000000000000000e+00" cType="1" res="1.2207684339955449e-03" rms="3.7981706857681274e-01" purity="1.9124795496463776e-01" nType="-99"/>
              </Node>
              <Node pos="r" depth="4" NCoef="0" IVar="3" Cut="1.8607851862907410e-01" cType="1" res="-4.4248040765523911e-02" rms="3.3289712667465210e-01" purity="1.3739585876464844e-01" nType="0">
                <Node pos="l" depth="5" NCoef="0" IVar="-1" Cut="0.0000000000000000e+00" cType="1" res="-2.1488908678293228e-03" rms="3.7472203373908997e-01" purity="1.9104573130607605e-01" nType="-99"/>
                <Node pos="r" depth="5" NCoef="0" IVar="0" Cut="8.7333309650421143e-01" cType="1" res="-5.0612948834896088e-02" rms="3.2339736819267273e-01" purity="1.2653015553951263e-01" nType="0">
                  <Node pos="l" depth="6" NCoef="0" IVar="0" Cut="2.8170537948608398e-01" cType="1" res="-3.7970703095197678e-02" rms="3.8552874326705933e-01" purity="1.8909662961959839e-01" nType="0">
                    <Node pos="l" depth="7" NCoef="0" IVar="-1" Cut="0.0000000000000000e+00" cType="1" res="-2.1617873571813107e-03" rms="4.2095494270324707e-01" purity="2.4001204967498779e-01" nType="-99"/>
                    <Node pos="r" depth="7" NCoef="0" IVar="-1" Cut="0.0000000000000000e+00" cType="1" res="-8.7390784174203873e-03" rms="3.5739436745643616e-01" purity="1.5283243358135223e-01" nType="-99"/>
                  </Node>
                  <Node pos="r" depth="6" NCoef="0" IVar="2" Cut="3.5079110717773438e+02" cType="1" res="-6.0959208756685257e-02" rms="2.6134434342384338e-01" purity="7.5326494872570038e-02" nType="0">
                    <Node pos="l" depth="7" NCoef="0" IVar="-1" Cut="0.0000000000000000e+00" cType="1" res="-1.3184541836380959e-02" rms="2.6572504639625549e-01" purity="7.9183906316757202e-02" nType="-99"/>
                    <Node pos="r" depth="7" NCoef="0" IVar="-1" Cut="0.0000000000000000e+00" cType="1" res="-1.5760010108351707e-02" rms="2.5722351670265198e-01" purity="7.1935698390007019e-02" nType="-99"/>
                  </Node>
                </Node>
              </Node>
            </Node>
            <Node pos="r" depth="3" NCoef="0" IVar="2" Cut="1.0846736907958984e+02" cType="1" res="4.6428977511823177e-03" rms="4.7593140602111816e-01" purity="4.0015691518783569e-01" nType="0">
              <Node pos="l" depth="4" NCoef="0" IVar="4" Cut="4.8506192862987518e-02" cType="1" res="2.9893791303038597e-02" rms="4.8647934198379517e-01" purity="4.4892469048500061e-01" nType="0">
                <Node pos="l" depth="5" NCoef="0" IVar="-1" Cut="0.0000000000000000e+00" cType="1" res="-1.2412965588737279e-04" rms="4.7703599929809570e-01" purity="4.0006890892982483e-01" nType="-99"/>
                <Node pos="r" depth="5" NCoef="0" IVar="-1" Cut="0.0000000000000000e+00" cType="1" res="4.6539865434169769e-03" rms="4.9274423718452454e-01" purity="4.8992988467216492e-01" nType="-99"/>
              </Node>
              <Node pos="r" depth="4" NCoef="0" IVar="4" Cut="7.9946182668209076e-02" cType="1" res="-7.3141530156135559e-03" rms="4.7038152813911438e-01" purity="3.7706387042999268e-01" nType="0">
                <Node pos="l" depth="5" NCoef="0" IVar="-1" Cut="0.0000000000000000e+00" cType="1" res="-5.0505669787526131e-03" rms="4.4654342532157898e-01" purity="3.1440144777297974e-01" nType="-99"/>
                <Node pos="r" depth="5" NCoef="0" IVar="3" Cut="5.8749562501907349e-01" cType="1" res="1.0429724119603634e-02" rms="4.7935312986373901e-01" purity="4.0445837378501892e-01" nType="0">
                  <Node pos="l" depth="6" NCoef="0" IVar="4" Cut="1.2733347713947296e-01" cType="1" res="-7.0152692496776581e-03" rms="4.6598243713378906e-01" purity="3.4217721223831177e-01" nType="0">
                    <Node pos="l" depth="7" NCoef="0" IVar="-1" Cut="0.0000000000000000e+00" cType="1" res="-2.5173530448228121e-03" rms="4.5247778296470642e-01" purity="3.0737084150314331e-01" nType="-99"/>
                    <Node pos="r" depth="7" NCoef="0" IVar="-1" Cut="0.0000000000000000e+00" cType="1" res="1.2021248694509268e-03" rms="4.8099485039710999e-01" purity="3.8400393724441528e-01" nType="-99"/>
                  </Node>
                  <Node pos="r" depth="6" NCoef="0" IVar="-1" Cut="0.0000000000000000e+00" cType="1" res="3.0067588668316603e-03" rms="4.9577912688255310e-01" purity="4.8810133337974548e-01" nType="-99"/>
                </Node>
              </Node>
            </Node>
          </Node>
          <Node pos="r" depth="2" NCoef="0" IVar="4" Cut="1.0366338491439819e-01" cType="1" res="-4.9217566847801208e-02" rms="3.2809624075889587e-01" purity="1.4399637281894684e-01" nType="0">
            <Node pos="l" depth="3" NCoef="0" IVar="2" Cut="7.8297790527343750e+01" cType="1" res="-5.7345200330018997e-02" rms="3.1426098942756653e-01" purity="1.3260015845298767e-01" nType="0">
              <Node pos="l" depth="4" NCoef="0" IVar="3" Cut="5.4535555839538574e-01" cType="1" res="-4.1683573275804520e-02" rms="3.4330159425735474e-01" purity="1.6524668037891388e-01" nType="0">
                <Node pos="l" depth="5" NCoef="0" IVar="4" Cut="4.3666154146194458e-02" cType="1" res="-5.3687270730733871e-02" rms="2.7292850613594055e-01" purity="8.5566267371177673e-02" nType="0">
                  <Node pos="l" depth="6" NCoef="0" IVar="-1" Cut="0.0000000000000000e+00" cType="1" res="-1.7003258690237999e-02" rms="2.4382908642292023e-01" purity="6.6145874559879303e-02" nType="-99"/>
                  <Node pos="r" depth="6" NCoef="0" IVar="-1" Cut="0.0000000000000000e+00" cType="1" res="-7.1749365888535976e-03" rms="3.0790564417839050e-01" purity="1.1296372115612030e-01" nType="-99"/>
                </Node>
                <Node pos="r" depth="5" NCoef="0" IVar="-1" Cut="0.0000000000000000e+00" cType="1" res="-1.3579227961599827e-03" rms="4.6661725640296936e-01" purity="3.5080999135971069e-01" nType="-99"/>
              </Node>
              <Node pos="r" depth="4" NCoef="0" IVar="4" Cut="9.4969175755977631e-02" cType="1" res="-6.3465647399425507e-02" rms="3.0193391442298889e-01" purity="1.1984214186668396e-01" nType="0">
                <Node pos="l" depth="5" NCoef="0" IVar="3" Cut="4.4062077999114990e-01" cType="1" res="-6.7281655967235565e-02" rms="2.9723834991455078e-01" purity="1.1370961368083954e-01" nType="0">
                  <Node pos="l" depth="6" NCoef="0" IVar="3" Cut="2.4729803204536438e-01" cType="1" res="-5.8291640132665634e-02" rms="1.9867365062236786e-01" purity="4.1834387928247452e-02" nType="0">
                    <Node pos="l" depth="7" NCoef="0" IVar="-1" Cut="0.0000000000000000e+00" cType="1" res="-1.5993732959032059e-02" rms="2.0529370009899139e-01" purity="4.5260913670063019e-02" nType="-99"/>
                    <Node pos="r" depth="7" NCoef="0" IVar="-1" Cut="0.0000000000000000e+00" cType="1" res="-1.8954709172248840e-02" rms="1.9545115530490875e-01" purity="4.0342304855585098e-02" nType="-99"/>
                  </Node>
                  <Node pos="r" depth="6" NCoef="0" IVar="0" Cut="4.5122376084327698e-01" cType="1" res="-7.7950961887836456e-02" rms="3.8229671120643616e-01" purity="1.9901081919670105e-01" nType="0">
                    <Node pos="l" depth="7" NCoef="0" IVar="-1" Cut="0.0000000000000000e+00" cType="1" res="-5.7827178388834000e-03" rms="4.6140342950820923e-01" purity="3.2607302069664001e-01" nType="-99"/>
                    <Node pos="r" depth="7" NCoef="0" IVar="-1" Cut="0.0000000000000000e+00" cType="1" res="-1.3415234163403511e-02" rms="3.3639368414878845e-01" purity="1.3677020370960236e-01" nType="-99"/>
                  </Node>
                </Node>
                <Node pos="r" depth="5" NCoef="0" IVar="-1" Cut="0.0000000000000000e+00" cType="1" res="-6.7346272990107536e-03" rms="3.3014470338821411e-01" purity="1.6030070185661316e-01" nType="-99"/>
              </Node>
            </Node>
            <Node pos="r" depth="3" NCoef="0" IVar="3" Cut="5.0165224075317383e-01" cType="1" res="-3.8696307688951492e-02" rms="3.4489911794662476e-01" purity="1.5874882042407990e-01" nType="0">
              <Node pos="l" depth="4" NCoef="0" IVar="5" Cut="4.0000000000000000e+00" cType="1" res="9.7230844199657440e-02" rms="2.6585575938224792e-01" purity="1.1383020132780075e-01" nType="0">
                <Node pos="l" depth="5" NCoef="0" IVar="-1" Cut="0.0000000000000000e+00" cType="1" res="-4.2515969835221767e-03" rms="3.7893685698509216e-01" purity="1.8292044103145599e-01" nType="-99"/>
                <Node pos="r" depth="5" NCoef="0" IVar="3" Cut="3.8834914565086365e-01" cType="1" res="-4.9924209713935852e-02" rms="2.9187291860580444e-01" purity="9.9804639816284180e-02" nType="0">
                  <Node pos="l" depth="6" NCoef="0" IVar="2" Cut="5.7079235839843750e+02" cType="1" res="-5.6175783276557922e-02" rms="2.6140159368515015e-01" purity="7.6504990458488464e-02" nType="0">
                    <Node pos="l" depth="7" NCoef="0" IVar="-1" Cut="0.0000000000000000e+00" cType="1" res="-1.4930216595530510e-02" rms="2.4949309229850769e-01" purity="6.9182842969894409e-02" nType="-99"/>
                    <Node pos="r" depth="7" NCoef="0" IVar="-1" Cut="0.0000000000000000e+00" cType="1" res="-1.3351965695619583e-02" rms="2.8528746962547302e-01" purity="9.2312403023242950e-02" nType="-99"/>
                  </Node>
                  <Node pos="r" depth="6" NCoef="0" IVar="-1" Cut="0.0000000000000000e+00" cType="1" res="-3.8212470244616270e-03" rms="3.8846582174301147e-01" purity="1.9167870283126831e-01" nType="-99"/>
                </Node>
              </Node>
              <Node pos="r" depth="4" NCoef="0" IVar="-1" Cut="0.0000000000000000e+00" cType="1" res="-7.5738743180409074e-04" rms="4.7002929449081421e-01" purity="3.5321488976478577e-01" nType="-99"/>
            </Node>
          </Node>
        </Node>
        <Node pos="r" depth="1" NCoef="0" IVar="4" Cut="1.0650961846113205e-01" cType="1" res="4.7617290169000626e-02" rms="4.4004198908805847e-01" purity="7.0828258991241455e-01" nType="0">
          <Node pos="l" depth="2" NCoef="0" IVar="3" Cut="8.8094210624694824e-01" cType="1" res="5.0523631274700165e-02" rms="4.3873831629753113e-01" purity="7.1365636587142944e-01" nType="0">
            <Node pos="l" depth="3" NCoef="0" IVar="1" Cut="3.9108327031135559e-01" cType="1" res="2.9039002954959869e-02" rms="4.7447597980499268e-01" purity="6.2095963954925537e-01" nType="0">
              <Node pos="l" depth="4" NCoef="0" IVar="3" Cut="7.2235184907913208e-01" cType="1" res="4.0057014673948288e-02" rms="4.6998420357704163e-01" purity="6.4763432741165161e-01" nType="0">
                <Node pos="l" depth="5" NCoef="0" IVar="4" Cut="4.8142112791538239e-02" cType="1" res="7.6044525485485792e-04" rms="4.9373626708984375e-01" purity="5.2403056621551514e-01" nType="0">
                  <Node pos="l" depth="6" NCoef="0" IVar="-1" Cut="0.0000000000000000e+00" cType="1" res="-2.4808177258819342e-03" rms="4.9303126335144043e-01" purity="4.8959583044052124e-01" nType="-99"/>
                  <Node pos="r" depth="6" NCoef="0" IVar="-1" Cut="0.0000000000000000e+00" cType="1" res="1.3776499545201659e-03" rms="4.9343422055244446e-01" purity="5.4252833127975464e-01" nType="-99"/>
                </Node>
                <Node pos="r" depth="5" NCoef="0" IVar="2" Cut="7.7670722961425781e+01" cType="1" res="4.7774344682693481e-02" rms="4.6478700637817383e-01" purity="6.7190855741500854e-01" nType="0">
                  <Node pos="l" depth="6" NCoef="0" IVar="4" Cut="4.7319617122411728e-02" cType="1" res="5.9345006942749023e-02" rms="4.5636928081512451e-01" purity="6.9540596008300781e-01" nType="0">
                    <Node pos="l" depth="7" NCoef="0" IVar="-1" Cut="0.0000000000000000e+00" cType="1" res="4.3118153698742390e-03" rms="4.5980671048164368e-01" purity="6.8709528446197510e-01" nType="-99"/>
                    <Node pos="r" depth="7" NCoef="0" IVar="-1" Cut="0.0000000000000000e+00" cType="1" res="7.1113826707005501e-03" rms="4.4176602363586426e-01" purity="7.2562378644943237e-01" nType="-99"/>
                  </Node>
                  <Node pos="r" depth="6" NCoef="0" IVar="4" Cut="3.7394400686025620e-02" cType="1" res="3.8419887423515320e-02" rms="4.7127494215965271e-01" purity="6.5291178226470947e-01" nType="0">
                    <Node pos="l" depth="7" NCoef="0" IVar="-1" Cut="0.0000000000000000e+00" cType="1" res="1.1123628355562687e-03" rms="4.7373193502426147e-01" purity="6.3871043920516968e-01" nType="-99"/>
                    <Node pos="r" depth="7" NCoef="0" IVar="-1" Cut="0.0000000000000000e+00" cType="1" res="3.9124889299273491e-03" rms="4.7050788998603821e-01" purity="6.5612721443176270e-01" nType="-99"/>
                  </Node>
                </Node>
              </Node>
              <Node pos="r" depth="4" NCoef="0" IVar="3" Cut="7.8843069076538086e-01" cType="1" res="-1.4234157279133797e-02" rms="4.8932573199272156e-01" purity="5.1619493961334229e-01" nType="0">
                <Node pos="l" depth="5" NCoef="0" IVar="5" Cut="3.0000000000000000e+00" cType="1" res="-3.8774438202381134e-02" rms="4.8685944080352783e-01" purity="4.4174790382385254e-01" nType="0">
                  <Node pos="l" depth="6" NCoef="0" IVar="-1" Cut="0.0000000000000000e+00" cType="1" res="-6.0774353332817554e-03" rms="4.8348745703697205e-01" purity="4.0085503458976746e-01" nType="-99"/>
                  <Node pos="r" depth="6" NCoef="0" IVar="-1" Cut="0.0000000000000000e+00" cType="1" res="-1.0212593479081988e-03" rms="4.9393162131309509e-01" purity="4.8150265216827393e-01" nType="-99"/>
                </Node>
                <Node pos="r" depth="5" NCoef="0" IVar="4" Cut="4.4186521321535110e-02" cType="1" res="9.2789838090538979e-03" rms="4.8782801628112793e-01" purity="5.8391582965850830e-01" nType="0">
                  <Node pos="l" depth="6" NCoef="0" IVar="-1" Cut="0.0000000000000000e+00" cType="1" res="-6.2048813560977578e-04" rms="4.8843076825141907e-01" purity="5.7194089889526367e-01" nType="-99"/>
                  <Node pos="r" depth="6" NCoef="0" IVar="-1" Cut="0.0000000000000000e+00" cType="1" res="2.3526784498244524e-03" rms="4.8631027340888977e-01" purity="5.9859865903854370e-01" nType="-99"/>
                </Node>
              </Node>
            </Node>
            <Node pos="r" depth="3" NCoef="0" IVar="1" Cut="1.0190397500991821e-01" cType="1" res="6.4670436084270477e-02" rms="4.1291356086730957e-01" purity="7.7469366788864136e-01" nType="0">
              <Node pos="l" depth="4" NCoef="0" IVar="0" Cut="2.0265732705593109e-01" cType="1" res="7.3619991540908813e-02" rms="3.9826682209968567e-01" purity="7.9911977052688599e-01" nType="0">
                <Node pos="l" depth="5" NCoef="0" IVar="3" Cut="1.0004363059997559e+00" cType="1" res="7.6395764946937561e-02" rms="3.9348244667053223e-01" purity="8.0800396203994751e-01" nType="0">
                  <Node pos="l" depth="6" NCoef="0" IVar="1" Cut="-2.6760920882225037e-01" cType="1" res="7.0356950163841248e-02" rms="4.0097609162330627e-01" purity="7.9831016063690186e-01" nType="0">
                    <Node pos="l" depth="7" NCoef="0" IVar="-1" Cut="0.0000000000000000e+00" cType="1" res="3.4063300117850304e-03" rms="4.2343333363533020e-01" purity="7.6571005582809448e-01" nType="-99"/>
                    <Node pos="r" depth="7" NCoef="0" IVar="-1" Cut="0.0000000000000000e+00" cType="1" res="7.4123735539615154e-03" rms="3.9813879132270813e-01" purity="8.0203974246978760e-01" nType="-99"/>
                  </Node>
                  <Node pos="r" depth="6" NCoef="0" IVar="1" Cut="-1.8176398007199168e-03" cType="1" res="8.6793266236782074e-02" rms="3.8000938296318054e-01" purity="8.2469463348388672e-01" nType="0">
                    <Node pos="l" depth="7" NCoef="0" IVar="-1" Cut="0.0000000000000000e+00" cType="1" res="8.4416083991527557e-03" rms="3.7764069437980652e-01" purity="8.2747662067413330e-01" nType="-99"/>
                    <Node pos="r" depth="7" NCoef="0" IVar="-1" Cut="0.0000000000000000e+00" cType="1" res="7.7300574630498886e-03" rms="3.8783434033393860e-01" purity="8.1524020433425903e-01" nType="-99"/>
                  </Node>
                </Node>
                <Node pos="r" depth="5" NCoef="0" IVar="-1" Cut="0.0000000000000000e+00" cType="1" res="2.9423462692648172e-03" rms="4.6027311682701111e-01" purity="6.7019766569137573e-01" nType="-99"/>
              </Node>
              <Node pos="r" depth="4" NCoef="0" IVar="3" Cut="1.0042943954467773e+00" cType="1" res="5.1326010376214981e-02" rms="4.3349248170852661e-01" purity="7.3827248811721802e-01" nType="0">
                <Node pos="l" depth="5" NCoef="0" IVar="3" Cut="1.0003132820129395e+00" cType="1" res="4.9025196582078934e-02" rms="4.3584886193275452e-01" purity="7.3417782783508301e-01" nType="0">
                  <Node pos="l" depth="6" NCoef="0" IVar="2" Cut="4.8675338745117188e+01" cType="1" res="4.2975302785634995e-02" rms="4.4095742702484131e-01" purity="7.2450476884841919e-01" nType="0">
                    <Node pos="l" depth="7" NCoef="0" IVar="-1" Cut="0.0000000000000000e+00" cType="1" res="3.6429532337933779e-03" rms="4.3968409299850464e-01" purity="7.2680830955505371e-01" nType="-99"/>
                    <Node pos="r" depth="7" NCoef="0" IVar="-1" Cut="0.0000000000000000e+00" cType="1" res="5.9217875823378563e-03" rms="4.4764316082000732e-01" purity="7.1158784627914429e-01" nType="-99"/>
                  </Node>
                  <Node pos="r" depth="6" NCoef="0" IVar="-1" Cut="0.0000000000000000e+00" cType="1" res="6.5047582611441612e-03" rms="4.1242992877960205e-01" purity="7.7531325817108154e-01" nType="-99"/>
                </Node>
                <Node pos="r" depth="5" NCoef="0" IVar="-1" Cut="0.0000000000000000e+00" cType="1" res="5.2676941268146038e-03" rms="4.2482343316078186e-01" purity="7.5297152996063232e-01" nType="-99"/>
              </Node>
            </Node>
          </Node>
          <Node pos="r" depth="2" NCoef="0" IVar="-1" Cut="0.0000000000000000e+00" cType="1" res="-8.9049348607659340e-03" rms="4.7924473881721497e-01" purity="4.3398344516754150e-01" nType="-99"/>
        </Node>
      </Node>
    </BinaryTree>
    <BinaryTree type="DecisionTree" boostWeight="1.0000000000000000e+00" itree="40">
      <Node pos="s" depth="0" NCoef="0" IVar="3" Cut="7.7157270908355713e-01" cType="1" res="1.2968079186975956e-02" rms="4.1481292247772217e-01" purity="5.0010132789611816e-01" nType="0">
        <Node pos="l" depth="1" NCoef="0" IVar="3" Cut="5.7264137268066406e-01" cType="1" res="-2.4096278473734856e-02" rms="3.9440989494323730e-01" purity="2.6452639698982239e-01" nType="0">
          <Node pos="l" depth="2" NCoef="0" IVar="3" Cut="3.6971116065979004e-01" cType="1" res="-3.8244087249040604e-02" rms="3.3030766248703003e-01" purity="1.4168550074100494e-01" nType="0">
            <Node pos="l" depth="3" NCoef="0" IVar="4" Cut="2.3024281859397888e-01" cType="1" res="-4.5621633529663086e-02" rms="2.6681208610534668e-01" purity="8.3726100623607635e-02" nType="0">
              <Node pos="l" depth="4" NCoef="0" IVar="5" Cut="4.0000000000000000e+00" cType="1" res="0.0000000000000000e+00" rms="0.0000000000000000e+00" purity="5.9546191245317459e-02" nType="0">
                <Node pos="l" depth="5" NCoef="0" IVar="-1" Cut="0.0000000000000000e+00" cType="1" res="-4.2083836160600185e-03" rms="3.3057728409767151e-01" purity="1.3105833530426025e-01" nType="-99"/>
                <Node pos="r" depth="5" NCoef="0" IVar="3" Cut="3.1019866466522217e-01" cType="1" res="-5.5937290191650391e-02" rms="2.1578070521354675e-01" purity="5.0325851887464523e-02" nType="0">
                  <Node pos="l" depth="6" NCoef="0" IVar="4" Cut="1.4124174416065216e-01" cType="1" res="-6.0695648193359375e-02" rms="1.9426991045475006e-01" purity="4.0042832493782043e-02" nType="0">
                    <Node pos="l" depth="7" NCoef="0" IVar="-1" Cut="0.0000000000000000e+00" cType="1" res="-2.3443326354026794e-02" rms="1.5982139110565186e-01" purity="2.6484886184334755e-02" nType="-99"/>
                    <Node pos="r" depth="7" NCoef="0" IVar="-1" Cut="0.0000000000000000e+00" cType="1" res="-1.4953595586121082e-02" rms="2.5038397312164307e-01" purity="6.7845039069652557e-02" nType="-99"/>
                  </Node>
                  <Node pos="r" depth="6" NCoef="0" IVar="4" Cut="1.4150767028331757e-01" cType="1" res="-4.4748526066541672e-02" rms="2.5908175110816956e-01" purity="7.4505247175693512e-02" nType="0">
                    <Node pos="l" depth="7" NCoef="0" IVar="-1" Cut="0.0000000000000000e+00" cType="1" res="-1.5692576766014099e-02" rms="2.2206100821495056e-01" purity="5.2629753947257996e-02" nType="-99"/>
                    <Node pos="r" depth="7" NCoef="0" IVar="-1" Cut="0.0000000000000000e+00" cType="1" res="-5.5852951481938362e-03" rms="3.3115112781524658e-01" purity="1.2730053067207336e-01" nType="-99"/>
                  </Node>
                </Node>
              </Node>
              <Node pos="r" depth="4" NCoef="0" IVar="3" Cut="1.5536960959434509e-01" cType="1" res="-1.4815979637205601e-02" rms="3.9673203229904175e-01" purity="2.0561550557613373e-01" nType="0">
                <Node pos="l" depth="5" NCoef="0" IVar="-1" Cut="0.0000000000000000e+00" cType="1" res="6.8000354804098606e-04" rms="4.1011673212051392e-01" purity="2.3106144368648529e-01" nType="-99"/>
                <Node pos="r" depth="5" NCoef="0" IVar="-1" Cut="0.0000000000000000e+00" cType="1" res="-4.5089274644851685e-03" rms="3.8670104742050171e-01" purity="1.8812297284603119e-01" nType="-99"/>
              </Node>
            </Node>
            <Node pos="r" depth="3" NCoef="0" IVar="0" Cut="7.3134171962738037e-01" cType="1" res="-3.0302720144391060e-02" rms="3.8703170418739319e-01" purity="2.0407436788082123e-01" nType="0">
              <Node pos="l" depth="4" NCoef="0" IVar="2" Cut="1.2665544128417969e+02" cType="1" res="-1.3575981371104717e-02" rms="4.3993943929672241e-01" purity="2.8334048390388489e-01" nType="0">
                <Node pos="l" depth="5" NCoef="0" IVar="-1" Cut="0.0000000000000000e+00" cType="1" res="1.0059160413220525e-03" rms="4.5616191625595093e-01" purity="3.2892554998397827e-01" nType="-99"/>
                <Node pos="r" depth="5" NCoef="0" IVar="0" Cut="3.7745848298072815e-01" cType="1" res="-2.1109391003847122e-02" rms="4.3423911929130554e-01" purity="2.6843678951263428e-01" nType="0">
                  <Node pos="l" depth="6" NCoef="0" IVar="5" Cut="5.0000000000000000e+00" cType="1" res="-6.5385447815060616e-03" rms="3.5949617624282837e-01" purity="3.1249508261680603e-01" nType="0">
                    <Node pos="l" depth="7" NCoef="0" IVar="-1" Cut="0.0000000000000000e+00" cType="1" res="-2.6617264375090599e-03" rms="4.5764797925949097e-01" purity="3.1238815188407898e-01" nType="-99"/>
                    <Node pos="r" depth="7" NCoef="0" IVar="-1" Cut="0.0000000000000000e+00" cType="1" res="1.3594543561339378e-03" rms="4.5584243535995483e-01" purity="3.1264820694923401e-01" nType="-99"/>
                  </Node>
                  <Node pos="r" depth="6" NCoef="0" IVar="2" Cut="3.3271212768554688e+02" cType="1" res="-3.5426873713731766e-02" rms="4.0284046530723572e-01" purity="2.1279831230640411e-01" nType="0">
                    <Node pos="l" depth="7" NCoef="0" IVar="-1" Cut="0.0000000000000000e+00" cType="1" res="-3.1794502865523100e-03" rms="4.1517078876495361e-01" purity="2.3143209517002106e-01" nType="-99"/>
                    <Node pos="r" depth="7" NCoef="0" IVar="-1" Cut="0.0000000000000000e+00" cType="1" res="-7.2704409249126911e-03" rms="3.8403263688087463e-01" purity="1.8625928461551666e-01" nType="-99"/>
                  </Node>
                </Node>
              </Node>
              <Node pos="r" depth="4" NCoef="0" IVar="5" Cut="4.0000000000000000e+00" cType="1" res="-4.6709764748811722e-02" rms="3.2382535934448242e-01" purity="1.2406168133020401e-01" nType="0">
                <Node pos="l" depth="5" NCoef="0" IVar="5" Cut="3.0000000000000000e+00" cType="1" res="-6.2426146119832993e-02" rms="3.1764686107635498e-01" purity="1.2335305660963058e-01" nType="0">
                  <Node pos="l" depth="6" NCoef="0" IVar="-1" Cut="0.0000000000000000e+00" cType="1" res="-1.4566532336175442e-02" rms="3.1392934918403625e-01" purity="1.1392126232385635e-01" nType="-99"/>
                  <Node pos="r" depth="6" NCoef="0" IVar="0" Cut="1.0669195652008057e+00" cType="1" res="-5.9727583080530167e-02" rms="3.2698675990104675e-01" purity="1.2818089127540588e-01" nType="0">
                    <Node pos="l" depth="7" NCoef="0" IVar="-1" Cut="0.0000000000000000e+00" cType="1" res="-9.3542616814374924e-03" rms="3.5564053058624268e-01" purity="1.5604701638221741e-01" nType="-99"/>
                    <Node pos="r" depth="7" NCoef="0" IVar="-1" Cut="0.0000000000000000e+00" cType="1" res="-1.2583249248564243e-02" rms="2.9641637206077576e-01" purity="1.0103048384189606e-01" nType="-99"/>
                  </Node>
                </Node>
                <Node pos="r" depth="5" NCoef="0" IVar="1" Cut="1.3560049235820770e-01" cType="1" res="-3.3103257417678833e-02" rms="3.2428434491157532e-01" purity="1.2454949319362640e-01" nType="0">
                  <Node pos="l" depth="6" NCoef="0" IVar="-1" Cut="0.0000000000000000e+00" cType="1" res="-3.1779462005943060e-03" rms="3.5943531990051270e-01" purity="1.5784239768981934e-01" nType="-99"/>
                  <Node pos="r" depth="6" NCoef="0" IVar="2" Cut="1.3600775146484375e+02" cType="1" res="-4.3571040034294128e-02" rms="2.9710718989372253e-01" purity="1.0152674466371536e-01" nType="0">
                    <Node pos="l" depth="7" NCoef="0" IVar="-1" Cut="0.0000000000000000e+00" cType="1" res="-5.5779428221285343e-03" rms="3.1886845827102661e-01" purity="1.2088670581579208e-01" nType="-99"/>
                    <Node pos="r" depth="7" NCoef="0" IVar="-1" Cut="0.0000000000000000e+00" cType="1" res="-1.1747444979846478e-02" rms="2.8154283761978149e-01" purity="8.8961973786354065e-02" nType="-99"/>
                  </Node>
                </Node>
              </Node>
            </Node>
          </Node>
          <Node pos="r" depth="2" NCoef="0" IVar="1" Cut="4.8374661803245544e-01" cType="1" res="3.2370176631957293e-04" rms="4.8456501960754395e-01" purity="4.7655725479125977e-01" nType="0">
            <Node pos="l" depth="3" NCoef="0" IVar="2" Cut="1.4579931640625000e+02" cType="1" res="1.0386186651885509e-02" rms="4.8804920911788940e-01" purity="5.0375312566757202e-01" nType="0">
              <Node pos="l" depth="4" NCoef="0" IVar="4" Cut="3.7294697016477585e-02" cType="1" res="2.1007576957345009e-02" rms="4.8795947432518005e-01" purity="5.3198522329330444e-01" nType="0">
                <Node pos="l" depth="5" NCoef="0" IVar="2" Cut="4.3046215057373047e+01" cType="1" res="-9.8244464024901390e-03" rms="4.8756089806556702e-01" purity="4.9404671788215637e-01" nType="0">
                  <Node pos="l" depth="6" NCoef="0" IVar="-1" Cut="0.0000000000000000e+00" cType="1" res="1.8305126577615738e-03" rms="4.8792544007301331e-01" purity="5.3972536325454712e-01" nType="-99"/>
                  <Node pos="r" depth="6" NCoef="0" IVar="-1" Cut="0.0000000000000000e+00" cType="1" res="-3.7579718045890331e-03" rms="4.8524925112724304e-01" purity="4.4932314753532410e-01" nType="-99"/>
                </Node>
                <Node pos="r" depth="5" NCoef="0" IVar="3" Cut="6.6888260841369629e-01" cType="1" res="3.6599133163690567e-02" rms="4.8741897940635681e-01" purity="5.5117052793502808e-01" nType="0">
                  <Node pos="l" depth="6" NCoef="0" IVar="4" Cut="7.0542082190513611e-02" cType="1" res="1.1564929969608784e-02" rms="4.9252972006797791e-01" purity="4.6514540910720825e-01" nType="0">
                    <Node pos="l" depth="7" NCoef="0" IVar="-1" Cut="0.0000000000000000e+00" cType="1" res="-4.6962426858954132e-04" rms="4.8875749111175537e-01" purity="4.2814150452613831e-01" nType="-99"/>
                    <Node pos="r" depth="7" NCoef="0" IVar="-1" Cut="0.0000000000000000e+00" cType="1" res="2.3385789245367050e-03" rms="4.9573725461959839e-01" purity="5.0258928537368774e-01" nType="-99"/>
                  </Node>
                  <Node pos="r" depth="6" NCoef="0" IVar="4" Cut="5.7213988155126572e-02" cType="1" res="5.4371669888496399e-02" rms="4.8297098278999329e-01" purity="6.1224240064620972e-01" nType="0">
                    <Node pos="l" depth="7" NCoef="0" IVar="-1" Cut="0.0000000000000000e+00" cType="1" res="2.5013377889990807e-03" rms="4.9028462171554565e-01" purity="5.7835924625396729e-01" nType="-99"/>
                    <Node pos="r" depth="7" NCoef="0" IVar="-1" Cut="0.0000000000000000e+00" cType="1" res="5.6830253452062607e-03" rms="4.7663435339927673e-01" purity="6.3739281892776489e-01" nType="-99"/>
                  </Node>
                </Node>
              </Node>
              <Node pos="r" depth="4" NCoef="0" IVar="0" Cut="4.2297554016113281e-01" cType="1" res="-1.9109892891719937e-03" rms="4.8786431550979614e-01" purity="4.7106674313545227e-01" nType="0">
                <Node pos="l" depth="5" NCoef="0" IVar="0" Cut="2.5923225283622742e-01" cType="1" res="4.5794183388352394e-03" rms="4.9367296695709229e-01" purity="5.1088458299636841e-01" nType="0">
                  <Node pos="l" depth="6" NCoef="0" IVar="1" Cut="9.2680722475051880e-02" cType="1" res="1.1220619082450867e-02" rms="4.9371072649955750e-01" purity="5.3587889671325684e-01" nType="0">
                    <Node pos="l" depth="7" NCoef="0" IVar="-1" Cut="0.0000000000000000e+00" cType="1" res="2.0299132447689772e-03" rms="4.9185034632682800e-01" purity="5.5755978822708130e-01" nType="-99"/>
                    <Node pos="r" depth="7" NCoef="0" IVar="-1" Cut="0.0000000000000000e+00" cType="1" res="-1.0190153261646628e-03" rms="4.9635395407676697e-01" purity="4.9571824073791504e-01" nType="-99"/>
                  </Node>
                  <Node pos="r" depth="6" NCoef="0" IVar="-1" Cut="0.0000000000000000e+00" cType="1" res="-1.3473060680553317e-03" rms="4.9306651949882507e-01" purity="4.3903008103370667e-01" nType="-99"/>
                </Node>
                <Node pos="r" depth="5" NCoef="0" IVar="-1" Cut="0.0000000000000000e+00" cType="1" res="-2.5345585308969021e-03" rms="4.6630156040191650e-01" purity="3.3199417591094971e-01" nType="-99"/>
              </Node>
            </Node>
            <Node pos="r" depth="3" NCoef="0" IVar="5" Cut="3.0000000000000000e+00" cType="1" res="-4.3393865227699280e-02" rms="4.6333461999893188e-01" purity="3.5378512740135193e-01" nType="0">
              <Node pos="l" depth="4" NCoef="0" IVar="-1" Cut="0.0000000000000000e+00" cType="1" res="-7.5017209164798260e-03" rms="4.5125177502632141e-01" purity="3.1345951557159424e-01" nType="-99"/>
              <Node pos="r" depth="4" NCoef="0" IVar="3" Cut="6.5603625774383545e-01" cType="1" res="-2.6431886479258537e-02" rms="4.7337719798088074e-01" purity="3.7802907824516296e-01" nType="0">
                <Node pos="l" depth="5" NCoef="0" IVar="-1" Cut="0.0000000000000000e+00" cType="1" res="-3.3123358152806759e-03" rms="4.5641672611236572e-01" purity="3.1595578789710999e-01" nType="-99"/>
                <Node pos="r" depth="5" NCoef="0" IVar="-1" Cut="0.0000000000000000e+00" cType="1" res="-1.8514696275815368e-03" rms="4.8937577009201050e-01" purity="4.3892955780029297e-01" nType="-99"/>
              </Node>
            </Node>
          </Node>
        </Node>
        <Node pos="r" depth="1" NCoef="0" IVar="3" Cut="1.0575314760208130e+00" cType="1" res="5.0295855849981308e-02" rms="4.3118530511856079e-01" purity="7.3735040426254272e-01" nType="0">
          <Node pos="l" depth="2" NCoef="0" IVar="0" Cut="5.8072727918624878e-01" cType="1" res="5.2736241370439529e-02" rms="4.3035247921943665e-01" purity="7.4084633588790894e-01" nType="0">
            <Node pos="l" depth="3" NCoef="0" IVar="1" Cut="1.0935702323913574e+00" cType="1" res="5.4961230605840683e-02" rms="4.2857185006141663e-01" purity="7.4786025285720825e-01" nType="0">
              <Node pos="l" depth="4" NCoef="0" IVar="3" Cut="9.0072005987167358e-01" cType="1" res="5.7735338807106018e-02" rms="4.2560967803001404e-01" purity="7.5458633899688721e-01" nType="0">
                <Node pos="l" depth="5" NCoef="0" IVar="1" Cut="2.4185486137866974e-01" cType="1" res="4.4252920895814896e-02" rms="4.5846295356750488e-01" purity="6.9138765335083008e-01" nType="0">
                  <Node pos="l" depth="6" NCoef="0" IVar="3" Cut="8.3406221866607666e-01" cType="1" res="4.8385776579380035e-02" rms="4.5229551196098328e-01" purity="7.0826876163482666e-01" nType="0">
                    <Node pos="l" depth="7" NCoef="0" IVar="-1" Cut="0.0000000000000000e+00" cType="1" res="3.6832536570727825e-03" rms="4.6697905659675598e-01" purity="6.7411345243453979e-01" nType="-99"/>
                    <Node pos="r" depth="7" NCoef="0" IVar="-1" Cut="0.0000000000000000e+00" cType="1" res="4.9040634185075760e-03" rms="4.4106286764144897e-01" purity="7.3356401920318604e-01" nType="-99"/>
                  </Node>
                  <Node pos="r" depth="6" NCoef="0" IVar="3" Cut="8.5489708185195923e-01" cType="1" res="3.1410690397024155e-02" rms="4.7689035534858704e-01" purity="6.3893222808837891e-01" nType="0">
                    <Node pos="l" depth="7" NCoef="0" IVar="-1" Cut="0.0000000000000000e+00" cType="1" res="1.6352926613762975e-03" rms="4.8584219813346863e-01" purity="6.0825073719024658e-01" nType="-99"/>
                    <Node pos="r" depth="7" NCoef="0" IVar="-1" Cut="0.0000000000000000e+00" cType="1" res="4.4685332104563713e-03" rms="4.6137061715126038e-01" purity="6.8881887197494507e-01" nType="-99"/>
                  </Node>
                </Node>
                <Node pos="r" depth="5" NCoef="0" IVar="3" Cut="1.0018892288208008e+00" cType="1" res="6.4968027174472809e-02" rms="4.0670955181121826e-01" purity="7.8848946094512939e-01" nType="0">
                  <Node pos="l" depth="6" NCoef="0" IVar="1" Cut="5.5283272266387939e-01" cType="1" res="6.0731366276741028e-02" rms="4.1169762611389160e-01" purity="7.8124439716339111e-01" nType="0">
                    <Node pos="l" depth="7" NCoef="0" IVar="-1" Cut="0.0000000000000000e+00" cType="1" res="6.1294585466384888e-03" rms="4.0777853131294250e-01" purity="7.8787922859191895e-01" nType="-99"/>
                    <Node pos="r" depth="7" NCoef="0" IVar="-1" Cut="0.0000000000000000e+00" cType="1" res="2.8189346194267273e-03" rms="4.5520809292793274e-01" purity="7.0147395133972168e-01" nType="-99"/>
                  </Node>
                  <Node pos="r" depth="6" NCoef="0" IVar="3" Cut="1.0341978073120117e+00" cType="1" res="7.4736692011356354e-02" rms="3.9479514956474304e-01" purity="8.0519485473632812e-01" nType="0">
                    <Node pos="l" depth="7" NCoef="0" IVar="-1" Cut="0.0000000000000000e+00" cType="1" res="7.3936935514211655e-03" rms="3.9109805226325989e-01" purity="8.1011354923248291e-01" nType="-99"/>
                    <Node pos="r" depth="7" NCoef="0" IVar="-1" Cut="0.0000000000000000e+00" cType="1" res="4.7653960064053535e-03" rms="4.1735547780990601e-01" purity="7.7315890789031982e-01" nType="-99"/>
                  </Node>
                </Node>
              </Node>
              <Node pos="r" depth="4" NCoef="0" IVar="-1" Cut="0.0000000000000000e+00" cType="1" res="-3.9121208828873932e-04" rms="4.8408624529838562e-01" purity="6.0328310728073120e-01" nType="-99"/>
            </Node>
            <Node pos="r" depth="3" NCoef="0" IVar="-1" Cut="0.0000000000000000e+00" cType="1" res="-3.2779527828097343e-03" rms="4.8898690938949585e-01" purity="4.5501515269279480e-01" nType="-99"/>
          </Node>
          <Node pos="r" depth="2" NCoef="0" IVar="-1" Cut="0.0000000000000000e+00" cType="1" res="-4.5334636233747005e-03" rms="4.5286899805068970e-01" purity="5.9391075372695923e-01" nType="-99"/>
        </Node>
      </Node>
    </BinaryTree>
    <BinaryTree type="DecisionTree" boostWeight="1.0000000000000000e+00" itree="41">
      <Node pos="s" depth="0" NCoef="0" IVar="3" Cut="6.7501425743103027e-01" cType="1" res="1.2965709902346134e-02" rms="4.1464367508888245e-01" purity="4.9997246265411377e-01" nType="0">
        <Node pos="l" depth="1" NCoef="0" IVar="3" Cut="5.6620562076568604e-01" cType="1" res="-2.9245190322399139e-02" rms="3.6768177151679993e-01" purity="1.9889177381992340e-01" nType="0">
          <Node pos="l" depth="2" NCoef="0" IVar="4" Cut="1.5719634294509888e-01" cType="1" res="-3.6926381289958954e-02" rms="3.2803359627723694e-01" purity="1.3814672827720642e-01" nType="0">
            <Node pos="l" depth="3" NCoef="0" IVar="2" Cut="8.8586921691894531e+01" cType="1" res="-4.1114874184131622e-02" rms="3.1062340736389160e-01" purity="1.2282609939575195e-01" nType="0">
              <Node pos="l" depth="4" NCoef="0" IVar="4" Cut="4.4814974069595337e-02" cType="1" res="-2.4401277303695679e-02" rms="3.3359166979789734e-01" purity="1.4691688120365143e-01" nType="0">
                <Node pos="l" depth="5" NCoef="0" IVar="4" Cut="2.3464445024728775e-02" cType="1" res="-4.4356942176818848e-02" rms="3.0349341034889221e-01" purity="1.1400298029184341e-01" nType="0">
                  <Node pos="l" depth="6" NCoef="0" IVar="-1" Cut="0.0000000000000000e+00" cType="1" res="-1.1100417003035545e-02" rms="2.9473516345024109e-01" purity="1.0554807633161545e-01" nType="-99"/>
                  <Node pos="r" depth="6" NCoef="0" IVar="-1" Cut="0.0000000000000000e+00" cType="1" res="-8.0575253814458847e-03" rms="3.0986416339874268e-01" purity="1.2049992382526398e-01" nType="-99"/>
                </Node>
                <Node pos="r" depth="5" NCoef="0" IVar="1" Cut="4.0903791785240173e-01" cType="1" res="-3.1736472155898809e-03" rms="3.6167189478874207e-01" purity="1.8192870914936066e-01" nType="0">
                  <Node pos="l" depth="6" NCoef="0" IVar="-1" Cut="0.0000000000000000e+00" cType="1" res="2.9900118242949247e-03" rms="4.1366916894912720e-01" purity="2.5652971863746643e-01" nType="-99"/>
                  <Node pos="r" depth="6" NCoef="0" IVar="-1" Cut="0.0000000000000000e+00" cType="1" res="-6.9415904581546783e-03" rms="2.9781085252761841e-01" purity="1.0630183666944504e-01" nType="-99"/>
                </Node>
              </Node>
              <Node pos="r" depth="4" NCoef="0" IVar="4" Cut="1.0250525176525116e-01" cType="1" res="-4.5374963432550430e-02" rms="3.0434536933898926e-01" purity="1.1668564379215240e-01" nType="0">
                <Node pos="l" depth="5" NCoef="0" IVar="2" Cut="3.3850613403320312e+02" cType="1" res="-5.4124660789966583e-02" rms="2.7620604634284973e-01" purity="9.1961212456226349e-02" nType="0">
                  <Node pos="l" depth="6" NCoef="0" IVar="4" Cut="6.3397467136383057e-02" cType="1" res="-5.0870608538389206e-02" rms="2.8015744686126709e-01" purity="9.5377445220947266e-02" nType="0">
                    <Node pos="l" depth="7" NCoef="0" IVar="-1" Cut="0.0000000000000000e+00" cType="1" res="-1.4751606620848179e-02" rms="2.5242689251899719e-01" purity="7.4273735284805298e-02" nType="-99"/>
                    <Node pos="r" depth="7" NCoef="0" IVar="-1" Cut="0.0000000000000000e+00" cType="1" res="-9.1839758679270744e-03" rms="2.9817095398902893e-01" purity="1.1053464561700821e-01" nType="-99"/>
                  </Node>
                  <Node pos="r" depth="6" NCoef="0" IVar="-1" Cut="0.0000000000000000e+00" cType="1" res="-1.5529954805970192e-02" rms="2.5076749920845032e-01" purity="7.1799993515014648e-02" nType="-99"/>
                </Node>
                <Node pos="r" depth="5" NCoef="0" IVar="2" Cut="1.6748205566406250e+02" cType="1" res="-3.4814562648534775e-02" rms="3.3487194776535034e-01" purity="1.4652664959430695e-01" nType="0">
                  <Node pos="l" depth="6" NCoef="0" IVar="-1" Cut="0.0000000000000000e+00" cType="1" res="-7.9792796168476343e-04" rms="3.7350484728813171e-01" purity="2.0435911417007446e-01" nType="-99"/>
                  <Node pos="r" depth="6" NCoef="0" IVar="2" Cut="5.4748968505859375e+02" cType="1" res="-4.2639248073101044e-02" rms="3.2354611158370972e-01" purity="1.3139165937900543e-01" nType="0">
                    <Node pos="l" depth="7" NCoef="0" IVar="-1" Cut="0.0000000000000000e+00" cType="1" res="-7.5820097699761391e-03" rms="3.2701000571250916e-01" purity="1.3510096073150635e-01" nType="-99"/>
                    <Node pos="r" depth="7" NCoef="0" IVar="-1" Cut="0.0000000000000000e+00" cType="1" res="-1.1016039177775383e-02" rms="3.0653941631317139e-01" purity="1.1443646997213364e-01" nType="-99"/>
                  </Node>
                </Node>
              </Node>
            </Node>
            <Node pos="r" depth="3" NCoef="0" IVar="2" Cut="2.7622729492187500e+02" cType="1" res="-2.5367183610796928e-02" rms="3.7163165211677551e-01" purity="1.8042786419391632e-01" nType="0">
              <Node pos="l" depth="4" NCoef="0" IVar="-1" Cut="0.0000000000000000e+00" cType="1" res="1.4140449638944119e-04" rms="3.9387631416320801e-01" purity="2.1742893755435944e-01" nType="-99"/>
              <Node pos="r" depth="4" NCoef="0" IVar="5" Cut="4.0000000000000000e+00" cType="1" res="1.3445779681205750e-01" rms="0.0000000000000000e+00" purity="1.7082941532135010e-01" nType="0">
                <Node pos="l" depth="5" NCoef="0" IVar="-1" Cut="0.0000000000000000e+00" cType="1" res="-1.1195660335943103e-03" rms="4.3813189864158630e-01" purity="2.7252662181854248e-01" nType="-99"/>
                <Node pos="r" depth="5" NCoef="0" IVar="3" Cut="2.0122294127941132e-01" cType="1" res="-3.7113789469003677e-02" rms="3.4777793288230896e-01" purity="1.4930780231952667e-01" nType="0">
                  <Node pos="l" depth="6" NCoef="0" IVar="-1" Cut="0.0000000000000000e+00" cType="1" res="-1.0039771907031536e-02" rms="3.2575768232345581e-01" purity="1.2701852619647980e-01" nType="-99"/>
                  <Node pos="r" depth="6" NCoef="0" IVar="0" Cut="7.8631377220153809e-01" cType="1" res="-3.0070820823311806e-02" rms="3.5784348845481873e-01" purity="1.6020865738391876e-01" nType="0">
                    <Node pos="l" depth="7" NCoef="0" IVar="-1" Cut="0.0000000000000000e+00" cType="1" res="-1.6177458455786109e-03" rms="4.0525847673416138e-01" purity="2.1514850854873657e-01" nType="-99"/>
                    <Node pos="r" depth="7" NCoef="0" IVar="-1" Cut="0.0000000000000000e+00" cType="1" res="-1.2964211404323578e-02" rms="2.7962616086006165e-01" purity="8.6239136755466461e-02" nType="-99"/>
                  </Node>
                </Node>
              </Node>
            </Node>
          </Node>
          <Node pos="r" depth="2" NCoef="0" IVar="4" Cut="8.6921282112598419e-02" cType="1" res="-2.8612643945962191e-03" rms="4.7857925295829773e-01" purity="4.0754339098930359e-01" nType="0">
            <Node pos="l" depth="3" NCoef="0" IVar="2" Cut="1.6070764160156250e+02" cType="1" res="-1.6405628994107246e-02" rms="4.7126361727714539e-01" purity="3.8188672065734863e-01" nType="0">
              <Node pos="l" depth="4" NCoef="0" IVar="4" Cut="3.6973841488361359e-02" cType="1" res="3.4386797342449427e-03" rms="4.7899705171585083e-01" purity="4.1692939400672913e-01" nType="0">
                <Node pos="l" depth="5" NCoef="0" IVar="-1" Cut="0.0000000000000000e+00" cType="1" res="-3.3866460435092449e-03" rms="4.6735736727714539e-01" purity="3.6176466941833496e-01" nType="-99"/>
                <Node pos="r" depth="5" NCoef="0" IVar="2" Cut="7.9182197570800781e+01" cType="1" res="2.3986838757991791e-02" rms="4.8395237326622009e-01" purity="4.4684067368507385e-01" nType="0">
                  <Node pos="l" depth="6" NCoef="0" IVar="-1" Cut="0.0000000000000000e+00" cType="1" res="4.4678505510091782e-03" rms="4.8753610253334045e-01" purity="4.8514792323112488e-01" nType="-99"/>
                  <Node pos="r" depth="6" NCoef="0" IVar="-1" Cut="0.0000000000000000e+00" cType="1" res="1.4537338574882597e-04" rms="4.7988587617874146e-01" purity="4.1617047786712646e-01" nType="-99"/>
                </Node>
              </Node>
              <Node pos="r" depth="4" NCoef="0" IVar="-1" Cut="0.0000000000000000e+00" cType="1" res="-6.0524241998791695e-03" rms="4.5190393924713135e-01" purity="3.0875909328460693e-01" nType="-99"/>
            </Node>
            <Node pos="r" depth="3" NCoef="0" IVar="3" Cut="6.2233448028564453e-01" cType="1" res="1.6070563346147537e-02" rms="4.8799169063568115e-01" purity="4.4340535998344421e-01" nType="0">
              <Node pos="l" depth="4" NCoef="0" IVar="3" Cut="5.9336769580841064e-01" cType="1" res="-4.4188923202455044e-03" rms="4.8150801658630371e-01" purity="3.9641034603118896e-01" nType="0">
                <Node pos="l" depth="5" NCoef="0" IVar="-1" Cut="0.0000000000000000e+00" cType="1" res="-7.8626042522955686e-05" rms="4.7907286882400513e-01" purity="3.8529130816459656e-01" nType="-99"/>
                <Node pos="r" depth="5" NCoef="0" IVar="-1" Cut="0.0000000000000000e+00" cType="1" res="-7.4123911326751113e-04" rms="4.8393255472183228e-01" purity="4.0766263008117676e-01" nType="-99"/>
              </Node>
              <Node pos="r" depth="4" NCoef="0" IVar="-1" Cut="0.0000000000000000e+00" cType="1" res="3.4174849279224873e-03" rms="4.9426221847534180e-01" purity="4.9714693427085876e-01" nType="-99"/>
            </Node>
          </Node>
        </Node>
        <Node pos="r" depth="1" NCoef="0" IVar="1" Cut="7.5059926509857178e-01" cType="1" res="4.1785787791013718e-02" rms="4.4155028462409973e-01" purity="7.0553952455520630e-01" nType="0">
          <Node pos="l" depth="2" NCoef="0" IVar="3" Cut="8.1550800800323486e-01" cType="1" res="4.6774331480264664e-02" rms="4.3757662177085876e-01" purity="7.1852636337280273e-01" nType="0">
            <Node pos="l" depth="3" NCoef="0" IVar="3" Cut="7.1580535173416138e-01" cType="1" res="2.2392103448510170e-02" rms="4.8394501209259033e-01" purity="5.8983379602432251e-01" nType="0">
              <Node pos="l" depth="4" NCoef="0" IVar="0" Cut="1.6697554290294647e-01" cType="1" res="2.1288492716848850e-03" rms="4.9288904666900635e-01" purity="5.1714456081390381e-01" nType="0">
                <Node pos="l" depth="5" NCoef="0" IVar="-1" Cut="0.0000000000000000e+00" cType="1" res="1.6980865038931370e-03" rms="4.9211415648460388e-01" purity="5.8044844865798950e-01" nType="-99"/>
                <Node pos="r" depth="5" NCoef="0" IVar="-1" Cut="0.0000000000000000e+00" cType="1" res="-1.2989128008484840e-03" rms="4.9297553300857544e-01" purity="4.6118348836898804e-01" nType="-99"/>
              </Node>
              <Node pos="r" depth="4" NCoef="0" IVar="5" Cut="3.0000000000000000e+00" cType="1" res="2.9994815587997437e-02" rms="4.8022684454917908e-01" purity="6.1545497179031372e-01" nType="0">
                <Node pos="l" depth="5" NCoef="0" IVar="3" Cut="7.8656262159347534e-01" cType="1" res="1.5666179358959198e-02" rms="4.8594045639038086e-01" purity="5.9082508087158203e-01" nType="0">
                  <Node pos="l" depth="6" NCoef="0" IVar="2" Cut="1.1367797088623047e+02" cType="1" res="1.7459606751799583e-03" rms="4.9234700202941895e-01" purity="5.5386352539062500e-01" nType="0">
                    <Node pos="l" depth="7" NCoef="0" IVar="-1" Cut="0.0000000000000000e+00" cType="1" res="1.0542245581746101e-03" rms="4.9101465940475464e-01" purity="5.7230484485626221e-01" nType="-99"/>
                    <Node pos="r" depth="7" NCoef="0" IVar="-1" Cut="0.0000000000000000e+00" cType="1" res="-8.3992758300155401e-04" rms="4.9340504407882690e-01" purity="5.3541052341461182e-01" nType="-99"/>
                  </Node>
                  <Node pos="r" depth="6" NCoef="0" IVar="3" Cut="8.0243945121765137e-01" cType="1" res="3.5040866583585739e-02" rms="4.7620350122451782e-01" purity="6.4226955175399780e-01" nType="0">
                    <Node pos="l" depth="7" NCoef="0" IVar="-1" Cut="0.0000000000000000e+00" cType="1" res="3.4178057685494423e-03" rms="4.7556310892105103e-01" purity="6.4812088012695312e-01" nType="-99"/>
                    <Node pos="r" depth="7" NCoef="0" IVar="-1" Cut="0.0000000000000000e+00" cType="1" res="2.1666232496500015e-03" rms="4.7669282555580139e-01" purity="6.3633722066879272e-01" nType="-99"/>
                  </Node>
                </Node>
                <Node pos="r" depth="5" NCoef="0" IVar="2" Cut="1.1492092132568359e+02" cType="1" res="4.6858776360750198e-02" rms="4.7315740585327148e-01" purity="6.4622288942337036e-01" nType="0">
                  <Node pos="l" depth="6" NCoef="0" IVar="4" Cut="3.5404179245233536e-02" cType="1" res="5.6329436600208282e-02" rms="4.6848604083061218e-01" purity="6.6416937112808228e-01" nType="0">
                    <Node pos="l" depth="7" NCoef="0" IVar="-1" Cut="0.0000000000000000e+00" cType="1" res="3.8394634611904621e-03" rms="4.7466129064559937e-01" purity="6.4698976278305054e-01" nType="-99"/>
                    <Node pos="r" depth="7" NCoef="0" IVar="-1" Cut="0.0000000000000000e+00" cType="1" res="6.1474768444895744e-03" rms="4.6205478906631470e-01" purity="6.8072342872619629e-01" nType="-99"/>
                  </Node>
                  <Node pos="r" depth="6" NCoef="0" IVar="-1" Cut="0.0000000000000000e+00" cType="1" res="3.3689814154058695e-03" rms="4.7796836495399475e-01" purity="6.2672436237335205e-01" nType="-99"/>
                </Node>
              </Node>
            </Node>
            <Node pos="r" depth="3" NCoef="0" IVar="2" Cut="1.8824549865722656e+02" cType="1" res="5.4763581603765488e-02" rms="4.2096748948097229e-01" purity="7.6069468259811401e-01" nType="0">
              <Node pos="l" depth="4" NCoef="0" IVar="3" Cut="8.6948031187057495e-01" cType="1" res="5.6423652917146683e-02" rms="4.1870263218879700e-01" purity="7.6658147573471069e-01" nType="0">
                <Node pos="l" depth="5" NCoef="0" IVar="4" Cut="4.3491177260875702e-02" cType="1" res="3.6522138863801956e-02" rms="4.5943748950958252e-01" purity="6.9031286239624023e-01" nType="0">
                  <Node pos="l" depth="6" NCoef="0" IVar="2" Cut="5.4986133575439453e+01" cType="1" res="2.6891004294157028e-02" rms="4.6380478143692017e-01" purity="6.7977136373519897e-01" nType="0">
                    <Node pos="l" depth="7" NCoef="0" IVar="-1" Cut="0.0000000000000000e+00" cType="1" res="3.6512734368443489e-03" rms="4.5716360211372375e-01" purity="6.9755190610885620e-01" nType="-99"/>
                    <Node pos="r" depth="7" NCoef="0" IVar="-1" Cut="0.0000000000000000e+00" cType="1" res="9.1577565763145685e-04" rms="4.7034916281700134e-01" purity="6.6041183471679688e-01" nType="-99"/>
                  </Node>
                  <Node pos="r" depth="6" NCoef="0" IVar="-1" Cut="0.0000000000000000e+00" cType="1" res="4.3771434575319290e-03" rms="4.5077660679817200e-01" purity="7.0966100692749023e-01" nType="-99"/>
                </Node>
                <Node pos="r" depth="5" NCoef="0" IVar="3" Cut="9.7394156455993652e-01" cType="1" res="5.9942759573459625e-02" rms="4.1097959876060486e-01" purity="7.8006780147552490e-01" nType="0">
                  <Node pos="l" depth="6" NCoef="0" IVar="4" Cut="1.5068233944475651e-02" cType="1" res="5.3211722522974014e-02" rms="4.2877453565597534e-01" purity="7.5193029642105103e-01" nType="0">
                    <Node pos="l" depth="7" NCoef="0" IVar="-1" Cut="0.0000000000000000e+00" cType="1" res="3.4885890781879425e-03" rms="4.3650463223457336e-01" purity="7.3826473951339722e-01" nType="-99"/>
                    <Node pos="r" depth="7" NCoef="0" IVar="-1" Cut="0.0000000000000000e+00" cType="1" res="6.6275442950427532e-03" rms="4.2260223627090454e-01" purity="7.6196056604385376e-01" nType="-99"/>
                  </Node>
                  <Node pos="r" depth="6" NCoef="0" IVar="1" Cut="-1.4804206788539886e-01" cType="1" res="6.2164895236492157e-02" rms="4.0490868687629700e-01" purity="7.8935688734054565e-01" nType="0">
                    <Node pos="l" depth="7" NCoef="0" IVar="-1" Cut="0.0000000000000000e+00" cType="1" res="5.4382300004363060e-03" rms="4.0328460931777954e-01" purity="7.9225564002990723e-01" nType="-99"/>
                    <Node pos="r" depth="7" NCoef="0" IVar="-1" Cut="0.0000000000000000e+00" cType="1" res="6.1108511872589588e-03" rms="4.0534546971321106e-01" purity="7.8855669498443604e-01" nType="-99"/>
                  </Node>
                </Node>
              </Node>
              <Node pos="r" depth="4" NCoef="0" IVar="-1" Cut="0.0000000000000000e+00" cType="1" res="1.2629824923351407e-03" rms="4.7199055552482605e-01" purity="6.1416256427764893e-01" nType="-99"/>
            </Node>
          </Node>
          <Node pos="r" depth="2" NCoef="0" IVar="3" Cut="8.2429516315460205e-01" cType="1" res="-1.2669699266552925e-02" rms="4.7944092750549316e-01" purity="5.6377345323562622e-01" nType="0">
            <Node pos="l" depth="3" NCoef="0" IVar="-1" Cut="0.0000000000000000e+00" cType="1" res="-3.8652485236525536e-03" rms="4.8644557595252991e-01" purity="4.2491322755813599e-01" nType="-99"/>
            <Node pos="r" depth="3" NCoef="0" IVar="5" Cut="2.0000000000000000e+00" cType="1" res="4.2860782705247402e-03" rms="4.7285780310630798e-01" purity="6.1840564012527466e-01" nType="0">
              <Node pos="l" depth="4" NCoef="0" IVar="-1" Cut="0.0000000000000000e+00" cType="1" res="6.7884253803640604e-04" rms="4.7079497575759888e-01" purity="6.4835762977600098e-01" nType="-99"/>
              <Node pos="r" depth="4" NCoef="0" IVar="-1" Cut="0.0000000000000000e+00" cType="1" res="-1.4837648486718535e-03" rms="4.8651519417762756e-01" purity="5.5536621809005737e-01" nType="-99"/>
            </Node>
          </Node>
        </Node>
      </Node>
    </BinaryTree>
    <BinaryTree type="DecisionTree" boostWeight="1.0000000000000000e+00" itree="42">
      <Node pos="s" depth="0" NCoef="0" IVar="3" Cut="7.7288961410522461e-01" cType="1" res="1.1970080435276031e-02" rms="4.1433948278427124e-01" purity="4.9948468804359436e-01" nType="0">
        <Node pos="l" depth="1" NCoef="0" IVar="3" Cut="5.9846854209899902e-01" cType="1" res="-2.1319683641195297e-02" rms="3.9431032538414001e-01" purity="2.6537317037582397e-01" nType="0">
          <Node pos="l" depth="2" NCoef="0" IVar="4" Cut="1.5685297548770905e-01" cType="1" res="-3.3206466585397720e-02" rms="3.4091234207153320e-01" purity="1.5485449135303497e-01" nType="0">
            <Node pos="l" depth="3" NCoef="0" IVar="2" Cut="1.4598002624511719e+02" cType="1" res="-3.8203328847885132e-02" rms="3.2770985364913940e-01" purity="1.4329297840595245e-01" nType="0">
              <Node pos="l" depth="4" NCoef="0" IVar="4" Cut="5.0822924822568893e-02" cType="1" res="-2.7362912893295288e-02" rms="3.4476929903030396e-01" purity="1.6510033607482910e-01" nType="0">
                <Node pos="l" depth="5" NCoef="0" IVar="4" Cut="2.4768462404608727e-02" cType="1" res="-4.5485604554414749e-02" rms="3.1514260172843933e-01" purity="1.2880617380142212e-01" nType="0">
                  <Node pos="l" depth="6" NCoef="0" IVar="-1" Cut="0.0000000000000000e+00" cType="1" res="-1.2374501675367355e-02" rms="3.0273815989494324e-01" purity="1.1185744404792786e-01" nType="-99"/>
                  <Node pos="r" depth="6" NCoef="0" IVar="2" Cut="7.7515625000000000e+01" cType="1" res="-3.5910472273826599e-02" rms="3.2076242566108704e-01" purity="1.3731534779071808e-01" nType="0">
                    <Node pos="l" depth="7" NCoef="0" IVar="-1" Cut="0.0000000000000000e+00" cType="1" res="-3.0147985089570284e-03" rms="3.4979781508445740e-01" purity="1.7003533244132996e-01" nType="-99"/>
                    <Node pos="r" depth="7" NCoef="0" IVar="-1" Cut="0.0000000000000000e+00" cType="1" res="-1.2725685723125935e-02" rms="2.7977395057678223e-01" purity="9.7622230648994446e-02" nType="-99"/>
                  </Node>
                </Node>
                <Node pos="r" depth="5" NCoef="0" IVar="1" Cut="-6.3716582953929901e-02" cType="1" res="-1.3475810177624226e-02" rms="3.6524367332458496e-01" purity="1.9291189312934875e-01" nType="0">
                  <Node pos="l" depth="6" NCoef="0" IVar="-1" Cut="0.0000000000000000e+00" cType="1" res="4.6606855466961861e-03" rms="4.4582292437553406e-01" purity="3.2806825637817383e-01" nType="-99"/>
                  <Node pos="r" depth="6" NCoef="0" IVar="2" Cut="7.3218788146972656e+01" cType="1" res="-2.5258371606469154e-02" rms="3.4381341934204102e-01" purity="1.6307526826858521e-01" nType="0">
                    <Node pos="l" depth="7" NCoef="0" IVar="-1" Cut="0.0000000000000000e+00" cType="1" res="1.8251015571877360e-03" rms="3.7583237886428833e-01" purity="2.0985881984233856e-01" nType="-99"/>
                    <Node pos="r" depth="7" NCoef="0" IVar="-1" Cut="0.0000000000000000e+00" cType="1" res="-6.5945908427238464e-03" rms="3.3384913206100464e-01" purity="1.5031108260154724e-01" nType="-99"/>
                  </Node>
                </Node>
              </Node>
              <Node pos="r" depth="4" NCoef="0" IVar="4" Cut="9.3492828309535980e-02" cType="1" res="-4.5496292412281036e-02" rms="3.1550523638725281e-01" purity="1.2862193584442139e-01" nType="0">
                <Node pos="l" depth="5" NCoef="0" IVar="2" Cut="3.0081918334960938e+02" cType="1" res="-5.7362955063581467e-02" rms="2.7922183275222778e-01" purity="9.4826050102710724e-02" nType="0">
                  <Node pos="l" depth="6" NCoef="0" IVar="4" Cut="5.4253816604614258e-02" cType="1" res="-5.3104072809219360e-02" rms="2.8466409444808960e-01" purity="9.9726870656013489e-02" nType="0">
                    <Node pos="l" depth="7" NCoef="0" IVar="-1" Cut="0.0000000000000000e+00" cType="1" res="-1.5603844076395035e-02" rms="2.5078767538070679e-01" purity="7.2240561246871948e-02" nType="-99"/>
                    <Node pos="r" depth="7" NCoef="0" IVar="-1" Cut="0.0000000000000000e+00" cType="1" res="-9.9290413782000542e-03" rms="2.9627206921577454e-01" purity="1.1018715798854828e-01" nType="-99"/>
                  </Node>
                  <Node pos="r" depth="6" NCoef="0" IVar="-1" Cut="0.0000000000000000e+00" cType="1" res="-1.4599070884287357e-02" rms="2.6135635375976562e-01" purity="7.9765453934669495e-02" nType="-99"/>
                </Node>
                <Node pos="r" depth="5" NCoef="0" IVar="2" Cut="4.1487066650390625e+02" cType="1" res="-3.7399370223283768e-02" rms="3.3779522776603699e-01" purity="1.5168170630931854e-01" nType="0">
                  <Node pos="l" depth="6" NCoef="0" IVar="3" Cut="4.0760165452957153e-01" cType="1" res="-2.7395823970437050e-02" rms="3.4807139635086060e-01" purity="1.6428890824317932e-01" nType="0">
                    <Node pos="l" depth="7" NCoef="0" IVar="-1" Cut="0.0000000000000000e+00" cType="1" res="-1.3497718609869480e-02" rms="2.4099737405776978e-01" purity="6.3766114413738251e-02" nType="-99"/>
                    <Node pos="r" depth="7" NCoef="0" IVar="-1" Cut="0.0000000000000000e+00" cType="1" res="-1.1743564391508698e-03" rms="4.3408247828483582e-01" purity="2.7248847484588623e-01" nType="-99"/>
                  </Node>
                  <Node pos="r" depth="6" NCoef="0" IVar="4" Cut="1.3640722632408142e-01" cType="1" res="-5.4663311690092087e-02" rms="3.1854581832885742e-01" purity="1.2992443144321442e-01" nType="0">
                    <Node pos="l" depth="7" NCoef="0" IVar="-1" Cut="0.0000000000000000e+00" cType="1" res="-1.2177635915577412e-02" rms="3.0256336927413940e-01" purity="1.1392766982316971e-01" nType="-99"/>
                    <Node pos="r" depth="7" NCoef="0" IVar="-1" Cut="0.0000000000000000e+00" cType="1" res="-6.4773824997246265e-03" rms="3.4248444437980652e-01" purity="1.5624225139617920e-01" nType="-99"/>
                  </Node>
                </Node>
              </Node>
            </Node>
            <Node pos="r" depth="3" NCoef="0" IVar="3" Cut="4.0548563003540039e-01" cType="1" res="-1.8323149532079697e-02" rms="3.7711831927299500e-01" purity="1.8929088115692139e-01" nType="0">
              <Node pos="l" depth="4" NCoef="0" IVar="5" Cut="5.0000000000000000e+00" cType="1" res="1.2303760647773743e-01" rms="0.0000000000000000e+00" purity="1.5405528247356415e-01" nType="0">
                <Node pos="l" depth="5" NCoef="0" IVar="-1" Cut="0.0000000000000000e+00" cType="1" res="-7.8659289283677936e-04" rms="4.0453645586967468e-01" purity="2.2318243980407715e-01" nType="-99"/>
                <Node pos="r" depth="5" NCoef="0" IVar="3" Cut="3.1441506743431091e-01" cType="1" res="-3.3998418599367142e-02" rms="3.2939198613166809e-01" purity="1.2826523184776306e-01" nType="0">
                  <Node pos="l" depth="6" NCoef="0" IVar="4" Cut="2.6889336109161377e-01" cType="1" res="-4.2024035006761551e-02" rms="3.1518122553825378e-01" purity="1.1558441072702408e-01" nType="0">
                    <Node pos="l" depth="7" NCoef="0" IVar="-1" Cut="0.0000000000000000e+00" cType="1" res="-1.2279188260436058e-02" rms="2.7949053049087524e-01" purity="8.5970073938369751e-02" nType="-99"/>
                    <Node pos="r" depth="7" NCoef="0" IVar="-1" Cut="0.0000000000000000e+00" cType="1" res="-4.0512178093194962e-03" rms="3.8654118776321411e-01" purity="1.8605345487594604e-01" nType="-99"/>
                  </Node>
                  <Node pos="r" depth="6" NCoef="0" IVar="-1" Cut="0.0000000000000000e+00" cType="1" res="-5.3086178377270699e-04" rms="3.7766179442405701e-01" purity="1.7718455195426941e-01" nType="-99"/>
                </Node>
              </Node>
              <Node pos="r" depth="4" NCoef="0" IVar="-1" Cut="0.0000000000000000e+00" cType="1" res="1.1528126196935773e-03" rms="4.5684763789176941e-01" purity="3.1743192672729492e-01" nType="-99"/>
            </Node>
          </Node>
          <Node pos="r" depth="2" NCoef="0" IVar="1" Cut="5.8496166020631790e-02" cType="1" res="3.3559857401996851e-03" rms="4.8587721586227417e-01" purity="4.9479788541793823e-01" nType="0">
            <Node pos="l" depth="3" NCoef="0" IVar="2" Cut="8.7489448547363281e+01" cType="1" res="2.1085375919938087e-02" rms="4.8804947733879089e-01" purity="5.4408937692642212e-01" nType="0">
              <Node pos="l" depth="4" NCoef="0" IVar="4" Cut="3.5380817949771881e-02" cType="1" res="4.8087060451507568e-02" rms="4.8244559764862061e-01" purity="5.9200108051300049e-01" nType="0">
                <Node pos="l" depth="5" NCoef="0" IVar="-1" Cut="0.0000000000000000e+00" cType="1" res="1.0208947351202369e-03" rms="4.8748415708541870e-01" purity="5.4909241199493408e-01" nType="-99"/>
                <Node pos="r" depth="5" NCoef="0" IVar="-1" Cut="0.0000000000000000e+00" cType="1" res="5.6719589047133923e-03" rms="4.7734993696212769e-01" purity="6.2145489454269409e-01" nType="-99"/>
              </Node>
              <Node pos="r" depth="4" NCoef="0" IVar="4" Cut="6.9989368319511414e-02" cType="1" res="6.7644855007529259e-03" rms="4.9039265513420105e-01" purity="5.1867842674255371e-01" nType="0">
                <Node pos="l" depth="5" NCoef="0" IVar="3" Cut="7.0537000894546509e-01" cType="1" res="-1.2575042434036732e-02" rms="4.8858401179313660e-01" purity="4.9382698535919189e-01" nType="0">
                  <Node pos="l" depth="6" NCoef="0" IVar="-1" Cut="0.0000000000000000e+00" cType="1" res="-2.8773546218872070e-03" rms="4.8622065782546997e-01" purity="4.2272600531578064e-01" nType="-99"/>
                  <Node pos="r" depth="6" NCoef="0" IVar="-1" Cut="0.0000000000000000e+00" cType="1" res="4.0877901483327150e-04" rms="4.9021974205970764e-01" purity="5.6174671649932861e-01" nType="-99"/>
                </Node>
                <Node pos="r" depth="5" NCoef="0" IVar="2" Cut="2.5497526550292969e+02" cType="1" res="1.8998280167579651e-02" rms="4.9114024639129639e-01" purity="5.3439897298812866e-01" nType="0">
                  <Node pos="l" depth="6" NCoef="0" IVar="-1" Cut="0.0000000000000000e+00" cType="1" res="3.2497153151780367e-03" rms="4.8924714326858521e-01" purity="5.6791353225708008e-01" nType="-99"/>
                  <Node pos="r" depth="6" NCoef="0" IVar="-1" Cut="0.0000000000000000e+00" cType="1" res="-3.3157115103676915e-04" rms="4.9232774972915649e-01" purity="4.9597141146659851e-01" nType="-99"/>
                </Node>
              </Node>
            </Node>
            <Node pos="r" depth="3" NCoef="0" IVar="0" Cut="4.2297556996345520e-01" cType="1" res="-1.4179281890392303e-02" rms="4.8307955265045166e-01" purity="4.4604611396789551e-01" nType="0">
              <Node pos="l" depth="4" NCoef="0" IVar="0" Cut="1.7734022438526154e-01" cType="1" res="-2.1609272807836533e-03" rms="4.9247467517852783e-01" purity="4.9176523089408875e-01" nType="0">
                <Node pos="l" depth="5" NCoef="0" IVar="2" Cut="2.3857936096191406e+02" cType="1" res="1.0800828225910664e-02" rms="4.9449947476387024e-01" purity="5.3324526548385620e-01" nType="0">
                  <Node pos="l" depth="6" NCoef="0" IVar="3" Cut="7.1097093820571899e-01" cType="1" res="1.8877431750297546e-02" rms="4.9415451288223267e-01" purity="5.5442768335342407e-01" nType="0">
                    <Node pos="l" depth="7" NCoef="0" IVar="-1" Cut="0.0000000000000000e+00" cType="1" res="2.2649546153843403e-03" rms="4.9743551015853882e-01" purity="5.3023266792297363e-01" nType="-99"/>
                    <Node pos="r" depth="7" NCoef="0" IVar="-1" Cut="0.0000000000000000e+00" cType="1" res="7.8554113861173391e-04" rms="4.9058550596237183e-01" purity="5.7923990488052368e-01" nType="-99"/>
                  </Node>
                  <Node pos="r" depth="6" NCoef="0" IVar="-1" Cut="0.0000000000000000e+00" cType="1" res="-4.3581667705439031e-04" rms="4.9479222297668457e-01" purity="4.9213430285453796e-01" nType="-99"/>
                </Node>
                <Node pos="r" depth="5" NCoef="0" IVar="3" Cut="7.1100795269012451e-01" cType="1" res="-1.8694566562771797e-02" rms="4.8938176035881042e-01" purity="4.3885442614555359e-01" nType="0">
                  <Node pos="l" depth="6" NCoef="0" IVar="-1" Cut="0.0000000000000000e+00" cType="1" res="-3.6604537162929773e-03" rms="4.8493295907974243e-01" purity="3.9274290204048157e-01" nType="-99"/>
                  <Node pos="r" depth="6" NCoef="0" IVar="-1" Cut="0.0000000000000000e+00" cType="1" res="5.6275620590895414e-04" rms="4.9380201101303101e-01" purity="4.9708497524261475e-01" nType="-99"/>
                </Node>
              </Node>
              <Node pos="r" depth="4" NCoef="0" IVar="-1" Cut="0.0000000000000000e+00" cType="1" res="-5.4736044257879257e-03" rms="4.4995638728141785e-01" purity="3.0137944221496582e-01" nType="-99"/>
            </Node>
          </Node>
        </Node>
        <Node pos="r" depth="1" NCoef="0" IVar="1" Cut="9.8882097005844116e-01" cType="1" res="4.5648921281099319e-02" rms="4.3105411529541016e-01" purity="7.3633241653442383e-01" nType="0">
          <Node pos="l" depth="2" NCoef="0" IVar="1" Cut="1.6646189615130424e-02" cType="1" res="4.9320992082357407e-02" rms="4.2766961455345154e-01" purity="7.4542880058288574e-01" nType="0">
            <Node pos="l" depth="3" NCoef="0" IVar="5" Cut="2.0000000000000000e+00" cType="1" res="5.8841336518526077e-02" rms="4.1579324007034302e-01" purity="7.6891189813613892e-01" nType="0">
              <Node pos="l" depth="4" NCoef="0" IVar="3" Cut="1.0237607955932617e+00" cType="1" res="6.3795305788516998e-02" rms="3.9777815341949463e-01" purity="7.9899322986602783e-01" nType="0">
                <Node pos="l" depth="5" NCoef="0" IVar="3" Cut="9.6729773283004761e-01" cType="1" res="6.3912004232406616e-02" rms="3.9684402942657471e-01" purity="8.0063980817794800e-01" nType="0">
                  <Node pos="l" depth="6" NCoef="0" IVar="-1" Cut="0.0000000000000000e+00" cType="1" res="3.8572666235268116e-03" rms="4.2913624644279480e-01" purity="7.5134497880935669e-01" nType="-99"/>
                  <Node pos="r" depth="6" NCoef="0" IVar="3" Cut="1.0000826120376587e+00" cType="1" res="6.6467486321926117e-02" rms="3.9291128516197205e-01" purity="8.0626207590103149e-01" nType="0">
                    <Node pos="l" depth="7" NCoef="0" IVar="-1" Cut="0.0000000000000000e+00" cType="1" res="6.4174672588706017e-03" rms="3.9640632271766663e-01" purity="8.0135476589202881e-01" nType="-99"/>
                    <Node pos="r" depth="7" NCoef="0" IVar="-1" Cut="0.0000000000000000e+00" cType="1" res="6.7181540653109550e-03" rms="3.8782772421836853e-01" purity="8.1330293416976929e-01" nType="-99"/>
                  </Node>
                </Node>
                <Node pos="r" depth="5" NCoef="0" IVar="-1" Cut="0.0000000000000000e+00" cType="1" res="5.9477435424923897e-03" rms="4.0493091940879822e-01" purity="7.8625553846359253e-01" nType="-99"/>
              </Node>
              <Node pos="r" depth="4" NCoef="0" IVar="3" Cut="8.4453219175338745e-01" cType="1" res="5.0734192132949829e-02" rms="4.4342705607414246e-01" purity="7.2003120183944702e-01" nType="0">
                <Node pos="l" depth="5" NCoef="0" IVar="3" Cut="8.0293720960617065e-01" cType="1" res="4.9079108983278275e-02" rms="4.5914641022682190e-01" purity="6.8894994258880615e-01" nType="0">
                  <Node pos="l" depth="6" NCoef="0" IVar="-1" Cut="0.0000000000000000e+00" cType="1" res="3.7607974372804165e-03" rms="4.6560978889465332e-01" purity="6.7232280969619751e-01" nType="-99"/>
                  <Node pos="r" depth="6" NCoef="0" IVar="3" Cut="8.2306462526321411e-01" cType="1" res="5.2291579544544220e-02" rms="4.5487427711486816e-01" purity="6.9973957538604736e-01" nType="0">
                    <Node pos="l" depth="7" NCoef="0" IVar="-1" Cut="0.0000000000000000e+00" cType="1" res="5.0275372341275215e-03" rms="4.5625233650207520e-01" purity="6.9414073228836060e-01" nType="-99"/>
                    <Node pos="r" depth="7" NCoef="0" IVar="-1" Cut="0.0000000000000000e+00" cType="1" res="3.9541232399642467e-03" rms="4.5350831747055054e-01" purity="7.0488780736923218e-01" nType="-99"/>
                  </Node>
                </Node>
                <Node pos="r" depth="5" NCoef="0" IVar="-1" Cut="0.0000000000000000e+00" cType="1" res="5.0866394303739071e-03" rms="4.3035200238227844e-01" purity="7.4505060911178589e-01" nType="-99"/>
              </Node>
            </Node>
            <Node pos="r" depth="3" NCoef="0" IVar="1" Cut="5.1841592788696289e-01" cType="1" res="3.9285700768232346e-02" rms="4.3963089585304260e-01" purity="7.2061866521835327e-01" nType="0">
              <Node pos="l" depth="4" NCoef="0" IVar="5" Cut="2.0000000000000000e+00" cType="1" res="4.6381268650293350e-02" rms="4.3293026089668274e-01" purity="7.3727715015411377e-01" nType="0">
                <Node pos="l" depth="5" NCoef="0" IVar="1" Cut="3.5653290152549744e-01" cType="1" res="5.4842729121446609e-02" rms="4.1388475894927979e-01" purity="7.7559393644332886e-01" nType="0">
                  <Node pos="l" depth="6" NCoef="0" IVar="1" Cut="2.1393397450447083e-01" cType="1" res="5.7658083736896515e-02" rms="4.1023325920104980e-01" purity="7.8151661157608032e-01" nType="0">
                    <Node pos="l" depth="7" NCoef="0" IVar="-1" Cut="0.0000000000000000e+00" cType="1" res="5.4151350632309914e-03" rms="4.0953600406646729e-01" purity="7.8272300958633423e-01" nType="-99"/>
                    <Node pos="r" depth="7" NCoef="0" IVar="-1" Cut="0.0000000000000000e+00" cType="1" res="6.0104201547801495e-03" rms="4.1171231865882874e-01" purity="7.7882319688796997e-01" nType="-99"/>
                  </Node>
                  <Node pos="r" depth="6" NCoef="0" IVar="-1" Cut="0.0000000000000000e+00" cType="1" res="3.7808576598763466e-03" rms="4.3033879995346069e-01" purity="7.4783873558044434e-01" nType="-99"/>
                </Node>
                <Node pos="r" depth="5" NCoef="0" IVar="1" Cut="3.5651078820228577e-01" cType="1" res="3.2743040472269058e-02" rms="4.6124097704887390e-01" purity="6.7689061164855957e-01" nType="0">
                  <Node pos="l" depth="6" NCoef="0" IVar="3" Cut="8.3918195962905884e-01" cType="1" res="3.6904923617839813e-02" rms="4.5830291509628296e-01" purity="6.8566560745239258e-01" nType="0">
                    <Node pos="l" depth="7" NCoef="0" IVar="-1" Cut="0.0000000000000000e+00" cType="1" res="2.4309516884386539e-03" rms="4.7435733675956726e-01" purity="6.4569550752639771e-01" nType="-99"/>
                    <Node pos="r" depth="7" NCoef="0" IVar="-1" Cut="0.0000000000000000e+00" cType="1" res="4.0922742336988449e-03" rms="4.4665151834487915e-01" purity="7.1358388662338257e-01" nType="-99"/>
                  </Node>
                  <Node pos="r" depth="6" NCoef="0" IVar="-1" Cut="0.0000000000000000e+00" cType="1" res="1.1687959777191281e-03" rms="4.7433921694755554e-01" purity="6.3557642698287964e-01" nType="-99"/>
                </Node>
              </Node>
              <Node pos="r" depth="4" NCoef="0" IVar="3" Cut="9.6445119380950928e-01" cType="1" res="5.6069926358759403e-03" rms="4.6878349781036377e-01" purity="6.4021700620651245e-01" nType="0">
                <Node pos="l" depth="5" NCoef="0" IVar="-1" Cut="0.0000000000000000e+00" cType="1" res="-1.1991220526397228e-03" rms="4.8985204100608826e-01" purity="5.6571555137634277e-01" nType="-99"/>
                <Node pos="r" depth="5" NCoef="0" IVar="-1" Cut="0.0000000000000000e+00" cType="1" res="1.6889260150492191e-03" rms="4.5266744494438171e-01" purity="6.9328141212463379e-01" nType="-99"/>
              </Node>
            </Node>
          </Node>
          <Node pos="r" depth="2" NCoef="0" IVar="5" Cut="2.0000000000000000e+00" cType="1" res="-1.6274577006697655e-02" rms="4.8078814148902893e-01" purity="5.7932275533676147e-01" nType="0">
            <Node pos="l" depth="3" NCoef="0" IVar="-1" Cut="0.0000000000000000e+00" cType="1" res="1.1051946785300970e-03" rms="4.7142636775970459e-01" purity="6.4508318901062012e-01" nType="-99"/>
            <Node pos="r" depth="3" NCoef="0" IVar="-1" Cut="0.0000000000000000e+00" cType="1" res="-5.4151499643921852e-03" rms="4.9196976423263550e-01" purity="4.8375916481018066e-01" nType="-99"/>
          </Node>
        </Node>
      </Node>
    </BinaryTree>
    <BinaryTree type="DecisionTree" boostWeight="1.0000000000000000e+00" itree="43">
      <Node pos="s" depth="0" NCoef="0" IVar="3" Cut="7.7137583494186401e-01" cType="1" res="1.1006128974258900e-02" rms="4.1330161690711975e-01" purity="4.9877777695655823e-01" nType="0">
        <Node pos="l" depth="1" NCoef="0" IVar="3" Cut="6.2217015027999878e-01" cType="1" res="-2.2545196115970612e-02" rms="3.9276149868965149e-01" purity="2.6199835538864136e-01" nType="0">
          <Node pos="l" depth="2" NCoef="0" IVar="1" Cut="1.4958879351615906e-01" cType="1" res="-3.2554920762777328e-02" rms="3.4802189469337463e-01" purity="1.6564558446407318e-01" nType="0">
            <Node pos="l" depth="3" NCoef="0" IVar="3" Cut="4.8176047205924988e-01" cType="1" res="-1.9309278577566147e-02" rms="3.9029997587203979e-01" purity="2.2176593542098999e-01" nType="0">
              <Node pos="l" depth="4" NCoef="0" IVar="4" Cut="2.3502531647682190e-01" cType="1" res="-2.9311196878552437e-02" rms="3.3368957042694092e-01" purity="1.3867418467998505e-01" nType="0">
                <Node pos="l" depth="5" NCoef="0" IVar="2" Cut="1.3426187133789062e+02" cType="1" res="-3.3843297511339188e-02" rms="3.1731113791465759e-01" purity="1.2215546518564224e-01" nType="0">
                  <Node pos="l" depth="6" NCoef="0" IVar="-1" Cut="0.0000000000000000e+00" cType="1" res="-6.3493644120171666e-04" rms="3.4520950913429260e-01" purity="1.5107722580432892e-01" nType="-99"/>
                  <Node pos="r" depth="6" NCoef="0" IVar="4" Cut="1.9406889379024506e-01" cType="1" res="-4.2112916707992554e-02" rms="3.0885502696037292e-01" purity="1.1437498033046722e-01" nType="0">
                    <Node pos="l" depth="7" NCoef="0" IVar="-1" Cut="0.0000000000000000e+00" cType="1" res="-1.0265986435115337e-02" rms="2.9464122653007507e-01" purity="1.0195530951023102e-01" nType="-99"/>
                    <Node pos="r" depth="7" NCoef="0" IVar="-1" Cut="0.0000000000000000e+00" cType="1" res="-3.6694309674203396e-03" rms="3.6946392059326172e-01" purity="1.7465749382972717e-01" nType="-99"/>
                  </Node>
                </Node>
                <Node pos="r" depth="5" NCoef="0" IVar="-1" Cut="0.0000000000000000e+00" cType="1" res="-4.7035104944370687e-04" rms="4.1444262862205505e-01" purity="2.3350203037261963e-01" nType="-99"/>
              </Node>
              <Node pos="r" depth="4" NCoef="0" IVar="2" Cut="3.2057843017578125e+02" cType="1" res="-2.9392875730991364e-03" rms="4.6795564889907837e-01" purity="3.5776093602180481e-01" nType="0">
                <Node pos="l" depth="5" NCoef="0" IVar="4" Cut="9.4614461064338684e-02" cType="1" res="6.1609330587089062e-03" rms="4.7161066532135010e-01" purity="3.7218487262725830e-01" nType="0">
                  <Node pos="l" depth="6" NCoef="0" IVar="2" Cut="8.3000137329101562e+01" cType="1" res="-6.3794823363423347e-03" rms="4.6246173977851868e-01" purity="3.4379276633262634e-01" nType="0">
                    <Node pos="l" depth="7" NCoef="0" IVar="-1" Cut="0.0000000000000000e+00" cType="1" res="1.1627074563875794e-03" rms="4.7983944416046143e-01" purity="3.9238116145133972e-01" nType="-99"/>
                    <Node pos="r" depth="7" NCoef="0" IVar="-1" Cut="0.0000000000000000e+00" cType="1" res="-1.9103903323411942e-03" rms="4.5131906867027283e-01" purity="3.1456011533737183e-01" nType="-99"/>
                  </Node>
                  <Node pos="r" depth="6" NCoef="0" IVar="-1" Cut="0.0000000000000000e+00" cType="1" res="2.6565713342279196e-03" rms="4.8700958490371704e-01" purity="4.2391502857208252e-01" nType="-99"/>
                </Node>
                <Node pos="r" depth="5" NCoef="0" IVar="-1" Cut="0.0000000000000000e+00" cType="1" res="-3.2179965637624264e-03" rms="4.5576244592666626e-01" purity="3.1460821628570557e-01" nType="-99"/>
              </Node>
            </Node>
            <Node pos="r" depth="3" NCoef="0" IVar="4" Cut="1.0140772163867950e-01" cType="1" res="-4.2733341455459595e-02" rms="3.1127837300300598e-01" purity="1.2252073734998703e-01" nType="0">
              <Node pos="l" depth="4" NCoef="0" IVar="2" Cut="5.8187587738037109e+01" cType="1" res="-4.7808527946472168e-02" rms="2.8969305753707886e-01" purity="1.0405731946229935e-01" nType="0">
                <Node pos="l" depth="5" NCoef="0" IVar="-1" Cut="0.0000000000000000e+00" cType="1" res="-6.4263790845870972e-03" rms="3.2772645354270935e-01" purity="1.3602207601070404e-01" nType="-99"/>
                <Node pos="r" depth="5" NCoef="0" IVar="4" Cut="6.3408106565475464e-02" cType="1" res="-5.1219508051872253e-02" rms="2.8081437945365906e-01" purity="9.7252517938613892e-02" nType="0">
                  <Node pos="l" depth="6" NCoef="0" IVar="3" Cut="3.4185504913330078e-01" cType="1" res="-6.2193837016820908e-02" rms="2.6029226183891296e-01" purity="7.9247333109378815e-02" nType="0">
                    <Node pos="l" depth="7" NCoef="0" IVar="-1" Cut="0.0000000000000000e+00" cType="1" res="-1.6571847721934319e-02" rms="1.8853546679019928e-01" purity="3.7785090506076813e-02" nType="-99"/>
                    <Node pos="r" depth="7" NCoef="0" IVar="-1" Cut="0.0000000000000000e+00" cType="1" res="-1.3688408769667149e-02" rms="2.9743421077728271e-01" purity="1.0636901855468750e-01" nType="-99"/>
                  </Node>
                  <Node pos="r" depth="6" NCoef="0" IVar="2" Cut="3.1982955932617188e+02" cType="1" res="-4.3084632605314255e-02" rms="2.9484361410140991e-01" purity="1.1059911549091339e-01" nType="0">
                    <Node pos="l" depth="7" NCoef="0" IVar="-1" Cut="0.0000000000000000e+00" cType="1" res="-7.7942362986505032e-03" rms="3.0441054701805115e-01" purity="1.1982341855764389e-01" nType="-99"/>
                    <Node pos="r" depth="7" NCoef="0" IVar="-1" Cut="0.0000000000000000e+00" cType="1" res="-1.3984020799398422e-02" rms="2.6018017530441284e-01" purity="8.0613344907760620e-02" nType="-99"/>
                  </Node>
                </Node>
              </Node>
              <Node pos="r" depth="4" NCoef="0" IVar="3" Cut="4.0266367793083191e-01" cType="1" res="-3.7102021276950836e-02" rms="3.3350795507431030e-01" purity="1.4300735294818878e-01" nType="0">
                <Node pos="l" depth="5" NCoef="0" IVar="2" Cut="7.4315002441406250e+02" cType="1" res="-4.3686639517545700e-02" rms="2.7819663286209106e-01" purity="8.9246936142444611e-02" nType="0">
                  <Node pos="l" depth="6" NCoef="0" IVar="2" Cut="4.3249130249023438e+02" cType="1" res="-4.8400476574897766e-02" rms="2.5896176695823669e-01" purity="7.5267516076564789e-02" nType="0">
                    <Node pos="l" depth="7" NCoef="0" IVar="-1" Cut="0.0000000000000000e+00" cType="1" res="-1.2056827545166016e-02" rms="2.6308915019035339e-01" purity="7.8115969896316528e-02" nType="-99"/>
                    <Node pos="r" depth="7" NCoef="0" IVar="-1" Cut="0.0000000000000000e+00" cType="1" res="-1.5370065346360207e-02" rms="2.5081324577331543e-01" purity="7.0015311241149902e-02" nType="-99"/>
                  </Node>
                  <Node pos="r" depth="6" NCoef="0" IVar="-1" Cut="0.0000000000000000e+00" cType="1" res="-4.0145316161215305e-03" rms="3.5291537642478943e-01" purity="1.5382932126522064e-01" nType="-99"/>
                </Node>
                <Node pos="r" depth="5" NCoef="0" IVar="5" Cut="4.0000000000000000e+00" cType="1" res="-2.3606242612004280e-02" rms="4.2214655876159668e-01" purity="2.4994397163391113e-01" nType="0">
                  <Node pos="l" depth="6" NCoef="0" IVar="-1" Cut="0.0000000000000000e+00" cType="1" res="-4.8123048618435860e-03" rms="4.1903832554817200e-01" purity="2.4606294929981232e-01" nType="-99"/>
                  <Node pos="r" depth="6" NCoef="0" IVar="-1" Cut="0.0000000000000000e+00" cType="1" res="-1.6280773561447859e-03" rms="4.2429280281066895e-01" purity="2.5291812419891357e-01" nType="-99"/>
                </Node>
              </Node>
            </Node>
          </Node>
          <Node pos="r" depth="2" NCoef="0" IVar="1" Cut="1.6746361553668976e-01" cType="1" res="2.8539076447486877e-03" rms="4.8729774355888367e-01" purity="5.0648790597915649e-01" nType="0">
            <Node pos="l" depth="3" NCoef="0" IVar="2" Cut="3.0461965942382812e+02" cType="1" res="1.9133571535348892e-02" rms="4.8853099346160889e-01" purity="5.4948103427886963e-01" nType="0">
              <Node pos="l" depth="4" NCoef="0" IVar="4" Cut="5.2658058702945709e-02" cType="1" res="2.5115640833973885e-02" rms="4.8778420686721802e-01" purity="5.5854630470275879e-01" nType="0">
                <Node pos="l" depth="5" NCoef="0" IVar="2" Cut="5.8435550689697266e+01" cType="1" res="3.0665518715977669e-03" rms="4.8880755901336670e-01" purity="5.3275400400161743e-01" nType="0">
                  <Node pos="l" depth="6" NCoef="0" IVar="-1" Cut="0.0000000000000000e+00" cType="1" res="3.4794684033840895e-03" rms="4.8411449790000916e-01" purity="5.8797210454940796e-01" nType="-99"/>
                  <Node pos="r" depth="6" NCoef="0" IVar="-1" Cut="0.0000000000000000e+00" cType="1" res="-2.8378646820783615e-03" rms="4.9037301540374756e-01" purity="4.8439505696296692e-01" nType="-99"/>
                </Node>
                <Node pos="r" depth="5" NCoef="0" IVar="5" Cut="3.0000000000000000e+00" cType="1" res="4.1654583066701889e-02" rms="4.8368525505065918e-01" purity="5.7766097784042358e-01" nType="0">
                  <Node pos="l" depth="6" NCoef="0" IVar="-1" Cut="0.0000000000000000e+00" cType="1" res="1.6264212317764759e-03" rms="4.9174803495407104e-01" purity="5.4090940952301025e-01" nType="-99"/>
                  <Node pos="r" depth="6" NCoef="0" IVar="0" Cut="1.2740817666053772e-01" cType="1" res="5.4094493389129639e-02" rms="4.8275732994079590e-01" purity="5.9921014308929443e-01" nType="0">
                    <Node pos="l" depth="7" NCoef="0" IVar="-1" Cut="0.0000000000000000e+00" cType="1" res="5.3302948363125324e-03" rms="4.7359421849250793e-01" purity="6.5098214149475098e-01" nType="-99"/>
                    <Node pos="r" depth="7" NCoef="0" IVar="-1" Cut="0.0000000000000000e+00" cType="1" res="3.2499071676284075e-03" rms="4.9583485722541809e-01" purity="5.2051246166229248e-01" nType="-99"/>
                  </Node>
                </Node>
              </Node>
              <Node pos="r" depth="4" NCoef="0" IVar="-1" Cut="0.0000000000000000e+00" cType="1" res="-1.6952711157500744e-03" rms="4.9153232574462891e-01" purity="4.9259203672409058e-01" nType="-99"/>
            </Node>
            <Node pos="r" depth="3" NCoef="0" IVar="0" Cut="3.9748445153236389e-01" cType="1" res="-2.3739023134112358e-02" rms="4.8410034179687500e-01" purity="4.3625837564468384e-01" nType="0">
              <Node pos="l" depth="4" NCoef="0" IVar="0" Cut="1.7948348820209503e-01" cType="1" res="-1.1336982250213623e-02" rms="4.9307200312614441e-01" purity="4.8083218932151794e-01" nType="0">
                <Node pos="l" depth="5" NCoef="0" IVar="3" Cut="6.9917958974838257e-01" cType="1" res="3.3060028217732906e-03" rms="4.9500375986099243e-01" purity="5.2087318897247314e-01" nType="0">
                  <Node pos="l" depth="6" NCoef="0" IVar="-1" Cut="0.0000000000000000e+00" cType="1" res="-1.1074999347329140e-03" rms="4.9717441201210022e-01" purity="4.6861541271209717e-01" nType="-99"/>
                  <Node pos="r" depth="6" NCoef="0" IVar="-1" Cut="0.0000000000000000e+00" cType="1" res="1.2432232033461332e-03" rms="4.9308952689170837e-01" purity="5.5868422985076904e-01" nType="-99"/>
                </Node>
                <Node pos="r" depth="5" NCoef="0" IVar="-1" Cut="0.0000000000000000e+00" cType="1" res="-3.0415339861065149e-03" rms="4.8939901590347290e-01" purity="4.2162019014358521e-01" nType="-99"/>
              </Node>
              <Node pos="r" depth="4" NCoef="0" IVar="-1" Cut="0.0000000000000000e+00" cType="1" res="-6.1938795261085033e-03" rms="4.5448619127273560e-01" purity="3.0412641167640686e-01" nType="-99"/>
            </Node>
          </Node>
        </Node>
        <Node pos="r" depth="1" NCoef="0" IVar="5" Cut="2.0000000000000000e+00" cType="1" res="4.4952772557735443e-02" rms="4.3029370903968811e-01" purity="7.3747038841247559e-01" nType="0">
          <Node pos="l" depth="2" NCoef="0" IVar="1" Cut="1.0190397500991821e-01" cType="1" res="5.5943436920642853e-02" rms="4.1033831238746643e-01" purity="7.7787035703659058e-01" nType="0">
            <Node pos="l" depth="3" NCoef="0" IVar="3" Cut="9.7339642047882080e-01" cType="1" res="6.3260048627853394e-02" rms="3.9690053462982178e-01" purity="8.0062037706375122e-01" nType="0">
              <Node pos="l" depth="4" NCoef="0" IVar="-1" Cut="0.0000000000000000e+00" cType="1" res="3.9731636643409729e-03" rms="4.2721951007843018e-01" purity="7.5610238313674927e-01" nType="-99"/>
              <Node pos="r" depth="4" NCoef="0" IVar="3" Cut="1.0337297916412354e+00" cType="1" res="6.5939009189605713e-02" rms="3.9279162883758545e-01" purity="8.0628824234008789e-01" nType="0">
                <Node pos="l" depth="5" NCoef="0" IVar="3" Cut="9.9869459867477417e-01" cType="1" res="6.6234096884727478e-02" rms="3.9136090874671936e-01" purity="8.0866670608520508e-01" nType="0">
                  <Node pos="l" depth="6" NCoef="0" IVar="3" Cut="9.9706214666366577e-01" cType="1" res="6.0482531785964966e-02" rms="3.9812439680099487e-01" purity="7.9946607351303101e-01" nType="0">
                    <Node pos="l" depth="7" NCoef="0" IVar="-1" Cut="0.0000000000000000e+00" cType="1" res="6.4576291479170322e-03" rms="3.9559033513069153e-01" purity="8.0313652753829956e-01" nType="-99"/>
                    <Node pos="r" depth="7" NCoef="0" IVar="-1" Cut="0.0000000000000000e+00" cType="1" res="4.5143119059503078e-03" rms="4.0784481167793274e-01" purity="7.8457057476043701e-01" nType="-99"/>
                  </Node>
                  <Node pos="r" depth="6" NCoef="0" IVar="3" Cut="1.0179026126861572e+00" cType="1" res="7.1142055094242096e-02" rms="3.8542777299880981e-01" purity="8.1651777029037476e-01" nType="0">
                    <Node pos="l" depth="7" NCoef="0" IVar="-1" Cut="0.0000000000000000e+00" cType="1" res="7.3617794550955296e-03" rms="3.8196778297424316e-01" purity="8.2077986001968384e-01" nType="-99"/>
                    <Node pos="r" depth="7" NCoef="0" IVar="-1" Cut="0.0000000000000000e+00" cType="1" res="4.9295951612293720e-03" rms="4.0261745452880859e-01" purity="7.9394906759262085e-01" nType="-99"/>
                  </Node>
                </Node>
                <Node pos="r" depth="5" NCoef="0" IVar="-1" Cut="0.0000000000000000e+00" cType="1" res="5.8122333139181137e-03" rms="4.0780669450759888e-01" purity="7.8078114986419678e-01" nType="-99"/>
              </Node>
            </Node>
            <Node pos="r" depth="3" NCoef="0" IVar="3" Cut="9.8788470029830933e-01" cType="1" res="4.4964253902435303e-02" rms="4.2948135733604431e-01" purity="7.4373197555541992e-01" nType="0">
              <Node pos="l" depth="4" NCoef="0" IVar="-1" Cut="0.0000000000000000e+00" cType="1" res="1.5147241065278649e-03" rms="4.5078071951866150e-01" purity="6.9862538576126099e-01" nType="-99"/>
              <Node pos="r" depth="4" NCoef="0" IVar="-1" Cut="0.0000000000000000e+00" cType="1" res="4.5925043523311615e-03" rms="4.2513930797576904e-01" purity="7.5222301483154297e-01" nType="-99"/>
            </Node>
          </Node>
          <Node pos="r" depth="2" NCoef="0" IVar="3" Cut="9.1213780641555786e-01" cType="1" res="2.7092497795820236e-02" rms="4.6001043915748596e-01" purity="6.7300420999526978e-01" nType="0">
            <Node pos="l" depth="3" NCoef="0" IVar="3" Cut="8.6218875646591187e-01" cType="1" res="3.0644588172435760e-02" rms="4.6092584729194641e-01" purity="6.7527312040328979e-01" nType="0">
              <Node pos="l" depth="4" NCoef="0" IVar="1" Cut="5.2134853601455688e-01" cType="1" res="2.2473562508821487e-02" rms="4.7152364253997803e-01" purity="6.4647704362869263e-01" nType="0">
                <Node pos="l" depth="5" NCoef="0" IVar="5" Cut="3.0000000000000000e+00" cType="1" res="2.9587345197796822e-02" rms="4.6609523892402649e-01" purity="6.6606861352920532e-01" nType="0">
                  <Node pos="l" depth="6" NCoef="0" IVar="4" Cut="4.0215697139501572e-02" cType="1" res="2.4974752217531204e-02" rms="4.6917819976806641e-01" purity="6.6122955083847046e-01" nType="0">
                    <Node pos="l" depth="7" NCoef="0" IVar="-1" Cut="0.0000000000000000e+00" cType="1" res="9.1735069872811437e-04" rms="4.7278133034706116e-01" purity="6.4880460500717163e-01" nType="-99"/>
                    <Node pos="r" depth="7" NCoef="0" IVar="-1" Cut="0.0000000000000000e+00" cType="1" res="2.9101783875375986e-03" rms="4.6637412905693054e-01" purity="6.6993486881256104e-01" nType="-99"/>
                  </Node>
                  <Node pos="r" depth="6" NCoef="0" IVar="-1" Cut="0.0000000000000000e+00" cType="1" res="4.3822117149829865e-03" rms="4.5987787842750549e-01" purity="6.8787658214569092e-01" nType="-99"/>
                </Node>
                <Node pos="r" depth="5" NCoef="0" IVar="-1" Cut="0.0000000000000000e+00" cType="1" res="-1.0666132438927889e-03" rms="4.9263671040534973e-01" purity="5.3139519691467285e-01" nType="-99"/>
              </Node>
              <Node pos="r" depth="4" NCoef="0" IVar="3" Cut="8.9924961328506470e-01" cType="1" res="4.4958721846342087e-02" rms="4.4138354063034058e-01" purity="7.2571861743927002e-01" nType="0">
                <Node pos="l" depth="5" NCoef="0" IVar="3" Cut="8.8729667663574219e-01" cType="1" res="4.1368722915649414e-02" rms="4.4493368268013000e-01" purity="7.1906417608261108e-01" nType="0">
                  <Node pos="l" depth="6" NCoef="0" IVar="4" Cut="2.9491366818547249e-02" cType="1" res="4.5979194343090057e-02" rms="4.4532087445259094e-01" purity="7.1917426586151123e-01" nType="0">
                    <Node pos="l" depth="7" NCoef="0" IVar="-1" Cut="0.0000000000000000e+00" cType="1" res="3.7183153908699751e-03" rms="4.4591683149337769e-01" purity="7.1644431352615356e-01" nType="-99"/>
                    <Node pos="r" depth="7" NCoef="0" IVar="-1" Cut="0.0000000000000000e+00" cType="1" res="4.7430205158889294e-03" rms="4.4487619400024414e-01" purity="7.2090810537338257e-01" nType="-99"/>
                  </Node>
                  <Node pos="r" depth="6" NCoef="0" IVar="-1" Cut="0.0000000000000000e+00" cType="1" res="3.1125978566706181e-03" rms="4.4378527998924255e-01" purity="7.1879541873931885e-01" nType="-99"/>
                </Node>
                <Node pos="r" depth="5" NCoef="0" IVar="-1" Cut="0.0000000000000000e+00" cType="1" res="6.4462912268936634e-03" rms="4.2537775635719299e-01" purity="7.5443303585052490e-01" nType="-99"/>
              </Node>
            </Node>
            <Node pos="r" depth="3" NCoef="0" IVar="-1" Cut="0.0000000000000000e+00" cType="1" res="-2.0802281796932220e-03" rms="4.4511038064956665e-01" purity="6.4306700229644775e-01" nType="-99"/>
          </Node>
        </Node>
      </Node>
    </BinaryTree>
    <BinaryTree type="DecisionTree" boostWeight="1.0000000000000000e+00" itree="44">
      <Node pos="s" depth="0" NCoef="0" IVar="3" Cut="6.7521965503692627e-01" cType="1" res="1.3250353746116161e-02" rms="4.1362464427947998e-01" purity="5.0325524806976318e-01" nType="0">
        <Node pos="l" depth="1" NCoef="0" IVar="3" Cut="5.0116175413131714e-01" cType="1" res="-2.5334447622299194e-02" rms="3.6820414662361145e-01" purity="1.9940029084682465e-01" nType="0">
          <Node pos="l" depth="2" NCoef="0" IVar="4" Cut="1.1743576824665070e-01" cType="1" res="-3.3750217407941818e-02" rms="3.0303165316581726e-01" purity="1.1161261796951294e-01" nType="0">
            <Node pos="l" depth="3" NCoef="0" IVar="2" Cut="6.8547851562500000e+01" cType="1" res="-4.3725952506065369e-02" rms="2.5370118021965027e-01" purity="7.3414355516433716e-02" nType="0">
              <Node pos="l" depth="4" NCoef="0" IVar="4" Cut="3.3786006271839142e-02" cType="1" res="-2.5337388738989830e-02" rms="2.9477158188819885e-01" purity="1.0245470702648163e-01" nType="0">
                <Node pos="l" depth="5" NCoef="0" IVar="-1" Cut="0.0000000000000000e+00" cType="1" res="-1.3707965612411499e-02" rms="2.5301718711853027e-01" purity="7.1332134306430817e-02" nType="-99"/>
                <Node pos="r" depth="5" NCoef="0" IVar="-1" Cut="0.0000000000000000e+00" cType="1" res="-6.4855400705710053e-04" rms="3.2621714472770691e-01" purity="1.3050009310245514e-01" nType="-99"/>
              </Node>
              <Node pos="r" depth="4" NCoef="0" IVar="4" Cut="9.0301617980003357e-02" cType="1" res="-4.7651484608650208e-02" rms="2.4386043846607208e-01" purity="6.7214913666248322e-02" nType="0">
                <Node pos="l" depth="5" NCoef="0" IVar="2" Cut="2.6261035156250000e+02" cType="1" res="-5.1876641809940338e-02" rms="2.2642397880554199e-01" purity="5.6755274534225464e-02" nType="0">
                  <Node pos="l" depth="6" NCoef="0" IVar="4" Cut="6.2621213495731354e-02" cType="1" res="-4.9540907144546509e-02" rms="2.3267921805381775e-01" purity="6.0282442718744278e-02" nType="0">
                    <Node pos="l" depth="7" NCoef="0" IVar="-1" Cut="0.0000000000000000e+00" cType="1" res="-1.6378775238990784e-02" rms="2.1432292461395264e-01" purity="4.9781348556280136e-02" nType="-99"/>
                    <Node pos="r" depth="7" NCoef="0" IVar="-1" Cut="0.0000000000000000e+00" cType="1" res="-1.2037866748869419e-02" rms="2.5368428230285645e-01" purity="7.3460243642330170e-02" nType="-99"/>
                  </Node>
                  <Node pos="r" depth="6" NCoef="0" IVar="-1" Cut="0.0000000000000000e+00" cType="1" res="-1.7306031659245491e-02" rms="1.9965671002864838e-01" purity="4.2877644300460815e-02" nType="-99"/>
                </Node>
                <Node pos="r" depth="5" NCoef="0" IVar="2" Cut="2.1185414123535156e+02" cType="1" res="-3.9795540273189545e-02" rms="2.7316597104072571e-01" purity="8.6662784218788147e-02" nType="0">
                  <Node pos="l" depth="6" NCoef="0" IVar="-1" Cut="0.0000000000000000e+00" cType="1" res="-6.0818670317530632e-03" rms="3.0572721362113953e-01" purity="1.1307431012392044e-01" nType="-99"/>
                  <Node pos="r" depth="6" NCoef="0" IVar="4" Cut="1.0430698096752167e-01" cType="1" res="-4.9702204763889313e-02" rms="2.4815848469734192e-01" purity="6.8735666573047638e-02" nType="0">
                    <Node pos="l" depth="7" NCoef="0" IVar="-1" Cut="0.0000000000000000e+00" cType="1" res="-1.5525045804679394e-02" rms="2.2792193293571472e-01" purity="5.7313565164804459e-02" nType="-99"/>
                    <Node pos="r" depth="7" NCoef="0" IVar="-1" Cut="0.0000000000000000e+00" cType="1" res="-1.1222647503018379e-02" rms="2.6780614256858826e-01" purity="8.0844722688198090e-02" nType="-99"/>
                  </Node>
                </Node>
              </Node>
            </Node>
            <Node pos="r" depth="3" NCoef="0" IVar="4" Cut="2.3074807226657867e-01" cType="1" res="-2.3051578551530838e-02" rms="3.4793832898139954e-01" purity="1.5257894992828369e-01" nType="0">
              <Node pos="l" depth="4" NCoef="0" IVar="2" Cut="3.9477160644531250e+02" cType="1" res="-2.9122054576873779e-02" rms="3.3011499047279358e-01" purity="1.3452030718326569e-01" nType="0">
                <Node pos="l" depth="5" NCoef="0" IVar="4" Cut="1.4302359521389008e-01" cType="1" res="-1.8989013507962227e-02" rms="3.4421572089195251e-01" purity="1.4898106455802917e-01" nType="0">
                  <Node pos="l" depth="6" NCoef="0" IVar="-1" Cut="0.0000000000000000e+00" cType="1" res="-8.1718675792217255e-03" rms="3.1056419014930725e-01" purity="1.1642423272132874e-01" nType="-99"/>
                  <Node pos="r" depth="6" NCoef="0" IVar="3" Cut="3.4161138534545898e-01" cType="1" res="-6.5006040968000889e-03" rms="3.6523178219795227e-01" purity="1.7157350480556488e-01" nType="0">
                    <Node pos="l" depth="7" NCoef="0" IVar="-1" Cut="0.0000000000000000e+00" cType="1" res="-5.9975855983793736e-03" rms="3.0341389775276184e-01" purity="1.0608281195163727e-01" nType="-99"/>
                    <Node pos="r" depth="7" NCoef="0" IVar="-1" Cut="0.0000000000000000e+00" cType="1" res="1.8877520924434066e-03" rms="4.2839863896369934e-01" purity="2.5217118859291077e-01" nType="-99"/>
                  </Node>
                </Node>
                <Node pos="r" depth="5" NCoef="0" IVar="5" Cut="6.0000000000000000e+00" cType="1" res="1.0067134350538254e-01" rms="1.5188431739807129e-01" purity="1.1985020339488983e-01" nType="0">
                  <Node pos="l" depth="6" NCoef="0" IVar="4" Cut="1.6129347681999207e-01" cType="1" res="-2.9971553012728691e-02" rms="3.5140100121498108e-01" purity="1.5382140874862671e-01" nType="0">
                    <Node pos="l" depth="7" NCoef="0" IVar="-1" Cut="0.0000000000000000e+00" cType="1" res="-7.7754436060786247e-03" rms="3.2133841514587402e-01" purity="1.2149729579687119e-01" nType="-99"/>
                    <Node pos="r" depth="7" NCoef="0" IVar="-1" Cut="0.0000000000000000e+00" cType="1" res="-3.8207231555134058e-03" rms="3.7465110421180725e-01" purity="1.8095853924751282e-01" nType="-99"/>
                  </Node>
                  <Node pos="r" depth="6" NCoef="0" IVar="-1" Cut="0.0000000000000000e+00" cType="1" res="-1.3068916276097298e-02" rms="2.5606238842010498e-01" purity="7.3466472327709198e-02" nType="-99"/>
                </Node>
              </Node>
              <Node pos="r" depth="4" NCoef="0" IVar="5" Cut="6.0000000000000000e+00" cType="1" res="1.6184166073799133e-01" rms="0.0000000000000000e+00" purity="2.1466520428657532e-01" nType="0">
                <Node pos="l" depth="5" NCoef="0" IVar="-1" Cut="0.0000000000000000e+00" cType="1" res="3.4703388810157776e-03" rms="4.4393199682235718e-01" purity="2.8546127676963806e-01" nType="-99"/>
                <Node pos="r" depth="5" NCoef="0" IVar="-1" Cut="0.0000000000000000e+00" cType="1" res="-3.6802589893341064e-03" rms="3.7271782755851746e-01" purity="1.6969752311706543e-01" nType="-99"/>
              </Node>
            </Node>
          </Node>
          <Node pos="r" depth="2" NCoef="0" IVar="4" Cut="7.9226553440093994e-02" cType="1" res="-9.9404342472553253e-03" rms="4.6392625570297241e-01" purity="3.5998028516769409e-01" nType="0">
            <Node pos="l" depth="3" NCoef="0" IVar="2" Cut="9.3974723815917969e+01" cType="1" res="-2.4250827729701996e-02" rms="4.5269131660461426e-01" purity="3.3035859465599060e-01" nType="0">
              <Node pos="l" depth="4" NCoef="0" IVar="4" Cut="4.0994539856910706e-02" cType="1" res="5.0896801985800266e-04" rms="4.7116753458976746e-01" purity="3.8023522496223450e-01" nType="0">
                <Node pos="l" depth="5" NCoef="0" IVar="-1" Cut="0.0000000000000000e+00" cType="1" res="-2.3892235476523638e-03" rms="4.6101751923561096e-01" purity="3.4195312857627869e-01" nType="-99"/>
                <Node pos="r" depth="5" NCoef="0" IVar="-1" Cut="0.0000000000000000e+00" cType="1" res="2.4594254791736603e-03" rms="4.8068472743034363e-01" purity="4.2210420966148376e-01" nType="-99"/>
              </Node>
              <Node pos="r" depth="4" NCoef="0" IVar="4" Cut="4.8830829560756683e-02" cType="1" res="-4.6546738594770432e-02" rms="4.3417680263519287e-01" purity="2.8544524312019348e-01" nType="0">
                <Node pos="l" depth="5" NCoef="0" IVar="-1" Cut="0.0000000000000000e+00" cType="1" res="-9.9070454016327858e-03" rms="4.0563303232192993e-01" purity="2.3408260941505432e-01" nType="-99"/>
                <Node pos="r" depth="5" NCoef="0" IVar="2" Cut="2.1975033569335938e+02" cType="1" res="-3.1295116990804672e-02" rms="4.4443523883819580e-01" purity="3.0647334456443787e-01" nType="0">
                  <Node pos="l" depth="6" NCoef="0" IVar="-1" Cut="0.0000000000000000e+00" cType="1" res="-1.1819882784038782e-03" rms="4.5792064070701599e-01" purity="3.4128528833389282e-01" nType="-99"/>
                  <Node pos="r" depth="6" NCoef="0" IVar="-1" Cut="0.0000000000000000e+00" cType="1" res="-6.9747851230204105e-03" rms="4.2317381501197815e-01" purity="2.5759121775627136e-01" nType="-99"/>
                </Node>
              </Node>
            </Node>
            <Node pos="r" depth="3" NCoef="0" IVar="2" Cut="1.9582435607910156e+02" cType="1" res="3.1886515207588673e-03" rms="4.7361943125724792e-01" purity="3.8715681433677673e-01" nType="0">
              <Node pos="l" depth="4" NCoef="0" IVar="5" Cut="4.0000000000000000e+00" cType="1" res="3.1596340239048004e-02" rms="4.8332425951957703e-01" purity="4.5101162791252136e-01" nType="0">
                <Node pos="l" depth="5" NCoef="0" IVar="-1" Cut="0.0000000000000000e+00" cType="1" res="7.3196669109165668e-04" rms="4.8210325837135315e-01" purity="4.2757242918014526e-01" nType="-99"/>
                <Node pos="r" depth="5" NCoef="0" IVar="-1" Cut="0.0000000000000000e+00" cType="1" res="5.9196329675614834e-03" rms="4.8731493949890137e-01" purity="4.8790594935417175e-01" nType="-99"/>
              </Node>
              <Node pos="r" depth="4" NCoef="0" IVar="3" Cut="6.1342597007751465e-01" cType="1" res="-1.3036636635661125e-02" rms="4.6612918376922607e-01" purity="3.5005965828895569e-01" nType="0">
                <Node pos="l" depth="5" NCoef="0" IVar="3" Cut="5.6635046005249023e-01" cType="1" res="-2.3065311834216118e-02" rms="4.5374348759651184e-01" purity="3.0739951133728027e-01" nType="0">
                  <Node pos="l" depth="6" NCoef="0" IVar="-1" Cut="0.0000000000000000e+00" cType="1" res="-1.1820506770163774e-03" rms="4.4729241728782654e-01" purity="2.9525586962699890e-01" nType="-99"/>
                  <Node pos="r" depth="6" NCoef="0" IVar="-1" Cut="0.0000000000000000e+00" cType="1" res="-4.3971771374344826e-03" rms="4.6263441443443298e-01" purity="3.2568523287773132e-01" nType="-99"/>
                </Node>
                <Node pos="r" depth="5" NCoef="0" IVar="-1" Cut="0.0000000000000000e+00" cType="1" res="8.1437692278996110e-04" rms="4.9129927158355713e-01" purity="4.4289547204971313e-01" nType="-99"/>
              </Node>
            </Node>
          </Node>
        </Node>
        <Node pos="r" depth="1" NCoef="0" IVar="2" Cut="3.5076068115234375e+02" cType="1" res="3.9283957332372665e-02" rms="4.3973037600517273e-01" purity="7.0826959609985352e-01" nType="0">
          <Node pos="l" depth="2" NCoef="0" IVar="0" Cut="4.9305465817451477e-01" cType="1" res="4.1575293987989426e-02" rms="4.3832734227180481e-01" purity="7.1350950002670288e-01" nType="0">
            <Node pos="l" depth="3" NCoef="0" IVar="0" Cut="1.5904054045677185e-02" cType="1" res="4.4296324253082275e-02" rms="4.3621093034744263e-01" purity="7.2319215536117554e-01" nType="0">
              <Node pos="l" depth="4" NCoef="0" IVar="3" Cut="9.8244154453277588e-01" cType="1" res="5.0790995359420776e-02" rms="4.2739576101303101e-01" purity="7.4891179800033569e-01" nType="0">
                <Node pos="l" depth="5" NCoef="0" IVar="1" Cut="1.8975257873535156e-01" cType="1" res="3.9198186248540878e-02" rms="4.5304200053215027e-01" purity="6.9922703504562378e-01" nType="0">
                  <Node pos="l" depth="6" NCoef="0" IVar="1" Cut="1.1245235055685043e-01" cType="1" res="4.4910255819559097e-02" rms="4.4337031245231628e-01" purity="7.2416657209396362e-01" nType="0">
                    <Node pos="l" depth="7" NCoef="0" IVar="-1" Cut="0.0000000000000000e+00" cType="1" res="4.3586981482803822e-03" rms="4.4120317697525024e-01" purity="7.2891968488693237e-01" nType="-99"/>
                    <Node pos="r" depth="7" NCoef="0" IVar="-1" Cut="0.0000000000000000e+00" cType="1" res="2.0465760026127100e-03" rms="4.6049201488494873e-01" purity="6.8437951803207397e-01" nType="-99"/>
                  </Node>
                  <Node pos="r" depth="6" NCoef="0" IVar="4" Cut="3.0919786542654037e-02" cType="1" res="2.5865012779831886e-02" rms="4.7458434104919434e-01" purity="6.4101302623748779e-01" nType="0">
                    <Node pos="l" depth="7" NCoef="0" IVar="-1" Cut="0.0000000000000000e+00" cType="1" res="6.8447453668341041e-04" rms="4.7165745496749878e-01" purity="6.5155512094497681e-01" nType="-99"/>
                    <Node pos="r" depth="7" NCoef="0" IVar="-1" Cut="0.0000000000000000e+00" cType="1" res="3.1498887110501528e-03" rms="4.7614544630050659e-01" purity="6.3395738601684570e-01" nType="-99"/>
                  </Node>
                </Node>
                <Node pos="r" depth="5" NCoef="0" IVar="1" Cut="2.3862900212407112e-02" cType="1" res="6.1946213245391846e-02" rms="4.0085634589195251e-01" purity="7.9672110080718994e-01" nType="0">
                  <Node pos="l" depth="6" NCoef="0" IVar="1" Cut="-2.9924193024635315e-01" cType="1" res="6.8037025630474091e-02" rms="3.8555878400802612e-01" purity="8.1805711984634399e-01" nType="0">
                    <Node pos="l" depth="7" NCoef="0" IVar="-1" Cut="0.0000000000000000e+00" cType="1" res="3.7049937527626753e-03" rms="4.0817379951477051e-01" purity="7.8853535652160645e-01" nType="-99"/>
                    <Node pos="r" depth="7" NCoef="0" IVar="-1" Cut="0.0000000000000000e+00" cType="1" res="7.2100088000297546e-03" rms="3.8253843784332275e-01" purity="8.2170414924621582e-01" nType="-99"/>
                  </Node>
                  <Node pos="r" depth="6" NCoef="0" IVar="3" Cut="1.0237374305725098e+00" cType="1" res="5.5923581123352051e-02" rms="4.1534131765365601e-01" purity="7.7562391757965088e-01" nType="0">
                    <Node pos="l" depth="7" NCoef="0" IVar="-1" Cut="0.0000000000000000e+00" cType="1" res="5.2123642526566982e-03" rms="4.1515478491783142e-01" purity="7.7629709243774414e-01" nType="-99"/>
                    <Node pos="r" depth="7" NCoef="0" IVar="-1" Cut="0.0000000000000000e+00" cType="1" res="5.3154453635215759e-03" rms="4.1673907637596130e-01" purity="7.7050393819808960e-01" nType="-99"/>
                  </Node>
                </Node>
              </Node>
              <Node pos="r" depth="4" NCoef="0" IVar="1" Cut="5.4121392965316772e-01" cType="1" res="5.9031201526522636e-03" rms="4.8328027129173279e-01" purity="5.7115083932876587e-01" nType="0">
                <Node pos="l" depth="5" NCoef="0" IVar="5" Cut="3.0000000000000000e+00" cType="1" res="7.4509922415018082e-03" rms="2.3861336708068848e-01" purity="5.9908992052078247e-01" nType="0">
                  <Node pos="l" depth="6" NCoef="0" IVar="4" Cut="4.0171615779399872e-02" cType="1" res="3.0133493244647980e-02" rms="4.7704946994781494e-01" purity="6.2136894464492798e-01" nType="0">
                    <Node pos="l" depth="7" NCoef="0" IVar="-1" Cut="0.0000000000000000e+00" cType="1" res="1.6032562125474215e-03" rms="4.7177457809448242e-01" purity="6.4000111818313599e-01" nType="-99"/>
                    <Node pos="r" depth="7" NCoef="0" IVar="-1" Cut="0.0000000000000000e+00" cType="1" res="3.9992807433009148e-03" rms="4.8358330130577087e-01" purity="5.9609246253967285e-01" nType="-99"/>
                  </Node>
                  <Node pos="r" depth="6" NCoef="0" IVar="-1" Cut="0.0000000000000000e+00" cType="1" res="2.4907491751946509e-04" rms="4.9556830525398254e-01" purity="5.3168737888336182e-01" nType="-99"/>
                </Node>
                <Node pos="r" depth="5" NCoef="0" IVar="-1" Cut="0.0000000000000000e+00" cType="1" res="-9.4701368361711502e-03" rms="4.7792756557464600e-01" purity="3.9708423614501953e-01" nType="-99"/>
              </Node>
            </Node>
            <Node pos="r" depth="3" NCoef="0" IVar="2" Cut="4.5146903991699219e+01" cType="1" res="-2.9290912672877312e-02" rms="4.8489177227020264e-01" purity="4.6133410930633545e-01" nType="0">
              <Node pos="l" depth="4" NCoef="0" IVar="-1" Cut="0.0000000000000000e+00" cType="1" res="7.1467773523181677e-04" rms="4.9078264832496643e-01" purity="5.3036224842071533e-01" nType="-99"/>
              <Node pos="r" depth="4" NCoef="0" IVar="-1" Cut="0.0000000000000000e+00" cType="1" res="-6.6566793248057365e-03" rms="4.7509464621543884e-01" purity="3.8716244697570801e-01" nType="-99"/>
            </Node>
          </Node>
          <Node pos="r" depth="2" NCoef="0" IVar="-1" Cut="0.0000000000000000e+00" cType="1" res="-5.6836693547666073e-03" rms="4.8651543259620667e-01" purity="4.8096275329589844e-01" nType="-99"/>
        </Node>
      </Node>
    </BinaryTree>
    <BinaryTree type="DecisionTree" boostWeight="1.0000000000000000e+00" itree="45">
      <Node pos="s" depth="0" NCoef="0" IVar="3" Cut="6.6849672794342041e-01" cType="1" res="9.4744004309177399e-03" rms="4.1402831673622131e-01" purity="4.9870717525482178e-01" nType="0">
        <Node pos="l" depth="1" NCoef="0" IVar="4" Cut="1.0713616758584976e-01" cType="1" res="-2.6947610080242157e-02" rms="3.6435595154762268e-01" purity="1.9222205877304077e-01" nType="0">
          <Node pos="l" depth="2" NCoef="0" IVar="2" Cut="1.0038359832763672e+02" cType="1" res="-3.4513790160417557e-02" rms="3.5364508628845215e-01" purity="1.8460397422313690e-01" nType="0">
            <Node pos="l" depth="3" NCoef="0" IVar="4" Cut="5.2071224898099899e-02" cType="1" res="-2.0376307889819145e-02" rms="3.7837380170822144e-01" purity="2.2414129972457886e-01" nType="0">
              <Node pos="l" depth="4" NCoef="0" IVar="2" Cut="3.5872554779052734e+01" cType="1" res="-3.6471016705036163e-02" rms="3.6143261194229126e-01" purity="1.9221344590187073e-01" nType="0">
                <Node pos="l" depth="5" NCoef="0" IVar="-1" Cut="0.0000000000000000e+00" cType="1" res="-9.2213327297940850e-04" rms="3.8718414306640625e-01" purity="2.3625844717025757e-01" nType="-99"/>
                <Node pos="r" depth="5" NCoef="0" IVar="4" Cut="2.7304077520966530e-02" cType="1" res="-5.0416108220815659e-02" rms="3.4797677397727966e-01" purity="1.7180740833282471e-01" nType="0">
                  <Node pos="l" depth="6" NCoef="0" IVar="-1" Cut="0.0000000000000000e+00" cType="1" res="-1.5573242679238319e-02" rms="3.0989351868629456e-01" purity="1.2112696468830109e-01" nType="-99"/>
                  <Node pos="r" depth="6" NCoef="0" IVar="2" Cut="6.5005050659179688e+01" cType="1" res="-3.1871210783720016e-02" rms="3.6375913023948669e-01" purity="1.9664514064788818e-01" nType="0">
                    <Node pos="l" depth="7" NCoef="0" IVar="-1" Cut="0.0000000000000000e+00" cType="1" res="-2.9676260892301798e-03" rms="3.8541325926780701e-01" purity="2.2448027133941650e-01" nType="-99"/>
                    <Node pos="r" depth="7" NCoef="0" IVar="-1" Cut="0.0000000000000000e+00" cType="1" res="-7.6142721809446812e-03" rms="3.3728229999542236e-01" purity="1.6538110375404358e-01" nType="-99"/>
                  </Node>
                </Node>
              </Node>
              <Node pos="r" depth="4" NCoef="0" IVar="1" Cut="5.3868323564529419e-01" cType="1" res="2.7425594162195921e-03" rms="4.0032887458801270e-01" purity="2.7000331878662109e-01" nType="0">
                <Node pos="l" depth="5" NCoef="0" IVar="2" Cut="7.4858238220214844e+01" cType="1" res="2.7729040011763573e-02" rms="4.4226545095443726e-01" purity="3.4817108511924744e-01" nType="0">
                  <Node pos="l" depth="6" NCoef="0" IVar="-1" Cut="0.0000000000000000e+00" cType="1" res="5.4153450764715672e-03" rms="4.5378041267395020e-01" purity="3.8616275787353516e-01" nType="-99"/>
                  <Node pos="r" depth="6" NCoef="0" IVar="-1" Cut="0.0000000000000000e+00" cType="1" res="2.9619425185956061e-04" rms="4.2866453528404236e-01" purity="3.0921751260757446e-01" nType="-99"/>
                </Node>
                <Node pos="r" depth="5" NCoef="0" IVar="-1" Cut="0.0000000000000000e+00" cType="1" res="-1.1245866306126118e-02" rms="2.8677514195442200e-01" purity="1.0634887218475342e-01" nType="-99"/>
              </Node>
            </Node>
            <Node pos="r" depth="3" NCoef="0" IVar="4" Cut="5.2210375666618347e-02" cType="1" res="-4.2593225836753845e-02" rms="3.3843803405761719e-01" purity="1.6200876235961914e-01" nType="0">
              <Node pos="l" depth="4" NCoef="0" IVar="3" Cut="5.0144147872924805e-01" cType="1" res="-6.0940705239772797e-02" rms="3.1399843096733093e-01" purity="1.2878106534481049e-01" nType="0">
                <Node pos="l" depth="5" NCoef="0" IVar="-1" Cut="0.0000000000000000e+00" cType="1" res="-1.4997118152678013e-02" rms="2.1588693559169769e-01" purity="5.0204191356897354e-02" nType="-99"/>
                <Node pos="r" depth="5" NCoef="0" IVar="-1" Cut="0.0000000000000000e+00" cType="1" res="-9.0454546734690666e-03" rms="4.0579655766487122e-01" purity="2.2927969694137573e-01" nType="-99"/>
              </Node>
              <Node pos="r" depth="4" NCoef="0" IVar="3" Cut="6.0390335321426392e-01" cType="1" res="-3.8360431790351868e-02" rms="3.4369072318077087e-01" purity="1.6967444121837616e-01" nType="0">
                <Node pos="l" depth="5" NCoef="0" IVar="2" Cut="3.6872857666015625e+02" cType="1" res="-4.3710950762033463e-02" rms="3.0459675192832947e-01" purity="1.1887890845537186e-01" nType="0">
                  <Node pos="l" depth="6" NCoef="0" IVar="3" Cut="5.4554969072341919e-01" cType="1" res="-3.9551369845867157e-02" rms="3.0842030048370361e-01" purity="1.2403511255979538e-01" nType="0">
                    <Node pos="l" depth="7" NCoef="0" IVar="-1" Cut="0.0000000000000000e+00" cType="1" res="-1.1276613920927048e-02" rms="2.6848325133323669e-01" purity="8.4559552371501923e-02" nType="-99"/>
                    <Node pos="r" depth="7" NCoef="0" IVar="-1" Cut="0.0000000000000000e+00" cType="1" res="-1.6497127944603562e-03" rms="4.5289769768714905e-01" purity="3.1371408700942993e-01" nType="-99"/>
                  </Node>
                  <Node pos="r" depth="6" NCoef="0" IVar="-1" Cut="0.0000000000000000e+00" cType="1" res="-1.3528368435800076e-02" rms="2.8051161766052246e-01" purity="8.9344657957553864e-02" nType="-99"/>
                </Node>
                <Node pos="r" depth="5" NCoef="0" IVar="3" Cut="6.3724374771118164e-01" cType="1" res="-1.4724457636475563e-02" rms="4.7895318269729614e-01" purity="3.9406412839889526e-01" nType="0">
                  <Node pos="l" depth="6" NCoef="0" IVar="-1" Cut="0.0000000000000000e+00" cType="1" res="-2.1410384215414524e-03" rms="4.7149381041526794e-01" purity="3.6801141500473022e-01" nType="-99"/>
                  <Node pos="r" depth="6" NCoef="0" IVar="-1" Cut="0.0000000000000000e+00" cType="1" res="-7.1033736458048224e-04" rms="4.8615026473999023e-01" purity="4.1997602581977844e-01" nType="-99"/>
                </Node>
              </Node>
            </Node>
          </Node>
          <Node pos="r" depth="2" NCoef="0" IVar="2" Cut="2.4535070800781250e+02" cType="1" res="-1.7913693562150002e-02" rms="3.7654685974121094e-01" purity="2.0131798088550568e-01" nType="0">
            <Node pos="l" depth="3" NCoef="0" IVar="3" Cut="4.5499992370605469e-01" cType="1" res="4.5778225176036358e-03" rms="3.9950558543205261e-01" purity="2.5034573674201965e-01" nType="0">
              <Node pos="l" depth="4" NCoef="0" IVar="4" Cut="1.5834197402000427e-01" cType="1" res="-1.4273935928940773e-02" rms="3.3381775021553040e-01" purity="1.3769231736660004e-01" nType="0">
                <Node pos="l" depth="5" NCoef="0" IVar="-1" Cut="0.0000000000000000e+00" cType="1" res="-6.1607388779520988e-03" rms="3.0391937494277954e-01" purity="1.0909403860569000e-01" nType="-99"/>
                <Node pos="r" depth="5" NCoef="0" IVar="-1" Cut="0.0000000000000000e+00" cType="1" res="7.7581184450536966e-04" rms="3.8128754496574402e-01" purity="1.8942324817180634e-01" nType="-99"/>
              </Node>
              <Node pos="r" depth="4" NCoef="0" IVar="-1" Cut="0.0000000000000000e+00" cType="1" res="3.0587927903980017e-03" rms="4.8121622204780579e-01" purity="4.2183586955070496e-01" nType="-99"/>
            </Node>
            <Node pos="r" depth="3" NCoef="0" IVar="5" Cut="3.0000000000000000e+00" cType="1" res="1.3515277206897736e-01" rms="2.0355769991874695e-01" purity="1.8185074627399445e-01" nType="0">
              <Node pos="l" depth="4" NCoef="0" IVar="-1" Cut="0.0000000000000000e+00" cType="1" res="2.4974674452096224e-03" rms="4.5817029476165771e-01" purity="3.2459366321563721e-01" nType="-99"/>
              <Node pos="r" depth="4" NCoef="0" IVar="3" Cut="4.3132737278938293e-01" cType="1" res="-3.1163968145847321e-02" rms="3.5694015026092529e-01" purity="1.6899181902408600e-01" nType="0">
                <Node pos="l" depth="5" NCoef="0" IVar="2" Cut="9.4866009521484375e+02" cType="1" res="-3.6215439438819885e-02" rms="3.1432959437370300e-01" purity="1.1724387854337692e-01" nType="0">
                  <Node pos="l" depth="6" NCoef="0" IVar="4" Cut="1.9620029628276825e-01" cType="1" res="-4.0098350495100021e-02" rms="3.0137926340103149e-01" purity="1.0567751526832581e-01" nType="0">
                    <Node pos="l" depth="7" NCoef="0" IVar="-1" Cut="0.0000000000000000e+00" cType="1" res="-1.1878689751029015e-02" rms="2.6271477341651917e-01" purity="7.6757550239562988e-02" nType="-99"/>
                    <Node pos="r" depth="7" NCoef="0" IVar="-1" Cut="0.0000000000000000e+00" cType="1" res="-6.0076196677982807e-03" rms="3.5767942667007446e-01" purity="1.5500681102275848e-01" nType="-99"/>
                  </Node>
                  <Node pos="r" depth="6" NCoef="0" IVar="-1" Cut="0.0000000000000000e+00" cType="1" res="-1.7127088503912091e-03" rms="3.8756543397903442e-01" purity="1.9288744032382965e-01" nType="-99"/>
                </Node>
                <Node pos="r" depth="5" NCoef="0" IVar="2" Cut="5.1929272460937500e+02" cType="1" res="-1.8412254750728607e-02" rms="4.4652423262596130e-01" purity="2.9962205886840820e-01" nType="0">
                  <Node pos="l" depth="6" NCoef="0" IVar="2" Cut="3.6911566162109375e+02" cType="1" res="-1.2876590713858604e-02" rms="4.5098525285720825e-01" purity="3.0937722325325012e-01" nType="0">
                    <Node pos="l" depth="7" NCoef="0" IVar="-1" Cut="0.0000000000000000e+00" cType="1" res="-2.6908239815384150e-03" rms="4.5101815462112427e-01" purity="3.0329552292823792e-01" nType="-99"/>
                    <Node pos="r" depth="7" NCoef="0" IVar="-1" Cut="0.0000000000000000e+00" cType="1" res="-3.2488722354173660e-04" rms="4.5071911811828613e-01" purity="3.1484821438789368e-01" nType="-99"/>
                  </Node>
                  <Node pos="r" depth="6" NCoef="0" IVar="-1" Cut="0.0000000000000000e+00" cType="1" res="-3.2592399511486292e-03" rms="4.3870699405670166e-01" purity="2.8310200572013855e-01" nType="-99"/>
                </Node>
              </Node>
            </Node>
          </Node>
        </Node>
        <Node pos="r" depth="1" NCoef="0" IVar="0" Cut="7.9670566320419312e-01" cType="1" res="3.3495228737592697e-02" rms="4.4211664795875549e-01" purity="7.0083844661712646e-01" nType="0">
          <Node pos="l" depth="2" NCoef="0" IVar="0" Cut="2.5691373273730278e-02" cType="1" res="3.6424338817596436e-02" rms="4.4117107987403870e-01" purity="7.0852833986282349e-01" nType="0">
            <Node pos="l" depth="3" NCoef="0" IVar="3" Cut="8.7746727466583252e-01" cType="1" res="4.3725736439228058e-02" rms="4.3132060766220093e-01" purity="7.3995643854141235e-01" nType="0">
              <Node pos="l" depth="4" NCoef="0" IVar="1" Cut="-3.8841478526592255e-02" cType="1" res="2.8020419180393219e-02" rms="4.6999505162239075e-01" purity="6.5573775768280029e-01" nType="0">
                <Node pos="l" depth="5" NCoef="0" IVar="2" Cut="8.8184532165527344e+01" cType="1" res="4.2127341032028198e-02" rms="4.5679828524589539e-01" purity="6.9561892747879028e-01" nType="0">
                  <Node pos="l" depth="6" NCoef="0" IVar="4" Cut="3.7634197622537613e-02" cType="1" res="0.0000000000000000e+00" rms="0.0000000000000000e+00" purity="7.2832477092742920e-01" nType="0">
                    <Node pos="l" depth="7" NCoef="0" IVar="-1" Cut="0.0000000000000000e+00" cType="1" res="4.0370053611695766e-03" rms="4.4753238558769226e-01" purity="7.1945858001708984e-01" nType="-99"/>
                    <Node pos="r" depth="7" NCoef="0" IVar="-1" Cut="0.0000000000000000e+00" cType="1" res="5.8892448432743549e-03" rms="4.3696698546409607e-01" purity="7.3991113901138306e-01" nType="-99"/>
                  </Node>
                  <Node pos="r" depth="6" NCoef="0" IVar="3" Cut="8.0332571268081665e-01" cType="1" res="2.5988964363932610e-02" rms="4.6817338466644287e-01" purity="6.6593819856643677e-01" nType="0">
                    <Node pos="l" depth="7" NCoef="0" IVar="-1" Cut="0.0000000000000000e+00" cType="1" res="1.2096900027245283e-03" rms="4.8060727119445801e-01" purity="6.2725692987442017e-01" nType="-99"/>
                    <Node pos="r" depth="7" NCoef="0" IVar="-1" Cut="0.0000000000000000e+00" cType="1" res="3.7197056226432323e-03" rms="4.5174092054367065e-01" purity="7.1417272090911865e-01" nType="-99"/>
                  </Node>
                </Node>
                <Node pos="r" depth="5" NCoef="0" IVar="3" Cut="8.5724383592605591e-01" cType="1" res="1.8487885594367981e-02" rms="4.7847118973731995e-01" purity="6.2878870964050293e-01" nType="0">
                  <Node pos="l" depth="6" NCoef="0" IVar="5" Cut="3.0000000000000000e+00" cType="1" res="-4.4443098886404186e-05" rms="5.1845535635948181e-03" purity="6.1536437273025513e-01" nType="0">
                    <Node pos="l" depth="7" NCoef="0" IVar="-1" Cut="0.0000000000000000e+00" cType="1" res="9.1366993729025126e-04" rms="4.8052674531936646e-01" purity="6.2166953086853027e-01" nType="-99"/>
                    <Node pos="r" depth="7" NCoef="0" IVar="-1" Cut="0.0000000000000000e+00" cType="1" res="1.9046503584831953e-03" rms="4.8505154252052307e-01" purity="6.0626167058944702e-01" nType="-99"/>
                  </Node>
                  <Node pos="r" depth="6" NCoef="0" IVar="-1" Cut="0.0000000000000000e+00" cType="1" res="2.9304721392691135e-03" rms="4.5922228693962097e-01" purity="6.9197756052017212e-01" nType="-99"/>
                </Node>
              </Node>
              <Node pos="r" depth="4" NCoef="0" IVar="1" Cut="1.1643596887588501e+00" cType="1" res="5.1335837692022324e-02" rms="4.1105893254280090e-01" purity="7.8076517581939697e-01" nType="0">
                <Node pos="l" depth="5" NCoef="0" IVar="1" Cut="7.0059794187545776e-01" cType="1" res="5.3302805870771408e-02" rms="4.0802416205406189e-01" purity="7.8639048337936401e-01" nType="0">
                  <Node pos="l" depth="6" NCoef="0" IVar="1" Cut="2.6501050591468811e-01" cType="1" res="5.5277124047279358e-02" rms="4.0498912334442139e-01" purity="7.9162508249282837e-01" nType="0">
                    <Node pos="l" depth="7" NCoef="0" IVar="-1" Cut="0.0000000000000000e+00" cType="1" res="5.7627400383353233e-03" rms="3.9973485469818115e-01" purity="7.9924738407135010e-01" nType="-99"/>
                    <Node pos="r" depth="7" NCoef="0" IVar="-1" Cut="0.0000000000000000e+00" cType="1" res="4.3597468174993992e-03" rms="4.2769235372543335e-01" purity="7.5738626718521118e-01" nType="-99"/>
                  </Node>
                  <Node pos="r" depth="6" NCoef="0" IVar="-1" Cut="0.0000000000000000e+00" cType="1" res="9.8651950247585773e-04" rms="4.6579772233963013e-01" purity="6.7540270090103149e-01" nType="-99"/>
                </Node>
                <Node pos="r" depth="5" NCoef="0" IVar="-1" Cut="0.0000000000000000e+00" cType="1" res="2.0585024321917444e-04" rms="4.7776904702186584e-01" purity="6.4095371961593628e-01" nType="-99"/>
              </Node>
            </Node>
            <Node pos="r" depth="3" NCoef="0" IVar="0" Cut="3.9031970500946045e-01" cType="1" res="3.7456883001141250e-04" rms="4.8528671264648438e-01" purity="5.5335551500320435e-01" nType="0">
              <Node pos="l" depth="4" NCoef="0" IVar="0" Cut="3.2541421055793762e-01" cType="1" res="9.2665031552314758e-03" rms="4.8410204052925110e-01" purity="5.7812994718551636e-01" nType="0">
                <Node pos="l" depth="5" NCoef="0" IVar="0" Cut="2.4873863160610199e-01" cType="1" res="6.0289897955954075e-03" rms="4.8270329833030701e-01" purity="5.8348375558853149e-01" nType="0">
                  <Node pos="l" depth="6" NCoef="0" IVar="0" Cut="2.1968132257461548e-01" cType="1" res="1.5727344900369644e-02" rms="4.7922343015670776e-01" purity="6.0691273212432861e-01" nType="0">
                    <Node pos="l" depth="7" NCoef="0" IVar="-1" Cut="0.0000000000000000e+00" cType="1" res="1.0220896219834685e-03" rms="4.7826993465423584e-01" purity="6.1166793107986450e-01" nType="-99"/>
                    <Node pos="r" depth="7" NCoef="0" IVar="-1" Cut="0.0000000000000000e+00" cType="1" res="2.0558743271976709e-03" rms="4.8017853498458862e-01" purity="6.0181623697280884e-01" nType="-99"/>
                  </Node>
                  <Node pos="r" depth="6" NCoef="0" IVar="0" Cut="2.8089118003845215e-01" cType="1" res="-2.0513283088803291e-03" rms="4.8543560504913330e-01" purity="5.6396365165710449e-01" nType="0">
                    <Node pos="l" depth="7" NCoef="0" IVar="-1" Cut="0.0000000000000000e+00" cType="1" res="6.3713244162499905e-04" rms="4.8452761769294739e-01" purity="5.8122879266738892e-01" nType="-99"/>
                    <Node pos="r" depth="7" NCoef="0" IVar="-1" Cut="0.0000000000000000e+00" cType="1" res="-7.9680141061544418e-04" rms="4.8602941632270813e-01" purity="5.5053931474685669e-01" nType="-99"/>
                  </Node>
                </Node>
                <Node pos="r" depth="5" NCoef="0" IVar="-1" Cut="0.0000000000000000e+00" cType="1" res="1.6072188736870885e-03" rms="4.8826107382774353e-01" purity="5.6159567832946777e-01" nType="-99"/>
              </Node>
              <Node pos="r" depth="4" NCoef="0" IVar="0" Cut="5.0824403762817383e-01" cType="1" res="-2.1670214831829071e-02" rms="4.8751232028007507e-01" purity="4.9193498492240906e-01" nType="0">
                <Node pos="l" depth="5" NCoef="0" IVar="-1" Cut="0.0000000000000000e+00" cType="1" res="-2.9228152707219124e-03" rms="4.8686310648918152e-01" purity="4.7457158565521240e-01" nType="-99"/>
                <Node pos="r" depth="5" NCoef="0" IVar="-1" Cut="0.0000000000000000e+00" cType="1" res="-4.8385001718997955e-04" rms="4.8796126246452332e-01" purity="5.1613682508468628e-01" nType="-99"/>
              </Node>
            </Node>
          </Node>
          <Node pos="r" depth="2" NCoef="0" IVar="-1" Cut="0.0000000000000000e+00" cType="1" res="-1.0196668095886707e-02" rms="4.6408763527870178e-01" purity="3.2839265465736389e-01" nType="-99"/>
        </Node>
      </Node>
    </BinaryTree>
    <BinaryTree type="DecisionTree" boostWeight="1.0000000000000000e+00" itree="46">
      <Node pos="s" depth="0" NCoef="0" IVar="3" Cut="7.7301573753356934e-01" cType="1" res="1.1243064887821674e-02" rms="4.1308113932609558e-01" purity="5.0055843591690063e-01" nType="0">
        <Node pos="l" depth="1" NCoef="0" IVar="3" Cut="5.2386468648910522e-01" cType="1" res="-1.7569364979863167e-02" rms="3.9312413334846497e-01" purity="2.6545321941375732e-01" nType="0">
          <Node pos="l" depth="2" NCoef="0" IVar="4" Cut="2.4780762195587158e-01" cType="1" res="-3.1641695648431778e-02" rms="3.0886954069137573e-01" purity="1.1810164898633957e-01" nType="0">
            <Node pos="l" depth="3" NCoef="0" IVar="3" Cut="4.9010074138641357e-01" cType="1" res="-3.4161269664764404e-02" rms="2.9893022775650024e-01" purity="1.0931660979986191e-01" nType="0">
              <Node pos="l" depth="4" NCoef="0" IVar="5" Cut="3.0000000000000000e+00" cType="1" res="0.0000000000000000e+00" rms="0.0000000000000000e+00" purity="9.3695633113384247e-02" nType="0">
                <Node pos="l" depth="5" NCoef="0" IVar="-1" Cut="0.0000000000000000e+00" cType="1" res="-1.0225325822830200e-03" rms="3.5255262255668640e-01" purity="1.5840698778629303e-01" nType="-99"/>
                <Node pos="r" depth="5" NCoef="0" IVar="3" Cut="3.1640866398811340e-01" cType="1" res="-3.8651019334793091e-02" rms="2.7769014239311218e-01" purity="9.0084180235862732e-02" nType="0">
                  <Node pos="l" depth="6" NCoef="0" IVar="2" Cut="5.0715744018554688e+02" cType="1" res="-4.6039175242185593e-02" rms="2.1505232155323029e-01" purity="5.0189308822154999e-02" nType="0">
                    <Node pos="l" depth="7" NCoef="0" IVar="-1" Cut="0.0000000000000000e+00" cType="1" res="-1.5696322545409203e-02" rms="2.1139632165431976e-01" purity="4.8334475606679916e-02" nType="-99"/>
                    <Node pos="r" depth="7" NCoef="0" IVar="-1" Cut="0.0000000000000000e+00" cType="1" res="-1.6257049515843391e-02" rms="2.3011374473571777e-01" purity="5.8463651686906815e-02" nType="-99"/>
                  </Node>
                  <Node pos="r" depth="6" NCoef="0" IVar="5" Cut="4.0000000000000000e+00" cType="1" res="-3.2508160918951035e-02" rms="3.1958022713661194e-01" purity="1.2258946895599365e-01" nType="0">
                    <Node pos="l" depth="7" NCoef="0" IVar="-1" Cut="0.0000000000000000e+00" cType="1" res="-1.1955260299146175e-02" rms="3.0556535720825195e-01" purity="1.0901252180337906e-01" nType="-99"/>
                    <Node pos="r" depth="7" NCoef="0" IVar="-1" Cut="0.0000000000000000e+00" cType="1" res="-5.6512039154767990e-03" rms="3.2233232259750366e-01" purity="1.2550315260887146e-01" nType="-99"/>
                  </Node>
                </Node>
              </Node>
              <Node pos="r" depth="4" NCoef="0" IVar="2" Cut="1.9584861755371094e+02" cType="1" res="-9.0214563533663750e-03" rms="4.2230316996574402e-01" purity="2.5378024578094482e-01" nType="0">
                <Node pos="l" depth="5" NCoef="0" IVar="-1" Cut="0.0000000000000000e+00" cType="1" res="1.1534928344190121e-03" rms="4.3222066760063171e-01" purity="2.7561011910438538e-01" nType="-99"/>
                <Node pos="r" depth="5" NCoef="0" IVar="-1" Cut="0.0000000000000000e+00" cType="1" res="-3.8127738516777754e-03" rms="4.1044303774833679e-01" purity="2.3032304644584656e-01" nType="-99"/>
              </Node>
            </Node>
            <Node pos="r" depth="3" NCoef="0" IVar="5" Cut="7.0000000000000000e+00" cType="1" res="1.6426852345466614e-01" rms="0.0000000000000000e+00" purity="2.1959736943244934e-01" nType="0">
              <Node pos="l" depth="4" NCoef="0" IVar="-1" Cut="0.0000000000000000e+00" cType="1" res="3.0076701659709215e-03" rms="4.3872711062431335e-01" purity="2.7572226524353027e-01" nType="-99"/>
              <Node pos="r" depth="4" NCoef="0" IVar="-1" Cut="0.0000000000000000e+00" cType="1" res="-4.9438411369919777e-03" rms="3.6725398898124695e-01" purity="1.6363407671451569e-01" nType="-99"/>
            </Node>
          </Node>
          <Node pos="r" depth="2" NCoef="0" IVar="1" Cut="5.8496166020631790e-02" cType="1" res="2.3032580429571681e-05" rms="4.7742080688476562e-01" purity="4.4966343045234680e-01" nType="0">
            <Node pos="l" depth="3" NCoef="0" IVar="2" Cut="1.5582026672363281e+02" cType="1" res="1.8940577283501625e-02" rms="4.8483070731163025e-01" purity="5.0644320249557495e-01" nType="0">
              <Node pos="l" depth="4" NCoef="0" IVar="4" Cut="5.1629919558763504e-02" cType="1" res="3.2802242785692215e-02" rms="4.8534676432609558e-01" purity="5.4586178064346313e-01" nType="0">
                <Node pos="l" depth="5" NCoef="0" IVar="2" Cut="5.5545459747314453e+01" cType="1" res="1.0843823663890362e-02" rms="4.8559886217117310e-01" purity="5.1588428020477295e-01" nType="0">
                  <Node pos="l" depth="6" NCoef="0" IVar="-1" Cut="0.0000000000000000e+00" cType="1" res="3.7998703774064779e-03" rms="4.8590764403343201e-01" purity="5.6736344099044800e-01" nType="-99"/>
                  <Node pos="r" depth="6" NCoef="0" IVar="-1" Cut="0.0000000000000000e+00" cType="1" res="-2.4108798243105412e-03" rms="4.8264586925506592e-01" purity="4.6069347858428955e-01" nType="-99"/>
                </Node>
                <Node pos="r" depth="5" NCoef="0" IVar="4" Cut="8.0228187143802643e-02" cType="1" res="5.3740955889225006e-02" rms="4.8417961597442627e-01" purity="5.7444721460342407e-01" nType="0">
                  <Node pos="l" depth="6" NCoef="0" IVar="-1" Cut="0.0000000000000000e+00" cType="1" res="3.5503262188285589e-03" rms="4.8471927642822266e-01" purity="5.6527966260910034e-01" nType="-99"/>
                  <Node pos="r" depth="6" NCoef="0" IVar="-1" Cut="0.0000000000000000e+00" cType="1" res="5.1782196387648582e-03" rms="4.8319792747497559e-01" purity="5.8570206165313721e-01" nType="-99"/>
                </Node>
              </Node>
              <Node pos="r" depth="4" NCoef="0" IVar="4" Cut="1.0308175534009933e-01" cType="1" res="2.0948261953890324e-03" rms="4.8366832733154297e-01" purity="4.5853874087333679e-01" nType="0">
                <Node pos="l" depth="5" NCoef="0" IVar="3" Cut="7.0871436595916748e-01" cType="1" res="-9.9245486781001091e-03" rms="4.8009654879570007e-01" purity="4.5397374033927917e-01" nType="0">
                  <Node pos="l" depth="6" NCoef="0" IVar="3" Cut="6.3120073080062866e-01" cType="1" res="-2.2732866927981377e-02" rms="4.7532185912132263e-01" purity="3.8457483053207397e-01" nType="0">
                    <Node pos="l" depth="7" NCoef="0" IVar="-1" Cut="0.0000000000000000e+00" cType="1" res="-2.9695155099034309e-03" rms="4.5883315801620483e-01" purity="3.1333366036415100e-01" nType="-99"/>
                    <Node pos="r" depth="7" NCoef="0" IVar="-1" Cut="0.0000000000000000e+00" cType="1" res="-1.6381758032366633e-03" rms="4.9094220995903015e-01" purity="4.5463111996650696e-01" nType="-99"/>
                  </Node>
                  <Node pos="r" depth="6" NCoef="0" IVar="-1" Cut="0.0000000000000000e+00" cType="1" res="1.1978858383372426e-03" rms="4.8786848783493042e-01" purity="5.8141994476318359e-01" nType="-99"/>
                </Node>
                <Node pos="r" depth="5" NCoef="0" IVar="-1" Cut="0.0000000000000000e+00" cType="1" res="2.1765548735857010e-03" rms="4.8929977416992188e-01" purity="4.6677386760711670e-01" nType="-99"/>
              </Node>
            </Node>
            <Node pos="r" depth="3" NCoef="0" IVar="1" Cut="1.2218048572540283e+00" cType="1" res="-1.7674483358860016e-02" rms="4.6969380974769592e-01" purity="3.9654552936553955e-01" nType="0">
              <Node pos="l" depth="4" NCoef="0" IVar="3" Cut="7.0069789886474609e-01" cType="1" res="-9.8985228687524796e-03" rms="4.7351932525634766e-01" purity="4.1033744812011719e-01" nType="0">
                <Node pos="l" depth="5" NCoef="0" IVar="4" Cut="7.6308287680149078e-02" cType="1" res="-1.9626757130026817e-02" rms="4.6485292911529541e-01" purity="3.5339146852493286e-01" nType="0">
                  <Node pos="l" depth="6" NCoef="0" IVar="4" Cut="3.7599757313728333e-02" cType="1" res="-4.0363259613513947e-02" rms="4.5266842842102051e-01" purity="3.1969785690307617e-01" nType="0">
                    <Node pos="l" depth="7" NCoef="0" IVar="-1" Cut="0.0000000000000000e+00" cType="1" res="-7.2216768749058247e-03" rms="4.4056701660156250e-01" purity="2.9172867536544800e-01" nType="-99"/>
                    <Node pos="r" depth="7" NCoef="0" IVar="-1" Cut="0.0000000000000000e+00" cType="1" res="-2.8807176277041435e-03" rms="4.5754644274711609e-01" purity="3.3253255486488342e-01" nType="-99"/>
                  </Node>
                  <Node pos="r" depth="6" NCoef="0" IVar="2" Cut="3.0246340942382812e+02" cType="1" res="6.5541762160137296e-04" rms="4.7559532523155212e-01" purity="3.8634690642356873e-01" nType="0">
                    <Node pos="l" depth="7" NCoef="0" IVar="-1" Cut="0.0000000000000000e+00" cType="1" res="1.0649922769516706e-03" rms="4.8157036304473877e-01" purity="4.1145700216293335e-01" nType="-99"/>
                    <Node pos="r" depth="7" NCoef="0" IVar="-1" Cut="0.0000000000000000e+00" cType="1" res="-1.4077500673010945e-03" rms="4.6724176406860352e-01" purity="3.5332030057907104e-01" nType="-99"/>
                  </Node>
                </Node>
                <Node pos="r" depth="5" NCoef="0" IVar="1" Cut="2.8363955020904541e-01" cType="1" res="1.1800894513726234e-02" rms="4.9160778522491455e-01" purity="5.3735888004302979e-01" nType="0">
                  <Node pos="l" depth="6" NCoef="0" IVar="-1" Cut="0.0000000000000000e+00" cType="1" res="2.2266001906245947e-03" rms="4.8821136355400085e-01" purity="5.8129107952117920e-01" nType="-99"/>
                  <Node pos="r" depth="6" NCoef="0" IVar="-1" Cut="0.0000000000000000e+00" cType="1" res="-1.7462020332459360e-04" rms="4.9443051218986511e-01" purity="4.9544715881347656e-01" nType="-99"/>
                </Node>
              </Node>
              <Node pos="r" depth="4" NCoef="0" IVar="-1" Cut="0.0000000000000000e+00" cType="1" res="-1.0479154996573925e-02" rms="4.2033746838569641e-01" purity="2.5525960326194763e-01" nType="-99"/>
            </Node>
          </Node>
        </Node>
        <Node pos="r" depth="1" NCoef="0" IVar="3" Cut="1.0595389604568481e+00" cType="1" res="4.0328063070774078e-02" rms="4.3034136295318604e-01" purity="7.3788774013519287e-01" nType="0">
          <Node pos="l" depth="2" NCoef="0" IVar="0" Cut="4.9305471777915955e-01" cType="1" res="4.2394939810037613e-02" rms="4.2972922325134277e-01" purity="7.4111872911453247e-01" nType="0">
            <Node pos="l" depth="3" NCoef="0" IVar="3" Cut="9.6709489822387695e-01" cType="1" res="4.4606398791074753e-02" rms="4.2757934331893921e-01" purity="7.4931180477142334e-01" nType="0">
              <Node pos="l" depth="4" NCoef="0" IVar="1" Cut="6.6480696201324463e-01" cType="1" res="3.3080365508794785e-02" rms="4.5486223697662354e-01" purity="6.9619649648666382e-01" nType="0">
                <Node pos="l" depth="5" NCoef="0" IVar="0" Cut="2.7031537890434265e-01" cType="1" res="3.7291429936885834e-02" rms="4.5042553544044495e-01" purity="7.1008634567260742e-01" nType="0">
                  <Node pos="l" depth="6" NCoef="0" IVar="5" Cut="3.0000000000000000e+00" cType="1" res="3.5203337669372559e-02" rms="4.2537868022918701e-01" purity="7.1657443046569824e-01" nType="0">
                    <Node pos="l" depth="7" NCoef="0" IVar="-1" Cut="0.0000000000000000e+00" cType="1" res="3.4853760153055191e-03" rms="4.4758912920951843e-01" purity="7.1736538410186768e-01" nType="-99"/>
                    <Node pos="r" depth="7" NCoef="0" IVar="-1" Cut="0.0000000000000000e+00" cType="1" res="5.4140049032866955e-03" rms="4.5291766524314880e-01" purity="7.0926845073699951e-01" nType="-99"/>
                  </Node>
                  <Node pos="r" depth="6" NCoef="0" IVar="-1" Cut="0.0000000000000000e+00" cType="1" res="3.3520525903441012e-04" rms="4.8447573184967041e-01" purity="6.0575199127197266e-01" nType="-99"/>
                </Node>
                <Node pos="r" depth="5" NCoef="0" IVar="-1" Cut="0.0000000000000000e+00" cType="1" res="-6.4791482873260975e-04" rms="4.9399822950363159e-01" purity="5.6140756607055664e-01" nType="-99"/>
              </Node>
              <Node pos="r" depth="4" NCoef="0" IVar="1" Cut="6.8909591436386108e-01" cType="1" res="5.3381618112325668e-02" rms="4.0535944700241089e-01" purity="7.8975051641464233e-01" nType="0">
                <Node pos="l" depth="5" NCoef="0" IVar="3" Cut="9.9990272521972656e-01" cType="1" res="5.5853024125099182e-02" rms="3.9947569370269775e-01" purity="7.9943239688873291e-01" nType="0">
                  <Node pos="l" depth="6" NCoef="0" IVar="1" Cut="3.9386191964149475e-01" cType="1" res="4.9847617745399475e-02" rms="4.0602055191993713e-01" purity="7.9030883312225342e-01" nType="0">
                    <Node pos="l" depth="7" NCoef="0" IVar="-1" Cut="0.0000000000000000e+00" cType="1" res="5.3463424555957317e-03" rms="4.0153491497039795e-01" purity="7.9693728685379028e-01" nType="-99"/>
                    <Node pos="r" depth="7" NCoef="0" IVar="-1" Cut="0.0000000000000000e+00" cType="1" res="2.2094254381954670e-03" rms="4.4253286719322205e-01" purity="7.3222708702087402e-01" nType="-99"/>
                  </Node>
                  <Node pos="r" depth="6" NCoef="0" IVar="3" Cut="1.0056716203689575e+00" cType="1" res="6.2628865242004395e-02" rms="3.9184951782226562e-01" purity="8.0972647666931152e-01" nType="0">
                    <Node pos="l" depth="7" NCoef="0" IVar="-1" Cut="0.0000000000000000e+00" cType="1" res="6.4919013530015945e-03" rms="3.8766103982925415e-01" purity="8.1513631343841553e-01" nType="-99"/>
                    <Node pos="r" depth="7" NCoef="0" IVar="-1" Cut="0.0000000000000000e+00" cType="1" res="5.8201691135764122e-03" rms="3.9564800262451172e-01" purity="8.0472755432128906e-01" nType="-99"/>
                  </Node>
                </Node>
                <Node pos="r" depth="5" NCoef="0" IVar="-1" Cut="0.0000000000000000e+00" cType="1" res="2.3266121279448271e-03" rms="4.6128743886947632e-01" purity="6.8917429447174072e-01" nType="-99"/>
              </Node>
            </Node>
            <Node pos="r" depth="3" NCoef="0" IVar="-1" Cut="0.0000000000000000e+00" cType="1" res="-2.2407991345971823e-03" rms="4.8675432801246643e-01" purity="4.8724985122680664e-01" nType="-99"/>
          </Node>
          <Node pos="r" depth="2" NCoef="0" IVar="-1" Cut="0.0000000000000000e+00" cType="1" res="-4.4591622427105904e-03" rms="4.4688618183135986e-01" purity="5.9985780715942383e-01" nType="-99"/>
        </Node>
      </Node>
    </BinaryTree>
    <BinaryTree type="DecisionTree" boostWeight="1.0000000000000000e+00" itree="47">
      <Node pos="s" depth="0" NCoef="0" IVar="3" Cut="7.7288961410522461e-01" cType="1" res="1.0985896922647953e-02" rms="4.1265967488288879e-01" purity="5.0045418739318848e-01" nType="0">
        <Node pos="l" depth="1" NCoef="0" IVar="3" Cut="6.2338465452194214e-01" cType="1" res="-1.7449757084250450e-02" rms="3.9311975240707397e-01" purity="2.6440545916557312e-01" nType="0">
          <Node pos="l" depth="2" NCoef="0" IVar="3" Cut="4.0235102176666260e-01" cType="1" res="-2.6487948372960091e-02" rms="3.4772205352783203e-01" purity="1.6614216566085815e-01" nType="0">
            <Node pos="l" depth="3" NCoef="0" IVar="5" Cut="4.0000000000000000e+00" cType="1" res="7.3349915444850922e-02" rms="0.0000000000000000e+00" purity="8.4816567599773407e-02" nType="0">
              <Node pos="l" depth="4" NCoef="0" IVar="3" Cut="2.8577098250389099e-01" cType="1" res="-5.2124294452369213e-03" rms="3.4931257367134094e-01" purity="1.5913856029510498e-01" nType="0">
                <Node pos="l" depth="5" NCoef="0" IVar="-1" Cut="0.0000000000000000e+00" cType="1" res="7.3948157951235771e-03" rms="4.0697160363197327e-01" purity="2.3351047933101654e-01" nType="-99"/>
                <Node pos="r" depth="5" NCoef="0" IVar="-1" Cut="0.0000000000000000e+00" cType="1" res="-9.9054314196109772e-03" rms="2.9252147674560547e-01" purity="1.0233990103006363e-01" nType="-99"/>
              </Node>
              <Node pos="r" depth="4" NCoef="0" IVar="4" Cut="2.0081269741058350e-01" cType="1" res="-3.9069928228855133e-02" rms="2.5451245903968811e-01" purity="7.3930375277996063e-02" nType="0">
                <Node pos="l" depth="5" NCoef="0" IVar="3" Cut="3.3764535188674927e-01" cType="1" res="-4.2198881506919861e-02" rms="2.1914578974246979e-01" purity="5.2216071635484695e-02" nType="0">
                  <Node pos="l" depth="6" NCoef="0" IVar="5" Cut="6.0000000000000000e+00" cType="1" res="-4.6152941882610321e-02" rms="1.9196735322475433e-01" purity="3.8812156766653061e-02" nType="0">
                    <Node pos="l" depth="7" NCoef="0" IVar="-1" Cut="0.0000000000000000e+00" cType="1" res="-1.4869450591504574e-02" rms="2.1557778120040894e-01" purity="4.9416866153478622e-02" nType="-99"/>
                    <Node pos="r" depth="7" NCoef="0" IVar="-1" Cut="0.0000000000000000e+00" cType="1" res="-1.9306683912873268e-02" rms="1.7803224921226501e-01" purity="3.3159155398607254e-02" nType="-99"/>
                  </Node>
                  <Node pos="r" depth="6" NCoef="0" IVar="0" Cut="1.1584733724594116e+00" cType="1" res="-3.2258681952953339e-02" rms="2.7557939291000366e-01" purity="8.5874326527118683e-02" nType="0">
                    <Node pos="l" depth="7" NCoef="0" IVar="-1" Cut="0.0000000000000000e+00" cType="1" res="-3.7543154321610928e-03" rms="3.2495635747909546e-01" purity="1.2359634041786194e-01" nType="-99"/>
                    <Node pos="r" depth="7" NCoef="0" IVar="-1" Cut="0.0000000000000000e+00" cType="1" res="-1.3665782287716866e-02" rms="2.2817865014076233e-01" purity="5.5931590497493744e-02" nType="-99"/>
                  </Node>
                </Node>
                <Node pos="r" depth="5" NCoef="0" IVar="3" Cut="2.4672232568264008e-01" cType="1" res="-2.7469145134091377e-02" rms="3.5596868395805359e-01" purity="1.5443740785121918e-01" nType="0">
                  <Node pos="l" depth="6" NCoef="0" IVar="5" Cut="8.0000000000000000e+00" cType="1" res="1.2904451787471771e-01" rms="0.0000000000000000e+00" purity="1.5997263789176941e-01" nType="0">
                    <Node pos="l" depth="7" NCoef="0" IVar="-1" Cut="0.0000000000000000e+00" cType="1" res="-1.4894589548930526e-03" rms="3.7893339991569519e-01" purity="1.8433135747909546e-01" nType="-99"/>
                    <Node pos="r" depth="7" NCoef="0" IVar="-1" Cut="0.0000000000000000e+00" cType="1" res="-6.6717178560793400e-03" rms="3.3998835086822510e-01" purity="1.3641285896301270e-01" nType="-99"/>
                  </Node>
                  <Node pos="r" depth="6" NCoef="0" IVar="-1" Cut="0.0000000000000000e+00" cType="1" res="-6.9296970032155514e-03" rms="3.4915590286254883e-01" purity="1.4529040455818176e-01" nType="-99"/>
                </Node>
              </Node>
            </Node>
            <Node pos="r" depth="3" NCoef="0" IVar="5" Cut="4.0000000000000000e+00" cType="1" res="-1.7379404976963997e-02" rms="4.1730186343193054e-01" purity="2.5532531738281250e-01" nType="0">
              <Node pos="l" depth="4" NCoef="0" IVar="0" Cut="7.5524163246154785e-01" cType="1" res="-3.7989217787981033e-02" rms="4.0957799553871155e-01" purity="2.4196131527423859e-01" nType="0">
                <Node pos="l" depth="5" NCoef="0" IVar="4" Cut="1.0188264399766922e-01" cType="1" res="-2.6365632191300392e-02" rms="4.5332294702529907e-01" purity="3.1471687555313110e-01" nType="0">
                  <Node pos="l" depth="6" NCoef="0" IVar="-1" Cut="0.0000000000000000e+00" cType="1" res="-4.7997455112636089e-03" rms="4.3551564216613770e-01" purity="2.7885252237319946e-01" nType="-99"/>
                  <Node pos="r" depth="6" NCoef="0" IVar="2" Cut="3.4589382934570312e+02" cType="1" res="-9.5507511869072914e-03" rms="4.6904605627059937e-01" purity="3.4889113903045654e-01" nType="0">
                    <Node pos="l" depth="7" NCoef="0" IVar="-1" Cut="0.0000000000000000e+00" cType="1" res="1.0191046749241650e-04" rms="4.7820192575454712e-01" purity="3.8057118654251099e-01" nType="-99"/>
                    <Node pos="r" depth="7" NCoef="0" IVar="-1" Cut="0.0000000000000000e+00" cType="1" res="-2.2915527224540710e-03" rms="4.5877844095230103e-01" purity="3.1500476598739624e-01" nType="-99"/>
                  </Node>
                </Node>
                <Node pos="r" depth="5" NCoef="0" IVar="2" Cut="2.0453352355957031e+02" cType="1" res="-5.4762620478868484e-02" rms="3.3586645126342773e-01" purity="1.3697153329849243e-01" nType="0">
                  <Node pos="l" depth="6" NCoef="0" IVar="-1" Cut="0.0000000000000000e+00" cType="1" res="-7.4762660078704357e-03" rms="3.5195207595825195e-01" purity="1.5457728505134583e-01" nType="-99"/>
                  <Node pos="r" depth="6" NCoef="0" IVar="-1" Cut="0.0000000000000000e+00" cType="1" res="-1.2860288843512535e-02" rms="3.0996301770210266e-01" purity="1.1093346029520035e-01" nType="-99"/>
                </Node>
              </Node>
              <Node pos="r" depth="4" NCoef="0" IVar="2" Cut="1.9476545715332031e+02" cType="1" res="-3.2918937504291534e-03" rms="4.2197412252426147e-01" purity="2.6451969146728516e-01" nType="0">
                <Node pos="l" depth="5" NCoef="0" IVar="4" Cut="6.1015363782644272e-02" cType="1" res="7.8060789965093136e-03" rms="4.3156898021697998e-01" purity="2.9032400250434875e-01" nType="0">
                  <Node pos="l" depth="6" NCoef="0" IVar="2" Cut="6.9805580139160156e+01" cType="1" res="-1.9538916647434235e-02" rms="4.0373200178146362e-01" purity="2.3565341532230377e-01" nType="0">
                    <Node pos="l" depth="7" NCoef="0" IVar="-1" Cut="0.0000000000000000e+00" cType="1" res="-2.8755408129654825e-04" rms="4.2972284555435181e-01" purity="2.7649486064910889e-01" nType="-99"/>
                    <Node pos="r" depth="7" NCoef="0" IVar="-1" Cut="0.0000000000000000e+00" cType="1" res="-5.1065282896161079e-03" rms="3.7865433096885681e-01" purity="1.9959537684917450e-01" nType="-99"/>
                  </Node>
                  <Node pos="r" depth="6" NCoef="0" IVar="2" Cut="1.3208374023437500e+02" cType="1" res="3.0633874237537384e-02" rms="4.5223623514175415e-01" purity="3.3596342802047729e-01" nType="0">
                    <Node pos="l" depth="7" NCoef="0" IVar="-1" Cut="0.0000000000000000e+00" cType="1" res="6.1670825816690922e-03" rms="4.6243005990982056e-01" purity="3.7039843201637268e-01" nType="-99"/>
                    <Node pos="r" depth="7" NCoef="0" IVar="-1" Cut="0.0000000000000000e+00" cType="1" res="-2.3103840067051351e-04" rms="4.3675494194030762e-01" purity="2.9212340712547302e-01" nType="-99"/>
                  </Node>
                </Node>
                <Node pos="r" depth="5" NCoef="0" IVar="0" Cut="5.7583469152450562e-01" cType="1" res="-1.4282972551882267e-02" rms="4.1195708513259888e-01" purity="2.3896388709545135e-01" nType="0">
                  <Node pos="l" depth="6" NCoef="0" IVar="1" Cut="-4.1574910283088684e-02" cType="1" res="-5.6718904525041580e-03" rms="4.5223015546798706e-01" purity="3.0379149317741394e-01" nType="0">
                    <Node pos="l" depth="7" NCoef="0" IVar="-1" Cut="0.0000000000000000e+00" cType="1" res="1.3581918319687247e-03" rms="4.6699222922325134e-01" purity="3.4432211518287659e-01" nType="-99"/>
                    <Node pos="r" depth="7" NCoef="0" IVar="-1" Cut="0.0000000000000000e+00" cType="1" res="-1.7146223690360785e-03" rms="4.4446977972984314e-01" purity="2.8373798727989197e-01" nType="-99"/>
                  </Node>
                  <Node pos="r" depth="6" NCoef="0" IVar="-1" Cut="0.0000000000000000e+00" cType="1" res="-5.0157196819782257e-03" rms="3.4151709079742432e-01" purity="1.4063005149364471e-01" nType="-99"/>
                </Node>
              </Node>
            </Node>
          </Node>
          <Node pos="r" depth="2" NCoef="0" IVar="1" Cut="3.6713078618049622e-01" cType="1" res="5.0938087515532970e-03" rms="4.8756462335586548e-01" purity="5.0949937105178833e-01" nType="0">
            <Node pos="l" depth="3" NCoef="0" IVar="2" Cut="2.1490950012207031e+02" cType="1" res="1.4156855642795563e-02" rms="4.8913457989692688e-01" purity="5.3952097892761230e-01" nType="0">
              <Node pos="l" depth="4" NCoef="0" IVar="2" Cut="7.6856887817382812e+01" cType="1" res="2.4188837036490440e-02" rms="4.8755210638046265e-01" purity="5.5747103691101074e-01" nType="0">
                <Node pos="l" depth="5" NCoef="0" IVar="5" Cut="3.0000000000000000e+00" cType="1" res="4.1053947061300278e-02" rms="4.8217383027076721e-01" purity="5.8484894037246704e-01" nType="0">
                  <Node pos="l" depth="6" NCoef="0" IVar="-1" Cut="0.0000000000000000e+00" cType="1" res="9.4117113621905446e-04" rms="4.9014526605606079e-01" purity="5.3401482105255127e-01" nType="-99"/>
                  <Node pos="r" depth="6" NCoef="0" IVar="4" Cut="3.6700505763292313e-02" cType="1" res="5.3986918181180954e-02" rms="4.7992977499961853e-01" purity="6.0936427116394043e-01" nType="0">
                    <Node pos="l" depth="7" NCoef="0" IVar="-1" Cut="0.0000000000000000e+00" cType="1" res="2.7613863348960876e-03" rms="4.8507112264633179e-01" purity="5.8091056346893311e-01" nType="-99"/>
                    <Node pos="r" depth="7" NCoef="0" IVar="-1" Cut="0.0000000000000000e+00" cType="1" res="6.0547697357833385e-03" rms="4.7348177433013916e-01" purity="6.3876038789749146e-01" nType="-99"/>
                  </Node>
                </Node>
                <Node pos="r" depth="5" NCoef="0" IVar="4" Cut="5.2631273865699768e-02" cType="1" res="1.2795723043382168e-02" rms="4.8996022343635559e-01" purity="5.3804779052734375e-01" nType="0">
                  <Node pos="l" depth="6" NCoef="0" IVar="-1" Cut="0.0000000000000000e+00" cType="1" res="-2.2418962325900793e-03" rms="4.8986476659774780e-01" purity="4.7869202494621277e-01" nType="-99"/>
                  <Node pos="r" depth="6" NCoef="0" IVar="4" Cut="7.8751519322395325e-02" cType="1" res="3.1373526901006699e-02" rms="4.8895278573036194e-01" purity="5.6782442331314087e-01" nType="0">
                    <Node pos="l" depth="7" NCoef="0" IVar="-1" Cut="0.0000000000000000e+00" cType="1" res="1.8103928305208683e-03" rms="4.9062791466712952e-01" purity="5.4888021945953369e-01" nType="-99"/>
                    <Node pos="r" depth="7" NCoef="0" IVar="-1" Cut="0.0000000000000000e+00" cType="1" res="3.4723218996077776e-03" rms="4.8700088262557983e-01" purity="5.8709591627120972e-01" nType="-99"/>
                  </Node>
                </Node>
              </Node>
              <Node pos="r" depth="4" NCoef="0" IVar="3" Cut="7.1501010656356812e-01" cType="1" res="-1.2684566900134087e-02" rms="4.9233955144882202e-01" purity="4.9149405956268311e-01" nType="0">
                <Node pos="l" depth="5" NCoef="0" IVar="-1" Cut="0.0000000000000000e+00" cType="1" res="-1.9711451604962349e-03" rms="4.9250009655952454e-01" purity="4.5248216390609741e-01" nType="-99"/>
                <Node pos="r" depth="5" NCoef="0" IVar="-1" Cut="0.0000000000000000e+00" cType="1" res="3.2390403794124722e-04" rms="4.9162805080413818e-01" purity="5.6382876634597778e-01" nType="-99"/>
              </Node>
            </Node>
            <Node pos="r" depth="3" NCoef="0" IVar="5" Cut="3.0000000000000000e+00" cType="1" res="-2.3647679015994072e-02" rms="4.8007738590240479e-01" purity="4.0852048993110657e-01" nType="0">
              <Node pos="l" depth="4" NCoef="0" IVar="-1" Cut="0.0000000000000000e+00" cType="1" res="-5.3128683939576149e-03" rms="4.7044119238853455e-01" purity="3.5914075374603271e-01" nType="-99"/>
              <Node pos="r" depth="4" NCoef="0" IVar="-1" Cut="0.0000000000000000e+00" cType="1" res="-3.7669000448659062e-04" rms="4.8683482408523560e-01" purity="4.4180527329444885e-01" nType="-99"/>
            </Node>
          </Node>
        </Node>
        <Node pos="r" depth="1" NCoef="0" IVar="3" Cut="1.0594283342361450e+00" cType="1" res="3.9712376892566681e-02" rms="4.2959499359130859e-01" purity="7.3891717195510864e-01" nType="0">
          <Node pos="l" depth="2" NCoef="0" IVar="3" Cut="9.6696883440017700e-01" cType="1" res="4.1925609111785889e-02" rms="4.2880550026893616e-01" purity="7.4237924814224243e-01" nType="0">
            <Node pos="l" depth="3" NCoef="0" IVar="3" Cut="8.4175592660903931e-01" cType="1" res="2.9052415862679482e-02" rms="4.5602044463157654e-01" purity="6.8707835674285889e-01" nType="0">
              <Node pos="l" depth="4" NCoef="0" IVar="5" Cut="3.0000000000000000e+00" cType="1" res="2.0139239728450775e-02" rms="4.7329607605934143e-01" purity="6.3843601942062378e-01" nType="0">
                <Node pos="l" depth="5" NCoef="0" IVar="2" Cut="1.0904279327392578e+02" cType="1" res="1.1494728736579418e-02" rms="4.7806560993194580e-01" purity="6.2508261203765869e-01" nType="0">
                  <Node pos="l" depth="6" NCoef="0" IVar="4" Cut="4.1924204677343369e-02" cType="1" res="2.1765971556305885e-02" rms="4.7349411249160767e-01" purity="6.4302486181259155e-01" nType="0">
                    <Node pos="l" depth="7" NCoef="0" IVar="-1" Cut="0.0000000000000000e+00" cType="1" res="4.3919583549723029e-04" rms="4.7976294159889221e-01" purity="6.2049198150634766e-01" nType="-99"/>
                    <Node pos="r" depth="7" NCoef="0" IVar="-1" Cut="0.0000000000000000e+00" cType="1" res="3.4536907915025949e-03" rms="4.6356150507926941e-01" purity="6.7462390661239624e-01" nType="-99"/>
                  </Node>
                  <Node pos="r" depth="6" NCoef="0" IVar="3" Cut="8.0398803949356079e-01" cType="1" res="-2.1014257799834013e-03" rms="4.8371526598930359e-01" purity="6.0133242607116699e-01" nType="0">
                    <Node pos="l" depth="7" NCoef="0" IVar="-1" Cut="0.0000000000000000e+00" cType="1" res="-1.9039855105802417e-03" rms="4.9099880456924438e-01" purity="5.6583273410797119e-01" nType="-99"/>
                    <Node pos="r" depth="7" NCoef="0" IVar="-1" Cut="0.0000000000000000e+00" cType="1" res="9.6617225790396333e-04" rms="4.7841122746467590e-01" purity="6.2468349933624268e-01" nType="-99"/>
                  </Node>
                </Node>
                <Node pos="r" depth="5" NCoef="0" IVar="-1" Cut="0.0000000000000000e+00" cType="1" res="4.4608376920223236e-03" rms="4.5890006422996521e-01" purity="6.8347805738449097e-01" nType="-99"/>
              </Node>
              <Node pos="r" depth="4" NCoef="0" IVar="1" Cut="3.8308420777320862e-01" cType="1" res="3.5345781594514847e-02" rms="4.4392588734626770e-01" purity="7.1850317716598511e-01" nType="0">
                <Node pos="l" depth="5" NCoef="0" IVar="5" Cut="2.0000000000000000e+00" cType="1" res="4.4514246284961700e-02" rms="4.3422234058380127e-01" purity="7.4238616228103638e-01" nType="0">
                  <Node pos="l" depth="6" NCoef="0" IVar="-1" Cut="0.0000000000000000e+00" cType="1" res="2.7906212490051985e-03" rms="4.3529418110847473e-01" purity="7.4203145503997803e-01" nType="-99"/>
                  <Node pos="r" depth="6" NCoef="0" IVar="3" Cut="8.6192250251770020e-01" cType="1" res="4.7668874263763428e-02" rms="4.3472811579704285e-01" purity="7.4247199296951294e-01" nType="0">
                    <Node pos="l" depth="7" NCoef="0" IVar="-1" Cut="0.0000000000000000e+00" cType="1" res="2.8215062338858843e-03" rms="4.5670476555824280e-01" purity="7.0031440258026123e-01" nType="-99"/>
                    <Node pos="r" depth="7" NCoef="0" IVar="-1" Cut="0.0000000000000000e+00" cType="1" res="5.4733701981604099e-03" rms="4.2634129524230957e-01" purity="7.5774461030960083e-01" nType="-99"/>
                  </Node>
                </Node>
                <Node pos="r" depth="5" NCoef="0" IVar="3" Cut="8.7810963392257690e-01" cType="1" res="-5.2213938906788826e-03" rms="4.8160490393638611e-01" purity="6.0748451948165894e-01" nType="0">
                  <Node pos="l" depth="6" NCoef="0" IVar="-1" Cut="0.0000000000000000e+00" cType="1" res="8.5174874402582645e-04" rms="4.8213183879852295e-01" purity="6.0883557796478271e-01" nType="-99"/>
                  <Node pos="r" depth="6" NCoef="0" IVar="-1" Cut="0.0000000000000000e+00" cType="1" res="-1.8693220335990191e-03" rms="4.8065954446792603e-01" purity="6.0621786117553711e-01" nType="-99"/>
                </Node>
              </Node>
            </Node>
            <Node pos="r" depth="3" NCoef="0" IVar="3" Cut="9.9976724386215210e-01" cType="1" res="5.1728602498769760e-02" rms="4.0658879280090332e-01" purity="7.8449106216430664e-01" nType="0">
              <Node pos="l" depth="4" NCoef="0" IVar="1" Cut="7.3249198496341705e-02" cType="1" res="4.5194424688816071e-02" rms="4.1265669465065002e-01" purity="7.7468079328536987e-01" nType="0">
                <Node pos="l" depth="5" NCoef="0" IVar="3" Cut="9.9659287929534912e-01" cType="1" res="5.1044743508100510e-02" rms="3.9888718724250793e-01" purity="7.9829639196395874e-01" nType="0">
                  <Node pos="l" depth="6" NCoef="0" IVar="3" Cut="9.8990440368652344e-01" cType="1" res="5.5521268397569656e-02" rms="3.9641758799552917e-01" purity="8.0146849155426025e-01" nType="0">
                    <Node pos="l" depth="7" NCoef="0" IVar="-1" Cut="0.0000000000000000e+00" cType="1" res="5.0168647430837154e-03" rms="4.0331143140792847e-01" purity="7.9213690757751465e-01" nType="-99"/>
                    <Node pos="r" depth="7" NCoef="0" IVar="-1" Cut="0.0000000000000000e+00" cType="1" res="6.3465167768299580e-03" rms="3.8993781805038452e-01" purity="8.1000494956970215e-01" nType="-99"/>
                  </Node>
                  <Node pos="r" depth="6" NCoef="0" IVar="3" Cut="9.9833327531814575e-01" cType="1" res="4.1840635240077972e-02" rms="4.0376156568527222e-01" purity="7.9177427291870117e-01" nType="0">
                    <Node pos="l" depth="7" NCoef="0" IVar="-1" Cut="0.0000000000000000e+00" cType="1" res="3.5262638702988625e-03" rms="4.0982288122177124e-01" purity="7.8310972452163696e-01" nType="-99"/>
                    <Node pos="r" depth="7" NCoef="0" IVar="-1" Cut="0.0000000000000000e+00" cType="1" res="5.0883400253951550e-03" rms="3.9693078398704529e-01" purity="8.0115145444869995e-01" nType="-99"/>
                  </Node>
                </Node>
                <Node pos="r" depth="5" NCoef="0" IVar="3" Cut="9.9765229225158691e-01" cType="1" res="3.7946879863739014e-02" rms="4.2899185419082642e-01" purity="7.4542510509490967e-01" nType="0">
                  <Node pos="l" depth="6" NCoef="0" IVar="3" Cut="9.8875200748443604e-01" cType="1" res="3.1406693160533905e-02" rms="4.3338131904602051e-01" purity="7.3759520053863525e-01" nType="0">
                    <Node pos="l" depth="7" NCoef="0" IVar="-1" Cut="0.0000000000000000e+00" cType="1" res="3.5528587177395821e-03" rms="4.3115380406379700e-01" purity="7.3983430862426758e-01" nType="-99"/>
                    <Node pos="r" depth="7" NCoef="0" IVar="-1" Cut="0.0000000000000000e+00" cType="1" res="2.7401233091950417e-03" rms="4.3439647555351257e-01" purity="7.3653274774551392e-01" nType="-99"/>
                  </Node>
                  <Node pos="r" depth="6" NCoef="0" IVar="-1" Cut="0.0000000000000000e+00" cType="1" res="5.1593389362096786e-03" rms="4.1623988747596741e-01" purity="7.6681774854660034e-01" nType="-99"/>
                </Node>
              </Node>
              <Node pos="r" depth="4" NCoef="0" IVar="3" Cut="1.0343852043151855e+00" cType="1" res="5.8790095150470734e-02" rms="3.9980763196945190e-01" purity="7.9509299993515015e-01" nType="0">
                <Node pos="l" depth="5" NCoef="0" IVar="3" Cut="1.0042333602905273e+00" cType="1" res="6.0016684234142303e-02" rms="3.9829814434051514e-01" purity="7.9752939939498901e-01" nType="0">
                  <Node pos="l" depth="6" NCoef="0" IVar="3" Cut="1.0023602247238159e+00" cType="1" res="5.5548179894685745e-02" rms="4.0181598067283630e-01" purity="7.9228681325912476e-01" nType="0">
                    <Node pos="l" depth="7" NCoef="0" IVar="-1" Cut="0.0000000000000000e+00" cType="1" res="5.6502232328057289e-03" rms="3.9955466985702515e-01" purity="7.9547637701034546e-01" nType="-99"/>
                    <Node pos="r" depth="7" NCoef="0" IVar="-1" Cut="0.0000000000000000e+00" cType="1" res="4.3251751922070980e-03" rms="4.0754517912864685e-01" purity="7.8379833698272705e-01" nType="-99"/>
                  </Node>
                  <Node pos="r" depth="6" NCoef="0" IVar="3" Cut="1.0207656621932983e+00" cType="1" res="6.4278587698936462e-02" rms="3.9486667513847351e-01" purity="8.0252951383590698e-01" nType="0">
                    <Node pos="l" depth="7" NCoef="0" IVar="-1" Cut="0.0000000000000000e+00" cType="1" res="6.0891020111739635e-03" rms="3.9503994584083557e-01" purity="8.0235987901687622e-01" nType="-99"/>
                    <Node pos="r" depth="7" NCoef="0" IVar="-1" Cut="0.0000000000000000e+00" cType="1" res="6.3952221535146236e-03" rms="3.9436250925064087e-01" purity="8.0299800634384155e-01" nType="-99"/>
                  </Node>
                </Node>
                <Node pos="r" depth="5" NCoef="0" IVar="-1" Cut="0.0000000000000000e+00" cType="1" res="4.4873165898025036e-03" rms="4.1263952851295471e-01" purity="7.7374917268753052e-01" nType="-99"/>
              </Node>
            </Node>
          </Node>
          <Node pos="r" depth="2" NCoef="0" IVar="-1" Cut="0.0000000000000000e+00" cType="1" res="-5.2325157448649406e-03" rms="4.5221307873725891e-01" purity="5.8906126022338867e-01" nType="-99"/>
        </Node>
      </Node>
    </BinaryTree>
    <BinaryTree type="DecisionTree" boostWeight="1.0000000000000000e+00" itree="48">
      <Node pos="s" depth="0" NCoef="0" IVar="3" Cut="6.7476129531860352e-01" cType="1" res="1.0552508756518364e-02" rms="4.1390445828437805e-01" purity="4.9973329901695251e-01" nType="0">
        <Node pos="l" depth="1" NCoef="0" IVar="3" Cut="4.7890502214431763e-01" cType="1" res="-1.9486356526613235e-02" rms="3.6771729588508606e-01" purity="1.9918060302734375e-01" nType="0">
          <Node pos="l" depth="2" NCoef="0" IVar="5" Cut="3.0000000000000000e+00" cType="1" res="8.7083265185356140e-02" rms="1.5461093187332153e-01" purity="1.0378455370664597e-01" nType="0">
            <Node pos="l" depth="3" NCoef="0" IVar="-1" Cut="0.0000000000000000e+00" cType="1" res="2.9605375602841377e-03" rms="3.7727382779121399e-01" purity="1.9332560896873474e-01" nType="-99"/>
            <Node pos="r" depth="3" NCoef="0" IVar="3" Cut="3.3991211652755737e-01" cType="1" res="-3.0287435278296471e-02" rms="2.8833445906639099e-01" purity="9.8898060619831085e-02" nType="0">
              <Node pos="l" depth="4" NCoef="0" IVar="3" Cut="1.5359123051166534e-01" cType="1" res="-3.5678427666425705e-02" rms="2.5442352890968323e-01" purity="7.4590444564819336e-02" nType="0">
                <Node pos="l" depth="5" NCoef="0" IVar="5" Cut="8.0000000000000000e+00" cType="1" res="0.0000000000000000e+00" rms="5.0720334053039551e-01" purity="1.1872289329767227e-01" nType="0">
                  <Node pos="l" depth="6" NCoef="0" IVar="-1" Cut="0.0000000000000000e+00" cType="1" res="4.4038114137947559e-03" rms="3.6453467607498169e-01" purity="1.7238135635852814e-01" nType="-99"/>
                  <Node pos="r" depth="6" NCoef="0" IVar="-1" Cut="0.0000000000000000e+00" cType="1" res="-1.3755251653492451e-02" rms="2.5378760695457458e-01" purity="7.4758239090442657e-02" nType="-99"/>
                </Node>
                <Node pos="r" depth="5" NCoef="0" IVar="5" Cut="8.0000000000000000e+00" cType="1" res="-3.9591621607542038e-02" rms="2.3991481959819794e-01" purity="6.4746133983135223e-02" nType="0">
                  <Node pos="l" depth="6" NCoef="0" IVar="2" Cut="3.6870388793945312e+02" cType="1" res="-4.3675851076841354e-02" rms="2.3661074042320251e-01" purity="6.2871389091014862e-02" nType="0">
                    <Node pos="l" depth="7" NCoef="0" IVar="-1" Cut="0.0000000000000000e+00" cType="1" res="-1.4245517551898956e-02" rms="2.1917514503002167e-01" purity="5.2913043648004532e-02" nType="-99"/>
                    <Node pos="r" depth="7" NCoef="0" IVar="-1" Cut="0.0000000000000000e+00" cType="1" res="-1.2949150055646896e-02" rms="2.6576316356658936e-01" purity="8.1349447369575500e-02" nType="-99"/>
                  </Node>
                  <Node pos="r" depth="6" NCoef="0" IVar="0" Cut="1.7022535800933838e+00" cType="1" res="-2.5806803256273270e-02" rms="2.5031515955924988e-01" purity="7.1109063923358917e-02" nType="0">
                    <Node pos="l" depth="7" NCoef="0" IVar="-1" Cut="0.0000000000000000e+00" cType="1" res="1.0936611797660589e-03" rms="3.2939422130584717e-01" purity="1.2883795797824860e-01" nType="-99"/>
                    <Node pos="r" depth="7" NCoef="0" IVar="-1" Cut="0.0000000000000000e+00" cType="1" res="-1.8715213984251022e-02" rms="1.7565262317657471e-01" purity="3.2351501286029816e-02" nType="-99"/>
                  </Node>
                </Node>
              </Node>
              <Node pos="r" depth="4" NCoef="0" IVar="0" Cut="8.7333345413208008e-01" cType="1" res="-2.2871172055602074e-02" rms="3.2918334007263184e-01" purity="1.3233748078346252e-01" nType="0">
                <Node pos="l" depth="5" NCoef="0" IVar="5" Cut="6.0000000000000000e+00" cType="1" res="4.8863994888961315e-03" rms="2.3809270560741425e-01" purity="2.0323660969734192e-01" nType="0">
                  <Node pos="l" depth="6" NCoef="0" IVar="0" Cut="5.3524672985076904e-01" cType="1" res="-1.6775241121649742e-02" rms="3.9185246825218201e-01" purity="1.9702292978763580e-01" nType="0">
                    <Node pos="l" depth="7" NCoef="0" IVar="-1" Cut="0.0000000000000000e+00" cType="1" res="-7.6269143028184772e-04" rms="4.2119616270065308e-01" purity="2.3614138364791870e-01" nType="-99"/>
                    <Node pos="r" depth="7" NCoef="0" IVar="-1" Cut="0.0000000000000000e+00" cType="1" res="-5.9729614295065403e-03" rms="3.4802359342575073e-01" purity="1.4450018107891083e-01" nType="-99"/>
                  </Node>
                  <Node pos="r" depth="6" NCoef="0" IVar="-1" Cut="0.0000000000000000e+00" cType="1" res="5.2540344186127186e-03" rms="4.0284639596939087e-01" purity="2.1592375636100769e-01" nType="-99"/>
                </Node>
                <Node pos="r" depth="5" NCoef="0" IVar="2" Cut="1.5044415283203125e+02" cType="1" res="-3.8620516657829285e-02" rms="2.6992389559745789e-01" purity="8.1378489732742310e-02" nType="0">
                  <Node pos="l" depth="6" NCoef="0" IVar="4" Cut="6.0069575905799866e-02" cType="1" res="-2.4748275056481361e-02" rms="2.9085296392440796e-01" purity="9.7242370247840881e-02" nType="0">
                    <Node pos="l" depth="7" NCoef="0" IVar="-1" Cut="0.0000000000000000e+00" cType="1" res="-1.1947995983064175e-02" rms="2.5264033675193787e-01" purity="6.9439098238945007e-02" nType="-99"/>
                    <Node pos="r" depth="7" NCoef="0" IVar="-1" Cut="0.0000000000000000e+00" cType="1" res="-3.6184440250508487e-04" rms="3.3125379681587219e-01" purity="1.3218371570110321e-01" nType="-99"/>
                  </Node>
                  <Node pos="r" depth="6" NCoef="0" IVar="3" Cut="3.7127181887626648e-01" cType="1" res="-4.7926161438226700e-02" rms="2.5449994206428528e-01" purity="7.0736847817897797e-02" nType="0">
                    <Node pos="l" depth="7" NCoef="0" IVar="-1" Cut="0.0000000000000000e+00" cType="1" res="-1.0829525999724865e-02" rms="2.4855619668960571e-01" purity="6.6711574792861938e-02" nType="-99"/>
                    <Node pos="r" depth="7" NCoef="0" IVar="-1" Cut="0.0000000000000000e+00" cType="1" res="-1.3236587867140770e-02" rms="2.5707948207855225e-01" purity="7.2636157274246216e-02" nType="-99"/>
                  </Node>
                </Node>
              </Node>
            </Node>
          </Node>
          <Node pos="r" depth="2" NCoef="0" IVar="5" Cut="3.0000000000000000e+00" cType="1" res="-6.3190953806042671e-03" rms="4.5834302902221680e-01" purity="3.4593570232391357e-01" nType="0">
            <Node pos="l" depth="3" NCoef="0" IVar="3" Cut="6.1789667606353760e-01" cType="1" res="-3.1717296689748764e-02" rms="4.3934908509254456e-01" purity="2.9169455170631409e-01" nType="0">
              <Node pos="l" depth="4" NCoef="0" IVar="-1" Cut="0.0000000000000000e+00" cType="1" res="-6.5145133994519711e-03" rms="4.0833809971809387e-01" purity="2.2754184901714325e-01" nType="-99"/>
              <Node pos="r" depth="4" NCoef="0" IVar="-1" Cut="0.0000000000000000e+00" cType="1" res="-6.7979184677824378e-04" rms="4.7391006350517273e-01" purity="3.7140488624572754e-01" nType="-99"/>
            </Node>
            <Node pos="r" depth="3" NCoef="0" IVar="1" Cut="-4.6821840107440948e-02" cType="1" res="-1.6751051880419254e-03" rms="4.6191439032554626e-01" purity="3.5645946860313416e-01" nType="0">
              <Node pos="l" depth="4" NCoef="0" IVar="2" Cut="1.4666123962402344e+02" cType="1" res="2.1353745833039284e-02" rms="4.7916790843009949e-01" purity="4.2044198513031006e-01" nType="0">
                <Node pos="l" depth="5" NCoef="0" IVar="-1" Cut="0.0000000000000000e+00" cType="1" res="3.8301025051623583e-03" rms="4.8577204346656799e-01" purity="4.7609105706214905e-01" nType="-99"/>
                <Node pos="r" depth="5" NCoef="0" IVar="0" Cut="3.3819401264190674e-01" cType="1" res="4.6702595427632332e-03" rms="4.7339886426925659e-01" purity="3.7807625532150269e-01" nType="0">
                  <Node pos="l" depth="6" NCoef="0" IVar="-1" Cut="0.0000000000000000e+00" cType="1" res="1.6387255163863301e-03" rms="4.9283871054649353e-01" purity="4.5172536373138428e-01" nType="-99"/>
                  <Node pos="r" depth="6" NCoef="0" IVar="-1" Cut="0.0000000000000000e+00" cType="1" res="-1.1265515349805355e-03" rms="4.5043233036994934e-01" purity="2.9644244909286499e-01" nType="-99"/>
                </Node>
              </Node>
              <Node pos="r" depth="4" NCoef="0" IVar="3" Cut="5.7367521524429321e-01" cType="1" res="-1.2380858883261681e-02" rms="4.5327189564704895e-01" purity="3.2671502232551575e-01" nType="0">
                <Node pos="l" depth="5" NCoef="0" IVar="4" Cut="8.7294600903987885e-02" cType="1" res="-2.2531708702445030e-02" rms="4.2327198386192322e-01" purity="2.5161775946617126e-01" nType="0">
                  <Node pos="l" depth="6" NCoef="0" IVar="2" Cut="1.1523106384277344e+02" cType="1" res="-3.6854766309261322e-02" rms="3.9494836330413818e-01" purity="2.0533886551856995e-01" nType="0">
                    <Node pos="l" depth="7" NCoef="0" IVar="-1" Cut="0.0000000000000000e+00" cType="1" res="-1.9737828988581896e-03" rms="4.2647600173950195e-01" purity="2.5295469164848328e-01" nType="-99"/>
                    <Node pos="r" depth="7" NCoef="0" IVar="-1" Cut="0.0000000000000000e+00" cType="1" res="-8.9769214391708374e-03" rms="3.5738465189933777e-01" purity="1.5518604218959808e-01" nType="-99"/>
                  </Node>
                  <Node pos="r" depth="6" NCoef="0" IVar="3" Cut="5.2782934904098511e-01" cType="1" res="-8.4466757252812386e-03" rms="4.4894194602966309e-01" purity="2.9712760448455811e-01" nType="0">
                    <Node pos="l" depth="7" NCoef="0" IVar="-1" Cut="0.0000000000000000e+00" cType="1" res="-2.9149539768695831e-03" rms="4.2865067720413208e-01" purity="2.5236231088638306e-01" nType="-99"/>
                    <Node pos="r" depth="7" NCoef="0" IVar="-1" Cut="0.0000000000000000e+00" cType="1" res="1.0393031407147646e-03" rms="4.7095012664794922e-01" purity="3.4957244992256165e-01" nType="-99"/>
                  </Node>
                </Node>
                <Node pos="r" depth="5" NCoef="0" IVar="4" Cut="6.0539510101079941e-02" cType="1" res="-2.2689043544232845e-03" rms="4.8108837008476257e-01" purity="4.0152451395988464e-01" nType="0">
                  <Node pos="l" depth="6" NCoef="0" IVar="-1" Cut="0.0000000000000000e+00" cType="1" res="-1.3112770393490791e-03" rms="4.7171318531036377e-01" purity="3.6789998412132263e-01" nType="-99"/>
                  <Node pos="r" depth="6" NCoef="0" IVar="3" Cut="6.2586963176727295e-01" cType="1" res="4.4013774022459984e-03" rms="4.8651081323623657e-01" purity="4.2172080278396606e-01" nType="0">
                    <Node pos="l" depth="7" NCoef="0" IVar="-1" Cut="0.0000000000000000e+00" cType="1" res="1.1970861814916134e-03" rms="4.8082557320594788e-01" purity="4.0208259224891663e-01" nType="-99"/>
                    <Node pos="r" depth="7" NCoef="0" IVar="-1" Cut="0.0000000000000000e+00" cType="1" res="-5.1013851771131158e-04" rms="4.9312016367912292e-01" purity="4.4549670815467834e-01" nType="-99"/>
                  </Node>
                </Node>
              </Node>
            </Node>
          </Node>
        </Node>
        <Node pos="r" depth="1" NCoef="0" IVar="0" Cut="5.8072727918624878e-01" cType="1" res="3.1021440401673317e-02" rms="4.4145524501800537e-01" purity="7.0453435182571411e-01" nType="0">
          <Node pos="l" depth="2" NCoef="0" IVar="1" Cut="9.0924686193466187e-01" cType="1" res="3.3925548195838928e-02" rms="4.3989104032516479e-01" purity="7.1420472860336304e-01" nType="0">
            <Node pos="l" depth="3" NCoef="0" IVar="3" Cut="8.8552176952362061e-01" cType="1" res="3.7120774388313293e-02" rms="4.3693736195564270e-01" purity="7.2349601984024048e-01" nType="0">
              <Node pos="l" depth="4" NCoef="0" IVar="1" Cut="5.4639581590890884e-02" cType="1" res="2.4183703586459160e-02" rms="4.7289651632308960e-01" purity="6.3773143291473389e-01" nType="0">
                <Node pos="l" depth="5" NCoef="0" IVar="2" Cut="1.0174724578857422e+02" cType="1" res="3.2329805195331573e-02" rms="4.6551844477653503e-01" purity="6.6591835021972656e-01" nType="0">
                  <Node pos="l" depth="6" NCoef="0" IVar="4" Cut="4.3178409337997437e-02" cType="1" res="4.0333319455385208e-02" rms="4.5802181959152222e-01" purity="6.9066339731216431e-01" nType="0">
                    <Node pos="l" depth="7" NCoef="0" IVar="-1" Cut="0.0000000000000000e+00" cType="1" res="2.4739673826843500e-03" rms="4.5995977520942688e-01" purity="6.8213814496994019e-01" nType="-99"/>
                    <Node pos="r" depth="7" NCoef="0" IVar="-1" Cut="0.0000000000000000e+00" cType="1" res="5.1056244410574436e-03" rms="4.5340597629547119e-01" purity="7.0663058757781982e-01" nType="-99"/>
                  </Node>
                  <Node pos="r" depth="6" NCoef="0" IVar="3" Cut="7.3594820499420166e-01" cType="1" res="2.2878713905811310e-02" rms="4.7404444217681885e-01" purity="6.3669782876968384e-01" nType="0">
                    <Node pos="l" depth="7" NCoef="0" IVar="-1" Cut="0.0000000000000000e+00" cType="1" res="-3.9194881537696347e-05" rms="4.9352794885635376e-01" purity="5.4507684707641602e-01" nType="-99"/>
                    <Node pos="r" depth="7" NCoef="0" IVar="-1" Cut="0.0000000000000000e+00" cType="1" res="2.9526138678193092e-03" rms="4.6579018235206604e-01" purity="6.7294055223464966e-01" nType="-99"/>
                  </Node>
                </Node>
                <Node pos="r" depth="5" NCoef="0" IVar="0" Cut="1.6856320202350616e-01" cType="1" res="1.3758036307990551e-02" rms="4.8197370767593384e-01" purity="6.0165685415267944e-01" nType="0">
                  <Node pos="l" depth="6" NCoef="0" IVar="3" Cut="7.7674418687820435e-01" cType="1" res="2.1828109398484230e-02" rms="4.7614267468452454e-01" purity="6.4057964086532593e-01" nType="0">
                    <Node pos="l" depth="7" NCoef="0" IVar="-1" Cut="0.0000000000000000e+00" cType="1" res="6.4007204491645098e-04" rms="4.9232095479965210e-01" purity="5.7361459732055664e-01" nType="-99"/>
                    <Node pos="r" depth="7" NCoef="0" IVar="-1" Cut="0.0000000000000000e+00" cType="1" res="2.4356173817068338e-03" rms="4.6822693943977356e-01" purity="6.7193686962127686e-01" nType="-99"/>
                  </Node>
                  <Node pos="r" depth="6" NCoef="0" IVar="1" Cut="3.0270069837570190e-01" cType="1" res="-4.3741008266806602e-03" rms="4.9434423446655273e-01" purity="5.1420378684997559e-01" nType="0">
                    <Node pos="l" depth="7" NCoef="0" IVar="-1" Cut="0.0000000000000000e+00" cType="1" res="1.1302778730168939e-03" rms="4.9364691972732544e-01" purity="5.4998070001602173e-01" nType="-99"/>
                    <Node pos="r" depth="7" NCoef="0" IVar="-1" Cut="0.0000000000000000e+00" cType="1" res="-2.3733358830213547e-03" rms="4.9438315629959106e-01" purity="4.6857243776321411e-01" nType="-99"/>
                  </Node>
                </Node>
              </Node>
              <Node pos="r" depth="4" NCoef="0" IVar="0" Cut="2.4337936937808990e-01" cType="1" res="4.6147454530000687e-02" rms="4.0974164009094238e-01" purity="7.8333717584609985e-01" nType="0">
                <Node pos="l" depth="5" NCoef="0" IVar="1" Cut="3.7461814284324646e-01" cType="1" res="4.8205513507127762e-02" rms="4.0657621622085571e-01" purity="7.8895652294158936e-01" nType="0">
                  <Node pos="l" depth="6" NCoef="0" IVar="1" Cut="-3.2384556531906128e-01" cType="1" res="4.9653753638267517e-02" rms="4.0188509225845337e-01" purity="7.9620754718780518e-01" nType="0">
                    <Node pos="l" depth="7" NCoef="0" IVar="-1" Cut="0.0000000000000000e+00" cType="1" res="2.9704899061471224e-03" rms="4.1021215915679932e-01" purity="7.8421062231063843e-01" nType="-99"/>
                    <Node pos="r" depth="7" NCoef="0" IVar="-1" Cut="0.0000000000000000e+00" cType="1" res="5.1751569844782352e-03" rms="4.0145227313041687e-01" purity="7.9679727554321289e-01" nType="-99"/>
                  </Node>
                  <Node pos="r" depth="6" NCoef="0" IVar="1" Cut="5.9881418943405151e-01" cType="1" res="3.8605954498052597e-02" rms="4.3627649545669556e-01" purity="7.4089390039443970e-01" nType="0">
                    <Node pos="l" depth="7" NCoef="0" IVar="-1" Cut="0.0000000000000000e+00" cType="1" res="2.9999811667948961e-03" rms="4.3372246623039246e-01" purity="7.4655771255493164e-01" nType="-99"/>
                    <Node pos="r" depth="7" NCoef="0" IVar="-1" Cut="0.0000000000000000e+00" cType="1" res="4.3301531113684177e-03" rms="4.4022956490516663e-01" purity="7.3158669471740723e-01" nType="-99"/>
                  </Node>
                </Node>
                <Node pos="r" depth="5" NCoef="0" IVar="-1" Cut="0.0000000000000000e+00" cType="1" res="3.6299729254096746e-04" rms="4.6783134341239929e-01" purity="6.6843819618225098e-01" nType="-99"/>
              </Node>
            </Node>
            <Node pos="r" depth="3" NCoef="0" IVar="3" Cut="9.6887618303298950e-01" cType="1" res="-1.6211589798331261e-02" rms="4.8111152648925781e-01" purity="5.6841230392456055e-01" nType="0">
              <Node pos="l" depth="4" NCoef="0" IVar="-1" Cut="0.0000000000000000e+00" cType="1" res="-3.8511212915182114e-03" rms="4.9045816063880920e-01" purity="4.7700491547584534e-01" nType="-99"/>
              <Node pos="r" depth="4" NCoef="0" IVar="-1" Cut="0.0000000000000000e+00" cType="1" res="1.2212463188916445e-03" rms="4.6880766749382019e-01" purity="6.6760700941085815e-01" nType="-99"/>
            </Node>
          </Node>
          <Node pos="r" depth="2" NCoef="0" IVar="-1" Cut="0.0000000000000000e+00" cType="1" res="-5.3152730688452721e-03" rms="4.7880402207374573e-01" purity="4.0475824475288391e-01" nType="-99"/>
        </Node>
      </Node>
    </BinaryTree>
    <BinaryTree type="DecisionTree" boostWeight="1.0000000000000000e+00" itree="49">
      <Node pos="s" depth="0" NCoef="0" IVar="3" Cut="7.7301573753356934e-01" cType="1" res="9.2499870806932449e-03" rms="4.1276952624320984e-01" purity="4.9925598502159119e-01" nType="0">
        <Node pos="l" depth="1" NCoef="0" IVar="3" Cut="5.9860956668853760e-01" cType="1" res="-1.6702171415090561e-02" rms="3.9255309104919434e-01" purity="2.6339432597160339e-01" nType="0">
          <Node pos="l" depth="2" NCoef="0" IVar="4" Cut="1.5687771141529083e-01" cType="1" res="-2.4859195575118065e-02" rms="3.3875492215156555e-01" purity="1.5284304320812225e-01" nType="0">
            <Node pos="l" depth="3" NCoef="0" IVar="2" Cut="4.0828387451171875e+02" cType="1" res="-2.8979813680052757e-02" rms="3.2658436894416809e-01" purity="1.4208531379699707e-01" nType="0">
              <Node pos="l" depth="4" NCoef="0" IVar="3" Cut="3.2856428623199463e-01" cType="1" res="-2.5931803509593010e-02" rms="3.2866612076759338e-01" purity="1.4537002146244049e-01" nType="0">
                <Node pos="l" depth="5" NCoef="0" IVar="5" Cut="5.0000000000000000e+00" cType="1" res="-3.7293303757905960e-02" rms="1.9550316035747528e-01" purity="4.0756233036518097e-02" nType="0">
                  <Node pos="l" depth="6" NCoef="0" IVar="-1" Cut="0.0000000000000000e+00" cType="1" res="-6.2051666900515556e-03" rms="2.6349511742591858e-01" purity="7.6884850859642029e-02" nType="-99"/>
                  <Node pos="r" depth="6" NCoef="0" IVar="3" Cut="2.6507556438446045e-01" cType="1" res="-4.3254233896732330e-02" rms="1.6864216327667236e-01" purity="2.9606942087411880e-02" nType="0">
                    <Node pos="l" depth="7" NCoef="0" IVar="-1" Cut="0.0000000000000000e+00" cType="1" res="-2.2858666256070137e-02" rms="1.4821547269821167e-01" purity="2.2576671093702316e-02" nType="-99"/>
                    <Node pos="r" depth="7" NCoef="0" IVar="-1" Cut="0.0000000000000000e+00" cType="1" res="-1.4575954526662827e-02" rms="1.9793975353240967e-01" purity="4.1370522230863571e-02" nType="-99"/>
                  </Node>
                </Node>
                <Node pos="r" depth="5" NCoef="0" IVar="1" Cut="-1.2673285603523254e-01" cType="1" res="-2.0770357921719551e-02" rms="3.7367686629295349e-01" purity="1.9287832081317902e-01" nType="0">
                  <Node pos="l" depth="6" NCoef="0" IVar="2" Cut="1.8541569519042969e+02" cType="1" res="9.4367451965808868e-03" rms="4.1917240619659424e-01" purity="2.6747849583625793e-01" nType="0">
                    <Node pos="l" depth="7" NCoef="0" IVar="-1" Cut="0.0000000000000000e+00" cType="1" res="4.0476834401488304e-03" rms="4.3698593974113464e-01" purity="3.1421509385108948e-01" nType="-99"/>
                    <Node pos="r" depth="7" NCoef="0" IVar="-1" Cut="0.0000000000000000e+00" cType="1" res="-2.7465375605970621e-03" rms="3.9587399363517761e-01" purity="2.1365562081336975e-01" nType="-99"/>
                  </Node>
                  <Node pos="r" depth="6" NCoef="0" IVar="5" Cut="4.0000000000000000e+00" cType="1" res="-2.6202742010354996e-02" rms="3.6437636613845825e-01" purity="1.7912581562995911e-01" nType="0">
                    <Node pos="l" depth="7" NCoef="0" IVar="-1" Cut="0.0000000000000000e+00" cType="1" res="-6.8973507732152939e-03" rms="3.6485651135444641e-01" purity="1.7480906844139099e-01" nType="-99"/>
                    <Node pos="r" depth="7" NCoef="0" IVar="-1" Cut="0.0000000000000000e+00" cType="1" res="-2.9636609833687544e-03" rms="3.6384591460227966e-01" purity="1.8130227923393250e-01" nType="-99"/>
                  </Node>
                </Node>
              </Node>
              <Node pos="r" depth="4" NCoef="0" IVar="5" Cut="5.0000000000000000e+00" cType="1" res="-4.7069299966096878e-02" rms="3.1332609057426453e-01" purity="1.2257701903581619e-01" nType="0">
                <Node pos="l" depth="5" NCoef="0" IVar="-1" Cut="0.0000000000000000e+00" cType="1" res="-9.5705641433596611e-03" rms="3.4929755330085754e-01" purity="1.5357612073421478e-01" nType="-99"/>
                <Node pos="r" depth="5" NCoef="0" IVar="-1" Cut="0.0000000000000000e+00" cType="1" res="-8.7580177932977676e-03" rms="2.7531549334526062e-01" purity="9.3792669475078583e-02" nType="-99"/>
              </Node>
            </Node>
            <Node pos="r" depth="3" NCoef="0" IVar="3" Cut="4.0623679757118225e-01" cType="1" res="-1.2713715434074402e-02" rms="3.7205478549003601e-01" purity="1.8455131351947784e-01" nType="0">
              <Node pos="l" depth="4" NCoef="0" IVar="5" Cut="5.0000000000000000e+00" cType="1" res="1.1974287033081055e-01" rms="0.0000000000000000e+00" purity="1.4876106381416321e-01" nType="0">
                <Node pos="l" depth="5" NCoef="0" IVar="-1" Cut="0.0000000000000000e+00" cType="1" res="-7.7058345777913928e-04" rms="3.9873832464218140e-01" purity="2.1685382723808289e-01" nType="-99"/>
                <Node pos="r" depth="5" NCoef="0" IVar="3" Cut="2.1138420701026917e-01" cType="1" res="-2.6668597012758255e-02" rms="3.2365980744361877e-01" purity="1.2354198098182678e-01" nType="0">
                  <Node pos="l" depth="6" NCoef="0" IVar="3" Cut="1.4435790479183197e-01" cType="1" res="-4.1746336966753006e-02" rms="3.0966857075691223e-01" purity="1.1261095851659775e-01" nType="0">
                    <Node pos="l" depth="7" NCoef="0" IVar="-1" Cut="0.0000000000000000e+00" cType="1" res="-8.7120905518531799e-03" rms="3.2316011190414429e-01" purity="1.2336515635251999e-01" nType="-99"/>
                    <Node pos="r" depth="7" NCoef="0" IVar="-1" Cut="0.0000000000000000e+00" cType="1" res="-1.0059903375804424e-02" rms="2.9486668109893799e-01" purity="1.0133980959653854e-01" nType="-99"/>
                  </Node>
                  <Node pos="r" depth="6" NCoef="0" IVar="0" Cut="8.2720452547073364e-01" cType="1" res="-1.5455362387001514e-02" rms="3.3324280381202698e-01" purity="1.3167130947113037e-01" nType="0">
                    <Node pos="l" depth="7" NCoef="0" IVar="-1" Cut="0.0000000000000000e+00" cType="1" res="-5.4094434017315507e-04" rms="3.7516090273857117e-01" purity="1.7407290637493134e-01" nType="-99"/>
                    <Node pos="r" depth="7" NCoef="0" IVar="-1" Cut="0.0000000000000000e+00" cType="1" res="-7.5065130367875099e-03" rms="2.8648975491523743e-01" purity="9.0720549225807190e-02" nType="-99"/>
                  </Node>
                </Node>
              </Node>
              <Node pos="r" depth="4" NCoef="0" IVar="-1" Cut="0.0000000000000000e+00" cType="1" res="2.0154789090156555e-03" rms="4.5691475272178650e-01" purity="3.1988221406936646e-01" nType="-99"/>
            </Node>
          </Node>
          <Node pos="r" depth="2" NCoef="0" IVar="5" Cut="3.0000000000000000e+00" cType="1" res="5.5148225510492921e-04" rms="4.8456525802612305e-01" purity="4.9188983440399170e-01" nType="0">
            <Node pos="l" depth="3" NCoef="0" IVar="4" Cut="8.0269232392311096e-02" cType="1" res="-2.4441214278340340e-02" rms="4.8149976134300232e-01" purity="4.4978615641593933e-01" nType="0">
              <Node pos="l" depth="4" NCoef="0" IVar="2" Cut="7.5317565917968750e+01" cType="1" res="-3.7421427667140961e-02" rms="4.7861370444297791e-01" purity="4.2868921160697937e-01" nType="0">
                <Node pos="l" depth="5" NCoef="0" IVar="-1" Cut="0.0000000000000000e+00" cType="1" res="-9.3857618048787117e-04" rms="4.8382383584976196e-01" purity="4.7615998983383179e-01" nType="-99"/>
                <Node pos="r" depth="5" NCoef="0" IVar="-1" Cut="0.0000000000000000e+00" cType="1" res="-5.3203008137643337e-03" rms="4.7374662756919861e-01" purity="3.9331042766571045e-01" nType="-99"/>
              </Node>
              <Node pos="r" depth="4" NCoef="0" IVar="3" Cut="6.9424563646316528e-01" cType="1" res="-3.9401338435709476e-03" rms="4.8531648516654968e-01" purity="4.8310691118240356e-01" nType="0">
                <Node pos="l" depth="5" NCoef="0" IVar="-1" Cut="0.0000000000000000e+00" cType="1" res="-1.9211018225178123e-03" rms="4.8271119594573975e-01" purity="4.0355157852172852e-01" nType="-99"/>
                <Node pos="r" depth="5" NCoef="0" IVar="-1" Cut="0.0000000000000000e+00" cType="1" res="1.0034465231001377e-03" rms="4.8719671368598938e-01" purity="5.5793946981430054e-01" nType="-99"/>
              </Node>
            </Node>
            <Node pos="r" depth="3" NCoef="0" IVar="3" Cut="7.1113198995590210e-01" cType="1" res="1.2340873479843140e-02" rms="4.8590731620788574e-01" purity="5.1274347305297852e-01" nType="0">
              <Node pos="l" depth="4" NCoef="0" IVar="5" Cut="4.0000000000000000e+00" cType="1" res="5.8708633296191692e-03" rms="4.8706206679344177e-01" purity="4.6947532892227173e-01" nType="0">
                <Node pos="l" depth="5" NCoef="0" IVar="4" Cut="6.0582816600799561e-02" cType="1" res="-5.8872653171420097e-03" rms="4.8753005266189575e-01" purity="4.5455095171928406e-01" nType="0">
                  <Node pos="l" depth="6" NCoef="0" IVar="-1" Cut="0.0000000000000000e+00" cType="1" res="-1.9490236882120371e-03" rms="4.8347690701484680e-01" purity="4.2052027583122253e-01" nType="-99"/>
                  <Node pos="r" depth="6" NCoef="0" IVar="2" Cut="1.6145785522460938e+02" cType="1" res="4.0780329145491123e-03" rms="4.8986592888832092e-01" purity="4.7648298740386963e-01" nType="0">
                    <Node pos="l" depth="7" NCoef="0" IVar="-1" Cut="0.0000000000000000e+00" cType="1" res="2.1109776571393013e-03" rms="4.9027183651924133e-01" purity="5.3356534242630005e-01" nType="-99"/>
                    <Node pos="r" depth="7" NCoef="0" IVar="-1" Cut="0.0000000000000000e+00" cType="1" res="-9.5371581846848130e-04" rms="4.8906663060188293e-01" purity="4.4009572267532349e-01" nType="-99"/>
                  </Node>
                </Node>
                <Node pos="r" depth="5" NCoef="0" IVar="2" Cut="1.3965525817871094e+02" cType="1" res="2.4418676272034645e-02" rms="4.8926332592964172e-01" purity="4.9758717417716980e-01" nType="0">
                  <Node pos="l" depth="6" NCoef="0" IVar="-1" Cut="0.0000000000000000e+00" cType="1" res="4.6320129185914993e-03" rms="4.8952764272689819e-01" purity="5.4662102460861206e-01" nType="-99"/>
                  <Node pos="r" depth="6" NCoef="0" IVar="-1" Cut="0.0000000000000000e+00" cType="1" res="-4.8854306805878878e-04" rms="4.8723411560058594e-01" purity="4.4665727019309998e-01" nType="-99"/>
                </Node>
              </Node>
              <Node pos="r" depth="4" NCoef="0" IVar="4" Cut="4.3756816536188126e-02" cType="1" res="2.8991619125008583e-02" rms="4.8018437623977661e-01" purity="6.0608410835266113e-01" nType="0">
                <Node pos="l" depth="5" NCoef="0" IVar="-1" Cut="0.0000000000000000e+00" cType="1" res="-5.6868983665481210e-04" rms="4.8730269074440002e-01" purity="5.6875479221343994e-01" nType="-99"/>
                <Node pos="r" depth="5" NCoef="0" IVar="-1" Cut="0.0000000000000000e+00" cType="1" res="4.3579391203820705e-03" rms="4.7476616501808167e-01" purity="6.2784540653228760e-01" nType="-99"/>
              </Node>
            </Node>
          </Node>
        </Node>
        <Node pos="r" depth="1" NCoef="0" IVar="3" Cut="1.0595389604568481e+00" cType="1" res="3.5452768206596375e-02" rms="4.3063911795616150e-01" purity="7.3739546537399292e-01" nType="0">
          <Node pos="l" depth="2" NCoef="0" IVar="0" Cut="5.5945098400115967e-01" cType="1" res="3.7605825811624527e-02" rms="4.2991816997528076e-01" purity="7.4085932970046997e-01" nType="0">
            <Node pos="l" depth="3" NCoef="0" IVar="1" Cut="5.3110039234161377e-01" cType="1" res="3.9310153573751450e-02" rms="4.2809620499610901e-01" purity="7.4815005064010620e-01" nType="0">
              <Node pos="l" depth="4" NCoef="0" IVar="3" Cut="8.8392609357833862e-01" cType="1" res="4.3244872242212296e-02" rms="4.2134413123130798e-01" purity="7.6288443803787231e-01" nType="0">
                <Node pos="l" depth="5" NCoef="0" IVar="3" Cut="7.8732830286026001e-01" cType="1" res="3.0669506639242172e-02" rms="4.5952314138412476e-01" purity="6.9148743152618408e-01" nType="0">
                  <Node pos="l" depth="6" NCoef="0" IVar="-1" Cut="0.0000000000000000e+00" cType="1" res="3.8424122612923384e-04" rms="4.7984996438026428e-01" purity="6.3142132759094238e-01" nType="-99"/>
                  <Node pos="r" depth="6" NCoef="0" IVar="2" Cut="1.8660522460937500e+02" cType="1" res="3.3735021948814392e-02" rms="4.5699745416641235e-01" purity="6.9848597049713135e-01" nType="0">
                    <Node pos="l" depth="7" NCoef="0" IVar="-1" Cut="0.0000000000000000e+00" cType="1" res="2.6934596244245768e-03" rms="4.5572343468666077e-01" purity="7.0073419809341431e-01" nType="-99"/>
                    <Node pos="r" depth="7" NCoef="0" IVar="-1" Cut="0.0000000000000000e+00" cType="1" res="4.9674296751618385e-03" rms="4.6390241384506226e-01" purity="6.8531668186187744e-01" nType="-99"/>
                  </Node>
                </Node>
                <Node pos="r" depth="5" NCoef="0" IVar="3" Cut="9.9722605943679810e-01" cType="1" res="4.8612236976623535e-02" rms="4.0383225679397583e-01" purity="7.9335790872573853e-01" nType="0">
                  <Node pos="l" depth="6" NCoef="0" IVar="3" Cut="8.9490652084350586e-01" cType="1" res="4.3048597872257233e-02" rms="4.1381627321243286e-01" purity="7.7906012535095215e-01" nType="0">
                    <Node pos="l" depth="7" NCoef="0" IVar="-1" Cut="0.0000000000000000e+00" cType="1" res="6.3661327585577965e-03" rms="4.1650295257568359e-01" purity="7.7597618103027344e-01" nType="-99"/>
                    <Node pos="r" depth="7" NCoef="0" IVar="-1" Cut="0.0000000000000000e+00" cType="1" res="4.2605674825608730e-03" rms="4.1348969936370850e-01" purity="7.7938222885131836e-01" nType="-99"/>
                  </Node>
                  <Node pos="r" depth="6" NCoef="0" IVar="3" Cut="1.0012457370758057e+00" cType="1" res="5.4085824638605118e-02" rms="3.9368614554405212e-01" purity="8.0742418766021729e-01" nType="0">
                    <Node pos="l" depth="7" NCoef="0" IVar="-1" Cut="0.0000000000000000e+00" cType="1" res="4.9623381346464157e-03" rms="3.9855289459228516e-01" purity="8.0100166797637939e-01" nType="-99"/>
                    <Node pos="r" depth="7" NCoef="0" IVar="-1" Cut="0.0000000000000000e+00" cType="1" res="5.6645236909389496e-03" rms="3.9067843556404114e-01" purity="8.1132042407989502e-01" nType="-99"/>
                  </Node>
                </Node>
              </Node>
              <Node pos="r" depth="4" NCoef="0" IVar="3" Cut="9.9476563930511475e-01" cType="1" res="1.2323947623372078e-02" rms="4.7092315554618835e-01" purity="6.4709424972534180e-01" nType="0">
                <Node pos="l" depth="5" NCoef="0" IVar="3" Cut="8.9462333917617798e-01" cType="1" res="-7.3456182144582272e-03" rms="4.8841264843940735e-01" purity="5.8883851766586304e-01" nType="0">
                  <Node pos="l" depth="6" NCoef="0" IVar="-1" Cut="0.0000000000000000e+00" cType="1" res="3.4055198193527758e-04" rms="4.9104598164558411e-01" purity="5.7152444124221802e-01" nType="-99"/>
                  <Node pos="r" depth="6" NCoef="0" IVar="-1" Cut="0.0000000000000000e+00" cType="1" res="-2.5153697934001684e-03" rms="4.8309037089347839e-01" purity="6.1926704645156860e-01" nType="-99"/>
                </Node>
                <Node pos="r" depth="5" NCoef="0" IVar="3" Cut="1.0010256767272949e+00" cType="1" res="3.6147419363260269e-02" rms="4.4767269492149353e-01" purity="7.1765267848968506e-01" nType="0">
                  <Node pos="l" depth="6" NCoef="0" IVar="-1" Cut="0.0000000000000000e+00" cType="1" res="1.5939077129587531e-03" rms="4.5671945810317993e-01" purity="6.9750171899795532e-01" nType="-99"/>
                  <Node pos="r" depth="6" NCoef="0" IVar="-1" Cut="0.0000000000000000e+00" cType="1" res="4.5945462770760059e-03" rms="4.3688109517097473e-01" purity="7.3940408229827881e-01" nType="-99"/>
                </Node>
              </Node>
            </Node>
            <Node pos="r" depth="3" NCoef="0" IVar="-1" Cut="0.0000000000000000e+00" cType="1" res="-2.2639245726168156e-03" rms="4.8913669586181641e-01" purity="4.6747833490371704e-01" nType="-99"/>
          </Node>
          <Node pos="r" depth="2" NCoef="0" IVar="-1" Cut="0.0000000000000000e+00" cType="1" res="-4.9520153552293777e-03" rms="4.5058405399322510e-01" purity="5.9356886148452759e-01" nType="-99"/>
        </Node>
      </Node>
    </BinaryTree>
    <BinaryTree type="DecisionTree" boostWeight="1.0000000000000000e+00" itree="50">
      <Node pos="s" depth="0" NCoef="0" IVar="3" Cut="6.7608582973480225e-01" cType="1" res="9.7563331946730614e-03" rms="4.1267609596252441e-01" purity="4.9930483102798462e-01" nType="0">
        <Node pos="l" depth="1" NCoef="0" IVar="3" Cut="4.7984704375267029e-01" cType="1" res="-1.8944298848509789e-02" rms="3.6603820323944092e-01" purity="1.9790633022785187e-01" nType="0">
          <Node pos="l" depth="2" NCoef="0" IVar="4" Cut="2.4734622240066528e-01" cType="1" res="-2.6247806847095490e-02" rms="2.9179370403289795e-01" purity="1.0284421592950821e-01" nType="0">
            <Node pos="l" depth="3" NCoef="0" IVar="4" Cut="1.6766460239887238e-01" cType="1" res="-2.9215883463621140e-02" rms="2.7813148498535156e-01" purity="9.1332420706748962e-02" nType="0">
              <Node pos="l" depth="4" NCoef="0" IVar="2" Cut="5.3328417968750000e+02" cType="1" res="-3.3374156802892685e-02" rms="2.5633600354194641e-01" purity="7.5230970978736877e-02" nType="0">
                <Node pos="l" depth="5" NCoef="0" IVar="2" Cut="5.1838909149169922e+01" cType="1" res="-3.1802061945199966e-02" rms="2.5669026374816895e-01" purity="7.5569860637187958e-02" nType="0">
                  <Node pos="l" depth="6" NCoef="0" IVar="-1" Cut="0.0000000000000000e+00" cType="1" res="-3.5531134344637394e-03" rms="2.8481429815292358e-01" purity="9.4269387423992157e-02" nType="-99"/>
                  <Node pos="r" depth="6" NCoef="0" IVar="4" Cut="8.1004127860069275e-02" cType="1" res="-3.3575300127267838e-02" rms="2.5395101308822632e-01" purity="7.3899418115615845e-02" nType="0">
                    <Node pos="l" depth="7" NCoef="0" IVar="-1" Cut="0.0000000000000000e+00" cType="1" res="-1.4285220764577389e-02" rms="2.1381475031375885e-01" purity="4.9606852233409882e-02" nType="-99"/>
                    <Node pos="r" depth="7" NCoef="0" IVar="-1" Cut="0.0000000000000000e+00" cType="1" res="-7.6487516053020954e-03" rms="2.7803802490234375e-01" purity="9.0584732592105865e-02" nType="-99"/>
                  </Node>
                </Node>
                <Node pos="r" depth="5" NCoef="0" IVar="-1" Cut="0.0000000000000000e+00" cType="1" res="-1.2883272022008896e-02" rms="2.5096306204795837e-01" purity="7.0944368839263916e-02" nType="-99"/>
              </Node>
              <Node pos="r" depth="4" NCoef="0" IVar="3" Cut="3.7146574258804321e-01" cType="1" res="-1.2883501127362251e-02" rms="3.5039401054382324e-01" purity="1.5457375347614288e-01" nType="0">
                <Node pos="l" depth="5" NCoef="0" IVar="2" Cut="3.9504635620117188e+02" cType="1" res="-2.3072818294167519e-02" rms="3.1541678309440613e-01" purity="1.1719584465026855e-01" nType="0">
                  <Node pos="l" depth="6" NCoef="0" IVar="-1" Cut="0.0000000000000000e+00" cType="1" res="-3.0630745459347963e-04" rms="3.4094136953353882e-01" purity="1.4221373200416565e-01" nType="-99"/>
                  <Node pos="r" depth="6" NCoef="0" IVar="3" Cut="2.6365813612937927e-01" cType="1" res="-3.5972543060779572e-02" rms="2.9848676919937134e-01" purity="1.0234228521585464e-01" nType="0">
                    <Node pos="l" depth="7" NCoef="0" IVar="-1" Cut="0.0000000000000000e+00" cType="1" res="-6.6418098285794258e-03" rms="2.9531380534172058e-01" purity="1.0155706107616425e-01" nType="-99"/>
                    <Node pos="r" depth="7" NCoef="0" IVar="-1" Cut="0.0000000000000000e+00" cType="1" res="-1.0255252011120319e-02" rms="3.0148172378540039e-01" purity="1.0318721830844879e-01" nType="-99"/>
                  </Node>
                </Node>
                <Node pos="r" depth="5" NCoef="0" IVar="-1" Cut="0.0000000000000000e+00" cType="1" res="2.1582872141152620e-03" rms="4.3359836935997009e-01" purity="2.6109963655471802e-01" nType="-99"/>
              </Node>
            </Node>
            <Node pos="r" depth="3" NCoef="0" IVar="5" Cut="7.0000000000000000e+00" cType="1" res="4.0826490148901939e-03" rms="4.0460148453712463e-01" purity="2.2048212587833405e-01" nType="0">
              <Node pos="l" depth="4" NCoef="0" IVar="-1" Cut="0.0000000000000000e+00" cType="1" res="2.4200093466788530e-03" rms="4.3145373463630676e-01" purity="2.6758092641830444e-01" nType="-99"/>
              <Node pos="r" depth="4" NCoef="0" IVar="-1" Cut="0.0000000000000000e+00" cType="1" res="-1.7372568836435676e-03" rms="3.7577718496322632e-01" purity="1.7408102750778198e-01" nType="-99"/>
            </Node>
          </Node>
          <Node pos="r" depth="2" NCoef="0" IVar="5" Cut="3.0000000000000000e+00" cType="1" res="-7.5129321776330471e-03" rms="4.5751479268074036e-01" purity="3.4500825405120850e-01" nType="0">
            <Node pos="l" depth="3" NCoef="0" IVar="4" Cut="7.9426690936088562e-02" cType="1" res="-3.9262712001800537e-02" rms="4.3590974807739258e-01" purity="2.8028032183647156e-01" nType="0">
              <Node pos="l" depth="4" NCoef="0" IVar="-1" Cut="0.0000000000000000e+00" cType="1" res="-7.8892549499869347e-03" rms="4.0270254015922546e-01" purity="2.1514301002025604e-01" nType="-99"/>
              <Node pos="r" depth="4" NCoef="0" IVar="-1" Cut="0.0000000000000000e+00" cType="1" res="-2.2436212748289108e-03" rms="4.5885032415390015e-01" purity="3.3001050353050232e-01" nType="-99"/>
            </Node>
            <Node pos="r" depth="3" NCoef="0" IVar="2" Cut="1.4579931640625000e+02" cType="1" res="-1.3552379095926881e-03" rms="4.6147239208221436e-01" purity="3.5787889361381531e-01" nType="0">
              <Node pos="l" depth="4" NCoef="0" IVar="2" Cut="1.1777333068847656e+02" cType="1" res="1.5787741169333458e-02" rms="4.7168743610382080e-01" purity="3.9945331215858459e-01" nType="0">
                <Node pos="l" depth="5" NCoef="0" IVar="4" Cut="6.5512105822563171e-02" cType="1" res="2.5326158851385117e-02" rms="4.7366136312484741e-01" purity="4.1110202670097351e-01" nType="0">
                  <Node pos="l" depth="6" NCoef="0" IVar="2" Cut="5.3742420196533203e+01" cType="1" res="7.3564755730330944e-03" rms="4.6613594889640808e-01" purity="3.7295022606849670e-01" nType="0">
                    <Node pos="l" depth="7" NCoef="0" IVar="-1" Cut="0.0000000000000000e+00" cType="1" res="3.3614560961723328e-03" rms="4.7635933756828308e-01" purity="4.1176033020019531e-01" nType="-99"/>
                    <Node pos="r" depth="7" NCoef="0" IVar="-1" Cut="0.0000000000000000e+00" cType="1" res="-1.8119446467608213e-03" rms="4.5541796088218689e-01" purity="3.3837467432022095e-01" nType="-99"/>
                  </Node>
                  <Node pos="r" depth="6" NCoef="0" IVar="-1" Cut="0.0000000000000000e+00" cType="1" res="5.0041126087307930e-03" rms="4.8557567596435547e-01" purity="4.8200839757919312e-01" nType="-99"/>
                </Node>
                <Node pos="r" depth="5" NCoef="0" IVar="-1" Cut="0.0000000000000000e+00" cType="1" res="-2.2955082822591066e-03" rms="4.6171599626541138e-01" purity="3.5275614261627197e-01" nType="-99"/>
              </Node>
              <Node pos="r" depth="4" NCoef="0" IVar="4" Cut="1.0214958339929581e-01" cType="1" res="-1.4593997970223427e-02" rms="4.5298254489898682e-01" purity="3.2577282190322876e-01" nType="0">
                <Node pos="l" depth="5" NCoef="0" IVar="0" Cut="3.8966616988182068e-01" cType="1" res="-2.6387438178062439e-02" rms="4.3702176213264465e-01" purity="2.9224938154220581e-01" nType="0">
                  <Node pos="l" depth="6" NCoef="0" IVar="-1" Cut="0.0000000000000000e+00" cType="1" res="-2.9479982913471758e-04" rms="4.8352086544036865e-01" purity="4.0278628468513489e-01" nType="-99"/>
                  <Node pos="r" depth="6" NCoef="0" IVar="2" Cut="2.3528846740722656e+02" cType="1" res="-4.4377051293849945e-02" rms="3.9658322930335999e-01" purity="2.0711919665336609e-01" nType="0">
                    <Node pos="l" depth="7" NCoef="0" IVar="-1" Cut="0.0000000000000000e+00" cType="1" res="-3.3358426298946142e-03" rms="4.1242143511772156e-01" purity="2.3333738744258881e-01" nType="-99"/>
                    <Node pos="r" depth="7" NCoef="0" IVar="-1" Cut="0.0000000000000000e+00" cType="1" res="-8.5274390876293182e-03" rms="3.8029575347900391e-01" purity="1.8254305422306061e-01" nType="-99"/>
                  </Node>
                </Node>
                <Node pos="r" depth="5" NCoef="0" IVar="3" Cut="5.3684157133102417e-01" cType="1" res="-1.9087071996182203e-03" rms="4.6921432018280029e-01" purity="3.6183139681816101e-01" nType="0">
                  <Node pos="l" depth="6" NCoef="0" IVar="-1" Cut="0.0000000000000000e+00" cType="1" res="-1.9742790609598160e-03" rms="4.4289511442184448e-01" purity="2.7950686216354370e-01" nType="-99"/>
                  <Node pos="r" depth="6" NCoef="0" IVar="5" Cut="4.0000000000000000e+00" cType="1" res="8.2659814506769180e-03" rms="4.8440885543823242e-01" purity="4.1302978992462158e-01" nType="0">
                    <Node pos="l" depth="7" NCoef="0" IVar="-1" Cut="0.0000000000000000e+00" cType="1" res="-5.5611092830076814e-04" rms="4.8245072364807129e-01" purity="3.9896661043167114e-01" nType="-99"/>
                    <Node pos="r" depth="7" NCoef="0" IVar="-1" Cut="0.0000000000000000e+00" cType="1" res="2.2213272750377655e-03" rms="4.8670458793640137e-01" purity="4.2954334616661072e-01" nType="-99"/>
                  </Node>
                </Node>
              </Node>
            </Node>
          </Node>
        </Node>
        <Node pos="r" depth="1" NCoef="0" IVar="0" Cut="7.8209787607192993e-01" cType="1" res="2.9374957084655762e-02" rms="4.4065734744071960e-01" purity="7.0532900094985962e-01" nType="0">
          <Node pos="l" depth="2" NCoef="0" IVar="0" Cut="2.5217374786734581e-02" cType="1" res="3.2063554972410202e-02" rms="4.3975374102592468e-01" purity="7.1292364597320557e-01" nType="0">
            <Node pos="l" depth="3" NCoef="0" IVar="3" Cut="9.0036702156066895e-01" cType="1" res="3.7491954863071442e-02" rms="4.3027940392494202e-01" purity="7.4190765619277954e-01" nType="0">
              <Node pos="l" depth="4" NCoef="0" IVar="1" Cut="5.4414439946413040e-02" cType="1" res="2.5768840685486794e-02" rms="4.6389392018318176e-01" purity="6.7156982421875000e-01" nType="0">
                <Node pos="l" depth="5" NCoef="0" IVar="3" Cut="7.7014756202697754e-01" cType="1" res="0.0000000000000000e+00" rms="0.0000000000000000e+00" purity="7.0649409294128418e-01" nType="0">
                  <Node pos="l" depth="6" NCoef="0" IVar="4" Cut="7.6655752956867218e-02" cType="1" res="0.0000000000000000e+00" rms="0.0000000000000000e+00" purity="6.2740337848663330e-01" nType="0">
                    <Node pos="l" depth="7" NCoef="0" IVar="-1" Cut="0.0000000000000000e+00" cType="1" res="5.8870372595265508e-04" rms="4.8077252507209778e-01" purity="6.2749916315078735e-01" nType="-99"/>
                    <Node pos="r" depth="7" NCoef="0" IVar="-1" Cut="0.0000000000000000e+00" cType="1" res="2.4958986323326826e-03" rms="4.8094516992568970e-01" purity="6.2728840112686157e-01" nType="-99"/>
                  </Node>
                  <Node pos="r" depth="6" NCoef="0" IVar="1" Cut="-2.1980798244476318e-01" cType="1" res="0.0000000000000000e+00" rms="0.0000000000000000e+00" purity="7.3377448320388794e-01" nType="0">
                    <Node pos="l" depth="7" NCoef="0" IVar="-1" Cut="0.0000000000000000e+00" cType="1" res="2.3662154562771320e-03" rms="4.5049613714218140e-01" purity="7.1666878461837769e-01" nType="-99"/>
                    <Node pos="r" depth="7" NCoef="0" IVar="-1" Cut="0.0000000000000000e+00" cType="1" res="4.2020040564239025e-03" rms="4.3810585141181946e-01" purity="7.3820465803146362e-01" nType="-99"/>
                  </Node>
                </Node>
                <Node pos="r" depth="5" NCoef="0" IVar="3" Cut="7.2673666477203369e-01" cType="1" res="1.4835598878562450e-02" rms="4.7771209478378296e-01" purity="6.3075411319732666e-01" nType="0">
                  <Node pos="l" depth="6" NCoef="0" IVar="-1" Cut="0.0000000000000000e+00" cType="1" res="-8.9230932644568384e-05" rms="4.9661803245544434e-01" purity="5.3139603137969971e-01" nType="-99"/>
                  <Node pos="r" depth="6" NCoef="0" IVar="4" Cut="5.9531044214963913e-02" cType="1" res="1.7095157876610756e-02" rms="4.7492265701293945e-01" purity="6.4486581087112427e-01" nType="0">
                    <Node pos="l" depth="7" NCoef="0" IVar="-1" Cut="0.0000000000000000e+00" cType="1" res="1.0740942088887095e-03" rms="4.7328895330429077e-01" purity="6.5051883459091187e-01" nType="-99"/>
                    <Node pos="r" depth="7" NCoef="0" IVar="-1" Cut="0.0000000000000000e+00" cType="1" res="2.6054990012198687e-03" rms="4.7953084111213684e-01" purity="6.2773644924163818e-01" nType="-99"/>
                  </Node>
                </Node>
              </Node>
              <Node pos="r" depth="4" NCoef="0" IVar="3" Cut="9.6788948774337769e-01" cType="1" res="4.4872675091028214e-02" rms="4.0752393007278442e-01" purity="7.8619146347045898e-01" nType="0">
                <Node pos="l" depth="5" NCoef="0" IVar="5" Cut="2.0000000000000000e+00" cType="1" res="3.7241373211145401e-02" rms="4.2722836136817932e-01" purity="7.5473105907440186e-01" nType="0">
                  <Node pos="l" depth="6" NCoef="0" IVar="-1" Cut="0.0000000000000000e+00" cType="1" res="2.0930846221745014e-03" rms="4.3438577651977539e-01" purity="7.4117767810821533e-01" nType="-99"/>
                  <Node pos="r" depth="6" NCoef="0" IVar="-1" Cut="0.0000000000000000e+00" cType="1" res="5.8689829893410206e-03" rms="4.1915452480316162e-01" purity="7.6879113912582397e-01" nType="-99"/>
                </Node>
                <Node pos="r" depth="5" NCoef="0" IVar="1" Cut="-1.5643326565623283e-02" cType="1" res="4.5997049659490585e-02" rms="4.0453746914863586e-01" purity="7.9080414772033691e-01" nType="0">
                  <Node pos="l" depth="6" NCoef="0" IVar="1" Cut="-2.5823932886123657e-01" cType="1" res="4.8751741647720337e-02" rms="3.9204615354537964e-01" purity="8.0940628051757812e-01" nType="0">
                    <Node pos="l" depth="7" NCoef="0" IVar="-1" Cut="0.0000000000000000e+00" cType="1" res="2.2978095803409815e-03" rms="4.1255831718444824e-01" purity="7.8183674812316895e-01" nType="-99"/>
                    <Node pos="r" depth="7" NCoef="0" IVar="-1" Cut="0.0000000000000000e+00" cType="1" res="5.6397621519863605e-03" rms="3.8744607567787170e-01" purity="8.1513971090316772e-01" nType="-99"/>
                  </Node>
                  <Node pos="r" depth="6" NCoef="0" IVar="3" Cut="1.0287069082260132e+00" cType="1" res="4.3840534985065460e-02" rms="4.1404062509536743e-01" purity="7.7624148130416870e-01" nType="0">
                    <Node pos="l" depth="7" NCoef="0" IVar="-1" Cut="0.0000000000000000e+00" cType="1" res="4.2950371280312538e-03" rms="4.1302269697189331e-01" purity="7.7841842174530029e-01" nType="-99"/>
                    <Node pos="r" depth="7" NCoef="0" IVar="-1" Cut="0.0000000000000000e+00" cType="1" res="3.8175268564373255e-03" rms="4.2349845170974731e-01" purity="7.5574469566345215e-01" nType="-99"/>
                  </Node>
                </Node>
              </Node>
            </Node>
            <Node pos="r" depth="3" NCoef="0" IVar="2" Cut="1.6113298034667969e+02" cType="1" res="4.5282468199729919e-03" rms="4.8403280973434448e-01" purity="5.6590372323989868e-01" nType="0">
              <Node pos="l" depth="4" NCoef="0" IVar="4" Cut="4.1817441582679749e-02" cType="1" res="1.1477637104690075e-02" rms="4.8122143745422363e-01" purity="5.8974069356918335e-01" nType="0">
                <Node pos="l" depth="5" NCoef="0" IVar="2" Cut="6.2365516662597656e+01" cType="1" res="-9.8914443515241146e-04" rms="4.7824847698211670e-01" purity="5.9200865030288696e-01" nType="0">
                  <Node pos="l" depth="6" NCoef="0" IVar="3" Cut="8.5158306360244751e-01" cType="1" res="1.4967142604291439e-02" rms="4.7195136547088623e-01" purity="6.2953573465347290e-01" nType="0">
                    <Node pos="l" depth="7" NCoef="0" IVar="-1" Cut="0.0000000000000000e+00" cType="1" res="3.4137137117795646e-04" rms="4.8780867457389832e-01" purity="5.4588353633880615e-01" nType="-99"/>
                    <Node pos="r" depth="7" NCoef="0" IVar="-1" Cut="0.0000000000000000e+00" cType="1" res="1.9837475847452879e-03" rms="4.6150586009025574e-01" purity="6.8242812156677246e-01" nType="-99"/>
                  </Node>
                  <Node pos="r" depth="6" NCoef="0" IVar="-1" Cut="0.0000000000000000e+00" cType="1" res="-3.9585139602422714e-03" rms="4.9180424213409424e-01" purity="4.9464470148086548e-01" nType="-99"/>
                </Node>
                <Node pos="r" depth="5" NCoef="0" IVar="0" Cut="3.2559144496917725e-01" cType="1" res="3.9449013769626617e-02" rms="4.8666512966156006e-01" purity="5.8465218544006348e-01" nType="0">
                  <Node pos="l" depth="6" NCoef="0" IVar="-1" Cut="0.0000000000000000e+00" cType="1" res="2.9352125711739063e-03" rms="4.8191487789154053e-01" purity="6.0684788227081299e-01" nType="-99"/>
                  <Node pos="r" depth="6" NCoef="0" IVar="-1" Cut="0.0000000000000000e+00" cType="1" res="3.6732924636453390e-03" rms="4.9140223860740662e-01" purity="5.6180369853973389e-01" nType="-99"/>
                </Node>
              </Node>
              <Node pos="r" depth="4" NCoef="0" IVar="0" Cut="3.0601486563682556e-01" cType="1" res="-1.8274165689945221e-02" rms="4.9245670437812805e-01" purity="4.8768952488899231e-01" nType="0">
                <Node pos="l" depth="5" NCoef="0" IVar="-1" Cut="0.0000000000000000e+00" cType="1" res="-1.6596031491644681e-04" rms="4.9152940511703491e-01" purity="5.4060816764831543e-01" nType="-99"/>
                <Node pos="r" depth="5" NCoef="0" IVar="-1" Cut="0.0000000000000000e+00" cType="1" res="-3.1812516972422600e-03" rms="4.9282854795455933e-01" purity="4.3570041656494141e-01" nType="-99"/>
              </Node>
            </Node>
          </Node>
          <Node pos="r" depth="2" NCoef="0" IVar="-1" Cut="0.0000000000000000e+00" cType="1" res="-9.7567308694124222e-03" rms="4.6421137452125549e-01" purity="3.2905843853950500e-01" nType="-99"/>
        </Node>
      </Node>
    </BinaryTree>
    <BinaryTree type="DecisionTree" boostWeight="1.0000000000000000e+00" itree="51">
      <Node pos="s" depth="0" NCoef="0" IVar="3" Cut="6.7654424905776978e-01" cType="1" res="9.2330127954483032e-03" rms="4.1206163167953491e-01" purity="4.9896764755249023e-01" nType="0">
        <Node pos="l" depth="1" NCoef="0" IVar="1" Cut="7.5091958045959473e-01" cType="1" res="-2.0269157364964485e-02" rms="3.6545929312705994e-01" purity="1.9522123038768768e-01" nType="0">
          <Node pos="l" depth="2" NCoef="0" IVar="3" Cut="1.3154558837413788e-01" cType="1" res="-1.4727842994034290e-02" rms="3.8465744256973267e-01" purity="2.2175212204456329e-01" nType="0">
            <Node pos="l" depth="3" NCoef="0" IVar="-1" Cut="0.0000000000000000e+00" cType="1" res="3.5475874319672585e-03" rms="3.8715383410453796e-01" purity="2.0566651225090027e-01" nType="-99"/>
            <Node pos="r" depth="3" NCoef="0" IVar="0" Cut="1.1794706583023071e+00" cType="1" res="-1.5976272523403168e-02" rms="3.8450902700424194e-01" purity="2.2232994437217712e-01" nType="0">
              <Node pos="l" depth="4" NCoef="0" IVar="0" Cut="4.9461111426353455e-01" cType="1" res="-6.4668352715671062e-03" rms="4.3081295490264893e-01" purity="2.8908467292785645e-01" nType="0">
                <Node pos="l" depth="5" NCoef="0" IVar="1" Cut="-2.3833039402961731e-01" cType="1" res="2.9548897873610258e-03" rms="4.6741959452629089e-01" purity="3.7027952075004578e-01" nType="0">
                  <Node pos="l" depth="6" NCoef="0" IVar="-1" Cut="0.0000000000000000e+00" cType="1" res="3.5025589168071747e-03" rms="4.7221320867538452e-01" purity="4.1354122757911682e-01" nType="-99"/>
                  <Node pos="r" depth="6" NCoef="0" IVar="4" Cut="1.5786878764629364e-01" cType="1" res="-8.9200190268456936e-04" rms="4.6670806407928467e-01" purity="3.6526399850845337e-01" nType="0">
                    <Node pos="l" depth="7" NCoef="0" IVar="-1" Cut="0.0000000000000000e+00" cType="1" res="-6.2068074475973845e-04" rms="4.7454938292503357e-01" purity="3.9177843928337097e-01" nType="-99"/>
                    <Node pos="r" depth="7" NCoef="0" IVar="-1" Cut="0.0000000000000000e+00" cType="1" res="2.0855141337960958e-03" rms="4.4079151749610901e-01" purity="2.8216966986656189e-01" nType="-99"/>
                  </Node>
                </Node>
                <Node pos="r" depth="5" NCoef="0" IVar="4" Cut="8.8795438408851624e-02" cType="1" res="-1.7535395920276642e-02" rms="3.8307225704193115e-01" purity="1.9369766116142273e-01" nType="0">
                  <Node pos="l" depth="6" NCoef="0" IVar="4" Cut="5.1658906042575836e-02" cType="1" res="-3.1703192740678787e-02" rms="3.8329473137855530e-01" purity="1.9433999061584473e-01" nType="0">
                    <Node pos="l" depth="7" NCoef="0" IVar="-1" Cut="0.0000000000000000e+00" cType="1" res="-7.2315698489546776e-03" rms="3.7503331899642944e-01" purity="1.8108236789703369e-01" nType="-99"/>
                    <Node pos="r" depth="7" NCoef="0" IVar="-1" Cut="0.0000000000000000e+00" cType="1" res="-2.7811233885586262e-03" rms="3.8888818025588989e-01" purity="2.0433816313743591e-01" nType="-99"/>
                  </Node>
                  <Node pos="r" depth="6" NCoef="0" IVar="2" Cut="2.2229296875000000e+02" cType="1" res="-3.5330730024725199e-03" rms="3.8233676552772522e-01" purity="1.9306282699108124e-01" nType="0">
                    <Node pos="l" depth="7" NCoef="0" IVar="-1" Cut="0.0000000000000000e+00" cType="1" res="4.2483839206397533e-03" rms="4.2554464936256409e-01" purity="2.6540300250053406e-01" nType="-99"/>
                    <Node pos="r" depth="7" NCoef="0" IVar="-1" Cut="0.0000000000000000e+00" cType="1" res="-3.4056594595313072e-03" rms="3.6023774743080139e-01" purity="1.6061253845691681e-01" nType="-99"/>
                  </Node>
                </Node>
              </Node>
              <Node pos="r" depth="4" NCoef="0" IVar="5" Cut="5.0000000000000000e+00" cType="1" res="-3.8377214223146439e-02" rms="2.4033612012863159e-01" purity="6.4342141151428223e-02" nType="0">
                <Node pos="l" depth="5" NCoef="0" IVar="2" Cut="2.6035977172851562e+02" cType="1" res="-4.5930407941341400e-02" rms="2.6956051588058472e-01" purity="8.3737343549728394e-02" nType="0">
                  <Node pos="l" depth="6" NCoef="0" IVar="-1" Cut="0.0000000000000000e+00" cType="1" res="-9.9830105900764465e-03" rms="2.7820906043052673e-01" purity="9.1699913144111633e-02" nType="-99"/>
                  <Node pos="r" depth="6" NCoef="0" IVar="-1" Cut="0.0000000000000000e+00" cType="1" res="-1.4690129086375237e-02" rms="2.5542008876800537e-01" purity="7.1555443108081818e-02" nType="-99"/>
                </Node>
                <Node pos="r" depth="5" NCoef="0" IVar="3" Cut="2.1518333256244659e-01" cType="1" res="-3.4340944141149521e-02" rms="2.2238226234912872e-01" purity="5.3558379411697388e-02" nType="0">
                  <Node pos="l" depth="6" NCoef="0" IVar="-1" Cut="0.0000000000000000e+00" cType="1" res="-1.9420800730586052e-02" rms="1.9641698896884918e-01" purity="4.1156928986310959e-02" nType="-99"/>
                  <Node pos="r" depth="6" NCoef="0" IVar="4" Cut="1.2264594435691833e-01" cType="1" res="-2.9337223619222641e-02" rms="2.2921468317508698e-01" purity="5.7202935218811035e-02" nType="0">
                    <Node pos="l" depth="7" NCoef="0" IVar="-1" Cut="0.0000000000000000e+00" cType="1" res="-1.3851129449903965e-02" rms="2.0104163885116577e-01" purity="4.3255019932985306e-02" nType="-99"/>
                    <Node pos="r" depth="7" NCoef="0" IVar="-1" Cut="0.0000000000000000e+00" cType="1" res="-4.8911040648818016e-03" rms="2.7594491839408875e-01" purity="8.4695383906364441e-02" nType="-99"/>
                  </Node>
                </Node>
              </Node>
            </Node>
          </Node>
          <Node pos="r" depth="2" NCoef="0" IVar="3" Cut="5.4578131437301636e-01" cType="1" res="-4.1460685431957245e-02" rms="2.7914351224899292e-01" purity="9.3759767711162567e-02" nType="0">
            <Node pos="l" depth="3" NCoef="0" IVar="3" Cut="3.3497282862663269e-01" cType="1" res="-3.6780636757612228e-02" rms="2.4957674741744995e-01" purity="7.0621952414512634e-02" nType="0">
              <Node pos="l" depth="4" NCoef="0" IVar="5" Cut="5.0000000000000000e+00" cType="1" res="0.0000000000000000e+00" rms="0.0000000000000000e+00" purity="5.5333338677883148e-02" nType="0">
                <Node pos="l" depth="5" NCoef="0" IVar="-1" Cut="0.0000000000000000e+00" cType="1" res="-3.4084016806446016e-04" rms="3.1192639470100403e-01" purity="1.1262136697769165e-01" nType="-99"/>
                <Node pos="r" depth="5" NCoef="0" IVar="2" Cut="1.6467671203613281e+02" cType="1" res="-4.2069159448146820e-02" rms="1.8234829604625702e-01" purity="3.5756111145019531e-02" nType="0">
                  <Node pos="l" depth="6" NCoef="0" IVar="-1" Cut="0.0000000000000000e+00" cType="1" res="-2.4725168943405151e-02" rms="1.3094191253185272e-01" purity="1.7642684280872345e-02" nType="-99"/>
                  <Node pos="r" depth="6" NCoef="0" IVar="3" Cut="1.9899410009384155e-01" cType="1" res="-3.7814050912857056e-02" rms="2.0857425034046173e-01" purity="4.7339096665382385e-02" nType="0">
                    <Node pos="l" depth="7" NCoef="0" IVar="-1" Cut="0.0000000000000000e+00" cType="1" res="-1.5291182324290276e-02" rms="2.1035078167915344e-01" purity="4.8507731407880783e-02" nType="-99"/>
                    <Node pos="r" depth="7" NCoef="0" IVar="-1" Cut="0.0000000000000000e+00" cType="1" res="-1.3313695788383484e-02" rms="2.0674602687358856e-01" purity="4.6209357678890228e-02" nType="-99"/>
                  </Node>
                </Node>
              </Node>
              <Node pos="r" depth="4" NCoef="0" IVar="5" Cut="4.0000000000000000e+00" cType="1" res="-4.4466890394687653e-02" rms="2.8683632612228394e-01" purity="9.5724537968635559e-02" nType="0">
                <Node pos="l" depth="5" NCoef="0" IVar="-1" Cut="0.0000000000000000e+00" cType="1" res="-1.3406066223978996e-02" rms="2.7647182345390320e-01" purity="8.6792439222335815e-02" nType="-99"/>
                <Node pos="r" depth="5" NCoef="0" IVar="-1" Cut="0.0000000000000000e+00" cType="1" res="-8.6673144251108170e-03" rms="2.9357179999351501e-01" purity="1.0126940160989761e-01" nType="-99"/>
              </Node>
            </Node>
            <Node pos="r" depth="3" NCoef="0" IVar="-1" Cut="0.0000000000000000e+00" cType="1" res="-8.2680182531476021e-03" rms="4.1311982274055481e-01" purity="2.3239296674728394e-01" nType="-99"/>
          </Node>
        </Node>
        <Node pos="r" depth="1" NCoef="0" IVar="2" Cut="3.7649102783203125e+02" cType="1" res="2.9413269832730293e-02" rms="4.3997427821159363e-01" purity="7.0673817396163940e-01" nType="0">
          <Node pos="l" depth="2" NCoef="0" IVar="1" Cut="1.1786408424377441e+00" cType="1" res="3.1550254672765732e-02" rms="4.3886375427246094e-01" purity="7.1154528856277466e-01" nType="0">
            <Node pos="l" depth="3" NCoef="0" IVar="3" Cut="8.8134688138961792e-01" cType="1" res="3.4541290253400803e-02" rms="4.3662253022193909e-01" purity="7.1932095289230347e-01" nType="0">
              <Node pos="l" depth="4" NCoef="0" IVar="3" Cut="6.8975740671157837e-01" cType="1" res="2.2033767774701118e-02" rms="4.7358995676040649e-01" purity="6.2919616699218750e-01" nType="0">
                <Node pos="l" depth="5" NCoef="0" IVar="-1" Cut="0.0000000000000000e+00" cType="1" res="-1.9435517024248838e-03" rms="4.9065336585044861e-01" purity="4.8222222924232483e-01" nType="-99"/>
                <Node pos="r" depth="5" NCoef="0" IVar="4" Cut="6.8156309425830841e-02" cType="1" res="2.4167999625205994e-02" rms="4.7264760732650757e-01" purity="6.3627612590789795e-01" nType="0">
                  <Node pos="l" depth="6" NCoef="0" IVar="2" Cut="8.5075172424316406e+01" cType="1" res="1.8832061439752579e-02" rms="4.7191286087036133e-01" purity="6.3773697614669800e-01" nType="0">
                    <Node pos="l" depth="7" NCoef="0" IVar="-1" Cut="0.0000000000000000e+00" cType="1" res="2.5602162349969149e-03" rms="4.6634370088577271e-01" purity="6.6008484363555908e-01" nType="-99"/>
                    <Node pos="r" depth="7" NCoef="0" IVar="-1" Cut="0.0000000000000000e+00" cType="1" res="5.7384156389161944e-04" rms="4.7793635725975037e-01" purity="6.1200088262557983e-01" nType="-99"/>
                  </Node>
                  <Node pos="r" depth="6" NCoef="0" IVar="2" Cut="1.9035884094238281e+02" cType="1" res="4.6635020524263382e-02" rms="4.7507184743881226e-01" purity="6.3012516498565674e-01" nType="0">
                    <Node pos="l" depth="7" NCoef="0" IVar="-1" Cut="0.0000000000000000e+00" cType="1" res="4.8369527794420719e-03" rms="4.6742880344390869e-01" purity="6.6131055355072021e-01" nType="-99"/>
                    <Node pos="r" depth="7" NCoef="0" IVar="-1" Cut="0.0000000000000000e+00" cType="1" res="2.4673270527273417e-03" rms="4.8345008492469788e-01" purity="5.9283566474914551e-01" nType="-99"/>
                  </Node>
                </Node>
              </Node>
              <Node pos="r" depth="4" NCoef="0" IVar="0" Cut="4.4712808728218079e-01" cType="1" res="4.2808618396520615e-02" rms="4.1015410423278809e-01" purity="7.7889233827590942e-01" nType="0">
                <Node pos="l" depth="5" NCoef="0" IVar="1" Cut="6.4734232425689697e-01" cType="1" res="4.5324396342039108e-02" rms="4.0718683600425720e-01" purity="7.8727084398269653e-01" nType="0">
                  <Node pos="l" depth="6" NCoef="0" IVar="0" Cut="2.3062603175640106e-01" cType="1" res="4.7363284975290298e-02" rms="4.0352031588554382e-01" purity="7.9351091384887695e-01" nType="0">
                    <Node pos="l" depth="7" NCoef="0" IVar="-1" Cut="0.0000000000000000e+00" cType="1" res="5.0052911974489689e-03" rms="4.0119329094886780e-01" purity="7.9738688468933105e-01" nType="-99"/>
                    <Node pos="r" depth="7" NCoef="0" IVar="-1" Cut="0.0000000000000000e+00" cType="1" res="9.5862156013026834e-04" rms="4.5739811658859253e-01" purity="6.9453954696655273e-01" nType="-99"/>
                  </Node>
                  <Node pos="r" depth="6" NCoef="0" IVar="-1" Cut="0.0000000000000000e+00" cType="1" res="1.0245229350402951e-03" rms="4.6203368902206421e-01" purity="6.8468856811523438e-01" nType="-99"/>
                </Node>
                <Node pos="r" depth="5" NCoef="0" IVar="-1" Cut="0.0000000000000000e+00" cType="1" res="-3.2307901419699192e-03" rms="4.8878154158592224e-01" purity="5.1179212331771851e-01" nType="-99"/>
              </Node>
            </Node>
            <Node pos="r" depth="3" NCoef="0" IVar="3" Cut="9.2862784862518311e-01" cType="1" res="-3.5601999610662460e-02" rms="4.8160555958747864e-01" purity="5.3697305917739868e-01" nType="0">
              <Node pos="l" depth="4" NCoef="0" IVar="-1" Cut="0.0000000000000000e+00" cType="1" res="-4.5152562670409679e-03" rms="4.8588594794273376e-01" purity="4.5583912730216980e-01" nType="-99"/>
              <Node pos="r" depth="4" NCoef="0" IVar="-1" Cut="0.0000000000000000e+00" cType="1" res="-1.6456360463052988e-03" rms="4.7675210237503052e-01" purity="6.1769890785217285e-01" nType="-99"/>
            </Node>
          </Node>
          <Node pos="r" depth="2" NCoef="0" IVar="-1" Cut="0.0000000000000000e+00" cType="1" res="-8.3968592807650566e-03" rms="4.8275190591812134e-01" purity="4.4379633665084839e-01" nType="-99"/>
        </Node>
      </Node>
    </BinaryTree>
    <BinaryTree type="DecisionTree" boostWeight="1.0000000000000000e+00" itree="52">
      <Node pos="s" depth="0" NCoef="0" IVar="3" Cut="7.7288961410522461e-01" cType="1" res="9.4587793573737144e-03" rms="4.1236203908920288e-01" purity="5.0050878524780273e-01" nType="0">
        <Node pos="l" depth="1" NCoef="0" IVar="1" Cut="1.4958879351615906e-01" cType="1" res="-1.3104605488479137e-02" rms="3.9334875345230103e-01" purity="2.6447913050651550e-01" nType="0">
          <Node pos="l" depth="2" NCoef="0" IVar="2" Cut="1.9287208557128906e+02" cType="1" res="7.1113940794020891e-04" rms="4.2986994981765747e-01" purity="3.4085243940353394e-01" nType="0">
            <Node pos="l" depth="3" NCoef="0" IVar="4" Cut="5.3277678787708282e-02" cType="1" res="1.2430354952812195e-02" rms="4.5297920703887939e-01" purity="4.1581115126609802e-01" nType="0">
              <Node pos="l" depth="4" NCoef="0" IVar="2" Cut="5.6678588867187500e+01" cType="1" res="-1.0510502383112907e-02" rms="4.5035582780838013e-01" purity="4.0064433217048645e-01" nType="0">
                <Node pos="l" depth="5" NCoef="0" IVar="4" Cut="2.8065182268619537e-02" cType="1" res="2.3557193577289581e-02" rms="4.6859905123710632e-01" purity="4.7232171893119812e-01" nType="0">
                  <Node pos="l" depth="6" NCoef="0" IVar="-1" Cut="0.0000000000000000e+00" cType="1" res="-7.2275719139724970e-04" rms="4.5887526869773865e-01" purity="4.2819342017173767e-01" nType="-99"/>
                  <Node pos="r" depth="6" NCoef="0" IVar="-1" Cut="0.0000000000000000e+00" cType="1" res="5.1459684036672115e-03" rms="4.7638452053070068e-01" purity="5.1804268360137939e-01" nType="-99"/>
                </Node>
                <Node pos="r" depth="5" NCoef="0" IVar="4" Cut="3.9533428847789764e-02" cType="1" res="-3.7820748984813690e-02" rms="4.3324902653694153e-01" purity="3.4318438172340393e-01" nType="0">
                  <Node pos="l" depth="6" NCoef="0" IVar="-1" Cut="0.0000000000000000e+00" cType="1" res="-6.2159486114978790e-03" rms="4.2552685737609863e-01" purity="3.2019114494323730e-01" nType="-99"/>
                  <Node pos="r" depth="6" NCoef="0" IVar="-1" Cut="0.0000000000000000e+00" cType="1" res="-2.4045780301094055e-03" rms="4.4087314605712891e-01" purity="3.6817231774330139e-01" nType="-99"/>
                </Node>
              </Node>
              <Node pos="r" depth="4" NCoef="0" IVar="4" Cut="1.2320079654455185e-01" cType="1" res="2.9218940064311028e-02" rms="4.5415574312210083e-01" purity="4.2691045999526978e-01" nType="0">
                <Node pos="l" depth="5" NCoef="0" IVar="2" Cut="1.0301230621337891e+02" cType="1" res="2.4254841729998589e-02" rms="4.5568349957466125e-01" purity="4.4048938155174255e-01" nType="0">
                  <Node pos="l" depth="6" NCoef="0" IVar="4" Cut="7.8070268034934998e-02" cType="1" res="3.8906618952751160e-02" rms="4.6826940774917603e-01" purity="4.9212545156478882e-01" nType="0">
                    <Node pos="l" depth="7" NCoef="0" IVar="-1" Cut="0.0000000000000000e+00" cType="1" res="2.7237138710916042e-03" rms="4.7202765941619873e-01" purity="4.9313274025917053e-01" nType="-99"/>
                    <Node pos="r" depth="7" NCoef="0" IVar="-1" Cut="0.0000000000000000e+00" cType="1" res="4.7990311868488789e-03" rms="4.6224769949913025e-01" purity="4.9062544107437134e-01" nType="-99"/>
                  </Node>
                  <Node pos="r" depth="6" NCoef="0" IVar="3" Cut="5.7366287708282471e-01" cType="1" res="1.2387896887958050e-02" rms="4.4487550854682922e-01" purity="3.9866769313812256e-01" nType="0">
                    <Node pos="l" depth="7" NCoef="0" IVar="-1" Cut="0.0000000000000000e+00" cType="1" res="-1.9175659399479628e-03" rms="3.7390786409378052e-01" purity="1.9300590455532074e-01" nType="-99"/>
                    <Node pos="r" depth="7" NCoef="0" IVar="-1" Cut="0.0000000000000000e+00" cType="1" res="2.6372177526354790e-03" rms="4.9106708168983459e-01" purity="5.5432134866714478e-01" nType="-99"/>
                  </Node>
                </Node>
                <Node pos="r" depth="5" NCoef="0" IVar="-1" Cut="0.0000000000000000e+00" cType="1" res="5.9174136258661747e-03" rms="4.4594210386276245e-01" purity="3.6144426465034485e-01" nType="-99"/>
              </Node>
            </Node>
            <Node pos="r" depth="3" NCoef="0" IVar="5" Cut="3.0000000000000000e+00" cType="1" res="-1.0976999998092651e-02" rms="4.0516954660415649e-01" purity="2.6607793569564819e-01" nType="0">
              <Node pos="l" depth="4" NCoef="0" IVar="-1" Cut="0.0000000000000000e+00" cType="1" res="2.4772733449935913e-03" rms="4.8240533471107483e-01" purity="4.3534436821937561e-01" nType="-99"/>
              <Node pos="r" depth="4" NCoef="0" IVar="3" Cut="4.4895604252815247e-01" cType="1" res="-1.6444280743598938e-02" rms="3.9191225171089172e-01" purity="2.4054802954196930e-01" nType="0">
                <Node pos="l" depth="5" NCoef="0" IVar="4" Cut="1.3310287892818451e-01" cType="1" res="-2.5067061185836792e-02" rms="3.1959074735641479e-01" purity="1.2356667965650558e-01" nType="0">
                  <Node pos="l" depth="6" NCoef="0" IVar="-1" Cut="0.0000000000000000e+00" cType="1" res="-1.2216484174132347e-02" rms="2.3103289306163788e-01" purity="5.8210778981447220e-02" nType="-99"/>
                  <Node pos="r" depth="6" NCoef="0" IVar="3" Cut="2.7530518174171448e-01" cType="1" res="-1.8831819295883179e-02" rms="3.5268968343734741e-01" purity="1.5355643630027771e-01" nType="0">
                    <Node pos="l" depth="7" NCoef="0" IVar="-1" Cut="0.0000000000000000e+00" cType="1" res="-2.2832530084997416e-03" rms="3.5522440075874329e-01" purity="1.5707640349864960e-01" nType="-99"/>
                    <Node pos="r" depth="7" NCoef="0" IVar="-1" Cut="0.0000000000000000e+00" cType="1" res="-4.8770485445857048e-03" rms="3.5002732276916504e-01" purity="1.5009619295597076e-01" nType="-99"/>
                  </Node>
                </Node>
                <Node pos="r" depth="5" NCoef="0" IVar="4" Cut="7.6282411813735962e-02" cType="1" res="-6.0610133223235607e-03" rms="4.6406966447830200e-01" purity="3.8141313195228577e-01" nType="0">
                  <Node pos="l" depth="6" NCoef="0" IVar="-1" Cut="0.0000000000000000e+00" cType="1" res="-3.2654043752700090e-03" rms="4.5401719212532043e-01" purity="3.8226267695426941e-01" nType="-99"/>
                  <Node pos="r" depth="6" NCoef="0" IVar="5" Cut="4.0000000000000000e+00" cType="1" res="1.7469275044277310e-03" rms="4.6657696366310120e-01" purity="3.8114950060844421e-01" nType="0">
                    <Node pos="l" depth="7" NCoef="0" IVar="-1" Cut="0.0000000000000000e+00" cType="1" res="-1.0281462455168366e-03" rms="4.6986502408981323e-01" purity="4.0789330005645752e-01" nType="-99"/>
                    <Node pos="r" depth="7" NCoef="0" IVar="-1" Cut="0.0000000000000000e+00" cType="1" res="1.3418707530945539e-03" rms="4.6383333206176758e-01" purity="3.5629862546920776e-01" nType="-99"/>
                  </Node>
                </Node>
              </Node>
            </Node>
          </Node>
          <Node pos="r" depth="2" NCoef="0" IVar="3" Cut="6.4832800626754761e-01" cType="1" res="-2.6065735146403313e-02" rms="3.5520559549331665e-01" purity="1.9283017516136169e-01" nType="0">
            <Node pos="l" depth="3" NCoef="0" IVar="4" Cut="1.1532030999660492e-01" cType="1" res="-3.0084451660513878e-02" rms="3.1723970174789429e-01" purity="1.3126747310161591e-01" nType="0">
              <Node pos="l" depth="4" NCoef="0" IVar="5" Cut="4.0000000000000000e+00" cType="1" res="0.0000000000000000e+00" rms="0.0000000000000000e+00" purity="1.1778321117162704e-01" nType="0">
                <Node pos="l" depth="5" NCoef="0" IVar="3" Cut="5.4555314779281616e-01" cType="1" res="-4.8168513923883438e-02" rms="3.4847187995910645e-01" purity="1.5100629627704620e-01" nType="0">
                  <Node pos="l" depth="6" NCoef="0" IVar="3" Cut="4.2487186193466187e-01" cType="1" res="-3.3015627413988113e-02" rms="2.8771692514419556e-01" purity="9.4007231295108795e-02" nType="0">
                    <Node pos="l" depth="7" NCoef="0" IVar="-1" Cut="0.0000000000000000e+00" cType="1" res="-7.3160775937139988e-03" rms="2.6154780387878418e-01" purity="7.4972130358219147e-02" nType="-99"/>
                    <Node pos="r" depth="7" NCoef="0" IVar="-1" Cut="0.0000000000000000e+00" cType="1" res="-8.9155659079551697e-03" rms="3.0958673357963562e-01" purity="1.1157411336898804e-01" nType="-99"/>
                  </Node>
                  <Node pos="r" depth="6" NCoef="0" IVar="-1" Cut="0.0000000000000000e+00" cType="1" res="-8.4162596613168716e-03" rms="4.1337689757347107e-01" purity="2.2493512928485870e-01" nType="-99"/>
                </Node>
                <Node pos="r" depth="5" NCoef="0" IVar="3" Cut="5.0206905603408813e-01" cType="1" res="-2.9530148953199387e-02" rms="2.7836194634437561e-01" purity="1.0336668044328690e-01" nType="0">
                  <Node pos="l" depth="6" NCoef="0" IVar="3" Cut="3.0796557664871216e-01" cType="1" res="-3.5562686622142792e-02" rms="2.1622918546199799e-01" purity="5.1592867821455002e-02" nType="0">
                    <Node pos="l" depth="7" NCoef="0" IVar="-1" Cut="0.0000000000000000e+00" cType="1" res="-2.1598391234874725e-02" rms="1.4309452474117279e-01" purity="2.1027332171797752e-02" nType="-99"/>
                    <Node pos="r" depth="7" NCoef="0" IVar="-1" Cut="0.0000000000000000e+00" cType="1" res="-8.1772012636065483e-03" rms="2.6549515128135681e-01" purity="7.9305328428745270e-02" nType="-99"/>
                  </Node>
                  <Node pos="r" depth="6" NCoef="0" IVar="-1" Cut="0.0000000000000000e+00" cType="1" res="-6.4865167951211333e-04" rms="4.4496369361877441e-01" purity="3.0759072303771973e-01" nType="-99"/>
                </Node>
              </Node>
              <Node pos="r" depth="4" NCoef="0" IVar="2" Cut="5.7849139404296875e+02" cType="1" res="-2.1682295948266983e-02" rms="3.4159877896308899e-01" purity="1.5354382991790771e-01" nType="0">
                <Node pos="l" depth="5" NCoef="0" IVar="3" Cut="4.6264410018920898e-01" cType="1" res="-1.3180432841181755e-02" rms="3.4581160545349121e-01" purity="1.6161480545997620e-01" nType="0">
                  <Node pos="l" depth="6" NCoef="0" IVar="4" Cut="1.3430283963680267e-01" cType="1" res="-2.4232033640146255e-02" rms="2.9386723041534424e-01" purity="9.9772699177265167e-02" nType="0">
                    <Node pos="l" depth="7" NCoef="0" IVar="-1" Cut="0.0000000000000000e+00" cType="1" res="-1.3731959275901318e-02" rms="2.3643337190151215e-01" purity="6.0217883437871933e-02" nType="-99"/>
                    <Node pos="r" depth="7" NCoef="0" IVar="-1" Cut="0.0000000000000000e+00" cType="1" res="-4.2880433611571789e-03" rms="3.1429150700569153e-01" purity="1.1613034456968307e-01" nType="-99"/>
                  </Node>
                  <Node pos="r" depth="6" NCoef="0" IVar="-1" Cut="0.0000000000000000e+00" cType="1" res="2.0640383008867502e-03" rms="4.6494066715240479e-01" purity="3.4402149915695190e-01" nType="-99"/>
                </Node>
                <Node pos="r" depth="5" NCoef="0" IVar="3" Cut="2.9495230317115784e-01" cType="1" res="-4.0908277034759521e-02" rms="3.3107072114944458e-01" purity="1.3529224693775177e-01" nType="0">
                  <Node pos="l" depth="6" NCoef="0" IVar="-1" Cut="0.0000000000000000e+00" cType="1" res="-7.7161034569144249e-03" rms="3.0727317929267883e-01" purity="1.1397038400173187e-01" nType="-99"/>
                  <Node pos="r" depth="6" NCoef="0" IVar="-1" Cut="0.0000000000000000e+00" cType="1" res="-7.8774113208055496e-03" rms="3.5719466209411621e-01" purity="1.6069543361663818e-01" nType="-99"/>
                </Node>
              </Node>
            </Node>
            <Node pos="r" depth="3" NCoef="0" IVar="3" Cut="7.3672330379486084e-01" cType="1" res="-8.2851946353912354e-03" rms="4.8860937356948853e-01" purity="4.6521013975143433e-01" nType="0">
              <Node pos="l" depth="4" NCoef="0" IVar="5" Cut="3.0000000000000000e+00" cType="1" res="-1.6882605850696564e-02" rms="4.8622912168502808e-01" purity="4.3412244319915771e-01" nType="0">
                <Node pos="l" depth="5" NCoef="0" IVar="-1" Cut="0.0000000000000000e+00" cType="1" res="-4.0637571364641190e-03" rms="4.7588878870010376e-01" purity="3.7501406669616699e-01" nType="-99"/>
                <Node pos="r" depth="5" NCoef="0" IVar="3" Cut="6.8825459480285645e-01" cType="1" res="-3.3242811914533377e-03" rms="4.9350234866142273e-01" purity="4.6637329459190369e-01" nType="0">
                  <Node pos="l" depth="6" NCoef="0" IVar="-1" Cut="0.0000000000000000e+00" cType="1" res="5.6598964147269726e-04" rms="4.9096101522445679e-01" purity="4.4389167428016663e-01" nType="-99"/>
                  <Node pos="r" depth="6" NCoef="0" IVar="-1" Cut="0.0000000000000000e+00" cType="1" res="-1.0738477576524019e-03" rms="4.9567532539367676e-01" purity="4.8714831471443176e-01" nType="-99"/>
                </Node>
              </Node>
              <Node pos="r" depth="4" NCoef="0" IVar="-1" Cut="0.0000000000000000e+00" cType="1" res="1.0461498750373721e-03" rms="4.8999011516571045e-01" purity="5.3595209121704102e-01" nType="-99"/>
            </Node>
          </Node>
        </Node>
        <Node pos="r" depth="1" NCoef="0" IVar="3" Cut="1.0594305992126465e+00" cType="1" res="3.2214514911174774e-02" rms="4.2948922514915466e-01" purity="7.3855066299438477e-01" nType="0">
          <Node pos="l" depth="2" NCoef="0" IVar="0" Cut="6.1459434032440186e-01" cType="1" res="3.4075152128934860e-02" rms="4.2888012528419495e-01" purity="7.4178522825241089e-01" nType="0">
            <Node pos="l" depth="3" NCoef="0" IVar="0" Cut="1.9818739965558052e-02" cType="1" res="3.5978805273771286e-02" rms="4.2733842134475708e-01" purity="7.4890953302383423e-01" nType="0">
              <Node pos="l" depth="4" NCoef="0" IVar="3" Cut="8.7455934286117554e-01" cType="1" res="3.9045557379722595e-02" rms="4.2171558737754822e-01" purity="7.6143723726272583e-01" nType="0">
                <Node pos="l" depth="5" NCoef="0" IVar="3" Cut="7.9912912845611572e-01" cType="1" res="2.5641310960054398e-02" rms="4.6155887842178345e-01" purity="6.8484514951705933e-01" nType="0">
                  <Node pos="l" depth="6" NCoef="0" IVar="-1" Cut="0.0000000000000000e+00" cType="1" res="2.6850111316889524e-03" rms="4.6542569994926453e-01" purity="6.7361915111541748e-01" nType="-99"/>
                  <Node pos="r" depth="6" NCoef="0" IVar="1" Cut="7.6613768935203552e-02" cType="1" res="2.4151453748345375e-02" rms="4.6063750982284546e-01" purity="6.8746948242187500e-01" nType="0">
                    <Node pos="l" depth="7" NCoef="0" IVar="-1" Cut="0.0000000000000000e+00" cType="1" res="2.9946423601359129e-03" rms="4.4775512814521790e-01" purity="7.2136533260345459e-01" nType="-99"/>
                    <Node pos="r" depth="7" NCoef="0" IVar="-1" Cut="0.0000000000000000e+00" cType="1" res="1.0420001344755292e-03" rms="4.7630208730697632e-01" purity="6.4423733949661255e-01" nType="-99"/>
                  </Node>
                </Node>
                <Node pos="r" depth="5" NCoef="0" IVar="3" Cut="9.9977910518646240e-01" cType="1" res="4.3231654912233353e-02" rms="4.0838694572448730e-01" purity="7.8535664081573486e-01" nType="0">
                  <Node pos="l" depth="6" NCoef="0" IVar="3" Cut="8.8667821884155273e-01" cType="1" res="3.8198038935661316e-02" rms="4.1657307744026184e-01" purity="7.7312487363815308e-01" nType="0">
                    <Node pos="l" depth="7" NCoef="0" IVar="-1" Cut="0.0000000000000000e+00" cType="1" res="5.4753650911152363e-03" rms="4.2725929617881775e-01" purity="7.5719678401947021e-01" nType="-99"/>
                    <Node pos="r" depth="7" NCoef="0" IVar="-1" Cut="0.0000000000000000e+00" cType="1" res="3.7593885790556669e-03" rms="4.1555979847908020e-01" purity="7.7456468343734741e-01" nType="-99"/>
                  </Node>
                  <Node pos="r" depth="6" NCoef="0" IVar="1" Cut="3.0555319786071777e-01" cType="1" res="5.1597148180007935e-02" rms="3.9426448941230774e-01" purity="8.0568474531173706e-01" nType="0">
                    <Node pos="l" depth="7" NCoef="0" IVar="-1" Cut="0.0000000000000000e+00" cType="1" res="5.6959181092679501e-03" rms="3.8295656442642212e-01" purity="8.2130986452102661e-01" nType="-99"/>
                    <Node pos="r" depth="7" NCoef="0" IVar="-1" Cut="0.0000000000000000e+00" cType="1" res="3.5688693169504404e-03" rms="4.2928725481033325e-01" purity="7.5410699844360352e-01" nType="-99"/>
                  </Node>
                </Node>
              </Node>
              <Node pos="r" depth="4" NCoef="0" IVar="0" Cut="2.9685440659523010e-01" cType="1" res="7.5782425701618195e-03" rms="4.7532749176025391e-01" purity="6.3289326429367065e-01" nType="0">
                <Node pos="l" depth="5" NCoef="0" IVar="0" Cut="2.5075063109397888e-01" cType="1" res="1.6123270615935326e-02" rms="4.7091510891914368e-01" purity="6.4306807518005371e-01" nType="0">
                  <Node pos="l" depth="6" NCoef="0" IVar="-1" Cut="0.0000000000000000e+00" cType="1" res="6.3079991377890110e-04" rms="4.7008830308914185e-01" purity="6.4154267311096191e-01" nType="-99"/>
                  <Node pos="r" depth="6" NCoef="0" IVar="-1" Cut="0.0000000000000000e+00" cType="1" res="2.8161797672510147e-03" rms="4.7173970937728882e-01" purity="6.4524912834167480e-01" nType="-99"/>
                </Node>
                <Node pos="r" depth="5" NCoef="0" IVar="-1" Cut="0.0000000000000000e+00" cType="1" res="-3.9235569420270622e-04" rms="4.8128056526184082e-01" purity="6.1840093135833740e-01" nType="-99"/>
              </Node>
            </Node>
            <Node pos="r" depth="3" NCoef="0" IVar="-1" Cut="0.0000000000000000e+00" cType="1" res="-4.3725366704165936e-03" rms="4.8453733325004578e-01" purity="4.2879855632781982e-01" nType="-99"/>
          </Node>
          <Node pos="r" depth="2" NCoef="0" IVar="-1" Cut="0.0000000000000000e+00" cType="1" res="-4.4510043226182461e-03" rms="4.4770917296409607e-01" purity="5.9872186183929443e-01" nType="-99"/>
        </Node>
      </Node>
    </BinaryTree>
    <BinaryTree type="DecisionTree" boostWeight="1.0000000000000000e+00" itree="53">
      <Node pos="s" depth="0" NCoef="0" IVar="3" Cut="7.7150195837020874e-01" cType="1" res="1.0524316690862179e-02" rms="4.1198444366455078e-01" purity="5.0179916620254517e-01" nType="0">
        <Node pos="l" depth="1" NCoef="0" IVar="3" Cut="6.4716839790344238e-01" cType="1" res="-1.1660722084343433e-02" rms="3.9295318722724915e-01" purity="2.6371654868125916e-01" nType="0">
          <Node pos="l" depth="2" NCoef="0" IVar="4" Cut="1.1733905225992203e-01" cType="1" res="-1.7497988417744637e-02" rms="3.5684370994567871e-01" purity="1.7982532083988190e-01" nType="0">
            <Node pos="l" depth="3" NCoef="0" IVar="2" Cut="8.8461433410644531e+01" cType="1" res="-2.3272786289453506e-02" rms="3.4479659795761108e-01" purity="1.7051525413990021e-01" nType="0">
              <Node pos="l" depth="4" NCoef="0" IVar="4" Cut="2.2908864542841911e-02" cType="1" res="-8.5281813517212868e-03" rms="3.7295868992805481e-01" purity="2.1393625438213348e-01" nType="0">
                <Node pos="l" depth="5" NCoef="0" IVar="-1" Cut="0.0000000000000000e+00" cType="1" res="-7.4137263000011444e-03" rms="3.3706444501876831e-01" purity="1.5275752544403076e-01" nType="-99"/>
                <Node pos="r" depth="5" NCoef="0" IVar="3" Cut="4.3861466646194458e-01" cType="1" res="4.8560541472397745e-04" rms="3.8195675611495972e-01" purity="2.3113134503364563e-01" nType="0">
                  <Node pos="l" depth="6" NCoef="0" IVar="-1" Cut="0.0000000000000000e+00" cType="1" res="-9.8280366510152817e-03" rms="2.4099487066268921e-01" purity="6.4268529415130615e-02" nType="-99"/>
                  <Node pos="r" depth="6" NCoef="0" IVar="5" Cut="4.0000000000000000e+00" cType="1" res="1.9825976341962814e-02" rms="4.5526623725891113e-01" purity="3.5089254379272461e-01" nType="0">
                    <Node pos="l" depth="7" NCoef="0" IVar="-1" Cut="0.0000000000000000e+00" cType="1" res="4.1572874761186540e-04" rms="4.5081162452697754e-01" purity="3.2576993107795715e-01" nType="-99"/>
                    <Node pos="r" depth="7" NCoef="0" IVar="-1" Cut="0.0000000000000000e+00" cType="1" res="3.7914197891950607e-03" rms="4.6053719520568848e-01" purity="3.7501850724220276e-01" nType="-99"/>
                  </Node>
                </Node>
              </Node>
              <Node pos="r" depth="4" NCoef="0" IVar="4" Cut="7.4617095291614532e-02" cType="1" res="-2.8988579288125038e-02" rms="3.3306443691253662e-01" purity="1.5368296205997467e-01" nType="0">
                <Node pos="l" depth="5" NCoef="0" IVar="2" Cut="2.2538253784179688e+02" cType="1" res="-4.1862785816192627e-02" rms="3.0669704079627991e-01" purity="1.2560354173183441e-01" nType="0">
                  <Node pos="l" depth="6" NCoef="0" IVar="4" Cut="6.1256952583789825e-02" cType="1" res="-3.7830661982297897e-02" rms="3.1271916627883911e-01" purity="1.3293735682964325e-01" nType="0">
                    <Node pos="l" depth="7" NCoef="0" IVar="-1" Cut="0.0000000000000000e+00" cType="1" res="-8.7428195402026176e-03" rms="3.0511650443077087e-01" purity="1.2179885059595108e-01" nType="-99"/>
                    <Node pos="r" depth="7" NCoef="0" IVar="-1" Cut="0.0000000000000000e+00" cType="1" res="-4.9877199344336987e-03" rms="3.3035251498222351e-01" purity="1.6025419533252716e-01" nType="-99"/>
                  </Node>
                  <Node pos="r" depth="6" NCoef="0" IVar="-1" Cut="0.0000000000000000e+00" cType="1" res="-1.1112226173281670e-02" rms="2.8718632459640503e-01" purity="1.0321790724992752e-01" nType="-99"/>
                </Node>
                <Node pos="r" depth="5" NCoef="0" IVar="5" Cut="4.0000000000000000e+00" cType="1" res="-1.9645329564809799e-02" rms="3.5066062211990356e-01" purity="1.7405486106872559e-01" nType="0">
                  <Node pos="l" depth="6" NCoef="0" IVar="4" Cut="9.1159224510192871e-02" cType="1" res="-3.6916077136993408e-02" rms="3.9154729247093201e-01" purity="2.1662731468677521e-01" nType="0">
                    <Node pos="l" depth="7" NCoef="0" IVar="-1" Cut="0.0000000000000000e+00" cType="1" res="-8.2667479291558266e-03" rms="3.6942732334136963e-01" purity="1.8390417098999023e-01" nType="-99"/>
                    <Node pos="r" depth="7" NCoef="0" IVar="-1" Cut="0.0000000000000000e+00" cType="1" res="-3.7130264099687338e-03" rms="4.0340825915336609e-01" purity="2.3550245165824890e-01" nType="-99"/>
                  </Node>
                  <Node pos="r" depth="6" NCoef="0" IVar="3" Cut="4.0198317170143127e-01" cType="1" res="-1.2090857140719891e-02" rms="3.3089894056320190e-01" purity="1.5542280673980713e-01" nType="0">
                    <Node pos="l" depth="7" NCoef="0" IVar="-1" Cut="0.0000000000000000e+00" cType="1" res="-1.2485471554100513e-02" rms="2.0461130142211914e-01" purity="4.4758938252925873e-02" nType="-99"/>
                    <Node pos="r" depth="7" NCoef="0" IVar="-1" Cut="0.0000000000000000e+00" cType="1" res="1.0061849607154727e-03" rms="4.2794638872146606e-01" purity="2.7715262770652771e-01" nType="-99"/>
                  </Node>
                </Node>
              </Node>
            </Node>
            <Node pos="r" depth="3" NCoef="0" IVar="2" Cut="2.4704655456542969e+02" cType="1" res="-9.1180941089987755e-03" rms="3.7347650527954102e-01" purity="1.9333526492118835e-01" nType="0">
              <Node pos="l" depth="4" NCoef="0" IVar="3" Cut="3.5787120461463928e-01" cType="1" res="1.3698303140699863e-02" rms="4.0063601732254028e-01" purity="2.4355258047580719e-01" nType="0">
                <Node pos="l" depth="5" NCoef="0" IVar="-1" Cut="0.0000000000000000e+00" cType="1" res="-1.6793758841231465e-03" rms="3.0682158470153809e-01" purity="1.1173135787248611e-01" nType="-99"/>
                <Node pos="r" depth="5" NCoef="0" IVar="2" Cut="1.6969876098632812e+02" cType="1" res="2.8239581733942032e-02" rms="4.5707419514656067e-01" purity="3.4068796038627625e-01" nType="0">
                  <Node pos="l" depth="6" NCoef="0" IVar="-1" Cut="0.0000000000000000e+00" cType="1" res="4.6146372333168983e-03" rms="4.6135801076889038e-01" purity="3.7135541439056396e-01" nType="-99"/>
                  <Node pos="r" depth="6" NCoef="0" IVar="-1" Cut="0.0000000000000000e+00" cType="1" res="1.2229528510943055e-03" rms="4.5149758458137512e-01" purity="3.0600082874298096e-01" nType="-99"/>
                </Node>
              </Node>
              <Node pos="r" depth="4" NCoef="0" IVar="3" Cut="1.2583483755588531e-01" cType="1" res="-1.7059322446584702e-02" rms="3.6321189999580383e-01" purity="1.7585718631744385e-01" nType="0">
                <Node pos="l" depth="5" NCoef="0" IVar="-1" Cut="0.0000000000000000e+00" cType="1" res="2.0963789429515600e-03" rms="3.8032147288322449e-01" purity="1.9469000399112701e-01" nType="-99"/>
                <Node pos="r" depth="5" NCoef="0" IVar="0" Cut="6.2314200401306152e-01" cType="1" res="-2.0343814045190811e-02" rms="3.6105251312255859e-01" purity="1.7369712889194489e-01" nType="0">
                  <Node pos="l" depth="6" NCoef="0" IVar="5" Cut="4.0000000000000000e+00" cType="1" res="-2.2865985520184040e-03" rms="3.8440033793449402e-01" purity="2.6553866267204285e-01" nType="0">
                    <Node pos="l" depth="7" NCoef="0" IVar="-1" Cut="0.0000000000000000e+00" cType="1" res="-2.9970020987093449e-03" rms="4.5427495241165161e-01" purity="3.0640882253646851e-01" nType="-99"/>
                    <Node pos="r" depth="7" NCoef="0" IVar="-1" Cut="0.0000000000000000e+00" cType="1" res="1.2438956764526665e-04" rms="4.1747617721557617e-01" purity="2.4673072993755341e-01" nType="-99"/>
                  </Node>
                  <Node pos="r" depth="6" NCoef="0" IVar="2" Cut="4.1059664916992188e+02" cType="1" res="-3.0897047370672226e-02" rms="2.8976851701736450e-01" purity="9.5505312085151672e-02" nType="0">
                    <Node pos="l" depth="7" NCoef="0" IVar="-1" Cut="0.0000000000000000e+00" cType="1" res="-5.3714094683527946e-03" rms="3.0060395598411560e-01" purity="1.0496009141206741e-01" nType="-99"/>
                    <Node pos="r" depth="7" NCoef="0" IVar="-1" Cut="0.0000000000000000e+00" cType="1" res="-9.2278346419334412e-03" rms="2.8415161371231079e-01" purity="9.0862788259983063e-02" nType="-99"/>
                  </Node>
                </Node>
              </Node>
            </Node>
          </Node>
          <Node pos="r" depth="2" NCoef="0" IVar="1" Cut="5.1668083667755127e-01" cType="1" res="6.4790616743266582e-03" rms="4.8796960711479187e-01" purity="5.2441543340682983e-01" nType="0">
            <Node pos="l" depth="3" NCoef="0" IVar="5" Cut="4.0000000000000000e+00" cType="1" res="1.3453810475766659e-02" rms="4.8900103569030762e-01" purity="5.4815685749053955e-01" nType="0">
              <Node pos="l" depth="4" NCoef="0" IVar="2" Cut="2.1490950012207031e+02" cType="1" res="7.5832740403711796e-03" rms="4.8927775025367737e-01" purity="5.4239380359649658e-01" nType="0">
                <Node pos="l" depth="5" NCoef="0" IVar="4" Cut="6.9772794842720032e-02" cType="1" res="1.5586531721055508e-02" rms="4.8810368776321411e-01" purity="5.5716204643249512e-01" nType="0">
                  <Node pos="l" depth="6" NCoef="0" IVar="2" Cut="7.6870620727539062e+01" cType="1" res="4.9691442400217056e-03" rms="4.8888576030731201e-01" purity="5.3949445486068726e-01" nType="0">
                    <Node pos="l" depth="7" NCoef="0" IVar="-1" Cut="0.0000000000000000e+00" cType="1" res="1.9918705802410841e-03" rms="4.8774030804634094e-01" purity="5.7465302944183350e-01" nType="-99"/>
                    <Node pos="r" depth="7" NCoef="0" IVar="-1" Cut="0.0000000000000000e+00" cType="1" res="-1.5397943789139390e-03" rms="4.8927411437034607e-01" purity="4.9876037240028381e-01" nType="-99"/>
                  </Node>
                  <Node pos="r" depth="6" NCoef="0" IVar="-1" Cut="0.0000000000000000e+00" cType="1" res="3.1620250083506107e-03" rms="4.8547050356864929e-01" purity="5.9716999530792236e-01" nType="-99"/>
                </Node>
                <Node pos="r" depth="5" NCoef="0" IVar="3" Cut="7.1138340234756470e-01" cType="1" res="-1.4288209378719330e-02" rms="4.9180814623832703e-01" purity="5.0203478336334229e-01" nType="0">
                  <Node pos="l" depth="6" NCoef="0" IVar="-1" Cut="0.0000000000000000e+00" cType="1" res="-2.4149161763489246e-03" rms="4.9158674478530884e-01" purity="4.5125234127044678e-01" nType="-99"/>
                  <Node pos="r" depth="6" NCoef="0" IVar="-1" Cut="0.0000000000000000e+00" cType="1" res="-2.0747557573486120e-04" rms="4.9173706769943237e-01" purity="5.5259823799133301e-01" nType="-99"/>
                </Node>
              </Node>
              <Node pos="r" depth="4" NCoef="0" IVar="-1" Cut="0.0000000000000000e+00" cType="1" res="4.6175331808626652e-03" rms="4.8681521415710449e-01" purity="5.8723968267440796e-01" nType="-99"/>
            </Node>
            <Node pos="r" depth="3" NCoef="0" IVar="-1" Cut="0.0000000000000000e+00" cType="1" res="-2.5802210438996553e-03" rms="4.8001453280448914e-01" purity="3.9843162894248962e-01" nType="-99"/>
          </Node>
        </Node>
        <Node pos="r" depth="1" NCoef="0" IVar="2" Cut="1.8824555969238281e+02" cType="1" res="3.2659750431776047e-02" rms="4.2899283766746521e-01" purity="7.3934936523437500e-01" nType="0">
          <Node pos="l" depth="2" NCoef="0" IVar="1" Cut="1.1786408424377441e+00" cType="1" res="3.5521958023309708e-02" rms="4.2565986514091492e-01" purity="7.4913215637207031e-01" nType="0">
            <Node pos="l" depth="3" NCoef="0" IVar="3" Cut="9.6712970733642578e-01" cType="1" res="3.7816222757101059e-02" rms="4.2289015650749207e-01" purity="7.5594800710678101e-01" nType="0">
              <Node pos="l" depth="4" NCoef="0" IVar="4" Cut="4.3302021920681000e-02" cType="1" res="2.7521478012204170e-02" rms="4.5091632008552551e-01" purity="7.0375335216522217e-01" nType="0">
                <Node pos="l" depth="5" NCoef="0" IVar="4" Cut="1.4020805247128010e-02" cType="1" res="2.0796129480004311e-02" rms="4.5083296298980713e-01" purity="7.0320087671279907e-01" nType="0">
                  <Node pos="l" depth="6" NCoef="0" IVar="4" Cut="5.2815151866525412e-04" cType="1" res="8.9775947853922844e-03" rms="4.4905951619148254e-01" purity="7.0771771669387817e-01" nType="0">
                    <Node pos="l" depth="7" NCoef="0" IVar="-1" Cut="0.0000000000000000e+00" cType="1" res="3.0686699319630861e-03" rms="4.2989212274551392e-01" purity="7.4951457977294922e-01" nType="-99"/>
                    <Node pos="r" depth="7" NCoef="0" IVar="-1" Cut="0.0000000000000000e+00" cType="1" res="-9.9950586445629597e-04" rms="4.6411445736885071e-01" purity="6.7159759998321533e-01" nType="-99"/>
                  </Node>
                  <Node pos="r" depth="6" NCoef="0" IVar="2" Cut="6.0330474853515625e+01" cType="1" res="2.5534819811582565e-02" rms="4.5145517587661743e-01" purity="7.0138984918594360e-01" nType="0">
                    <Node pos="l" depth="7" NCoef="0" IVar="-1" Cut="0.0000000000000000e+00" cType="1" res="3.7525785155594349e-03" rms="4.4513097405433655e-01" purity="7.1771764755249023e-01" nType="-99"/>
                    <Node pos="r" depth="7" NCoef="0" IVar="-1" Cut="0.0000000000000000e+00" cType="1" res="1.3124339748173952e-03" rms="4.5619070529937744e-01" purity="6.8803805112838745e-01" nType="-99"/>
                  </Node>
                </Node>
                <Node pos="r" depth="5" NCoef="0" IVar="2" Cut="8.7665039062500000e+01" cType="1" res="4.5835062861442566e-02" rms="4.5063477754592896e-01" purity="7.0525771379470825e-01" nType="0">
                  <Node pos="l" depth="6" NCoef="0" IVar="-1" Cut="0.0000000000000000e+00" cType="1" res="4.6052481047809124e-03" rms="4.4498151540756226e-01" purity="7.2224915027618408e-01" nType="-99"/>
                  <Node pos="r" depth="6" NCoef="0" IVar="3" Cut="8.3411353826522827e-01" cType="1" res="3.6465432494878769e-02" rms="4.5481640100479126e-01" purity="6.9188243150711060e-01" nType="0">
                    <Node pos="l" depth="7" NCoef="0" IVar="-1" Cut="0.0000000000000000e+00" cType="1" res="2.7267145924270153e-03" rms="4.6619170904159546e-01" purity="6.6402560472488403e-01" nType="-99"/>
                    <Node pos="r" depth="7" NCoef="0" IVar="-1" Cut="0.0000000000000000e+00" cType="1" res="3.7124084774404764e-03" rms="4.4145715236663818e-01" purity="7.2360336780548096e-01" nType="-99"/>
                  </Node>
                </Node>
              </Node>
              <Node pos="r" depth="4" NCoef="0" IVar="0" Cut="3.4151092171669006e-01" cType="1" res="4.4652111828327179e-02" rms="4.0306022763252258e-01" purity="7.9060626029968262e-01" nType="0">
                <Node pos="l" depth="5" NCoef="0" IVar="1" Cut="6.3558435440063477e-01" cType="1" res="4.6691469848155975e-02" rms="3.9921408891677856e-01" purity="7.9956293106079102e-01" nType="0">
                  <Node pos="l" depth="6" NCoef="0" IVar="1" Cut="1.1003783345222473e-01" cType="1" res="4.7853901982307434e-02" rms="3.9569240808486938e-01" purity="8.0494844913482666e-01" nType="0">
                    <Node pos="l" depth="7" NCoef="0" IVar="-1" Cut="0.0000000000000000e+00" cType="1" res="5.1396661438047886e-03" rms="3.8912659883499146e-01" purity="8.1371736526489258e-01" nType="-99"/>
                    <Node pos="r" depth="7" NCoef="0" IVar="-1" Cut="0.0000000000000000e+00" cType="1" res="4.4191540218889713e-03" rms="4.0879473090171814e-01" purity="7.8699046373367310e-01" nType="-99"/>
                  </Node>
                  <Node pos="r" depth="6" NCoef="0" IVar="-1" Cut="0.0000000000000000e+00" cType="1" res="2.4881465360522270e-03" rms="4.4937673211097717e-01" purity="7.1702051162719727e-01" nType="-99"/>
                </Node>
                <Node pos="r" depth="5" NCoef="0" IVar="-1" Cut="0.0000000000000000e+00" cType="1" res="-1.1493675992824137e-04" rms="4.7946241497993469e-01" purity="5.8846658468246460e-01" nType="-99"/>
              </Node>
            </Node>
            <Node pos="r" depth="3" NCoef="0" IVar="-1" Cut="0.0000000000000000e+00" cType="1" res="-1.5309243462979794e-03" rms="4.8287308216094971e-01" purity="5.8967196941375732e-01" nType="-99"/>
          </Node>
          <Node pos="r" depth="2" NCoef="0" IVar="3" Cut="8.4301120042800903e-01" cType="1" res="-1.0891490615904331e-02" rms="4.7471770644187927e-01" purity="5.9049677848815918e-01" nType="0">
            <Node pos="l" depth="3" NCoef="0" IVar="-1" Cut="0.0000000000000000e+00" cType="1" res="1.2452884111553431e-03" rms="4.7600364685058594e-01" purity="6.2003678083419800e-01" nType="-99"/>
            <Node pos="r" depth="3" NCoef="0" IVar="-1" Cut="0.0000000000000000e+00" cType="1" res="-4.4608609750866890e-03" rms="4.7066551446914673e-01" purity="5.4838955402374268e-01" nType="-99"/>
          </Node>
        </Node>
      </Node>
    </BinaryTree>
    <BinaryTree type="DecisionTree" boostWeight="1.0000000000000000e+00" itree="54">
      <Node pos="s" depth="0" NCoef="0" IVar="3" Cut="7.7157270908355713e-01" cType="1" res="9.0317912399768829e-03" rms="4.1229808330535889e-01" purity="4.9952489137649536e-01" nType="0">
        <Node pos="l" depth="1" NCoef="0" IVar="1" Cut="1.4958879351615906e-01" cType="1" res="-1.0557183995842934e-02" rms="3.9295262098312378e-01" purity="2.6371031999588013e-01" nType="0">
          <Node pos="l" depth="2" NCoef="0" IVar="2" Cut="1.9409106445312500e+02" cType="1" res="2.1095755510032177e-03" rms="4.2826381325721741e-01" purity="3.4000802040100098e-01" nType="0">
            <Node pos="l" depth="3" NCoef="0" IVar="4" Cut="5.3286947309970856e-02" cType="1" res="1.3787722215056419e-02" rms="4.5054292678833008e-01" purity="4.1480305790901184e-01" nType="0">
              <Node pos="l" depth="4" NCoef="0" IVar="2" Cut="5.6612186431884766e+01" cType="1" res="-2.9985979199409485e-03" rms="4.4896841049194336e-01" purity="4.0557321906089783e-01" nType="0">
                <Node pos="l" depth="5" NCoef="0" IVar="2" Cut="3.3032802581787109e+01" cType="1" res="2.7731530368328094e-02" rms="4.6686282753944397e-01" purity="4.7997719049453735e-01" nType="0">
                  <Node pos="l" depth="6" NCoef="0" IVar="-1" Cut="0.0000000000000000e+00" cType="1" res="4.5049530453979969e-03" rms="4.7152486443519592e-01" purity="5.0783431529998779e-01" nType="-99"/>
                  <Node pos="r" depth="6" NCoef="0" IVar="-1" Cut="0.0000000000000000e+00" cType="1" res="6.9359573535621166e-04" rms="4.6139037609100342e-01" purity="4.5329198241233826e-01" nType="-99"/>
                </Node>
                <Node pos="r" depth="5" NCoef="0" IVar="4" Cut="3.8206499069929123e-02" cType="1" res="-2.7353236451745033e-02" rms="4.3271559476852417e-01" purity="3.4660559892654419e-01" nType="0">
                  <Node pos="l" depth="6" NCoef="0" IVar="-1" Cut="0.0000000000000000e+00" cType="1" res="-5.4202540777623653e-03" rms="4.2407143115997314e-01" purity="3.2159143686294556e-01" nType="-99"/>
                  <Node pos="r" depth="6" NCoef="0" IVar="-1" Cut="0.0000000000000000e+00" cType="1" res="-1.1274080025032163e-03" rms="4.3972545862197876e-01" purity="3.6943179368972778e-01" nType="-99"/>
                </Node>
              </Node>
              <Node pos="r" depth="4" NCoef="0" IVar="3" Cut="3.9869531989097595e-01" cType="1" res="2.6351876556873322e-02" rms="4.5130947232246399e-01" purity="4.2171135544776917e-01" nType="0">
                <Node pos="l" depth="5" NCoef="0" IVar="-1" Cut="0.0000000000000000e+00" cType="1" res="-7.0485798642039299e-04" rms="3.0927583575248718e-01" purity="1.1667534708976746e-01" nType="-99"/>
                <Node pos="r" depth="5" NCoef="0" IVar="5" Cut="4.0000000000000000e+00" cType="1" res="3.3140469342470169e-02" rms="4.7475206851959229e-01" purity="4.8589420318603516e-01" nType="0">
                  <Node pos="l" depth="6" NCoef="0" IVar="3" Cut="6.6327154636383057e-01" cType="1" res="2.1592937409877777e-02" rms="4.7876432538032532e-01" purity="5.1593536138534546e-01" nType="0">
                    <Node pos="l" depth="7" NCoef="0" IVar="-1" Cut="0.0000000000000000e+00" cType="1" res="4.5762755325995386e-04" rms="4.7586861252784729e-01" purity="4.0074425935745239e-01" nType="-99"/>
                    <Node pos="r" depth="7" NCoef="0" IVar="-1" Cut="0.0000000000000000e+00" cType="1" res="2.9089264571666718e-03" rms="4.8081079125404358e-01" purity="6.1681616306304932e-01" nType="-99"/>
                  </Node>
                  <Node pos="r" depth="6" NCoef="0" IVar="2" Cut="1.2019763183593750e+02" cType="1" res="5.1083236932754517e-02" rms="4.6954038739204407e-01" purity="4.3435657024383545e-01" nType="0">
                    <Node pos="l" depth="7" NCoef="0" IVar="-1" Cut="0.0000000000000000e+00" cType="1" res="7.3194126598536968e-03" rms="4.7766628861427307e-01" purity="4.8457369208335876e-01" nType="-99"/>
                    <Node pos="r" depth="7" NCoef="0" IVar="-1" Cut="0.0000000000000000e+00" cType="1" res="2.6751202531158924e-03" rms="4.5977506041526794e-01" purity="3.8418447971343994e-01" nType="-99"/>
                  </Node>
                </Node>
              </Node>
            </Node>
            <Node pos="r" depth="3" NCoef="0" IVar="2" Cut="3.8154025268554688e+02" cType="1" res="-9.5581635832786560e-03" rms="4.0444517135620117e-01" purity="2.6527968049049377e-01" nType="0">
              <Node pos="l" depth="4" NCoef="0" IVar="4" Cut="8.5948742926120758e-02" cType="1" res="-1.5163732459768653e-03" rms="4.1691160202026367e-01" purity="3.0322659015655518e-01" nType="0">
                <Node pos="l" depth="5" NCoef="0" IVar="3" Cut="6.5107613801956177e-01" cType="1" res="-2.4825265631079674e-02" rms="4.1742581129074097e-01" purity="3.1952357292175293e-01" nType="0">
                  <Node pos="l" depth="6" NCoef="0" IVar="-1" Cut="0.0000000000000000e+00" cType="1" res="-7.0105823688209057e-03" rms="3.5081824660301208e-01" purity="1.6826996207237244e-01" nType="-99"/>
                  <Node pos="r" depth="6" NCoef="0" IVar="-1" Cut="0.0000000000000000e+00" cType="1" res="-2.1331738389562815e-04" rms="4.9123841524124146e-01" purity="5.2039968967437744e-01" nType="-99"/>
                </Node>
                <Node pos="r" depth="5" NCoef="0" IVar="3" Cut="5.9917217493057251e-01" cType="1" res="1.2181953527033329e-02" rms="4.1600027680397034e-01" purity="2.9364907741546631e-01" nType="0">
                  <Node pos="l" depth="6" NCoef="0" IVar="2" Cut="2.5456376647949219e+02" cType="1" res="1.8869568593800068e-03" rms="3.8796901702880859e-01" purity="2.0849232375621796e-01" nType="0">
                    <Node pos="l" depth="7" NCoef="0" IVar="-1" Cut="0.0000000000000000e+00" cType="1" res="3.0905783642083406e-03" rms="4.0927439928054810e-01" purity="2.3645743727684021e-01" nType="-99"/>
                    <Node pos="r" depth="7" NCoef="0" IVar="-1" Cut="0.0000000000000000e+00" cType="1" res="-1.3252735370770097e-03" rms="3.7556284666061401e-01" purity="1.9333051145076752e-01" nType="-99"/>
                  </Node>
                  <Node pos="r" depth="6" NCoef="0" IVar="-1" Cut="0.0000000000000000e+00" cType="1" res="3.6879973486065865e-03" rms="4.8896995186805725e-01" purity="5.4794114828109741e-01" nType="-99"/>
                </Node>
              </Node>
              <Node pos="r" depth="4" NCoef="0" IVar="3" Cut="2.2452482581138611e-01" cType="1" res="-1.8990853801369667e-02" rms="3.8910239934921265e-01" purity="2.2076950967311859e-01" nType="0">
                <Node pos="l" depth="5" NCoef="0" IVar="-1" Cut="0.0000000000000000e+00" cType="1" res="2.5751716457307339e-03" rms="3.8134199380874634e-01" purity="2.0142710208892822e-01" nType="-99"/>
                <Node pos="r" depth="5" NCoef="0" IVar="5" Cut="4.0000000000000000e+00" cType="1" res="-2.8075177222490311e-02" rms="3.9067423343658447e-01" purity="2.2605232894420624e-01" nType="0">
                  <Node pos="l" depth="6" NCoef="0" IVar="-1" Cut="0.0000000000000000e+00" cType="1" res="-5.0432495772838593e-03" rms="4.4025662541389465e-01" purity="3.1580775976181030e-01" nType="-99"/>
                  <Node pos="r" depth="6" NCoef="0" IVar="3" Cut="3.3040529489517212e-01" cType="1" res="-2.0268166437745094e-02" rms="3.6310607194900513e-01" purity="1.8113695085048676e-01" nType="0">
                    <Node pos="l" depth="7" NCoef="0" IVar="-1" Cut="0.0000000000000000e+00" cType="1" res="-9.4657633453607559e-03" rms="2.8353601694107056e-01" purity="9.0032957494258881e-02" nType="-99"/>
                    <Node pos="r" depth="7" NCoef="0" IVar="-1" Cut="0.0000000000000000e+00" cType="1" res="-1.5697352355346084e-03" rms="3.9930546283721924e-01" purity="2.3045031726360321e-01" nType="-99"/>
                  </Node>
                </Node>
              </Node>
            </Node>
          </Node>
          <Node pos="r" depth="2" NCoef="0" IVar="3" Cut="4.9821457266807556e-01" cType="1" res="-2.2346034646034241e-02" rms="3.5656014084815979e-01" purity="1.9270062446594238e-01" nType="0">
            <Node pos="l" depth="3" NCoef="0" IVar="4" Cut="2.0279902219772339e-01" cType="1" res="-2.7334667742252350e-02" rms="2.6818290352821350e-01" purity="8.2884423434734344e-02" nType="0">
              <Node pos="l" depth="4" NCoef="0" IVar="3" Cut="1.4552418887615204e-01" cType="1" res="-3.1216707080602646e-02" rms="2.4911759793758392e-01" purity="6.9792620837688446e-02" nType="0">
                <Node pos="l" depth="5" NCoef="0" IVar="-1" Cut="0.0000000000000000e+00" cType="1" res="-3.7707125302404165e-03" rms="2.4524755775928497e-01" purity="6.8971648812294006e-02" nType="-99"/>
                <Node pos="r" depth="5" NCoef="0" IVar="3" Cut="3.5030585527420044e-01" cType="1" res="-3.2936323434114456e-02" rms="2.4933879077434540e-01" purity="6.9857306778430939e-02" nType="0">
                  <Node pos="l" depth="6" NCoef="0" IVar="0" Cut="1.4963423013687134e+00" cType="1" res="-2.9042435809969902e-02" rms="2.0612259209156036e-01" purity="4.5604024082422256e-02" nType="0">
                    <Node pos="l" depth="7" NCoef="0" IVar="-1" Cut="0.0000000000000000e+00" cType="1" res="-4.6258117072284222e-03" rms="2.6744380593299866e-01" purity="7.9178601503372192e-02" nType="-99"/>
                    <Node pos="r" depth="7" NCoef="0" IVar="-1" Cut="0.0000000000000000e+00" cType="1" res="-1.4855084009468555e-02" rms="1.8896502256393433e-01" purity="3.7843365222215652e-02" nType="-99"/>
                  </Node>
                  <Node pos="r" depth="6" NCoef="0" IVar="4" Cut="1.1803826689720154e-01" cType="1" res="-3.7561349570751190e-02" rms="2.9242020845413208e-01" purity="9.8664514720439911e-02" nType="0">
                    <Node pos="l" depth="7" NCoef="0" IVar="-1" Cut="0.0000000000000000e+00" cType="1" res="-8.7900143116712570e-03" rms="2.7090173959732056e-01" purity="8.2957603037357330e-02" nType="-99"/>
                    <Node pos="r" depth="7" NCoef="0" IVar="-1" Cut="0.0000000000000000e+00" cType="1" res="-8.8155316188931465e-03" rms="3.3593252301216125e-01" purity="1.3428828120231628e-01" nType="-99"/>
                  </Node>
                </Node>
              </Node>
              <Node pos="r" depth="4" NCoef="0" IVar="3" Cut="2.1379107236862183e-01" cType="1" res="-8.9237326756119728e-04" rms="3.7188437581062317e-01" purity="1.7205844819545746e-01" nType="0">
                <Node pos="l" depth="5" NCoef="0" IVar="-1" Cut="0.0000000000000000e+00" cType="1" res="-5.0538056530058384e-04" rms="3.6293637752532959e-01" purity="1.6396614909172058e-01" nType="-99"/>
                <Node pos="r" depth="5" NCoef="0" IVar="-1" Cut="0.0000000000000000e+00" cType="1" res="1.3590788876172155e-04" rms="3.8075852394104004e-01" purity="1.8028524518013000e-01" nType="-99"/>
              </Node>
            </Node>
            <Node pos="r" depth="3" NCoef="0" IVar="1" Cut="1.1729151010513306e+00" cType="1" res="-1.4602054841816425e-02" rms="4.6124306321144104e-01" purity="3.6317101120948792e-01" nType="0">
              <Node pos="l" depth="4" NCoef="0" IVar="1" Cut="5.4554229974746704e-01" cType="1" res="-7.5925113633275032e-03" rms="4.6580547094345093e-01" purity="3.7835228443145752e-01" nType="0">
                <Node pos="l" depth="5" NCoef="0" IVar="1" Cut="2.9010486602783203e-01" cType="1" res="7.3269545100629330e-04" rms="4.7294458746910095e-01" purity="4.0755096077919006e-01" nType="0">
                  <Node pos="l" depth="6" NCoef="0" IVar="2" Cut="1.7687257385253906e+02" cType="1" res="-7.6862443238496780e-03" rms="4.7328764200210571e-01" purity="4.1367039084434509e-01" nType="0">
                    <Node pos="l" depth="7" NCoef="0" IVar="-1" Cut="0.0000000000000000e+00" cType="1" res="-1.3359469594433904e-03" rms="4.7467184066772461e-01" purity="4.2805075645446777e-01" nType="-99"/>
                    <Node pos="r" depth="7" NCoef="0" IVar="-1" Cut="0.0000000000000000e+00" cType="1" res="7.7841861639171839e-05" rms="4.7129571437835693e-01" purity="3.9441612362861633e-01" nType="-99"/>
                  </Node>
                  <Node pos="r" depth="6" NCoef="0" IVar="2" Cut="1.3248143005371094e+02" cType="1" res="8.1304134801030159e-03" rms="4.7251915931701660e-01" purity="4.0217378735542297e-01" nType="0">
                    <Node pos="l" depth="7" NCoef="0" IVar="-1" Cut="0.0000000000000000e+00" cType="1" res="1.9846626091748476e-03" rms="4.8159304261207581e-01" purity="4.3517315387725830e-01" nType="-99"/>
                    <Node pos="r" depth="7" NCoef="0" IVar="-1" Cut="0.0000000000000000e+00" cType="1" res="-2.1848813048563898e-04" rms="4.6528872847557068e-01" purity="3.7726092338562012e-01" nType="-99"/>
                  </Node>
                </Node>
                <Node pos="r" depth="5" NCoef="0" IVar="4" Cut="5.9731744229793549e-02" cType="1" res="-2.5807499885559082e-02" rms="4.4925278425216675e-01" purity="3.1446748971939087e-01" nType="0">
                  <Node pos="l" depth="6" NCoef="0" IVar="-1" Cut="0.0000000000000000e+00" cType="1" res="-5.8010318316519260e-03" rms="4.3748486042022705e-01" purity="2.8469291329383850e-01" nType="-99"/>
                  <Node pos="r" depth="6" NCoef="0" IVar="-1" Cut="0.0000000000000000e+00" cType="1" res="-9.4437226653099060e-04" rms="4.5579722523689270e-01" purity="3.3344393968582153e-01" nType="-99"/>
                </Node>
              </Node>
              <Node pos="r" depth="4" NCoef="0" IVar="-1" Cut="0.0000000000000000e+00" cType="1" res="-7.4401586316525936e-03" rms="4.2328017950057983e-01" purity="2.5318005681037903e-01" nType="-99"/>
            </Node>
          </Node>
        </Node>
        <Node pos="r" depth="1" NCoef="0" IVar="2" Cut="1.8737040710449219e+02" cType="1" res="2.8759686276316643e-02" rms="4.3000289797782898e-01" purity="7.3701190948486328e-01" nType="0">
          <Node pos="l" depth="2" NCoef="0" IVar="0" Cut="5.8072727918624878e-01" cType="1" res="3.1176626682281494e-02" rms="4.2669305205345154e-01" purity="7.4658507108688354e-01" nType="0">
            <Node pos="l" depth="3" NCoef="0" IVar="0" Cut="1.8733038008213043e-01" cType="1" res="3.2894965261220932e-02" rms="4.2501044273376465e-01" purity="7.5360447168350220e-01" nType="0">
              <Node pos="l" depth="4" NCoef="0" IVar="3" Cut="9.8185783624649048e-01" cType="1" res="3.5946689546108246e-02" rms="4.1974672675132751e-01" purity="7.6510483026504517e-01" nType="0">
                <Node pos="l" depth="5" NCoef="0" IVar="4" Cut="4.1121546179056168e-02" cType="1" res="2.8280515223741531e-02" rms="4.4267743825912476e-01" purity="7.2430813312530518e-01" nType="0">
                  <Node pos="l" depth="6" NCoef="0" IVar="3" Cut="8.5976141691207886e-01" cType="1" res="2.3966105654835701e-02" rms="4.4058299064636230e-01" purity="7.2752231359481812e-01" nType="0">
                    <Node pos="l" depth="7" NCoef="0" IVar="-1" Cut="0.0000000000000000e+00" cType="1" res="7.2421674849465489e-04" rms="4.6813839673995972e-01" purity="6.6782927513122559e-01" nType="-99"/>
                    <Node pos="r" depth="7" NCoef="0" IVar="-1" Cut="0.0000000000000000e+00" cType="1" res="3.0515482649207115e-03" rms="4.2937242984771729e-01" purity="7.5045943260192871e-01" nType="-99"/>
                  </Node>
                  <Node pos="r" depth="6" NCoef="0" IVar="4" Cut="4.5940387994050980e-02" cType="1" res="3.9892181754112244e-02" rms="4.4805943965911865e-01" purity="7.1565777063369751e-01" nType="0">
                    <Node pos="l" depth="7" NCoef="0" IVar="-1" Cut="0.0000000000000000e+00" cType="1" res="2.6335474103689194e-03" rms="4.4801253080368042e-01" purity="7.1473342180252075e-01" nType="-99"/>
                    <Node pos="r" depth="7" NCoef="0" IVar="-1" Cut="0.0000000000000000e+00" cType="1" res="3.6332677118480206e-03" rms="4.4801443815231323e-01" purity="7.1598160266876221e-01" nType="-99"/>
                  </Node>
                </Node>
                <Node pos="r" depth="5" NCoef="0" IVar="1" Cut="-1.5643326565623283e-02" cType="1" res="4.1396804153919220e-02" rms="4.0256237983703613e-01" purity="7.9410839080810547e-01" nType="0">
                  <Node pos="l" depth="6" NCoef="0" IVar="1" Cut="-9.6523210406303406e-02" cType="1" res="4.2801182717084885e-02" rms="3.9065644145011902e-01" purity="8.1184530258178711e-01" nType="0">
                    <Node pos="l" depth="7" NCoef="0" IVar="-1" Cut="0.0000000000000000e+00" cType="1" res="3.6348551511764526e-03" rms="3.9714175462722778e-01" purity="8.0356389284133911e-01" nType="-99"/>
                    <Node pos="r" depth="7" NCoef="0" IVar="-1" Cut="0.0000000000000000e+00" cType="1" res="6.1930883675813675e-03" rms="3.7749579548835754e-01" purity="8.2766723632812500e-01" nType="-99"/>
                  </Node>
                  <Node pos="r" depth="6" NCoef="0" IVar="3" Cut="1.0276473760604858e+00" cType="1" res="4.0299359709024429e-02" rms="4.1162323951721191e-01" purity="7.8024798631668091e-01" nType="0">
                    <Node pos="l" depth="7" NCoef="0" IVar="-1" Cut="0.0000000000000000e+00" cType="1" res="4.0608844719827175e-03" rms="4.1042315959930420e-01" purity="7.8230857849121094e-01" nType="-99"/>
                    <Node pos="r" depth="7" NCoef="0" IVar="-1" Cut="0.0000000000000000e+00" cType="1" res="3.2999727409332991e-03" rms="4.2223602533340454e-01" purity="7.6169788837432861e-01" nType="-99"/>
                  </Node>
                </Node>
              </Node>
              <Node pos="r" depth="4" NCoef="0" IVar="2" Cut="7.2493583679199219e+01" cType="1" res="1.1326264357194304e-03" rms="4.7519269585609436e-01" purity="6.3390868902206421e-01" nType="0">
                <Node pos="l" depth="5" NCoef="0" IVar="3" Cut="9.3778318166732788e-01" cType="1" res="6.8219206295907497e-03" rms="4.6889171004295349e-01" purity="6.5710735321044922e-01" nType="0">
                  <Node pos="l" depth="6" NCoef="0" IVar="-1" Cut="0.0000000000000000e+00" cType="1" res="1.4936050865799189e-03" rms="4.7547173500061035e-01" purity="6.3162833452224731e-01" nType="-99"/>
                  <Node pos="r" depth="6" NCoef="0" IVar="-1" Cut="0.0000000000000000e+00" cType="1" res="-1.1786233517341316e-04" rms="4.6325880289077759e-01" purity="6.7804193496704102e-01" nType="-99"/>
                </Node>
                <Node pos="r" depth="5" NCoef="0" IVar="-1" Cut="0.0000000000000000e+00" cType="1" res="-1.1341527570039034e-03" rms="4.8929902911186218e-01" purity="5.7987105846405029e-01" nType="-99"/>
              </Node>
            </Node>
            <Node pos="r" depth="3" NCoef="0" IVar="-1" Cut="0.0000000000000000e+00" cType="1" res="-3.6604062188416719e-03" rms="4.8716303706169128e-01" purity="4.4936892390251160e-01" nType="-99"/>
          </Node>
          <Node pos="r" depth="2" NCoef="0" IVar="3" Cut="8.4306180477142334e-01" cType="1" res="-7.7908579260110855e-03" rms="4.7577214241027832e-01" purity="5.9223955869674683e-01" nType="0">
            <Node pos="l" depth="3" NCoef="0" IVar="-1" Cut="0.0000000000000000e+00" cType="1" res="3.7408559001050889e-04" rms="4.8074820637702942e-01" purity="6.1003762483596802e-01" nType="-99"/>
            <Node pos="r" depth="3" NCoef="0" IVar="-1" Cut="0.0000000000000000e+00" cType="1" res="-2.3675013799220324e-03" rms="4.6807289123535156e-01" purity="5.6688445806503296e-01" nType="-99"/>
          </Node>
        </Node>
      </Node>
    </BinaryTree>
    <BinaryTree type="DecisionTree" boostWeight="1.0000000000000000e+00" itree="55">
      <Node pos="s" depth="0" NCoef="0" IVar="3" Cut="6.6849672794342041e-01" cType="1" res="8.8089331984519958e-03" rms="4.1151732206344604e-01" purity="5.0024306774139404e-01" nType="0">
        <Node pos="l" depth="1" NCoef="0" IVar="3" Cut="3.4510067105293274e-01" cType="1" res="-1.6314228996634483e-02" rms="3.6188766360282898e-01" purity="1.9079452753067017e-01" nType="0">
          <Node pos="l" depth="2" NCoef="0" IVar="5" Cut="4.0000000000000000e+00" cType="1" res="6.8545296788215637e-02" rms="1.2660362757742405e-02" purity="8.1172689795494080e-02" nType="0">
            <Node pos="l" depth="3" NCoef="0" IVar="-1" Cut="0.0000000000000000e+00" cType="1" res="6.1305863782763481e-03" rms="3.7834212183952332e-01" purity="1.9631753861904144e-01" nType="-99"/>
            <Node pos="r" depth="3" NCoef="0" IVar="4" Cut="1.9231304526329041e-01" cType="1" res="-3.0338833108544350e-02" rms="2.4074308574199677e-01" purity="6.6332489252090454e-02" nType="0">
              <Node pos="l" depth="4" NCoef="0" IVar="5" Cut="6.0000000000000000e+00" cType="1" res="-3.4747838973999023e-02" rms="1.8650402128696442e-01" purity="3.6754850298166275e-02" nType="0">
                <Node pos="l" depth="5" NCoef="0" IVar="3" Cut="2.4534702301025391e-01" cType="1" res="-2.9910370707511902e-02" rms="2.0999145507812500e-01" purity="4.7073323279619217e-02" nType="0">
                  <Node pos="l" depth="6" NCoef="0" IVar="-1" Cut="0.0000000000000000e+00" cType="1" res="-7.0761675015091896e-03" rms="2.3219795525074005e-01" purity="5.8386635035276413e-02" nType="-99"/>
                  <Node pos="r" depth="6" NCoef="0" IVar="3" Cut="3.0648076534271240e-01" cType="1" res="-3.6008946597576141e-02" rms="1.9905532896518707e-01" purity="4.2058929800987244e-02" nType="0">
                    <Node pos="l" depth="7" NCoef="0" IVar="-1" Cut="0.0000000000000000e+00" cType="1" res="-1.8487883731722832e-02" rms="1.7597463726997375e-01" purity="3.2205671072006226e-02" nType="-99"/>
                    <Node pos="r" depth="7" NCoef="0" IVar="-1" Cut="0.0000000000000000e+00" cType="1" res="-1.1658729985356331e-02" rms="2.2241726517677307e-01" purity="5.3330272436141968e-02" nType="-99"/>
                  </Node>
                </Node>
                <Node pos="r" depth="5" NCoef="0" IVar="3" Cut="2.1176432073116302e-01" cType="1" res="-3.7389688193798065e-02" rms="1.7229504883289337e-01" purity="3.1127950176596642e-02" nType="0">
                  <Node pos="l" depth="6" NCoef="0" IVar="2" Cut="2.1484739685058594e+02" cType="1" res="-4.8846852034330368e-02" rms="1.2377415597438812e-01" purity="1.5630239620804787e-02" nType="0">
                    <Node pos="l" depth="7" NCoef="0" IVar="-1" Cut="0.0000000000000000e+00" cType="1" res="-2.4285817518830299e-02" rms="1.3364627957344055e-01" purity="1.8413633108139038e-02" nType="-99"/>
                    <Node pos="r" depth="7" NCoef="0" IVar="-1" Cut="0.0000000000000000e+00" cType="1" res="-2.6319371536374092e-02" rms="1.1285918951034546e-01" purity="1.2872808612883091e-02" nType="-99"/>
                  </Node>
                  <Node pos="r" depth="6" NCoef="0" IVar="0" Cut="1.6744694709777832e+00" cType="1" res="-3.1047819182276726e-02" rms="1.9371227920055389e-01" purity="3.9706379175186157e-02" nType="0">
                    <Node pos="l" depth="7" NCoef="0" IVar="-1" Cut="0.0000000000000000e+00" cType="1" res="-7.9981805756688118e-03" rms="2.4021457135677338e-01" purity="6.2275048345327377e-02" nType="-99"/>
                    <Node pos="r" depth="7" NCoef="0" IVar="-1" Cut="0.0000000000000000e+00" cType="1" res="-1.7701290547847748e-02" rms="1.6202008724212646e-01" purity="2.7186963707208633e-02" nType="-99"/>
                  </Node>
                </Node>
              </Node>
              <Node pos="r" depth="4" NCoef="0" IVar="4" Cut="2.8211593627929688e-01" cType="1" res="-1.8518114462494850e-02" rms="3.4620684385299683e-01" purity="1.4558632671833038e-01" nType="0">
                <Node pos="l" depth="5" NCoef="0" IVar="2" Cut="5.3693164062500000e+02" cType="1" res="-3.1311191618442535e-02" rms="3.1640732288360596e-01" purity="1.1531337350606918e-01" nType="0">
                  <Node pos="l" depth="6" NCoef="0" IVar="-1" Cut="0.0000000000000000e+00" cType="1" res="-3.6634812131524086e-03" rms="3.3246162533760071e-01" purity="1.2998588383197784e-01" nType="-99"/>
                  <Node pos="r" depth="6" NCoef="0" IVar="-1" Cut="0.0000000000000000e+00" cType="1" res="-9.6791516989469528e-03" rms="3.0253335833549500e-01" purity="1.0369397699832916e-01" nType="-99"/>
                </Node>
                <Node pos="r" depth="5" NCoef="0" IVar="-1" Cut="0.0000000000000000e+00" cType="1" res="1.7276902217417955e-03" rms="4.0440538525581360e-01" purity="2.1442957222461700e-01" nType="-99"/>
              </Node>
            </Node>
          </Node>
          <Node pos="r" depth="2" NCoef="0" IVar="1" Cut="7.3240453004837036e-01" cType="1" res="-1.2321355752646923e-02" rms="4.0842291712760925e-01" purity="2.5334751605987549e-01" nType="0">
            <Node pos="l" depth="3" NCoef="0" IVar="5" Cut="5.0000000000000000e+00" cType="1" res="-5.7739880867302418e-03" rms="4.2025145888328552e-01" purity="2.7381443977355957e-01" nType="0">
              <Node pos="l" depth="4" NCoef="0" IVar="0" Cut="1.1241407394409180e+00" cType="1" res="-1.2985336594283581e-02" rms="4.3059957027435303e-01" purity="2.9305025935173035e-01" nType="0">
                <Node pos="l" depth="5" NCoef="0" IVar="1" Cut="-2.1802866458892822e-01" cType="1" res="-9.2693045735359192e-03" rms="4.4958820939064026e-01" purity="3.2635504007339478e-01" nType="0">
                  <Node pos="l" depth="6" NCoef="0" IVar="-1" Cut="0.0000000000000000e+00" cType="1" res="3.9818561635911465e-03" rms="4.7343060374259949e-01" purity="4.0155464410781860e-01" nType="-99"/>
                  <Node pos="r" depth="6" NCoef="0" IVar="3" Cut="6.1638849973678589e-01" cType="1" res="-1.5916474163532257e-02" rms="4.4587734341621399e-01" purity="3.1627792119979858e-01" nType="0">
                    <Node pos="l" depth="7" NCoef="0" IVar="-1" Cut="0.0000000000000000e+00" cType="1" res="-2.6563287246972322e-03" rms="4.2851343750953674e-01" purity="2.6936942338943481e-01" nType="-99"/>
                    <Node pos="r" depth="7" NCoef="0" IVar="-1" Cut="0.0000000000000000e+00" cType="1" res="-3.3904932934092358e-05" rms="4.8708149790763855e-01" purity="4.3608593940734863e-01" nType="-99"/>
                  </Node>
                </Node>
                <Node pos="r" depth="5" NCoef="0" IVar="3" Cut="4.1812506318092346e-01" cType="1" res="-3.3864423632621765e-02" rms="3.0165335536003113e-01" purity="1.0592223703861237e-01" nType="0">
                  <Node pos="l" depth="6" NCoef="0" IVar="-1" Cut="0.0000000000000000e+00" cType="1" res="-7.0132873952388763e-03" rms="2.7496838569641113e-01" purity="8.4345966577529907e-02" nType="-99"/>
                  <Node pos="r" depth="6" NCoef="0" IVar="-1" Cut="0.0000000000000000e+00" cType="1" res="-8.6876079440116882e-03" rms="3.2866409420967102e-01" purity="1.3015121221542358e-01" nType="-99"/>
                </Node>
              </Node>
              <Node pos="r" depth="4" NCoef="0" IVar="0" Cut="1.8814437091350555e-01" cType="1" res="1.0155142284929752e-02" rms="3.9466321468353271e-01" purity="2.2792989015579224e-01" nType="0">
                <Node pos="l" depth="5" NCoef="0" IVar="-1" Cut="0.0000000000000000e+00" cType="1" res="5.6769400835037231e-03" rms="4.7531452775001526e-01" purity="4.0664446353912354e-01" nType="-99"/>
                <Node pos="r" depth="5" NCoef="0" IVar="2" Cut="2.1500604248046875e+02" cType="1" res="7.1890413528308272e-04" rms="3.7450832128524780e-01" purity="1.8973176181316376e-01" nType="0">
                  <Node pos="l" depth="6" NCoef="0" IVar="4" Cut="6.3005425035953522e-02" cType="1" res="1.5644524246454239e-02" rms="3.8999834656715393e-01" purity="2.1897201240062714e-01" nType="0">
                    <Node pos="l" depth="7" NCoef="0" IVar="-1" Cut="0.0000000000000000e+00" cType="1" res="-2.2298761177808046e-03" rms="3.5593426227569580e-01" purity="1.7872370779514313e-01" nType="-99"/>
                    <Node pos="r" depth="7" NCoef="0" IVar="-1" Cut="0.0000000000000000e+00" cType="1" res="6.4289988949894905e-03" rms="4.1779747605323792e-01" purity="2.5685656070709229e-01" nType="-99"/>
                  </Node>
                  <Node pos="r" depth="6" NCoef="0" IVar="2" Cut="3.4413644409179688e+02" cType="1" res="-1.5206606127321720e-02" rms="3.5655239224433899e-01" purity="1.5853261947631836e-01" nType="0">
                    <Node pos="l" depth="7" NCoef="0" IVar="-1" Cut="0.0000000000000000e+00" cType="1" res="-4.3247970752418041e-03" rms="3.4826019406318665e-01" purity="1.5005937218666077e-01" nType="-99"/>
                    <Node pos="r" depth="7" NCoef="0" IVar="-1" Cut="0.0000000000000000e+00" cType="1" res="-1.6470610862597823e-03" rms="3.6246448755264282e-01" purity="1.6481693089008331e-01" nType="-99"/>
                  </Node>
                </Node>
              </Node>
            </Node>
            <Node pos="r" depth="3" NCoef="0" IVar="2" Cut="1.2779769897460938e+02" cType="1" res="-4.6310808509588242e-02" rms="3.3256760239601135e-01" purity="1.4062529802322388e-01" nType="0">
              <Node pos="l" depth="4" NCoef="0" IVar="-1" Cut="0.0000000000000000e+00" cType="1" res="-1.1088856495916843e-02" rms="3.2154956459999084e-01" purity="1.2522633373737335e-01" nType="-99"/>
              <Node pos="r" depth="4" NCoef="0" IVar="2" Cut="2.5128414916992188e+02" cType="1" res="-3.8825519382953644e-02" rms="3.3835938572883606e-01" purity="1.4926120638847351e-01" nType="0">
                <Node pos="l" depth="5" NCoef="0" IVar="-1" Cut="0.0000000000000000e+00" cType="1" res="-4.9609225243330002e-03" rms="3.3656308054924011e-01" purity="1.5041622519493103e-01" nType="-99"/>
                <Node pos="r" depth="5" NCoef="0" IVar="-1" Cut="0.0000000000000000e+00" cType="1" res="-8.1294840201735497e-03" rms="3.3941668272018433e-01" purity="1.4842800796031952e-01" nType="-99"/>
              </Node>
            </Node>
          </Node>
        </Node>
        <Node pos="r" depth="1" NCoef="0" IVar="0" Cut="5.8072733879089355e-01" cType="1" res="2.5387149304151535e-02" rms="4.4043594598770142e-01" purity="7.0444124937057495e-01" nType="0">
          <Node pos="l" depth="2" NCoef="0" IVar="0" Cut="1.6859735548496246e-01" cType="1" res="2.7648342773318291e-02" rms="4.3888634443283081e-01" purity="7.1423274278640747e-01" nType="0">
            <Node pos="l" depth="3" NCoef="0" IVar="1" Cut="9.2064899206161499e-01" cType="1" res="3.2939229160547256e-02" rms="4.2965477705001831e-01" purity="7.4310523271560669e-01" nType="0">
              <Node pos="l" depth="4" NCoef="0" IVar="3" Cut="8.7872761487960815e-01" cType="1" res="3.4890610724687576e-02" rms="4.2617228627204895e-01" purity="7.5108695030212402e-01" nType="0">
                <Node pos="l" depth="5" NCoef="0" IVar="3" Cut="8.5837966203689575e-01" cType="1" res="2.5492610409855843e-02" rms="4.6640193462371826e-01" purity="6.6931557655334473e-01" nType="0">
                  <Node pos="l" depth="6" NCoef="0" IVar="5" Cut="3.0000000000000000e+00" cType="1" res="2.2217387333512306e-02" rms="4.7147521376609802e-01" purity="6.5576642751693726e-01" nType="0">
                    <Node pos="l" depth="7" NCoef="0" IVar="-1" Cut="0.0000000000000000e+00" cType="1" res="1.2323396513238549e-03" rms="4.7027564048767090e-01" purity="6.6070502996444702e-01" nType="-99"/>
                    <Node pos="r" depth="7" NCoef="0" IVar="-1" Cut="0.0000000000000000e+00" cType="1" res="2.9053154867142439e-03" rms="4.7314527630805969e-01" purity="6.4887762069702148e-01" nType="-99"/>
                  </Node>
                  <Node pos="r" depth="6" NCoef="0" IVar="1" Cut="6.4718812704086304e-02" cType="1" res="0.0000000000000000e+00" rms="0.0000000000000000e+00" purity="7.3386651277542114e-01" nType="0">
                    <Node pos="l" depth="7" NCoef="0" IVar="-1" Cut="0.0000000000000000e+00" cType="1" res="4.9912519752979279e-03" rms="4.2581626772880554e-01" purity="7.6175808906555176e-01" nType="-99"/>
                    <Node pos="r" depth="7" NCoef="0" IVar="-1" Cut="0.0000000000000000e+00" cType="1" res="2.4500295985490084e-03" rms="4.5977032184600830e-01" purity="6.9600141048431396e-01" nType="-99"/>
                  </Node>
                </Node>
                <Node pos="r" depth="5" NCoef="0" IVar="1" Cut="3.5556286573410034e-01" cType="1" res="3.9503831416368484e-02" rms="4.0488508343696594e-01" purity="7.9122632741928101e-01" nType="0">
                  <Node pos="l" depth="6" NCoef="0" IVar="1" Cut="-3.2569712400436401e-01" cType="1" res="4.1662532836198807e-02" rms="3.9924585819244385e-01" purity="7.9979956150054932e-01" nType="0">
                    <Node pos="l" depth="7" NCoef="0" IVar="-1" Cut="0.0000000000000000e+00" cType="1" res="1.8248292617499828e-03" rms="4.1286239027976990e-01" purity="7.8057765960693359e-01" nType="-99"/>
                    <Node pos="r" depth="7" NCoef="0" IVar="-1" Cut="0.0000000000000000e+00" cType="1" res="4.5126541517674923e-03" rms="3.9854419231414795e-01" purity="8.0072754621505737e-01" nType="-99"/>
                  </Node>
                  <Node pos="r" depth="6" NCoef="0" IVar="1" Cut="6.4720678329467773e-01" cType="1" res="2.6766858994960785e-02" rms="4.3646091222763062e-01" purity="7.4064129590988159e-01" nType="0">
                    <Node pos="l" depth="7" NCoef="0" IVar="-1" Cut="0.0000000000000000e+00" cType="1" res="2.9506646096706390e-03" rms="4.2927864193916321e-01" purity="7.5511550903320312e-01" nType="-99"/>
                    <Node pos="r" depth="7" NCoef="0" IVar="-1" Cut="0.0000000000000000e+00" cType="1" res="1.3246490852907300e-03" rms="4.5513087511062622e-01" purity="7.0145910978317261e-01" nType="-99"/>
                  </Node>
                </Node>
              </Node>
              <Node pos="r" depth="4" NCoef="0" IVar="5" Cut="2.0000000000000000e+00" cType="1" res="-4.4507101847557351e-05" rms="4.8607955686748028e-03" purity="6.0884541273117065e-01" nType="0">
                <Node pos="l" depth="5" NCoef="0" IVar="-1" Cut="0.0000000000000000e+00" cType="1" res="-6.7391782067716122e-04" rms="4.7458881139755249e-01" purity="6.5177768468856812e-01" nType="-99"/>
                <Node pos="r" depth="5" NCoef="0" IVar="-1" Cut="0.0000000000000000e+00" cType="1" res="8.3167816046625376e-04" rms="4.9398007988929749e-01" purity="5.5440866947174072e-01" nType="-99"/>
              </Node>
            </Node>
            <Node pos="r" depth="3" NCoef="0" IVar="0" Cut="3.5479542613029480e-01" cType="1" res="-7.2042510146275163e-04" rms="4.8441448807716370e-01" purity="5.5942350625991821e-01" nType="0">
              <Node pos="l" depth="4" NCoef="0" IVar="0" Cut="2.9475134611129761e-01" cType="1" res="6.2603163532912731e-03" rms="4.8334503173828125e-01" purity="5.8391249179840088e-01" nType="0">
                <Node pos="l" depth="5" NCoef="0" IVar="0" Cut="2.6222983002662659e-01" cType="1" res="2.9945293135824613e-05" rms="4.8118987679481506e-01" purity="5.8921504020690918e-01" nType="0">
                  <Node pos="l" depth="6" NCoef="0" IVar="1" Cut="-4.3779928237199783e-02" cType="1" res="5.6131980381906033e-03" rms="4.7896966338157654e-01" purity="6.0067361593246460e-01" nType="0">
                    <Node pos="l" depth="7" NCoef="0" IVar="-1" Cut="0.0000000000000000e+00" cType="1" res="3.9676511660218239e-03" rms="4.6828624606132507e-01" purity="6.5624564886093140e-01" nType="-99"/>
                    <Node pos="r" depth="7" NCoef="0" IVar="-1" Cut="0.0000000000000000e+00" cType="1" res="-1.3852057745680213e-03" rms="4.8382183909416199e-01" purity="5.6904244422912598e-01" nType="-99"/>
                  </Node>
                  <Node pos="r" depth="6" NCoef="0" IVar="-1" Cut="0.0000000000000000e+00" cType="1" res="-1.2567173689603806e-03" rms="4.8627701401710510e-01" purity="5.6136280298233032e-01" nType="-99"/>
                </Node>
                <Node pos="r" depth="5" NCoef="0" IVar="-1" Cut="0.0000000000000000e+00" cType="1" res="1.6727112233638763e-03" rms="4.8762053251266479e-01" purity="5.7266765832901001e-01" nType="-99"/>
              </Node>
              <Node pos="r" depth="4" NCoef="0" IVar="3" Cut="8.0075466632843018e-01" cType="1" res="-1.5683081001043320e-02" rms="4.8636141419410706e-01" purity="5.0693321228027344e-01" nType="0">
                <Node pos="l" depth="5" NCoef="0" IVar="-1" Cut="0.0000000000000000e+00" cType="1" res="-9.3993730843067169e-04" rms="4.8861935734748840e-01" purity="4.4792199134826660e-01" nType="-99"/>
                <Node pos="r" depth="5" NCoef="0" IVar="-1" Cut="0.0000000000000000e+00" cType="1" res="-2.0443114917725325e-03" rms="4.8254126310348511e-01" purity="6.0327905416488647e-01" nType="-99"/>
              </Node>
            </Node>
          </Node>
          <Node pos="r" depth="2" NCoef="0" IVar="-1" Cut="0.0000000000000000e+00" cType="1" res="-3.8604263681918383e-03" rms="4.7974160313606262e-01" purity="4.1027477383613586e-01" nType="-99"/>
        </Node>
      </Node>
    </BinaryTree>
    <BinaryTree type="DecisionTree" boostWeight="1.0000000000000000e+00" itree="56">
      <Node pos="s" depth="0" NCoef="0" IVar="3" Cut="6.7670965194702148e-01" cType="1" res="6.0234852135181427e-03" rms="4.1229331493377686e-01" purity="4.9764019250869751e-01" nType="0">
        <Node pos="l" depth="1" NCoef="0" IVar="3" Cut="5.8951586484909058e-01" cType="1" res="-1.5467275865375996e-02" rms="3.6434403061866760e-01" purity="1.9624535739421844e-01" nType="0">
          <Node pos="l" depth="2" NCoef="0" IVar="4" Cut="1.1075796931982040e-01" cType="1" res="-1.8490443006157875e-02" rms="3.3276686072349548e-01" purity="1.4661082625389099e-01" nType="0">
            <Node pos="l" depth="3" NCoef="0" IVar="5" Cut="4.0000000000000000e+00" cType="1" res="0.0000000000000000e+00" rms="0.0000000000000000e+00" purity="1.2114247679710388e-01" nType="0">
              <Node pos="l" depth="4" NCoef="0" IVar="3" Cut="4.0293541550636292e-01" cType="1" res="-4.2597051709890366e-02" rms="3.2811143994331360e-01" purity="1.3254407048225403e-01" nType="0">
                <Node pos="l" depth="5" NCoef="0" IVar="-1" Cut="0.0000000000000000e+00" cType="1" res="-7.1240835823118687e-03" rms="2.5749024748802185e-01" purity="7.2841405868530273e-02" nType="-99"/>
                <Node pos="r" depth="5" NCoef="0" IVar="4" Cut="5.7344418019056320e-02" cType="1" res="-5.0190728157758713e-02" rms="3.4943392872810364e-01" purity="1.5371809899806976e-01" nType="0">
                  <Node pos="l" depth="6" NCoef="0" IVar="-1" Cut="0.0000000000000000e+00" cType="1" res="-1.0982922278344631e-02" rms="3.2909125089645386e-01" purity="1.2905965745449066e-01" nType="-99"/>
                  <Node pos="r" depth="6" NCoef="0" IVar="-1" Cut="0.0000000000000000e+00" cType="1" res="-6.7763030529022217e-03" rms="3.6127895116806030e-01" purity="1.6903254389762878e-01" nType="-99"/>
                </Node>
              </Node>
              <Node pos="r" depth="4" NCoef="0" IVar="3" Cut="3.6171504855155945e-01" cType="1" res="-1.9977131858468056e-02" rms="2.9662060737609863e-01" purity="1.1731492727994919e-01" nType="0">
                <Node pos="l" depth="5" NCoef="0" IVar="2" Cut="1.8874142456054688e+02" cType="1" res="-3.3938311040401459e-02" rms="1.6789886355400085e-01" purity="2.9318971559405327e-02" nType="0">
                  <Node pos="l" depth="6" NCoef="0" IVar="2" Cut="9.8128669738769531e+01" cType="1" res="-3.6955628544092178e-02" rms="1.6299462318420410e-01" purity="2.7667695656418800e-02" nType="0">
                    <Node pos="l" depth="7" NCoef="0" IVar="-1" Cut="0.0000000000000000e+00" cType="1" res="-1.6975726932287216e-02" rms="1.7769719660282135e-01" purity="3.3062539994716644e-02" nType="-99"/>
                    <Node pos="r" depth="7" NCoef="0" IVar="-1" Cut="0.0000000000000000e+00" cType="1" res="-2.0604595541954041e-02" rms="1.4667190611362457e-01" purity="2.2241601720452309e-02" nType="-99"/>
                  </Node>
                  <Node pos="r" depth="6" NCoef="0" IVar="0" Cut="2.2594337463378906e+00" cType="1" res="-2.9132369905710220e-02" rms="1.7532022297382355e-01" purity="3.1949087977409363e-02" nType="0">
                    <Node pos="l" depth="7" NCoef="0" IVar="-1" Cut="0.0000000000000000e+00" cType="1" res="-1.0063827037811279e-02" rms="2.0311921834945679e-01" purity="4.3186206370592117e-02" nType="-99"/>
                    <Node pos="r" depth="7" NCoef="0" IVar="-1" Cut="0.0000000000000000e+00" cType="1" res="-1.9831700250506401e-02" rms="1.3974541425704956e-01" purity="2.0072238519787788e-02" nType="-99"/>
                  </Node>
                </Node>
                <Node pos="r" depth="5" NCoef="0" IVar="2" Cut="1.4514013671875000e+02" cType="1" res="-8.0466130748391151e-03" rms="3.7252062559127808e-01" purity="1.9251182675361633e-01" nType="0">
                  <Node pos="l" depth="6" NCoef="0" IVar="4" Cut="3.6321211606264114e-02" cType="1" res="6.6590528003871441e-03" rms="3.9478439092636108e-01" purity="2.2804273664951324e-01" nType="0">
                    <Node pos="l" depth="7" NCoef="0" IVar="-1" Cut="0.0000000000000000e+00" cType="1" res="-5.6023425422608852e-03" rms="3.5555717349052429e-01" purity="1.6457957029342651e-01" nType="-99"/>
                    <Node pos="r" depth="7" NCoef="0" IVar="-1" Cut="0.0000000000000000e+00" cType="1" res="3.3467905595898628e-03" rms="4.0893700718879700e-01" purity="2.5456702709197998e-01" nType="-99"/>
                  </Node>
                  <Node pos="r" depth="6" NCoef="0" IVar="0" Cut="9.4634348154067993e-01" cType="1" res="-2.3255178704857826e-02" rms="3.4734612703323364e-01" purity="1.5576583147048950e-01" nType="0">
                    <Node pos="l" depth="7" NCoef="0" IVar="-1" Cut="0.0000000000000000e+00" cType="1" res="-1.9042446510866284e-03" rms="3.9630287885665894e-01" purity="2.1003948152065277e-01" nType="-99"/>
                    <Node pos="r" depth="7" NCoef="0" IVar="-1" Cut="0.0000000000000000e+00" cType="1" res="-1.2310381047427654e-02" rms="2.3463268578052521e-01" purity="5.8763813227415085e-02" nType="-99"/>
                  </Node>
                </Node>
              </Node>
            </Node>
            <Node pos="r" depth="3" NCoef="0" IVar="5" Cut="3.0000000000000000e+00" cType="1" res="1.3015408813953400e-01" rms="0.0000000000000000e+00" purity="1.7455166578292847e-01" nType="0">
              <Node pos="l" depth="4" NCoef="0" IVar="-1" Cut="0.0000000000000000e+00" cType="1" res="4.2571928352117538e-03" rms="4.4200015068054199e-01" purity="2.9547807574272156e-01" nType="-99"/>
              <Node pos="r" depth="4" NCoef="0" IVar="2" Cut="2.5185119628906250e+02" cType="1" res="-1.3718975707888603e-02" rms="3.5395863652229309e-01" purity="1.6601394116878510e-01" nType="0">
                <Node pos="l" depth="5" NCoef="0" IVar="4" Cut="1.4090161025524139e-01" cType="1" res="3.4255275968462229e-03" rms="3.7897524237632751e-01" purity="2.0410034060478210e-01" nType="0">
                  <Node pos="l" depth="6" NCoef="0" IVar="-1" Cut="0.0000000000000000e+00" cType="1" res="-2.7740744408220053e-03" rms="3.6323902010917664e-01" purity="1.8471364676952362e-01" nType="-99"/>
                  <Node pos="r" depth="6" NCoef="0" IVar="-1" Cut="0.0000000000000000e+00" cType="1" res="3.6043252330273390e-03" rms="3.9281290769577026e-01" purity="2.2298809885978699e-01" nType="-99"/>
                </Node>
                <Node pos="r" depth="5" NCoef="0" IVar="3" Cut="3.8097357749938965e-01" cType="1" res="-2.0091021433472633e-02" rms="3.4397989511489868e-01" purity="1.5185847878456116e-01" nType="0">
                  <Node pos="l" depth="6" NCoef="0" IVar="3" Cut="2.7092093229293823e-01" cType="1" res="-2.3586980998516083e-02" rms="3.0277413129806519e-01" purity="1.0934932529926300e-01" nType="0">
                    <Node pos="l" depth="7" NCoef="0" IVar="-1" Cut="0.0000000000000000e+00" cType="1" res="-4.0239668451249599e-03" rms="3.1318324804306030e-01" purity="1.2062665820121765e-01" nType="-99"/>
                    <Node pos="r" depth="7" NCoef="0" IVar="-1" Cut="0.0000000000000000e+00" cType="1" res="-8.5085798054933548e-03" rms="2.8678569197654724e-01" purity="9.3068450689315796e-02" nType="-99"/>
                  </Node>
                  <Node pos="r" depth="6" NCoef="0" IVar="0" Cut="6.7638808488845825e-01" cType="1" res="-1.3143508695065975e-02" rms="4.1377660632133484e-01" purity="2.3633681237697601e-01" nType="0">
                    <Node pos="l" depth="7" NCoef="0" IVar="-1" Cut="0.0000000000000000e+00" cType="1" res="-8.7650731438770890e-04" rms="4.4068020582199097e-01" purity="2.7883389592170715e-01" nType="-99"/>
                    <Node pos="r" depth="7" NCoef="0" IVar="-1" Cut="0.0000000000000000e+00" cType="1" res="-5.5548036471009254e-03" rms="3.3790716528892517e-01" purity="1.3147179782390594e-01" nType="-99"/>
                  </Node>
                </Node>
              </Node>
            </Node>
          </Node>
          <Node pos="r" depth="2" NCoef="0" IVar="5" Cut="4.0000000000000000e+00" cType="1" res="-1.7267406219616532e-03" rms="4.7834405303001404e-01" purity="4.1422197222709656e-01" nType="0">
            <Node pos="l" depth="3" NCoef="0" IVar="3" Cut="6.6264575719833374e-01" cType="1" res="-1.4367353171110153e-02" rms="4.7434240579605103e-01" purity="3.8595345616340637e-01" nType="0">
              <Node pos="l" depth="4" NCoef="0" IVar="4" Cut="6.5148085355758667e-02" cType="1" res="-2.3714784532785416e-02" rms="4.7032111883163452e-01" purity="3.6594384908676147e-01" nType="0">
                <Node pos="l" depth="5" NCoef="0" IVar="-1" Cut="0.0000000000000000e+00" cType="1" res="-5.4612080566585064e-03" rms="4.4491371512413025e-01" purity="3.0090430378913879e-01" nType="-99"/>
                <Node pos="r" depth="5" NCoef="0" IVar="3" Cut="6.2016880512237549e-01" cType="1" res="-7.7513423748314381e-03" rms="4.8331853747367859e-01" purity="4.0258929133415222e-01" nType="0">
                  <Node pos="l" depth="6" NCoef="0" IVar="-1" Cut="0.0000000000000000e+00" cType="1" res="1.2038743589073420e-03" rms="4.7733506560325623e-01" purity="3.9133849740028381e-01" nType="-99"/>
                  <Node pos="r" depth="6" NCoef="0" IVar="-1" Cut="0.0000000000000000e+00" cType="1" res="-1.9574814941734076e-03" rms="4.8670139908790588e-01" purity="4.0993198752403259e-01" nType="-99"/>
                </Node>
              </Node>
              <Node pos="r" depth="4" NCoef="0" IVar="-1" Cut="0.0000000000000000e+00" cType="1" res="2.0324192009866238e-03" rms="4.8847016692161560e-01" purity="4.6702185273170471e-01" nType="-99"/>
            </Node>
            <Node pos="r" depth="3" NCoef="0" IVar="2" Cut="1.2795988464355469e+02" cType="1" res="2.3554027080535889e-02" rms="4.8693838715553284e-01" purity="4.7398877143859863e-01" nType="0">
              <Node pos="l" depth="4" NCoef="0" IVar="-1" Cut="0.0000000000000000e+00" cType="1" res="3.4345204476267099e-03" rms="4.8735222220420837e-01" purity="5.1660513877868652e-01" nType="-99"/>
              <Node pos="r" depth="4" NCoef="0" IVar="-1" Cut="0.0000000000000000e+00" cType="1" res="1.0554830078035593e-03" rms="4.8624700307846069e-01" purity="4.4035592675209045e-01" nType="-99"/>
            </Node>
          </Node>
        </Node>
        <Node pos="r" depth="1" NCoef="0" IVar="0" Cut="7.9670566320419312e-01" cType="1" res="2.0689476281404495e-02" rms="4.4143941998481750e-01" purity="7.0332169532775879e-01" nType="0">
          <Node pos="l" depth="2" NCoef="0" IVar="0" Cut="2.5684410706162453e-02" cType="1" res="2.2955926135182381e-02" rms="4.4068777561187744e-01" purity="7.1076756715774536e-01" nType="0">
            <Node pos="l" depth="3" NCoef="0" IVar="1" Cut="9.2764824628829956e-01" cType="1" res="2.7881167829036713e-02" rms="4.3127137422561646e-01" purity="7.4051350355148315e-01" nType="0">
              <Node pos="l" depth="4" NCoef="0" IVar="5" Cut="2.0000000000000000e+00" cType="1" res="-3.6926685424987227e-05" rms="5.2646696567535400e-03" purity="7.4840301275253296e-01" nType="0">
                <Node pos="l" depth="5" NCoef="0" IVar="3" Cut="9.7250992059707642e-01" cType="1" res="3.4985404461622238e-02" rms="4.0451005101203918e-01" purity="7.9255467653274536e-01" nType="0">
                  <Node pos="l" depth="6" NCoef="0" IVar="1" Cut="-5.3118276409804821e-03" cType="1" res="0.0000000000000000e+00" rms="0.0000000000000000e+00" purity="7.5082480907440186e-01" nType="0">
                    <Node pos="l" depth="7" NCoef="0" IVar="-1" Cut="0.0000000000000000e+00" cType="1" res="2.8032816480845213e-03" rms="4.2178049683570862e-01" purity="7.6851987838745117e-01" nType="-99"/>
                    <Node pos="r" depth="7" NCoef="0" IVar="-1" Cut="0.0000000000000000e+00" cType="1" res="1.1855692137032747e-03" rms="4.4241091609001160e-01" purity="7.3073422908782959e-01" nType="-99"/>
                  </Node>
                  <Node pos="r" depth="6" NCoef="0" IVar="1" Cut="-2.5479304790496826e-01" cType="1" res="3.6524601280689240e-02" rms="4.0142235159873962e-01" purity="7.9708820581436157e-01" nType="0">
                    <Node pos="l" depth="7" NCoef="0" IVar="-1" Cut="0.0000000000000000e+00" cType="1" res="2.3869136348366737e-03" rms="4.0586826205253601e-01" purity="7.9157716035842896e-01" nType="-99"/>
                    <Node pos="r" depth="7" NCoef="0" IVar="-1" Cut="0.0000000000000000e+00" cType="1" res="3.9024399593472481e-03" rms="4.0099149942398071e-01" purity="7.9759669303894043e-01" nType="-99"/>
                  </Node>
                </Node>
                <Node pos="r" depth="5" NCoef="0" IVar="1" Cut="9.0845981612801552e-03" cType="1" res="2.2742509841918945e-02" rms="4.5848247408866882e-01" purity="6.8718916177749634e-01" nType="0">
                  <Node pos="l" depth="6" NCoef="0" IVar="1" Cut="-2.3688375949859619e-01" cType="1" res="2.9501946642994881e-02" rms="4.4780263304710388e-01" purity="7.1425479650497437e-01" nType="0">
                    <Node pos="l" depth="7" NCoef="0" IVar="-1" Cut="0.0000000000000000e+00" cType="1" res="6.9335842272266746e-04" rms="4.6106973290443420e-01" purity="6.8508011102676392e-01" nType="-99"/>
                    <Node pos="r" depth="7" NCoef="0" IVar="-1" Cut="0.0000000000000000e+00" cType="1" res="3.2724970951676369e-03" rms="4.4429931044578552e-01" purity="7.2147017717361450e-01" nType="-99"/>
                  </Node>
                  <Node pos="r" depth="6" NCoef="0" IVar="1" Cut="2.4595479667186737e-01" cType="1" res="1.5802638605237007e-02" rms="4.6909323334693909e-01" purity="6.5940105915069580e-01" nType="0">
                    <Node pos="l" depth="7" NCoef="0" IVar="-1" Cut="0.0000000000000000e+00" cType="1" res="1.0063474765047431e-03" rms="4.6322172880172729e-01" purity="6.7726182937622070e-01" nType="-99"/>
                    <Node pos="r" depth="7" NCoef="0" IVar="-1" Cut="0.0000000000000000e+00" cType="1" res="1.8736352212727070e-03" rms="4.7578123211860657e-01" purity="6.3857513666152954e-01" nType="-99"/>
                  </Node>
                </Node>
              </Node>
              <Node pos="r" depth="4" NCoef="0" IVar="3" Cut="9.3535447120666504e-01" cType="1" res="-6.2464638613164425e-03" rms="4.8309955000877380e-01" purity="6.0411858558654785e-01" nType="0">
                <Node pos="l" depth="5" NCoef="0" IVar="-1" Cut="0.0000000000000000e+00" cType="1" res="-1.7797292675822973e-03" rms="4.9852544069290161e-01" purity="5.2391648292541504e-01" nType="-99"/>
                <Node pos="r" depth="5" NCoef="0" IVar="-1" Cut="0.0000000000000000e+00" cType="1" res="4.2581110028550029e-04" rms="4.7095051407814026e-01" purity="6.6391777992248535e-01" nType="-99"/>
              </Node>
            </Node>
            <Node pos="r" depth="3" NCoef="0" IVar="2" Cut="1.5046643066406250e+02" cType="1" res="-2.2977737244218588e-03" rms="4.8532792925834656e-01" purity="5.5824834108352661e-01" nType="0">
              <Node pos="l" depth="4" NCoef="0" IVar="4" Cut="3.4847870469093323e-02" cType="1" res="2.7373128104954958e-03" rms="4.8263117671012878e-01" purity="5.8337777853012085e-01" nType="0">
                <Node pos="l" depth="5" NCoef="0" IVar="2" Cut="3.8802402496337891e+01" cType="1" res="-1.3754194602370262e-02" rms="4.7854802012443542e-01" purity="5.8721488714218140e-01" nType="0">
                  <Node pos="l" depth="6" NCoef="0" IVar="0" Cut="3.4993848204612732e-01" cType="1" res="2.8876573778688908e-03" rms="4.7354701161384583e-01" purity="6.3297033309936523e-01" nType="0">
                    <Node pos="l" depth="7" NCoef="0" IVar="-1" Cut="0.0000000000000000e+00" cType="1" res="1.0005644289776683e-03" rms="4.6406802535057068e-01" purity="6.6287517547607422e-01" nType="-99"/>
                    <Node pos="r" depth="7" NCoef="0" IVar="-1" Cut="0.0000000000000000e+00" cType="1" res="-5.5164925288408995e-04" rms="4.8534092307090759e-01" purity="5.9438228607177734e-01" nType="-99"/>
                  </Node>
                  <Node pos="r" depth="6" NCoef="0" IVar="-1" Cut="0.0000000000000000e+00" cType="1" res="-4.4768922962248325e-03" rms="4.8671776056289673e-01" purity="4.9536773562431335e-01" nType="-99"/>
                </Node>
                <Node pos="r" depth="5" NCoef="0" IVar="0" Cut="3.2934659719467163e-01" cType="1" res="2.7479235082864761e-02" rms="4.8764818906784058e-01" purity="5.7762098312377930e-01" nType="0">
                  <Node pos="l" depth="6" NCoef="0" IVar="-1" Cut="0.0000000000000000e+00" cType="1" res="7.7826261986047029e-04" rms="4.8504906892776489e-01" purity="5.8598262071609497e-01" nType="-99"/>
                  <Node pos="r" depth="6" NCoef="0" IVar="-1" Cut="0.0000000000000000e+00" cType="1" res="3.9404011331498623e-03" rms="4.8975121974945068e-01" purity="5.6775838136672974e-01" nType="-99"/>
                </Node>
              </Node>
              <Node pos="r" depth="4" NCoef="0" IVar="0" Cut="3.0916583538055420e-01" cType="1" res="-1.6364246606826782e-02" rms="4.9251088500022888e-01" purity="4.8804441094398499e-01" nType="0">
                <Node pos="l" depth="5" NCoef="0" IVar="-1" Cut="0.0000000000000000e+00" cType="1" res="1.0893703438341618e-04" rms="4.9120855331420898e-01" purity="5.4426515102386475e-01" nType="-99"/>
                <Node pos="r" depth="5" NCoef="0" IVar="-1" Cut="0.0000000000000000e+00" cType="1" res="-3.0927679035812616e-03" rms="4.9318429827690125e-01" purity="4.3220189213752747e-01" nType="-99"/>
              </Node>
            </Node>
          </Node>
          <Node pos="r" depth="2" NCoef="0" IVar="-1" Cut="0.0000000000000000e+00" cType="1" res="-8.8594751432538033e-03" rms="4.6363052725791931e-01" purity="3.2942789793014526e-01" nType="-99"/>
        </Node>
      </Node>
    </BinaryTree>
    <BinaryTree type="DecisionTree" boostWeight="1.0000000000000000e+00" itree="57">
      <Node pos="s" depth="0" NCoef="0" IVar="3" Cut="6.7476129531860352e-01" cType="1" res="6.9612241350114346e-03" rms="4.1211140155792236e-01" purity="4.9852943420410156e-01" nType="0">
        <Node pos="l" depth="1" NCoef="0" IVar="1" Cut="1.4958879351615906e-01" cType="1" res="-1.4655894599854946e-02" rms="3.6440119147300720e-01" purity="1.9557437300682068e-01" nType="0">
          <Node pos="l" depth="2" NCoef="0" IVar="3" Cut="3.7036585807800293e-01" cType="1" res="-1.3440607581287622e-03" rms="4.0741059184074402e-01" purity="2.6212468743324280e-01" nType="0">
            <Node pos="l" depth="3" NCoef="0" IVar="4" Cut="2.4865347146987915e-01" cType="1" res="-1.3671258464455605e-02" rms="3.0612465739250183e-01" purity="1.1559838801622391e-01" nType="0">
              <Node pos="l" depth="4" NCoef="0" IVar="5" Cut="5.0000000000000000e+00" cType="1" res="-2.0374450832605362e-02" rms="2.7025052905082703e-01" purity="8.4181547164916992e-02" nType="0">
                <Node pos="l" depth="5" NCoef="0" IVar="-1" Cut="0.0000000000000000e+00" cType="1" res="-9.0327789075672626e-04" rms="3.2515239715576172e-01" purity="1.3040810823440552e-01" nType="-99"/>
                <Node pos="r" depth="5" NCoef="0" IVar="3" Cut="2.5112384557723999e-01" cType="1" res="-2.5979312136769295e-02" rms="2.4885407090187073e-01" purity="6.8649910390377045e-02" nType="0">
                  <Node pos="l" depth="6" NCoef="0" IVar="-1" Cut="0.0000000000000000e+00" cType="1" res="-1.6807628795504570e-02" rms="2.0356008410453796e-01" purity="4.4598139822483063e-02" nType="-99"/>
                  <Node pos="r" depth="6" NCoef="0" IVar="4" Cut="1.3727289438247681e-01" cType="1" res="-1.5253741294145584e-02" rms="2.7131521701812744e-01" purity="8.2729049026966095e-02" nType="0">
                    <Node pos="l" depth="7" NCoef="0" IVar="-1" Cut="0.0000000000000000e+00" cType="1" res="-1.0046354494988918e-02" rms="2.1999499201774597e-01" purity="5.1718104630708694e-02" nType="-99"/>
                    <Node pos="r" depth="7" NCoef="0" IVar="-1" Cut="0.0000000000000000e+00" cType="1" res="-9.5427286578342319e-04" rms="3.2071569561958313e-01" purity="1.1899866163730621e-01" nType="-99"/>
                  </Node>
                </Node>
              </Node>
              <Node pos="r" depth="4" NCoef="0" IVar="-1" Cut="0.0000000000000000e+00" cType="1" res="2.0675745327025652e-03" rms="4.2206087708473206e-01" purity="2.4532374739646912e-01" nType="-99"/>
            </Node>
            <Node pos="r" depth="3" NCoef="0" IVar="5" Cut="5.0000000000000000e+00" cType="1" res="4.6453108079731464e-03" rms="4.4736251235008240e-01" purity="3.3165305852890015e-01" nType="0">
              <Node pos="l" depth="4" NCoef="0" IVar="4" Cut="1.1063653230667114e-01" cType="1" res="-3.6849747411906719e-03" rms="4.5369485020637512e-01" purity="3.4571617841720581e-01" nType="0">
                <Node pos="l" depth="5" NCoef="0" IVar="2" Cut="1.6689630126953125e+02" cType="1" res="-1.0446693748235703e-02" rms="4.4890740513801575e-01" purity="3.3931890130043030e-01" nType="0">
                  <Node pos="l" depth="6" NCoef="0" IVar="4" Cut="5.0085075199604034e-02" cType="1" res="1.9201680552214384e-03" rms="4.6246883273124695e-01" purity="3.7939730286598206e-01" nType="0">
                    <Node pos="l" depth="7" NCoef="0" IVar="-1" Cut="0.0000000000000000e+00" cType="1" res="-2.3517264053225517e-03" rms="4.4790148735046387e-01" purity="3.2287001609802246e-01" nType="-99"/>
                    <Node pos="r" depth="7" NCoef="0" IVar="-1" Cut="0.0000000000000000e+00" cType="1" res="1.7437321366742253e-03" rms="4.7192677855491638e-01" purity="4.1988837718963623e-01" nType="-99"/>
                  </Node>
                  <Node pos="r" depth="6" NCoef="0" IVar="4" Cut="7.9636521637439728e-02" cType="1" res="-2.9680736362934113e-02" rms="4.2624804377555847e-01" purity="2.7698531746864319e-01" nType="0">
                    <Node pos="l" depth="7" NCoef="0" IVar="-1" Cut="0.0000000000000000e+00" cType="1" res="-5.8929966762661934e-03" rms="4.0957802534103394e-01" purity="2.4162951111793518e-01" nType="-99"/>
                    <Node pos="r" depth="7" NCoef="0" IVar="-1" Cut="0.0000000000000000e+00" cType="1" res="-1.9918552134186029e-03" rms="4.3794208765029907e-01" purity="3.0356544256210327e-01" nType="-99"/>
                  </Node>
                </Node>
                <Node pos="r" depth="5" NCoef="0" IVar="2" Cut="2.5289328002929688e+02" cType="1" res="9.0229995548725128e-03" rms="4.6229076385498047e-01" purity="3.5773926973342896e-01" nType="0">
                  <Node pos="l" depth="6" NCoef="0" IVar="-1" Cut="0.0000000000000000e+00" cType="1" res="2.4696220643818378e-03" rms="4.8232826590538025e-01" purity="4.1643458604812622e-01" nType="-99"/>
                  <Node pos="r" depth="6" NCoef="0" IVar="-1" Cut="0.0000000000000000e+00" cType="1" res="-3.3853421336971223e-04" rms="4.4776865839958191e-01" purity="3.1785306334495544e-01" nType="-99"/>
                </Node>
              </Node>
              <Node pos="r" depth="4" NCoef="0" IVar="2" Cut="2.5710366821289062e+02" cType="1" res="2.8089893981814384e-02" rms="4.2789992690086365e-01" purity="2.9115736484527588e-01" nType="0">
                <Node pos="l" depth="5" NCoef="0" IVar="-1" Cut="0.0000000000000000e+00" cType="1" res="6.2065823003649712e-03" rms="4.4079038500785828e-01" purity="3.2796347141265869e-01" nType="-99"/>
                <Node pos="r" depth="5" NCoef="0" IVar="-1" Cut="0.0000000000000000e+00" cType="1" res="-4.4542510295286775e-04" rms="4.0580528974533081e-01" purity="2.3594297468662262e-01" nType="-99"/>
              </Node>
            </Node>
          </Node>
          <Node pos="r" depth="2" NCoef="0" IVar="4" Cut="1.1529558151960373e-01" cType="1" res="-2.5757906958460808e-02" rms="3.2377856969833374e-01" purity="1.4007169008255005e-01" nType="0">
            <Node pos="l" depth="3" NCoef="0" IVar="2" Cut="8.6581604003906250e+01" cType="1" res="-2.9450312256813049e-02" rms="3.1267300248146057e-01" purity="1.3165712356567383e-01" nType="0">
              <Node pos="l" depth="4" NCoef="0" IVar="4" Cut="4.4806476682424545e-02" cType="1" res="-1.6369387507438660e-02" rms="3.4154751896858215e-01" purity="1.6330938041210175e-01" nType="0">
                <Node pos="l" depth="5" NCoef="0" IVar="4" Cut="2.4721892550587654e-02" cType="1" res="-2.7716498821973801e-02" rms="3.2327437400817871e-01" purity="1.4251950383186340e-01" nType="0">
                  <Node pos="l" depth="6" NCoef="0" IVar="-1" Cut="0.0000000000000000e+00" cType="1" res="-7.3105157352983952e-03" rms="3.1777796149253845e-01" purity="1.3149015605449677e-01" nType="-99"/>
                  <Node pos="r" depth="6" NCoef="0" IVar="-1" Cut="0.0000000000000000e+00" cType="1" res="-4.1116238571703434e-03" rms="3.2801589369773865e-01" purity="1.5249995887279510e-01" nType="-99"/>
                </Node>
                <Node pos="r" depth="5" NCoef="0" IVar="-1" Cut="0.0000000000000000e+00" cType="1" res="-3.7040820461697876e-04" rms="3.6274147033691406e-01" purity="1.8948036432266235e-01" nType="-99"/>
              </Node>
              <Node pos="r" depth="4" NCoef="0" IVar="4" Cut="8.9531280100345612e-02" cType="1" res="-3.4718617796897888e-02" rms="3.0009952187538147e-01" purity="1.1890923976898193e-01" nType="0">
                <Node pos="l" depth="5" NCoef="0" IVar="3" Cut="5.2273833751678467e-01" cType="1" res="-3.9356060326099396e-02" rms="2.8914991021156311e-01" purity="1.0758515447378159e-01" nType="0">
                  <Node pos="l" depth="6" NCoef="0" IVar="5" Cut="5.0000000000000000e+00" cType="1" res="-3.3086720854043961e-02" rms="2.1014909446239471e-01" purity="4.8788335174322128e-02" nType="0">
                    <Node pos="l" depth="7" NCoef="0" IVar="-1" Cut="0.0000000000000000e+00" cType="1" res="-8.0337608233094215e-03" rms="2.5232714414596558e-01" purity="7.1053542196750641e-02" nType="-99"/>
                    <Node pos="r" depth="7" NCoef="0" IVar="-1" Cut="0.0000000000000000e+00" cType="1" res="-1.5931021422147751e-02" rms="1.7606467008590698e-01" purity="3.3423319458961487e-02" nType="-99"/>
                  </Node>
                  <Node pos="r" depth="6" NCoef="0" IVar="4" Cut="6.3602976500988007e-02" cType="1" res="-5.3640827536582947e-02" rms="4.1197097301483154e-01" purity="2.3709185421466827e-01" nType="0">
                    <Node pos="l" depth="7" NCoef="0" IVar="-1" Cut="0.0000000000000000e+00" cType="1" res="-6.1894189566373825e-03" rms="4.0292963385581970e-01" purity="2.2733263671398163e-01" nType="-99"/>
                    <Node pos="r" depth="7" NCoef="0" IVar="-1" Cut="0.0000000000000000e+00" cType="1" res="-6.8976124748587608e-03" rms="4.2053538560867310e-01" purity="2.4658538401126862e-01" nType="-99"/>
                  </Node>
                </Node>
                <Node pos="r" depth="5" NCoef="0" IVar="2" Cut="2.9338497924804688e+02" cType="1" res="-2.5700401514768600e-02" rms="3.2013061642646790e-01" purity="1.4093068242073059e-01" nType="0">
                  <Node pos="l" depth="6" NCoef="0" IVar="-1" Cut="0.0000000000000000e+00" cType="1" res="-2.8748000040650368e-03" rms="3.3510693907737732e-01" purity="1.5864948928356171e-01" nType="-99"/>
                  <Node pos="r" depth="6" NCoef="0" IVar="-1" Cut="0.0000000000000000e+00" cType="1" res="-8.6392005905508995e-03" rms="3.0006253719329834e-01" purity="1.1908080428838730e-01" nType="-99"/>
                </Node>
              </Node>
            </Node>
            <Node pos="r" depth="3" NCoef="0" IVar="3" Cut="5.2226763963699341e-01" cType="1" res="-1.9423414021730423e-02" rms="3.4189882874488831e-01" purity="1.5450727939605713e-01" nType="0">
              <Node pos="l" depth="4" NCoef="0" IVar="2" Cut="7.5012408447265625e+02" cType="1" res="-2.2496825084090233e-02" rms="3.1464067101478577e-01" purity="1.1958868801593781e-01" nType="0">
                <Node pos="l" depth="5" NCoef="0" IVar="2" Cut="1.9626101684570312e+02" cType="1" res="-2.5614840909838676e-02" rms="3.0347537994384766e-01" purity="1.1001031845808029e-01" nType="0">
                  <Node pos="l" depth="6" NCoef="0" IVar="-1" Cut="0.0000000000000000e+00" cType="1" res="-1.7339998157694936e-03" rms="3.2937452197074890e-01" purity="1.3390488922595978e-01" nType="-99"/>
                  <Node pos="r" depth="6" NCoef="0" IVar="2" Cut="4.9996789550781250e+02" cType="1" res="-3.0522599816322327e-02" rms="2.9596540331840515e-01" purity="1.0361367464065552e-01" nType="0">
                    <Node pos="l" depth="7" NCoef="0" IVar="-1" Cut="0.0000000000000000e+00" cType="1" res="-6.6131870262324810e-03" rms="3.0173951387405396e-01" purity="1.0742235928773880e-01" nType="-99"/>
                    <Node pos="r" depth="7" NCoef="0" IVar="-1" Cut="0.0000000000000000e+00" cType="1" res="-9.3656219542026520e-03" rms="2.8535908460617065e-01" purity="9.6915736794471741e-02" nType="-99"/>
                  </Node>
                </Node>
                <Node pos="r" depth="5" NCoef="0" IVar="-1" Cut="0.0000000000000000e+00" cType="1" res="-1.6169681912288070e-03" rms="3.5959148406982422e-01" purity="1.6197554767131805e-01" nType="-99"/>
              </Node>
              <Node pos="r" depth="4" NCoef="0" IVar="-1" Cut="0.0000000000000000e+00" cType="1" res="-8.5725478129461408e-05" rms="4.7392323613166809e-01" purity="3.6545062065124512e-01" nType="-99"/>
            </Node>
          </Node>
        </Node>
        <Node pos="r" depth="1" NCoef="0" IVar="2" Cut="3.7649099731445312e+02" cType="1" res="2.1616669371724129e-02" rms="4.4093176722526550e-01" purity="7.0391952991485596e-01" nType="0">
          <Node pos="l" depth="2" NCoef="0" IVar="0" Cut="6.1459439992904663e-01" cType="1" res="2.3337574675679207e-02" rms="4.3991309404373169e-01" purity="7.0857936143875122e-01" nType="0">
            <Node pos="l" depth="3" NCoef="0" IVar="0" Cut="1.7836953699588776e-01" cType="1" res="2.5452096015214920e-02" rms="4.3853211402893066e-01" purity="7.1728765964508057e-01" nType="0">
              <Node pos="l" depth="4" NCoef="0" IVar="1" Cut="9.2764824628829956e-01" cType="1" res="2.9611960053443909e-02" rms="4.2976433038711548e-01" purity="7.4463737010955811e-01" nType="0">
                <Node pos="l" depth="5" NCoef="0" IVar="1" Cut="3.6255311965942383e-01" cType="1" res="3.1090775504708290e-02" rms="4.2651534080505371e-01" purity="7.5221657752990723e-01" nType="0">
                  <Node pos="l" depth="6" NCoef="0" IVar="2" Cut="6.0708976745605469e+01" cType="1" res="3.2888915389776230e-02" rms="4.2147490382194519e-01" purity="7.6207977533340454e-01" nType="0">
                    <Node pos="l" depth="7" NCoef="0" IVar="-1" Cut="0.0000000000000000e+00" cType="1" res="3.6704626400023699e-03" rms="4.0775308012962341e-01" purity="7.8691601753234863e-01" nType="-99"/>
                    <Node pos="r" depth="7" NCoef="0" IVar="-1" Cut="0.0000000000000000e+00" cType="1" res="2.2995404433459044e-03" rms="4.5687052607536316e-01" purity="6.9402116537094116e-01" nType="-99"/>
                  </Node>
                  <Node pos="r" depth="6" NCoef="0" IVar="1" Cut="4.9013507366180420e-01" cType="1" res="2.0449919626116753e-02" rms="4.5505672693252563e-01" purity="6.9384884834289551e-01" nType="0">
                    <Node pos="l" depth="7" NCoef="0" IVar="-1" Cut="0.0000000000000000e+00" cType="1" res="8.6204241961240768e-04" rms="4.4952130317687988e-01" purity="7.0833700895309448e-01" nType="-99"/>
                    <Node pos="r" depth="7" NCoef="0" IVar="-1" Cut="0.0000000000000000e+00" cType="1" res="2.4007111787796021e-03" rms="4.5838901400566101e-01" purity="6.8466025590896606e-01" nType="-99"/>
                  </Node>
                </Node>
                <Node pos="r" depth="5" NCoef="0" IVar="3" Cut="9.7653359174728394e-01" cType="1" res="4.5877690427005291e-03" rms="4.8074024915695190e-01" purity="6.1638414859771729e-01" nType="0">
                  <Node pos="l" depth="6" NCoef="0" IVar="-1" Cut="0.0000000000000000e+00" cType="1" res="-9.7174348775297403e-04" rms="4.9753704667091370e-01" purity="5.4172945022583008e-01" nType="-99"/>
                  <Node pos="r" depth="6" NCoef="0" IVar="-1" Cut="0.0000000000000000e+00" cType="1" res="1.5544533962383866e-03" rms="4.6527671813964844e-01" purity="6.8090212345123291e-01" nType="-99"/>
                </Node>
              </Node>
              <Node pos="r" depth="4" NCoef="0" IVar="1" Cut="3.3702519536018372e-01" cType="1" res="2.6644200552254915e-03" rms="4.8311543464660645e-01" purity="5.6746673583984375e-01" nType="0">
                <Node pos="l" depth="5" NCoef="0" IVar="2" Cut="1.0929557800292969e+02" cType="1" res="1.7486065626144409e-02" rms="4.8053434491157532e-01" purity="6.0078173875808716e-01" nType="0">
                  <Node pos="l" depth="6" NCoef="0" IVar="0" Cut="2.6269039511680603e-01" cType="1" res="2.6567870751023293e-02" rms="4.7341164946556091e-01" purity="6.3610094785690308e-01" nType="0">
                    <Node pos="l" depth="7" NCoef="0" IVar="-1" Cut="0.0000000000000000e+00" cType="1" res="4.2445454746484756e-03" rms="4.5946189761161804e-01" purity="6.7673110961914062e-01" nType="-99"/>
                    <Node pos="r" depth="7" NCoef="0" IVar="-1" Cut="0.0000000000000000e+00" cType="1" res="1.5896370168775320e-03" rms="4.7992566227912903e-01" purity="6.1612153053283691e-01" nType="-99"/>
                  </Node>
                  <Node pos="r" depth="6" NCoef="0" IVar="0" Cut="2.9083219170570374e-01" cType="1" res="6.2188663287088275e-04" rms="4.9304443597793579e-01" purity="5.3519672155380249e-01" nType="0">
                    <Node pos="l" depth="7" NCoef="0" IVar="-1" Cut="0.0000000000000000e+00" cType="1" res="1.6859446186572313e-03" rms="4.8972246050834656e-01" purity="5.8410018682479858e-01" nType="-99"/>
                    <Node pos="r" depth="7" NCoef="0" IVar="-1" Cut="0.0000000000000000e+00" cType="1" res="-1.3836527941748500e-03" rms="4.9556389451026917e-01" purity="4.8971530795097351e-01" nType="-99"/>
                  </Node>
                </Node>
                <Node pos="r" depth="5" NCoef="0" IVar="0" Cut="3.1903675198554993e-01" cType="1" res="-4.4752214103937149e-02" rms="4.8826897144317627e-01" purity="4.6088713407516479e-01" nType="0">
                  <Node pos="l" depth="6" NCoef="0" IVar="-1" Cut="0.0000000000000000e+00" cType="1" res="-6.0619711875915527e-03" rms="4.8797363042831421e-01" purity="4.6566656231880188e-01" nType="-99"/>
                  <Node pos="r" depth="6" NCoef="0" IVar="-1" Cut="0.0000000000000000e+00" cType="1" res="-2.2063872311264277e-03" rms="4.8781007528305054e-01" purity="4.5592033863067627e-01" nType="-99"/>
                </Node>
              </Node>
            </Node>
            <Node pos="r" depth="3" NCoef="0" IVar="-1" Cut="0.0000000000000000e+00" cType="1" res="-4.8481994308531284e-03" rms="4.8075371980667114e-01" purity="3.9621683955192566e-01" nType="-99"/>
          </Node>
          <Node pos="r" depth="2" NCoef="0" IVar="-1" Cut="0.0000000000000000e+00" cType="1" res="-6.5183164551854134e-03" rms="4.8281165957450867e-01" purity="4.6010574698448181e-01" nType="-99"/>
        </Node>
      </Node>
    </BinaryTree>
    <BinaryTree type="DecisionTree" boostWeight="1.0000000000000000e+00" itree="58">
      <Node pos="s" depth="0" NCoef="0" IVar="3" Cut="7.7288961410522461e-01" cType="1" res="7.5843627564609051e-03" rms="4.1267418861389160e-01" purity="4.9916559457778931e-01" nType="0">
        <Node pos="l" depth="1" NCoef="0" IVar="3" Cut="4.7388824820518494e-01" cType="1" res="-7.9938974231481552e-03" rms="3.9293524622917175e-01" purity="2.6519808173179626e-01" nType="0">
          <Node pos="l" depth="2" NCoef="0" IVar="5" Cut="3.0000000000000000e+00" cType="1" res="8.5734851658344269e-02" rms="0.0000000000000000e+00" purity="1.0293357819318771e-01" nType="0">
            <Node pos="l" depth="3" NCoef="0" IVar="-1" Cut="0.0000000000000000e+00" cType="1" res="4.9342294223606586e-03" rms="3.8008493185043335e-01" purity="1.9779033958911896e-01" nType="-99"/>
            <Node pos="r" depth="3" NCoef="0" IVar="4" Cut="2.3057474195957184e-01" cType="1" res="-1.8107460811734200e-02" rms="2.8682136535644531e-01" purity="9.7886659204959869e-02" nType="0">
              <Node pos="l" depth="4" NCoef="0" IVar="4" Cut="1.3417370617389679e-01" cType="1" res="-2.0322367548942566e-02" rms="2.7008339762687683e-01" purity="8.4852702915668488e-02" nType="0">
                <Node pos="l" depth="5" NCoef="0" IVar="2" Cut="3.7929144287109375e+02" cType="1" res="-2.5124320760369301e-02" rms="2.3775517940521240e-01" purity="6.3190385699272156e-02" nType="0">
                  <Node pos="l" depth="6" NCoef="0" IVar="2" Cut="6.1646213531494141e+01" cType="1" res="-2.3471254855394363e-02" rms="2.4003256857395172e-01" purity="6.4706951379776001e-02" nType="0">
                    <Node pos="l" depth="7" NCoef="0" IVar="-1" Cut="0.0000000000000000e+00" cType="1" res="-3.3163535408675671e-03" rms="2.7246779203414917e-01" purity="8.4293931722640991e-02" nType="-99"/>
                    <Node pos="r" depth="7" NCoef="0" IVar="-1" Cut="0.0000000000000000e+00" cType="1" res="-9.3733230605721474e-03" rms="2.3409056663513184e-01" purity="6.1430647969245911e-02" nType="-99"/>
                  </Node>
                  <Node pos="r" depth="6" NCoef="0" IVar="-1" Cut="0.0000000000000000e+00" cType="1" res="-1.1841583997011185e-02" rms="2.2229382395744324e-01" purity="5.3457837551832199e-02" nType="-99"/>
                </Node>
                <Node pos="r" depth="5" NCoef="0" IVar="2" Cut="4.0374252319335938e+02" cType="1" res="-1.0776679031550884e-02" rms="3.2472148537635803e-01" purity="1.2791471183300018e-01" nType="0">
                  <Node pos="l" depth="6" NCoef="0" IVar="3" Cut="3.6909016966819763e-01" cType="1" res="1.5036280965432525e-03" rms="3.4292519092559814e-01" purity="1.4696247875690460e-01" nType="0">
                    <Node pos="l" depth="7" NCoef="0" IVar="-1" Cut="0.0000000000000000e+00" cType="1" res="-2.8324222657829523e-03" rms="2.9555723071098328e-01" purity="9.9732302129268646e-02" nType="-99"/>
                    <Node pos="r" depth="7" NCoef="0" IVar="-1" Cut="0.0000000000000000e+00" cType="1" res="3.6176934372633696e-03" rms="4.2670923471450806e-01" purity="2.4891972541809082e-01" nType="-99"/>
                  </Node>
                  <Node pos="r" depth="6" NCoef="0" IVar="4" Cut="1.8392628431320190e-01" cType="1" res="-2.1904168650507927e-02" rms="3.0687272548675537e-01" purity="1.1065502464771271e-01" nType="0">
                    <Node pos="l" depth="7" NCoef="0" IVar="-1" Cut="0.0000000000000000e+00" cType="1" res="-7.6096216216683388e-03" rms="2.8674659132957458e-01" purity="9.3471907079219818e-02" nType="-99"/>
                    <Node pos="r" depth="7" NCoef="0" IVar="-1" Cut="0.0000000000000000e+00" cType="1" res="-2.6869105640798807e-03" rms="3.3100256323814392e-01" purity="1.3302753865718842e-01" nType="-99"/>
                  </Node>
                </Node>
              </Node>
              <Node pos="r" depth="4" NCoef="0" IVar="3" Cut="1.8303826451301575e-01" cType="1" res="-1.3375405687838793e-03" rms="3.9054378867149353e-01" purity="1.9657176733016968e-01" nType="0">
                <Node pos="l" depth="5" NCoef="0" IVar="-1" Cut="0.0000000000000000e+00" cType="1" res="1.1015039635822177e-03" rms="3.9408594369888306e-01" purity="2.0461770892143250e-01" nType="-99"/>
                <Node pos="r" depth="5" NCoef="0" IVar="-1" Cut="0.0000000000000000e+00" cType="1" res="-1.4054732164368033e-03" rms="3.8719201087951660e-01" purity="1.8932928144931793e-01" nType="-99"/>
              </Node>
            </Node>
          </Node>
          <Node pos="r" depth="2" NCoef="0" IVar="1" Cut="5.8496166020631790e-02" cType="1" res="-6.6564721055328846e-04" rms="4.6718654036521912e-01" purity="4.1587501764297485e-01" nType="0">
            <Node pos="l" depth="3" NCoef="0" IVar="5" Cut="3.0000000000000000e+00" cType="1" res="1.2099474668502808e-02" rms="4.7935643792152405e-01" purity="4.7611933946609497e-01" nType="0">
              <Node pos="l" depth="4" NCoef="0" IVar="4" Cut="7.6655752956867218e-02" cType="1" res="-1.4496993273496628e-02" rms="4.8201373219490051e-01" purity="4.6780127286911011e-01" nType="0">
                <Node pos="l" depth="5" NCoef="0" IVar="-1" Cut="0.0000000000000000e+00" cType="1" res="-2.9177584219723940e-03" rms="4.8020309209823608e-01" purity="4.5441740751266479e-01" nType="-99"/>
                <Node pos="r" depth="5" NCoef="0" IVar="-1" Cut="0.0000000000000000e+00" cType="1" res="4.2638470767997205e-04" rms="4.8313710093498230e-01" purity="4.8175546526908875e-01" nType="-99"/>
              </Node>
              <Node pos="r" depth="4" NCoef="0" IVar="2" Cut="1.4622659301757812e+02" cType="1" res="2.0365862175822258e-02" rms="4.7833198308944702e-01" purity="4.7876948118209839e-01" nType="0">
                <Node pos="l" depth="5" NCoef="0" IVar="4" Cut="7.0905797183513641e-02" cType="1" res="3.5234939306974411e-02" rms="4.8109146952629089e-01" purity="5.3398483991622925e-01" nType="0">
                  <Node pos="l" depth="6" NCoef="0" IVar="5" Cut="4.0000000000000000e+00" cType="1" res="1.7580209299921989e-02" rms="4.7954580187797546e-01" purity="5.1288837194442749e-01" nType="0">
                    <Node pos="l" depth="7" NCoef="0" IVar="-1" Cut="0.0000000000000000e+00" cType="1" res="2.8776968247257173e-04" rms="4.7898414731025696e-01" purity="5.2680474519729614e-01" nType="-99"/>
                    <Node pos="r" depth="7" NCoef="0" IVar="-1" Cut="0.0000000000000000e+00" cType="1" res="3.8263495080173016e-03" rms="4.8550030589103699e-01" purity="4.8901045322418213e-01" nType="-99"/>
                  </Node>
                  <Node pos="r" depth="6" NCoef="0" IVar="-1" Cut="0.0000000000000000e+00" cType="1" res="5.9941303916275501e-03" rms="4.7725582122802734e-01" purity="5.7987642288208008e-01" nType="-99"/>
                </Node>
                <Node pos="r" depth="5" NCoef="0" IVar="0" Cut="2.7174782752990723e-01" cType="1" res="5.5154035799205303e-03" rms="4.7509568929672241e-01" purity="4.2362329363822937e-01" nType="0">
                  <Node pos="l" depth="6" NCoef="0" IVar="4" Cut="1.0361470282077789e-01" cType="1" res="1.3453351333737373e-02" rms="4.9193933606147766e-01" purity="5.1054877042770386e-01" nType="0">
                    <Node pos="l" depth="7" NCoef="0" IVar="-1" Cut="0.0000000000000000e+00" cType="1" res="2.6328949024900794e-04" rms="4.9244460463523865e-01" purity="5.4153233766555786e-01" nType="-99"/>
                    <Node pos="r" depth="7" NCoef="0" IVar="-1" Cut="0.0000000000000000e+00" cType="1" res="2.4123315233737230e-03" rms="4.9103206396102905e-01" purity="4.7341465950012207e-01" nType="-99"/>
                  </Node>
                  <Node pos="r" depth="6" NCoef="0" IVar="3" Cut="5.7036018371582031e-01" cType="1" res="-3.7718659732490778e-03" rms="4.5442137122154236e-01" purity="3.2192197442054749e-01" nType="0">
                    <Node pos="l" depth="7" NCoef="0" IVar="-1" Cut="0.0000000000000000e+00" cType="1" res="-1.4713536947965622e-03" rms="4.2839437723159790e-01" purity="2.5395894050598145e-01" nType="-99"/>
                    <Node pos="r" depth="7" NCoef="0" IVar="-1" Cut="0.0000000000000000e+00" cType="1" res="4.8808244173415005e-04" rms="4.8155328631401062e-01" purity="3.9746254682540894e-01" nType="-99"/>
                  </Node>
                </Node>
              </Node>
            </Node>
            <Node pos="r" depth="3" NCoef="0" IVar="1" Cut="1.2217899560928345e+00" cType="1" res="-1.1853357776999474e-02" rms="4.5573040843009949e-01" purity="3.6241698265075684e-01" nType="0">
              <Node pos="l" depth="4" NCoef="0" IVar="3" Cut="7.0536887645721436e-01" cType="1" res="-7.3096309788525105e-03" rms="4.6010226011276245e-01" purity="3.7459903955459595e-01" nType="0">
                <Node pos="l" depth="5" NCoef="0" IVar="1" Cut="8.0892521142959595e-01" cType="1" res="-1.4185393229126930e-02" rms="4.4965142011642456e-01" purity="3.2048270106315613e-01" nType="0">
                  <Node pos="l" depth="6" NCoef="0" IVar="4" Cut="1.2844835221767426e-01" cType="1" res="-9.6281869336962700e-03" rms="4.5547223091125488e-01" purity="3.3395117521286011e-01" nType="0">
                    <Node pos="l" depth="7" NCoef="0" IVar="-1" Cut="0.0000000000000000e+00" cType="1" res="-1.5987600199878216e-03" rms="4.5221975445747375e-01" purity="3.2739624381065369e-01" nType="-99"/>
                    <Node pos="r" depth="7" NCoef="0" IVar="-1" Cut="0.0000000000000000e+00" cType="1" res="2.0346462260931730e-03" rms="4.7318324446678162e-01" purity="3.7274977564811707e-01" nType="-99"/>
                  </Node>
                  <Node pos="r" depth="6" NCoef="0" IVar="-1" Cut="0.0000000000000000e+00" cType="1" res="-6.4346245490014553e-03" rms="3.9991456270217896e-01" purity="2.1606530249118805e-01" nType="-99"/>
                </Node>
                <Node pos="r" depth="5" NCoef="0" IVar="1" Cut="3.5855510830879211e-01" cType="1" res="1.3876862823963165e-02" rms="4.9030175805091858e-01" purity="5.4134953022003174e-01" nType="0">
                  <Node pos="l" depth="6" NCoef="0" IVar="-1" Cut="0.0000000000000000e+00" cType="1" res="2.3433088790625334e-03" rms="4.8850846290588379e-01" purity="5.8352023363113403e-01" nType="-99"/>
                  <Node pos="r" depth="6" NCoef="0" IVar="-1" Cut="0.0000000000000000e+00" cType="1" res="-5.3117313655093312e-04" rms="4.9224910140037537e-01" purity="4.7925382852554321e-01" nType="-99"/>
                </Node>
              </Node>
              <Node pos="r" depth="4" NCoef="0" IVar="-1" Cut="0.0000000000000000e+00" cType="1" res="-7.0905359461903572e-03" rms="4.0589007735252380e-01" purity="2.3885758221149445e-01" nType="-99"/>
            </Node>
          </Node>
        </Node>
        <Node pos="r" depth="1" NCoef="0" IVar="1" Cut="5.0322329998016357e-01" cType="1" res="2.3322096094489098e-02" rms="4.3112850189208984e-01" purity="7.3552811145782471e-01" nType="0">
          <Node pos="l" depth="2" NCoef="0" IVar="2" Cut="1.8824549865722656e+02" cType="1" res="2.7579367160797119e-02" rms="4.2444235086441040e-01" purity="7.5308090448379517e-01" nType="0">
            <Node pos="l" depth="3" NCoef="0" IVar="2" Cut="6.0722507476806641e+01" cType="1" res="2.8967786580324173e-02" rms="4.2151015996932983e-01" purity="7.6063615083694458e-01" nType="0">
              <Node pos="l" depth="4" NCoef="0" IVar="4" Cut="3.5485293716192245e-02" cType="1" res="3.3535972237586975e-02" rms="4.1259396076202393e-01" purity="7.7712428569793701e-01" nType="0">
                <Node pos="l" depth="5" NCoef="0" IVar="4" Cut="1.4871641062200069e-02" cType="1" res="3.1547553837299347e-02" rms="4.1157519817352295e-01" purity="7.7852767705917358e-01" nType="0">
                  <Node pos="l" depth="6" NCoef="0" IVar="4" Cut="4.7961127711459994e-04" cType="1" res="3.0235208570957184e-02" rms="4.0872868895530701e-01" purity="7.8310763835906982e-01" nType="0">
                    <Node pos="l" depth="7" NCoef="0" IVar="-1" Cut="0.0000000000000000e+00" cType="1" res="3.4802816808223724e-03" rms="4.0405020117759705e-01" purity="7.9103511571884155e-01" nType="-99"/>
                    <Node pos="r" depth="7" NCoef="0" IVar="-1" Cut="0.0000000000000000e+00" cType="1" res="-2.6854852330870926e-04" rms="4.5504882931709290e-01" purity="6.9721001386642456e-01" nType="-99"/>
                  </Node>
                  <Node pos="r" depth="6" NCoef="0" IVar="2" Cut="3.0848030090332031e+01" cType="1" res="4.3942898511886597e-02" rms="4.3735423684120178e-01" purity="7.3526912927627563e-01" nType="0">
                    <Node pos="l" depth="7" NCoef="0" IVar="-1" Cut="0.0000000000000000e+00" cType="1" res="2.5137243792414665e-03" rms="4.4889479875564575e-01" purity="7.1700131893157959e-01" nType="-99"/>
                    <Node pos="r" depth="7" NCoef="0" IVar="-1" Cut="0.0000000000000000e+00" cType="1" res="5.3650136105716228e-03" rms="4.2972773313522339e-01" purity="7.4658662080764771e-01" nType="-99"/>
                  </Node>
                </Node>
                <Node pos="r" depth="5" NCoef="0" IVar="-1" Cut="0.0000000000000000e+00" cType="1" res="5.4271174594759941e-03" rms="4.2832586169242859e-01" purity="7.5293529033660889e-01" nType="-99"/>
              </Node>
              <Node pos="r" depth="4" NCoef="0" IVar="4" Cut="2.9297428205609322e-02" cType="1" res="1.0160073637962341e-02" rms="4.5590588450431824e-01" purity="6.9275295734405518e-01" nType="0">
                <Node pos="l" depth="5" NCoef="0" IVar="-1" Cut="0.0000000000000000e+00" cType="1" res="-1.7153127118945122e-03" rms="4.5917636156082153e-01" purity="6.7847621440887451e-01" nType="-99"/>
                <Node pos="r" depth="5" NCoef="0" IVar="2" Cut="8.1321777343750000e+01" cType="1" res="1.7517480999231339e-02" rms="4.5471775531768799e-01" purity="6.9672876596450806e-01" nType="0">
                  <Node pos="l" depth="6" NCoef="0" IVar="-1" Cut="0.0000000000000000e+00" cType="1" res="4.1536926291882992e-03" rms="4.4027146697044373e-01" purity="7.3125165700912476e-01" nType="-99"/>
                  <Node pos="r" depth="6" NCoef="0" IVar="3" Cut="8.6584502458572388e-01" cType="1" res="9.3876253813505173e-03" rms="4.5846998691558838e-01" purity="6.8679004907608032e-01" nType="0">
                    <Node pos="l" depth="7" NCoef="0" IVar="-1" Cut="0.0000000000000000e+00" cType="1" res="-5.8294543123338372e-05" rms="4.7243633866310120e-01" purity="6.5480482578277588e-01" nType="-99"/>
                    <Node pos="r" depth="7" NCoef="0" IVar="-1" Cut="0.0000000000000000e+00" cType="1" res="2.9232276137918234e-03" rms="4.3125215172767639e-01" purity="7.4509251117706299e-01" nType="-99"/>
                  </Node>
                </Node>
              </Node>
            </Node>
            <Node pos="r" depth="3" NCoef="0" IVar="-1" Cut="0.0000000000000000e+00" cType="1" res="3.5139982355758548e-04" rms="4.7138497233390808e-01" purity="6.2315815687179565e-01" nType="-99"/>
          </Node>
          <Node pos="r" depth="2" NCoef="0" IVar="3" Cut="9.8723328113555908e-01" cType="1" res="-2.8350444044917822e-03" rms="4.6927973628044128e-01" purity="6.2768197059631348e-01" nType="0">
            <Node pos="l" depth="3" NCoef="0" IVar="3" Cut="8.7659478187561035e-01" cType="1" res="-1.5063556842505932e-02" rms="4.8724645376205444e-01" purity="5.6333601474761963e-01" nType="0">
              <Node pos="l" depth="4" NCoef="0" IVar="-1" Cut="0.0000000000000000e+00" cType="1" res="-8.7021006038412452e-04" rms="4.9059253931045532e-01" purity="5.4434078931808472e-01" nType="-99"/>
              <Node pos="r" depth="4" NCoef="0" IVar="-1" Cut="0.0000000000000000e+00" cType="1" res="-2.1293282043188810e-03" rms="4.8111408948898315e-01" purity="5.9723699092864990e-01" nType="-99"/>
            </Node>
            <Node pos="r" depth="3" NCoef="0" IVar="-1" Cut="0.0000000000000000e+00" cType="1" res="6.5780075965449214e-04" rms="4.5324456691741943e-01" purity="6.8219280242919922e-01" nType="-99"/>
          </Node>
        </Node>
      </Node>
    </BinaryTree>
    <BinaryTree type="DecisionTree" boostWeight="1.0000000000000000e+00" itree="59">
      <Node pos="s" depth="0" NCoef="0" IVar="3" Cut="7.7288961410522461e-01" cType="1" res="8.4558455273509026e-03" rms="4.1156002879142761e-01" purity="5.0076931715011597e-01" nType="0">
        <Node pos="l" depth="1" NCoef="0" IVar="1" Cut="1.4958879351615906e-01" cType="1" res="-8.0357110127806664e-03" rms="3.9214354753494263e-01" purity="2.6429790258407593e-01" nType="0">
          <Node pos="l" depth="2" NCoef="0" IVar="2" Cut="1.8722917175292969e+02" cType="1" res="1.5868310583755374e-03" rms="4.2788109183311462e-01" purity="3.3921298384666443e-01" nType="0">
            <Node pos="l" depth="3" NCoef="0" IVar="4" Cut="4.9346812069416046e-02" cType="1" res="1.3142258860170841e-02" rms="4.5217543840408325e-01" purity="4.2048284411430359e-01" nType="0">
              <Node pos="l" depth="4" NCoef="0" IVar="2" Cut="3.7004409790039062e+01" cType="1" res="-5.0526475533843040e-03" rms="4.5062622427940369e-01" purity="4.0993967652320862e-01" nType="0">
                <Node pos="l" depth="5" NCoef="0" IVar="-1" Cut="0.0000000000000000e+00" cType="1" res="2.5494853034615517e-03" rms="4.6927848458290100e-01" purity="4.9240157008171082e-01" nType="-99"/>
                <Node pos="r" depth="5" NCoef="0" IVar="4" Cut="3.1503807753324509e-02" cType="1" res="-1.7316967248916626e-02" rms="4.4273996353149414e-01" purity="3.7871205806732178e-01" nType="0">
                  <Node pos="l" depth="6" NCoef="0" IVar="-1" Cut="0.0000000000000000e+00" cType="1" res="-5.6543876416981220e-03" rms="4.3313014507293701e-01" purity="3.3786392211914062e-01" nType="-99"/>
                  <Node pos="r" depth="6" NCoef="0" IVar="2" Cut="9.5132369995117188e+01" cType="1" res="1.6714046942070127e-03" rms="4.4715365767478943e-01" purity="4.0252500772476196e-01" nType="0">
                    <Node pos="l" depth="7" NCoef="0" IVar="-1" Cut="0.0000000000000000e+00" cType="1" res="2.2226825822144747e-03" rms="4.6180731058120728e-01" purity="4.5832589268684387e-01" nType="-99"/>
                    <Node pos="r" depth="7" NCoef="0" IVar="-1" Cut="0.0000000000000000e+00" cType="1" res="-2.4049421772360802e-03" rms="4.2947465181350708e-01" purity="3.4143134951591492e-01" nType="-99"/>
                  </Node>
                </Node>
              </Node>
              <Node pos="r" depth="4" NCoef="0" IVar="2" Cut="9.2999031066894531e+01" cType="1" res="2.4894509464502335e-02" rms="4.5278480648994446e-01" purity="4.2729273438453674e-01" nType="0">
                <Node pos="l" depth="5" NCoef="0" IVar="3" Cut="6.0702115297317505e-01" cType="1" res="4.8532117158174515e-02" rms="4.7236001491546631e-01" purity="5.0429832935333252e-01" nType="0">
                  <Node pos="l" depth="6" NCoef="0" IVar="-1" Cut="0.0000000000000000e+00" cType="1" res="7.3070800863206387e-03" rms="4.6062868833541870e-01" purity="3.7304484844207764e-01" nType="-99"/>
                  <Node pos="r" depth="6" NCoef="0" IVar="-1" Cut="0.0000000000000000e+00" cType="1" res="2.6946354191750288e-03" rms="4.8049470782279968e-01" purity="6.0329085588455200e-01" nType="-99"/>
                </Node>
                <Node pos="r" depth="5" NCoef="0" IVar="4" Cut="9.0528972446918488e-02" cType="1" res="1.2392101809382439e-02" rms="4.4156944751739502e-01" purity="3.8656288385391235e-01" nType="0">
                  <Node pos="l" depth="6" NCoef="0" IVar="2" Cut="1.3556419372558594e+02" cType="1" res="-3.1017034780234098e-03" rms="4.3981367349624634e-01" purity="3.8771644234657288e-01" nType="0">
                    <Node pos="l" depth="7" NCoef="0" IVar="-1" Cut="0.0000000000000000e+00" cType="1" res="9.4887166051194072e-04" rms="4.4987601041793823e-01" purity="4.1835278272628784e-01" nType="-99"/>
                    <Node pos="r" depth="7" NCoef="0" IVar="-1" Cut="0.0000000000000000e+00" cType="1" res="-1.7779825720936060e-03" rms="4.2904555797576904e-01" purity="3.5667681694030762e-01" nType="-99"/>
                  </Node>
                  <Node pos="r" depth="6" NCoef="0" IVar="3" Cut="4.9959066510200500e-01" cType="1" res="2.8024028986692429e-02" rms="4.4278472661972046e-01" purity="3.8539907336235046e-01" nType="0">
                    <Node pos="l" depth="7" NCoef="0" IVar="-1" Cut="0.0000000000000000e+00" cType="1" res="2.5478098541498184e-03" rms="3.8784480094909668e-01" purity="2.0637375116348267e-01" nType="-99"/>
                    <Node pos="r" depth="7" NCoef="0" IVar="-1" Cut="0.0000000000000000e+00" cType="1" res="3.3061045687645674e-03" rms="4.8441952466964722e-01" purity="5.3793650865554810e-01" nType="-99"/>
                  </Node>
                </Node>
              </Node>
            </Node>
            <Node pos="r" depth="3" NCoef="0" IVar="3" Cut="1.9980050623416901e-01" cType="1" res="-9.2297261580824852e-03" rms="4.0351817011833191e-01" purity="2.6313960552215576e-01" nType="0">
              <Node pos="l" depth="4" NCoef="0" IVar="-1" Cut="0.0000000000000000e+00" cType="1" res="1.0877535678446293e-03" rms="3.6290687322616577e-01" purity="1.8167477846145630e-01" nType="-99"/>
              <Node pos="r" depth="4" NCoef="0" IVar="0" Cut="8.6721456050872803e-01" cType="1" res="-1.0942555032670498e-02" rms="4.0788003802299500e-01" purity="2.7247750759124756e-01" nType="0">
                <Node pos="l" depth="5" NCoef="0" IVar="5" Cut="4.0000000000000000e+00" cType="1" res="-3.3398037776350975e-03" rms="3.8839238882064819e-01" purity="3.5227060317993164e-01" nType="0">
                  <Node pos="l" depth="6" NCoef="0" IVar="2" Cut="3.6748223876953125e+02" cType="1" res="-1.3962885364890099e-02" rms="4.7525534033775330e-01" purity="4.2046719789505005e-01" nType="0">
                    <Node pos="l" depth="7" NCoef="0" IVar="-1" Cut="0.0000000000000000e+00" cType="1" res="-7.2635250398889184e-04" rms="4.8205736279487610e-01" purity="4.4626453518867493e-01" nType="-99"/>
                    <Node pos="r" depth="7" NCoef="0" IVar="-1" Cut="0.0000000000000000e+00" cType="1" res="-2.6971211191266775e-03" rms="4.6169817447662354e-01" purity="3.7104716897010803e-01" nType="-99"/>
                  </Node>
                  <Node pos="r" depth="6" NCoef="0" IVar="3" Cut="5.4916203022003174e-01" cType="1" res="4.3982858769595623e-03" rms="4.2918384075164795e-01" purity="2.8686958551406860e-01" nType="0">
                    <Node pos="l" depth="7" NCoef="0" IVar="-1" Cut="0.0000000000000000e+00" cType="1" res="-1.0024907533079386e-03" rms="4.0287256240844727e-01" purity="2.1587091684341431e-01" nType="-99"/>
                    <Node pos="r" depth="7" NCoef="0" IVar="-1" Cut="0.0000000000000000e+00" cType="1" res="3.1799499411135912e-03" rms="4.8928305506706238e-01" purity="4.6958142518997192e-01" nType="-99"/>
                  </Node>
                </Node>
                <Node pos="r" depth="5" NCoef="0" IVar="2" Cut="3.5275158691406250e+02" cType="1" res="-2.5514528155326843e-02" rms="2.7958539128303528e-01" purity="8.9436598122119904e-02" nType="0">
                  <Node pos="l" depth="6" NCoef="0" IVar="-1" Cut="0.0000000000000000e+00" cType="1" res="-4.4989036396145821e-03" rms="2.9068556427955627e-01" purity="9.9778711795806885e-02" nType="-99"/>
                  <Node pos="r" depth="6" NCoef="0" IVar="-1" Cut="0.0000000000000000e+00" cType="1" res="-9.5791909843683243e-03" rms="2.6777991652488708e-01" purity="7.9147160053253174e-02" nType="-99"/>
                </Node>
              </Node>
            </Node>
          </Node>
          <Node pos="r" depth="2" NCoef="0" IVar="3" Cut="7.2305524349212646e-01" cType="1" res="-1.6978375613689423e-02" rms="3.5549324750900269e-01" purity="1.9467592239379883e-01" nType="0">
            <Node pos="l" depth="3" NCoef="0" IVar="5" Cut="3.0000000000000000e+00" cType="1" res="1.1754525452852249e-01" rms="0.0000000000000000e+00" purity="1.6725550591945648e-01" nType="0">
              <Node pos="l" depth="4" NCoef="0" IVar="3" Cut="5.3871423006057739e-01" cType="1" res="-4.0251322090625763e-02" rms="3.9597797393798828e-01" purity="2.2631081938743591e-01" nType="0">
                <Node pos="l" depth="5" NCoef="0" IVar="-1" Cut="0.0000000000000000e+00" cType="1" res="-6.3287336379289627e-03" rms="3.2111600041389465e-01" purity="1.2261803448200226e-01" nType="-99"/>
                <Node pos="r" depth="5" NCoef="0" IVar="-1" Cut="0.0000000000000000e+00" cType="1" res="-5.1368391141295433e-03" rms="4.3621134757995605e-01" purity="2.9125314950942993e-01" nType="-99"/>
              </Node>
              <Node pos="r" depth="4" NCoef="0" IVar="3" Cut="4.4341549277305603e-01" cType="1" res="-1.6891187056899071e-02" rms="3.3447244763374329e-01" purity="1.5940871834754944e-01" nType="0">
                <Node pos="l" depth="5" NCoef="0" IVar="5" Cut="4.0000000000000000e+00" cType="1" res="6.1646342277526855e-02" rms="8.8548406958580017e-02" purity="6.9029852747917175e-02" nType="0">
                  <Node pos="l" depth="6" NCoef="0" IVar="-1" Cut="0.0000000000000000e+00" cType="1" res="-2.9451753944158554e-03" rms="3.0730941891670227e-01" purity="1.1247783899307251e-01" nType="-99"/>
                  <Node pos="r" depth="6" NCoef="0" IVar="3" Cut="2.7202349901199341e-01" cType="1" res="-2.3705555126070976e-02" rms="2.3952981829643250e-01" purity="6.4029708504676819e-02" nType="0">
                    <Node pos="l" depth="7" NCoef="0" IVar="-1" Cut="0.0000000000000000e+00" cType="1" res="-1.1990764178335667e-02" rms="2.1287187933921814e-01" purity="4.9862246960401535e-02" nType="-99"/>
                    <Node pos="r" depth="7" NCoef="0" IVar="-1" Cut="0.0000000000000000e+00" cType="1" res="-6.2770694494247437e-03" rms="2.6037776470184326e-01" purity="7.6319172978401184e-02" nType="-99"/>
                  </Node>
                </Node>
                <Node pos="r" depth="5" NCoef="0" IVar="4" Cut="7.4690356850624084e-02" cType="1" res="-8.2843443378806114e-03" rms="4.3675884604454041e-01" purity="3.0036851763725281e-01" nType="0">
                  <Node pos="l" depth="6" NCoef="0" IVar="1" Cut="7.1078294515609741e-01" cType="1" res="-1.7949940636754036e-02" rms="4.2740935087203979e-01" purity="2.8533202409744263e-01" nType="0">
                    <Node pos="l" depth="7" NCoef="0" IVar="-1" Cut="0.0000000000000000e+00" cType="1" res="-7.4887211667373776e-04" rms="4.4280540943145752e-01" purity="3.1548544764518738e-01" nType="-99"/>
                    <Node pos="r" depth="7" NCoef="0" IVar="-1" Cut="0.0000000000000000e+00" cType="1" res="-6.6937236115336418e-03" rms="3.8123610615730286e-01" purity="2.0422366261482239e-01" nType="-99"/>
                  </Node>
                  <Node pos="r" depth="6" NCoef="0" IVar="2" Cut="1.7431875610351562e+02" cType="1" res="3.9376705535687506e-04" rms="4.4480693340301514e-01" purity="3.1386876106262207e-01" nType="0">
                    <Node pos="l" depth="7" NCoef="0" IVar="-1" Cut="0.0000000000000000e+00" cType="1" res="2.8138258494436741e-03" rms="4.6902292966842651e-01" purity="3.7306615710258484e-01" nType="-99"/>
                    <Node pos="r" depth="7" NCoef="0" IVar="-1" Cut="0.0000000000000000e+00" cType="1" res="-1.3693699147552252e-03" rms="4.3338611721992493e-01" purity="2.8826075792312622e-01" nType="-99"/>
                  </Node>
                </Node>
              </Node>
            </Node>
            <Node pos="r" depth="3" NCoef="0" IVar="-1" Cut="0.0000000000000000e+00" cType="1" res="1.3201355468481779e-03" rms="4.8784586787223816e-01" purity="5.3158915042877197e-01" nType="-99"/>
          </Node>
        </Node>
        <Node pos="r" depth="1" NCoef="0" IVar="3" Cut="1.0594278573989868e+00" cType="1" res="2.5043152272701263e-02" rms="4.2956799268722534e-01" purity="7.3861366510391235e-01" nType="0">
          <Node pos="l" depth="2" NCoef="0" IVar="0" Cut="6.1459439992904663e-01" cType="1" res="2.6696374639868736e-02" rms="4.2911931872367859e-01" purity="7.4187320470809937e-01" nType="0">
            <Node pos="l" depth="3" NCoef="0" IVar="0" Cut="1.7838127911090851e-01" cType="1" res="2.7791576460003853e-02" rms="4.2761754989624023e-01" purity="7.4844408035278320e-01" nType="0">
              <Node pos="l" depth="4" NCoef="0" IVar="1" Cut="9.2064899206161499e-01" cType="1" res="3.0272332951426506e-02" rms="4.2197826504707336e-01" purity="7.6116245985031128e-01" nType="0">
                <Node pos="l" depth="5" NCoef="0" IVar="3" Cut="8.3758556842803955e-01" cType="1" res="3.1889531761407852e-02" rms="4.1829293966293335e-01" purity="7.6894694566726685e-01" nType="0">
                  <Node pos="l" depth="6" NCoef="0" IVar="5" Cut="3.0000000000000000e+00" cType="1" res="1.8016858026385307e-02" rms="4.6487599611282349e-01" purity="6.7850935459136963e-01" nType="0">
                    <Node pos="l" depth="7" NCoef="0" IVar="-1" Cut="0.0000000000000000e+00" cType="1" res="8.9756096713244915e-04" rms="4.7001212835311890e-01" purity="6.6747331619262695e-01" nType="-99"/>
                    <Node pos="r" depth="7" NCoef="0" IVar="-1" Cut="0.0000000000000000e+00" cType="1" res="3.6836999934166670e-03" rms="4.5460942387580872e-01" purity="7.0517587661743164e-01" nType="-99"/>
                  </Node>
                  <Node pos="r" depth="6" NCoef="0" IVar="3" Cut="9.9500417709350586e-01" cType="1" res="3.3792175352573395e-02" rms="4.1104754805564880e-01" purity="7.8185212612152100e-01" nType="0">
                    <Node pos="l" depth="7" NCoef="0" IVar="-1" Cut="0.0000000000000000e+00" cType="1" res="3.0236716847866774e-03" rms="4.2584276199340820e-01" purity="7.5875025987625122e-01" nType="-99"/>
                    <Node pos="r" depth="7" NCoef="0" IVar="-1" Cut="0.0000000000000000e+00" cType="1" res="3.9305109530687332e-03" rms="3.9560344815254211e-01" purity="8.0503791570663452e-01" nType="-99"/>
                  </Node>
                </Node>
                <Node pos="r" depth="5" NCoef="0" IVar="3" Cut="9.8532402515411377e-01" cType="1" res="2.7167424559593201e-03" rms="4.7961077094078064e-01" purity="6.2852245569229126e-01" nType="0">
                  <Node pos="l" depth="6" NCoef="0" IVar="-1" Cut="0.0000000000000000e+00" cType="1" res="-1.0519464267417789e-03" rms="4.9554541707038879e-01" purity="5.6439679861068726e-01" nType="-99"/>
                  <Node pos="r" depth="6" NCoef="0" IVar="-1" Cut="0.0000000000000000e+00" cType="1" res="1.2747390428557992e-03" rms="4.6599438786506653e-01" purity="6.8022125959396362e-01" nType="-99"/>
                </Node>
              </Node>
              <Node pos="r" depth="4" NCoef="0" IVar="2" Cut="1.0553221130371094e+02" cType="1" res="4.9602980725467205e-03" rms="4.7578674554824829e-01" purity="6.3139206171035767e-01" nType="0">
                <Node pos="l" depth="5" NCoef="0" IVar="3" Cut="8.6532354354858398e-01" cType="1" res="9.2504369094967842e-03" rms="4.6953663229942322e-01" purity="6.5345287322998047e-01" nType="0">
                  <Node pos="l" depth="6" NCoef="0" IVar="-1" Cut="0.0000000000000000e+00" cType="1" res="-1.4268126687966287e-04" rms="4.8468303680419922e-01" purity="5.9853678941726685e-01" nType="-99"/>
                  <Node pos="r" depth="6" NCoef="0" IVar="-1" Cut="0.0000000000000000e+00" cType="1" res="1.5296379569917917e-03" rms="4.5895966887474060e-01" purity="6.9026899337768555e-01" nType="-99"/>
                </Node>
                <Node pos="r" depth="5" NCoef="0" IVar="-1" Cut="0.0000000000000000e+00" cType="1" res="-6.3243927434086800e-04" rms="4.9239280819892883e-01" purity="5.7065075635910034e-01" nType="-99"/>
              </Node>
            </Node>
            <Node pos="r" depth="3" NCoef="0" IVar="-1" Cut="0.0000000000000000e+00" cType="1" res="-1.9762157462537289e-03" rms="4.8935693502426147e-01" purity="4.4667848944664001e-01" nType="-99"/>
          </Node>
          <Node pos="r" depth="2" NCoef="0" IVar="-1" Cut="0.0000000000000000e+00" cType="1" res="-4.3222592212259769e-03" rms="4.4266739487648010e-01" purity="5.9777224063873291e-01" nType="-99"/>
        </Node>
      </Node>
    </BinaryTree>
    <BinaryTree type="DecisionTree" boostWeight="1.0000000000000000e+00" itree="60">
      <Node pos="s" depth="0" NCoef="0" IVar="3" Cut="7.7150195837020874e-01" cType="1" res="7.0045273751020432e-03" rms="4.1224530339241028e-01" purity="4.9860411882400513e-01" nType="0">
        <Node pos="l" depth="1" NCoef="0" IVar="3" Cut="6.4716833829879761e-01" cType="1" res="-8.0055389553308487e-03" rms="3.9256909489631653e-01" purity="2.6383107900619507e-01" nType="0">
          <Node pos="l" depth="2" NCoef="0" IVar="4" Cut="1.5675626695156097e-01" cType="1" res="-1.1603378690779209e-02" rms="3.5662853717803955e-01" purity="1.8048273026943207e-01" nType="0">
            <Node pos="l" depth="3" NCoef="0" IVar="2" Cut="8.7966392517089844e+01" cType="1" res="-1.4070172794163227e-02" rms="3.5117974877357483e-01" purity="1.7823566496372223e-01" nType="0">
              <Node pos="l" depth="4" NCoef="0" IVar="4" Cut="3.4761130809783936e-02" cType="1" res="-2.7922086883336306e-03" rms="3.7375637888908386e-01" purity="2.1569710969924927e-01" nType="0">
                <Node pos="l" depth="5" NCoef="0" IVar="2" Cut="4.0018154144287109e+01" cType="1" res="-2.2897917777299881e-02" rms="3.4457278251647949e-01" purity="1.6551658511161804e-01" nType="0">
                  <Node pos="l" depth="6" NCoef="0" IVar="-1" Cut="0.0000000000000000e+00" cType="1" res="5.9680431149899960e-04" rms="3.7450787425041199e-01" purity="2.0653687417507172e-01" nType="-99"/>
                  <Node pos="r" depth="6" NCoef="0" IVar="-1" Cut="0.0000000000000000e+00" cType="1" res="-1.0332542471587658e-02" rms="3.0617603659629822e-01" purity="1.2092130631208420e-01" nType="-99"/>
                </Node>
                <Node pos="r" depth="5" NCoef="0" IVar="3" Cut="4.5964235067367554e-01" cType="1" res="1.0035605169832706e-02" rms="3.9069989323616028e-01" purity="2.4771320819854736e-01" nType="0">
                  <Node pos="l" depth="6" NCoef="0" IVar="-1" Cut="0.0000000000000000e+00" cType="1" res="-3.5377056337893009e-03" rms="2.7080774307250977e-01" purity="8.2776978611946106e-02" nType="-99"/>
                  <Node pos="r" depth="6" NCoef="0" IVar="5" Cut="4.0000000000000000e+00" cType="1" res="2.6671178638935089e-02" rms="4.6695148944854736e-01" purity="3.8581001758575439e-01" nType="0">
                    <Node pos="l" depth="7" NCoef="0" IVar="-1" Cut="0.0000000000000000e+00" cType="1" res="3.0291418079286814e-04" rms="4.6017834544181824e-01" purity="3.4477293491363525e-01" nType="-99"/>
                    <Node pos="r" depth="7" NCoef="0" IVar="-1" Cut="0.0000000000000000e+00" cType="1" res="5.0306306220591068e-03" rms="4.7359445691108704e-01" purity="4.2952442169189453e-01" nType="-99"/>
                  </Node>
                </Node>
              </Node>
              <Node pos="r" depth="4" NCoef="0" IVar="4" Cut="1.3394857943058014e-01" cType="1" res="-1.7229335382580757e-02" rms="3.4452432394027710e-01" purity="1.6774202883243561e-01" nType="0">
                <Node pos="l" depth="5" NCoef="0" IVar="2" Cut="3.9964810180664062e+02" cType="1" res="-2.0737720653414726e-02" rms="3.3895805478096008e-01" purity="1.6106472909450531e-01" nType="0">
                  <Node pos="l" depth="6" NCoef="0" IVar="4" Cut="6.1265043914318085e-02" cType="1" res="-1.8164824694395065e-02" rms="3.4131109714508057e-01" purity="1.6431427001953125e-01" nType="0">
                    <Node pos="l" depth="7" NCoef="0" IVar="-1" Cut="0.0000000000000000e+00" cType="1" res="-6.7775300703942776e-03" rms="3.0856338143348694e-01" purity="1.2455061078071594e-01" nType="-99"/>
                    <Node pos="r" depth="7" NCoef="0" IVar="-1" Cut="0.0000000000000000e+00" cType="1" res="-2.4388253223150969e-03" rms="3.5192281007766724e-01" purity="1.7822839319705963e-01" nType="-99"/>
                  </Node>
                  <Node pos="r" depth="6" NCoef="0" IVar="4" Cut="1.1479420959949493e-01" cType="1" res="-3.6576841026544571e-02" rms="3.2364609837532043e-01" purity="1.4106006920337677e-01" nType="0">
                    <Node pos="l" depth="7" NCoef="0" IVar="-1" Cut="0.0000000000000000e+00" cType="1" res="-9.9957520142197609e-03" rms="3.0417737364768982e-01" purity="1.1792895197868347e-01" nType="-99"/>
                    <Node pos="r" depth="7" NCoef="0" IVar="-1" Cut="0.0000000000000000e+00" cType="1" res="-3.5482042003422976e-03" rms="3.4413704276084900e-01" purity="1.6801641881465912e-01" nType="-99"/>
                  </Node>
                </Node>
                <Node pos="r" depth="5" NCoef="0" IVar="2" Cut="4.3007730102539062e+02" cType="1" res="1.9561359658837318e-03" rms="3.7291565537452698e-01" purity="2.0425659418106079e-01" nType="0">
                  <Node pos="l" depth="6" NCoef="0" IVar="3" Cut="4.0339255332946777e-01" cType="1" res="1.4617788605391979e-02" rms="3.8842037320137024e-01" purity="2.2908106446266174e-01" nType="0">
                    <Node pos="l" depth="7" NCoef="0" IVar="-1" Cut="0.0000000000000000e+00" cType="1" res="-3.2194992527365685e-03" rms="2.7494093775749207e-01" purity="8.5493229329586029e-02" nType="-99"/>
                    <Node pos="r" depth="7" NCoef="0" IVar="-1" Cut="0.0000000000000000e+00" cType="1" res="3.9042828138917685e-03" rms="4.6866777539253235e-01" purity="3.6224991083145142e-01" nType="-99"/>
                  </Node>
                  <Node pos="r" depth="6" NCoef="0" IVar="-1" Cut="0.0000000000000000e+00" cType="1" res="-3.2995317596942186e-03" rms="3.4668534994125366e-01" purity="1.6588816046714783e-01" nType="-99"/>
                </Node>
              </Node>
            </Node>
            <Node pos="r" depth="3" NCoef="0" IVar="2" Cut="2.7224468994140625e+02" cType="1" res="-3.0664582736790180e-03" rms="3.7474924325942993e-01" purity="1.8825927376747131e-01" nType="0">
              <Node pos="l" depth="4" NCoef="0" IVar="-1" Cut="0.0000000000000000e+00" cType="1" res="2.4696108885109425e-03" rms="3.9896214008331299e-01" purity="2.2984299063682556e-01" nType="-99"/>
              <Node pos="r" depth="4" NCoef="0" IVar="5" Cut="4.0000000000000000e+00" cType="1" res="0.0000000000000000e+00" rms="0.0000000000000000e+00" purity="1.7738874256610870e-01" nType="0">
                <Node pos="l" depth="5" NCoef="0" IVar="-1" Cut="0.0000000000000000e+00" cType="1" res="9.4378757057711482e-04" rms="4.4186195731163025e-01" purity="2.8497746586799622e-01" nType="-99"/>
                <Node pos="r" depth="5" NCoef="0" IVar="4" Cut="2.6666077971458435e-01" cType="1" res="-1.1564286425709724e-02" rms="3.4858444333076477e-01" purity="1.5249025821685791e-01" nType="0">
                  <Node pos="l" depth="6" NCoef="0" IVar="3" Cut="3.3379012346267700e-01" cType="1" res="-1.6625659540295601e-02" rms="3.3069598674774170e-01" purity="1.3605354726314545e-01" nType="0">
                    <Node pos="l" depth="7" NCoef="0" IVar="-1" Cut="0.0000000000000000e+00" cType="1" res="-8.0384034663438797e-03" rms="2.7680280804634094e-01" purity="8.5453830659389496e-02" nType="-99"/>
                    <Node pos="r" depth="7" NCoef="0" IVar="-1" Cut="0.0000000000000000e+00" cType="1" res="4.5558909187093377e-04" rms="4.0629926323890686e-01" purity="2.2311416268348694e-01" nType="-99"/>
                  </Node>
                  <Node pos="r" depth="6" NCoef="0" IVar="-1" Cut="0.0000000000000000e+00" cType="1" res="8.0790382344275713e-04" rms="4.0066811442375183e-01" purity="2.0575289428234100e-01" nType="-99"/>
                </Node>
              </Node>
            </Node>
          </Node>
          <Node pos="r" depth="2" NCoef="0" IVar="5" Cut="3.0000000000000000e+00" cType="1" res="3.5463103558868170e-03" rms="4.8670184612274170e-01" purity="5.2172338962554932e-01" nType="0">
            <Node pos="l" depth="3" NCoef="0" IVar="1" Cut="4.1477429866790771e-01" cType="1" res="-1.5767510980367661e-02" rms="4.8681712150573730e-01" purity="4.7650554776191711e-01" nType="0">
              <Node pos="l" depth="4" NCoef="0" IVar="3" Cut="7.1136140823364258e-01" cType="1" res="-6.3427356071770191e-03" rms="4.9130219221115112e-01" purity="5.1155346632003784e-01" nType="0">
                <Node pos="l" depth="5" NCoef="0" IVar="-1" Cut="0.0000000000000000e+00" cType="1" res="-1.8852467183023691e-03" rms="4.8551660776138306e-01" purity="4.3979814648628235e-01" nType="-99"/>
                <Node pos="r" depth="5" NCoef="0" IVar="3" Cut="7.4434399604797363e-01" cType="1" res="1.8629196565598249e-03" rms="4.9424725770950317e-01" purity="5.5082327127456665e-01" nType="0">
                  <Node pos="l" depth="6" NCoef="0" IVar="-1" Cut="0.0000000000000000e+00" cType="1" res="5.3974747424945235e-04" rms="4.9607509374618530e-01" purity="5.3559523820877075e-01" nType="-99"/>
                  <Node pos="r" depth="6" NCoef="0" IVar="-1" Cut="0.0000000000000000e+00" cType="1" res="-2.1040446881670505e-04" rms="4.9243018031120300e-01" purity="5.6557303667068481e-01" nType="-99"/>
                </Node>
              </Node>
              <Node pos="r" depth="4" NCoef="0" IVar="-1" Cut="0.0000000000000000e+00" cType="1" res="-4.1922368109226227e-03" rms="4.7073593735694885e-01" purity="3.6319524049758911e-01" nType="-99"/>
            </Node>
            <Node pos="r" depth="3" NCoef="0" IVar="4" Cut="6.9835744798183441e-02" cType="1" res="1.4394513331353664e-02" rms="4.8691156506538391e-01" purity="5.4868966341018677e-01" nType="0">
              <Node pos="l" depth="4" NCoef="0" IVar="2" Cut="1.5641349792480469e+02" cType="1" res="3.1540323980152607e-03" rms="4.8810771107673645e-01" purity="5.3625482320785522e-01" nType="0">
                <Node pos="l" depth="5" NCoef="0" IVar="4" Cut="3.8663405925035477e-02" cType="1" res="1.7304092645645142e-02" rms="4.8617526888847351e-01" purity="5.6014609336853027e-01" nType="0">
                  <Node pos="l" depth="6" NCoef="0" IVar="-1" Cut="0.0000000000000000e+00" cType="1" res="-9.4954601081553847e-05" rms="4.8784646391868591e-01" purity="5.3255909681320190e-01" nType="-99"/>
                  <Node pos="r" depth="6" NCoef="0" IVar="-1" Cut="0.0000000000000000e+00" cType="1" res="3.1274557113647461e-03" rms="4.8370629549026489e-01" purity="5.8868944644927979e-01" nType="-99"/>
                </Node>
                <Node pos="r" depth="5" NCoef="0" IVar="-1" Cut="0.0000000000000000e+00" cType="1" res="-3.6973687820136547e-03" rms="4.9141934514045715e-01" purity="4.6466732025146484e-01" nType="-99"/>
              </Node>
              <Node pos="r" depth="4" NCoef="0" IVar="2" Cut="2.8296719360351562e+02" cType="1" res="3.3069539815187454e-02" rms="4.8434138298034668e-01" purity="5.6934893131256104e-01" nType="0">
                <Node pos="l" depth="5" NCoef="0" IVar="-1" Cut="0.0000000000000000e+00" cType="1" res="4.1901245713233948e-03" rms="4.7976768016815186e-01" purity="6.0400569438934326e-01" nType="-99"/>
                <Node pos="r" depth="5" NCoef="0" IVar="-1" Cut="0.0000000000000000e+00" cType="1" res="2.2573223395738751e-04" rms="4.9094045162200928e-01" purity="5.0727206468582153e-01" nType="-99"/>
              </Node>
            </Node>
          </Node>
        </Node>
        <Node pos="r" depth="1" NCoef="0" IVar="1" Cut="4.8326480388641357e-01" cType="1" res="2.2183625027537346e-02" rms="4.3069940805435181e-01" purity="7.3602104187011719e-01" nType="0">
          <Node pos="l" depth="2" NCoef="0" IVar="2" Cut="1.7538034057617188e+02" cType="1" res="2.6411069557070732e-02" rms="4.2364948987960815e-01" purity="7.5411200523376465e-01" nType="0">
            <Node pos="l" depth="3" NCoef="0" IVar="2" Cut="6.7886840820312500e+01" cType="1" res="2.8006399050354958e-02" rms="4.2009949684143066e-01" purity="7.6276826858520508e-01" nType="0">
              <Node pos="l" depth="4" NCoef="0" IVar="4" Cut="3.1410705298185349e-02" cType="1" res="3.0849272385239601e-02" rms="4.1303378343582153e-01" purity="7.7592051029205322e-01" nType="0">
                <Node pos="l" depth="5" NCoef="0" IVar="3" Cut="8.3671414852142334e-01" cType="1" res="2.8914853930473328e-02" rms="4.1097521781921387e-01" purity="7.7902060747146606e-01" nType="0">
                  <Node pos="l" depth="6" NCoef="0" IVar="-1" Cut="0.0000000000000000e+00" cType="1" res="-1.1042761616408825e-03" rms="4.7828853130340576e-01" purity="6.3272356986999512e-01" nType="-99"/>
                  <Node pos="r" depth="6" NCoef="0" IVar="4" Cut="1.0131188668310642e-02" cType="1" res="3.0678473412990570e-02" rms="4.0773916244506836e-01" purity="7.8531146049499512e-01" nType="0">
                    <Node pos="l" depth="7" NCoef="0" IVar="-1" Cut="0.0000000000000000e+00" cType="1" res="3.0709323473274708e-03" rms="4.0595170855522156e-01" purity="7.8774136304855347e-01" nType="-99"/>
                    <Node pos="r" depth="7" NCoef="0" IVar="-1" Cut="0.0000000000000000e+00" cType="1" res="4.6089394018054008e-03" rms="4.2654940485954285e-01" purity="7.5868147611618042e-01" nType="-99"/>
                  </Node>
                </Node>
                <Node pos="r" depth="5" NCoef="0" IVar="2" Cut="4.6432621002197266e+01" cType="1" res="5.2037462592124939e-02" rms="4.3438079953193665e-01" purity="7.4196463823318481e-01" nType="0">
                  <Node pos="l" depth="6" NCoef="0" IVar="-1" Cut="0.0000000000000000e+00" cType="1" res="3.4321814309805632e-03" rms="4.4009628891944885e-01" purity="7.3174196481704712e-01" nType="-99"/>
                  <Node pos="r" depth="6" NCoef="0" IVar="-1" Cut="0.0000000000000000e+00" cType="1" res="5.5194036103785038e-03" rms="4.2911297082901001e-01" purity="7.5088089704513550e-01" nType="-99"/>
                </Node>
              </Node>
              <Node pos="r" depth="4" NCoef="0" IVar="4" Cut="5.7231839746236801e-02" cType="1" res="1.4177046716213226e-02" rms="4.5264679193496704e-01" purity="6.9878798723220825e-01" nType="0">
                <Node pos="l" depth="5" NCoef="0" IVar="3" Cut="8.9044231176376343e-01" cType="1" res="6.9932611659169197e-03" rms="4.5365014672279358e-01" purity="6.9607150554656982e-01" nType="0">
                  <Node pos="l" depth="6" NCoef="0" IVar="4" Cut="3.1044501811265945e-02" cType="1" res="-1.8657379550859332e-03" rms="4.6363627910614014e-01" purity="6.7332738637924194e-01" nType="0">
                    <Node pos="l" depth="7" NCoef="0" IVar="-1" Cut="0.0000000000000000e+00" cType="1" res="-2.7518344577401876e-03" rms="4.7131162881851196e-01" purity="6.4553189277648926e-01" nType="-99"/>
                    <Node pos="r" depth="7" NCoef="0" IVar="-1" Cut="0.0000000000000000e+00" cType="1" res="7.2935031494125724e-04" rms="4.6032097935676575e-01" purity="6.8389022350311279e-01" nType="-99"/>
                  </Node>
                  <Node pos="r" depth="6" NCoef="0" IVar="-1" Cut="0.0000000000000000e+00" cType="1" res="4.2104804888367653e-03" rms="4.1726455092430115e-01" purity="7.7193516492843628e-01" nType="-99"/>
                </Node>
                <Node pos="r" depth="5" NCoef="0" IVar="-1" Cut="0.0000000000000000e+00" cType="1" res="3.8770001847296953e-03" rms="4.4691655039787292e-01" purity="7.1060079336166382e-01" nType="-99"/>
              </Node>
            </Node>
            <Node pos="r" depth="3" NCoef="0" IVar="3" Cut="8.3837741613388062e-01" cType="1" res="3.9810524322092533e-03" rms="4.7016313672065735e-01" purity="6.3240736722946167e-01" nType="0">
              <Node pos="l" depth="4" NCoef="0" IVar="-1" Cut="0.0000000000000000e+00" cType="1" res="1.5664410311728716e-03" rms="4.7376468777656555e-01" purity="6.4666819572448730e-01" nType="-99"/>
              <Node pos="r" depth="4" NCoef="0" IVar="-1" Cut="0.0000000000000000e+00" cType="1" res="-1.1165641481056809e-03" rms="4.6535214781761169e-01" purity="6.1535423994064331e-01" nType="-99"/>
            </Node>
          </Node>
          <Node pos="r" depth="2" NCoef="0" IVar="3" Cut="9.8601263761520386e-01" cType="1" res="-2.3245080374181271e-03" rms="4.6873867511749268e-01" purity="6.3114035129547119e-01" nType="0">
            <Node pos="l" depth="3" NCoef="0" IVar="4" Cut="3.7903144955635071e-02" cType="1" res="-8.8258106261491776e-03" rms="4.8664745688438416e-01" purity="5.7283860445022583e-01" nType="0">
              <Node pos="l" depth="4" NCoef="0" IVar="-1" Cut="0.0000000000000000e+00" cType="1" res="-2.2824322804808617e-03" rms="4.8730105161666870e-01" purity="5.7288581132888794e-01" nType="-99"/>
              <Node pos="r" depth="4" NCoef="0" IVar="-1" Cut="0.0000000000000000e+00" cType="1" res="1.0186615400016308e-03" rms="4.8499828577041626e-01" purity="5.7278001308441162e-01" nType="-99"/>
            </Node>
            <Node pos="r" depth="3" NCoef="0" IVar="-1" Cut="0.0000000000000000e+00" cType="1" res="2.9522567638196051e-04" rms="4.5253553986549377e-01" purity="6.8177223205566406e-01" nType="-99"/>
          </Node>
        </Node>
      </Node>
    </BinaryTree>
    <BinaryTree type="DecisionTree" boostWeight="1.0000000000000000e+00" itree="61">
      <Node pos="s" depth="0" NCoef="0" IVar="3" Cut="7.7301573753356934e-01" cType="1" res="6.8918932229280472e-03" rms="4.1095420718193054e-01" purity="4.9937850236892700e-01" nType="0">
        <Node pos="l" depth="1" NCoef="0" IVar="3" Cut="6.9826143980026245e-01" cType="1" res="-9.1112228110432625e-03" rms="3.9164024591445923e-01" purity="2.6305735111236572e-01" nType="0">
          <Node pos="l" depth="2" NCoef="0" IVar="4" Cut="1.2383532524108887e-01" cType="1" res="-1.1902119033038616e-02" rms="3.7188646197319031e-01" purity="2.1021352708339691e-01" nType="0">
            <Node pos="l" depth="3" NCoef="0" IVar="1" Cut="2.9603871703147888e-01" cType="1" res="-1.5643663704395294e-02" rms="3.7056237459182739e-01" purity="2.1636523306369781e-01" nType="0">
              <Node pos="l" depth="4" NCoef="0" IVar="2" Cut="1.1694808959960938e+02" cType="1" res="-7.7775376848876476e-03" rms="4.1141003370285034e-01" purity="2.8425988554954529e-01" nType="0">
                <Node pos="l" depth="5" NCoef="0" IVar="4" Cut="3.6807015538215637e-02" cType="1" res="7.5275991111993790e-03" rms="4.3828836083412170e-01" purity="3.4903350472450256e-01" nType="0">
                  <Node pos="l" depth="6" NCoef="0" IVar="-1" Cut="0.0000000000000000e+00" cType="1" res="-2.7062192093580961e-03" rms="4.1582888364791870e-01" purity="2.8415030241012573e-01" nType="-99"/>
                  <Node pos="r" depth="6" NCoef="0" IVar="2" Cut="6.3318794250488281e+01" cType="1" res="2.1776808425784111e-02" rms="4.4818347692489624e-01" purity="3.8079214096069336e-01" nType="0">
                    <Node pos="l" depth="7" NCoef="0" IVar="-1" Cut="0.0000000000000000e+00" cType="1" res="4.5776041224598885e-03" rms="4.6480652689933777e-01" purity="4.2645052075386047e-01" nType="-99"/>
                    <Node pos="r" depth="7" NCoef="0" IVar="-1" Cut="0.0000000000000000e+00" cType="1" res="1.2568697566166520e-03" rms="4.4072780013084412e-01" purity="3.6197870969772339e-01" nType="-99"/>
                  </Node>
                </Node>
                <Node pos="r" depth="5" NCoef="0" IVar="4" Cut="6.0028105974197388e-02" cType="1" res="-1.7270911484956741e-02" rms="3.9351835846900940e-01" purity="2.4408251047134399e-01" nType="0">
                  <Node pos="l" depth="6" NCoef="0" IVar="-1" Cut="0.0000000000000000e+00" cType="1" res="-5.9834229759871960e-03" rms="3.7285596132278442e-01" purity="2.0362477004528046e-01" nType="-99"/>
                  <Node pos="r" depth="6" NCoef="0" IVar="2" Cut="3.4936721801757812e+02" cType="1" res="-1.2106292881071568e-02" rms="3.9797663688659668e-01" purity="2.5346031785011292e-01" nType="0">
                    <Node pos="l" depth="7" NCoef="0" IVar="-1" Cut="0.0000000000000000e+00" cType="1" res="-7.3473528027534485e-04" rms="4.0439161658287048e-01" purity="2.6734945178031921e-01" nType="-99"/>
                    <Node pos="r" depth="7" NCoef="0" IVar="-1" Cut="0.0000000000000000e+00" cType="1" res="-4.6564894728362560e-03" rms="3.7934109568595886e-01" purity="2.1565030515193939e-01" nType="-99"/>
                  </Node>
                </Node>
              </Node>
              <Node pos="r" depth="4" NCoef="0" IVar="5" Cut="3.0000000000000000e+00" cType="1" res="0.0000000000000000e+00" rms="0.0000000000000000e+00" purity="1.3339376449584961e-01" nType="0">
                <Node pos="l" depth="5" NCoef="0" IVar="-1" Cut="0.0000000000000000e+00" cType="1" res="-7.2081140242516994e-03" rms="3.6108121275901794e-01" purity="1.6828490793704987e-01" nType="-99"/>
                <Node pos="r" depth="5" NCoef="0" IVar="3" Cut="5.6321519613265991e-01" cType="1" res="-2.2487772628664970e-02" rms="3.0553790926933289e-01" purity="1.2831144034862518e-01" nType="0">
                  <Node pos="l" depth="6" NCoef="0" IVar="2" Cut="1.1540181732177734e+02" cType="1" res="-2.5607144460082054e-02" rms="2.4615767598152161e-01" purity="6.9948591291904449e-02" nType="0">
                    <Node pos="l" depth="7" NCoef="0" IVar="-1" Cut="0.0000000000000000e+00" cType="1" res="-1.0187632404267788e-02" rms="2.4580235779285431e-01" purity="6.9814860820770264e-02" nType="-99"/>
                    <Node pos="r" depth="7" NCoef="0" IVar="-1" Cut="0.0000000000000000e+00" cType="1" res="-7.4197733774781227e-03" rms="2.4631389975547791e-01" purity="7.0030808448791504e-02" nType="-99"/>
                  </Node>
                  <Node pos="r" depth="6" NCoef="0" IVar="2" Cut="1.3533255004882812e+02" cType="1" res="-1.0571966879069805e-02" rms="4.6724158525466919e-01" purity="3.5125392675399780e-01" nType="0">
                    <Node pos="l" depth="7" NCoef="0" IVar="-1" Cut="0.0000000000000000e+00" cType="1" res="5.4989376803860068e-04" rms="4.7736307978630066e-01" purity="3.8041663169860840e-01" nType="-99"/>
                    <Node pos="r" depth="7" NCoef="0" IVar="-1" Cut="0.0000000000000000e+00" cType="1" res="-2.6004360988736153e-03" rms="4.5787400007247925e-01" purity="3.2611355185508728e-01" nType="-99"/>
                  </Node>
                </Node>
              </Node>
            </Node>
            <Node pos="r" depth="3" NCoef="0" IVar="5" Cut="3.0000000000000000e+00" cType="1" res="1.4015594124794006e-01" rms="0.0000000000000000e+00" purity="1.9820827245712280e-01" nType="0">
              <Node pos="l" depth="4" NCoef="0" IVar="-1" Cut="0.0000000000000000e+00" cType="1" res="3.3239410258829594e-03" rms="4.6372252702713013e-01" purity="3.4502461552619934e-01" nType="-99"/>
              <Node pos="r" depth="4" NCoef="0" IVar="3" Cut="4.7333005070686340e-01" cType="1" res="-7.6922611333429813e-03" rms="3.6502811312675476e-01" purity="1.8492521345615387e-01" nType="0">
                <Node pos="l" depth="5" NCoef="0" IVar="3" Cut="2.9062858223915100e-01" cType="1" res="-1.2669450603425503e-02" rms="3.3126741647720337e-01" purity="1.3488726317882538e-01" nType="0">
                  <Node pos="l" depth="6" NCoef="0" IVar="3" Cut="1.5997530519962311e-01" cType="1" res="-1.9560277462005615e-02" rms="3.0199617147445679e-01" purity="1.0955948382616043e-01" nType="0">
                    <Node pos="l" depth="7" NCoef="0" IVar="-1" Cut="0.0000000000000000e+00" cType="1" res="-7.4669637251645327e-04" rms="3.4403404593467712e-01" purity="1.5262401103973389e-01" nType="-99"/>
                    <Node pos="r" depth="7" NCoef="0" IVar="-1" Cut="0.0000000000000000e+00" cType="1" res="-7.8706108033657074e-03" rms="2.7931854128837585e-01" purity="8.8943511247634888e-02" nType="-99"/>
                  </Node>
                  <Node pos="r" depth="6" NCoef="0" IVar="0" Cut="6.6686964035034180e-01" cType="1" res="-5.3759752772748470e-03" rms="3.5951939225196838e-01" purity="1.6169498860836029e-01" nType="0">
                    <Node pos="l" depth="7" NCoef="0" IVar="-1" Cut="0.0000000000000000e+00" cType="1" res="1.9808183424174786e-03" rms="4.1354170441627502e-01" purity="2.2604160010814667e-01" nType="-99"/>
                    <Node pos="r" depth="7" NCoef="0" IVar="-1" Cut="0.0000000000000000e+00" cType="1" res="-5.6707132607698441e-03" rms="3.0054777860641479e-01" purity="1.0263942182064056e-01" nType="-99"/>
                  </Node>
                </Node>
                <Node pos="r" depth="5" NCoef="0" IVar="5" Cut="4.0000000000000000e+00" cType="1" res="1.3675867579877377e-02" rms="4.7102099657058716e-01" purity="3.8047134876251221e-01" nType="0">
                  <Node pos="l" depth="6" NCoef="0" IVar="-1" Cut="0.0000000000000000e+00" cType="1" res="-4.0454079862684011e-04" rms="4.7163319587707520e-01" purity="3.7242558598518372e-01" nType="-99"/>
                  <Node pos="r" depth="6" NCoef="0" IVar="-1" Cut="0.0000000000000000e+00" cType="1" res="2.5235163047909737e-03" rms="4.7549375891685486e-01" purity="3.8722679018974304e-01" nType="-99"/>
                </Node>
              </Node>
            </Node>
          </Node>
          <Node pos="r" depth="2" NCoef="0" IVar="4" Cut="6.3009731471538544e-02" cType="1" res="6.4082900062203407e-03" rms="4.8679402470588684e-01" purity="5.5690938234329224e-01" nType="0">
            <Node pos="l" depth="3" NCoef="0" IVar="1" Cut="3.1900075078010559e-01" cType="1" res="-9.4824247062206268e-03" rms="4.8806110024452209e-01" purity="5.3435605764389038e-01" nType="0">
              <Node pos="l" depth="4" NCoef="0" IVar="2" Cut="8.2878234863281250e+01" cType="1" res="5.2839418640360236e-04" rms="4.8818138241767883e-01" purity="5.6891179084777832e-01" nType="0">
                <Node pos="l" depth="5" NCoef="0" IVar="-1" Cut="0.0000000000000000e+00" cType="1" res="1.8137305742129683e-03" rms="4.8401999473571777e-01" purity="6.0641813278198242e-01" nType="-99"/>
                <Node pos="r" depth="5" NCoef="0" IVar="-1" Cut="0.0000000000000000e+00" cType="1" res="-2.2712778300046921e-03" rms="4.9207726120948792e-01" purity="5.2255958318710327e-01" nType="-99"/>
              </Node>
              <Node pos="r" depth="4" NCoef="0" IVar="-1" Cut="0.0000000000000000e+00" cType="1" res="-3.5967843141406775e-03" rms="4.8639401793479919e-01" purity="4.2777636647224426e-01" nType="-99"/>
            </Node>
            <Node pos="r" depth="3" NCoef="0" IVar="2" Cut="1.8773190307617188e+02" cType="1" res="2.5942647829651833e-02" rms="4.8451825976371765e-01" purity="5.8463418483734131e-01" nType="0">
              <Node pos="l" depth="4" NCoef="0" IVar="-1" Cut="0.0000000000000000e+00" cType="1" res="2.6641851291060448e-03" rms="4.7869047522544861e-01" purity="6.1804956197738647e-01" nType="-99"/>
              <Node pos="r" depth="4" NCoef="0" IVar="-1" Cut="0.0000000000000000e+00" cType="1" res="1.7444448312744498e-03" rms="4.8950731754302979e-01" purity="5.5525147914886475e-01" nType="-99"/>
            </Node>
          </Node>
        </Node>
        <Node pos="r" depth="1" NCoef="0" IVar="3" Cut="1.0595389604568481e+00" cType="1" res="2.3092547431588173e-02" rms="4.2901542782783508e-01" purity="7.3861670494079590e-01" nType="0">
          <Node pos="l" depth="2" NCoef="0" IVar="0" Cut="4.7289630770683289e-01" cType="1" res="2.5020111352205276e-02" rms="4.2842417955398560e-01" purity="7.4216884374618530e-01" nType="0">
            <Node pos="l" depth="3" NCoef="0" IVar="0" Cut="2.5929290056228638e-01" cType="1" res="2.6431623846292496e-02" rms="4.2632329463958740e-01" purity="7.5066679716110229e-01" nType="0">
              <Node pos="l" depth="4" NCoef="0" IVar="1" Cut="5.6043833494186401e-01" cType="1" res="2.8005681931972504e-02" rms="4.2343223094940186e-01" purity="7.5702607631683350e-01" nType="0">
                <Node pos="l" depth="5" NCoef="0" IVar="3" Cut="8.6544644832611084e-01" cType="1" res="3.0744025483727455e-02" rms="4.1697695851325989e-01" purity="7.7052927017211914e-01" nType="0">
                  <Node pos="l" depth="6" NCoef="0" IVar="1" Cut="5.7874180376529694e-02" cType="1" res="1.9256846979260445e-02" rms="4.6170023083686829e-01" purity="6.8737143278121948e-01" nType="0">
                    <Node pos="l" depth="7" NCoef="0" IVar="-1" Cut="0.0000000000000000e+00" cType="1" res="2.5456727016717196e-03" rms="4.5295286178588867e-01" purity="7.0924627780914307e-01" nType="-99"/>
                    <Node pos="r" depth="7" NCoef="0" IVar="-1" Cut="0.0000000000000000e+00" cType="1" res="4.4053475721739233e-04" rms="4.7500345110893250e-01" purity="6.5240222215652466e-01" nType="-99"/>
                  </Node>
                  <Node pos="r" depth="6" NCoef="0" IVar="1" Cut="4.9031537026166916e-02" cType="1" res="3.4067671746015549e-02" rms="4.0305143594741821e-01" purity="7.9458975791931152e-01" nType="0">
                    <Node pos="l" depth="7" NCoef="0" IVar="-1" Cut="0.0000000000000000e+00" cType="1" res="4.0082507766783237e-03" rms="3.9547607302665710e-01" purity="8.0528450012207031e-01" nType="-99"/>
                    <Node pos="r" depth="7" NCoef="0" IVar="-1" Cut="0.0000000000000000e+00" cType="1" res="3.0585583299398422e-03" rms="4.1454678773880005e-01" purity="7.7791517972946167e-01" nType="-99"/>
                  </Node>
                </Node>
                <Node pos="r" depth="5" NCoef="0" IVar="3" Cut="9.9482965469360352e-01" cType="1" res="6.7585017532110214e-03" rms="4.6997770667076111e-01" purity="6.5225273370742798e-01" nType="0">
                  <Node pos="l" depth="6" NCoef="0" IVar="2" Cut="6.6150657653808594e+01" cType="1" res="-8.4740985184907913e-03" rms="4.8688971996307373e-01" purity="5.9609693288803101e-01" nType="0">
                    <Node pos="l" depth="7" NCoef="0" IVar="-1" Cut="0.0000000000000000e+00" cType="1" res="-3.3931955695152283e-03" rms="4.8634073138237000e-01" purity="5.8921331167221069e-01" nType="-99"/>
                    <Node pos="r" depth="7" NCoef="0" IVar="-1" Cut="0.0000000000000000e+00" cType="1" res="1.9672235939651728e-03" rms="4.8543676733970642e-01" purity="6.0330659151077271e-01" nType="-99"/>
                  </Node>
                  <Node pos="r" depth="6" NCoef="0" IVar="-1" Cut="0.0000000000000000e+00" cType="1" res="2.0981866400688887e-03" rms="4.4928920269012451e-01" purity="7.1628397703170776e-01" nType="-99"/>
                </Node>
              </Node>
              <Node pos="r" depth="4" NCoef="0" IVar="3" Cut="8.7464320659637451e-01" cType="1" res="-3.6871484480798244e-03" rms="4.7728857398033142e-01" purity="6.2898600101470947e-01" nType="0">
                <Node pos="l" depth="5" NCoef="0" IVar="-1" Cut="0.0000000000000000e+00" cType="1" res="1.1354628441040404e-05" rms="4.8839247226715088e-01" purity="5.8520793914794922e-01" nType="-99"/>
                <Node pos="r" depth="5" NCoef="0" IVar="-1" Cut="0.0000000000000000e+00" cType="1" res="-6.4652453875169158e-04" rms="4.6709778904914856e-01" purity="6.6817694902420044e-01" nType="-99"/>
              </Node>
            </Node>
            <Node pos="r" depth="3" NCoef="0" IVar="-1" Cut="0.0000000000000000e+00" cType="1" res="-1.4430697774514556e-03" rms="4.8454427719116211e-01" purity="4.9120149016380310e-01" nType="-99"/>
          </Node>
          <Node pos="r" depth="2" NCoef="0" IVar="-1" Cut="0.0000000000000000e+00" cType="1" res="-6.0457619838416576e-03" rms="4.4629064202308655e-01" purity="5.7879340648651123e-01" nType="-99"/>
        </Node>
      </Node>
    </BinaryTree>
    <BinaryTree type="DecisionTree" boostWeight="1.0000000000000000e+00" itree="62">
      <Node pos="s" depth="0" NCoef="0" IVar="3" Cut="6.7501425743103027e-01" cType="1" res="8.2502067089080811e-03" rms="4.1002377867698669e-01" purity="5.0121068954467773e-01" nType="0">
        <Node pos="l" depth="1" NCoef="0" IVar="3" Cut="6.5325337648391724e-01" cType="1" res="-1.1651516892015934e-02" rms="3.6366960406303406e-01" purity="1.9498665630817413e-01" nType="0">
          <Node pos="l" depth="2" NCoef="0" IVar="2" Cut="3.7282040405273438e+02" cType="1" res="-1.3359594158828259e-02" rms="3.5593575239181519e-01" purity="1.8072417378425598e-01" nType="0">
            <Node pos="l" depth="3" NCoef="0" IVar="4" Cut="7.1838796138763428e-02" cType="1" res="-1.0675977915525436e-02" rms="3.5827064514160156e-01" purity="1.8792468309402466e-01" nType="0">
              <Node pos="l" depth="4" NCoef="0" IVar="2" Cut="4.8270793914794922e+01" cType="1" res="-2.1693876013159752e-02" rms="3.3860376477241516e-01" purity="1.6263800859451294e-01" nType="0">
                <Node pos="l" depth="5" NCoef="0" IVar="4" Cut="2.8004691004753113e-02" cType="1" res="4.6465033665299416e-03" rms="3.8170990347862244e-01" purity="2.2292438149452209e-01" nType="0">
                  <Node pos="l" depth="6" NCoef="0" IVar="-1" Cut="0.0000000000000000e+00" cType="1" res="-2.0864745602011681e-03" rms="3.6088722944259644e-01" purity="1.8981783092021942e-01" nType="-99"/>
                  <Node pos="r" depth="6" NCoef="0" IVar="-1" Cut="0.0000000000000000e+00" cType="1" res="3.3382729161530733e-03" rms="4.0266379714012146e-01" purity="2.5949832797050476e-01" nType="-99"/>
                </Node>
                <Node pos="r" depth="5" NCoef="0" IVar="4" Cut="2.9081812128424644e-02" cType="1" res="-2.8684623539447784e-02" rms="3.2585090398788452e-01" purity="1.4663797616958618e-01" nType="0">
                  <Node pos="l" depth="6" NCoef="0" IVar="-1" Cut="0.0000000000000000e+00" cType="1" res="-1.0275078006088734e-02" rms="3.0460515618324280e-01" purity="1.1819885671138763e-01" nType="-99"/>
                  <Node pos="r" depth="6" NCoef="0" IVar="2" Cut="2.3646075439453125e+02" cType="1" res="-2.5700973346829414e-02" rms="3.2843416929244995e-01" purity="1.5038874745368958e-01" nType="0">
                    <Node pos="l" depth="7" NCoef="0" IVar="-1" Cut="0.0000000000000000e+00" cType="1" res="-4.4008954428136349e-03" rms="3.3419090509414673e-01" purity="1.5744310617446899e-01" nType="-99"/>
                    <Node pos="r" depth="7" NCoef="0" IVar="-1" Cut="0.0000000000000000e+00" cType="1" res="-9.0698078274726868e-03" rms="2.9166945815086365e-01" purity="1.0886732488870621e-01" nType="-99"/>
                  </Node>
                </Node>
              </Node>
              <Node pos="r" depth="4" NCoef="0" IVar="3" Cut="4.4465339183807373e-01" cType="1" res="-2.5624581612646580e-03" rms="3.7188062071800232e-01" purity="2.0654565095901489e-01" nType="0">
                <Node pos="l" depth="5" NCoef="0" IVar="4" Cut="1.3410562276840210e-01" cType="1" res="-1.2615307234227657e-02" rms="2.8497865796089172e-01" purity="9.6141465008258820e-02" nType="0">
                  <Node pos="l" depth="6" NCoef="0" IVar="1" Cut="6.6616255044937134e-01" cType="1" res="-2.1195130422711372e-02" rms="2.3885178565979004e-01" purity="6.3484944403171539e-02" nType="0">
                    <Node pos="l" depth="7" NCoef="0" IVar="-1" Cut="0.0000000000000000e+00" cType="1" res="-5.4128658957779408e-03" rms="2.6273781061172485e-01" purity="7.8137539327144623e-02" nType="-99"/>
                    <Node pos="r" depth="7" NCoef="0" IVar="-1" Cut="0.0000000000000000e+00" cType="1" res="-1.5169391408562660e-02" rms="1.8822883069515228e-01" purity="3.7226140499114990e-02" nType="-99"/>
                  </Node>
                  <Node pos="r" depth="6" NCoef="0" IVar="2" Cut="1.9875370788574219e+02" cType="1" res="1.0413223644718528e-03" rms="3.4549850225448608e-01" purity="1.4812131226062775e-01" nType="0">
                    <Node pos="l" depth="7" NCoef="0" IVar="-1" Cut="0.0000000000000000e+00" cType="1" res="2.7040047571063042e-03" rms="3.5541906952857971e-01" purity="1.6189903020858765e-01" nType="-99"/>
                    <Node pos="r" depth="7" NCoef="0" IVar="-1" Cut="0.0000000000000000e+00" cType="1" res="-1.0682368883863091e-03" rms="3.4029209613800049e-01" purity="1.4124199748039246e-01" nType="-99"/>
                  </Node>
                </Node>
                <Node pos="r" depth="5" NCoef="0" IVar="1" Cut="5.8500967919826508e-02" cType="1" res="1.0059806518256664e-02" rms="4.5790946483612061e-01" purity="3.4516814351081848e-01" nType="0">
                  <Node pos="l" depth="6" NCoef="0" IVar="2" Cut="1.5673112487792969e+02" cType="1" res="2.6800023391842842e-02" rms="4.7728371620178223e-01" purity="4.0383306145668030e-01" nType="0">
                    <Node pos="l" depth="7" NCoef="0" IVar="-1" Cut="0.0000000000000000e+00" cType="1" res="4.4127311557531357e-03" rms="4.8929971456527710e-01" purity="4.7824043035507202e-01" nType="-99"/>
                    <Node pos="r" depth="7" NCoef="0" IVar="-1" Cut="0.0000000000000000e+00" cType="1" res="1.1685366043820977e-03" rms="4.6829277276992798e-01" purity="3.5336214303970337e-01" nType="-99"/>
                  </Node>
                  <Node pos="r" depth="6" NCoef="0" IVar="5" Cut="4.0000000000000000e+00" cType="1" res="-4.5050261542201042e-03" rms="4.3890357017517090e-01" purity="2.9197952151298523e-01" nType="0">
                    <Node pos="l" depth="7" NCoef="0" IVar="-1" Cut="0.0000000000000000e+00" cType="1" res="-2.2149470169097185e-03" rms="4.3268719315528870e-01" purity="2.7767840027809143e-01" nType="-99"/>
                    <Node pos="r" depth="7" NCoef="0" IVar="-1" Cut="0.0000000000000000e+00" cType="1" res="9.9448603577911854e-04" rms="4.4499847292900085e-01" purity="3.0646646022796631e-01" nType="-99"/>
                  </Node>
                </Node>
              </Node>
            </Node>
            <Node pos="r" depth="3" NCoef="0" IVar="3" Cut="5.0584226846694946e-01" cType="1" res="-2.0031102001667023e-02" rms="3.4997454285621643e-01" purity="1.6282355785369873e-01" nType="0">
              <Node pos="l" depth="4" NCoef="0" IVar="5" Cut="6.0000000000000000e+00" cType="1" res="1.0497239977121353e-01" rms="0.0000000000000000e+00" purity="1.3049063086509705e-01" nType="0">
                <Node pos="l" depth="5" NCoef="0" IVar="3" Cut="2.4500930309295654e-01" cType="1" res="-1.1221978813409805e-02" rms="3.5088142752647400e-01" purity="1.5862420201301575e-01" nType="0">
                  <Node pos="l" depth="6" NCoef="0" IVar="-1" Cut="0.0000000000000000e+00" cType="1" res="3.9527583867311478e-03" rms="3.9649716019630432e-01" purity="2.2001902759075165e-01" nType="-99"/>
                  <Node pos="r" depth="6" NCoef="0" IVar="0" Cut="6.7811501026153564e-01" cType="1" res="-2.0490044727921486e-02" rms="3.3693739771842957e-01" purity="1.4208111166954041e-01" nType="0">
                    <Node pos="l" depth="7" NCoef="0" IVar="-1" Cut="0.0000000000000000e+00" cType="1" res="2.0851320005021989e-04" rms="4.1271427273750305e-01" purity="2.2836095094680786e-01" nType="-99"/>
                    <Node pos="r" depth="7" NCoef="0" IVar="-1" Cut="0.0000000000000000e+00" cType="1" res="-1.0416509583592415e-02" rms="2.6332780718803406e-01" purity="7.5960248708724976e-02" nType="-99"/>
                  </Node>
                </Node>
                <Node pos="r" depth="5" NCoef="0" IVar="3" Cut="2.1341662108898163e-01" cType="1" res="-2.1833868697285652e-02" rms="2.9102095961570740e-01" purity="9.9224142730236053e-02" nType="0">
                  <Node pos="l" depth="6" NCoef="0" IVar="-1" Cut="0.0000000000000000e+00" cType="1" res="-9.2137912288308144e-03" rms="2.8142419457435608e-01" purity="9.3430370092391968e-02" nType="-99"/>
                  <Node pos="r" depth="6" NCoef="0" IVar="2" Cut="5.2421789550781250e+02" cType="1" res="-1.2234438210725784e-02" rms="2.9716250300407410e-01" purity="1.0327019542455673e-01" nType="0">
                    <Node pos="l" depth="7" NCoef="0" IVar="-1" Cut="0.0000000000000000e+00" cType="1" res="4.8504528240300715e-04" rms="2.9352596402168274e-01" purity="1.0161717981100082e-01" nType="-99"/>
                    <Node pos="r" depth="7" NCoef="0" IVar="-1" Cut="0.0000000000000000e+00" cType="1" res="-5.2743470296263695e-03" rms="2.9931807518005371e-01" purity="1.0443713515996933e-01" nType="-99"/>
                  </Node>
                </Node>
              </Node>
              <Node pos="r" depth="4" NCoef="0" IVar="3" Cut="5.7242035865783691e-01" cType="1" res="-3.6319244652986526e-02" rms="4.4458407163619995e-01" purity="3.0203574895858765e-01" nType="0">
                <Node pos="l" depth="5" NCoef="0" IVar="-1" Cut="0.0000000000000000e+00" cType="1" res="-5.4337363690137863e-03" rms="4.2254960536956787e-01" purity="2.5117805600166321e-01" nType="-99"/>
                <Node pos="r" depth="5" NCoef="0" IVar="-1" Cut="0.0000000000000000e+00" cType="1" res="-2.7548118960112333e-03" rms="4.6596089005470276e-01" purity="3.5428678989410400e-01" nType="-99"/>
              </Node>
            </Node>
          </Node>
          <Node pos="r" depth="2" NCoef="0" IVar="-1" Cut="0.0000000000000000e+00" cType="1" res="1.8804693827405572e-03" rms="4.8733243346214294e-01" purity="4.6755674481391907e-01" nType="-99"/>
        </Node>
        <Node pos="r" depth="1" NCoef="0" IVar="4" Cut="1.0650961101055145e-01" cType="1" res="2.1766586229205132e-02" rms="4.3820658326148987e-01" purity="7.0918470621109009e-01" nType="0">
          <Node pos="l" depth="2" NCoef="0" IVar="1" Cut="1.0935702323913574e+00" cType="1" res="2.3720253258943558e-02" rms="4.3722942471504211e-01" purity="7.1424275636672974e-01" nType="0">
            <Node pos="l" depth="3" NCoef="0" IVar="3" Cut="8.7998902797698975e-01" cType="1" res="2.5972930714488029e-02" rms="4.3480736017227173e-01" purity="7.2251296043395996e-01" nType="0">
              <Node pos="l" depth="4" NCoef="0" IVar="4" Cut="3.0970882624387741e-02" cType="1" res="1.5416396781802177e-02" rms="4.7318011522293091e-01" purity="6.2832629680633545e-01" nType="0">
                <Node pos="l" depth="5" NCoef="0" IVar="2" Cut="4.0215740203857422e+01" cType="1" res="-4.4827186502516270e-03" rms="4.7395372390747070e-01" purity="6.2362611293792725e-01" nType="0">
                  <Node pos="l" depth="6" NCoef="0" IVar="4" Cut="1.4029945246875286e-02" cType="1" res="9.0487515553832054e-03" rms="4.7113430500030518e-01" purity="6.4467030763626099e-01" nType="0">
                    <Node pos="l" depth="7" NCoef="0" IVar="-1" Cut="0.0000000000000000e+00" cType="1" res="-1.9799948204308748e-03" rms="4.7857865691184998e-01" purity="6.1472749710083008e-01" nType="-99"/>
                    <Node pos="r" depth="7" NCoef="0" IVar="-1" Cut="0.0000000000000000e+00" cType="1" res="2.5442244950681925e-03" rms="4.6500542759895325e-01" purity="6.6461050510406494e-01" nType="-99"/>
                  </Node>
                  <Node pos="r" depth="6" NCoef="0" IVar="3" Cut="8.3370447158813477e-01" cType="1" res="-1.9188391044735909e-02" rms="4.7656342387199402e-01" purity="6.0075581073760986e-01" nType="0">
                    <Node pos="l" depth="7" NCoef="0" IVar="-1" Cut="0.0000000000000000e+00" cType="1" res="-3.6939082201570272e-03" rms="4.8863664269447327e-01" purity="5.3156757354736328e-01" nType="-99"/>
                    <Node pos="r" depth="7" NCoef="0" IVar="-1" Cut="0.0000000000000000e+00" cType="1" res="5.8636919129639864e-04" rms="4.5981717109680176e-01" purity="6.8701201677322388e-01" nType="-99"/>
                  </Node>
                </Node>
                <Node pos="r" depth="5" NCoef="0" IVar="2" Cut="9.4031326293945312e+01" cType="1" res="2.2151283919811249e-02" rms="4.7272831201553345e-01" purity="6.2991714477539062e-01" nType="0">
                  <Node pos="l" depth="6" NCoef="0" IVar="3" Cut="7.9407602548599243e-01" cType="1" res="4.0586769580841064e-02" rms="4.6123695373535156e-01" purity="6.7246824502944946e-01" nType="0">
                    <Node pos="l" depth="7" NCoef="0" IVar="-1" Cut="0.0000000000000000e+00" cType="1" res="2.2048738319426775e-03" rms="4.8136872053146362e-01" purity="6.1230188608169556e-01" nType="-99"/>
                    <Node pos="r" depth="7" NCoef="0" IVar="-1" Cut="0.0000000000000000e+00" cType="1" res="4.5272046700119972e-03" rms="4.4080626964569092e-01" purity="7.2978252172470093e-01" nType="-99"/>
                  </Node>
                  <Node pos="r" depth="6" NCoef="0" IVar="3" Cut="7.2131568193435669e-01" cType="1" res="1.1416680179536343e-02" rms="4.7896578907966614e-01" purity="6.0514044761657715e-01" nType="0">
                    <Node pos="l" depth="7" NCoef="0" IVar="-1" Cut="0.0000000000000000e+00" cType="1" res="-6.5454980358481407e-04" rms="4.9324774742126465e-01" purity="4.9648302793502808e-01" nType="-99"/>
                    <Node pos="r" depth="7" NCoef="0" IVar="-1" Cut="0.0000000000000000e+00" cType="1" res="1.4481151010841131e-03" rms="4.7522234916687012e-01" purity="6.3224458694458008e-01" nType="-99"/>
                  </Node>
                </Node>
              </Node>
              <Node pos="r" depth="4" NCoef="0" IVar="0" Cut="3.4151089191436768e-01" cType="1" res="3.2774619758129120e-02" rms="4.0803223848342896e-01" purity="7.8319829702377319e-01" nType="0">
                <Node pos="l" depth="5" NCoef="0" IVar="4" Cut="3.7354562431573868e-02" cType="1" res="3.4098580479621887e-02" rms="4.0451166033744812e-01" purity="7.9171198606491089e-01" nType="0">
                  <Node pos="l" depth="6" NCoef="0" IVar="3" Cut="9.9884122610092163e-01" cType="1" res="3.3223289996385574e-02" rms="4.0413028001785278e-01" purity="7.9220199584960938e-01" nType="0">
                    <Node pos="l" depth="7" NCoef="0" IVar="-1" Cut="0.0000000000000000e+00" cType="1" res="2.9312120750546455e-03" rms="4.1274970769882202e-01" purity="7.7957773208618164e-01" nType="-99"/>
                    <Node pos="r" depth="7" NCoef="0" IVar="-1" Cut="0.0000000000000000e+00" cType="1" res="4.1336165741086006e-03" rms="3.9354410767555237e-01" purity="8.0718594789505005e-01" nType="-99"/>
                  </Node>
                  <Node pos="r" depth="6" NCoef="0" IVar="-1" Cut="0.0000000000000000e+00" cType="1" res="6.0561830177903175e-03" rms="4.1383218765258789e-01" purity="7.7870303392410278e-01" nType="-99"/>
                </Node>
                <Node pos="r" depth="5" NCoef="0" IVar="-1" Cut="0.0000000000000000e+00" cType="1" res="2.5435240240767598e-04" rms="4.7952929139137268e-01" purity="5.9157752990722656e-01" nType="-99"/>
              </Node>
            </Node>
            <Node pos="r" depth="3" NCoef="0" IVar="3" Cut="9.6988040208816528e-01" cType="1" res="-2.1928424015641212e-02" rms="4.8143896460533142e-01" purity="5.4665517807006836e-01" nType="0">
              <Node pos="l" depth="4" NCoef="0" IVar="-1" Cut="0.0000000000000000e+00" cType="1" res="-3.0858155805617571e-03" rms="4.8844620585441589e-01" purity="4.6676358580589294e-01" nType="-99"/>
              <Node pos="r" depth="4" NCoef="0" IVar="-1" Cut="0.0000000000000000e+00" cType="1" res="-5.3990446031093597e-04" rms="4.7278836369514465e-01" purity="6.3832467794418335e-01" nType="-99"/>
            </Node>
          </Node>
          <Node pos="r" depth="2" NCoef="0" IVar="-1" Cut="0.0000000000000000e+00" cType="1" res="-7.4137076735496521e-03" rms="4.7607401013374329e-01" purity="4.3875855207443237e-01" nType="-99"/>
        </Node>
      </Node>
    </BinaryTree>
    <BinaryTree type="DecisionTree" boostWeight="1.0000000000000000e+00" itree="63">
      <Node pos="s" depth="0" NCoef="0" IVar="3" Cut="7.7264720201492310e-01" cType="1" res="6.5566818229854107e-03" rms="4.1102772951126099e-01" purity="4.9987837672233582e-01" nType="0">
        <Node pos="l" depth="1" NCoef="0" IVar="3" Cut="6.4805179834365845e-01" cType="1" res="-8.2605555653572083e-03" rms="3.9139929413795471e-01" purity="2.6218956708908081e-01" nType="0">
          <Node pos="l" depth="2" NCoef="0" IVar="3" Cut="1.2555411458015442e-01" cType="1" res="-1.2279218062758446e-02" rms="3.5471442341804504e-01" purity="1.7810454964637756e-01" nType="0">
            <Node pos="l" depth="3" NCoef="0" IVar="-1" Cut="0.0000000000000000e+00" cType="1" res="2.5140605866909027e-03" rms="3.4271511435508728e-01" purity="1.5404655039310455e-01" nType="-99"/>
            <Node pos="r" depth="3" NCoef="0" IVar="0" Cut="1.2462844848632812e+00" cType="1" res="-1.3437940739095211e-02" rms="3.5526105761528015e-01" purity="1.7930161952972412e-01" nType="0">
              <Node pos="l" depth="4" NCoef="0" IVar="5" Cut="4.0000000000000000e+00" cType="1" res="-3.0066240578889847e-03" rms="3.7386515736579895e-01" purity="2.4790777266025543e-01" nType="0">
                <Node pos="l" depth="5" NCoef="0" IVar="0" Cut="4.0197547525167465e-02" cType="1" res="-2.1999824792146683e-02" rms="4.2656359076499939e-01" purity="2.7033191919326782e-01" nType="0">
                  <Node pos="l" depth="6" NCoef="0" IVar="3" Cut="5.6381970643997192e-01" cType="1" res="-6.3626240007579327e-03" rms="4.7263151407241821e-01" purity="3.7439072132110596e-01" nType="0">
                    <Node pos="l" depth="7" NCoef="0" IVar="-1" Cut="0.0000000000000000e+00" cType="1" res="1.1933136265724897e-03" rms="4.5422029495239258e-01" purity="3.1589949131011963e-01" nType="-99"/>
                    <Node pos="r" depth="7" NCoef="0" IVar="-1" Cut="0.0000000000000000e+00" cType="1" res="-1.9712210632860661e-03" rms="4.8897525668144226e-01" purity="4.3007183074951172e-01" nType="-99"/>
                  </Node>
                  <Node pos="r" depth="6" NCoef="0" IVar="4" Cut="1.0443063825368881e-01" cType="1" res="-2.7373349294066429e-02" rms="4.0940046310424805e-01" purity="2.3457345366477966e-01" nType="0">
                    <Node pos="l" depth="7" NCoef="0" IVar="-1" Cut="0.0000000000000000e+00" cType="1" res="-4.4294875115156174e-03" rms="4.0494829416275024e-01" purity="2.2775301337242126e-01" nType="-99"/>
                    <Node pos="r" depth="7" NCoef="0" IVar="-1" Cut="0.0000000000000000e+00" cType="1" res="-1.6917298780754209e-03" rms="4.1999283432960510e-01" purity="2.5164008140563965e-01" nType="-99"/>
                  </Node>
                </Node>
                <Node pos="r" depth="5" NCoef="0" IVar="2" Cut="1.8485269165039062e+02" cType="1" res="2.2208334412425756e-03" rms="4.0023133158683777e-01" purity="2.3567396402359009e-01" nType="0">
                  <Node pos="l" depth="6" NCoef="0" IVar="4" Cut="8.6783945560455322e-02" cType="1" res="1.5165989287197590e-02" rms="4.2256152629852295e-01" purity="2.8818282485008240e-01" nType="0">
                    <Node pos="l" depth="7" NCoef="0" IVar="-1" Cut="0.0000000000000000e+00" cType="1" res="-1.7739289614837617e-04" rms="4.1093099117279053e-01" purity="2.6232087612152100e-01" nType="-99"/>
                    <Node pos="r" depth="7" NCoef="0" IVar="-1" Cut="0.0000000000000000e+00" cType="1" res="5.5769034661352634e-03" rms="4.4217932224273682e-01" purity="3.3744052052497864e-01" nType="-99"/>
                  </Node>
                  <Node pos="r" depth="6" NCoef="0" IVar="0" Cut="4.0199618786573410e-02" cType="1" res="-6.1688572168350220e-03" rms="3.8483577966690063e-01" purity="2.0164325833320618e-01" nType="0">
                    <Node pos="l" depth="7" NCoef="0" IVar="-1" Cut="0.0000000000000000e+00" cType="1" res="1.3284361921250820e-03" rms="4.4815343618392944e-01" purity="3.1005463004112244e-01" nType="-99"/>
                    <Node pos="r" depth="7" NCoef="0" IVar="-1" Cut="0.0000000000000000e+00" cType="1" res="-2.0067847799509764e-03" rms="3.6423662304878235e-01" purity="1.7015159130096436e-01" nType="-99"/>
                  </Node>
                </Node>
              </Node>
              <Node pos="r" depth="4" NCoef="0" IVar="1" Cut="1.8346800804138184e+00" cType="1" res="-2.6236739009618759e-02" rms="2.2519697248935699e-01" purity="5.5788733065128326e-02" nType="0">
                <Node pos="l" depth="5" NCoef="0" IVar="0" Cut="2.5879936218261719e+00" cType="1" res="-2.7611190453171730e-02" rms="2.2338907420635223e-01" purity="5.4992824792861938e-02" nType="0">
                  <Node pos="l" depth="6" NCoef="0" IVar="4" Cut="4.7971080988645554e-02" cType="1" res="-2.5000168010592461e-02" rms="2.3783904314041138e-01" purity="6.2436301261186600e-02" nType="0">
                    <Node pos="l" depth="7" NCoef="0" IVar="-1" Cut="0.0000000000000000e+00" cType="1" res="-1.4499546959996223e-02" rms="1.9770449399948120e-01" purity="4.1640173643827438e-02" nType="-99"/>
                    <Node pos="r" depth="7" NCoef="0" IVar="-1" Cut="0.0000000000000000e+00" cType="1" res="-8.0556320026516914e-03" rms="2.4513337016105652e-01" purity="6.6666752099990845e-02" nType="-99"/>
                  </Node>
                  <Node pos="r" depth="6" NCoef="0" IVar="0" Cut="3.3959929943084717e+00" cType="1" res="-3.4418586641550064e-02" rms="1.8017338216304779e-01" purity="3.5586386919021606e-02" nType="0">
                    <Node pos="l" depth="7" NCoef="0" IVar="-1" Cut="0.0000000000000000e+00" cType="1" res="-1.8887829035520554e-02" rms="1.7078383266925812e-01" purity="3.0838418751955032e-02" nType="-99"/>
                    <Node pos="r" depth="7" NCoef="0" IVar="-1" Cut="0.0000000000000000e+00" cType="1" res="-1.3738367706537247e-02" rms="1.9097957015037537e-01" purity="4.1459005326032639e-02" nType="-99"/>
                  </Node>
                </Node>
                <Node pos="r" depth="5" NCoef="0" IVar="-1" Cut="0.0000000000000000e+00" cType="1" res="-4.3410426005721092e-03" rms="2.4490529298782349e-01" purity="6.5160214900970459e-02" nType="-99"/>
              </Node>
            </Node>
          </Node>
          <Node pos="r" depth="2" NCoef="0" IVar="4" Cut="8.0591253936290741e-02" cType="1" res="4.2602675966918468e-03" rms="4.8812454938888550e-01" purity="5.2417057752609253e-01" nType="0">
            <Node pos="l" depth="3" NCoef="0" IVar="2" Cut="7.7450042724609375e+01" cType="1" res="-3.7412871606647968e-03" rms="4.8761621117591858e-01" purity="5.1363372802734375e-01" nType="0">
              <Node pos="l" depth="4" NCoef="0" IVar="1" Cut="6.6732406616210938e-02" cType="1" res="1.6364110633730888e-02" rms="4.8508015275001526e-01" purity="5.5493879318237305e-01" nType="0">
                <Node pos="l" depth="5" NCoef="0" IVar="-1" Cut="0.0000000000000000e+00" cType="1" res="2.8282722923904657e-03" rms="4.8076301813125610e-01" purity="6.1134815216064453e-01" nType="-99"/>
                <Node pos="r" depth="5" NCoef="0" IVar="-1" Cut="0.0000000000000000e+00" cType="1" res="-4.4770768727175891e-04" rms="4.8937165737152100e-01" purity="4.8682358860969543e-01" nType="-99"/>
              </Node>
              <Node pos="r" depth="4" NCoef="0" IVar="4" Cut="4.6115890145301819e-02" cType="1" res="-1.8259827047586441e-02" rms="4.8892554640769958e-01" purity="4.8380649089813232e-01" nType="0">
                <Node pos="l" depth="5" NCoef="0" IVar="-1" Cut="0.0000000000000000e+00" cType="1" res="-4.3929377570748329e-03" rms="4.8506507277488708e-01" purity="4.3588730692863464e-01" nType="-99"/>
                <Node pos="r" depth="5" NCoef="0" IVar="2" Cut="1.8097238159179688e+02" cType="1" res="-6.8536954931914806e-03" rms="4.8998984694480896e-01" purity="5.0290286540985107e-01" nType="0">
                  <Node pos="l" depth="6" NCoef="0" IVar="-1" Cut="0.0000000000000000e+00" cType="1" res="8.4240577416494489e-04" rms="4.9029034376144409e-01" purity="5.4234814643859863e-01" nType="-99"/>
                  <Node pos="r" depth="6" NCoef="0" IVar="-1" Cut="0.0000000000000000e+00" cType="1" res="-2.2100047208368778e-03" rms="4.8913073539733887e-01" purity="4.6324637532234192e-01" nType="-99"/>
                </Node>
              </Node>
            </Node>
            <Node pos="r" depth="3" NCoef="0" IVar="2" Cut="2.6735043334960938e+02" cType="1" res="2.3100355640053749e-02" rms="4.8880240321159363e-01" purity="5.4897993803024292e-01" nType="0">
              <Node pos="l" depth="4" NCoef="0" IVar="-1" Cut="0.0000000000000000e+00" cType="1" res="2.8295235242694616e-03" rms="4.8703148961067200e-01" purity="5.8052867650985718e-01" nType="-99"/>
              <Node pos="r" depth="4" NCoef="0" IVar="-1" Cut="0.0000000000000000e+00" cType="1" res="7.8268500510603189e-04" rms="4.9061709642410278e-01" purity="5.0964504480361938e-01" nType="-99"/>
            </Node>
          </Node>
        </Node>
        <Node pos="r" depth="1" NCoef="0" IVar="3" Cut="1.0592187643051147e+00" cType="1" res="2.1413803100585938e-02" rms="4.2929673194885254e-01" purity="7.3820698261260986e-01" nType="0">
          <Node pos="l" depth="2" NCoef="0" IVar="0" Cut="4.5190787315368652e-01" cType="1" res="2.2996256127953529e-02" rms="4.2882478237152100e-01" purity="7.4161112308502197e-01" nType="0">
            <Node pos="l" depth="3" NCoef="0" IVar="0" Cut="1.7490948736667633e-01" cType="1" res="2.4566447362303734e-02" rms="4.2645829916000366e-01" purity="7.5065571069717407e-01" nType="0">
              <Node pos="l" depth="4" NCoef="0" IVar="3" Cut="9.9450689554214478e-01" cType="1" res="2.6633875444531441e-02" rms="4.2175093293190002e-01" purity="7.6133185625076294e-01" nType="0">
                <Node pos="l" depth="5" NCoef="0" IVar="1" Cut="9.2764824628829956e-01" cType="1" res="2.2615592926740646e-02" rms="4.3787807226181030e-01" purity="7.3253083229064941e-01" nType="0">
                  <Node pos="l" depth="6" NCoef="0" IVar="1" Cut="-2.7298203110694885e-01" cType="1" res="2.4381201714277267e-02" rms="4.3459391593933105e-01" purity="7.4112135171890259e-01" nType="0">
                    <Node pos="l" depth="7" NCoef="0" IVar="-1" Cut="0.0000000000000000e+00" cType="1" res="4.8608618089929223e-04" rms="4.4176650047302246e-01" purity="7.2933524847030640e-01" nType="-99"/>
                    <Node pos="r" depth="7" NCoef="0" IVar="-1" Cut="0.0000000000000000e+00" cType="1" res="2.5300001725554466e-03" rms="4.3407484889030457e-01" purity="7.4191719293594360e-01" nType="-99"/>
                  </Node>
                  <Node pos="r" depth="6" NCoef="0" IVar="-1" Cut="0.0000000000000000e+00" cType="1" res="-7.6117803109809756e-04" rms="4.9194294214248657e-01" purity="5.7865023612976074e-01" nType="-99"/>
                </Node>
                <Node pos="r" depth="5" NCoef="0" IVar="3" Cut="9.9868226051330566e-01" cType="1" res="3.1636923551559448e-02" rms="4.0070921182632446e-01" purity="7.9719114303588867e-01" nType="0">
                  <Node pos="l" depth="6" NCoef="0" IVar="3" Cut="9.9706590175628662e-01" cType="1" res="2.0603021606802940e-02" rms="4.1165938973426819e-01" purity="7.8074026107788086e-01" nType="0">
                    <Node pos="l" depth="7" NCoef="0" IVar="-1" Cut="0.0000000000000000e+00" cType="1" res="3.5674991086125374e-03" rms="4.0248760581016541e-01" purity="7.9382228851318359e-01" nType="-99"/>
                    <Node pos="r" depth="7" NCoef="0" IVar="-1" Cut="0.0000000000000000e+00" cType="1" res="5.6815455900505185e-04" rms="4.2225208878517151e-01" purity="7.6452189683914185e-01" nType="-99"/>
                  </Node>
                  <Node pos="r" depth="6" NCoef="0" IVar="3" Cut="1.0143038034439087e+00" cType="1" res="3.5599127411842346e-02" rms="3.9662843942642212e-01" purity="8.0309855937957764e-01" nType="0">
                    <Node pos="l" depth="7" NCoef="0" IVar="-1" Cut="0.0000000000000000e+00" cType="1" res="4.0710456669330597e-03" rms="3.9325776696205139e-01" purity="8.0773532390594482e-01" nType="-99"/>
                    <Node pos="r" depth="7" NCoef="0" IVar="-1" Cut="0.0000000000000000e+00" cType="1" res="2.5659988168627024e-03" rms="4.0551385283470154e-01" purity="7.9041749238967896e-01" nType="-99"/>
                  </Node>
                </Node>
              </Node>
              <Node pos="r" depth="4" NCoef="0" IVar="0" Cut="3.0895087122917175e-01" cType="1" res="2.3516751825809479e-03" rms="4.7352990508079529e-01" purity="6.3593882322311401e-01" nType="0">
                <Node pos="l" depth="5" NCoef="0" IVar="3" Cut="8.3689421415328979e-01" cType="1" res="8.0098034814000130e-03" rms="4.7131425142288208e-01" purity="6.3862729072570801e-01" nType="0">
                  <Node pos="l" depth="6" NCoef="0" IVar="-1" Cut="0.0000000000000000e+00" cType="1" res="-1.6418602899648249e-04" rms="4.8779863119125366e-01" purity="5.8342504501342773e-01" nType="-99"/>
                  <Node pos="r" depth="6" NCoef="0" IVar="-1" Cut="0.0000000000000000e+00" cType="1" res="2.0475371275097132e-03" rms="4.5015832781791687e-01" purity="7.0579367876052856e-01" nType="-99"/>
                </Node>
                <Node pos="r" depth="5" NCoef="0" IVar="-1" Cut="0.0000000000000000e+00" cType="1" res="-1.0139616206288338e-03" rms="4.7874379158020020e-01" purity="6.2920141220092773e-01" nType="-99"/>
              </Node>
            </Node>
            <Node pos="r" depth="3" NCoef="0" IVar="-1" Cut="0.0000000000000000e+00" cType="1" res="-1.7192802624776959e-03" rms="4.8698195815086365e-01" purity="4.9512404203414917e-01" nType="-99"/>
          </Node>
          <Node pos="r" depth="2" NCoef="0" IVar="-1" Cut="0.0000000000000000e+00" cType="1" res="-4.2638853192329407e-03" rms="4.4371017813682556e-01" purity="5.9352719783782959e-01" nType="-99"/>
        </Node>
      </Node>
    </BinaryTree>
    <BinaryTree type="DecisionTree" boostWeight="1.0000000000000000e+00" itree="64">
      <Node pos="s" depth="0" NCoef="0" IVar="3" Cut="7.7264720201492310e-01" cType="1" res="5.9624011628329754e-03" rms="4.1135451197624207e-01" purity="4.9902325868606567e-01" nType="0">
        <Node pos="l" depth="1" NCoef="0" IVar="3" Cut="7.2280806303024292e-01" cType="1" res="-7.2035035118460655e-03" rms="3.9163249731063843e-01" purity="2.6259437203407288e-01" nType="0">
          <Node pos="l" depth="2" NCoef="0" IVar="4" Cut="1.5659306943416595e-01" cType="1" res="-9.2996340245008469e-03" rms="3.7941932678222656e-01" purity="2.2642281651496887e-01" nType="0">
            <Node pos="l" depth="3" NCoef="0" IVar="3" Cut="5.3644239902496338e-01" cType="1" res="-1.2320183217525482e-02" rms="3.8006734848022461e-01" purity="2.3426659405231476e-01" nType="0">
              <Node pos="l" depth="4" NCoef="0" IVar="4" Cut="1.4147187769412994e-01" cType="1" res="-1.8042052164673805e-02" rms="2.8622388839721680e-01" purity="9.9869638681411743e-02" nType="0">
                <Node pos="l" depth="5" NCoef="0" IVar="2" Cut="5.3388851165771484e+01" cType="1" res="-1.9823845475912094e-02" rms="2.8018838167190552e-01" purity="9.4769865274429321e-02" nType="0">
                  <Node pos="l" depth="6" NCoef="0" IVar="-1" Cut="0.0000000000000000e+00" cType="1" res="1.3424692951957695e-05" rms="3.1498563289642334e-01" purity="1.2452907115221024e-01" nType="-99"/>
                  <Node pos="r" depth="6" NCoef="0" IVar="4" Cut="5.6418158113956451e-02" cType="1" res="-2.1955432370305061e-02" rms="2.7611160278320312e-01" purity="9.1578476130962372e-02" nType="0">
                    <Node pos="l" depth="7" NCoef="0" IVar="-1" Cut="0.0000000000000000e+00" cType="1" res="-1.0162292979657650e-02" rms="2.3492428660392761e-01" purity="6.2389872968196869e-02" nType="-99"/>
                    <Node pos="r" depth="7" NCoef="0" IVar="-1" Cut="0.0000000000000000e+00" cType="1" res="-5.2908505313098431e-03" rms="2.8615054488182068e-01" purity="9.9444471299648285e-02" nType="-99"/>
                  </Node>
                </Node>
                <Node pos="r" depth="5" NCoef="0" IVar="-1" Cut="0.0000000000000000e+00" cType="1" res="1.0916613973677158e-04" rms="3.4226182103157043e-01" purity="1.5297140181064606e-01" nType="-99"/>
              </Node>
              <Node pos="r" depth="4" NCoef="0" IVar="5" Cut="3.0000000000000000e+00" cType="1" res="-4.4250008650124073e-03" rms="4.7619631886482239e-01" purity="4.1189420223236084e-01" nType="0">
                <Node pos="l" depth="5" NCoef="0" IVar="4" Cut="6.0597408562898636e-02" cType="1" res="-2.9269481077790260e-02" rms="4.6274831891059875e-01" purity="3.5644441843032837e-01" nType="0">
                  <Node pos="l" depth="6" NCoef="0" IVar="-1" Cut="0.0000000000000000e+00" cType="1" res="-6.2182918190956116e-03" rms="4.3658694624900818e-01" purity="2.9495534300804138e-01" nType="-99"/>
                  <Node pos="r" depth="6" NCoef="0" IVar="0" Cut="3.6567088961601257e-01" cType="1" res="-1.5329822897911072e-02" rms="4.7437372803688049e-01" purity="3.8646453619003296e-01" nType="0">
                    <Node pos="l" depth="7" NCoef="0" IVar="-1" Cut="0.0000000000000000e+00" cType="1" res="-3.6760042421519756e-03" rms="4.8839023709297180e-01" purity="4.5108926296234131e-01" nType="-99"/>
                    <Node pos="r" depth="7" NCoef="0" IVar="-1" Cut="0.0000000000000000e+00" cType="1" res="4.1106494609266520e-04" rms="4.6330952644348145e-01" purity="3.4108349680900574e-01" nType="-99"/>
                  </Node>
                </Node>
                <Node pos="r" depth="5" NCoef="0" IVar="1" Cut="-1.9544705748558044e-01" cType="1" res="2.6336496230214834e-03" rms="4.8024052381515503e-01" purity="4.2861497402191162e-01" nType="0">
                  <Node pos="l" depth="6" NCoef="0" IVar="-1" Cut="0.0000000000000000e+00" cType="1" res="2.7627707459032536e-03" rms="4.9136403203010559e-01" purity="4.9847176671028137e-01" nType="-99"/>
                  <Node pos="r" depth="6" NCoef="0" IVar="4" Cut="8.5958614945411682e-02" cType="1" res="-1.5652205329388380e-03" rms="4.7845518589019775e-01" purity="4.1844865679740906e-01" nType="0">
                    <Node pos="l" depth="7" NCoef="0" IVar="-1" Cut="0.0000000000000000e+00" cType="1" res="-9.2321261763572693e-04" rms="4.7524619102478027e-01" purity="4.0596202015876770e-01" nType="-99"/>
                    <Node pos="r" depth="7" NCoef="0" IVar="-1" Cut="0.0000000000000000e+00" cType="1" res="1.1938369134441018e-03" rms="4.8391669988632202e-01" purity="4.4118231534957886e-01" nType="-99"/>
                  </Node>
                </Node>
              </Node>
            </Node>
            <Node pos="r" depth="3" NCoef="0" IVar="3" Cut="4.4287583231925964e-01" cType="1" res="3.3825659193098545e-03" rms="3.7642192840576172e-01" purity="1.9348962604999542e-01" nType="0">
              <Node pos="l" depth="4" NCoef="0" IVar="2" Cut="9.8713653564453125e+02" cType="1" res="-1.5241577057167888e-03" rms="3.5589316487312317e-01" purity="1.6138838231563568e-01" nType="0">
                <Node pos="l" depth="5" NCoef="0" IVar="2" Cut="2.5689309692382812e+02" cType="1" res="-6.8072536960244179e-03" rms="3.4653452038764954e-01" purity="1.4987556636333466e-01" nType="0">
                  <Node pos="l" depth="6" NCoef="0" IVar="-1" Cut="0.0000000000000000e+00" cType="1" res="2.4986357893794775e-03" rms="3.7391814589500427e-01" purity="1.8148285150527954e-01" nType="-99"/>
                  <Node pos="r" depth="6" NCoef="0" IVar="3" Cut="2.7143028378486633e-01" cType="1" res="-1.1675540357828140e-02" rms="3.3928754925727844e-01" purity="1.4210531115531921e-01" nType="0">
                    <Node pos="l" depth="7" NCoef="0" IVar="-1" Cut="0.0000000000000000e+00" cType="1" res="-9.9779723677784204e-04" rms="3.3469167351722717e-01" purity="1.4156924188137054e-01" nType="-99"/>
                    <Node pos="r" depth="7" NCoef="0" IVar="-1" Cut="0.0000000000000000e+00" cType="1" res="-4.0369699709117413e-03" rms="3.4424790740013123e-01" purity="1.4271467924118042e-01" nType="-99"/>
                  </Node>
                </Node>
                <Node pos="r" depth="5" NCoef="0" IVar="-1" Cut="0.0000000000000000e+00" cType="1" res="4.5152953825891018e-03" rms="4.0358045697212219e-01" purity="2.2666528820991516e-01" nType="-99"/>
              </Node>
              <Node pos="r" depth="4" NCoef="0" IVar="-1" Cut="0.0000000000000000e+00" cType="1" res="3.0732390005141497e-03" rms="4.7038230299949646e-01" purity="3.6513257026672363e-01" nType="-99"/>
            </Node>
          </Node>
          <Node pos="r" depth="2" NCoef="0" IVar="5" Cut="3.0000000000000000e+00" cType="1" res="1.2362618930637836e-02" rms="4.8311179876327515e-01" purity="5.7522696256637573e-01" nType="0">
            <Node pos="l" depth="3" NCoef="0" IVar="3" Cut="7.5174885988235474e-01" cType="1" res="-2.2832802496850491e-03" rms="4.8950392007827759e-01" purity="5.3110593557357788e-01" nType="0">
              <Node pos="l" depth="4" NCoef="0" IVar="-1" Cut="0.0000000000000000e+00" cType="1" res="-8.3884701598435640e-04" rms="4.9049684405326843e-01" purity="5.0682920217514038e-01" nType="-99"/>
              <Node pos="r" depth="4" NCoef="0" IVar="-1" Cut="0.0000000000000000e+00" cType="1" res="5.1838654326274991e-04" rms="4.8824495077133179e-01" purity="5.5835193395614624e-01" nType="-99"/>
            </Node>
            <Node pos="r" depth="3" NCoef="0" IVar="3" Cut="7.4049186706542969e-01" cType="1" res="2.2565647959709167e-02" rms="4.7907096147537231e-01" purity="6.1418408155441284e-01" nType="0">
              <Node pos="l" depth="4" NCoef="0" IVar="-1" Cut="0.0000000000000000e+00" cType="1" res="2.8060674667358398e-03" rms="4.8102289438247681e-01" purity="6.1018592119216919e-01" nType="-99"/>
              <Node pos="r" depth="4" NCoef="0" IVar="-1" Cut="0.0000000000000000e+00" cType="1" res="1.4958867104724050e-03" rms="4.7771519422531128e-01" purity="6.1674058437347412e-01" nType="-99"/>
            </Node>
          </Node>
        </Node>
        <Node pos="r" depth="1" NCoef="0" IVar="1" Cut="4.7126254439353943e-01" cType="1" res="1.9200215116143227e-02" rms="4.2986744642257690e-01" purity="7.3674350976943970e-01" nType="0">
          <Node pos="l" depth="2" NCoef="0" IVar="2" Cut="1.7538034057617188e+02" cType="1" res="2.3811887949705124e-02" rms="4.2214378714561462e-01" purity="7.5599437952041626e-01" nType="0">
            <Node pos="l" depth="3" NCoef="0" IVar="2" Cut="5.6572368621826172e+01" cType="1" res="2.6030529290437698e-02" rms="4.1838753223419189e-01" purity="7.6532405614852905e-01" nType="0">
              <Node pos="l" depth="4" NCoef="0" IVar="1" Cut="-2.8813779354095459e-01" cType="1" res="2.9516333714127541e-02" rms="4.0971118211746216e-01" purity="7.8098046779632568e-01" nType="0">
                <Node pos="l" depth="5" NCoef="0" IVar="-1" Cut="0.0000000000000000e+00" cType="1" res="5.5365794105455279e-04" rms="4.2224073410034180e-01" purity="7.6098012924194336e-01" nType="-99"/>
                <Node pos="r" depth="5" NCoef="0" IVar="1" Cut="3.2427334785461426e-01" cType="1" res="3.1071247532963753e-02" rms="4.0882819890975952e-01" purity="7.8229182958602905e-01" nType="0">
                  <Node pos="l" depth="6" NCoef="0" IVar="3" Cut="9.9578505754470825e-01" cType="1" res="3.2614991068840027e-02" rms="4.0646278858184814e-01" purity="7.8613269329071045e-01" nType="0">
                    <Node pos="l" depth="7" NCoef="0" IVar="-1" Cut="0.0000000000000000e+00" cType="1" res="2.6630605570971966e-03" rms="4.2271855473518372e-01" purity="7.6080143451690674e-01" nType="-99"/>
                    <Node pos="r" depth="7" NCoef="0" IVar="-1" Cut="0.0000000000000000e+00" cType="1" res="4.1516534984111786e-03" rms="3.9078778028488159e-01" purity="8.0947893857955933e-01" nType="-99"/>
                  </Node>
                  <Node pos="r" depth="6" NCoef="0" IVar="1" Cut="3.9065170288085938e-01" cType="1" res="1.4240477234125137e-02" rms="4.3342465162277222e-01" purity="7.4041628837585449e-01" nType="0">
                    <Node pos="l" depth="7" NCoef="0" IVar="-1" Cut="0.0000000000000000e+00" cType="1" res="6.0405774274840951e-04" rms="4.3372252583503723e-01" purity="7.3766070604324341e-01" nType="-99"/>
                    <Node pos="r" depth="7" NCoef="0" IVar="-1" Cut="0.0000000000000000e+00" cType="1" res="2.1286804694682360e-03" rms="4.3295913934707642e-01" purity="7.4324893951416016e-01" nType="-99"/>
                  </Node>
                </Node>
              </Node>
              <Node pos="r" depth="4" NCoef="0" IVar="4" Cut="2.7124822139739990e-02" cType="1" res="1.1939053423702717e-02" rms="4.5149254798889160e-01" purity="7.0203274488449097e-01" nType="0">
                <Node pos="l" depth="5" NCoef="0" IVar="-1" Cut="0.0000000000000000e+00" cType="1" res="-1.0898626642301679e-03" rms="4.5481857657432556e-01" purity="6.8878340721130371e-01" nType="-99"/>
                <Node pos="r" depth="5" NCoef="0" IVar="2" Cut="7.5738006591796875e+01" cType="1" res="1.7009196802973747e-02" rms="4.5057353377342224e-01" purity="7.0507073402404785e-01" nType="0">
                  <Node pos="l" depth="6" NCoef="0" IVar="-1" Cut="0.0000000000000000e+00" cType="1" res="2.6784981600940228e-03" rms="4.4448855519294739e-01" purity="7.2364467382431030e-01" nType="-99"/>
                  <Node pos="r" depth="6" NCoef="0" IVar="2" Cut="1.3037998962402344e+02" cType="1" res="1.3574799522757530e-02" rms="4.5229530334472656e-01" purity="6.9959282875061035e-01" nType="0">
                    <Node pos="l" depth="7" NCoef="0" IVar="-1" Cut="0.0000000000000000e+00" cType="1" res="6.4407743047922850e-04" rms="4.5500364899635315e-01" purity="6.9363552331924438e-01" nType="-99"/>
                    <Node pos="r" depth="7" NCoef="0" IVar="-1" Cut="0.0000000000000000e+00" cType="1" res="2.3341514170169830e-03" rms="4.4794195890426636e-01" purity="7.0865392684936523e-01" nType="-99"/>
                  </Node>
                </Node>
              </Node>
            </Node>
            <Node pos="r" depth="3" NCoef="0" IVar="3" Cut="8.4439975023269653e-01" cType="1" res="-7.8942421823740005e-03" rms="4.7143331170082092e-01" purity="6.2266600131988525e-01" nType="0">
              <Node pos="l" depth="4" NCoef="0" IVar="-1" Cut="0.0000000000000000e+00" cType="1" res="9.8602031357586384e-04" rms="4.7513899207115173e-01" purity="6.4314574003219604e-01" nType="-99"/>
              <Node pos="r" depth="4" NCoef="0" IVar="-1" Cut="0.0000000000000000e+00" cType="1" res="-3.1900301109999418e-03" rms="4.6533197164535522e-01" purity="5.9546083211898804e-01" nType="-99"/>
            </Node>
          </Node>
          <Node pos="r" depth="2" NCoef="0" IVar="3" Cut="9.1556739807128906e-01" cType="1" res="-6.3481568358838558e-03" rms="4.6954414248466492e-01" purity="6.3009482622146606e-01" nType="0">
            <Node pos="l" depth="3" NCoef="0" IVar="3" Cut="8.5102510452270508e-01" cType="1" res="-5.0135416677221656e-04" rms="4.8765563964843750e-01" purity="5.7187277078628540e-01" nType="0">
              <Node pos="l" depth="4" NCoef="0" IVar="-1" Cut="0.0000000000000000e+00" cType="1" res="-3.4451147075742483e-04" rms="4.9059000611305237e-01" purity="5.4222518205642700e-01" nType="-99"/>
              <Node pos="r" depth="4" NCoef="0" IVar="-1" Cut="0.0000000000000000e+00" cType="1" res="3.6429078318178654e-04" rms="4.8401698470115662e-01" purity="6.0798835754394531e-01" nType="-99"/>
            </Node>
            <Node pos="r" depth="3" NCoef="0" IVar="-1" Cut="0.0000000000000000e+00" cType="1" res="-8.9436414418742061e-04" rms="4.5785593986511230e-01" purity="6.6638225317001343e-01" nType="-99"/>
          </Node>
        </Node>
      </Node>
    </BinaryTree>
    <BinaryTree type="DecisionTree" boostWeight="1.0000000000000000e+00" itree="65">
      <Node pos="s" depth="0" NCoef="0" IVar="3" Cut="7.7137583494186401e-01" cType="1" res="6.5561672672629356e-03" rms="4.1079610586166382e-01" purity="4.9992439150810242e-01" nType="0">
        <Node pos="l" depth="1" NCoef="0" IVar="1" Cut="1.4958879351615906e-01" cType="1" res="-6.7551834508776665e-03" rms="3.9119818806648254e-01" purity="2.6277425885200500e-01" nType="0">
          <Node pos="l" depth="2" NCoef="0" IVar="2" Cut="1.9232142639160156e+02" cType="1" res="1.2948899529874325e-03" rms="4.2631453275680542e-01" purity="3.3725336194038391e-01" nType="0">
            <Node pos="l" depth="3" NCoef="0" IVar="4" Cut="3.1787768006324768e-02" cType="1" res="9.6331061795353889e-03" rms="4.4777366518974304e-01" purity="4.1439655423164368e-01" nType="0">
              <Node pos="l" depth="4" NCoef="0" IVar="2" Cut="4.0656261444091797e+01" cType="1" res="-1.7872653901576996e-02" rms="4.3990650773048401e-01" purity="3.9389300346374512e-01" nType="0">
                <Node pos="l" depth="5" NCoef="0" IVar="-1" Cut="0.0000000000000000e+00" cType="1" res="1.5450485516339540e-03" rms="4.5800876617431641e-01" purity="4.7035405039787292e-01" nType="-99"/>
                <Node pos="r" depth="5" NCoef="0" IVar="-1" Cut="0.0000000000000000e+00" cType="1" res="-5.9241196140646935e-03" rms="4.1927155852317810e-01" purity="3.2044419646263123e-01" nType="-99"/>
              </Node>
              <Node pos="r" depth="4" NCoef="0" IVar="2" Cut="9.6545013427734375e+01" cType="1" res="1.5830310061573982e-02" rms="4.4929480552673340e-01" purity="4.1901609301567078e-01" nType="0">
                <Node pos="l" depth="5" NCoef="0" IVar="4" Cut="5.5769942700862885e-02" cType="1" res="3.4089326858520508e-02" rms="4.6575576066970825e-01" purity="4.8861768841743469e-01" nType="0">
                  <Node pos="l" depth="6" NCoef="0" IVar="-1" Cut="0.0000000000000000e+00" cType="1" res="1.9694049842655659e-03" rms="4.6698421239852905e-01" purity="4.6532082557678223e-01" nType="-99"/>
                  <Node pos="r" depth="6" NCoef="0" IVar="3" Cut="6.2711596488952637e-01" cType="1" res="4.5898497104644775e-02" rms="4.6439862251281738e-01" purity="5.0804930925369263e-01" nType="0">
                    <Node pos="l" depth="7" NCoef="0" IVar="-1" Cut="0.0000000000000000e+00" cType="1" res="3.1979775521904230e-03" rms="4.5536524057388306e-01" purity="3.5736396908760071e-01" nType="-99"/>
                    <Node pos="r" depth="7" NCoef="0" IVar="-1" Cut="0.0000000000000000e+00" cType="1" res="4.7100004740059376e-03" rms="4.7203096747398376e-01" purity="6.4660334587097168e-01" nType="-99"/>
                  </Node>
                </Node>
                <Node pos="r" depth="5" NCoef="0" IVar="4" Cut="5.0663422793149948e-02" cType="1" res="3.0393931083381176e-03" rms="4.3694040179252625e-01" purity="3.7025842070579529e-01" nType="0">
                  <Node pos="l" depth="6" NCoef="0" IVar="-1" Cut="0.0000000000000000e+00" cType="1" res="-2.6581468991935253e-03" rms="4.2680931091308594e-01" purity="3.2881230115890503e-01" nType="-99"/>
                  <Node pos="r" depth="6" NCoef="0" IVar="3" Cut="5.7255482673645020e-01" cType="1" res="8.9074866846203804e-03" rms="4.3907594680786133e-01" purity="3.7997749447822571e-01" nType="0">
                    <Node pos="l" depth="7" NCoef="0" IVar="-1" Cut="0.0000000000000000e+00" cType="1" res="-7.9649867257103324e-04" rms="3.8469481468200684e-01" purity="2.1407398581504822e-01" nType="-99"/>
                    <Node pos="r" depth="7" NCoef="0" IVar="-1" Cut="0.0000000000000000e+00" cType="1" res="2.0250086672604084e-03" rms="4.8852333426475525e-01" purity="5.5135285854339600e-01" nType="-99"/>
                  </Node>
                </Node>
              </Node>
            </Node>
            <Node pos="r" depth="3" NCoef="0" IVar="4" Cut="1.8962113559246063e-01" cType="1" res="-6.8745757453143597e-03" rms="4.0401938557624817e-01" purity="2.6167142391204834e-01" nType="0">
              <Node pos="l" depth="4" NCoef="0" IVar="4" Cut="7.9320818185806274e-02" cType="1" res="-1.1550857685506344e-02" rms="4.0469056367874146e-01" purity="2.7451679110527039e-01" nType="0">
                <Node pos="l" depth="5" NCoef="0" IVar="2" Cut="2.4875160217285156e+02" cType="1" res="-3.3883649855852127e-02" rms="4.1076350212097168e-01" purity="2.9902902245521545e-01" nType="0">
                  <Node pos="l" depth="6" NCoef="0" IVar="-1" Cut="0.0000000000000000e+00" cType="1" res="-4.0801148861646652e-03" rms="4.1533875465393066e-01" purity="3.0370128154754639e-01" nType="-99"/>
                  <Node pos="r" depth="6" NCoef="0" IVar="-1" Cut="0.0000000000000000e+00" cType="1" res="-4.6163601800799370e-03" rms="4.0621504187583923e-01" purity="2.9444214701652527e-01" nType="-99"/>
                </Node>
                <Node pos="r" depth="5" NCoef="0" IVar="2" Cut="3.0703637695312500e+02" cType="1" res="-5.2667399868369102e-03" rms="4.0274205803871155e-01" purity="2.6761940121650696e-01" nType="0">
                  <Node pos="l" depth="6" NCoef="0" IVar="3" Cut="5.5051934719085693e-01" cType="1" res="1.3548662886023521e-02" rms="4.2353418469429016e-01" purity="3.1288927793502808e-01" nType="0">
                    <Node pos="l" depth="7" NCoef="0" IVar="-1" Cut="0.0000000000000000e+00" cType="1" res="1.2043960159644485e-03" rms="3.6824217438697815e-01" purity="1.7989157140254974e-01" nType="-99"/>
                    <Node pos="r" depth="7" NCoef="0" IVar="-1" Cut="0.0000000000000000e+00" cType="1" res="2.0880093798041344e-03" rms="4.9029856920242310e-01" purity="4.9876689910888672e-01" nType="-99"/>
                  </Node>
                  <Node pos="r" depth="6" NCoef="0" IVar="5" Cut="4.0000000000000000e+00" cType="1" res="-1.5280093066394329e-02" rms="3.9085397124290466e-01" purity="2.4352082610130310e-01" nType="0">
                    <Node pos="l" depth="7" NCoef="0" IVar="-1" Cut="0.0000000000000000e+00" cType="1" res="-3.9105163887143135e-03" rms="4.4392594695091248e-01" purity="3.3782422542572021e-01" nType="-99"/>
                    <Node pos="r" depth="7" NCoef="0" IVar="-1" Cut="0.0000000000000000e+00" cType="1" res="-6.6024216357618570e-04" rms="3.5408017039299011e-01" purity="1.8597398698329926e-01" nType="-99"/>
                  </Node>
                </Node>
              </Node>
              <Node pos="r" depth="4" NCoef="0" IVar="3" Cut="2.4904358386993408e-01" cType="1" res="9.2318346723914146e-03" rms="4.0128213167190552e-01" purity="2.1742849051952362e-01" nType="0">
                <Node pos="l" depth="5" NCoef="0" IVar="-1" Cut="0.0000000000000000e+00" cType="1" res="3.6747152917087078e-03" rms="4.0209221839904785e-01" purity="2.2259011864662170e-01" nType="-99"/>
                <Node pos="r" depth="5" NCoef="0" IVar="-1" Cut="0.0000000000000000e+00" cType="1" res="-6.1888992786407471e-04" rms="4.0002328157424927e-01" purity="2.1216996014118195e-01" nType="-99"/>
              </Node>
            </Node>
          </Node>
          <Node pos="r" depth="2" NCoef="0" IVar="3" Cut="6.9684648513793945e-01" cType="1" res="-1.4227260835468769e-02" rms="3.5534942150115967e-01" purity="1.9364276528358459e-01" nType="0">
            <Node pos="l" depth="3" NCoef="0" IVar="4" Cut="1.0140772163867950e-01" cType="1" res="-1.6924005001783371e-02" rms="3.3392339944839478e-01" purity="1.5314491093158722e-01" nType="0">
              <Node pos="l" depth="4" NCoef="0" IVar="4" Cut="9.1627225279808044e-02" cType="1" res="-2.0057469606399536e-02" rms="3.2623067498207092e-01" purity="1.4787794649600983e-01" nType="0">
                <Node pos="l" depth="5" NCoef="0" IVar="2" Cut="5.1841625213623047e+01" cType="1" res="-2.2650424391031265e-02" rms="3.2355844974517822e-01" purity="1.4470866322517395e-01" nType="0">
                  <Node pos="l" depth="6" NCoef="0" IVar="-1" Cut="0.0000000000000000e+00" cType="1" res="-6.5052282297983766e-04" rms="3.5865682363510132e-01" purity="1.8529634177684784e-01" nType="-99"/>
                  <Node pos="r" depth="6" NCoef="0" IVar="3" Cut="2.2582292556762695e-01" cType="1" res="-2.6701975613832474e-02" rms="3.1543108820915222e-01" purity="1.3606418669223785e-01" nType="0">
                    <Node pos="l" depth="7" NCoef="0" IVar="-1" Cut="0.0000000000000000e+00" cType="1" res="-3.0565217602998018e-03" rms="2.0710824429988861e-01" purity="4.6335846185684204e-02" nType="-99"/>
                    <Node pos="r" depth="7" NCoef="0" IVar="-1" Cut="0.0000000000000000e+00" cType="1" res="-5.7734386064112186e-03" rms="3.2714724540710449e-01" purity="1.4811196923255920e-01" nType="-99"/>
                  </Node>
                </Node>
                <Node pos="r" depth="5" NCoef="0" IVar="-1" Cut="0.0000000000000000e+00" cType="1" res="3.5058248613495380e-05" rms="3.4570804238319397e-01" purity="1.7260849475860596e-01" nType="-99"/>
              </Node>
              <Node pos="r" depth="4" NCoef="0" IVar="2" Cut="3.9879287719726562e+02" cType="1" res="-1.2928891927003860e-02" rms="3.4344026446342468e-01" purity="1.5986025333404541e-01" nType="0">
                <Node pos="l" depth="5" NCoef="0" IVar="3" Cut="4.9642506241798401e-01" cType="1" res="-5.3164400160312653e-03" rms="3.4860882163047791e-01" purity="1.7275796830654144e-01" nType="0">
                  <Node pos="l" depth="6" NCoef="0" IVar="4" Cut="1.4745694398880005e-01" cType="1" res="-1.7499472945928574e-02" rms="2.9079788923263550e-01" purity="9.9174022674560547e-02" nType="0">
                    <Node pos="l" depth="7" NCoef="0" IVar="-1" Cut="0.0000000000000000e+00" cType="1" res="-8.0564571544528008e-03" rms="2.5679770112037659e-01" purity="7.4643887579441071e-02" nType="-99"/>
                    <Node pos="r" depth="7" NCoef="0" IVar="-1" Cut="0.0000000000000000e+00" cType="1" res="-1.8406113376840949e-03" rms="3.3533966541290283e-01" purity="1.3612540066242218e-01" nType="-99"/>
                  </Node>
                  <Node pos="r" depth="6" NCoef="0" IVar="-1" Cut="0.0000000000000000e+00" cType="1" res="3.0416676308959723e-03" rms="4.7954604029655457e-01" purity="3.9212387800216675e-01" nType="-99"/>
                </Node>
                <Node pos="r" depth="5" NCoef="0" IVar="3" Cut="4.5057672262191772e-01" cType="1" res="-2.1416094154119492e-02" rms="3.3738204836845398e-01" purity="1.4548045396804810e-01" nType="0">
                  <Node pos="l" depth="6" NCoef="0" IVar="5" Cut="5.0000000000000000e+00" cType="1" res="9.2666856944561005e-02" rms="0.0000000000000000e+00" purity="1.1087546497583389e-01" nType="0">
                    <Node pos="l" depth="7" NCoef="0" IVar="-1" Cut="0.0000000000000000e+00" cType="1" res="-2.1108897635713220e-04" rms="3.5665151476860046e-01" purity="1.6526472568511963e-01" nType="-99"/>
                    <Node pos="r" depth="7" NCoef="0" IVar="-1" Cut="0.0000000000000000e+00" cType="1" res="-5.9171714819967747e-03" rms="2.7882316708564758e-01" purity="8.8019922375679016e-02" nType="-99"/>
                  </Node>
                  <Node pos="r" depth="6" NCoef="0" IVar="-1" Cut="0.0000000000000000e+00" cType="1" res="-5.2630533464252949e-03" rms="4.2410793900489807e-01" purity="2.5335839390754700e-01" nType="-99"/>
                </Node>
              </Node>
            </Node>
            <Node pos="r" depth="3" NCoef="0" IVar="4" Cut="5.9731744229793549e-02" cType="1" res="6.5058493055403233e-03" rms="4.8921328783035278e-01" purity="5.0499832630157471e-01" nType="0">
              <Node pos="l" depth="4" NCoef="0" IVar="-1" Cut="0.0000000000000000e+00" cType="1" res="-1.4141683932393789e-03" rms="4.8732081055641174e-01" purity="4.7250583767890930e-01" nType="-99"/>
              <Node pos="r" depth="4" NCoef="0" IVar="-1" Cut="0.0000000000000000e+00" cType="1" res="2.5148123968392611e-03" rms="4.9006798863410950e-01" purity="5.3891497850418091e-01" nType="-99"/>
            </Node>
          </Node>
        </Node>
        <Node pos="r" depth="1" NCoef="0" IVar="0" Cut="6.1459439992904663e-01" cType="1" res="1.9911738112568855e-02" rms="4.2914676666259766e-01" purity="7.3786228895187378e-01" nType="0">
          <Node pos="l" depth="2" NCoef="0" IVar="1" Cut="1.0935702323913574e+00" cType="1" res="2.2057015448808670e-02" rms="4.2766246199607849e-01" purity="7.4674129486083984e-01" nType="0">
            <Node pos="l" depth="3" NCoef="0" IVar="3" Cut="9.7278565168380737e-01" cType="1" res="2.4276413023471832e-02" rms="4.2465761303901672e-01" purity="7.5419735908508301e-01" nType="0">
              <Node pos="l" depth="4" NCoef="0" IVar="1" Cut="2.4307678639888763e-01" cType="1" res="1.7586492002010345e-02" rms="4.5179250836372375e-01" purity="7.0377624034881592e-01" nType="0">
                <Node pos="l" depth="5" NCoef="0" IVar="0" Cut="1.9820146262645721e-02" cType="1" res="2.0122781395912170e-02" rms="4.4502872228622437e-01" purity="7.2140151262283325e-01" nType="0">
                  <Node pos="l" depth="6" NCoef="0" IVar="1" Cut="4.1271839290857315e-02" cType="1" res="0.0000000000000000e+00" rms="0.0000000000000000e+00" purity="7.3316138982772827e-01" nType="0">
                    <Node pos="l" depth="7" NCoef="0" IVar="-1" Cut="0.0000000000000000e+00" cType="1" res="2.1638842299580574e-03" rms="4.3529987335205078e-01" purity="7.4287831783294678e-01" nType="-99"/>
                    <Node pos="r" depth="7" NCoef="0" IVar="-1" Cut="0.0000000000000000e+00" cType="1" res="7.5553701026365161e-04" rms="4.5207372307777405e-01" purity="7.0800799131393433e-01" nType="-99"/>
                  </Node>
                  <Node pos="r" depth="6" NCoef="0" IVar="0" Cut="2.6823353767395020e-01" cType="1" res="3.2201588153839111e-02" rms="4.7190228104591370e-01" purity="6.5473181009292603e-01" nType="0">
                    <Node pos="l" depth="7" NCoef="0" IVar="-1" Cut="0.0000000000000000e+00" cType="1" res="5.0571383908390999e-03" rms="4.6250382065773010e-01" purity="6.8276065587997437e-01" nType="-99"/>
                    <Node pos="r" depth="7" NCoef="0" IVar="-1" Cut="0.0000000000000000e+00" cType="1" res="9.3944207765161991e-04" rms="4.8111027479171753e-01" purity="6.2392216920852661e-01" nType="-99"/>
                  </Node>
                </Node>
                <Node pos="r" depth="5" NCoef="0" IVar="1" Cut="3.5279947519302368e-01" cType="1" res="9.1291051357984543e-03" rms="4.7355106472969055e-01" purity="6.4500379562377930e-01" nType="0">
                  <Node pos="l" depth="6" NCoef="0" IVar="-1" Cut="0.0000000000000000e+00" cType="1" res="2.1071543451398611e-03" rms="4.5779070258140564e-01" purity="6.9121229648590088e-01" nType="-99"/>
                  <Node pos="r" depth="6" NCoef="0" IVar="1" Cut="4.9614354968070984e-01" cType="1" res="2.8133285231888294e-03" rms="4.8040917515754700e-01" purity="6.2400591373443604e-01" nType="0">
                    <Node pos="l" depth="7" NCoef="0" IVar="-1" Cut="0.0000000000000000e+00" cType="1" res="-1.1400131043046713e-03" rms="4.7394752502441406e-01" purity="6.4521491527557373e-01" nType="-99"/>
                    <Node pos="r" depth="7" NCoef="0" IVar="-1" Cut="0.0000000000000000e+00" cType="1" res="1.0324012255296111e-03" rms="4.8416224122047424e-01" purity="6.1075282096862793e-01" nType="-99"/>
                  </Node>
                </Node>
              </Node>
              <Node pos="r" depth="4" NCoef="0" IVar="0" Cut="2.5748831033706665e-01" cType="1" res="2.9510021209716797e-02" rms="4.0207764506340027e-01" purity="7.9364246129989624e-01" nType="0">
                <Node pos="l" depth="5" NCoef="0" IVar="1" Cut="3.6379344761371613e-02" cType="1" res="3.0688324943184853e-02" rms="3.9899072051048279e-01" purity="7.9920578002929688e-01" nType="0">
                  <Node pos="l" depth="6" NCoef="0" IVar="3" Cut="1.0334258079528809e+00" cType="1" res="3.5591382533311844e-02" rms="3.8647335767745972e-01" purity="8.1626188755035400e-01" nType="0">
                    <Node pos="l" depth="7" NCoef="0" IVar="-1" Cut="0.0000000000000000e+00" cType="1" res="3.8725854828953743e-03" rms="3.8486301898956299e-01" purity="8.1895041465759277e-01" nType="-99"/>
                    <Node pos="r" depth="7" NCoef="0" IVar="-1" Cut="0.0000000000000000e+00" cType="1" res="4.1268360801041126e-03" rms="4.0178757905960083e-01" purity="7.9007095098495483e-01" nType="-99"/>
                  </Node>
                  <Node pos="r" depth="6" NCoef="0" IVar="1" Cut="6.8426984548568726e-01" cType="1" res="2.4937871843576431e-02" rms="4.1311445832252502e-01" purity="7.7920186519622803e-01" nType="0">
                    <Node pos="l" depth="7" NCoef="0" IVar="-1" Cut="0.0000000000000000e+00" cType="1" res="2.7593336999416351e-03" rms="4.0832671523094177e-01" purity="7.8731673955917358e-01" nType="-99"/>
                    <Node pos="r" depth="7" NCoef="0" IVar="-1" Cut="0.0000000000000000e+00" cType="1" res="1.0917462641373277e-03" rms="4.5271611213684082e-01" purity="7.0809984207153320e-01" nType="-99"/>
                  </Node>
                </Node>
                <Node pos="r" depth="5" NCoef="0" IVar="-1" Cut="0.0000000000000000e+00" cType="1" res="3.4090148983523250e-04" rms="4.6363055706024170e-01" purity="6.7220163345336914e-01" nType="-99"/>
              </Node>
            </Node>
            <Node pos="r" depth="3" NCoef="0" IVar="-1" Cut="0.0000000000000000e+00" cType="1" res="-2.1942898165434599e-03" rms="4.8533239960670471e-01" purity="5.8652490377426147e-01" nType="-99"/>
          </Node>
          <Node pos="r" depth="2" NCoef="0" IVar="-1" Cut="0.0000000000000000e+00" cType="1" res="-5.6234011426568031e-03" rms="4.7534584999084473e-01" purity="3.9774450659751892e-01" nType="-99"/>
        </Node>
      </Node>
    </BinaryTree>
    <BinaryTree type="DecisionTree" boostWeight="1.0000000000000000e+00" itree="66">
      <Node pos="s" depth="0" NCoef="0" IVar="3" Cut="6.7677968740463257e-01" cType="1" res="7.0934211835265160e-03" rms="4.1198769211769104e-01" purity="5.0042456388473511e-01" nType="0">
        <Node pos="l" depth="1" NCoef="0" IVar="3" Cut="4.8060014843940735e-01" cType="1" res="-5.9684994630515575e-03" rms="3.6702439188957214e-01" purity="1.9917765259742737e-01" nType="0">
          <Node pos="l" depth="2" NCoef="0" IVar="5" Cut="3.0000000000000000e+00" cType="1" res="8.6274258792400360e-02" rms="0.0000000000000000e+00" purity="1.0416182875633240e-01" nType="0">
            <Node pos="l" depth="3" NCoef="0" IVar="-1" Cut="0.0000000000000000e+00" cType="1" res="6.2625524587929249e-03" rms="3.8008511066436768e-01" purity="2.0286408066749573e-01" nType="-99"/>
            <Node pos="r" depth="3" NCoef="0" IVar="5" Cut="9.0000000000000000e+00" cType="1" res="8.2998842000961304e-02" rms="0.0000000000000000e+00" purity="9.8709061741828918e-02" nType="0">
              <Node pos="l" depth="4" NCoef="0" IVar="3" Cut="1.5574501454830170e-01" cType="1" res="-1.1296620592474937e-02" rms="2.9301944375038147e-01" purity="1.0273354500532150e-01" nType="0">
                <Node pos="l" depth="5" NCoef="0" IVar="-1" Cut="0.0000000000000000e+00" cType="1" res="5.1895920187234879e-03" rms="3.4611988067626953e-01" purity="1.5317523479461670e-01" nType="-99"/>
                <Node pos="r" depth="5" NCoef="0" IVar="0" Cut="6.7811471223831177e-01" cType="1" res="-1.3669959269464016e-02" rms="2.8860586881637573e-01" purity="9.9040970206260681e-02" nType="0">
                  <Node pos="l" depth="6" NCoef="0" IVar="5" Cut="6.0000000000000000e+00" cType="1" res="9.1341393999755383e-04" rms="2.4634619057178497e-01" purity="2.0297901332378387e-01" nType="0">
                    <Node pos="l" depth="7" NCoef="0" IVar="-1" Cut="0.0000000000000000e+00" cType="1" res="-1.0953580494970083e-03" rms="3.9832383394241333e-01" purity="2.0801016688346863e-01" nType="-99"/>
                    <Node pos="r" depth="7" NCoef="0" IVar="-1" Cut="0.0000000000000000e+00" cType="1" res="3.1869760714471340e-03" rms="3.9020034670829773e-01" purity="1.9406327605247498e-01" nType="-99"/>
                  </Node>
                  <Node pos="r" depth="6" NCoef="0" IVar="0" Cut="1.3343673944473267e+00" cType="1" res="-1.8022475764155388e-02" rms="2.5022423267364502e-01" purity="6.9797627627849579e-02" nType="0">
                    <Node pos="l" depth="7" NCoef="0" IVar="-1" Cut="0.0000000000000000e+00" cType="1" res="-2.9043920803815126e-03" rms="3.0127939581871033e-01" purity="1.0430394858121872e-01" nType="-99"/>
                    <Node pos="r" depth="7" NCoef="0" IVar="-1" Cut="0.0000000000000000e+00" cType="1" res="-1.0086257010698318e-02" rms="2.1276822686195374e-01" purity="4.8608645796775818e-02" nType="-99"/>
                  </Node>
                </Node>
              </Node>
              <Node pos="r" depth="4" NCoef="0" IVar="2" Cut="3.3576354980468750e+02" cType="1" res="-2.8533214703202248e-02" rms="2.4015201628208160e-01" purity="6.5058276057243347e-02" nType="0">
                <Node pos="l" depth="5" NCoef="0" IVar="-1" Cut="0.0000000000000000e+00" cType="1" res="-7.9893693327903748e-03" rms="2.1298395097255707e-01" purity="5.0001394003629684e-02" nType="-99"/>
                <Node pos="r" depth="5" NCoef="0" IVar="-1" Cut="0.0000000000000000e+00" cType="1" res="-1.0814595967531204e-02" rms="2.6242315769195557e-01" purity="7.9044342041015625e-02" nType="-99"/>
              </Node>
            </Node>
          </Node>
          <Node pos="r" depth="2" NCoef="0" IVar="4" Cut="7.9871922731399536e-02" cType="1" res="1.3932408764958382e-03" rms="4.5808809995651245e-01" purity="3.4655809402465820e-01" nType="0">
            <Node pos="l" depth="3" NCoef="0" IVar="4" Cut="5.1853243261575699e-02" cType="1" res="-9.2960009351372719e-03" rms="4.4465762376785278e-01" purity="3.1535276770591736e-01" nType="0">
              <Node pos="l" depth="4" NCoef="0" IVar="5" Cut="4.0000000000000000e+00" cType="1" res="-2.5986289605498314e-02" rms="4.3456372618675232e-01" purity="2.9084911942481995e-01" nType="0">
                <Node pos="l" depth="5" NCoef="0" IVar="4" Cut="3.5419687628746033e-02" cType="1" res="-4.4713534414768219e-02" rms="4.1725811362266541e-01" purity="2.5193119049072266e-01" nType="0">
                  <Node pos="l" depth="6" NCoef="0" IVar="-1" Cut="0.0000000000000000e+00" cType="1" res="-6.8375417031347752e-03" rms="4.1262754797935486e-01" purity="2.4399560689926147e-01" nType="-99"/>
                  <Node pos="r" depth="6" NCoef="0" IVar="-1" Cut="0.0000000000000000e+00" cType="1" res="-4.0060076862573624e-03" rms="4.2150530219078064e-01" purity="2.5980859994888306e-01" nType="-99"/>
                </Node>
                <Node pos="r" depth="5" NCoef="0" IVar="-1" Cut="0.0000000000000000e+00" cType="1" res="-5.7306932285428047e-04" rms="4.5352533459663391e-01" purity="3.3627027273178101e-01" nType="-99"/>
              </Node>
              <Node pos="r" depth="4" NCoef="0" IVar="2" Cut="2.2589234924316406e+02" cType="1" res="7.5181657448410988e-03" rms="4.5345422625541687e-01" purity="3.3933815360069275e-01" nType="0">
                <Node pos="l" depth="5" NCoef="0" IVar="3" Cut="6.0714727640151978e-01" cType="1" res="1.8996205180883408e-02" rms="4.6667891740798950e-01" purity="3.7409266829490662e-01" nType="0">
                  <Node pos="l" depth="6" NCoef="0" IVar="-1" Cut="0.0000000000000000e+00" cType="1" res="-1.2474071991164237e-04" rms="4.4266492128372192e-01" purity="2.9327866435050964e-01" nType="-99"/>
                  <Node pos="r" depth="6" NCoef="0" IVar="-1" Cut="0.0000000000000000e+00" cType="1" res="3.8586007431149483e-03" rms="4.9341514706611633e-01" purity="4.7313839197158813e-01" nType="-99"/>
                </Node>
                <Node pos="r" depth="5" NCoef="0" IVar="-1" Cut="0.0000000000000000e+00" cType="1" res="-2.8396891430020332e-03" rms="4.1635164618492126e-01" purity="2.5058090686798096e-01" nType="-99"/>
              </Node>
            </Node>
            <Node pos="r" depth="3" NCoef="0" IVar="2" Cut="4.3007153320312500e+02" cType="1" res="1.1060195975005627e-02" rms="4.6969425678253174e-01" purity="3.7477907538414001e-01" nType="0">
              <Node pos="l" depth="4" NCoef="0" IVar="2" Cut="1.1665949249267578e+02" cType="1" res="1.9404858350753784e-02" rms="4.7442620992660522e-01" purity="3.9223051071166992e-01" nType="0">
                <Node pos="l" depth="5" NCoef="0" IVar="-1" Cut="0.0000000000000000e+00" cType="1" res="3.6665117368102074e-03" rms="4.8447778820991516e-01" purity="4.7030943632125854e-01" nType="-99"/>
                <Node pos="r" depth="5" NCoef="0" IVar="2" Cut="2.3797671508789062e+02" cType="1" res="1.3272421434521675e-02" rms="4.7166493535041809e-01" purity="3.7258321046829224e-01" nType="0">
                  <Node pos="l" depth="6" NCoef="0" IVar="4" Cut="1.1263771355152130e-01" cType="1" res="-2.3930761963129044e-03" rms="4.7338369488716125e-01" purity="3.8660970330238342e-01" nType="0">
                    <Node pos="l" depth="7" NCoef="0" IVar="-1" Cut="0.0000000000000000e+00" cType="1" res="-1.8976978026330471e-03" rms="4.6322152018547058e-01" purity="3.4999284148216248e-01" nType="-99"/>
                    <Node pos="r" depth="7" NCoef="0" IVar="-1" Cut="0.0000000000000000e+00" cType="1" res="1.3120676157996058e-03" rms="4.8337081074714661e-01" purity="4.2539885640144348e-01" nType="-99"/>
                  </Node>
                  <Node pos="r" depth="6" NCoef="0" IVar="2" Cut="3.1233078002929688e+02" cType="1" res="2.6683622971177101e-02" rms="4.6977365016937256e-01" purity="3.6057516932487488e-01" nType="0">
                    <Node pos="l" depth="7" NCoef="0" IVar="-1" Cut="0.0000000000000000e+00" cType="1" res="4.4848104007542133e-03" rms="4.7895348072052002e-01" purity="3.8381770253181458e-01" nType="-99"/>
                    <Node pos="r" depth="7" NCoef="0" IVar="-1" Cut="0.0000000000000000e+00" cType="1" res="1.5827956376597285e-03" rms="4.6252131462097168e-01" purity="3.4347021579742432e-01" nType="-99"/>
                  </Node>
                </Node>
              </Node>
              <Node pos="r" depth="4" NCoef="0" IVar="-1" Cut="0.0000000000000000e+00" cType="1" res="-1.8388875760138035e-03" rms="4.5263528823852539e-01" purity="3.1717890501022339e-01" nType="-99"/>
            </Node>
          </Node>
        </Node>
        <Node pos="r" depth="1" NCoef="0" IVar="2" Cut="3.4610458374023438e+02" cType="1" res="1.6004761680960655e-02" rms="4.3981221318244934e-01" purity="7.0594674348831177e-01" nType="0">
          <Node pos="l" depth="2" NCoef="0" IVar="1" Cut="9.0924686193466187e-01" cType="1" res="1.7876384779810905e-02" rms="4.3866994976997375e-01" purity="7.1168798208236694e-01" nType="0">
            <Node pos="l" depth="3" NCoef="0" IVar="0" Cut="3.9748439192771912e-01" cType="1" res="2.0635198801755905e-02" rms="4.3562224507331848e-01" purity="7.2234135866165161e-01" nType="0">
              <Node pos="l" depth="4" NCoef="0" IVar="3" Cut="8.2551366090774536e-01" cType="1" res="2.2267675027251244e-02" rms="4.3234354257583618e-01" purity="7.3546671867370605e-01" nType="0">
                <Node pos="l" depth="5" NCoef="0" IVar="4" Cut="3.5235524177551270e-02" cType="1" res="1.4208596199750900e-02" rms="4.8060935735702515e-01" purity="6.1529320478439331e-01" nType="0">
                  <Node pos="l" depth="6" NCoef="0" IVar="4" Cut="2.6159575209021568e-02" cType="1" res="-8.0032153055071831e-03" rms="4.8591944575309753e-01" purity="5.8977699279785156e-01" nType="0">
                    <Node pos="l" depth="7" NCoef="0" IVar="-1" Cut="0.0000000000000000e+00" cType="1" res="-1.8771270988509059e-03" rms="4.8774468898773193e-01" purity="5.8005160093307495e-01" nType="-99"/>
                    <Node pos="r" depth="7" NCoef="0" IVar="-1" Cut="0.0000000000000000e+00" cType="1" res="7.7289406908676028e-04" rms="4.8298847675323486e-01" purity="6.0258489847183228e-01" nType="-99"/>
                  </Node>
                  <Node pos="r" depth="6" NCoef="0" IVar="2" Cut="8.1874740600585938e+01" cType="1" res="2.2035539150238037e-02" rms="4.7847852110862732e-01" purity="6.2428462505340576e-01" nType="0">
                    <Node pos="l" depth="7" NCoef="0" IVar="-1" Cut="0.0000000000000000e+00" cType="1" res="3.0353916808962822e-03" rms="4.6687018871307373e-01" purity="6.6439437866210938e-01" nType="-99"/>
                    <Node pos="r" depth="7" NCoef="0" IVar="-1" Cut="0.0000000000000000e+00" cType="1" res="1.3884364161640406e-03" rms="4.8278924822807312e-01" purity="6.0865151882171631e-01" nType="-99"/>
                  </Node>
                </Node>
                <Node pos="r" depth="5" NCoef="0" IVar="2" Cut="1.8942713928222656e+02" cType="1" res="2.4821477010846138e-02" rms="4.1584911942481995e-01" purity="7.7354788780212402e-01" nType="0">
                  <Node pos="l" depth="6" NCoef="0" IVar="3" Cut="9.5986127853393555e-01" cType="1" res="2.3909408599138260e-02" rms="4.1450035572052002e-01" purity="7.7582871913909912e-01" nType="0">
                    <Node pos="l" depth="7" NCoef="0" IVar="-1" Cut="0.0000000000000000e+00" cType="1" res="1.6862369375303388e-03" rms="4.4071149826049805e-01" purity="7.3130613565444946e-01" nType="-99"/>
                    <Node pos="r" depth="7" NCoef="0" IVar="-1" Cut="0.0000000000000000e+00" cType="1" res="2.8854107949882746e-03" rms="4.0188840031623840e-01" purity="7.9621642827987671e-01" nType="-99"/>
                  </Node>
                  <Node pos="r" depth="6" NCoef="0" IVar="-1" Cut="0.0000000000000000e+00" cType="1" res="5.4149143397808075e-03" rms="4.5948627591133118e-01" purity="6.9361656904220581e-01" nType="-99"/>
                </Node>
              </Node>
              <Node pos="r" depth="4" NCoef="0" IVar="2" Cut="6.6980407714843750e+01" cType="1" res="-7.9348944127559662e-03" rms="4.8857757449150085e-01" purity="4.9263387918472290e-01" nType="0">
                <Node pos="l" depth="5" NCoef="0" IVar="-1" Cut="0.0000000000000000e+00" cType="1" res="9.5917651196941733e-04" rms="4.9002885818481445e-01" purity="5.4789048433303833e-01" nType="-99"/>
                <Node pos="r" depth="5" NCoef="0" IVar="-1" Cut="0.0000000000000000e+00" cType="1" res="-3.0791522003710270e-03" rms="4.8553213477134705e-01" purity="4.2111343145370483e-01" nType="-99"/>
              </Node>
            </Node>
            <Node pos="r" depth="3" NCoef="0" IVar="1" Cut="2.0923631191253662e+00" cType="1" res="-2.4191513657569885e-02" rms="4.8080834746360779e-01" purity="5.4923856258392334e-01" nType="0">
              <Node pos="l" depth="4" NCoef="0" IVar="4" Cut="2.4086713790893555e-02" cType="1" res="-4.4229883700609207e-02" rms="4.8542851209640503e-01" purity="5.2724301815032959e-01" nType="0">
                <Node pos="l" depth="5" NCoef="0" IVar="-1" Cut="0.0000000000000000e+00" cType="1" res="-5.3609958849847317e-03" rms="4.8257234692573547e-01" purity="5.6596404314041138e-01" nType="-99"/>
                <Node pos="r" depth="5" NCoef="0" IVar="-1" Cut="0.0000000000000000e+00" cType="1" res="-1.8036508699879050e-03" rms="4.8818734288215637e-01" purity="4.7686436772346497e-01" nType="-99"/>
              </Node>
              <Node pos="r" depth="4" NCoef="0" IVar="-1" Cut="0.0000000000000000e+00" cType="1" res="1.5149874379858375e-03" rms="4.6828219294548035e-01" purity="5.9509217739105225e-01" nType="-99"/>
            </Node>
          </Node>
          <Node pos="r" depth="2" NCoef="0" IVar="-1" Cut="0.0000000000000000e+00" cType="1" res="-6.1631579883396626e-03" rms="4.7924506664276123e-01" purity="4.6137082576751709e-01" nType="-99"/>
        </Node>
      </Node>
    </BinaryTree>
    <BinaryTree type="DecisionTree" boostWeight="1.0000000000000000e+00" itree="67">
      <Node pos="s" depth="0" NCoef="0" IVar="3" Cut="7.7301573753356934e-01" cType="1" res="7.4887615628540516e-03" rms="4.1197690367698669e-01" purity="4.9977859854698181e-01" nType="0">
        <Node pos="l" depth="1" NCoef="0" IVar="3" Cut="5.2386498451232910e-01" cType="1" res="-2.5390153750777245e-03" rms="3.9353084564208984e-01" purity="2.6631551980972290e-01" nType="0">
          <Node pos="l" depth="2" NCoef="0" IVar="2" Cut="9.3166754150390625e+02" cType="1" res="-7.9740267246961594e-03" rms="3.1145754456520081e-01" purity="1.2111460417509079e-01" nType="0">
            <Node pos="l" depth="3" NCoef="0" IVar="3" Cut="1.1879555135965347e-01" cType="1" res="-9.9180601537227631e-03" rms="3.0588603019714355e-01" purity="1.1573953926563263e-01" nType="0">
              <Node pos="l" depth="4" NCoef="0" IVar="-1" Cut="0.0000000000000000e+00" cType="1" res="2.8516906313598156e-03" rms="3.2415211200714111e-01" purity="1.3273030519485474e-01" nType="-99"/>
              <Node pos="r" depth="4" NCoef="0" IVar="0" Cut="6.2314188480377197e-01" cType="1" res="-1.0963146574795246e-02" rms="3.0489885807037354e-01" purity="1.1488296091556549e-01" nType="0">
                <Node pos="l" depth="5" NCoef="0" IVar="0" Cut="2.0099990069866180e-01" cType="1" res="7.5149312615394592e-03" rms="4.1666454076766968e-01" purity="2.3829092085361481e-01" nType="0">
                  <Node pos="l" depth="6" NCoef="0" IVar="2" Cut="3.3703695678710938e+02" cType="1" res="2.2316858172416687e-02" rms="4.3906009197235107e-01" purity="2.7743983268737793e-01" nType="0">
                    <Node pos="l" depth="7" NCoef="0" IVar="-1" Cut="0.0000000000000000e+00" cType="1" res="-1.3125775149092078e-04" rms="4.3186411261558533e-01" purity="2.6695045828819275e-01" nType="-99"/>
                    <Node pos="r" depth="7" NCoef="0" IVar="-1" Cut="0.0000000000000000e+00" cType="1" res="5.5567161180078983e-03" rms="4.4406002759933472e-01" purity="2.8623721003532410e-01" nType="-99"/>
                  </Node>
                  <Node pos="r" depth="6" NCoef="0" IVar="2" Cut="3.3163494873046875e+02" cType="1" res="-1.8248781561851501e-03" rms="4.0161097049713135e-01" purity="2.1358852088451385e-01" nType="0">
                    <Node pos="l" depth="7" NCoef="0" IVar="-1" Cut="0.0000000000000000e+00" cType="1" res="2.9428952839225531e-03" rms="4.2572942376136780e-01" purity="2.5277176499366760e-01" nType="-99"/>
                    <Node pos="r" depth="7" NCoef="0" IVar="-1" Cut="0.0000000000000000e+00" cType="1" res="-5.1952521316707134e-03" rms="3.6658629775047302e-01" purity="1.6369767487049103e-01" nType="-99"/>
                  </Node>
                </Node>
                <Node pos="r" depth="5" NCoef="0" IVar="2" Cut="4.8088522338867188e+02" cType="1" res="-1.6326010227203369e-02" rms="2.6349514722824097e-01" purity="7.9066433012485504e-02" nType="0">
                  <Node pos="l" depth="6" NCoef="0" IVar="4" Cut="7.4784956872463226e-02" cType="1" res="-1.4329097233712673e-02" rms="2.6405265927314758e-01" purity="7.9701989889144897e-02" nType="0">
                    <Node pos="l" depth="7" NCoef="0" IVar="-1" Cut="0.0000000000000000e+00" cType="1" res="-7.6809236779808998e-03" rms="2.3748484253883362e-01" purity="6.3395209610462189e-02" nType="-99"/>
                    <Node pos="r" depth="7" NCoef="0" IVar="-1" Cut="0.0000000000000000e+00" cType="1" res="-3.0353022739291191e-03" rms="2.8119826316833496e-01" purity="9.1211646795272827e-02" nType="-99"/>
                  </Node>
                  <Node pos="r" depth="6" NCoef="0" IVar="2" Cut="5.9727954101562500e+02" cType="1" res="-2.8083117678761482e-02" rms="2.5987759232521057e-01" purity="7.5324557721614838e-02" nType="0">
                    <Node pos="l" depth="7" NCoef="0" IVar="-1" Cut="0.0000000000000000e+00" cType="1" res="-1.1188229545950890e-02" rms="2.4034915864467621e-01" purity="6.3159540295600891e-02" nType="-99"/>
                    <Node pos="r" depth="7" NCoef="0" IVar="-1" Cut="0.0000000000000000e+00" cType="1" res="-6.2967156991362572e-03" rms="2.7652931213378906e-01" purity="8.6543709039688110e-02" nType="-99"/>
                  </Node>
                </Node>
              </Node>
            </Node>
            <Node pos="r" depth="3" NCoef="0" IVar="-1" Cut="0.0000000000000000e+00" cType="1" res="4.9074087291955948e-03" rms="4.0521618723869324e-01" purity="2.2860082983970642e-01" nType="-99"/>
          </Node>
          <Node pos="r" depth="2" NCoef="0" IVar="1" Cut="1.6746361553668976e-01" cType="1" res="4.2574768885970116e-03" rms="4.7659033536911011e-01" purity="4.4788956642150879e-01" nType="0">
            <Node pos="l" depth="3" NCoef="0" IVar="4" Cut="8.6476057767868042e-02" cType="1" res="1.2099252082407475e-02" rms="4.8362216353416443e-01" purity="4.9519228935241699e-01" nType="0">
              <Node pos="l" depth="4" NCoef="0" IVar="4" Cut="2.8201008215546608e-02" cType="1" res="3.5376520827412605e-03" rms="4.8198178410530090e-01" purity="4.9462729692459106e-01" nType="0">
                <Node pos="l" depth="5" NCoef="0" IVar="-1" Cut="0.0000000000000000e+00" cType="1" res="-2.6267739012837410e-03" rms="4.8012256622314453e-01" purity="4.6472281217575073e-01" nType="-99"/>
                <Node pos="r" depth="5" NCoef="0" IVar="2" Cut="1.5281416320800781e+02" cType="1" res="9.5613403245806694e-03" rms="4.8209893703460693e-01" purity="5.0031274557113647e-01" nType="0">
                  <Node pos="l" depth="6" NCoef="0" IVar="2" Cut="5.4445758819580078e+01" cType="1" res="2.1998481824994087e-02" rms="4.8450207710266113e-01" purity="5.3864187002182007e-01" nType="0">
                    <Node pos="l" depth="7" NCoef="0" IVar="-1" Cut="0.0000000000000000e+00" cType="1" res="3.5969086457043886e-03" rms="4.8644405603408813e-01" purity="5.7585173845291138e-01" nType="-99"/>
                    <Node pos="r" depth="7" NCoef="0" IVar="-1" Cut="0.0000000000000000e+00" cType="1" res="1.2347328010946512e-03" rms="4.8354601860046387e-01" purity="5.2537465095520020e-01" nType="-99"/>
                  </Node>
                  <Node pos="r" depth="6" NCoef="0" IVar="4" Cut="7.1469567716121674e-02" cType="1" res="-1.1169560253620148e-02" rms="4.7734668850898743e-01" purity="4.3642362952232361e-01" nType="0">
                    <Node pos="l" depth="7" NCoef="0" IVar="-1" Cut="0.0000000000000000e+00" cType="1" res="-4.2440410470589995e-04" rms="4.7728291153907776e-01" purity="4.3536674976348877e-01" nType="-99"/>
                    <Node pos="r" depth="7" NCoef="0" IVar="-1" Cut="0.0000000000000000e+00" cType="1" res="-2.0963638089597225e-03" rms="4.7724479436874390e-01" purity="4.3808493018150330e-01" nType="-99"/>
                  </Node>
                </Node>
              </Node>
              <Node pos="r" depth="4" NCoef="0" IVar="5" Cut="3.0000000000000000e+00" cType="1" res="2.8353037312626839e-02" rms="4.8590439558029175e-01" purity="4.9624019861221313e-01" nType="0">
                <Node pos="l" depth="5" NCoef="0" IVar="-1" Cut="0.0000000000000000e+00" cType="1" res="3.9454837678931653e-04" rms="4.8877242207527161e-01" purity="4.8657453060150146e-01" nType="-99"/>
                <Node pos="r" depth="5" NCoef="0" IVar="3" Cut="5.8815687894821167e-01" cType="1" res="3.7179205566644669e-02" rms="4.8494905233383179e-01" purity="5.0003087520599365e-01" nType="0">
                  <Node pos="l" depth="6" NCoef="0" IVar="-1" Cut="0.0000000000000000e+00" cType="1" res="2.1092295646667480e-03" rms="4.8112806677818298e-01" purity="4.0497827529907227e-01" nType="-99"/>
                  <Node pos="r" depth="6" NCoef="0" IVar="-1" Cut="0.0000000000000000e+00" cType="1" res="4.0624854154884815e-03" rms="4.8717528581619263e-01" purity="5.6233578920364380e-01" nType="-99"/>
                </Node>
              </Node>
            </Node>
            <Node pos="r" depth="3" NCoef="0" IVar="1" Cut="1.1902102231979370e+00" cType="1" res="-7.6639540493488312e-03" rms="4.6544378995895386e-01" purity="3.7597781419754028e-01" nType="0">
              <Node pos="l" depth="4" NCoef="0" IVar="2" Cut="1.1708153533935547e+02" cType="1" res="-3.4446958452463150e-03" rms="4.7003322839736938e-01" purity="3.8962501287460327e-01" nType="0">
                <Node pos="l" depth="5" NCoef="0" IVar="1" Cut="4.9712866544723511e-01" cType="1" res="6.4320070669054985e-03" rms="4.7702959179878235e-01" purity="4.1945573687553406e-01" nType="0">
                  <Node pos="l" depth="6" NCoef="0" IVar="-1" Cut="0.0000000000000000e+00" cType="1" res="1.7160293646156788e-03" rms="4.8538139462471008e-01" purity="4.6267935633659363e-01" nType="-99"/>
                  <Node pos="r" depth="6" NCoef="0" IVar="-1" Cut="0.0000000000000000e+00" cType="1" res="-1.5221040230244398e-03" rms="4.6167808771133423e-01" purity="3.4583675861358643e-01" nType="-99"/>
                </Node>
                <Node pos="r" depth="5" NCoef="0" IVar="5" Cut="4.0000000000000000e+00" cType="1" res="-8.8177872821688652e-03" rms="4.6529853343963623e-01" purity="3.7104055285453796e-01" nType="0">
                  <Node pos="l" depth="6" NCoef="0" IVar="3" Cut="6.2836140394210815e-01" cType="1" res="-1.5143821015954018e-02" rms="4.6664300560951233e-01" purity="3.7866106629371643e-01" nType="0">
                    <Node pos="l" depth="7" NCoef="0" IVar="-1" Cut="0.0000000000000000e+00" cType="1" res="-3.5558340605348349e-03" rms="4.2323702573776245e-01" purity="2.4641627073287964e-01" nType="-99"/>
                    <Node pos="r" depth="7" NCoef="0" IVar="-1" Cut="0.0000000000000000e+00" cType="1" res="-7.9525954788550735e-04" rms="4.8695525527000427e-01" purity="4.4541516900062561e-01" nType="-99"/>
                  </Node>
                  <Node pos="r" depth="6" NCoef="0" IVar="-1" Cut="0.0000000000000000e+00" cType="1" res="4.2386108543723822e-04" rms="4.6247261762619019e-01" purity="3.5244020819664001e-01" nType="-99"/>
                </Node>
              </Node>
              <Node pos="r" depth="4" NCoef="0" IVar="-1" Cut="0.0000000000000000e+00" cType="1" res="-4.1709793731570244e-03" rms="4.3038165569305420e-01" purity="2.7937197685241699e-01" nType="-99"/>
            </Node>
          </Node>
        </Node>
        <Node pos="r" depth="1" NCoef="0" IVar="3" Cut="1.0595389604568481e+00" cType="1" res="1.7698297277092934e-02" rms="4.2970469594001770e-01" purity="7.3747330904006958e-01" nType="0">
          <Node pos="l" depth="2" NCoef="0" IVar="1" Cut="1.1354933977127075e+00" cType="1" res="1.8995415419340134e-02" rms="4.2930439114570618e-01" purity="7.4063318967819214e-01" nType="0">
            <Node pos="l" depth="3" NCoef="0" IVar="3" Cut="8.8392609357833862e-01" cType="1" res="2.0378248766064644e-02" rms="4.2673677206039429e-01" purity="7.4765455722808838e-01" nType="0">
              <Node pos="l" depth="4" NCoef="0" IVar="2" Cut="8.9398689270019531e+01" cType="1" res="1.3176944106817245e-02" rms="4.6360239386558533e-01" purity="6.7313188314437866e-01" nType="0">
                <Node pos="l" depth="5" NCoef="0" IVar="4" Cut="3.4528311342000961e-02" cType="1" res="2.0789464935660362e-02" rms="4.5766884088516235e-01" purity="6.9227546453475952e-01" nType="0">
                  <Node pos="l" depth="6" NCoef="0" IVar="4" Cut="1.4617277309298515e-02" cType="1" res="5.6546204723417759e-03" rms="4.6322011947631836e-01" purity="6.7466735839843750e-01" nType="0">
                    <Node pos="l" depth="7" NCoef="0" IVar="-1" Cut="0.0000000000000000e+00" cType="1" res="-8.9551502605900168e-04" rms="4.6999841928482056e-01" purity="6.5520828962326050e-01" nType="-99"/>
                    <Node pos="r" depth="7" NCoef="0" IVar="-1" Cut="0.0000000000000000e+00" cType="1" res="1.0858178138732910e-03" rms="4.6030819416046143e-01" purity="6.8254137039184570e-01" nType="-99"/>
                  </Node>
                  <Node pos="r" depth="6" NCoef="0" IVar="1" Cut="-2.9807766899466515e-02" cType="1" res="4.1396439075469971e-02" rms="4.4918125867843628e-01" purity="7.1624988317489624e-01" nType="0">
                    <Node pos="l" depth="7" NCoef="0" IVar="-1" Cut="0.0000000000000000e+00" cType="1" res="5.0450596027076244e-03" rms="4.2896282672882080e-01" purity="7.5754827260971069e-01" nType="-99"/>
                    <Node pos="r" depth="7" NCoef="0" IVar="-1" Cut="0.0000000000000000e+00" cType="1" res="2.2306032478809357e-03" rms="4.6377453207969666e-01" purity="6.8411719799041748e-01" nType="-99"/>
                  </Node>
                </Node>
                <Node pos="r" depth="5" NCoef="0" IVar="1" Cut="2.8113371133804321e-01" cType="1" res="4.7733522951602936e-03" rms="4.6992236375808716e-01" purity="6.5199899673461914e-01" nType="0">
                  <Node pos="l" depth="6" NCoef="0" IVar="2" Cut="1.7427604675292969e+02" cType="1" res="9.5453504472970963e-03" rms="4.6502062678337097e-01" purity="6.7259418964385986e-01" nType="0">
                    <Node pos="l" depth="7" NCoef="0" IVar="-1" Cut="0.0000000000000000e+00" cType="1" res="3.1695788493379951e-04" rms="4.6214497089385986e-01" purity="6.7975109815597534e-01" nType="-99"/>
                    <Node pos="r" depth="7" NCoef="0" IVar="-1" Cut="0.0000000000000000e+00" cType="1" res="1.8148691160604358e-03" rms="4.6925684809684753e-01" purity="6.6156935691833496e-01" nType="-99"/>
                  </Node>
                  <Node pos="r" depth="6" NCoef="0" IVar="-1" Cut="0.0000000000000000e+00" cType="1" res="-8.1868510460481048e-04" rms="4.8383831977844238e-01" purity="5.9115767478942871e-01" nType="-99"/>
                </Node>
              </Node>
              <Node pos="r" depth="4" NCoef="0" IVar="1" Cut="4.4975182414054871e-01" cType="1" res="2.3475009948015213e-02" rms="4.0982633829116821e-01" purity="7.7970135211944580e-01" nType="0">
                <Node pos="l" depth="5" NCoef="0" IVar="3" Cut="9.2358607053756714e-01" cType="1" res="2.6320753619074821e-02" rms="4.0387615561485291e-01" purity="7.9068517684936523e-01" nType="0">
                  <Node pos="l" depth="6" NCoef="0" IVar="3" Cut="8.9800482988357544e-01" cType="1" res="3.8077127188444138e-02" rms="4.1631588339805603e-01" purity="7.7343100309371948e-01" nType="0">
                    <Node pos="l" depth="7" NCoef="0" IVar="-1" Cut="0.0000000000000000e+00" cType="1" res="3.1239788513630629e-03" rms="4.2460355162620544e-01" purity="7.6048779487609863e-01" nType="-99"/>
                    <Node pos="r" depth="7" NCoef="0" IVar="-1" Cut="0.0000000000000000e+00" cType="1" res="5.2512530237436295e-03" rms="4.0883225202560425e-01" purity="7.8461045026779175e-01" nType="-99"/>
                  </Node>
                  <Node pos="r" depth="6" NCoef="0" IVar="3" Cut="9.9814242124557495e-01" cType="1" res="2.4608753621578217e-02" rms="4.0200385451316833e-01" purity="7.9319769144058228e-01" nType="0">
                    <Node pos="l" depth="7" NCoef="0" IVar="-1" Cut="0.0000000000000000e+00" cType="1" res="2.0228694193065166e-03" rms="4.1108688712120056e-01" purity="7.7973526716232300e-01" nType="-99"/>
                    <Node pos="r" depth="7" NCoef="0" IVar="-1" Cut="0.0000000000000000e+00" cType="1" res="3.2223151065409184e-03" rms="3.9367187023162842e-01" purity="8.0517274141311646e-01" nType="-99"/>
                  </Node>
                </Node>
                <Node pos="r" depth="5" NCoef="0" IVar="3" Cut="9.9722343683242798e-01" cType="1" res="2.5825784541666508e-03" rms="4.5056363940238953e-01" purity="6.9906240701675415e-01" nType="0">
                  <Node pos="l" depth="6" NCoef="0" IVar="-1" Cut="0.0000000000000000e+00" cType="1" res="-2.2526839748024940e-03" rms="4.6827530860900879e-01" purity="6.5167248249053955e-01" nType="-99"/>
                  <Node pos="r" depth="6" NCoef="0" IVar="-1" Cut="0.0000000000000000e+00" cType="1" res="1.9629758317023516e-03" rms="4.3616622686386108e-01" purity="7.3370164632797241e-01" nType="-99"/>
                </Node>
              </Node>
            </Node>
            <Node pos="r" depth="3" NCoef="0" IVar="-1" Cut="0.0000000000000000e+00" cType="1" res="-9.4796356279402971e-04" rms="4.8102089762687683e-01" purity="5.8719223737716675e-01" nType="-99"/>
          </Node>
          <Node pos="r" depth="2" NCoef="0" IVar="-1" Cut="0.0000000000000000e+00" cType="1" res="-3.6528704222291708e-03" rms="4.4310477375984192e-01" purity="6.0010373592376709e-01" nType="-99"/>
        </Node>
      </Node>
    </BinaryTree>
    <BinaryTree type="DecisionTree" boostWeight="1.0000000000000000e+00" itree="68">
      <Node pos="s" depth="0" NCoef="0" IVar="3" Cut="7.6434248685836792e-01" cType="1" res="5.0623011775314808e-03" rms="4.1122725605964661e-01" purity="4.9877446889877319e-01" nType="0">
        <Node pos="l" depth="1" NCoef="0" IVar="3" Cut="7.1506607532501221e-01" cType="1" res="-5.8782286942005157e-03" rms="3.8974791765213013e-01" purity="2.5711411237716675e-01" nType="0">
          <Node pos="l" depth="2" NCoef="0" IVar="2" Cut="9.6873028564453125e+02" cType="1" res="-7.9165734350681305e-03" rms="3.7718319892883301e-01" purity="2.2187408804893494e-01" nType="0">
            <Node pos="l" depth="3" NCoef="0" IVar="4" Cut="9.2887833714485168e-02" cType="1" res="-8.8669350370764732e-03" rms="3.7628006935119629e-01" purity="2.2164036333560944e-01" nType="0">
              <Node pos="l" depth="4" NCoef="0" IVar="2" Cut="8.8272926330566406e+01" cType="1" res="-1.4112542383372784e-02" rms="3.7543991208076477e-01" purity="2.2882193326950073e-01" nType="0">
                <Node pos="l" depth="5" NCoef="0" IVar="4" Cut="2.1166784688830376e-02" cType="1" res="-1.2438925914466381e-03" rms="4.0266302227973938e-01" purity="2.7840799093246460e-01" nType="0">
                  <Node pos="l" depth="6" NCoef="0" IVar="-1" Cut="0.0000000000000000e+00" cType="1" res="-5.2920025773346424e-03" rms="3.7432479858398438e-01" purity="2.1357998251914978e-01" nType="-99"/>
                  <Node pos="r" depth="6" NCoef="0" IVar="3" Cut="4.3851661682128906e-01" cType="1" res="6.9605400785803795e-03" rms="4.0902426838874817e-01" purity="2.9460170865058899e-01" nType="0">
                    <Node pos="l" depth="7" NCoef="0" IVar="-1" Cut="0.0000000000000000e+00" cType="1" res="-5.3105521947145462e-03" rms="2.3871831595897675e-01" purity="6.3477188348770142e-02" nType="-99"/>
                    <Node pos="r" depth="7" NCoef="0" IVar="-1" Cut="0.0000000000000000e+00" cType="1" res="1.5889438800513744e-03" rms="4.6724641323089600e-01" purity="4.0203610062599182e-01" nType="-99"/>
                  </Node>
                </Node>
                <Node pos="r" depth="5" NCoef="0" IVar="5" Cut="3.0000000000000000e+00" cType="1" res="-2.1562932059168816e-02" rms="3.5852202773094177e-01" purity="2.0010916888713837e-01" nType="0">
                  <Node pos="l" depth="6" NCoef="0" IVar="-1" Cut="0.0000000000000000e+00" cType="1" res="-6.0440888628363609e-03" rms="3.9504450559616089e-01" purity="2.2478733956813812e-01" nType="-99"/>
                  <Node pos="r" depth="6" NCoef="0" IVar="4" Cut="4.7670278698205948e-02" cType="1" res="-1.8433686345815659e-02" rms="3.5314968228340149e-01" purity="1.9675429165363312e-01" nType="0">
                    <Node pos="l" depth="7" NCoef="0" IVar="-1" Cut="0.0000000000000000e+00" cType="1" res="-5.9402841143310070e-03" rms="3.3571121096611023e-01" purity="1.6833616793155670e-01" nType="-99"/>
                    <Node pos="r" depth="7" NCoef="0" IVar="-1" Cut="0.0000000000000000e+00" cType="1" res="-2.5049699470400810e-03" rms="3.5742574930191040e-01" purity="2.0411323010921478e-01" nType="-99"/>
                  </Node>
                </Node>
              </Node>
              <Node pos="r" depth="4" NCoef="0" IVar="2" Cut="1.4001165771484375e+02" cType="1" res="-3.6346900742501020e-03" rms="3.7704351544380188e-01" purity="2.1447706222534180e-01" nType="0">
                <Node pos="l" depth="5" NCoef="0" IVar="3" Cut="4.1643860936164856e-01" cType="1" res="2.6434151455760002e-02" rms="4.1995367407798767e-01" purity="3.1477180123329163e-01" nType="0">
                  <Node pos="l" depth="6" NCoef="0" IVar="-1" Cut="0.0000000000000000e+00" cType="1" res="2.1266993135213852e-03" rms="3.0001103878021240e-01" purity="1.0628426074981689e-01" nType="-99"/>
                  <Node pos="r" depth="6" NCoef="0" IVar="-1" Cut="0.0000000000000000e+00" cType="1" res="3.4742422867566347e-03" rms="4.7901225090026855e-01" purity="4.4392234086990356e-01" nType="-99"/>
                </Node>
                <Node pos="r" depth="5" NCoef="0" IVar="2" Cut="4.8753713989257812e+02" cType="1" res="-8.1697944551706314e-03" rms="3.6992812156677246e-01" purity="1.9935022294521332e-01" nType="0">
                  <Node pos="l" depth="6" NCoef="0" IVar="3" Cut="5.9999203681945801e-01" cType="1" res="-4.0093599818646908e-03" rms="3.7692847847938538e-01" purity="2.1347650885581970e-01" nType="0">
                    <Node pos="l" depth="7" NCoef="0" IVar="-1" Cut="0.0000000000000000e+00" cType="1" res="-1.4480653917416930e-03" rms="3.5268676280975342e-01" purity="1.6754467785358429e-01" nType="-99"/>
                    <Node pos="r" depth="7" NCoef="0" IVar="-1" Cut="0.0000000000000000e+00" cType="1" res="1.4179974095895886e-03" rms="4.9324855208396912e-01" purity="4.7753116488456726e-01" nType="-99"/>
                  </Node>
                  <Node pos="r" depth="6" NCoef="0" IVar="3" Cut="2.0915170013904572e-01" cType="1" res="-1.7120465636253357e-02" rms="3.5423362255096436e-01" purity="1.6895923018455505e-01" nType="0">
                    <Node pos="l" depth="7" NCoef="0" IVar="-1" Cut="0.0000000000000000e+00" cType="1" res="1.9189502345398068e-03" rms="3.3803281188011169e-01" purity="1.5054675936698914e-01" nType="-99"/>
                    <Node pos="r" depth="7" NCoef="0" IVar="-1" Cut="0.0000000000000000e+00" cType="1" res="-4.1296798735857010e-03" rms="3.5790461301803589e-01" purity="1.7358744144439697e-01" nType="-99"/>
                  </Node>
                </Node>
              </Node>
            </Node>
            <Node pos="r" depth="3" NCoef="0" IVar="-1" Cut="0.0000000000000000e+00" cType="1" res="4.0290113538503647e-03" rms="4.0654158592224121e-01" purity="2.3017966747283936e-01" nType="-99"/>
          </Node>
          <Node pos="r" depth="2" NCoef="0" IVar="3" Cut="7.2778123617172241e-01" cType="1" res="1.2081082910299301e-02" rms="4.8625794053077698e-01" purity="5.6760448217391968e-01" nType="0">
            <Node pos="l" depth="3" NCoef="0" IVar="-1" Cut="0.0000000000000000e+00" cType="1" res="2.0977065432816744e-03" rms="4.9044501781463623e-01" purity="5.5498135089874268e-01" nType="-99"/>
            <Node pos="r" depth="3" NCoef="0" IVar="4" Cut="5.3522463887929916e-02" cType="1" res="7.8778285533189774e-03" rms="4.8475080728530884e-01" purity="5.7190716266632080e-01" nType="0">
              <Node pos="l" depth="4" NCoef="0" IVar="-1" Cut="0.0000000000000000e+00" cType="1" res="-9.4361102674156427e-04" rms="4.8719245195388794e-01" purity="5.4288041591644287e-01" nType="-99"/>
              <Node pos="r" depth="4" NCoef="0" IVar="-1" Cut="0.0000000000000000e+00" cType="1" res="1.9439770840108395e-03" rms="4.8224073648452759e-01" purity="5.9538966417312622e-01" nType="-99"/>
            </Node>
          </Node>
        </Node>
        <Node pos="r" depth="1" NCoef="0" IVar="0" Cut="5.8072727918624878e-01" cType="1" res="1.5706798061728477e-02" rms="4.3083292245864868e-01" purity="7.3389589786529541e-01" nType="0">
          <Node pos="l" depth="2" NCoef="0" IVar="0" Cut="2.9972863197326660e-01" cType="1" res="1.7597878351807594e-02" rms="4.2930388450622559e-01" purity="7.4302899837493896e-01" nType="0">
            <Node pos="l" depth="3" NCoef="0" IVar="3" Cut="9.6645599603652954e-01" cType="1" res="1.9210021942853928e-02" rms="4.2674612998962402e-01" purity="7.4914079904556274e-01" nType="0">
              <Node pos="l" depth="4" NCoef="0" IVar="1" Cut="5.3560858964920044e-01" cType="1" res="1.1804930865764618e-02" rms="4.5478641986846924e-01" purity="6.9435226917266846e-01" nType="0">
                <Node pos="l" depth="5" NCoef="0" IVar="3" Cut="7.9044693708419800e-01" cType="1" res="1.4466149732470512e-02" rms="4.4951212406158447e-01" purity="7.1161109209060669e-01" nType="0">
                  <Node pos="l" depth="6" NCoef="0" IVar="-1" Cut="0.0000000000000000e+00" cType="1" res="-1.2830269406549633e-04" rms="4.7829404473304749e-01" purity="6.3737756013870239e-01" nType="-99"/>
                  <Node pos="r" depth="6" NCoef="0" IVar="5" Cut="2.0000000000000000e+00" cType="1" res="1.4902804046869278e-02" rms="4.1996151208877563e-01" purity="7.2169345617294312e-01" nType="0">
                    <Node pos="l" depth="7" NCoef="0" IVar="-1" Cut="0.0000000000000000e+00" cType="1" res="3.5795412259176373e-04" rms="4.3624895811080933e-01" purity="7.4435210227966309e-01" nType="-99"/>
                    <Node pos="r" depth="7" NCoef="0" IVar="-1" Cut="0.0000000000000000e+00" cType="1" res="1.8088730284944177e-03" rms="4.4673630595207214e-01" purity="7.1830826997756958e-01" nType="-99"/>
                  </Node>
                </Node>
                <Node pos="r" depth="5" NCoef="0" IVar="2" Cut="9.4136062622070312e+01" cType="1" res="-6.8283234722912312e-03" rms="4.8972368240356445e-01" purity="5.7351011037826538e-01" nType="0">
                  <Node pos="l" depth="6" NCoef="0" IVar="-1" Cut="0.0000000000000000e+00" cType="1" res="-1.9686252344399691e-03" rms="4.9015545845031738e-01" purity="5.6444019079208374e-01" nType="-99"/>
                  <Node pos="r" depth="6" NCoef="0" IVar="-1" Cut="0.0000000000000000e+00" cType="1" res="7.7677215449512005e-04" rms="4.8877796530723572e-01" purity="5.8236849308013916e-01" nType="-99"/>
                </Node>
              </Node>
              <Node pos="r" depth="4" NCoef="0" IVar="1" Cut="5.6043833494186401e-01" cType="1" res="2.4731831625103951e-02" rms="4.0448597073554993e-01" purity="7.8999543190002441e-01" nType="0">
                <Node pos="l" depth="5" NCoef="0" IVar="1" Cut="4.9090374261140823e-02" cType="1" res="2.6024861261248589e-02" rms="3.9750099182128906e-01" purity="8.0159068107604980e-01" nType="0">
                  <Node pos="l" depth="6" NCoef="0" IVar="3" Cut="1.0273089408874512e+00" cType="1" res="2.7740143239498138e-02" rms="3.9096432924270630e-01" purity="8.1032824516296387e-01" nType="0">
                    <Node pos="l" depth="7" NCoef="0" IVar="-1" Cut="0.0000000000000000e+00" cType="1" res="3.1009796075522900e-03" rms="3.8896879553794861e-01" purity="8.1371152400970459e-01" nType="-99"/>
                    <Node pos="r" depth="7" NCoef="0" IVar="-1" Cut="0.0000000000000000e+00" cType="1" res="2.8257980011403561e-03" rms="4.0624725818634033e-01" purity="7.8384375572204590e-01" nType="-99"/>
                  </Node>
                  <Node pos="r" depth="6" NCoef="0" IVar="1" Cut="4.1198644042015076e-01" cType="1" res="2.3407436907291412e-02" rms="4.0725952386856079e-01" purity="7.8825765848159790e-01" nType="0">
                    <Node pos="l" depth="7" NCoef="0" IVar="-1" Cut="0.0000000000000000e+00" cType="1" res="2.8603181708604097e-03" rms="4.0248978137969971e-01" purity="7.9517453908920288e-01" nType="-99"/>
                    <Node pos="r" depth="7" NCoef="0" IVar="-1" Cut="0.0000000000000000e+00" cType="1" res="6.0607242630794644e-04" rms="4.3194442987442017e-01" purity="7.5052905082702637e-01" nType="-99"/>
                  </Node>
                </Node>
                <Node pos="r" depth="5" NCoef="0" IVar="-1" Cut="0.0000000000000000e+00" cType="1" res="1.3022196944802999e-03" rms="4.5362210273742676e-01" purity="7.0249629020690918e-01" nType="-99"/>
              </Node>
            </Node>
            <Node pos="r" depth="3" NCoef="0" IVar="-1" Cut="0.0000000000000000e+00" cType="1" res="-1.7483984120190144e-03" rms="4.8392635583877563e-01" purity="5.9962540864944458e-01" nType="-99"/>
          </Node>
          <Node pos="r" depth="2" NCoef="0" IVar="-1" Cut="0.0000000000000000e+00" cType="1" res="-4.5831436291337013e-03" rms="4.7685819864273071e-01" purity="4.1207015514373779e-01" nType="-99"/>
        </Node>
      </Node>
    </BinaryTree>
    <BinaryTree type="DecisionTree" boostWeight="1.0000000000000000e+00" itree="69">
      <Node pos="s" depth="0" NCoef="0" IVar="3" Cut="6.7608582973480225e-01" cType="1" res="7.4821114540100098e-03" rms="4.1024652123451233e-01" purity="5.0205433368682861e-01" nType="0">
        <Node pos="l" depth="1" NCoef="0" IVar="3" Cut="3.9263141155242920e-01" cType="1" res="-6.0901446267962456e-03" rms="3.6457031965255737e-01" purity="1.9765573740005493e-01" nType="0">
          <Node pos="l" depth="2" NCoef="0" IVar="5" Cut="4.0000000000000000e+00" cType="1" res="7.1321479976177216e-02" rms="0.0000000000000000e+00" purity="8.4618717432022095e-02" nType="0">
            <Node pos="l" depth="3" NCoef="0" IVar="3" Cut="2.7930831909179688e-01" cType="1" res="1.1226069182157516e-02" rms="3.4869009256362915e-01" purity="1.6207556426525116e-01" nType="0">
              <Node pos="l" depth="4" NCoef="0" IVar="-1" Cut="0.0000000000000000e+00" cType="1" res="8.9543377980589867e-03" rms="4.0375009179115295e-01" purity="2.3598353564739227e-01" nType="-99"/>
              <Node pos="r" depth="4" NCoef="0" IVar="-1" Cut="0.0000000000000000e+00" cType="1" res="-4.8053953796625137e-03" rms="2.9661145806312561e-01" purity="1.0580418258905411e-01" nType="-99"/>
            </Node>
            <Node pos="r" depth="3" NCoef="0" IVar="4" Cut="2.3024281859397888e-01" cType="1" res="-1.6550594940781593e-02" rms="2.5228503346443176e-01" purity="7.3217369616031647e-02" nType="0">
              <Node pos="l" depth="4" NCoef="0" IVar="3" Cut="3.1666186451911926e-01" cType="1" res="-1.9510287791490555e-02" rms="2.2192272543907166e-01" purity="5.3905688226222992e-02" nType="0">
                <Node pos="l" depth="5" NCoef="0" IVar="3" Cut="2.3496831953525543e-01" cType="1" res="-2.3649144917726517e-02" rms="1.9292826950550079e-01" purity="3.9401207119226456e-02" nType="0">
                  <Node pos="l" depth="6" NCoef="0" IVar="2" Cut="3.9457061767578125e+02" cType="1" res="-2.7698498219251633e-02" rms="1.7763547599315643e-01" purity="3.3274181187152863e-02" nType="0">
                    <Node pos="l" depth="7" NCoef="0" IVar="-1" Cut="0.0000000000000000e+00" cType="1" res="-1.4122799970209599e-02" rms="1.7597526311874390e-01" purity="3.2873697578907013e-02" nType="-99"/>
                    <Node pos="r" depth="7" NCoef="0" IVar="-1" Cut="0.0000000000000000e+00" cType="1" res="-1.6601169481873512e-02" rms="1.8162661790847778e-01" purity="3.4349340945482254e-02" nType="-99"/>
                  </Node>
                  <Node pos="r" depth="6" NCoef="0" IVar="5" Cut="6.0000000000000000e+00" cType="1" res="-1.9730631262063980e-02" rms="2.0567791163921356e-01" purity="4.4930890202522278e-02" nType="0">
                    <Node pos="l" depth="7" NCoef="0" IVar="-1" Cut="0.0000000000000000e+00" cType="1" res="-1.3214854523539543e-02" rms="1.9561499357223511e-01" purity="4.0272653102874756e-02" nType="-99"/>
                    <Node pos="r" depth="7" NCoef="0" IVar="-1" Cut="0.0000000000000000e+00" cType="1" res="-7.4046319350600243e-03" rms="2.1188682317733765e-01" purity="4.7980245202779770e-02" nType="-99"/>
                  </Node>
                </Node>
                <Node pos="r" depth="5" NCoef="0" IVar="0" Cut="1.3395755290985107e+00" cType="1" res="-1.1525440961122513e-02" rms="2.6899537444114685e-01" purity="8.1888288259506226e-02" nType="0">
                  <Node pos="l" depth="6" NCoef="0" IVar="2" Cut="2.9626702880859375e+02" cType="1" res="-8.5807574214413762e-04" rms="3.1227609515190125e-01" purity="1.1349517107009888e-01" nType="0">
                    <Node pos="l" depth="7" NCoef="0" IVar="-1" Cut="0.0000000000000000e+00" cType="1" res="3.6023792345076799e-03" rms="3.2374757528305054e-01" purity="1.2371611595153809e-01" nType="-99"/>
                    <Node pos="r" depth="7" NCoef="0" IVar="-1" Cut="0.0000000000000000e+00" cType="1" res="-3.8444777019321918e-03" rms="2.9940730333328247e-01" purity="1.0300700366497040e-01" nType="-99"/>
                  </Node>
                  <Node pos="r" depth="6" NCoef="0" IVar="3" Cut="3.4605544805526733e-01" cType="1" res="-2.3468958213925362e-02" rms="2.0957319438457489e-01" purity="4.6500250697135925e-02" nType="0">
                    <Node pos="l" depth="7" NCoef="0" IVar="-1" Cut="0.0000000000000000e+00" cType="1" res="-8.0438237637281418e-03" rms="2.1257686614990234e-01" purity="4.8000913113355637e-02" nType="-99"/>
                    <Node pos="r" depth="7" NCoef="0" IVar="-1" Cut="0.0000000000000000e+00" cType="1" res="-1.1829044669866562e-02" rms="2.0654723048210144e-01" purity="4.5086361467838287e-02" nType="-99"/>
                  </Node>
                </Node>
              </Node>
              <Node pos="r" depth="4" NCoef="0" IVar="3" Cut="1.6523267328739166e-01" cType="1" res="1.2907484779134393e-04" rms="3.8008150458335876e-01" purity="1.8205048143863678e-01" nType="0">
                <Node pos="l" depth="5" NCoef="0" IVar="-1" Cut="0.0000000000000000e+00" cType="1" res="1.6131168231368065e-03" rms="3.8956013321876526e-01" purity="1.9603686034679413e-01" nType="-99"/>
                <Node pos="r" depth="5" NCoef="0" IVar="-1" Cut="0.0000000000000000e+00" cType="1" res="-1.2017987901344895e-03" rms="3.7283200025558472e-01" purity="1.7178109288215637e-01" nType="-99"/>
              </Node>
            </Node>
          </Node>
          <Node pos="r" depth="2" NCoef="0" IVar="5" Cut="5.0000000000000000e+00" cType="1" res="-4.1842856444418430e-04" rms="4.2785102128982544e-01" purity="2.8961104154586792e-01" nType="0">
            <Node pos="l" depth="3" NCoef="0" IVar="5" Cut="3.0000000000000000e+00" cType="1" res="-5.5055166594684124e-03" rms="4.3127369880676270e-01" purity="2.9829296469688416e-01" nType="0">
              <Node pos="l" depth="4" NCoef="0" IVar="4" Cut="7.9426690936088562e-02" cType="1" res="-2.5918465107679367e-02" rms="4.1744428873062134e-01" purity="2.6003718376159668e-01" nType="0">
                <Node pos="l" depth="5" NCoef="0" IVar="-1" Cut="0.0000000000000000e+00" cType="1" res="-7.3584709316492081e-03" rms="3.7350064516067505e-01" purity="1.8480543792247772e-01" nType="-99"/>
                <Node pos="r" depth="5" NCoef="0" IVar="-1" Cut="0.0000000000000000e+00" cType="1" res="-9.5779297407716513e-04" rms="4.4536286592483521e-01" purity="3.1373834609985352e-01" nType="-99"/>
              </Node>
              <Node pos="r" depth="4" NCoef="0" IVar="1" Cut="3.8196232914924622e-01" cType="1" res="-2.0399310160428286e-03" rms="4.3512505292892456e-01" purity="3.0669745802879333e-01" nType="0">
                <Node pos="l" depth="5" NCoef="0" IVar="2" Cut="1.4579931640625000e+02" cType="1" res="3.7158750928938389e-03" rms="4.5082202553749084e-01" purity="3.4158974885940552e-01" nType="0">
                  <Node pos="l" depth="6" NCoef="0" IVar="4" Cut="5.9021595865488052e-02" cType="1" res="1.2541391886770725e-02" rms="4.6347135305404663e-01" purity="3.8875782489776611e-01" nType="0">
                    <Node pos="l" depth="7" NCoef="0" IVar="-1" Cut="0.0000000000000000e+00" cType="1" res="3.6026854650117457e-04" rms="4.5170864462852478e-01" purity="3.4534788131713867e-01" nType="-99"/>
                    <Node pos="r" depth="7" NCoef="0" IVar="-1" Cut="0.0000000000000000e+00" cType="1" res="2.0339095499366522e-03" rms="4.7488185763359070e-01" purity="4.3263015151023865e-01" nType="-99"/>
                  </Node>
                  <Node pos="r" depth="6" NCoef="0" IVar="4" Cut="1.0269817709922791e-01" cType="1" res="-2.5972749572247267e-03" rms="4.4144311547279358e-01" purity="3.0784907937049866e-01" nType="0">
                    <Node pos="l" depth="7" NCoef="0" IVar="-1" Cut="0.0000000000000000e+00" cType="1" res="-1.5619201585650444e-03" rms="4.2710116505622864e-01" purity="2.7892607450485229e-01" nType="-99"/>
                    <Node pos="r" depth="7" NCoef="0" IVar="-1" Cut="0.0000000000000000e+00" cType="1" res="6.9501774851232767e-04" rms="4.5355883240699768e-01" purity="3.3340454101562500e-01" nType="-99"/>
                  </Node>
                </Node>
                <Node pos="r" depth="5" NCoef="0" IVar="0" Cut="5.7583469152450562e-01" cType="1" res="-1.6768217086791992e-02" rms="3.9172294735908508e-01" purity="2.1741305291652679e-01" nType="0">
                  <Node pos="l" depth="6" NCoef="0" IVar="-1" Cut="0.0000000000000000e+00" cType="1" res="-1.0358569124946371e-04" rms="4.6087577939033508e-01" purity="3.2513305544853210e-01" nType="-99"/>
                  <Node pos="r" depth="6" NCoef="0" IVar="-1" Cut="0.0000000000000000e+00" cType="1" res="-7.3458491824567318e-03" rms="3.0678874254226685e-01" purity="1.0993018001317978e-01" nType="-99"/>
                </Node>
              </Node>
            </Node>
            <Node pos="r" depth="3" NCoef="0" IVar="0" Cut="3.2413533329963684e-01" cType="1" res="1.8805339932441711e-02" rms="4.1307356953620911e-01" purity="2.6104411482810974e-01" nType="0">
              <Node pos="l" depth="4" NCoef="0" IVar="-1" Cut="0.0000000000000000e+00" cType="1" res="4.1336910799145699e-03" rms="4.7192382812500000e-01" purity="3.9214006066322327e-01" nType="-99"/>
              <Node pos="r" depth="4" NCoef="0" IVar="2" Cut="1.2861257934570312e+02" cType="1" res="7.5387898832559586e-03" rms="3.7559765577316284e-01" purity="1.8753787875175476e-01" nType="0">
                <Node pos="l" depth="5" NCoef="0" IVar="-1" Cut="0.0000000000000000e+00" cType="1" res="3.8884037639945745e-03" rms="3.9600378274917603e-01" purity="2.2166247665882111e-01" nType="-99"/>
                <Node pos="r" depth="5" NCoef="0" IVar="2" Cut="2.5203247070312500e+02" cType="1" res="-8.9960079640150070e-04" rms="3.6444643139839172e-01" purity="1.7010915279388428e-01" nType="0">
                  <Node pos="l" depth="6" NCoef="0" IVar="-1" Cut="0.0000000000000000e+00" cType="1" res="-1.4286997029557824e-03" rms="3.5903856158256531e-01" purity="1.7164143919944763e-01" nType="-99"/>
                  <Node pos="r" depth="6" NCoef="0" IVar="-1" Cut="0.0000000000000000e+00" cType="1" res="9.4847468426451087e-04" rms="3.6880481243133545e-01" purity="1.6882672905921936e-01" nType="-99"/>
                </Node>
              </Node>
            </Node>
          </Node>
        </Node>
        <Node pos="r" depth="1" NCoef="0" IVar="0" Cut="7.9670566320419312e-01" cType="1" res="1.6675010323524475e-02" rms="4.3825119733810425e-01" purity="7.0823270082473755e-01" nType="0">
          <Node pos="l" depth="2" NCoef="0" IVar="1" Cut="1.1786408424377441e+00" cType="1" res="1.8533805385231972e-02" rms="4.3758955597877502e-01" purity="7.1550655364990234e-01" nType="0">
            <Node pos="l" depth="3" NCoef="0" IVar="1" Cut="1.6951115801930428e-02" cType="1" res="2.0331174135208130e-02" rms="4.3549287319183350e-01" purity="7.2251731157302856e-01" nType="0">
              <Node pos="l" depth="4" NCoef="0" IVar="2" Cut="1.8824549865722656e+02" cType="1" res="2.6889402419328690e-02" rms="4.2392021417617798e-01" purity="7.4967736005783081e-01" nType="0">
                <Node pos="l" depth="5" NCoef="0" IVar="2" Cut="7.2867660522460938e+01" cType="1" res="2.8518615290522575e-02" rms="4.1794425249099731e-01" purity="7.6340043544769287e-01" nType="0">
                  <Node pos="l" depth="6" NCoef="0" IVar="4" Cut="2.3116432130336761e-02" cType="1" res="3.1555913388729095e-02" rms="4.0688756108283997e-01" purity="7.8478389978408813e-01" nType="0">
                    <Node pos="l" depth="7" NCoef="0" IVar="-1" Cut="0.0000000000000000e+00" cType="1" res="2.9084165580570698e-03" rms="4.0048936009407043e-01" purity="7.9468089342117310e-01" nType="-99"/>
                    <Node pos="r" depth="7" NCoef="0" IVar="-1" Cut="0.0000000000000000e+00" cType="1" res="4.6143317595124245e-03" rms="4.3446779251098633e-01" purity="7.3933523893356323e-01" nType="-99"/>
                  </Node>
                  <Node pos="r" depth="6" NCoef="0" IVar="4" Cut="6.3977301120758057e-02" cType="1" res="1.6824234277009964e-02" rms="4.5784181356430054e-01" purity="6.8106889724731445e-01" nType="0">
                    <Node pos="l" depth="7" NCoef="0" IVar="-1" Cut="0.0000000000000000e+00" cType="1" res="1.0107572888955474e-03" rms="4.5592990517616272e-01" purity="6.8316894769668579e-01" nType="-99"/>
                    <Node pos="r" depth="7" NCoef="0" IVar="-1" Cut="0.0000000000000000e+00" cType="1" res="3.2189323101192713e-03" rms="4.6350592374801636e-01" purity="6.7404574155807495e-01" nType="-99"/>
                  </Node>
                </Node>
                <Node pos="r" depth="5" NCoef="0" IVar="-1" Cut="0.0000000000000000e+00" cType="1" res="9.4682944472879171e-04" rms="4.8026764392852783e-01" purity="6.0987716913223267e-01" nType="-99"/>
              </Node>
              <Node pos="r" depth="4" NCoef="0" IVar="1" Cut="8.7821447849273682e-01" cType="1" res="1.3581688515841961e-02" rms="4.4698989391326904e-01" purity="6.9456517696380615e-01" nType="0">
                <Node pos="l" depth="5" NCoef="0" IVar="3" Cut="8.7742775678634644e-01" cType="1" res="1.5662429854273796e-02" rms="4.4482624530792236e-01" purity="7.0137143135070801e-01" nType="0">
                  <Node pos="l" depth="6" NCoef="0" IVar="4" Cut="7.5815282762050629e-02" cType="1" res="3.3730873838067055e-03" rms="4.8303279280662537e-01" purity="5.9799557924270630e-01" nType="0">
                    <Node pos="l" depth="7" NCoef="0" IVar="-1" Cut="0.0000000000000000e+00" cType="1" res="-8.8612723629921675e-05" rms="4.8185822367668152e-01" purity="6.0060054063796997e-01" nType="-99"/>
                    <Node pos="r" depth="7" NCoef="0" IVar="-1" Cut="0.0000000000000000e+00" cType="1" res="2.1831188350915909e-03" rms="4.8845905065536499e-01" purity="5.8446305990219116e-01" nType="-99"/>
                  </Node>
                  <Node pos="r" depth="6" NCoef="0" IVar="1" Cut="3.5017982125282288e-01" cType="1" res="2.3774009197950363e-02" rms="4.1749966144561768e-01" purity="7.6960468292236328e-01" nType="0">
                    <Node pos="l" depth="7" NCoef="0" IVar="-1" Cut="0.0000000000000000e+00" cType="1" res="2.7999116573482752e-03" rms="4.0839546918869019e-01" purity="7.8475683927536011e-01" nType="-99"/>
                    <Node pos="r" depth="7" NCoef="0" IVar="-1" Cut="0.0000000000000000e+00" cType="1" res="1.7611130606383085e-03" rms="4.3719774484634399e-01" purity="7.3559862375259399e-01" nType="-99"/>
                  </Node>
                </Node>
                <Node pos="r" depth="5" NCoef="0" IVar="-1" Cut="0.0000000000000000e+00" cType="1" res="-2.1927198395133018e-03" rms="4.8478665947914124e-01" purity="5.6446748971939087e-01" nType="-99"/>
              </Node>
            </Node>
            <Node pos="r" depth="3" NCoef="0" IVar="3" Cut="9.2491471767425537e-01" cType="1" res="-2.3594576865434647e-02" rms="4.8222517967224121e-01" purity="5.5118191242218018e-01" nType="0">
              <Node pos="l" depth="4" NCoef="0" IVar="-1" Cut="0.0000000000000000e+00" cType="1" res="-3.5535884089767933e-03" rms="4.8756632208824158e-01" purity="4.6241378784179688e-01" nType="-99"/>
              <Node pos="r" depth="4" NCoef="0" IVar="-1" Cut="0.0000000000000000e+00" cType="1" res="-5.5795960361137986e-04" rms="4.7622266411781311e-01" purity="6.3978886604309082e-01" nType="-99"/>
            </Node>
          </Node>
          <Node pos="r" depth="2" NCoef="0" IVar="-1" Cut="0.0000000000000000e+00" cType="1" res="-7.8301876783370972e-03" rms="4.6128949522972107e-01" purity="3.2615405321121216e-01" nType="-99"/>
        </Node>
      </Node>
    </BinaryTree>
    <BinaryTree type="DecisionTree" boostWeight="1.0000000000000000e+00" itree="70">
      <Node pos="s" depth="0" NCoef="0" IVar="5" Cut="2.0000000000000000e+00" cType="1" res="1.6913385689258575e-01" rms="0.0000000000000000e+00" purity="5.0020432472229004e-01" nType="0">
        <Node pos="l" depth="1" NCoef="0" IVar="1" Cut="4.0915766358375549e-01" cType="1" res="2.0840745419263840e-02" rms="4.1044017672538757e-01" purity="7.7605360746383667e-01" nType="0">
          <Node pos="l" depth="2" NCoef="0" IVar="3" Cut="1.0283871889114380e+00" cType="1" res="2.3625625297427177e-02" rms="4.0166643261909485e-01" purity="7.9257851839065552e-01" nType="0">
            <Node pos="l" depth="3" NCoef="0" IVar="3" Cut="9.6365410089492798e-01" cType="1" res="2.3156812414526939e-02" rms="4.0095436573028564e-01" purity="7.9423743486404419e-01" nType="0">
              <Node pos="l" depth="4" NCoef="0" IVar="-1" Cut="0.0000000000000000e+00" cType="1" res="1.3177315704524517e-03" rms="4.3228694796562195e-01" purity="7.4130660295486450e-01" nType="-99"/>
              <Node pos="r" depth="4" NCoef="0" IVar="3" Cut="1.0012404918670654e+00" cType="1" res="2.4072272703051567e-02" rms="3.9794033765792847e-01" purity="7.9909908771514893e-01" nType="0">
                <Node pos="l" depth="5" NCoef="0" IVar="3" Cut="9.9639028310775757e-01" cType="1" res="1.9764719530940056e-02" rms="4.0340647101402283e-01" purity="7.9124319553375244e-01" nType="0">
                  <Node pos="l" depth="6" NCoef="0" IVar="3" Cut="9.9005448818206787e-01" cType="1" res="2.2541567683219910e-02" rms="4.0407550334930420e-01" purity="7.9093515872955322e-01" nType="0">
                    <Node pos="l" depth="7" NCoef="0" IVar="-1" Cut="0.0000000000000000e+00" cType="1" res="1.7473615007475019e-03" rms="4.1061338782310486e-01" purity="7.8045809268951416e-01" nType="-99"/>
                    <Node pos="r" depth="7" NCoef="0" IVar="-1" Cut="0.0000000000000000e+00" cType="1" res="3.2357668969780207e-03" rms="3.9738705754280090e-01" purity="8.0132597684860229e-01" nType="-99"/>
                  </Node>
                  <Node pos="r" depth="6" NCoef="0" IVar="4" Cut="2.1185751393204555e-05" cType="1" res="1.6252517700195312e-02" rms="4.0253123641014099e-01" purity="7.9163271188735962e-01" nType="0">
                    <Node pos="l" depth="7" NCoef="0" IVar="-1" Cut="0.0000000000000000e+00" cType="1" res="2.9617403633892536e-03" rms="3.9455357193946838e-01" purity="8.0283790826797485e-01" nType="-99"/>
                    <Node pos="r" depth="7" NCoef="0" IVar="-1" Cut="0.0000000000000000e+00" cType="1" res="-3.8635460077784956e-04" rms="4.1614931821823120e-01" purity="7.7092689275741577e-01" nType="-99"/>
                  </Node>
                </Node>
                <Node pos="r" depth="5" NCoef="0" IVar="1" Cut="-3.3304188400506973e-02" cType="1" res="3.2402697950601578e-02" rms="3.8701441884040833e-01" purity="8.1429171562194824e-01" nType="0">
                  <Node pos="l" depth="6" NCoef="0" IVar="3" Cut="1.0099971294403076e+00" cType="1" res="3.6518391221761703e-02" rms="3.7916380167007446e-01" purity="8.2352113723754883e-01" nType="0">
                    <Node pos="l" depth="7" NCoef="0" IVar="-1" Cut="0.0000000000000000e+00" cType="1" res="3.5417927429080009e-03" rms="3.8190105557441711e-01" purity="8.1970995664596558e-01" nType="-99"/>
                    <Node pos="r" depth="7" NCoef="0" IVar="-1" Cut="0.0000000000000000e+00" cType="1" res="4.7690542414784431e-03" rms="3.7420749664306641e-01" purity="8.3019596338272095e-01" nType="-99"/>
                  </Node>
                  <Node pos="r" depth="6" NCoef="0" IVar="3" Cut="1.0047429800033569e+00" cType="1" res="2.8359098359942436e-02" rms="3.9453360438346863e-01" purity="8.0522400140762329e-01" nType="0">
                    <Node pos="l" depth="7" NCoef="0" IVar="-1" Cut="0.0000000000000000e+00" cType="1" res="4.2494493536651134e-03" rms="3.8380187749862671e-01" purity="8.1752508878707886e-01" nType="-99"/>
                    <Node pos="r" depth="7" NCoef="0" IVar="-1" Cut="0.0000000000000000e+00" cType="1" res="2.3755135480314493e-03" rms="4.0097373723983765e-01" purity="7.9750889539718628e-01" nType="-99"/>
                  </Node>
                </Node>
              </Node>
            </Node>
            <Node pos="r" depth="3" NCoef="0" IVar="-1" Cut="0.0000000000000000e+00" cType="1" res="2.8407436329871416e-03" rms="4.0862339735031128e-01" purity="7.7614617347717285e-01" nType="-99"/>
          </Node>
          <Node pos="r" depth="2" NCoef="0" IVar="-1" Cut="0.0000000000000000e+00" cType="1" res="6.7165360087528825e-04" rms="4.4973927736282349e-01" purity="6.9715839624404907e-01" nType="-99"/>
        </Node>
        <Node pos="r" depth="1" NCoef="0" IVar="2" Cut="3.7478826904296875e+02" cType="1" res="-9.1137184062972665e-04" rms="4.1139599680900574e-01" purity="3.7706628441810608e-01" nType="0">
          <Node pos="l" depth="2" NCoef="0" IVar="3" Cut="4.8538601398468018e-01" cType="1" res="2.5493502616882324e-03" rms="4.2015722393989563e-01" purity="4.1611593961715698e-01" nType="0">
            <Node pos="l" depth="3" NCoef="0" IVar="4" Cut="7.4882306158542633e-02" cType="1" res="-8.1463968381285667e-03" rms="2.8051441907882690e-01" purity="9.4040185213088989e-02" nType="0">
              <Node pos="l" depth="4" NCoef="0" IVar="2" Cut="9.7111152648925781e+01" cType="1" res="-1.7113314941525459e-02" rms="2.2933186590671539e-01" purity="5.8579191565513611e-02" nType="0">
                <Node pos="l" depth="5" NCoef="0" IVar="4" Cut="2.9498592019081116e-02" cType="1" res="-9.4675868749618530e-03" rms="2.5768294930458069e-01" purity="7.5622096657752991e-02" nType="0">
                  <Node pos="l" depth="6" NCoef="0" IVar="-1" Cut="0.0000000000000000e+00" cType="1" res="-7.7822976745665073e-03" rms="2.3683947324752808e-01" purity="6.1435580253601074e-02" nType="-99"/>
                  <Node pos="r" depth="6" NCoef="0" IVar="-1" Cut="0.0000000000000000e+00" cType="1" res="-1.0312289232388139e-03" rms="2.6954513788223267e-01" purity="8.4389455616474152e-02" nType="-99"/>
                </Node>
                <Node pos="r" depth="5" NCoef="0" IVar="1" Cut="7.1291548013687134e-01" cType="1" res="-2.3579742759466171e-02" rms="2.0204985141754150e-01" purity="4.4165041297674179e-02" nType="0">
                  <Node pos="l" depth="6" NCoef="0" IVar="4" Cut="5.9816509485244751e-02" cType="1" res="-2.7282593771815300e-02" rms="2.0553398132324219e-01" purity="4.5997571200132370e-02" nType="0">
                    <Node pos="l" depth="7" NCoef="0" IVar="-1" Cut="0.0000000000000000e+00" cType="1" res="-1.3380904681980610e-02" rms="1.9015771150588989e-01" purity="3.8520313799381256e-02" nType="-99"/>
                    <Node pos="r" depth="7" NCoef="0" IVar="-1" Cut="0.0000000000000000e+00" cType="1" res="-8.1357872113585472e-03" rms="2.2498282790184021e-01" purity="5.6368697434663773e-02" nType="-99"/>
                  </Node>
                  <Node pos="r" depth="6" NCoef="0" IVar="-1" Cut="0.0000000000000000e+00" cType="1" res="-8.6013246327638626e-03" rms="1.9511759281158447e-01" purity="4.0708433836698532e-02" nType="-99"/>
                </Node>
              </Node>
              <Node pos="r" depth="4" NCoef="0" IVar="3" Cut="3.1382679939270020e-01" cType="1" res="-1.9448684761300683e-03" rms="3.1087258458137512e-01" purity="1.1856504529714584e-01" nType="0">
                <Node pos="l" depth="5" NCoef="0" IVar="5" Cut="7.0000000000000000e+00" cType="1" res="-1.2481919489800930e-02" rms="2.4609336256980896e-01" purity="7.0322185754776001e-02" nType="0">
                  <Node pos="l" depth="6" NCoef="0" IVar="3" Cut="2.4337166547775269e-01" cType="1" res="-3.7339013069868088e-03" rms="2.7144211530685425e-01" purity="8.7617851793766022e-02" nType="0">
                    <Node pos="l" depth="7" NCoef="0" IVar="-1" Cut="0.0000000000000000e+00" cType="1" res="3.1322159338742495e-03" rms="2.9465755820274353e-01" purity="1.0926719009876251e-01" nType="-99"/>
                    <Node pos="r" depth="7" NCoef="0" IVar="-1" Cut="0.0000000000000000e+00" cType="1" res="-5.7238782756030560e-03" rms="2.5087442994117737e-01" purity="7.0350624620914459e-02" nType="-99"/>
                  </Node>
                  <Node pos="r" depth="6" NCoef="0" IVar="-1" Cut="0.0000000000000000e+00" cType="1" res="-1.1257193982601166e-02" rms="2.0782345533370972e-01" purity="4.7712892293930054e-02" nType="-99"/>
                </Node>
                <Node pos="r" depth="5" NCoef="0" IVar="5" Cut="6.0000000000000000e+00" cType="1" res="7.3917759582400322e-03" rms="3.5633674263954163e-01" purity="1.5944422781467438e-01" nType="0">
                  <Node pos="l" depth="6" NCoef="0" IVar="2" Cut="1.3717770385742188e+02" cType="1" res="6.6501455148681998e-04" rms="3.5470819473266602e-01" purity="1.5671323239803314e-01" nType="0">
                    <Node pos="l" depth="7" NCoef="0" IVar="-1" Cut="0.0000000000000000e+00" cType="1" res="4.7700279392302036e-03" rms="3.7980732321739197e-01" purity="1.8752670288085938e-01" nType="-99"/>
                    <Node pos="r" depth="7" NCoef="0" IVar="-1" Cut="0.0000000000000000e+00" cType="1" res="-1.5910458751022816e-03" rms="3.4533765912055969e-01" purity="1.4618229866027832e-01" nType="-99"/>
                  </Node>
                  <Node pos="r" depth="6" NCoef="0" IVar="-1" Cut="0.0000000000000000e+00" cType="1" res="5.5959583260118961e-03" rms="3.6073377728462219e-01" purity="1.6740852594375610e-01" nType="-99"/>
                </Node>
              </Node>
            </Node>
            <Node pos="r" depth="3" NCoef="0" IVar="0" Cut="9.5821553468704224e-01" cType="1" res="6.9053703919053078e-03" rms="4.6509680151939392e-01" purity="5.4728662967681885e-01" nType="0">
              <Node pos="l" depth="4" NCoef="0" IVar="4" Cut="3.1562890857458115e-02" cType="1" res="8.6459824815392494e-03" rms="4.6684867143630981e-01" purity="5.5821567773818970e-01" nType="0">
                <Node pos="l" depth="5" NCoef="0" IVar="2" Cut="7.8496238708496094e+01" cType="1" res="-3.1835038680583239e-03" rms="4.6003007888793945e-01" purity="6.0613912343978882e-01" nType="0">
                  <Node pos="l" depth="6" NCoef="0" IVar="4" Cut="2.1407039836049080e-02" cType="1" res="5.2746860310435295e-03" rms="4.6024370193481445e-01" purity="6.1749470233917236e-01" nType="0">
                    <Node pos="l" depth="7" NCoef="0" IVar="-1" Cut="0.0000000000000000e+00" cType="1" res="-8.9694670168682933e-04" rms="4.6405258774757385e-01" purity="6.0125511884689331e-01" nType="-99"/>
                    <Node pos="r" depth="7" NCoef="0" IVar="-1" Cut="0.0000000000000000e+00" cType="1" res="2.3500146344304085e-03" rms="4.5422601699829102e-01" purity="6.3978290557861328e-01" nType="-99"/>
                  </Node>
                  <Node pos="r" depth="6" NCoef="0" IVar="3" Cut="8.6230617761611938e-01" cType="1" res="-2.8736365959048271e-02" rms="4.5843714475631714e-01" purity="5.7183277606964111e-01" nType="0">
                    <Node pos="l" depth="7" NCoef="0" IVar="-1" Cut="0.0000000000000000e+00" cType="1" res="-4.7647664323449135e-03" rms="4.6269679069519043e-01" purity="4.5547735691070557e-01" nType="-99"/>
                    <Node pos="r" depth="7" NCoef="0" IVar="-1" Cut="0.0000000000000000e+00" cType="1" res="-7.7918014721944928e-04" rms="4.5255526900291443e-01" purity="7.0449334383010864e-01" nType="-99"/>
                  </Node>
                </Node>
                <Node pos="r" depth="5" NCoef="0" IVar="2" Cut="8.6037780761718750e+01" cType="1" res="1.2574396096169949e-02" rms="4.6902513504028320e-01" purity="5.4230099916458130e-01" nType="0">
                  <Node pos="l" depth="6" NCoef="0" IVar="0" Cut="4.6363711357116699e-01" cType="1" res="2.4947974830865860e-02" rms="4.6637132763862610e-01" purity="6.0982048511505127e-01" nType="0">
                    <Node pos="l" depth="7" NCoef="0" IVar="-1" Cut="0.0000000000000000e+00" cType="1" res="1.5603151405230165e-03" rms="4.6479460597038269e-01" purity="6.4274507761001587e-01" nType="-99"/>
                    <Node pos="r" depth="7" NCoef="0" IVar="-1" Cut="0.0000000000000000e+00" cType="1" res="6.1357589438557625e-03" rms="4.7325980663299561e-01" purity="4.2507725954055786e-01" nType="-99"/>
                  </Node>
                  <Node pos="r" depth="6" NCoef="0" IVar="3" Cut="7.4601399898529053e-01" cType="1" res="7.5122490525245667e-03" rms="4.7001263499259949e-01" purity="5.1467812061309814e-01" nType="0">
                    <Node pos="l" depth="7" NCoef="0" IVar="-1" Cut="0.0000000000000000e+00" cType="1" res="9.3719383585266769e-05" rms="4.7186848521232605e-01" purity="4.0813809633255005e-01" nType="-99"/>
                    <Node pos="r" depth="7" NCoef="0" IVar="-1" Cut="0.0000000000000000e+00" cType="1" res="1.5072600217536092e-03" rms="4.6735754609107971e-01" purity="6.5807288885116577e-01" nType="-99"/>
                  </Node>
                </Node>
              </Node>
              <Node pos="r" depth="4" NCoef="0" IVar="-1" Cut="0.0000000000000000e+00" cType="1" res="-6.0579320415854454e-03" rms="4.0552937984466553e-01" purity="2.1903267502784729e-01" nType="-99"/>
            </Node>
          </Node>
          <Node pos="r" depth="2" NCoef="0" IVar="3" Cut="5.7978796958923340e-01" cType="1" res="-1.7211854457855225e-02" rms="3.6689123511314392e-01" purity="1.9313696026802063e-01" nType="0">
            <Node pos="l" depth="3" NCoef="0" IVar="4" Cut="2.8958830237388611e-01" cType="1" res="-1.2687819078564644e-02" rms="3.3868846297264099e-01" purity="1.4735941588878632e-01" nType="0">
              <Node pos="l" depth="4" NCoef="0" IVar="2" Cut="7.0387445068359375e+02" cType="1" res="-1.8271010369062424e-02" rms="3.2669502496719360e-01" purity="1.3487271964550018e-01" nType="0">
                <Node pos="l" depth="5" NCoef="0" IVar="4" Cut="1.1476682126522064e-01" cType="1" res="-1.2858802452683449e-02" rms="3.2426506280899048e-01" purity="1.3428604602813721e-01" nType="0">
                  <Node pos="l" depth="6" NCoef="0" IVar="-1" Cut="0.0000000000000000e+00" cType="1" res="-8.7053701281547546e-03" rms="2.6911312341690063e-01" purity="8.2820005714893341e-02" nType="-99"/>
                  <Node pos="r" depth="6" NCoef="0" IVar="3" Cut="4.6965426206588745e-01" cType="1" res="-6.4666648395359516e-03" rms="3.3934053778648376e-01" purity="1.5028987824916840e-01" nType="0">
                    <Node pos="l" depth="7" NCoef="0" IVar="-1" Cut="0.0000000000000000e+00" cType="1" res="-4.0401574224233627e-03" rms="2.9977861046791077e-01" purity="1.0642112791538239e-01" nType="-99"/>
                    <Node pos="r" depth="7" NCoef="0" IVar="-1" Cut="0.0000000000000000e+00" cType="1" res="3.1522316858172417e-03" rms="4.5877987146377563e-01" purity="3.1804558634757996e-01" nType="-99"/>
                  </Node>
                </Node>
                <Node pos="r" depth="5" NCoef="0" IVar="3" Cut="2.9985162615776062e-01" cType="1" res="-3.4378133714199066e-02" rms="3.3330258727073669e-01" purity="1.3661864399909973e-01" nType="0">
                  <Node pos="l" depth="6" NCoef="0" IVar="-1" Cut="0.0000000000000000e+00" cType="1" res="-5.1216138526797295e-03" rms="3.1376695632934570e-01" purity="1.2229934334754944e-01" nType="-99"/>
                  <Node pos="r" depth="6" NCoef="0" IVar="-1" Cut="0.0000000000000000e+00" cType="1" res="-7.6737119816243649e-03" rms="3.5301277041435242e-01" purity="1.5229415893554688e-01" nType="-99"/>
                </Node>
              </Node>
              <Node pos="r" depth="4" NCoef="0" IVar="-1" Cut="0.0000000000000000e+00" cType="1" res="5.5790143087506294e-03" rms="4.2841508984565735e-01" purity="2.5942367315292358e-01" nType="-99"/>
            </Node>
            <Node pos="r" depth="3" NCoef="0" IVar="-1" Cut="0.0000000000000000e+00" cType="1" res="-3.7974577862769365e-03" rms="4.7758930921554565e-01" purity="4.0946322679519653e-01" nType="-99"/>
          </Node>
        </Node>
      </Node>
    </BinaryTree>
    <BinaryTree type="DecisionTree" boostWeight="1.0000000000000000e+00" itree="71">
      <Node pos="s" depth="0" NCoef="0" IVar="3" Cut="7.6397395133972168e-01" cType="1" res="4.8952000215649605e-03" rms="4.1147059202194214e-01" purity="4.9965837597846985e-01" nType="0">
        <Node pos="l" depth="1" NCoef="0" IVar="3" Cut="5.4221886396408081e-01" cType="1" res="-4.5243394561111927e-03" rms="3.9026358723640442e-01" purity="2.5833153724670410e-01" nType="0">
          <Node pos="l" depth="2" NCoef="0" IVar="3" Cut="1.4004312455654144e-01" cType="1" res="-8.7280785664916039e-03" rms="3.1526961922645569e-01" purity="1.2592814862728119e-01" nType="0">
            <Node pos="l" depth="3" NCoef="0" IVar="5" Cut="8.0000000000000000e+00" cType="1" res="1.1658395081758499e-01" rms="5.8672386407852173e-01" purity="1.5437203645706177e-01" nType="0">
              <Node pos="l" depth="4" NCoef="0" IVar="-1" Cut="0.0000000000000000e+00" cType="1" res="1.0360086336731911e-02" rms="3.9725685119628906e-01" purity="2.2422555088996887e-01" nType="-99"/>
              <Node pos="r" depth="4" NCoef="0" IVar="-1" Cut="0.0000000000000000e+00" cType="1" res="-7.5942482799291611e-03" rms="2.6994994282722473e-01" purity="8.6298465728759766e-02" nType="-99"/>
            </Node>
            <Node pos="r" depth="3" NCoef="0" IVar="0" Cut="7.0954179763793945e-01" cType="1" res="-1.0530214756727219e-02" rms="3.1302624940872192e-01" purity="1.2364317476749420e-01" nType="0">
              <Node pos="l" depth="4" NCoef="0" IVar="0" Cut="2.2884938865900040e-02" cType="1" res="4.4300742447376251e-03" rms="4.1493344306945801e-01" purity="2.3795866966247559e-01" nType="0">
                <Node pos="l" depth="5" NCoef="0" IVar="3" Cut="3.9958381652832031e-01" cType="1" res="2.4226712062954903e-02" rms="4.4441556930541992e-01" purity="2.9436293244361877e-01" nType="0">
                  <Node pos="l" depth="6" NCoef="0" IVar="-1" Cut="0.0000000000000000e+00" cType="1" res="6.1972406692802906e-03" rms="4.2142778635025024e-01" purity="2.4789947271347046e-01" nType="-99"/>
                  <Node pos="r" depth="6" NCoef="0" IVar="-1" Cut="0.0000000000000000e+00" cType="1" res="1.2917433632537723e-03" rms="4.6041643619537354e-01" purity="3.2898393273353577e-01" nType="-99"/>
                </Node>
                <Node pos="r" depth="5" NCoef="0" IVar="5" Cut="6.0000000000000000e+00" cType="1" res="-1.2180099729448557e-03" rms="2.6857838034629822e-01" purity="2.0842030644416809e-01" nType="0">
                  <Node pos="l" depth="6" NCoef="0" IVar="2" Cut="2.4502122497558594e+02" cType="1" res="-1.3781769201159477e-02" rms="4.0482583642005920e-01" purity="2.1735654771327972e-01" nType="0">
                    <Node pos="l" depth="7" NCoef="0" IVar="-1" Cut="0.0000000000000000e+00" cType="1" res="-3.1300242990255356e-03" rms="4.1053277254104614e-01" purity="2.2922389209270477e-01" nType="-99"/>
                    <Node pos="r" depth="7" NCoef="0" IVar="-1" Cut="0.0000000000000000e+00" cType="1" res="-7.8603735892102122e-04" rms="3.9930865168571472e-01" purity="2.0644617080688477e-01" nType="-99"/>
                  </Node>
                  <Node pos="r" depth="6" NCoef="0" IVar="-1" Cut="0.0000000000000000e+00" cType="1" res="1.9243127899244428e-03" rms="3.8324692845344543e-01" purity="1.8935011327266693e-01" nType="-99"/>
                </Node>
              </Node>
              <Node pos="r" depth="4" NCoef="0" IVar="0" Cut="1.3962011337280273e+00" cType="1" res="-1.6679869964718819e-02" rms="2.5954002141952515e-01" purity="7.6652027666568756e-02" nType="0">
                <Node pos="l" depth="5" NCoef="0" IVar="5" Cut="4.0000000000000000e+00" cType="1" res="-5.6796181015670300e-03" rms="2.4705664813518524e-01" purity="1.1382313072681427e-01" nType="0">
                  <Node pos="l" depth="6" NCoef="0" IVar="2" Cut="1.6573384094238281e+02" cType="1" res="-2.3809188976883888e-02" rms="3.2465600967407227e-01" purity="1.2495286762714386e-01" nType="0">
                    <Node pos="l" depth="7" NCoef="0" IVar="-1" Cut="0.0000000000000000e+00" cType="1" res="-2.7138243895024061e-03" rms="3.4602522850036621e-01" purity="1.4539158344268799e-01" nType="-99"/>
                    <Node pos="r" depth="7" NCoef="0" IVar="-1" Cut="0.0000000000000000e+00" cType="1" res="-7.7446936629712582e-03" rms="3.0369335412979126e-01" purity="1.0644657164812088e-01" nType="-99"/>
                  </Node>
                  <Node pos="r" depth="6" NCoef="0" IVar="4" Cut="8.6774304509162903e-02" cType="1" res="-5.4441946558654308e-03" rms="3.0697509646415710e-01" purity="1.1000423133373260e-01" nType="0">
                    <Node pos="l" depth="7" NCoef="0" IVar="-1" Cut="0.0000000000000000e+00" cType="1" res="-3.5375691950321198e-03" rms="2.8848606348037720e-01" purity="9.5628403127193451e-02" nType="-99"/>
                    <Node pos="r" depth="7" NCoef="0" IVar="-1" Cut="0.0000000000000000e+00" cType="1" res="-5.9748588682850823e-05" rms="3.1956279277801514e-01" purity="1.2038701027631760e-01" nType="-99"/>
                  </Node>
                </Node>
                <Node pos="r" depth="5" NCoef="0" IVar="1" Cut="6.9576215744018555e-01" cType="1" res="-2.1767329424619675e-02" rms="2.1010130643844604e-01" purity="4.7754384577274323e-02" nType="0">
                  <Node pos="l" depth="6" NCoef="0" IVar="2" Cut="1.7324516296386719e+02" cType="1" res="-2.4953151121735573e-02" rms="2.1267075836658478e-01" purity="4.9250889569520950e-02" nType="0">
                    <Node pos="l" depth="7" NCoef="0" IVar="-1" Cut="0.0000000000000000e+00" cType="1" res="-8.4776375442743301e-03" rms="2.1703922748565674e-01" purity="5.2415892481803894e-02" nType="-99"/>
                    <Node pos="r" depth="7" NCoef="0" IVar="-1" Cut="0.0000000000000000e+00" cType="1" res="-1.2021197006106377e-02" rms="2.1001008152961731e-01" purity="4.7416366636753082e-02" nType="-99"/>
                  </Node>
                  <Node pos="r" depth="6" NCoef="0" IVar="4" Cut="1.0335651040077209e-01" cType="1" res="-1.6455065459012985e-02" rms="2.0563572645187378e-01" purity="4.5259010046720505e-02" nType="0">
                    <Node pos="l" depth="7" NCoef="0" IVar="-1" Cut="0.0000000000000000e+00" cType="1" res="-8.1274816766381264e-03" rms="1.9537672400474548e-01" purity="4.0293563157320023e-02" nType="-99"/>
                    <Node pos="r" depth="7" NCoef="0" IVar="-1" Cut="0.0000000000000000e+00" cType="1" res="-9.0453149750828743e-03" rms="2.2275681793689728e-01" purity="5.4140582680702209e-02" nType="-99"/>
                  </Node>
                </Node>
              </Node>
            </Node>
          </Node>
          <Node pos="r" depth="2" NCoef="0" IVar="5" Cut="3.0000000000000000e+00" cType="1" res="1.7363962251693010e-03" rms="4.7857752442359924e-01" purity="4.5067557692527771e-01" nType="0">
            <Node pos="l" depth="3" NCoef="0" IVar="1" Cut="3.1900075078010559e-01" cType="1" res="-1.7979219555854797e-02" rms="4.7346636652946472e-01" purity="4.1517907381057739e-01" nType="0">
              <Node pos="l" depth="4" NCoef="0" IVar="4" Cut="7.5598336756229401e-02" cType="1" res="-4.5077991671860218e-03" rms="4.8590290546417236e-01" purity="4.6701654791831970e-01" nType="0">
                <Node pos="l" depth="5" NCoef="0" IVar="-1" Cut="0.0000000000000000e+00" cType="1" res="-1.1324874358251691e-03" rms="4.8153907060623169e-01" purity="4.5106494426727295e-01" nType="-99"/>
                <Node pos="r" depth="5" NCoef="0" IVar="-1" Cut="0.0000000000000000e+00" cType="1" res="3.5530436434783041e-04" rms="4.9023619294166565e-01" purity="4.8354214429855347e-01" nType="-99"/>
              </Node>
              <Node pos="r" depth="4" NCoef="0" IVar="-1" Cut="0.0000000000000000e+00" cType="1" res="-4.9484702758491039e-03" rms="4.4419911503791809e-01" purity="3.0382356047630310e-01" nType="-99"/>
            </Node>
            <Node pos="r" depth="3" NCoef="0" IVar="1" Cut="-4.2046148329973221e-02" cType="1" res="9.2098433524370193e-03" rms="4.8044160008430481e-01" purity="4.6451610326766968e-01" nType="0">
              <Node pos="l" depth="4" NCoef="0" IVar="2" Cut="1.4579931640625000e+02" cType="1" res="2.0626597106456757e-02" rms="4.8492336273193359e-01" purity="5.2244800329208374e-01" nType="0">
                <Node pos="l" depth="5" NCoef="0" IVar="4" Cut="4.5207228511571884e-02" cType="1" res="3.2250516116619110e-02" rms="4.8487949371337891e-01" purity="5.7038962841033936e-01" nType="0">
                  <Node pos="l" depth="6" NCoef="0" IVar="-1" Cut="0.0000000000000000e+00" cType="1" res="1.4839150244370103e-03" rms="4.8779359459877014e-01" purity="5.3350800275802612e-01" nType="-99"/>
                  <Node pos="r" depth="6" NCoef="0" IVar="-1" Cut="0.0000000000000000e+00" cType="1" res="3.5452910233289003e-03" rms="4.8220697045326233e-01" purity="5.9953075647354126e-01" nType="-99"/>
                </Node>
                <Node pos="r" depth="5" NCoef="0" IVar="3" Cut="6.3520437479019165e-01" cType="1" res="8.2569113001227379e-03" rms="4.8466393351554871e-01" purity="4.7143054008483887e-01" nType="0">
                  <Node pos="l" depth="6" NCoef="0" IVar="-1" Cut="0.0000000000000000e+00" cType="1" res="-2.5232127518393099e-04" rms="4.7890767455101013e-01" purity="3.8558283448219299e-01" nType="-99"/>
                  <Node pos="r" depth="6" NCoef="0" IVar="-1" Cut="0.0000000000000000e+00" cType="1" res="1.6406642971560359e-03" rms="4.8965856432914734e-01" purity="5.4990190267562866e-01" nType="-99"/>
                </Node>
              </Node>
              <Node pos="r" depth="4" NCoef="0" IVar="4" Cut="7.5764283537864685e-02" cType="1" res="2.9133395291864872e-03" rms="4.7783517837524414e-01" purity="4.3256580829620361e-01" nType="0">
                <Node pos="l" depth="5" NCoef="0" IVar="2" Cut="5.5155773162841797e+01" cType="1" res="-4.5840307138860226e-03" rms="4.7469133138656616e-01" purity="4.2660760879516602e-01" nType="0">
                  <Node pos="l" depth="6" NCoef="0" IVar="-1" Cut="0.0000000000000000e+00" cType="1" res="1.8077185377478600e-03" rms="4.8532873392105103e-01" purity="4.7954902052879333e-01" nType="-99"/>
                  <Node pos="r" depth="6" NCoef="0" IVar="4" Cut="4.1884817183017731e-02" cType="1" res="-1.3686029240489006e-02" rms="4.7038185596466064e-01" purity="4.0708819031715393e-01" nType="0">
                    <Node pos="l" depth="7" NCoef="0" IVar="-1" Cut="0.0000000000000000e+00" cType="1" res="-3.7724277935922146e-03" rms="4.6163424849510193e-01" purity="3.6868312954902649e-01" nType="-99"/>
                    <Node pos="r" depth="7" NCoef="0" IVar="-1" Cut="0.0000000000000000e+00" cType="1" res="-4.6011334052309394e-04" rms="4.7341647744178772e-01" purity="4.2196023464202881e-01" nType="-99"/>
                  </Node>
                </Node>
                <Node pos="r" depth="5" NCoef="0" IVar="3" Cut="6.0660457611083984e-01" cType="1" res="1.2986942194402218e-02" rms="4.8184341192245483e-01" purity="4.4057124853134155e-01" nType="0">
                  <Node pos="l" depth="6" NCoef="0" IVar="-1" Cut="0.0000000000000000e+00" cType="1" res="-8.4741950558964163e-05" rms="4.6912178397178650e-01" purity="3.5195216536521912e-01" nType="-99"/>
                  <Node pos="r" depth="6" NCoef="0" IVar="3" Cut="6.5740919113159180e-01" cType="1" res="2.2877061739563942e-02" rms="4.9051344394683838e-01" purity="5.0404244661331177e-01" nType="0">
                    <Node pos="l" depth="7" NCoef="0" IVar="-1" Cut="0.0000000000000000e+00" cType="1" res="2.9970812611281872e-03" rms="4.8924705386161804e-01" purity="4.6698656678199768e-01" nType="-99"/>
                    <Node pos="r" depth="7" NCoef="0" IVar="-1" Cut="0.0000000000000000e+00" cType="1" res="1.1694225249812007e-03" rms="4.9142917990684509e-01" purity="5.3662240505218506e-01" nType="-99"/>
                  </Node>
                </Node>
              </Node>
            </Node>
          </Node>
        </Node>
        <Node pos="r" depth="1" NCoef="0" IVar="1" Cut="4.9588343501091003e-01" cType="1" res="1.4043829403817654e-02" rms="4.3087300658226013e-01" purity="7.3404461145401001e-01" nType="0">
          <Node pos="l" depth="2" NCoef="0" IVar="2" Cut="1.7538034057617188e+02" cType="1" res="1.7499957233667374e-02" rms="4.2389383912086487e-01" purity="7.5244945287704468e-01" nType="0">
            <Node pos="l" depth="3" NCoef="0" IVar="4" Cut="4.6996142715215683e-02" cType="1" res="1.8799746409058571e-02" rms="4.2014014720916748e-01" purity="7.6176410913467407e-01" nType="0">
              <Node pos="l" depth="4" NCoef="0" IVar="3" Cut="8.9486992359161377e-01" cType="1" res="1.7369600012898445e-02" rms="4.1748824715614319e-01" purity="7.6634556055068970e-01" nType="0">
                <Node pos="l" depth="5" NCoef="0" IVar="4" Cut="2.1355371922254562e-02" cType="1" res="3.2943245023488998e-03" rms="4.5764365792274475e-01" purity="6.8877804279327393e-01" nType="0">
                  <Node pos="l" depth="6" NCoef="0" IVar="2" Cut="2.7961454391479492e+01" cType="1" res="-1.5749450773000717e-02" rms="4.6520775556564331e-01" purity="6.6815811395645142e-01" nType="0">
                    <Node pos="l" depth="7" NCoef="0" IVar="-1" Cut="0.0000000000000000e+00" cType="1" res="-2.7713485178537667e-04" rms="4.6224695444107056e-01" purity="6.8278074264526367e-01" nType="-99"/>
                    <Node pos="r" depth="7" NCoef="0" IVar="-1" Cut="0.0000000000000000e+00" cType="1" res="-3.0913343653082848e-03" rms="4.6813181042671204e-01" purity="6.5148079395294189e-01" nType="-99"/>
                  </Node>
                  <Node pos="r" depth="6" NCoef="0" IVar="2" Cut="1.0183516693115234e+02" cType="1" res="1.0839912109076977e-02" rms="4.5439106225967407e-01" purity="6.9694805145263672e-01" nType="0">
                    <Node pos="l" depth="7" NCoef="0" IVar="-1" Cut="0.0000000000000000e+00" cType="1" res="1.8858456751331687e-03" rms="4.5017045736312866e-01" purity="7.0864588022232056e-01" nType="-99"/>
                    <Node pos="r" depth="7" NCoef="0" IVar="-1" Cut="0.0000000000000000e+00" cType="1" res="-1.0412295814603567e-03" rms="4.6316027641296387e-01" purity="6.7030626535415649e-01" nType="-99"/>
                  </Node>
                </Node>
                <Node pos="r" depth="5" NCoef="0" IVar="0" Cut="2.9101210832595825e-01" cType="1" res="2.1647185087203979e-02" rms="4.0439859032630920e-01" purity="7.8991901874542236e-01" nType="0">
                  <Node pos="l" depth="6" NCoef="0" IVar="3" Cut="1.0035248994827271e+00" cType="1" res="2.2342301905155182e-02" rms="4.0032771229743958e-01" purity="7.9863280057907104e-01" nType="0">
                    <Node pos="l" depth="7" NCoef="0" IVar="-1" Cut="0.0000000000000000e+00" cType="1" res="2.1597747690975666e-03" rms="4.0383559465408325e-01" purity="7.9390907287597656e-01" nType="-99"/>
                    <Node pos="r" depth="7" NCoef="0" IVar="-1" Cut="0.0000000000000000e+00" cType="1" res="3.3006968442350626e-03" rms="3.9035749435424805e-01" purity="8.1168627738952637e-01" nType="-99"/>
                  </Node>
                  <Node pos="r" depth="6" NCoef="0" IVar="-1" Cut="0.0000000000000000e+00" cType="1" res="7.2702683974057436e-04" rms="4.7511085867881775e-01" purity="6.2400019168853760e-01" nType="-99"/>
                </Node>
              </Node>
              <Node pos="r" depth="4" NCoef="0" IVar="2" Cut="9.2727027893066406e+01" cType="1" res="3.3860862255096436e-02" rms="4.4683581590652466e-01" purity="7.1351552009582520e-01" nType="0">
                <Node pos="l" depth="5" NCoef="0" IVar="-1" Cut="0.0000000000000000e+00" cType="1" res="3.7300896365195513e-03" rms="4.3888807296752930e-01" purity="7.3424619436264038e-01" nType="-99"/>
                <Node pos="r" depth="5" NCoef="0" IVar="-1" Cut="0.0000000000000000e+00" cType="1" res="1.9983334932476282e-03" rms="4.5447021722793579e-01" purity="6.9244635105133057e-01" nType="-99"/>
              </Node>
            </Node>
            <Node pos="r" depth="3" NCoef="0" IVar="3" Cut="8.3097690343856812e-01" cType="1" res="3.2423369702883065e-04" rms="4.7035601735115051e-01" purity="6.2936276197433472e-01" nType="0">
              <Node pos="l" depth="4" NCoef="0" IVar="-1" Cut="0.0000000000000000e+00" cType="1" res="8.7950529996305704e-04" rms="4.7585353255271912e-01" purity="6.3831639289855957e-01" nType="-99"/>
              <Node pos="r" depth="4" NCoef="0" IVar="-1" Cut="0.0000000000000000e+00" cType="1" res="-9.7704434301704168e-04" rms="4.6391859650611877e-01" purity="6.1935687065124512e-01" nType="-99"/>
            </Node>
          </Node>
          <Node pos="r" depth="2" NCoef="0" IVar="3" Cut="8.3485883474349976e-01" cType="1" res="-6.7891841754317284e-03" rms="4.7021806240081787e-01" purity="6.2310314178466797e-01" nType="0">
            <Node pos="l" depth="3" NCoef="0" IVar="-1" Cut="0.0000000000000000e+00" cType="1" res="-1.5572306001558900e-03" rms="4.9201753735542297e-01" purity="5.0788199901580811e-01" nType="-99"/>
            <Node pos="r" depth="3" NCoef="0" IVar="3" Cut="9.0343707799911499e-01" cType="1" res="-4.1402815841138363e-03" rms="4.6526399254798889e-01" purity="6.4834553003311157e-01" nType="0">
              <Node pos="l" depth="4" NCoef="0" IVar="-1" Cut="0.0000000000000000e+00" cType="1" res="5.4598676797468215e-05" rms="4.8479631543159485e-01" purity="5.9439289569854736e-01" nType="-99"/>
              <Node pos="r" depth="4" NCoef="0" IVar="-1" Cut="0.0000000000000000e+00" cType="1" res="-5.0753488903865218e-04" rms="4.5872223377227783e-01" purity="6.6589081287384033e-01" nType="-99"/>
            </Node>
          </Node>
        </Node>
      </Node>
    </BinaryTree>
    <BinaryTree type="DecisionTree" boostWeight="1.0000000000000000e+00" itree="72">
      <Node pos="s" depth="0" NCoef="0" IVar="3" Cut="7.3627215623855591e-01" cType="1" res="5.7037752121686935e-03" rms="4.1108810901641846e-01" purity="4.9995917081832886e-01" nType="0">
        <Node pos="l" depth="1" NCoef="0" IVar="1" Cut="1.4958879351615906e-01" cType="1" res="-3.9522782899439335e-03" rms="3.8330963253974915e-01" purity="2.3880903422832489e-01" nType="0">
          <Node pos="l" depth="2" NCoef="0" IVar="2" Cut="1.8411872863769531e+02" cType="1" res="5.2025471813976765e-03" rms="4.2146560549736023e-01" purity="3.1228804588317871e-01" nType="0">
            <Node pos="l" depth="3" NCoef="0" IVar="4" Cut="3.7453956902027130e-02" cType="1" res="1.2847543694078922e-02" rms="4.4567868113517761e-01" purity="3.8365450501441956e-01" nType="0">
              <Node pos="l" depth="4" NCoef="0" IVar="2" Cut="5.3613628387451172e+01" cType="1" res="-1.3622870668768883e-02" rms="4.3347373604774475e-01" purity="3.3949717879295349e-01" nType="0">
                <Node pos="l" depth="5" NCoef="0" IVar="-1" Cut="0.0000000000000000e+00" cType="1" res="2.6764304493553936e-04" rms="4.5337131619453430e-01" purity="3.9680391550064087e-01" nType="-99"/>
                <Node pos="r" depth="5" NCoef="0" IVar="-1" Cut="0.0000000000000000e+00" cType="1" res="-4.0259771049022675e-03" rms="4.0944156050682068e-01" purity="2.7568879723548889e-01" nType="-99"/>
              </Node>
              <Node pos="r" depth="4" NCoef="0" IVar="2" Cut="6.7825080871582031e+01" cType="1" res="2.0879292860627174e-02" rms="4.4900792837142944e-01" purity="3.9705285429954529e-01" nType="0">
                <Node pos="l" depth="5" NCoef="0" IVar="-1" Cut="0.0000000000000000e+00" cType="1" res="4.8469151370227337e-03" rms="4.7358641028404236e-01" purity="4.9743092060089111e-01" nType="-99"/>
                <Node pos="r" depth="5" NCoef="0" IVar="4" Cut="9.3848265707492828e-02" cType="1" res="1.3191668316721916e-02" rms="4.4281265139579773e-01" purity="3.7399604916572571e-01" nType="0">
                  <Node pos="l" depth="6" NCoef="0" IVar="3" Cut="6.4514482021331787e-01" cType="1" res="-3.8953011971898377e-04" rms="4.3617939949035645e-01" purity="3.6359986662864685e-01" nType="0">
                    <Node pos="l" depth="7" NCoef="0" IVar="-1" Cut="0.0000000000000000e+00" cType="1" res="-1.5386693412438035e-03" rms="3.9987409114837646e-01" purity="2.5274503231048584e-01" nType="-99"/>
                    <Node pos="r" depth="7" NCoef="0" IVar="-1" Cut="0.0000000000000000e+00" cType="1" res="1.5351809561252594e-03" rms="4.9249497056007385e-01" purity="5.5649799108505249e-01" nType="-99"/>
                  </Node>
                  <Node pos="r" depth="6" NCoef="0" IVar="2" Cut="1.3536346435546875e+02" cType="1" res="3.4784872084856033e-02" rms="4.5232042670249939e-01" purity="3.9052525162696838e-01" nType="0">
                    <Node pos="l" depth="7" NCoef="0" IVar="-1" Cut="0.0000000000000000e+00" cType="1" res="5.0460193306207657e-03" rms="4.6360057592391968e-01" purity="4.3603691458702087e-01" nType="-99"/>
                    <Node pos="r" depth="7" NCoef="0" IVar="-1" Cut="0.0000000000000000e+00" cType="1" res="1.8741276580840349e-03" rms="4.3906554579734802e-01" purity="3.4162089228630066e-01" nType="-99"/>
                  </Node>
                </Node>
              </Node>
            </Node>
            <Node pos="r" depth="3" NCoef="0" IVar="5" Cut="3.0000000000000000e+00" cType="1" res="-1.1476530926302075e-03" rms="4.0023037791252136e-01" purity="2.5335952639579773e-01" nType="0">
              <Node pos="l" depth="4" NCoef="0" IVar="-1" Cut="0.0000000000000000e+00" cType="1" res="2.1334639750421047e-03" rms="4.7127363085746765e-01" purity="3.9311018586158752e-01" nType="-99"/>
              <Node pos="r" depth="4" NCoef="0" IVar="3" Cut="3.0902534723281860e-01" cType="1" res="-3.9263106882572174e-03" rms="3.9011105895042419e-01" purity="2.3540399968624115e-01" nType="0">
                <Node pos="l" depth="5" NCoef="0" IVar="3" Cut="2.4930328130722046e-01" cType="1" res="-1.4776640571653843e-02" rms="3.0596563220024109e-01" purity="1.1553624272346497e-01" nType="0">
                  <Node pos="l" depth="6" NCoef="0" IVar="-1" Cut="0.0000000000000000e+00" cType="1" res="-2.0134889055043459e-03" rms="3.2885381579399109e-01" purity="1.3848441839218140e-01" nType="-99"/>
                  <Node pos="r" depth="6" NCoef="0" IVar="-1" Cut="0.0000000000000000e+00" cType="1" res="-8.0232713371515274e-03" rms="2.6175695657730103e-01" purity="7.6158419251441956e-02" nType="-99"/>
                </Node>
                <Node pos="r" depth="5" NCoef="0" IVar="0" Cut="1.0145820379257202e+00" cType="1" res="4.7226698370650411e-04" rms="4.1936111450195312e-01" purity="2.8399679064750671e-01" nType="0">
                  <Node pos="l" depth="6" NCoef="0" IVar="0" Cut="1.9630824029445648e-01" cType="1" res="5.5890865623950958e-03" rms="4.4690036773681641e-01" purity="3.3184000849723816e-01" nType="0">
                    <Node pos="l" depth="7" NCoef="0" IVar="-1" Cut="0.0000000000000000e+00" cType="1" res="1.7897241050377488e-03" rms="4.7988680005073547e-01" purity="4.4033119082450867e-01" nType="-99"/>
                    <Node pos="r" depth="7" NCoef="0" IVar="-1" Cut="0.0000000000000000e+00" cType="1" res="-2.7930102078244090e-04" rms="4.2539039254188538e-01" purity="2.6581138372421265e-01" nType="-99"/>
                  </Node>
                  <Node pos="r" depth="6" NCoef="0" IVar="-1" Cut="0.0000000000000000e+00" cType="1" res="-6.0938606038689613e-03" rms="2.7583071589469910e-01" purity="8.5014000535011292e-02" nType="-99"/>
                </Node>
              </Node>
            </Node>
          </Node>
          <Node pos="r" depth="2" NCoef="0" IVar="4" Cut="1.1503567546606064e-01" cType="1" res="-1.2122373096644878e-02" rms="3.4551516175270081e-01" purity="1.7323368787765503e-01" nType="0">
            <Node pos="l" depth="3" NCoef="0" IVar="5" Cut="3.0000000000000000e+00" cType="1" res="-1.6176709905266762e-02" rms="3.4371855854988098e-01" purity="1.7714674770832062e-01" nType="0">
              <Node pos="l" depth="4" NCoef="0" IVar="4" Cut="6.6819399595260620e-02" cType="1" res="-3.5372238606214523e-02" rms="3.9835554361343384e-01" purity="2.3382027447223663e-01" nType="0">
                <Node pos="l" depth="5" NCoef="0" IVar="-1" Cut="0.0000000000000000e+00" cType="1" res="-6.4675626344978809e-03" rms="3.8661685585975647e-01" purity="2.0600147545337677e-01" nType="-99"/>
                <Node pos="r" depth="5" NCoef="0" IVar="-1" Cut="0.0000000000000000e+00" cType="1" res="-3.0980287119746208e-03" rms="4.1054275631904602e-01" purity="2.6428949832916260e-01" nType="-99"/>
              </Node>
              <Node pos="r" depth="4" NCoef="0" IVar="3" Cut="5.9387069940567017e-01" cType="1" res="-1.2922046706080437e-02" rms="3.3345451951026917e-01" purity="1.6753341257572174e-01" nType="0">
                <Node pos="l" depth="5" NCoef="0" IVar="2" Cut="1.5084844970703125e+02" cType="1" res="-1.6333278268575668e-02" rms="2.7077215909957886e-01" purity="8.9408576488494873e-02" nType="0">
                  <Node pos="l" depth="6" NCoef="0" IVar="4" Cut="8.1735581159591675e-02" cType="1" res="-1.1458124965429306e-02" rms="2.8464347124099731e-01" purity="1.0111988335847855e-01" nType="0">
                    <Node pos="l" depth="7" NCoef="0" IVar="-1" Cut="0.0000000000000000e+00" cType="1" res="-4.6751154586672783e-03" rms="2.7456057071685791e-01" purity="9.1076590120792389e-02" nType="-99"/>
                    <Node pos="r" depth="7" NCoef="0" IVar="-1" Cut="0.0000000000000000e+00" cType="1" res="1.1107504833489656e-03" rms="3.2116058468818665e-01" purity="1.4109614491462708e-01" nType="-99"/>
                  </Node>
                  <Node pos="r" depth="6" NCoef="0" IVar="4" Cut="7.7961288392543793e-02" cType="1" res="-2.1694397553801537e-02" rms="2.5453954935073853e-01" purity="7.6529867947101593e-02" nType="0">
                    <Node pos="l" depth="7" NCoef="0" IVar="-1" Cut="0.0000000000000000e+00" cType="1" res="-9.8606897518038750e-03" rms="2.2759658098220825e-01" purity="5.9887714684009552e-02" nType="-99"/>
                    <Node pos="r" depth="7" NCoef="0" IVar="-1" Cut="0.0000000000000000e+00" cType="1" res="-4.9233334138989449e-03" rms="2.7243146300315857e-01" purity="8.8697016239166260e-02" nType="-99"/>
                  </Node>
                </Node>
                <Node pos="r" depth="5" NCoef="0" IVar="4" Cut="5.9738077223300934e-02" cType="1" res="-1.9065216183662415e-03" rms="4.8304927349090576e-01" purity="4.1981357336044312e-01" nType="0">
                  <Node pos="l" depth="6" NCoef="0" IVar="-1" Cut="0.0000000000000000e+00" cType="1" res="-1.5546642243862152e-03" rms="4.7582405805587769e-01" purity="3.9526951313018799e-01" nType="-99"/>
                  <Node pos="r" depth="6" NCoef="0" IVar="-1" Cut="0.0000000000000000e+00" cType="1" res="9.6449267584830523e-04" rms="4.8884743452072144e-01" purity="4.4092819094657898e-01" nType="-99"/>
                </Node>
              </Node>
            </Node>
            <Node pos="r" depth="3" NCoef="0" IVar="3" Cut="4.9873611330986023e-01" cType="1" res="-4.2355004698038101e-03" rms="3.4884750843048096e-01" purity="1.6562388837337494e-01" nType="0">
              <Node pos="l" depth="4" NCoef="0" IVar="3" Cut="2.8964248299598694e-01" cType="1" res="-8.4913093596696854e-03" rms="3.1440931558609009e-01" purity="1.1804971098899841e-01" nType="0">
                <Node pos="l" depth="5" NCoef="0" IVar="3" Cut="1.6823711991310120e-01" cType="1" res="-1.3626093976199627e-02" rms="2.7816930413246155e-01" purity="9.0330258011817932e-02" nType="0">
                  <Node pos="l" depth="6" NCoef="0" IVar="-1" Cut="0.0000000000000000e+00" cType="1" res="-1.1859463993459940e-03" rms="3.1524822115898132e-01" purity="1.2251561880111694e-01" nType="-99"/>
                  <Node pos="r" depth="6" NCoef="0" IVar="3" Cut="2.3873162269592285e-01" cType="1" res="-1.8916623666882515e-02" rms="2.5411459803581238e-01" purity="7.1712970733642578e-02" nType="0">
                    <Node pos="l" depth="7" NCoef="0" IVar="-1" Cut="0.0000000000000000e+00" cType="1" res="-7.9034566879272461e-03" rms="2.5006332993507385e-01" purity="6.9968529045581818e-02" nType="-99"/>
                    <Node pos="r" depth="7" NCoef="0" IVar="-1" Cut="0.0000000000000000e+00" cType="1" res="-5.7693296112120152e-03" rms="2.5862148404121399e-01" purity="7.3699600994586945e-02" nType="-99"/>
                  </Node>
                </Node>
                <Node pos="r" depth="5" NCoef="0" IVar="3" Cut="3.6383497714996338e-01" cType="1" res="-3.2595703378319740e-03" rms="3.4738960862159729e-01" purity="1.4629255235195160e-01" nType="0">
                  <Node pos="l" depth="6" NCoef="0" IVar="-1" Cut="0.0000000000000000e+00" cType="1" res="4.3278713710606098e-03" rms="3.2448387145996094e-01" purity="1.2425397336483002e-01" nType="-99"/>
                  <Node pos="r" depth="6" NCoef="0" IVar="-1" Cut="0.0000000000000000e+00" cType="1" res="-3.1141701620072126e-03" rms="3.6290860176086426e-01" purity="1.6272522509098053e-01" nType="-99"/>
                </Node>
              </Node>
              <Node pos="r" depth="4" NCoef="0" IVar="-1" Cut="0.0000000000000000e+00" cType="1" res="1.4447823632508516e-03" rms="4.6948957443237305e-01" purity="3.7212541699409485e-01" nType="-99"/>
            </Node>
          </Node>
        </Node>
        <Node pos="r" depth="1" NCoef="0" IVar="0" Cut="6.1459434032440186e-01" cType="1" res="1.4067809097468853e-02" rms="4.3354031443595886e-01" purity="7.2616630792617798e-01" nType="0">
          <Node pos="l" depth="2" NCoef="0" IVar="5" Cut="2.0000000000000000e+00" cType="1" res="1.5818519517779350e-02" rms="3.9913713932037354e-01" purity="7.3552995920181274e-01" nType="0">
            <Node pos="l" depth="3" NCoef="0" IVar="3" Cut="9.4558137655258179e-01" cType="1" res="2.0874014124274254e-02" rms="4.0809932351112366e-01" purity="7.8427159786224365e-01" nType="0">
              <Node pos="l" depth="4" NCoef="0" IVar="-1" Cut="0.0000000000000000e+00" cType="1" res="-1.0525012621656060e-03" rms="4.4698774814605713e-01" purity="7.1296918392181396e-01" nType="-99"/>
              <Node pos="r" depth="4" NCoef="0" IVar="0" Cut="2.5722047686576843e-01" cType="1" res="2.2150108590722084e-02" rms="4.0639686584472656e-01" purity="7.8715503215789795e-01" nType="0">
                <Node pos="l" depth="5" NCoef="0" IVar="1" Cut="5.9621997177600861e-02" cType="1" res="2.3135043680667877e-02" rms="4.0357235074043274e-01" purity="7.9220509529113770e-01" nType="0">
                  <Node pos="l" depth="6" NCoef="0" IVar="3" Cut="1.0070998668670654e+00" cType="1" res="2.6075780391693115e-02" rms="3.8993796706199646e-01" purity="8.1253927946090698e-01" nType="0">
                    <Node pos="l" depth="7" NCoef="0" IVar="-1" Cut="0.0000000000000000e+00" cType="1" res="2.9562113340944052e-03" rms="3.8945728540420532e-01" purity="8.1325358152389526e-01" nType="-99"/>
                    <Node pos="r" depth="7" NCoef="0" IVar="-1" Cut="0.0000000000000000e+00" cType="1" res="2.8220929671078920e-03" rms="3.9146265387535095e-01" purity="8.1026744842529297e-01" nType="-99"/>
                  </Node>
                  <Node pos="r" depth="6" NCoef="0" IVar="3" Cut="1.0011503696441650e+00" cType="1" res="1.9513785839080811e-02" rms="4.1972559690475464e-01" purity="7.6716524362564087e-01" nType="0">
                    <Node pos="l" depth="7" NCoef="0" IVar="-1" Cut="0.0000000000000000e+00" cType="1" res="1.2606327654793859e-03" rms="4.2638280987739563e-01" purity="7.5641375780105591e-01" nType="-99"/>
                    <Node pos="r" depth="7" NCoef="0" IVar="-1" Cut="0.0000000000000000e+00" cType="1" res="3.0718338675796986e-03" rms="4.0857410430908203e-01" purity="7.8438347578048706e-01" nType="-99"/>
                  </Node>
                </Node>
                <Node pos="r" depth="5" NCoef="0" IVar="-1" Cut="0.0000000000000000e+00" cType="1" res="9.7401607490610331e-06" rms="4.6458935737609863e-01" purity="6.7415285110473633e-01" nType="-99"/>
              </Node>
            </Node>
            <Node pos="r" depth="3" NCoef="0" IVar="0" Cut="1.7838123440742493e-01" cType="1" res="9.7929425537586212e-03" rms="4.6283385157585144e-01" purity="6.6936504840850830e-01" nType="0">
              <Node pos="l" depth="4" NCoef="0" IVar="5" Cut="3.0000000000000000e+00" cType="1" res="1.1974012479186058e-02" rms="4.5565462112426758e-01" purity="6.9353640079498291e-01" nType="0">
                <Node pos="l" depth="5" NCoef="0" IVar="3" Cut="7.9954564571380615e-01" cType="1" res="1.0286515578627586e-02" rms="4.5441243052482605e-01" purity="6.9848662614822388e-01" nType="0">
                  <Node pos="l" depth="6" NCoef="0" IVar="-1" Cut="0.0000000000000000e+00" cType="1" res="-1.4015458873473108e-04" rms="4.8218244314193726e-01" purity="6.2270528078079224e-01" nType="-99"/>
                  <Node pos="r" depth="6" NCoef="0" IVar="2" Cut="1.7377862548828125e+02" cType="1" res="1.2089300900697708e-02" rms="4.5009192824363708e-01" purity="7.0979988574981689e-01" nType="0">
                    <Node pos="l" depth="7" NCoef="0" IVar="-1" Cut="0.0000000000000000e+00" cType="1" res="8.8461663108319044e-04" rms="4.4722718000411987e-01" purity="7.1558958292007446e-01" nType="-99"/>
                    <Node pos="r" depth="7" NCoef="0" IVar="-1" Cut="0.0000000000000000e+00" cType="1" res="2.7041330467909575e-03" rms="4.6562007069587708e-01" purity="6.7704230546951294e-01" nType="-99"/>
                  </Node>
                </Node>
                <Node pos="r" depth="5" NCoef="0" IVar="1" Cut="-3.5280380398035049e-02" cType="1" res="2.1118657663464546e-02" rms="4.6539664268493652e-01" purity="6.7081016302108765e-01" nType="0">
                  <Node pos="l" depth="6" NCoef="0" IVar="-1" Cut="0.0000000000000000e+00" cType="1" res="2.8403557371348143e-03" rms="4.5394620299339294e-01" purity="7.0531290769577026e-01" nType="-99"/>
                  <Node pos="r" depth="6" NCoef="0" IVar="-1" Cut="0.0000000000000000e+00" cType="1" res="1.4273920096457005e-03" rms="4.7371560335159302e-01" purity="6.4493024349212646e-01" nType="-99"/>
                </Node>
              </Node>
              <Node pos="r" depth="4" NCoef="0" IVar="0" Cut="3.1908890604972839e-01" cType="1" res="2.5621659005992115e-04" rms="4.8708009719848633e-01" purity="5.7454282045364380e-01" nType="0">
                <Node pos="l" depth="5" NCoef="0" IVar="0" Cut="2.3742671310901642e-01" cType="1" res="-6.8258140236139297e-03" rms="4.8580905795097351e-01" purity="5.8120948076248169e-01" nType="0">
                  <Node pos="l" depth="6" NCoef="0" IVar="-1" Cut="0.0000000000000000e+00" cType="1" res="-1.7887410940602422e-03" rms="4.8531642556190491e-01" purity="5.8661365509033203e-01" nType="-99"/>
                  <Node pos="r" depth="6" NCoef="0" IVar="-1" Cut="0.0000000000000000e+00" cType="1" res="1.0001664486480877e-04" rms="4.8599001765251160e-01" purity="5.7748782634735107e-01" nType="-99"/>
                </Node>
                <Node pos="r" depth="5" NCoef="0" IVar="-1" Cut="0.0000000000000000e+00" cType="1" res="1.2309036683291197e-03" rms="4.8932754993438721e-01" purity="5.6105893850326538e-01" nType="-99"/>
              </Node>
            </Node>
          </Node>
          <Node pos="r" depth="2" NCoef="0" IVar="-1" Cut="0.0000000000000000e+00" cType="1" res="-5.8088735677301884e-03" rms="4.7362127900123596e-01" purity="3.8387346267700195e-01" nType="-99"/>
        </Node>
      </Node>
    </BinaryTree>
    <BinaryTree type="DecisionTree" boostWeight="1.0000000000000000e+00" itree="73">
      <Node pos="s" depth="0" NCoef="0" IVar="2" Cut="1.9193353271484375e+02" cType="1" res="6.2225610017776489e-03" rms="4.1188293695449829e-01" purity="5.0105291604995728e-01" nType="0">
        <Node pos="l" depth="1" NCoef="0" IVar="1" Cut="2.4183753132820129e-01" cType="1" res="1.1213846504688263e-02" rms="4.2123091220855713e-01" purity="5.9720301628112793e-01" nType="0">
          <Node pos="l" depth="2" NCoef="0" IVar="2" Cut="6.8105422973632812e+01" cType="1" res="1.7126541584730148e-02" rms="4.2556864023208618e-01" purity="6.6393011808395386e-01" nType="0">
            <Node pos="l" depth="3" NCoef="0" IVar="4" Cut="4.4841434806585312e-02" cType="1" res="2.1380290389060974e-02" rms="4.1610273718833923e-01" purity="7.4143236875534058e-01" nType="0">
              <Node pos="l" depth="4" NCoef="0" IVar="2" Cut="2.4163232803344727e+01" cType="1" res="1.9455911591649055e-02" rms="4.1227537393569946e-01" purity="7.5279045104980469e-01" nType="0">
                <Node pos="l" depth="5" NCoef="0" IVar="4" Cut="1.1425617150962353e-02" cType="1" res="2.1970620378851891e-02" rms="4.0495428442955017e-01" purity="7.8328049182891846e-01" nType="0">
                  <Node pos="l" depth="6" NCoef="0" IVar="4" Cut="3.6815347266383469e-04" cType="1" res="2.0518753677606583e-02" rms="4.0199670195579529e-01" purity="7.9057812690734863e-01" nType="0">
                    <Node pos="l" depth="7" NCoef="0" IVar="-1" Cut="0.0000000000000000e+00" cType="1" res="2.4883723817765713e-03" rms="3.9716368913650513e-01" purity="8.0067795515060425e-01" nType="-99"/>
                    <Node pos="r" depth="7" NCoef="0" IVar="-1" Cut="0.0000000000000000e+00" cType="1" res="3.3605849603191018e-04" rms="4.4418424367904663e-01" purity="6.9638794660568237e-01" nType="-99"/>
                  </Node>
                  <Node pos="r" depth="6" NCoef="0" IVar="-1" Cut="0.0000000000000000e+00" cType="1" res="4.2703407816588879e-03" rms="4.5387184619903564e-01" purity="6.5264016389846802e-01" nType="-99"/>
                </Node>
                <Node pos="r" depth="5" NCoef="0" IVar="4" Cut="2.3869743570685387e-02" cType="1" res="8.6804563179612160e-03" rms="4.4211408495903015e-01" purity="6.2214112281799316e-01" nType="0">
                  <Node pos="l" depth="6" NCoef="0" IVar="-1" Cut="0.0000000000000000e+00" cType="1" res="-2.4945456534624100e-03" rms="4.4163265824317932e-01" purity="5.8516860008239746e-01" nType="-99"/>
                  <Node pos="r" depth="6" NCoef="0" IVar="3" Cut="8.2549649477005005e-01" cType="1" res="2.6088280603289604e-02" rms="4.4142121076583862e-01" purity="6.4268010854721069e-01" nType="0">
                    <Node pos="l" depth="7" NCoef="0" IVar="-1" Cut="0.0000000000000000e+00" cType="1" res="1.0336453560739756e-03" rms="4.6211722493171692e-01" purity="5.2141833305358887e-01" nType="-99"/>
                    <Node pos="r" depth="7" NCoef="0" IVar="-1" Cut="0.0000000000000000e+00" cType="1" res="4.3599554337561131e-03" rms="4.1732975840568542e-01" purity="7.7334332466125488e-01" nType="-99"/>
                  </Node>
                </Node>
              </Node>
              <Node pos="r" depth="4" NCoef="0" IVar="0" Cut="2.1749374270439148e-01" cType="1" res="4.4534914195537567e-02" rms="4.5903074741363525e-01" purity="6.0476899147033691e-01" nType="0">
                <Node pos="l" depth="5" NCoef="0" IVar="-1" Cut="0.0000000000000000e+00" cType="1" res="2.2256781812757254e-03" rms="4.5324257016181946e-01" purity="7.0240437984466553e-01" nType="-99"/>
                <Node pos="r" depth="5" NCoef="0" IVar="-1" Cut="0.0000000000000000e+00" cType="1" res="5.8682812377810478e-03" rms="4.6495839953422546e-01" purity="4.9048009514808655e-01" nType="-99"/>
              </Node>
            </Node>
            <Node pos="r" depth="3" NCoef="0" IVar="4" Cut="5.2617646753787994e-02" cType="1" res="8.4454221650958061e-03" rms="4.4413501024246216e-01" purity="5.0576221942901611e-01" nType="0">
              <Node pos="l" depth="4" NCoef="0" IVar="4" Cut="2.6295555755496025e-02" cType="1" res="-4.5688524842262268e-03" rms="4.4251057505607605e-01" purity="5.6429839134216309e-01" nType="0">
                <Node pos="l" depth="5" NCoef="0" IVar="-1" Cut="0.0000000000000000e+00" cType="1" res="-3.5507983993738890e-03" rms="4.4454249739646912e-01" purity="5.5657434463500977e-01" nType="-99"/>
                <Node pos="r" depth="5" NCoef="0" IVar="0" Cut="3.5398781299591064e-01" cType="1" res="6.0163013404235244e-04" rms="4.4193223118782043e-01" purity="5.6577759981155396e-01" nType="0">
                  <Node pos="l" depth="6" NCoef="0" IVar="3" Cut="8.3887350559234619e-01" cType="1" res="7.4932887218892574e-03" rms="4.5671471953392029e-01" purity="6.7474919557571411e-01" nType="0">
                    <Node pos="l" depth="7" NCoef="0" IVar="-1" Cut="0.0000000000000000e+00" cType="1" res="-3.4824077738448977e-04" rms="4.8302999138832092e-01" purity="5.8751279115676880e-01" nType="-99"/>
                    <Node pos="r" depth="7" NCoef="0" IVar="-1" Cut="0.0000000000000000e+00" cType="1" res="1.7801577923819423e-03" rms="4.3344539403915405e-01" purity="7.4714034795761108e-01" nType="-99"/>
                  </Node>
                  <Node pos="r" depth="6" NCoef="0" IVar="-1" Cut="0.0000000000000000e+00" cType="1" res="-2.9759618919342756e-03" rms="3.9356988668441772e-01" purity="2.3898917436599731e-01" nType="-99"/>
                </Node>
              </Node>
              <Node pos="r" depth="4" NCoef="0" IVar="3" Cut="6.4343219995498657e-01" cType="1" res="1.9535122439265251e-02" rms="4.4521445035934448e-01" purity="4.5588240027427673e-01" nType="0">
                <Node pos="l" depth="5" NCoef="0" IVar="4" Cut="1.0593654960393906e-01" cType="1" res="1.0952395386993885e-02" rms="4.2221486568450928e-01" purity="2.9148808121681213e-01" nType="0">
                  <Node pos="l" depth="6" NCoef="0" IVar="4" Cut="7.1546457707881927e-02" cType="1" res="2.3201933072414249e-04" rms="4.0825784206390381e-01" purity="2.7000418305397034e-01" nType="0">
                    <Node pos="l" depth="7" NCoef="0" IVar="-1" Cut="0.0000000000000000e+00" cType="1" res="-2.8749250341206789e-03" rms="3.8397961854934692e-01" purity="2.1869267523288727e-01" nType="-99"/>
                    <Node pos="r" depth="7" NCoef="0" IVar="-1" Cut="0.0000000000000000e+00" cType="1" res="1.5615829033777118e-03" rms="4.2195528745651245e-01" purity="3.0132582783699036e-01" nType="-99"/>
                  </Node>
                  <Node pos="r" depth="6" NCoef="0" IVar="-1" Cut="0.0000000000000000e+00" cType="1" res="3.1529236584901810e-03" rms="4.4052314758300781e-01" purity="3.2147723436355591e-01" nType="-99"/>
                </Node>
                <Node pos="r" depth="5" NCoef="0" IVar="5" Cut="3.0000000000000000e+00" cType="1" res="2.9758177697658539e-02" rms="4.6852311491966248e-01" purity="6.4705288410186768e-01" nType="0">
                  <Node pos="l" depth="6" NCoef="0" IVar="-1" Cut="0.0000000000000000e+00" cType="1" res="1.2115492718294263e-03" rms="4.6992906928062439e-01" purity="6.4394062757492065e-01" nType="-99"/>
                  <Node pos="r" depth="6" NCoef="0" IVar="-1" Cut="0.0000000000000000e+00" cType="1" res="4.2916047386825085e-03" rms="4.7017753124237061e-01" purity="6.5095740556716919e-01" nType="-99"/>
                </Node>
              </Node>
            </Node>
          </Node>
          <Node pos="r" depth="2" NCoef="0" IVar="1" Cut="3.4924380779266357e+00" cType="1" res="-7.4262329144403338e-04" rms="4.1206073760986328e-01" purity="4.6226966381072998e-01" nType="0">
            <Node pos="l" depth="3" NCoef="0" IVar="1" Cut="9.7583770751953125e-01" cType="1" res="-2.7666622772812843e-03" rms="4.1269296407699585e-01" purity="4.6445775032043457e-01" nType="0">
              <Node pos="l" depth="4" NCoef="0" IVar="3" Cut="4.8288932442665100e-01" cType="1" res="5.4716407321393490e-03" rms="4.1957038640975952e-01" purity="5.1137328147888184e-01" nType="0">
                <Node pos="l" depth="5" NCoef="0" IVar="1" Cut="5.7324939966201782e-01" cType="1" res="-1.4747761189937592e-02" rms="2.4364462494850159e-01" purity="6.6745832562446594e-02" nType="0">
                  <Node pos="l" depth="6" NCoef="0" IVar="-1" Cut="0.0000000000000000e+00" cType="1" res="-2.5769760832190514e-03" rms="2.6478534936904907e-01" purity="7.9972967505455017e-02" nType="-99"/>
                  <Node pos="r" depth="6" NCoef="0" IVar="-1" Cut="0.0000000000000000e+00" cType="1" res="-1.0350436903536320e-02" rms="2.1434035897254944e-01" purity="5.0431024283170700e-02" nType="-99"/>
                </Node>
                <Node pos="r" depth="5" NCoef="0" IVar="3" Cut="1.0004882812500000e+00" cType="1" res="1.0359725914895535e-02" rms="4.5180016756057739e-01" purity="6.1886292695999146e-01" nType="0">
                  <Node pos="l" depth="6" NCoef="0" IVar="4" Cut="6.7846357822418213e-02" cType="1" res="6.3075800426304340e-03" rms="4.5929208397865295e-01" purity="5.8334940671920776e-01" nType="0">
                    <Node pos="l" depth="7" NCoef="0" IVar="-1" Cut="0.0000000000000000e+00" cType="1" res="3.3497536787763238e-04" rms="4.5677140355110168e-01" purity="6.0529619455337524e-01" nType="-99"/>
                    <Node pos="r" depth="7" NCoef="0" IVar="-1" Cut="0.0000000000000000e+00" cType="1" res="2.2709490731358528e-03" rms="4.7489815950393677e-01" purity="4.4107308983802795e-01" nType="-99"/>
                  </Node>
                  <Node pos="r" depth="6" NCoef="0" IVar="1" Cut="4.5474436879158020e-01" cType="1" res="2.7223404496908188e-02" rms="4.1876468062400818e-01" purity="7.6665848493576050e-01" nType="0">
                    <Node pos="l" depth="7" NCoef="0" IVar="-1" Cut="0.0000000000000000e+00" cType="1" res="2.9170732013881207e-03" rms="4.0913337469100952e-01" purity="7.8716397285461426e-01" nType="-99"/>
                    <Node pos="r" depth="7" NCoef="0" IVar="-1" Cut="0.0000000000000000e+00" cType="1" res="2.2172536700963974e-03" rms="4.2939239740371704e-01" purity="7.4344676733016968e-01" nType="-99"/>
                  </Node>
                </Node>
              </Node>
              <Node pos="r" depth="4" NCoef="0" IVar="3" Cut="5.2264577150344849e-01" cType="1" res="-3.2821226865053177e-02" rms="3.8507565855979919e-01" purity="2.9330298304557800e-01" nType="0">
                <Node pos="l" depth="5" NCoef="0" IVar="3" Cut="2.9449415206909180e-01" cType="1" res="-1.4185252599418163e-02" rms="2.3150382936000824e-01" purity="5.9762701392173767e-02" nType="0">
                  <Node pos="l" depth="6" NCoef="0" IVar="-1" Cut="0.0000000000000000e+00" cType="1" res="-1.5413353219628334e-02" rms="1.6457781195640564e-01" purity="2.8308548033237457e-02" nType="-99"/>
                  <Node pos="r" depth="6" NCoef="0" IVar="-1" Cut="0.0000000000000000e+00" cType="1" res="-1.6590093728154898e-03" rms="2.8203138709068298e-01" purity="9.0749442577362061e-02" nType="-99"/>
                </Node>
                <Node pos="r" depth="5" NCoef="0" IVar="1" Cut="1.3817915916442871e+00" cType="1" res="-4.7278534621000290e-02" rms="4.7038528323173523e-01" purity="4.7447749972343445e-01" nType="0">
                  <Node pos="l" depth="6" NCoef="0" IVar="-1" Cut="0.0000000000000000e+00" cType="1" res="-3.3064505551010370e-03" rms="4.6691626310348511e-01" purity="4.8778545856475830e-01" nType="-99"/>
                  <Node pos="r" depth="6" NCoef="0" IVar="-1" Cut="0.0000000000000000e+00" cType="1" res="-5.3348969668149948e-03" rms="4.7352156043052673e-01" purity="4.6141055226325989e-01" nType="-99"/>
                </Node>
              </Node>
            </Node>
            <Node pos="r" depth="3" NCoef="0" IVar="-1" Cut="0.0000000000000000e+00" cType="1" res="5.2445498295128345e-03" rms="3.9630636572837830e-01" purity="4.1665691137313843e-01" nType="-99"/>
          </Node>
        </Node>
        <Node pos="r" depth="1" NCoef="0" IVar="2" Cut="3.7768069458007812e+02" cType="1" res="-6.4096497371792793e-03" rms="3.8692992925643921e-01" purity="2.5771105289459229e-01" nType="0">
          <Node pos="l" depth="2" NCoef="0" IVar="3" Cut="4.6005097031593323e-01" cType="1" res="-9.0847566025331616e-04" rms="3.9812287688255310e-01" purity="3.0108720064163208e-01" nType="0">
            <Node pos="l" depth="3" NCoef="0" IVar="4" Cut="8.7848119437694550e-02" cType="1" res="-1.2788740918040276e-02" rms="2.7088597416877747e-01" purity="8.6227983236312866e-02" nType="0">
              <Node pos="l" depth="4" NCoef="0" IVar="3" Cut="3.3018893003463745e-01" cType="1" res="-2.3150369524955750e-02" rms="1.8918301165103912e-01" purity="3.8016520440578461e-02" nType="0">
                <Node pos="l" depth="5" NCoef="0" IVar="-1" Cut="0.0000000000000000e+00" cType="1" res="-1.0813190601766109e-02" rms="1.7032785713672638e-01" purity="3.0599115416407585e-02" nType="-99"/>
                <Node pos="r" depth="5" NCoef="0" IVar="-1" Cut="0.0000000000000000e+00" cType="1" res="-1.1348932981491089e-02" rms="2.0640084147453308e-01" purity="4.5541569590568542e-02" nType="-99"/>
              </Node>
              <Node pos="r" depth="4" NCoef="0" IVar="3" Cut="3.8598960638046265e-01" cType="1" res="-8.0688837915658951e-03" rms="3.0071634054183960e-01" purity="1.0818894952535629e-01" nType="0">
                <Node pos="l" depth="5" NCoef="0" IVar="2" Cut="2.7581253051757812e+02" cType="1" res="-1.2016327120363712e-02" rms="2.7577584981918335e-01" purity="8.7435156106948853e-02" nType="0">
                  <Node pos="l" depth="6" NCoef="0" IVar="-1" Cut="0.0000000000000000e+00" cType="1" res="-5.9938593767583370e-03" rms="2.7091118693351746e-01" purity="8.3889909088611603e-02" nType="-99"/>
                  <Node pos="r" depth="6" NCoef="0" IVar="-1" Cut="0.0000000000000000e+00" cType="1" res="-2.1162708289921284e-03" rms="2.8004518151283264e-01" purity="9.0692691504955292e-02" nType="-99"/>
                </Node>
                <Node pos="r" depth="5" NCoef="0" IVar="-1" Cut="0.0000000000000000e+00" cType="1" res="9.5172470901161432e-04" rms="3.7183663249015808e-01" purity="1.7755839228630066e-01" nType="-99"/>
              </Node>
            </Node>
            <Node pos="r" depth="3" NCoef="0" IVar="4" Cut="1.2101913243532181e-01" cType="1" res="7.0461849682033062e-03" rms="4.6404689550399780e-01" purity="4.4495031237602234e-01" nType="0">
              <Node pos="l" depth="4" NCoef="0" IVar="4" Cut="8.1286281347274780e-02" cType="1" res="1.1168661527335644e-02" rms="4.6319448947906494e-01" purity="4.5910897850990295e-01" nType="0">
                <Node pos="l" depth="5" NCoef="0" IVar="3" Cut="8.0793058872222900e-01" cType="1" res="3.9614271372556686e-03" rms="4.5928445458412170e-01" purity="4.7630953788757324e-01" nType="0">
                  <Node pos="l" depth="6" NCoef="0" IVar="4" Cut="6.1339970678091049e-02" cType="1" res="-9.6675902605056763e-03" rms="4.5655757188796997e-01" purity="4.0002974867820740e-01" nType="0">
                    <Node pos="l" depth="7" NCoef="0" IVar="-1" Cut="0.0000000000000000e+00" cType="1" res="-3.8284736219793558e-03" rms="4.4374558329582214e-01" purity="3.6685097217559814e-01" nType="-99"/>
                    <Node pos="r" depth="7" NCoef="0" IVar="-1" Cut="0.0000000000000000e+00" cType="1" res="5.8902462478727102e-04" rms="4.6374133229255676e-01" purity="4.2078095674514771e-01" nType="-99"/>
                  </Node>
                  <Node pos="r" depth="6" NCoef="0" IVar="-1" Cut="0.0000000000000000e+00" cType="1" res="3.6172654945403337e-03" rms="4.6430251002311707e-01" purity="6.6791957616806030e-01" nType="-99"/>
                </Node>
                <Node pos="r" depth="5" NCoef="0" IVar="2" Cut="3.0578274536132812e+02" cType="1" res="2.4588068947196007e-02" rms="4.7009384632110596e-01" purity="4.2708259820938110e-01" nType="0">
                  <Node pos="l" depth="6" NCoef="0" IVar="-1" Cut="0.0000000000000000e+00" cType="1" res="3.3012737985700369e-03" rms="4.7403016686439514e-01" purity="4.4396534562110901e-01" nType="-99"/>
                  <Node pos="r" depth="6" NCoef="0" IVar="-1" Cut="0.0000000000000000e+00" cType="1" res="9.7445363644510508e-04" rms="4.6289640665054321e-01" purity="3.9830431342124939e-01" nType="-99"/>
                </Node>
              </Node>
              <Node pos="r" depth="4" NCoef="0" IVar="-1" Cut="0.0000000000000000e+00" cType="1" res="-2.0882659591734409e-03" rms="4.6873238682746887e-01" purity="3.5133537650108337e-01" nType="-99"/>
            </Node>
          </Node>
          <Node pos="r" depth="2" NCoef="0" IVar="3" Cut="6.7633879184722900e-01" cType="1" res="-1.3765772804617882e-02" rms="3.7130880355834961e-01" purity="1.9970880448818207e-01" nType="0">
            <Node pos="l" depth="3" NCoef="0" IVar="1" Cut="1.1059160232543945e+00" cType="1" res="-7.3878746479749680e-03" rms="3.5857623815536499e-01" purity="1.7649301886558533e-01" nType="0">
              <Node pos="l" depth="4" NCoef="0" IVar="4" Cut="2.1972036361694336e-01" cType="1" res="-5.1386081613600254e-03" rms="3.6559683084487915e-01" purity="1.8527615070343018e-01" nType="0">
                <Node pos="l" depth="5" NCoef="0" IVar="2" Cut="7.2544171142578125e+02" cType="1" res="-9.0027144178748131e-03" rms="3.5594516992568970e-01" purity="1.7760752141475677e-01" nType="0">
                  <Node pos="l" depth="6" NCoef="0" IVar="4" Cut="1.6990226507186890e-01" cType="1" res="-6.1456523835659027e-03" rms="3.5961440205574036e-01" purity="1.8371000885963440e-01" nType="0">
                    <Node pos="l" depth="7" NCoef="0" IVar="-1" Cut="0.0000000000000000e+00" cType="1" res="-1.9632684998214245e-03" rms="3.5928544402122498e-01" purity="1.8474723398685455e-01" nType="-99"/>
                    <Node pos="r" depth="7" NCoef="0" IVar="-1" Cut="0.0000000000000000e+00" cType="1" res="2.5961101055145264e-03" rms="3.6026227474212646e-01" purity="1.7963640391826630e-01" nType="-99"/>
                  </Node>
                  <Node pos="r" depth="6" NCoef="0" IVar="-1" Cut="0.0000000000000000e+00" cType="1" res="-4.8527726903557777e-03" rms="3.3291295170783997e-01" purity="1.4150705933570862e-01" nType="-99"/>
                </Node>
                <Node pos="r" depth="5" NCoef="0" IVar="2" Cut="9.1700482177734375e+02" cType="1" res="6.7615634761750698e-03" rms="3.9359945058822632e-01" purity="2.0889297127723694e-01" nType="0">
                  <Node pos="l" depth="6" NCoef="0" IVar="-1" Cut="0.0000000000000000e+00" cType="1" res="-1.6330945072695613e-03" rms="3.7773868441581726e-01" purity="1.8248312175273895e-01" nType="-99"/>
                  <Node pos="r" depth="6" NCoef="0" IVar="-1" Cut="0.0000000000000000e+00" cType="1" res="4.1981991380453110e-03" rms="4.1271409392356873e-01" purity="2.4384737014770508e-01" nType="-99"/>
                </Node>
              </Node>
              <Node pos="r" depth="4" NCoef="0" IVar="-1" Cut="0.0000000000000000e+00" cType="1" res="-7.4140587821602821e-03" rms="2.8748977184295654e-01" purity="9.7929723560810089e-02" nType="-99"/>
            </Node>
            <Node pos="r" depth="3" NCoef="0" IVar="-1" Cut="0.0000000000000000e+00" cType="1" res="-7.5678532011806965e-03" rms="4.7686284780502319e-01" purity="4.3481031060218811e-01" nType="-99"/>
          </Node>
        </Node>
      </Node>
    </BinaryTree>
    <BinaryTree type="DecisionTree" boostWeight="1.0000000000000000e+00" itree="74">
      <Node pos="s" depth="0" NCoef="0" IVar="3" Cut="6.4306271076202393e-01" cType="1" res="6.2115578912198544e-03" rms="4.1137838363647461e-01" purity="5.0102627277374268e-01" nType="0">
        <Node pos="l" depth="1" NCoef="0" IVar="3" Cut="3.7345197796821594e-01" cType="1" res="-3.6975690163671970e-03" rms="3.5509663820266724e-01" purity="1.7998793721199036e-01" nType="0">
          <Node pos="l" depth="2" NCoef="0" IVar="5" Cut="4.0000000000000000e+00" cType="1" res="7.0788972079753876e-02" rms="1.0895249992609024e-01" purity="8.4220319986343384e-02" nType="0">
            <Node pos="l" depth="3" NCoef="0" IVar="-1" Cut="0.0000000000000000e+00" cType="1" res="4.8120873980224133e-03" rms="3.6254090070724487e-01" purity="1.7800478637218475e-01" nType="-99"/>
            <Node pos="r" depth="3" NCoef="0" IVar="4" Cut="2.3452319204807281e-01" cType="1" res="-1.3082940131425858e-02" rms="2.4962612986564636e-01" purity="7.1484543383121490e-02" nType="0">
              <Node pos="l" depth="4" NCoef="0" IVar="4" Cut="2.0429442822933197e-01" cType="1" res="-1.4874305576086044e-02" rms="2.1949702501296997e-01" purity="5.2447188645601273e-02" nType="0">
                <Node pos="l" depth="5" NCoef="0" IVar="3" Cut="3.3731436729431152e-01" cType="1" res="-1.7298715189099312e-02" rms="2.0550160109996796e-01" purity="4.5229397714138031e-02" nType="0">
                  <Node pos="l" depth="6" NCoef="0" IVar="3" Cut="2.3942856490612030e-01" cType="1" res="-1.9458984956145287e-02" rms="1.8995183706283569e-01" purity="3.7955183535814285e-02" nType="0">
                    <Node pos="l" depth="7" NCoef="0" IVar="-1" Cut="0.0000000000000000e+00" cType="1" res="-1.3875612989068031e-02" rms="1.7194248735904694e-01" purity="3.0791824683547020e-02" nType="-99"/>
                    <Node pos="r" depth="7" NCoef="0" IVar="-1" Cut="0.0000000000000000e+00" cType="1" res="-8.7403357028961182e-03" rms="2.0285136997699738e-01" purity="4.3540306389331818e-02" nType="-99"/>
                  </Node>
                  <Node pos="r" depth="6" NCoef="0" IVar="3" Cut="3.5479512810707092e-01" cType="1" res="-7.3353578336536884e-03" rms="2.6546347141265869e-01" purity="7.8778766095638275e-02" nType="0">
                    <Node pos="l" depth="7" NCoef="0" IVar="-1" Cut="0.0000000000000000e+00" cType="1" res="-3.3132929820567369e-03" rms="2.5693783164024353e-01" purity="7.2984553873538971e-02" nType="-99"/>
                    <Node pos="r" depth="7" NCoef="0" IVar="-1" Cut="0.0000000000000000e+00" cType="1" res="-1.9690471235662699e-03" rms="2.7377742528915405e-01" purity="8.4616743028163910e-02" nType="-99"/>
                  </Node>
                </Node>
                <Node pos="r" depth="5" NCoef="0" IVar="-1" Cut="0.0000000000000000e+00" cType="1" res="3.2375401351600885e-03" rms="3.3754590153694153e-01" purity="1.3321620225906372e-01" nType="-99"/>
              </Node>
              <Node pos="r" depth="4" NCoef="0" IVar="3" Cut="1.8066610395908356e-01" cType="1" res="-2.8761287685483694e-03" rms="3.7778922915458679e-01" purity="1.7995518445968628e-01" nType="0">
                <Node pos="l" depth="5" NCoef="0" IVar="-1" Cut="0.0000000000000000e+00" cType="1" res="6.2376755522564054e-04" rms="3.8320371508598328e-01" purity="1.9096577167510986e-01" nType="-99"/>
                <Node pos="r" depth="5" NCoef="0" IVar="-1" Cut="0.0000000000000000e+00" cType="1" res="-1.7439634539186954e-03" rms="3.7208536267280579e-01" purity="1.6874948143959045e-01" nType="-99"/>
              </Node>
            </Node>
          </Node>
          <Node pos="r" depth="2" NCoef="0" IVar="1" Cut="-1.2673285603523254e-01" cType="1" res="3.9773929165676236e-04" rms="4.1269278526306152e-01" purity="2.5652191042900085e-01" nType="0">
            <Node pos="l" depth="3" NCoef="0" IVar="5" Cut="4.0000000000000000e+00" cType="1" res="2.5326028466224670e-02" rms="4.4635683298110962e-01" purity="3.3026999235153198e-01" nType="0">
              <Node pos="l" depth="4" NCoef="0" IVar="-1" Cut="0.0000000000000000e+00" cType="1" res="2.8029005625285208e-04" rms="4.4845351576805115e-01" purity="3.2865318655967712e-01" nType="-99"/>
              <Node pos="r" depth="4" NCoef="0" IVar="2" Cut="2.1717451477050781e+02" cType="1" res="4.0411461144685745e-02" rms="4.4434764981269836e-01" purity="3.3135393261909485e-01" nType="0">
                <Node pos="l" depth="5" NCoef="0" IVar="-1" Cut="0.0000000000000000e+00" cType="1" res="5.9252860955893993e-03" rms="4.5370808243751526e-01" purity="3.7823033332824707e-01" nType="-99"/>
                <Node pos="r" depth="5" NCoef="0" IVar="-1" Cut="0.0000000000000000e+00" cType="1" res="3.5656422842293978e-03" rms="4.3440204858779907e-01" purity="2.8476879000663757e-01" nType="-99"/>
              </Node>
            </Node>
            <Node pos="r" depth="3" NCoef="0" IVar="5" Cut="4.0000000000000000e+00" cType="1" res="-4.9844477325677872e-03" rms="4.0473029017448425e-01" purity="2.4037966132164001e-01" nType="0">
              <Node pos="l" depth="4" NCoef="0" IVar="3" Cut="4.8651304841041565e-01" cType="1" res="-1.3062268495559692e-02" rms="4.0821501612663269e-01" purity="2.4411575496196747e-01" nType="0">
                <Node pos="l" depth="5" NCoef="0" IVar="-1" Cut="0.0000000000000000e+00" cType="1" res="-6.0764206573367119e-03" rms="3.0944252014160156e-01" purity="1.1581507325172424e-01" nType="-99"/>
                <Node pos="r" depth="5" NCoef="0" IVar="1" Cut="6.1031842231750488e-01" cType="1" res="-8.2800388336181641e-03" rms="4.3818962574005127e-01" purity="2.9019299149513245e-01" nType="0">
                  <Node pos="l" depth="6" NCoef="0" IVar="3" Cut="5.7234871387481689e-01" cType="1" res="-4.5628352090716362e-03" rms="4.5251339673995972e-01" purity="3.1858283281326294e-01" nType="0">
                    <Node pos="l" depth="7" NCoef="0" IVar="-1" Cut="0.0000000000000000e+00" cType="1" res="1.0689428308978677e-03" rms="4.3038678169250488e-01" purity="2.7295821905136108e-01" nType="-99"/>
                    <Node pos="r" depth="7" NCoef="0" IVar="-1" Cut="0.0000000000000000e+00" cType="1" res="-1.4411467127501965e-03" rms="4.6822619438171387e-01" purity="3.5290089249610901e-01" nType="-99"/>
                  </Node>
                  <Node pos="r" depth="6" NCoef="0" IVar="-1" Cut="0.0000000000000000e+00" cType="1" res="-3.0316431075334549e-03" rms="3.8825294375419617e-01" purity="1.9877651333808899e-01" nType="-99"/>
                </Node>
              </Node>
              <Node pos="r" depth="4" NCoef="0" IVar="3" Cut="5.9086465835571289e-01" cType="1" res="6.0971564380452037e-04" rms="4.0218368172645569e-01" purity="2.3775173723697662e-01" nType="0">
                <Node pos="l" depth="5" NCoef="0" IVar="5" Cut="6.0000000000000000e+00" cType="1" res="-1.9230380421504378e-03" rms="3.8808786869049072e-01" purity="2.0796403288841248e-01" nType="0">
                  <Node pos="l" depth="6" NCoef="0" IVar="4" Cut="1.5295356512069702e-01" cType="1" res="-5.9793870896100998e-03" rms="3.9003655314445496e-01" purity="2.1179518103599548e-01" nType="0">
                    <Node pos="l" depth="7" NCoef="0" IVar="-1" Cut="0.0000000000000000e+00" cType="1" res="-1.3954400783404708e-03" rms="3.8198223710060120e-01" purity="2.0175433158874512e-01" nType="-99"/>
                    <Node pos="r" depth="7" NCoef="0" IVar="-1" Cut="0.0000000000000000e+00" cType="1" res="1.2221209472045302e-03" rms="4.3230322003364563e-01" purity="2.6837548613548279e-01" nType="-99"/>
                  </Node>
                  <Node pos="r" depth="6" NCoef="0" IVar="-1" Cut="0.0000000000000000e+00" cType="1" res="2.1588483359664679e-03" rms="3.8089144229888916e-01" purity="1.9267633557319641e-01" nType="-99"/>
                </Node>
                <Node pos="r" depth="5" NCoef="0" IVar="-1" Cut="0.0000000000000000e+00" cType="1" res="1.9921700004488230e-03" rms="4.8725816607475281e-01" purity="4.4426655769348145e-01" nType="-99"/>
              </Node>
            </Node>
          </Node>
        </Node>
        <Node pos="r" depth="1" NCoef="0" IVar="4" Cut="1.0650961101055145e-01" cType="1" res="1.2166314758360386e-02" rms="4.4165739417076111e-01" purity="6.9394999742507935e-01" nType="0">
          <Node pos="l" depth="2" NCoef="0" IVar="3" Cut="9.8980271816253662e-01" cType="1" res="1.3889154419302940e-02" rms="4.4046124815940857e-01" purity="7.0047086477279663e-01" nType="0">
            <Node pos="l" depth="3" NCoef="0" IVar="4" Cut="3.4368637949228287e-02" cType="1" res="9.7608957439661026e-03" rms="4.6105375885963440e-01" purity="6.4604669809341431e-01" nType="0">
              <Node pos="l" depth="4" NCoef="0" IVar="2" Cut="7.7937622070312500e+01" cType="1" res="4.1042501106858253e-04" rms="4.4889411330223083e-01" purity="6.8278217315673828e-01" nType="0">
                <Node pos="l" depth="5" NCoef="0" IVar="4" Cut="1.3314547017216682e-02" cType="1" res="5.8521809987723827e-03" rms="4.4518846273422241e-01" purity="6.9839131832122803e-01" nType="0">
                  <Node pos="l" depth="6" NCoef="0" IVar="4" Cut="4.4754851842299104e-04" cType="1" res="-3.9627044461667538e-03" rms="4.3762370944023132e-01" purity="7.1920526027679443e-01" nType="0">
                    <Node pos="l" depth="7" NCoef="0" IVar="-1" Cut="0.0000000000000000e+00" cType="1" res="7.3087250348180532e-04" rms="4.2353105545043945e-01" purity="7.5646305084228516e-01" nType="-99"/>
                    <Node pos="r" depth="7" NCoef="0" IVar="-1" Cut="0.0000000000000000e+00" cType="1" res="-2.6417486369609833e-03" rms="4.6555706858634949e-01" purity="6.3929551839828491e-01" nType="-99"/>
                  </Node>
                  <Node pos="r" depth="6" NCoef="0" IVar="3" Cut="8.6663269996643066e-01" cType="1" res="1.9997455179691315e-02" rms="4.5549818873405457e-01" purity="6.6839408874511719e-01" nType="0">
                    <Node pos="l" depth="7" NCoef="0" IVar="-1" Cut="0.0000000000000000e+00" cType="1" res="1.0923427762463689e-03" rms="4.7168761491775513e-01" purity="6.1880451440811157e-01" nType="-99"/>
                    <Node pos="r" depth="7" NCoef="0" IVar="-1" Cut="0.0000000000000000e+00" cType="1" res="3.6999280564486980e-03" rms="4.2436200380325317e-01" purity="7.5790888071060181e-01" nType="-99"/>
                  </Node>
                </Node>
                <Node pos="r" depth="5" NCoef="0" IVar="3" Cut="8.3060634136199951e-01" cType="1" res="-2.4756552651524544e-02" rms="4.6482071280479431e-01" purity="6.1059296131134033e-01" nType="0">
                  <Node pos="l" depth="6" NCoef="0" IVar="-1" Cut="0.0000000000000000e+00" cType="1" res="-4.5620771124958992e-03" rms="4.7981056571006775e-01" purity="4.7289156913757324e-01" nType="-99"/>
                  <Node pos="r" depth="6" NCoef="0" IVar="-1" Cut="0.0000000000000000e+00" cType="1" res="-1.3017449527978897e-03" rms="4.5583215355873108e-01" purity="6.8677651882171631e-01" nType="-99"/>
                </Node>
              </Node>
              <Node pos="r" depth="4" NCoef="0" IVar="3" Cut="7.8726625442504883e-01" cType="1" res="1.7681134864687920e-02" rms="4.7096285223960876e-01" purity="6.1493027210235596e-01" nType="0">
                <Node pos="l" depth="5" NCoef="0" IVar="2" Cut="2.0870785522460938e+02" cType="1" res="9.5137115567922592e-03" rms="4.8622488975524902e-01" purity="5.4065537452697754e-01" nType="0">
                  <Node pos="l" depth="6" NCoef="0" IVar="4" Cut="7.8580468893051147e-02" cType="1" res="1.9652310758829117e-02" rms="4.8443385958671570e-01" purity="5.6422024965286255e-01" nType="0">
                    <Node pos="l" depth="7" NCoef="0" IVar="-1" Cut="0.0000000000000000e+00" cType="1" res="1.3033567229285836e-03" rms="4.8452669382095337e-01" purity="5.5423194169998169e-01" nType="-99"/>
                    <Node pos="r" depth="7" NCoef="0" IVar="-1" Cut="0.0000000000000000e+00" cType="1" res="3.0462886206805706e-03" rms="4.8367089033126831e-01" purity="6.0252344608306885e-01" nType="-99"/>
                  </Node>
                  <Node pos="r" depth="6" NCoef="0" IVar="5" Cut="3.0000000000000000e+00" cType="1" res="-1.1276275850832462e-02" rms="4.8694026470184326e-01" purity="4.8963034152984619e-01" nType="0">
                    <Node pos="l" depth="7" NCoef="0" IVar="-1" Cut="0.0000000000000000e+00" cType="1" res="-2.9584085568785667e-03" rms="4.8804134130477905e-01" purity="4.5602771639823914e-01" nType="-99"/>
                    <Node pos="r" depth="7" NCoef="0" IVar="-1" Cut="0.0000000000000000e+00" cType="1" res="1.3589607260655612e-04" rms="4.8983129858970642e-01" purity="5.1366215944290161e-01" nType="-99"/>
                  </Node>
                </Node>
                <Node pos="r" depth="5" NCoef="0" IVar="2" Cut="1.9675006103515625e+02" cType="1" res="2.6471376419067383e-02" rms="4.5379987359046936e-01" purity="6.9486910104751587e-01" nType="0">
                  <Node pos="l" depth="6" NCoef="0" IVar="2" Cut="6.4469909667968750e+01" cType="1" res="2.2025166079401970e-02" rms="4.5096305012702942e-01" purity="7.0104360580444336e-01" nType="0">
                    <Node pos="l" depth="7" NCoef="0" IVar="-1" Cut="0.0000000000000000e+00" cType="1" res="3.3233738504350185e-03" rms="4.3988525867462158e-01" purity="7.2976517677307129e-01" nType="-99"/>
                    <Node pos="r" depth="7" NCoef="0" IVar="-1" Cut="0.0000000000000000e+00" cType="1" res="1.3923067599534988e-03" rms="4.5514237880706787e-01" purity="6.8952357769012451e-01" nType="-99"/>
                  </Node>
                  <Node pos="r" depth="6" NCoef="0" IVar="-1" Cut="0.0000000000000000e+00" cType="1" res="4.1011180728673935e-03" rms="4.6436649560928345e-01" purity="6.7060863971710205e-01" nType="-99"/>
                </Node>
              </Node>
            </Node>
            <Node pos="r" depth="3" NCoef="0" IVar="3" Cut="1.0479657649993896e+00" cType="1" res="2.0189529284834862e-02" rms="4.0694972872734070e-01" purity="7.8353071212768555e-01" nType="0">
              <Node pos="l" depth="4" NCoef="0" IVar="3" Cut="9.9917817115783691e-01" cType="1" res="1.9789235666394234e-02" rms="4.0609550476074219e-01" purity="7.8526079654693604e-01" nType="0">
                <Node pos="l" depth="5" NCoef="0" IVar="3" Cut="9.9706119298934937e-01" cType="1" res="1.0867597535252571e-02" rms="4.1450652480125427e-01" purity="7.7056831121444702e-01" nType="0">
                  <Node pos="l" depth="6" NCoef="0" IVar="3" Cut="9.9495393037796021e-01" cType="1" res="1.5444171614944935e-02" rms="4.1105696558952332e-01" purity="7.7589845657348633e-01" nType="0">
                    <Node pos="l" depth="7" NCoef="0" IVar="-1" Cut="0.0000000000000000e+00" cType="1" res="4.1651574429124594e-04" rms="4.1835895180702209e-01" purity="7.6402854919433594e-01" nType="-99"/>
                    <Node pos="r" depth="7" NCoef="0" IVar="-1" Cut="0.0000000000000000e+00" cType="1" res="3.2466142438352108e-03" rms="4.0136012434959412e-01" purity="7.9059523344039917e-01" nType="-99"/>
                  </Node>
                  <Node pos="r" depth="6" NCoef="0" IVar="3" Cut="9.9794894456863403e-01" cType="1" res="2.8658851515501738e-03" rms="4.2035001516342163e-01" purity="7.6124900579452515e-01" nType="0">
                    <Node pos="l" depth="7" NCoef="0" IVar="-1" Cut="0.0000000000000000e+00" cType="1" res="-1.9270495977252722e-03" rms="4.3231010437011719e-01" purity="7.3770171403884888e-01" nType="-99"/>
                    <Node pos="r" depth="7" NCoef="0" IVar="-1" Cut="0.0000000000000000e+00" cType="1" res="1.7323322826996446e-03" rms="4.1166654229164124e-01" purity="7.7687656879425049e-01" nType="-99"/>
                  </Node>
                </Node>
                <Node pos="r" depth="5" NCoef="0" IVar="3" Cut="1.0054683685302734e+00" cType="1" res="2.5580678135156631e-02" rms="4.0043464303016663e-01" purity="7.9479831457138062e-01" nType="0">
                  <Node pos="l" depth="6" NCoef="0" IVar="3" Cut="1.0030333995819092e+00" cType="1" res="2.8309280052781105e-02" rms="3.9835199713706970e-01" purity="7.9683601856231689e-01" nType="0">
                    <Node pos="l" depth="7" NCoef="0" IVar="-1" Cut="0.0000000000000000e+00" cType="1" res="2.5743250735104084e-03" rms="4.0151566267013550e-01" purity="7.9174786806106567e-01" nType="-99"/>
                    <Node pos="r" depth="7" NCoef="0" IVar="-1" Cut="0.0000000000000000e+00" cType="1" res="4.4521056115627289e-03" rms="3.8569906353950500e-01" purity="8.1631070375442505e-01" nType="-99"/>
                  </Node>
                  <Node pos="r" depth="6" NCoef="0" IVar="3" Cut="1.0150562524795532e+00" cType="1" res="2.2326853126287460e-02" rms="4.0287995338439941e-01" purity="7.9236841201782227e-01" nType="0">
                    <Node pos="l" depth="7" NCoef="0" IVar="-1" Cut="0.0000000000000000e+00" cType="1" res="2.0467960275709629e-03" rms="4.0406796336174011e-01" purity="7.9237776994705200e-01" nType="-99"/>
                    <Node pos="r" depth="7" NCoef="0" IVar="-1" Cut="0.0000000000000000e+00" cType="1" res="2.6066196151077747e-03" rms="4.0192419290542603e-01" purity="7.9236114025115967e-01" nType="-99"/>
                  </Node>
                </Node>
              </Node>
              <Node pos="r" depth="4" NCoef="0" IVar="-1" Cut="0.0000000000000000e+00" cType="1" res="2.6417095214128494e-03" rms="4.2248001694679260e-01" purity="7.5129634141921997e-01" nType="-99"/>
            </Node>
          </Node>
          <Node pos="r" depth="2" NCoef="0" IVar="-1" Cut="0.0000000000000000e+00" cType="1" res="-4.6498924493789673e-03" rms="4.7957649827003479e-01" purity="4.5216968655586243e-01" nType="-99"/>
        </Node>
      </Node>
    </BinaryTree>
    <BinaryTree type="DecisionTree" boostWeight="1.0000000000000000e+00" itree="75">
      <Node pos="s" depth="0" NCoef="0" IVar="5" Cut="2.0000000000000000e+00" cType="1" res="1.6859607398509979e-01" rms="0.0000000000000000e+00" purity="4.9866130948066711e-01" nType="0">
        <Node pos="l" depth="1" NCoef="0" IVar="1" Cut="1.0064873695373535e+00" cType="1" res="1.7321096733212471e-02" rms="4.1042980551719666e-01" purity="7.7557772397994995e-01" nType="0">
          <Node pos="l" depth="2" NCoef="0" IVar="1" Cut="2.2959914803504944e-01" cType="1" res="1.9036736339330673e-02" rms="4.0678021311759949e-01" purity="7.8394079208374023e-01" nType="0">
            <Node pos="l" depth="3" NCoef="0" IVar="3" Cut="1.0283871889114380e+00" cType="1" res="1.9245384261012077e-02" rms="4.0049535036087036e-01" purity="7.9489690065383911e-01" nType="0">
              <Node pos="l" depth="4" NCoef="0" IVar="3" Cut="9.9601912498474121e-01" cType="1" res="1.8737262114882469e-02" rms="3.9972388744354248e-01" purity="7.9650419950485229e-01" nType="0">
                <Node pos="l" depth="5" NCoef="0" IVar="3" Cut="9.6469783782958984e-01" cType="1" res="1.6062553972005844e-02" rms="4.0982314944267273e-01" purity="7.8198462724685669e-01" nType="0">
                  <Node pos="l" depth="6" NCoef="0" IVar="-1" Cut="0.0000000000000000e+00" cType="1" res="1.4815382892265916e-03" rms="4.3005865812301636e-01" purity="7.4926441907882690e-01" nType="-99"/>
                  <Node pos="r" depth="6" NCoef="0" IVar="3" Cut="9.8995810747146606e-01" cType="1" res="1.6487754881381989e-02" rms="4.0394851565361023e-01" purity="7.9118674993515015e-01" nType="0">
                    <Node pos="l" depth="7" NCoef="0" IVar="-1" Cut="0.0000000000000000e+00" cType="1" res="1.2564423959702253e-03" rms="4.0972307324409485e-01" purity="7.8269380331039429e-01" nType="-99"/>
                    <Node pos="r" depth="7" NCoef="0" IVar="-1" Cut="0.0000000000000000e+00" cType="1" res="2.5657019577920437e-03" rms="3.9730021357536316e-01" purity="8.0070620775222778e-01" nType="-99"/>
                  </Node>
                </Node>
                <Node pos="r" depth="5" NCoef="0" IVar="3" Cut="9.9915128946304321e-01" cType="1" res="2.0587531849741936e-02" rms="3.9257490634918213e-01" purity="8.0654835700988770e-01" nType="0">
                  <Node pos="l" depth="6" NCoef="0" IVar="3" Cut="9.9763572216033936e-01" cType="1" res="1.1815368197858334e-02" rms="4.0177416801452637e-01" purity="7.9124665260314941e-01" nType="0">
                    <Node pos="l" depth="7" NCoef="0" IVar="-1" Cut="0.0000000000000000e+00" cType="1" res="2.4919100105762482e-03" rms="3.9348286390304565e-01" purity="8.0111986398696899e-01" nType="-99"/>
                    <Node pos="r" depth="7" NCoef="0" IVar="-1" Cut="0.0000000000000000e+00" cType="1" res="2.3659369617234915e-04" rms="4.0925726294517517e-01" purity="7.8186851739883423e-01" nType="-99"/>
                  </Node>
                  <Node pos="r" depth="6" NCoef="0" IVar="3" Cut="1.0010380744934082e+00" cType="1" res="2.3743350058794022e-02" rms="3.8916388154029846e-01" purity="8.1205320358276367e-01" nType="0">
                    <Node pos="l" depth="7" NCoef="0" IVar="-1" Cut="0.0000000000000000e+00" cType="1" res="3.1104094814509153e-03" rms="3.8856634497642517e-01" purity="8.1361860036849976e-01" nType="-99"/>
                    <Node pos="r" depth="7" NCoef="0" IVar="-1" Cut="0.0000000000000000e+00" cType="1" res="2.5064654182642698e-03" rms="3.8935410976409912e-01" purity="8.1152218580245972e-01" nType="-99"/>
                  </Node>
                </Node>
              </Node>
              <Node pos="r" depth="4" NCoef="0" IVar="-1" Cut="0.0000000000000000e+00" cType="1" res="2.4663400836288929e-03" rms="4.0774333477020264e-01" purity="7.7957731485366821e-01" nType="-99"/>
            </Node>
            <Node pos="r" depth="3" NCoef="0" IVar="1" Cut="5.8034455776214600e-01" cType="1" res="1.8391361460089684e-02" rms="4.2563235759735107e-01" purity="7.5005233287811279e-01" nType="0">
              <Node pos="l" depth="4" NCoef="0" IVar="1" Cut="3.9919078350067139e-01" cType="1" res="2.1490462124347687e-02" rms="4.1707876324653625e-01" purity="7.6685577630996704e-01" nType="0">
                <Node pos="l" depth="5" NCoef="0" IVar="1" Cut="3.2260465621948242e-01" cType="1" res="1.4394151978194714e-02" rms="4.1567668318748474e-01" purity="7.6806008815765381e-01" nType="0">
                  <Node pos="l" depth="6" NCoef="0" IVar="-1" Cut="0.0000000000000000e+00" cType="1" res="1.7403534147888422e-03" rms="4.1340550780296326e-01" purity="7.7405148744583130e-01" nType="-99"/>
                  <Node pos="r" depth="6" NCoef="0" IVar="-1" Cut="0.0000000000000000e+00" cType="1" res="1.1182168964296579e-03" rms="4.1933146119117737e-01" purity="7.5828778743743896e-01" nType="-99"/>
                </Node>
                <Node pos="r" depth="5" NCoef="0" IVar="-1" Cut="0.0000000000000000e+00" cType="1" res="3.1083496287465096e-03" rms="4.1904559731483459e-01" purity="7.6494675874710083e-01" nType="-99"/>
              </Node>
              <Node pos="r" depth="4" NCoef="0" IVar="-1" Cut="0.0000000000000000e+00" cType="1" res="9.0618233662098646e-04" rms="4.4761085510253906e-01" purity="7.0509123802185059e-01" nType="-99"/>
            </Node>
          </Node>
          <Node pos="r" depth="2" NCoef="0" IVar="-1" Cut="0.0000000000000000e+00" cType="1" res="-1.2084598420187831e-03" rms="4.7133678197860718e-01" purity="6.2205010652542114e-01" nType="-99"/>
        </Node>
        <Node pos="r" depth="1" NCoef="0" IVar="1" Cut="1.4958879351615906e-01" cType="1" res="-2.3608582559973001e-03" rms="4.1051322221755981e-01" purity="3.7588080763816833e-01" nType="0">
          <Node pos="l" depth="2" NCoef="0" IVar="2" Cut="3.8778131103515625e+02" cType="1" res="5.0278562121093273e-03" rms="4.3401044607162476e-01" purity="4.6279090642929077e-01" nType="0">
            <Node pos="l" depth="3" NCoef="0" IVar="2" Cut="5.0384227752685547e+01" cType="1" res="8.6408304050564766e-03" rms="4.4162499904632568e-01" purity="5.0581181049346924e-01" nType="0">
              <Node pos="l" depth="4" NCoef="0" IVar="4" Cut="2.1393440663814545e-02" cType="1" res="2.1047029644250870e-02" rms="4.4966912269592285e-01" purity="6.4089393615722656e-01" nType="0">
                <Node pos="l" depth="5" NCoef="0" IVar="2" Cut="2.1339397430419922e+01" cType="1" res="4.6826442703604698e-03" rms="4.4960388541221619e-01" purity="6.2144881486892700e-01" nType="0">
                  <Node pos="l" depth="6" NCoef="0" IVar="-1" Cut="0.0000000000000000e+00" cType="1" res="1.3782439054921269e-03" rms="4.5352402329444885e-01" purity="6.3234120607376099e-01" nType="-99"/>
                  <Node pos="r" depth="6" NCoef="0" IVar="-1" Cut="0.0000000000000000e+00" cType="1" res="-4.3900401215068996e-04" rms="4.4568136334419250e-01" purity="6.1113423109054565e-01" nType="-99"/>
                </Node>
                <Node pos="r" depth="5" NCoef="0" IVar="4" Cut="3.3087573945522308e-02" cType="1" res="3.1397245824337006e-02" rms="4.4940283894538879e-01" purity="6.5319275856018066e-01" nType="0">
                  <Node pos="l" depth="6" NCoef="0" IVar="-1" Cut="0.0000000000000000e+00" cType="1" res="3.9100637659430504e-03" rms="4.4140452146530151e-01" purity="6.7343819141387939e-01" nType="-99"/>
                  <Node pos="r" depth="6" NCoef="0" IVar="-1" Cut="0.0000000000000000e+00" cType="1" res="2.1482463926076889e-03" rms="4.5558673143386841e-01" purity="6.3698244094848633e-01" nType="-99"/>
                </Node>
              </Node>
              <Node pos="r" depth="4" NCoef="0" IVar="4" Cut="2.7588903903961182e-02" cType="1" res="5.5670626461505890e-03" rms="4.3955510854721069e-01" purity="4.7234380245208740e-01" nType="0">
                <Node pos="l" depth="5" NCoef="0" IVar="-1" Cut="0.0000000000000000e+00" cType="1" res="-3.5188214387744665e-03" rms="4.4341310858726501e-01" purity="5.6805431842803955e-01" nType="-99"/>
                <Node pos="r" depth="5" NCoef="0" IVar="2" Cut="1.0480908966064453e+02" cType="1" res="8.5891131311655045e-03" rms="4.3909963965415955e-01" purity="4.6447822451591492e-01" nType="0">
                  <Node pos="l" depth="6" NCoef="0" IVar="4" Cut="8.1376813352108002e-02" cType="1" res="1.8841756507754326e-02" rms="4.5020401477813721e-01" purity="5.7351958751678467e-01" nType="0">
                    <Node pos="l" depth="7" NCoef="0" IVar="-1" Cut="0.0000000000000000e+00" cType="1" res="1.2332716723904014e-03" rms="4.4750070571899414e-01" purity="5.8751595020294189e-01" nType="-99"/>
                    <Node pos="r" depth="7" NCoef="0" IVar="-1" Cut="0.0000000000000000e+00" cType="1" res="4.3363217264413834e-03" rms="4.6151697635650635e-01" purity="5.0741714239120483e-01" nType="-99"/>
                  </Node>
                  <Node pos="r" depth="6" NCoef="0" IVar="3" Cut="8.6429983377456665e-01" cType="1" res="4.4774664565920830e-03" rms="4.3449872732162476e-01" purity="4.2074903845787048e-01" nType="0">
                    <Node pos="l" depth="7" NCoef="0" IVar="-1" Cut="0.0000000000000000e+00" cType="1" res="2.5898101739585400e-04" rms="4.3524032831192017e-01" purity="3.9137458801269531e-01" nType="-99"/>
                    <Node pos="r" depth="7" NCoef="0" IVar="-1" Cut="0.0000000000000000e+00" cType="1" res="3.2575696241110563e-03" rms="4.2529055476188660e-01" purity="7.4912077188491821e-01" nType="-99"/>
                  </Node>
                </Node>
              </Node>
            </Node>
            <Node pos="r" depth="3" NCoef="0" IVar="3" Cut="5.4580843448638916e-01" cType="1" res="-1.5050152316689491e-02" rms="3.8837668299674988e-01" purity="2.2371529042720795e-01" nType="0">
              <Node pos="l" depth="4" NCoef="0" IVar="4" Cut="1.7076152563095093e-01" cType="1" res="-1.1580474674701691e-02" rms="3.5415861010551453e-01" purity="1.6301208734512329e-01" nType="0">
                <Node pos="l" depth="5" NCoef="0" IVar="-1" Cut="0.0000000000000000e+00" cType="1" res="-4.7685741446912289e-03" rms="3.1601685285568237e-01" purity="1.2337654829025269e-01" nType="-99"/>
                <Node pos="r" depth="5" NCoef="0" IVar="5" Cut="6.0000000000000000e+00" cType="1" res="-4.4434648007154465e-03" rms="3.7930616736412048e-01" purity="1.9189348816871643e-01" nType="0">
                  <Node pos="l" depth="6" NCoef="0" IVar="-1" Cut="0.0000000000000000e+00" cType="1" res="8.8124320609495044e-04" rms="4.1037482023239136e-01" purity="2.3942460119724274e-01" nType="-99"/>
                  <Node pos="r" depth="6" NCoef="0" IVar="-1" Cut="0.0000000000000000e+00" cType="1" res="-2.8532950673252344e-03" rms="3.4677127003669739e-01" purity="1.4629860222339630e-01" nType="-99"/>
                </Node>
              </Node>
              <Node pos="r" depth="4" NCoef="0" IVar="-1" Cut="0.0000000000000000e+00" cType="1" res="-2.5892397388815880e-03" rms="4.8537451028823853e-01" purity="4.2661577463150024e-01" nType="-99"/>
            </Node>
          </Node>
          <Node pos="r" depth="2" NCoef="0" IVar="4" Cut="2.3014135658740997e-01" cType="1" res="-1.0574815794825554e-02" rms="3.8253444433212280e-01" purity="2.7926370501518250e-01" nType="0">
            <Node pos="l" depth="3" NCoef="0" IVar="4" Cut="1.5068749897181988e-02" cType="1" res="-9.2948162928223610e-03" rms="3.8321313261985779e-01" purity="2.8468531370162964e-01" nType="0">
              <Node pos="l" depth="4" NCoef="0" IVar="-1" Cut="0.0000000000000000e+00" cType="1" res="-5.3520388901233673e-03" rms="4.3185737729072571e-01" purity="3.8285350799560547e-01" nType="-99"/>
              <Node pos="r" depth="4" NCoef="0" IVar="3" Cut="6.6849672794342041e-01" cType="1" res="-7.8532025218009949e-03" rms="3.8101324439048767e-01" purity="2.8065311908721924e-01" nType="0">
                <Node pos="l" depth="5" NCoef="0" IVar="2" Cut="5.0574214935302734e+01" cType="1" res="-1.1518633924424648e-02" rms="3.2123863697052002e-01" purity="1.3730534911155701e-01" nType="0">
                  <Node pos="l" depth="6" NCoef="0" IVar="-1" Cut="0.0000000000000000e+00" cType="1" res="1.0273988591507077e-03" rms="3.4381392598152161e-01" purity="1.7431466281414032e-01" nType="-99"/>
                  <Node pos="r" depth="6" NCoef="0" IVar="4" Cut="1.3992425799369812e-01" cType="1" res="-1.2720698490738869e-02" rms="3.1953078508377075e-01" purity="1.3466116786003113e-01" nType="0">
                    <Node pos="l" depth="7" NCoef="0" IVar="-1" Cut="0.0000000000000000e+00" cType="1" res="-3.5822086501866579e-03" rms="3.1347119808197021e-01" purity="1.2987902760505676e-01" nType="-99"/>
                    <Node pos="r" depth="7" NCoef="0" IVar="-1" Cut="0.0000000000000000e+00" cType="1" res="-6.1522983014583588e-04" rms="3.4031212329864502e-01" purity="1.5191154181957245e-01" nType="-99"/>
                  </Node>
                </Node>
                <Node pos="r" depth="5" NCoef="0" IVar="3" Cut="7.4241566658020020e-01" cType="1" res="-4.9114885041490197e-04" rms="4.7895801067352295e-01" purity="5.6856846809387207e-01" nType="0">
                  <Node pos="l" depth="6" NCoef="0" IVar="4" Cut="7.0290885865688324e-02" cType="1" res="-9.9562201648950577e-03" rms="4.8775881528854370e-01" purity="4.5249164104461670e-01" nType="0">
                    <Node pos="l" depth="7" NCoef="0" IVar="-1" Cut="0.0000000000000000e+00" cType="1" res="-2.4269905406981707e-03" rms="4.8374405503273010e-01" purity="4.2578244209289551e-01" nType="-99"/>
                    <Node pos="r" depth="7" NCoef="0" IVar="-1" Cut="0.0000000000000000e+00" cType="1" res="1.0648699244484305e-03" rms="4.9215176701545715e-01" purity="4.8786643147468567e-01" nType="-99"/>
                  </Node>
                  <Node pos="r" depth="6" NCoef="0" IVar="2" Cut="1.7052160644531250e+02" cType="1" res="2.9991299379616976e-03" rms="4.7562402486801147e-01" purity="6.1137223243713379e-01" nType="0">
                    <Node pos="l" depth="7" NCoef="0" IVar="-1" Cut="0.0000000000000000e+00" cType="1" res="6.0131767531856894e-04" rms="4.7257578372955322e-01" purity="6.2636983394622803e-01" nType="-99"/>
                    <Node pos="r" depth="7" NCoef="0" IVar="-1" Cut="0.0000000000000000e+00" cType="1" res="-6.5065815579146147e-04" rms="4.8350054025650024e-01" purity="5.7143867015838623e-01" nType="-99"/>
                  </Node>
                </Node>
              </Node>
            </Node>
            <Node pos="r" depth="3" NCoef="0" IVar="-1" Cut="0.0000000000000000e+00" cType="1" res="-6.8853884004056454e-03" rms="3.6647883057594299e-01" purity="1.6215232014656067e-01" nType="-99"/>
          </Node>
        </Node>
      </Node>
    </BinaryTree>
    <BinaryTree type="DecisionTree" boostWeight="1.0000000000000000e+00" itree="76">
      <Node pos="s" depth="0" NCoef="0" IVar="2" Cut="1.8737040710449219e+02" cType="1" res="5.2039721049368382e-03" rms="4.1104844212532043e-01" purity="5.0009989738464355e-01" nType="0">
        <Node pos="l" depth="1" NCoef="0" IVar="2" Cut="7.8570381164550781e+01" cType="1" res="1.0108189657330513e-02" rms="4.2098090052604675e-01" purity="5.9951257705688477e-01" nType="0">
          <Node pos="l" depth="2" NCoef="0" IVar="1" Cut="1.2884223461151123e+00" cType="1" res="1.4317876659333706e-02" rms="4.2168444395065308e-01" purity="6.8426853418350220e-01" nType="0">
            <Node pos="l" depth="3" NCoef="0" IVar="1" Cut="5.0267833471298218e-01" cType="1" res="1.5890318900346756e-02" rms="4.2154067754745483e-01" purity="6.9765645265579224e-01" nType="0">
              <Node pos="l" depth="4" NCoef="0" IVar="4" Cut="2.7327397838234901e-02" cType="1" res="1.7708303406834602e-02" rms="4.2003113031387329e-01" purity="7.2068166732788086e-01" nType="0">
                <Node pos="l" depth="5" NCoef="0" IVar="2" Cut="2.2805768966674805e+01" cType="1" res="1.5285515226423740e-02" rms="4.1113743185997009e-01" purity="7.5571763515472412e-01" nType="0">
                  <Node pos="l" depth="6" NCoef="0" IVar="3" Cut="1.0237723588943481e+00" cType="1" res="1.8795549869537354e-02" rms="4.0669959783554077e-01" purity="7.7999007701873779e-01" nType="0">
                    <Node pos="l" depth="7" NCoef="0" IVar="-1" Cut="0.0000000000000000e+00" cType="1" res="1.8258658237755299e-03" rms="4.0749114751815796e-01" purity="7.7777463197708130e-01" nType="-99"/>
                    <Node pos="r" depth="7" NCoef="0" IVar="-1" Cut="0.0000000000000000e+00" cType="1" res="3.7861207965761423e-03" rms="3.9920619130134583e-01" purity="7.9952883720397949e-01" nType="-99"/>
                  </Node>
                  <Node pos="r" depth="6" NCoef="0" IVar="3" Cut="8.5139685869216919e-01" cType="1" res="-1.0877904482185841e-02" rms="4.4194006919860840e-01" purity="5.7479363679885864e-01" nType="0">
                    <Node pos="l" depth="7" NCoef="0" IVar="-1" Cut="0.0000000000000000e+00" cType="1" res="-3.3115642145276070e-03" rms="4.4757887721061707e-01" purity="4.5533123612403870e-01" nType="-99"/>
                    <Node pos="r" depth="7" NCoef="0" IVar="-1" Cut="0.0000000000000000e+00" cType="1" res="1.9234692445024848e-03" rms="4.3219205737113953e-01" purity="7.4543303251266479e-01" nType="-99"/>
                  </Node>
                </Node>
                <Node pos="r" depth="5" NCoef="0" IVar="5" Cut="3.0000000000000000e+00" cType="1" res="2.6761211454868317e-02" rms="4.5178693532943726e-01" purity="5.8863878250122070e-01" nType="0">
                  <Node pos="l" depth="6" NCoef="0" IVar="2" Cut="4.1729843139648438e+01" cType="1" res="1.6260027885437012e-02" rms="4.5007327198982239e-01" purity="6.7889541387557983e-01" nType="0">
                    <Node pos="l" depth="7" NCoef="0" IVar="-1" Cut="0.0000000000000000e+00" cType="1" res="4.5724332449026406e-04" rms="4.5307946205139160e-01" purity="6.7643380165100098e-01" nType="-99"/>
                    <Node pos="r" depth="7" NCoef="0" IVar="-1" Cut="0.0000000000000000e+00" cType="1" res="1.9212072947993875e-03" rms="4.4861611723899841e-01" purity="6.8001037836074829e-01" nType="-99"/>
                  </Node>
                  <Node pos="r" depth="6" NCoef="0" IVar="2" Cut="4.6256973266601562e+01" cType="1" res="4.0039680898189545e-02" rms="4.5374032855033875e-01" purity="4.7601956129074097e-01" nType="0">
                    <Node pos="l" depth="7" NCoef="0" IVar="-1" Cut="0.0000000000000000e+00" cType="1" res="5.3174006752669811e-03" rms="4.6891409158706665e-01" purity="5.0293135643005371e-01" nType="-99"/>
                    <Node pos="r" depth="7" NCoef="0" IVar="-1" Cut="0.0000000000000000e+00" cType="1" res="3.5431417636573315e-03" rms="4.4711419939994812e-01" purity="4.6479812264442444e-01" nType="-99"/>
                  </Node>
                </Node>
              </Node>
              <Node pos="r" depth="4" NCoef="0" IVar="1" Cut="8.8287729024887085e-01" cType="1" res="2.7212919667363167e-03" rms="4.3208977580070496e-01" purity="5.3086787462234497e-01" nType="0">
                <Node pos="l" depth="5" NCoef="0" IVar="2" Cut="4.0552295684814453e+01" cType="1" res="1.2618458829820156e-02" rms="4.3209704756736755e-01" purity="5.7026547193527222e-01" nType="0">
                  <Node pos="l" depth="6" NCoef="0" IVar="1" Cut="6.1305993795394897e-01" cType="1" res="6.7422366701066494e-03" rms="4.4124010205268860e-01" purity="6.4479398727416992e-01" nType="0">
                    <Node pos="l" depth="7" NCoef="0" IVar="-1" Cut="0.0000000000000000e+00" cType="1" res="-5.3685373859480023e-04" rms="4.4264698028564453e-01" purity="6.5695697069168091e-01" nType="-99"/>
                    <Node pos="r" depth="7" NCoef="0" IVar="-1" Cut="0.0000000000000000e+00" cType="1" res="1.4385369140654802e-03" rms="4.4006866216659546e-01" purity="6.3639158010482788e-01" nType="-99"/>
                  </Node>
                  <Node pos="r" depth="6" NCoef="0" IVar="-1" Cut="0.0000000000000000e+00" cType="1" res="3.3849657047539949e-03" rms="4.0617328882217407e-01" purity="3.7061193585395813e-01" nType="-99"/>
                </Node>
                <Node pos="r" depth="5" NCoef="0" IVar="-1" Cut="0.0000000000000000e+00" cType="1" res="-2.2863945923745632e-03" rms="4.3114754557609558e-01" purity="4.3638342618942261e-01" nType="-99"/>
              </Node>
            </Node>
            <Node pos="r" depth="3" NCoef="0" IVar="3" Cut="8.6151397228240967e-01" cType="1" res="-1.8500486388802528e-02" rms="4.2334258556365967e-01" purity="4.0484982728958130e-01" nType="0">
              <Node pos="l" depth="4" NCoef="0" IVar="-1" Cut="0.0000000000000000e+00" cType="1" res="-4.0143043734133244e-03" rms="3.5908648371696472e-01" purity="1.8421404063701630e-01" nType="-99"/>
              <Node pos="r" depth="4" NCoef="0" IVar="-1" Cut="0.0000000000000000e+00" cType="1" res="-1.2540839379653335e-03" rms="4.7720280289649963e-01" purity="6.1785537004470825e-01" nType="-99"/>
            </Node>
          </Node>
          <Node pos="r" depth="2" NCoef="0" IVar="4" Cut="4.4850971549749374e-02" cType="1" res="9.7290420671924949e-04" rms="4.1930478811264038e-01" purity="4.1558673977851868e-01" nType="0">
            <Node pos="l" depth="3" NCoef="0" IVar="3" Cut="8.2241666316986084e-01" cType="1" res="-8.7543735280632973e-03" rms="4.2792972922325134e-01" purity="4.9986383318901062e-01" nType="0">
              <Node pos="l" depth="4" NCoef="0" IVar="4" Cut="3.0868824571371078e-02" cType="1" res="-2.0335445180535316e-02" rms="4.0649920701980591e-01" purity="3.1632280349731445e-01" nType="0">
                <Node pos="l" depth="5" NCoef="0" IVar="-1" Cut="0.0000000000000000e+00" cType="1" res="-5.1482999697327614e-03" rms="3.9300534129142761e-01" purity="2.8562572598457336e-01" nType="-99"/>
                <Node pos="r" depth="5" NCoef="0" IVar="2" Cut="1.2067962646484375e+02" cType="1" res="-1.1624210514128208e-02" rms="4.1275757551193237e-01" purity="3.3156245946884155e-01" nType="0">
                  <Node pos="l" depth="6" NCoef="0" IVar="-1" Cut="0.0000000000000000e+00" cType="1" res="-1.8440048734191805e-04" rms="4.2640629410743713e-01" purity="3.5805830359458923e-01" nType="-99"/>
                  <Node pos="r" depth="6" NCoef="0" IVar="-1" Cut="0.0000000000000000e+00" cType="1" res="-2.7392297051846981e-03" rms="4.0093502402305603e-01" purity="3.0966293811798096e-01" nType="-99"/>
                </Node>
              </Node>
              <Node pos="r" depth="4" NCoef="0" IVar="2" Cut="1.0662587738037109e+02" cType="1" res="3.9106816984713078e-03" rms="4.4985866546630859e-01" purity="7.0058423280715942e-01" nType="0">
                <Node pos="l" depth="5" NCoef="0" IVar="-1" Cut="0.0000000000000000e+00" cType="1" res="-4.2510908679105341e-04" rms="4.5242837071418762e-01" purity="6.9258862733840942e-01" nType="-99"/>
                <Node pos="r" depth="5" NCoef="0" IVar="4" Cut="3.4610595554113388e-02" cType="1" res="8.6421985179185867e-03" rms="4.4827196002006531e-01" purity="7.0529001951217651e-01" nType="0">
                  <Node pos="l" depth="6" NCoef="0" IVar="-1" Cut="0.0000000000000000e+00" cType="1" res="1.2698603095486760e-03" rms="4.4568473100662231e-01" purity="7.0987170934677124e-01" nType="-99"/>
                  <Node pos="r" depth="6" NCoef="0" IVar="-1" Cut="0.0000000000000000e+00" cType="1" res="5.9143721591681242e-04" rms="4.5066359639167786e-01" purity="7.0099931955337524e-01" nType="-99"/>
                </Node>
              </Node>
            </Node>
            <Node pos="r" depth="3" NCoef="0" IVar="3" Cut="3.9294305443763733e-01" cType="1" res="5.8498429134488106e-03" rms="4.1482722759246826e-01" purity="3.7333294749259949e-01" nType="0">
              <Node pos="l" depth="4" NCoef="0" IVar="4" Cut="1.2105517834424973e-01" cType="1" res="-1.0630897246301174e-02" rms="2.3650050163269043e-01" purity="6.3523486256599426e-02" nType="0">
                <Node pos="l" depth="5" NCoef="0" IVar="3" Cut="2.7914360165596008e-01" cType="1" res="-2.1285858005285263e-02" rms="1.8774934113025665e-01" purity="3.7406623363494873e-02" nType="0">
                  <Node pos="l" depth="6" NCoef="0" IVar="-1" Cut="0.0000000000000000e+00" cType="1" res="-1.2050145305693150e-02" rms="1.7103064060211182e-01" purity="3.0855875462293625e-02" nType="-99"/>
                  <Node pos="r" depth="6" NCoef="0" IVar="-1" Cut="0.0000000000000000e+00" cType="1" res="-1.1576089076697826e-02" rms="2.0160494744777679e-01" purity="4.3324951082468033e-02" nType="-99"/>
                </Node>
                <Node pos="r" depth="5" NCoef="0" IVar="-1" Cut="0.0000000000000000e+00" cType="1" res="4.2360713705420494e-03" rms="3.2291018962860107e-01" purity="1.2571685016155243e-01" nType="-99"/>
              </Node>
              <Node pos="r" depth="4" NCoef="0" IVar="4" Cut="9.1455228626728058e-02" cType="1" res="1.1151376180350780e-02" rms="4.5752492547035217e-01" purity="4.7299265861511230e-01" nType="0">
                <Node pos="l" depth="5" NCoef="0" IVar="3" Cut="7.5630640983581543e-01" cType="1" res="6.9308080710470676e-03" rms="4.5498105883598328e-01" purity="4.9419301748275757e-01" nType="0">
                  <Node pos="l" depth="6" NCoef="0" IVar="0" Cut="3.5398793220520020e-01" cType="1" res="2.5586891570128500e-04" rms="4.5010223984718323e-01" purity="3.7520596385002136e-01" nType="0">
                    <Node pos="l" depth="7" NCoef="0" IVar="-1" Cut="0.0000000000000000e+00" cType="1" res="-7.2412082226946950e-04" rms="4.8859685659408569e-01" purity="5.1698142290115356e-01" nType="-99"/>
                    <Node pos="r" depth="7" NCoef="0" IVar="-1" Cut="0.0000000000000000e+00" cType="1" res="8.3833234384655952e-04" rms="4.1979333758354187e-01" purity="2.7210155129432678e-01" nType="-99"/>
                  </Node>
                  <Node pos="r" depth="6" NCoef="0" IVar="3" Cut="8.2224464416503906e-01" cType="1" res="1.7064111307263374e-02" rms="4.6210500597953796e-01" purity="6.7482858896255493e-01" nType="0">
                    <Node pos="l" depth="7" NCoef="0" IVar="-1" Cut="0.0000000000000000e+00" cType="1" res="2.2493121214210987e-03" rms="4.7010546922683716e-01" purity="6.5337264537811279e-01" nType="-99"/>
                    <Node pos="r" depth="7" NCoef="0" IVar="-1" Cut="0.0000000000000000e+00" cType="1" res="7.3072104714810848e-04" rms="4.5381653308868408e-01" purity="6.9618940353393555e-01" nType="-99"/>
                  </Node>
                </Node>
                <Node pos="r" depth="5" NCoef="0" IVar="2" Cut="1.3472401428222656e+02" cType="1" res="2.1345721557736397e-02" rms="4.6345326304435730e-01" purity="4.2178535461425781e-01" nType="0">
                  <Node pos="l" depth="6" NCoef="0" IVar="-1" Cut="0.0000000000000000e+00" cType="1" res="3.0624812934547663e-03" rms="4.6605107188224792e-01" purity="4.5134472846984863e-01" nType="-99"/>
                  <Node pos="r" depth="6" NCoef="0" IVar="-1" Cut="0.0000000000000000e+00" cType="1" res="9.6200918778777122e-04" rms="4.6047240495681763e-01" purity="3.9167645573616028e-01" nType="-99"/>
                </Node>
              </Node>
            </Node>
          </Node>
        </Node>
        <Node pos="r" depth="1" NCoef="0" IVar="2" Cut="5.5002905273437500e+02" cType="1" res="-6.8638138473033905e-03" rms="3.8525387644767761e-01" purity="2.5547543168067932e-01" nType="0">
          <Node pos="l" depth="2" NCoef="0" IVar="2" Cut="2.3417060852050781e+02" cType="1" res="-3.6962616723030806e-03" rms="3.9004057645797729e-01" purity="2.7496019005775452e-01" nType="0">
            <Node pos="l" depth="3" NCoef="0" IVar="3" Cut="5.7877951860427856e-01" cType="1" res="9.5079177990555763e-03" rms="4.0929222106933594e-01" purity="3.4643021225929260e-01" nType="0">
              <Node pos="l" depth="4" NCoef="0" IVar="1" Cut="2.1314842998981476e-01" cType="1" res="-4.7316192649304867e-03" rms="3.2424092292785645e-01" purity="1.3651064038276672e-01" nType="0">
                <Node pos="l" depth="5" NCoef="0" IVar="-1" Cut="0.0000000000000000e+00" cType="1" res="1.3111113803461194e-03" rms="3.7035191059112549e-01" purity="1.8656335771083832e-01" nType="-99"/>
                <Node pos="r" depth="5" NCoef="0" IVar="-1" Cut="0.0000000000000000e+00" cType="1" res="-4.7984318807721138e-03" rms="2.7405893802642822e-01" purity="8.9978531002998352e-02" nType="-99"/>
              </Node>
              <Node pos="r" depth="4" NCoef="0" IVar="4" Cut="5.3300175815820694e-02" cType="1" res="2.3247476667165756e-02" rms="4.7679460048675537e-01" purity="5.4897910356521606e-01" nType="0">
                <Node pos="l" depth="5" NCoef="0" IVar="-1" Cut="0.0000000000000000e+00" cType="1" res="-6.5390355302952230e-05" rms="4.5578777790069580e-01" purity="5.5633342266082764e-01" nType="-99"/>
                <Node pos="r" depth="5" NCoef="0" IVar="-1" Cut="0.0000000000000000e+00" cType="1" res="3.2699406147003174e-03" rms="4.8773002624511719e-01" purity="5.4483038187026978e-01" nType="-99"/>
              </Node>
            </Node>
            <Node pos="r" depth="3" NCoef="0" IVar="4" Cut="8.8640801608562469e-02" cType="1" res="-8.2831019535660744e-03" rms="3.8302013278007507e-01" purity="2.5013309717178345e-01" nType="0">
              <Node pos="l" depth="4" NCoef="0" IVar="4" Cut="8.0762527883052826e-02" cType="1" res="-1.9372189417481422e-02" rms="3.9816528558731079e-01" purity="3.1390449404716492e-01" nType="0">
                <Node pos="l" depth="5" NCoef="0" IVar="2" Cut="2.5836120605468750e+02" cType="1" res="-2.6192231103777885e-02" rms="3.9906033873558044e-01" purity="3.2070696353912354e-01" nType="0">
                  <Node pos="l" depth="6" NCoef="0" IVar="-1" Cut="0.0000000000000000e+00" cType="1" res="-3.8095671334303916e-04" rms="4.1465595364570618e-01" purity="3.6542984843254089e-01" nType="-99"/>
                  <Node pos="r" depth="6" NCoef="0" IVar="3" Cut="7.2145515680313110e-01" cType="1" res="-3.5411238670349121e-02" rms="3.9232575893402100e-01" purity="3.0297955870628357e-01" nType="0">
                    <Node pos="l" depth="7" NCoef="0" IVar="-1" Cut="0.0000000000000000e+00" cType="1" res="-7.5383963994681835e-03" rms="3.3089789748191833e-01" purity="1.5803521871566772e-01" nType="-99"/>
                    <Node pos="r" depth="7" NCoef="0" IVar="-1" Cut="0.0000000000000000e+00" cType="1" res="-2.3573595099151134e-03" rms="4.8517712950706482e-01" purity="5.6943786144256592e-01" nType="-99"/>
                  </Node>
                </Node>
                <Node pos="r" depth="5" NCoef="0" IVar="-1" Cut="0.0000000000000000e+00" cType="1" res="2.2645060380455106e-04" rms="3.9466390013694763e-01" purity="2.9299354553222656e-01" nType="-99"/>
              </Node>
              <Node pos="r" depth="4" NCoef="0" IVar="4" Cut="2.0276090502738953e-01" cType="1" res="-2.7254188898950815e-03" rms="3.7507641315460205e-01" purity="2.1817186474800110e-01" nType="0">
                <Node pos="l" depth="5" NCoef="0" IVar="3" Cut="4.6828365325927734e-01" cType="1" res="5.1603605970740318e-04" rms="3.7441587448120117e-01" purity="2.2418701648712158e-01" nType="0">
                  <Node pos="l" depth="6" NCoef="0" IVar="4" Cut="1.0704806447029114e-01" cType="1" res="-1.0519413277506828e-02" rms="2.7272590994834900e-01" purity="8.5853762924671173e-02" nType="0">
                    <Node pos="l" depth="7" NCoef="0" IVar="-1" Cut="0.0000000000000000e+00" cType="1" res="-7.8559769317507744e-03" rms="2.1789476275444031e-01" purity="5.1654689013957977e-02" nType="-99"/>
                    <Node pos="r" depth="7" NCoef="0" IVar="-1" Cut="0.0000000000000000e+00" cType="1" res="-2.5668563321232796e-03" rms="2.8676408529281616e-01" purity="9.5866940915584564e-02" nType="-99"/>
                  </Node>
                  <Node pos="r" depth="6" NCoef="0" IVar="5" Cut="3.0000000000000000e+00" cType="1" res="1.3817152939736843e-02" rms="4.6647000312805176e-01" purity="3.8774597644805908e-01" nType="0">
                    <Node pos="l" depth="7" NCoef="0" IVar="-1" Cut="0.0000000000000000e+00" cType="1" res="-6.4671254949644208e-04" rms="4.7418397665023804e-01" purity="4.0488210320472717e-01" nType="-99"/>
                    <Node pos="r" depth="7" NCoef="0" IVar="-1" Cut="0.0000000000000000e+00" cType="1" res="2.1894311066716909e-03" rms="4.6369141340255737e-01" purity="3.8180914521217346e-01" nType="-99"/>
                  </Node>
                </Node>
                <Node pos="r" depth="5" NCoef="0" IVar="-1" Cut="0.0000000000000000e+00" cType="1" res="-4.4324430637061596e-03" rms="3.7880790233612061e-01" purity="1.7719869315624237e-01" nType="-99"/>
              </Node>
            </Node>
          </Node>
          <Node pos="r" depth="2" NCoef="0" IVar="3" Cut="4.5724537968635559e-01" cType="1" res="-1.9149139523506165e-02" rms="3.6583769321441650e-01" purity="1.7990389466285706e-01" nType="0">
            <Node pos="l" depth="3" NCoef="0" IVar="4" Cut="2.4959935247898102e-01" cType="1" res="-8.1027792766690254e-03" rms="3.3725869655609131e-01" purity="1.4349494874477386e-01" nType="0">
              <Node pos="l" depth="4" NCoef="0" IVar="2" Cut="7.8187573242187500e+02" cType="1" res="-1.5208330936729908e-02" rms="3.0249100923538208e-01" purity="1.0826067626476288e-01" nType="0">
                <Node pos="l" depth="5" NCoef="0" IVar="4" Cut="1.7041595280170441e-01" cType="1" res="-9.5920031890273094e-03" rms="2.9542365670204163e-01" purity="1.0368011891841888e-01" nType="0">
                  <Node pos="l" depth="6" NCoef="0" IVar="-1" Cut="0.0000000000000000e+00" cType="1" res="-4.4710403308272362e-03" rms="2.6079604029655457e-01" purity="7.8094571828842163e-02" nType="-99"/>
                  <Node pos="r" depth="6" NCoef="0" IVar="-1" Cut="0.0000000000000000e+00" cType="1" res="-1.2435754761099815e-03" rms="3.2596957683563232e-01" purity="1.2894834578037262e-01" nType="-99"/>
                </Node>
                <Node pos="r" depth="5" NCoef="0" IVar="-1" Cut="0.0000000000000000e+00" cType="1" res="-5.6336992420256138e-03" rms="3.1571251153945923e-01" purity="1.1732216924428940e-01" nType="-99"/>
              </Node>
              <Node pos="r" depth="4" NCoef="0" IVar="-1" Cut="0.0000000000000000e+00" cType="1" res="1.0702057043090463e-03" rms="3.9977103471755981e-01" purity="2.1699422597885132e-01" nType="-99"/>
            </Node>
            <Node pos="r" depth="3" NCoef="0" IVar="-1" Cut="0.0000000000000000e+00" cType="1" res="-6.1594559811055660e-03" rms="4.4516700506210327e-01" purity="2.9959458112716675e-01" nType="-99"/>
          </Node>
        </Node>
      </Node>
    </BinaryTree>
    <BinaryTree type="DecisionTree" boostWeight="1.0000000000000000e+00" itree="77">
      <Node pos="s" depth="0" NCoef="0" IVar="3" Cut="7.7264720201492310e-01" cType="1" res="4.0389485657215118e-03" rms="4.1151043772697449e-01" purity="4.9827250838279724e-01" nType="0">
        <Node pos="l" depth="1" NCoef="0" IVar="3" Cut="3.9886122941970825e-01" cType="1" res="-2.0672550890594721e-03" rms="3.9231389760971069e-01" purity="2.6428264379501343e-01" nType="0">
          <Node pos="l" depth="2" NCoef="0" IVar="4" Cut="2.3500849306583405e-01" cType="1" res="-7.2344643995165825e-03" rms="2.7096453309059143e-01" purity="8.7767966091632843e-02" nType="0">
            <Node pos="l" depth="3" NCoef="0" IVar="4" Cut="1.3680866360664368e-01" cType="1" res="-1.0236660018563271e-02" rms="2.4411872029304504e-01" purity="6.7237801849842072e-02" nType="0">
              <Node pos="l" depth="4" NCoef="0" IVar="1" Cut="1.8137729167938232e+00" cType="1" res="-1.4447933994233608e-02" rms="2.0499275624752045e-01" purity="4.5229390263557434e-02" nType="0">
                <Node pos="l" depth="5" NCoef="0" IVar="5" Cut="8.0000000000000000e+00" cType="1" res="-1.6908291727304459e-02" rms="2.0050810277462006e-01" purity="4.3228734284639359e-02" nType="0">
                  <Node pos="l" depth="6" NCoef="0" IVar="2" Cut="2.0261555480957031e+02" cType="1" res="-1.8555108457803726e-02" rms="2.0215275883674622e-01" purity="4.3903484940528870e-02" nType="0">
                    <Node pos="l" depth="7" NCoef="0" IVar="-1" Cut="0.0000000000000000e+00" cType="1" res="-7.9812025651335716e-03" rms="2.1049059927463531e-01" purity="4.7982305288314819e-02" nType="-99"/>
                    <Node pos="r" depth="7" NCoef="0" IVar="-1" Cut="0.0000000000000000e+00" cType="1" res="-1.1066191829741001e-02" rms="1.9043810665607452e-01" purity="3.8477662950754166e-02" nType="-99"/>
                  </Node>
                  <Node pos="r" depth="6" NCoef="0" IVar="-1" Cut="0.0000000000000000e+00" cType="1" res="-5.4656504653394222e-03" rms="1.9231265783309937e-01" purity="4.0023628622293472e-02" nType="-99"/>
                </Node>
                <Node pos="r" depth="5" NCoef="0" IVar="-1" Cut="0.0000000000000000e+00" cType="1" res="2.7428104076534510e-03" rms="2.3644731938838959e-01" purity="6.0970962047576904e-02" nType="-99"/>
              </Node>
              <Node pos="r" depth="4" NCoef="0" IVar="2" Cut="4.0712356567382812e+02" cType="1" res="-2.3634161334484816e-03" rms="3.0389243364334106e-01" purity="1.0838391631841660e-01" nType="0">
                <Node pos="l" depth="5" NCoef="0" IVar="3" Cut="2.6161244511604309e-01" cType="1" res="6.8517373874783516e-03" rms="3.2128304243087769e-01" purity="1.2321947515010834e-01" nType="0">
                  <Node pos="l" depth="6" NCoef="0" IVar="-1" Cut="0.0000000000000000e+00" cType="1" res="-3.6228208336979151e-03" rms="2.6236125826835632e-01" purity="8.0980256199836731e-02" nType="-99"/>
                  <Node pos="r" depth="6" NCoef="0" IVar="-1" Cut="0.0000000000000000e+00" cType="1" res="4.4133225455880165e-03" rms="3.5575145483016968e-01" purity="1.5228030085563660e-01" nType="-99"/>
                </Node>
                <Node pos="r" depth="5" NCoef="0" IVar="3" Cut="2.7018922567367554e-01" cType="1" res="-1.0175454430282116e-02" rms="2.8809866309165955e-01" purity="9.5807254314422607e-02" nType="0">
                  <Node pos="l" depth="6" NCoef="0" IVar="-1" Cut="0.0000000000000000e+00" cType="1" res="-5.6471774587407708e-04" rms="2.7484422922134399e-01" purity="8.9557625353336334e-02" nType="-99"/>
                  <Node pos="r" depth="6" NCoef="0" IVar="-1" Cut="0.0000000000000000e+00" cType="1" res="-4.6489741653203964e-03" rms="2.9910528659820557e-01" purity="1.0132248699665070e-01" nType="-99"/>
                </Node>
              </Node>
            </Node>
            <Node pos="r" depth="3" NCoef="0" IVar="5" Cut="7.0000000000000000e+00" cType="1" res="1.5762376785278320e-01" rms="0.0000000000000000e+00" purity="2.1319355070590973e-01" nType="0">
              <Node pos="l" depth="4" NCoef="0" IVar="-1" Cut="0.0000000000000000e+00" cType="1" res="3.0765309929847717e-03" rms="4.2415660619735718e-01" purity="2.5983428955078125e-01" nType="-99"/>
              <Node pos="r" depth="4" NCoef="0" IVar="-1" Cut="0.0000000000000000e+00" cType="1" res="-4.6815661335131153e-05" rms="3.6531648039817810e-01" purity="1.6363012790679932e-01" nType="-99"/>
            </Node>
          </Node>
          <Node pos="r" depth="2" NCoef="0" IVar="5" Cut="3.0000000000000000e+00" cType="1" res="1.0268130572512746e-03" rms="4.4857266545295715e-01" purity="3.6811393499374390e-01" nType="0">
            <Node pos="l" depth="3" NCoef="0" IVar="2" Cut="3.0428616333007812e+02" cType="1" res="-1.7492549493908882e-02" rms="4.5886710286140442e-01" purity="3.8832154870033264e-01" nType="0">
              <Node pos="l" depth="4" NCoef="0" IVar="4" Cut="3.9362255483865738e-02" cType="1" res="-1.3017521239817142e-02" rms="4.6306517720222473e-01" purity="4.0283980965614319e-01" nType="0">
                <Node pos="l" depth="5" NCoef="0" IVar="-1" Cut="0.0000000000000000e+00" cType="1" res="-5.0123091787099838e-03" rms="4.4072178006172180e-01" purity="3.4060904383659363e-01" nType="-99"/>
                <Node pos="r" depth="5" NCoef="0" IVar="2" Cut="1.2215931701660156e+02" cType="1" res="-2.9273536056280136e-03" rms="4.6883454918861389e-01" purity="4.2080876231193542e-01" nType="0">
                  <Node pos="l" depth="6" NCoef="0" IVar="-1" Cut="0.0000000000000000e+00" cType="1" res="-1.5842575812712312e-03" rms="4.7662070393562317e-01" purity="4.3824157118797302e-01" nType="-99"/>
                  <Node pos="r" depth="6" NCoef="0" IVar="4" Cut="7.4513129889965057e-02" cType="1" res="7.4690394103527069e-03" rms="4.6288248896598816e-01" purity="4.0828847885131836e-01" nType="0">
                    <Node pos="l" depth="7" NCoef="0" IVar="-1" Cut="0.0000000000000000e+00" cType="1" res="-1.2076741550117731e-03" rms="4.5086660981178284e-01" purity="3.5995864868164062e-01" nType="-99"/>
                    <Node pos="r" depth="7" NCoef="0" IVar="-1" Cut="0.0000000000000000e+00" cType="1" res="2.0212021190673113e-03" rms="4.7120034694671631e-01" purity="4.4454514980316162e-01" nType="-99"/>
                  </Node>
                </Node>
              </Node>
              <Node pos="r" depth="4" NCoef="0" IVar="-1" Cut="0.0000000000000000e+00" cType="1" res="-3.8454921450465918e-03" rms="4.4167748093605042e-01" purity="3.3168983459472656e-01" nType="-99"/>
            </Node>
            <Node pos="r" depth="3" NCoef="0" IVar="5" Cut="4.0000000000000000e+00" cType="1" res="6.2754531390964985e-03" rms="4.4545525312423706e-01" purity="3.6237376928329468e-01" nType="0">
              <Node pos="l" depth="4" NCoef="0" IVar="3" Cut="7.2440898418426514e-01" cType="1" res="7.6700758654624224e-05" rms="4.5942500233650208e-01" purity="4.1387838125228882e-01" nType="0">
                <Node pos="l" depth="5" NCoef="0" IVar="3" Cut="6.8239033222198486e-01" cType="1" res="-2.9646293260157108e-03" rms="4.5380270481109619e-01" purity="3.6612564325332642e-01" nType="0">
                  <Node pos="l" depth="6" NCoef="0" IVar="2" Cut="3.9286697387695312e+02" cType="1" res="1.1774642625823617e-03" rms="4.4289955496788025e-01" purity="3.2503825426101685e-01" nType="0">
                    <Node pos="l" depth="7" NCoef="0" IVar="-1" Cut="0.0000000000000000e+00" cType="1" res="6.4605363877490163e-04" rms="4.4581446051597595e-01" purity="3.3589386940002441e-01" nType="-99"/>
                    <Node pos="r" depth="7" NCoef="0" IVar="-1" Cut="0.0000000000000000e+00" cType="1" res="-2.9576823581010103e-03" rms="4.2630603909492493e-01" purity="2.6759800314903259e-01" nType="-99"/>
                  </Node>
                  <Node pos="r" depth="6" NCoef="0" IVar="2" Cut="1.2389592742919922e+02" cType="1" res="-1.7778471112251282e-02" rms="4.9053260684013367e-01" purity="5.1307111978530884e-01" nType="0">
                    <Node pos="l" depth="7" NCoef="0" IVar="-1" Cut="0.0000000000000000e+00" cType="1" res="-2.1699618082493544e-03" rms="4.8906636238098145e-01" purity="5.1964622735977173e-01" nType="-99"/>
                    <Node pos="r" depth="7" NCoef="0" IVar="-1" Cut="0.0000000000000000e+00" cType="1" res="-8.5579539882019162e-04" rms="4.9195203185081482e-01" purity="5.0609260797500610e-01" nType="-99"/>
                  </Node>
                </Node>
                <Node pos="r" depth="5" NCoef="0" IVar="3" Cut="7.4932134151458740e-01" cType="1" res="1.2303147464990616e-02" rms="4.8117119073867798e-01" purity="6.0584908723831177e-01" nType="0">
                  <Node pos="l" depth="6" NCoef="0" IVar="-1" Cut="0.0000000000000000e+00" cType="1" res="1.9092892762273550e-03" rms="4.8070916533470154e-01" purity="6.0358226299285889e-01" nType="-99"/>
                  <Node pos="r" depth="6" NCoef="0" IVar="-1" Cut="0.0000000000000000e+00" cType="1" res="1.0799524170579389e-04" rms="4.8148307204246521e-01" purity="6.0854464769363403e-01" nType="-99"/>
                </Node>
              </Node>
              <Node pos="r" depth="4" NCoef="0" IVar="3" Cut="6.1576324701309204e-01" cType="1" res="1.2158147990703583e-02" rms="4.3148723244667053e-01" purity="3.1254535913467407e-01" nType="0">
                <Node pos="l" depth="5" NCoef="0" IVar="1" Cut="-8.1430986523628235e-02" cType="1" res="7.1408948861062527e-03" rms="4.1638493537902832e-01" purity="2.5729957222938538e-01" nType="0">
                  <Node pos="l" depth="6" NCoef="0" IVar="5" Cut="5.0000000000000000e+00" cType="1" res="3.0601479113101959e-02" rms="4.3955758213996887e-01" purity="3.2854396104812622e-01" nType="0">
                    <Node pos="l" depth="7" NCoef="0" IVar="-1" Cut="0.0000000000000000e+00" cType="1" res="1.5909721842035651e-03" rms="4.4822460412979126e-01" purity="3.3134579658508301e-01" nType="-99"/>
                    <Node pos="r" depth="7" NCoef="0" IVar="-1" Cut="0.0000000000000000e+00" cType="1" res="6.1949389055371284e-03" rms="4.4614660739898682e-01" purity="3.2541397213935852e-01" nType="-99"/>
                  </Node>
                  <Node pos="r" depth="6" NCoef="0" IVar="1" Cut="7.5236409902572632e-01" cType="1" res="-4.0940521284937859e-04" rms="4.0555715560913086e-01" purity="2.3439297080039978e-01" nType="0">
                    <Node pos="l" depth="7" NCoef="0" IVar="-1" Cut="0.0000000000000000e+00" cType="1" res="5.8080640155822039e-04" rms="4.1578269004821777e-01" purity="2.5072774291038513e-01" nType="-99"/>
                    <Node pos="r" depth="7" NCoef="0" IVar="-1" Cut="0.0000000000000000e+00" cType="1" res="-4.8608975484967232e-03" rms="3.4427675604820251e-01" purity="1.4644989371299744e-01" nType="-99"/>
                  </Node>
                </Node>
                <Node pos="r" depth="5" NCoef="0" IVar="3" Cut="6.6630584001541138e-01" cType="1" res="3.2477244734764099e-02" rms="4.8736420273780823e-01" purity="5.3628236055374146e-01" nType="0">
                  <Node pos="l" depth="6" NCoef="0" IVar="-1" Cut="0.0000000000000000e+00" cType="1" res="3.2988837920129299e-03" rms="4.8769149184226990e-01" purity="5.0528889894485474e-01" nType="-99"/>
                  <Node pos="r" depth="6" NCoef="0" IVar="-1" Cut="0.0000000000000000e+00" cType="1" res="2.5519905611872673e-03" rms="4.8691225051879883e-01" purity="5.7394462823867798e-01" nType="-99"/>
                </Node>
              </Node>
            </Node>
          </Node>
        </Node>
        <Node pos="r" depth="1" NCoef="0" IVar="3" Cut="1.0592167377471924e+00" cType="1" res="1.0231788270175457e-02" rms="4.3001657724380493e-01" purity="7.3558229207992554e-01" nType="0">
          <Node pos="l" depth="2" NCoef="0" IVar="1" Cut="5.4731667041778564e-01" cType="1" res="1.1932560242712498e-02" rms="4.2952594161033630e-01" purity="7.3913669586181641e-01" nType="0">
            <Node pos="l" depth="3" NCoef="0" IVar="2" Cut="9.3076057434082031e+01" cType="1" res="1.4853892847895622e-02" rms="4.2303931713104248e-01" purity="7.5599676370620728e-01" nType="0">
              <Node pos="l" depth="4" NCoef="0" IVar="4" Cut="2.0355217158794403e-02" cType="1" res="1.6715416684746742e-02" rms="4.1507336497306824e-01" purity="7.7204382419586182e-01" nType="0">
                <Node pos="l" depth="5" NCoef="0" IVar="4" Cut="3.9397287182509899e-03" cType="1" res="1.4604827389121056e-02" rms="4.0855675935745239e-01" purity="7.8210914134979248e-01" nType="0">
                  <Node pos="l" depth="6" NCoef="0" IVar="4" Cut="3.7982955109328032e-04" cType="1" res="1.6737142577767372e-02" rms="4.0356183052062988e-01" purity="7.9093474149703979e-01" nType="0">
                    <Node pos="l" depth="7" NCoef="0" IVar="-1" Cut="0.0000000000000000e+00" cType="1" res="1.9969865679740906e-03" rms="4.0115672349929810e-01" purity="7.9463803768157959e-01" nType="-99"/>
                    <Node pos="r" depth="7" NCoef="0" IVar="-1" Cut="0.0000000000000000e+00" cType="1" res="-8.1393390428274870e-04" rms="4.4577968120574951e-01" purity="7.2102576494216919e-01" nType="-99"/>
                  </Node>
                  <Node pos="r" depth="6" NCoef="0" IVar="4" Cut="1.4536560513079166e-02" cType="1" res="-8.0699985846877098e-03" rms="4.5770323276519775e-01" purity="6.8825870752334595e-01" nType="0">
                    <Node pos="l" depth="7" NCoef="0" IVar="-1" Cut="0.0000000000000000e+00" cType="1" res="-2.7443496510386467e-03" rms="4.6643376350402832e-01" purity="6.6699641942977905e-01" nType="-99"/>
                    <Node pos="r" depth="7" NCoef="0" IVar="-1" Cut="0.0000000000000000e+00" cType="1" res="1.2522855540737510e-03" rms="4.4708803296089172e-01" purity="7.1145147085189819e-01" nType="-99"/>
                  </Node>
                </Node>
                <Node pos="r" depth="5" NCoef="0" IVar="0" Cut="1.6316378116607666e-01" cType="1" res="2.5770932435989380e-02" rms="4.4182926416397095e-01" purity="7.2885864973068237e-01" nType="0">
                  <Node pos="l" depth="6" NCoef="0" IVar="1" Cut="4.1810022667050362e-03" cType="1" res="1.9166370853781700e-02" rms="4.3579411506652832e-01" purity="7.4087673425674438e-01" nType="0">
                    <Node pos="l" depth="7" NCoef="0" IVar="-1" Cut="0.0000000000000000e+00" cType="1" res="2.4711031001061201e-03" rms="4.2559579014778137e-01" purity="7.6026237010955811e-01" nType="-99"/>
                    <Node pos="r" depth="7" NCoef="0" IVar="-1" Cut="0.0000000000000000e+00" cType="1" res="1.0180899407714605e-03" rms="4.4862186908721924e-01" purity="7.1557712554931641e-01" nType="-99"/>
                  </Node>
                  <Node pos="r" depth="6" NCoef="0" IVar="-1" Cut="0.0000000000000000e+00" cType="1" res="5.0428071990609169e-03" rms="4.6749183535575867e-01" purity="6.7334038019180298e-01" nType="-99"/>
                </Node>
              </Node>
              <Node pos="r" depth="4" NCoef="0" IVar="3" Cut="8.4647095203399658e-01" cType="1" res="5.6815729476511478e-03" rms="4.6017143130302429e-01" purity="6.7692756652832031e-01" nType="0">
                <Node pos="l" depth="5" NCoef="0" IVar="3" Cut="8.0597949028015137e-01" cType="1" res="-3.0277911573648453e-03" rms="4.7494164109230042e-01" purity="6.3927406072616577e-01" nType="0">
                  <Node pos="l" depth="6" NCoef="0" IVar="-1" Cut="0.0000000000000000e+00" cType="1" res="-1.0406160727143288e-03" rms="4.8028108477592468e-01" purity="6.2014073133468628e-01" nType="-99"/>
                  <Node pos="r" depth="6" NCoef="0" IVar="-1" Cut="0.0000000000000000e+00" cType="1" res="3.6819971865043044e-04" rms="4.7025004029273987e-01" purity="6.5551012754440308e-01" nType="-99"/>
                </Node>
                <Node pos="r" depth="5" NCoef="0" IVar="3" Cut="8.7388902902603149e-01" cType="1" res="1.5304845757782459e-02" rms="4.4308030605316162e-01" purity="7.1853214502334595e-01" nType="0">
                  <Node pos="l" depth="6" NCoef="0" IVar="-1" Cut="0.0000000000000000e+00" cType="1" res="1.0272960644215345e-03" rms="4.5729193091392517e-01" purity="6.9214057922363281e-01" nType="-99"/>
                  <Node pos="r" depth="6" NCoef="0" IVar="-1" Cut="0.0000000000000000e+00" cType="1" res="2.0819266792386770e-03" rms="4.3223670125007629e-01" purity="7.3805123567581177e-01" nType="-99"/>
                </Node>
              </Node>
            </Node>
            <Node pos="r" depth="3" NCoef="0" IVar="3" Cut="9.9448257684707642e-01" cType="1" res="-8.3053987473249435e-03" rms="4.7152471542358398e-01" purity="6.2233585119247437e-01" nType="0">
              <Node pos="l" depth="4" NCoef="0" IVar="3" Cut="9.0144956111907959e-01" cType="1" res="-2.5118391960859299e-02" rms="4.8624074459075928e-01" purity="5.6057393550872803e-01" nType="0">
                <Node pos="l" depth="5" NCoef="0" IVar="3" Cut="8.4327977895736694e-01" cType="1" res="-1.5653209760785103e-02" rms="4.8799547553062439e-01" purity="5.4451918601989746e-01" nType="0">
                  <Node pos="l" depth="6" NCoef="0" IVar="-1" Cut="0.0000000000000000e+00" cType="1" res="-2.9301238246262074e-03" rms="4.9136894941329956e-01" purity="4.9744215607643127e-01" nType="-99"/>
                  <Node pos="r" depth="6" NCoef="0" IVar="-1" Cut="0.0000000000000000e+00" cType="1" res="3.6313681630417705e-04" rms="4.8365598917007446e-01" purity="5.9355950355529785e-01" nType="-99"/>
                </Node>
                <Node pos="r" depth="5" NCoef="0" IVar="-1" Cut="0.0000000000000000e+00" cType="1" res="-4.1138869710266590e-03" rms="4.8190104961395264e-01" purity="5.9449696540832520e-01" nType="-99"/>
              </Node>
              <Node pos="r" depth="4" NCoef="0" IVar="3" Cut="1.0007454156875610e+00" cType="1" res="1.2022259645164013e-02" rms="4.5226067304611206e-01" purity="6.9700884819030762e-01" nType="0">
                <Node pos="l" depth="5" NCoef="0" IVar="-1" Cut="0.0000000000000000e+00" cType="1" res="9.9652470089495182e-04" rms="4.5528212189674377e-01" purity="6.9320130348205566e-01" nType="-99"/>
                <Node pos="r" depth="5" NCoef="0" IVar="-1" Cut="0.0000000000000000e+00" cType="1" res="1.1165878968313336e-03" rms="4.4920605421066284e-01" purity="7.0083045959472656e-01" nType="-99"/>
              </Node>
            </Node>
          </Node>
          <Node pos="r" depth="2" NCoef="0" IVar="-1" Cut="0.0000000000000000e+00" cType="1" res="-6.1961500905454159e-03" rms="4.4463461637496948e-01" purity="5.8010226488113403e-01" nType="-99"/>
        </Node>
      </Node>
    </BinaryTree>
    <BinaryTree type="DecisionTree" boostWeight="1.0000000000000000e+00" itree="78">
      <Node pos="s" depth="0" NCoef="0" IVar="2" Cut="1.9193357849121094e+02" cType="1" res="4.8723658546805382e-03" rms="4.1116681694984436e-01" purity="4.9908125400543213e-01" nType="0">
        <Node pos="l" depth="1" NCoef="0" IVar="1" Cut="2.8645029664039612e-01" cType="1" res="9.9827619269490242e-03" rms="4.2091238498687744e-01" purity="5.9668999910354614e-01" nType="0">
          <Node pos="l" depth="2" NCoef="0" IVar="3" Cut="9.6395003795623779e-01" cType="1" res="1.4152859337627888e-02" rms="4.2533504962921143e-01" purity="6.5882128477096558e-01" nType="0">
            <Node pos="l" depth="3" NCoef="0" IVar="4" Cut="2.1256366744637489e-02" cType="1" res="1.0354427620768547e-02" rms="4.4482436776161194e-01" purity="5.5466347932815552e-01" nType="0">
              <Node pos="l" depth="4" NCoef="0" IVar="2" Cut="1.9993303298950195e+01" cType="1" res="-5.7786847464740276e-03" rms="4.4524919986724854e-01" purity="6.3825017213821411e-01" nType="0">
                <Node pos="l" depth="5" NCoef="0" IVar="3" Cut="8.7440478801727295e-01" cType="1" res="7.1856169961392879e-03" rms="4.4657987356185913e-01" purity="6.8993145227432251e-01" nType="0">
                  <Node pos="l" depth="6" NCoef="0" IVar="-1" Cut="0.0000000000000000e+00" cType="1" res="2.1884697489440441e-03" rms="4.6240419149398804e-01" purity="6.0210317373275757e-01" nType="-99"/>
                  <Node pos="r" depth="6" NCoef="0" IVar="-1" Cut="0.0000000000000000e+00" cType="1" res="-2.2214550699573010e-04" rms="4.3689298629760742e-01" purity="7.4073743820190430e-01" nType="-99"/>
                </Node>
                <Node pos="r" depth="5" NCoef="0" IVar="3" Cut="8.1613641977310181e-01" cType="1" res="-2.1435700356960297e-02" rms="4.4313147664070129e-01" purity="5.7583469152450562e-01" nType="0">
                  <Node pos="l" depth="6" NCoef="0" IVar="-1" Cut="0.0000000000000000e+00" cType="1" res="-5.1572346128523350e-03" rms="4.3579429388046265e-01" purity="3.8743954896926880e-01" nType="-99"/>
                  <Node pos="r" depth="6" NCoef="0" IVar="-1" Cut="0.0000000000000000e+00" cType="1" res="-4.0562442154623568e-04" rms="4.4760081171989441e-01" purity="7.1374237537384033e-01" nType="-99"/>
                </Node>
              </Node>
              <Node pos="r" depth="4" NCoef="0" IVar="2" Cut="5.8130096435546875e+01" cType="1" res="1.4196606352925301e-02" rms="4.4463682174682617e-01" purity="5.3475683927536011e-01" nType="0">
                <Node pos="l" depth="5" NCoef="0" IVar="2" Cut="3.1103500366210938e+01" cType="1" res="2.6405269280076027e-02" rms="4.5096835494041443e-01" purity="6.2699514627456665e-01" nType="0">
                  <Node pos="l" depth="6" NCoef="0" IVar="-1" Cut="0.0000000000000000e+00" cType="1" res="3.9548915810883045e-04" rms="4.6259048581123352e-01" purity="6.1948347091674805e-01" nType="-99"/>
                  <Node pos="r" depth="6" NCoef="0" IVar="2" Cut="4.4178043365478516e+01" cType="1" res="3.2872788608074188e-02" rms="4.4729369878768921e-01" purity="6.2919998168945312e-01" nType="0">
                    <Node pos="l" depth="7" NCoef="0" IVar="-1" Cut="0.0000000000000000e+00" cType="1" res="4.1270861402153969e-03" rms="4.4411763548851013e-01" purity="6.4990198612213135e-01" nType="-99"/>
                    <Node pos="r" depth="7" NCoef="0" IVar="-1" Cut="0.0000000000000000e+00" cType="1" res="2.1296693012118340e-03" rms="4.4987368583679199e-01" purity="6.1041718721389771e-01" nType="-99"/>
                  </Node>
                </Node>
                <Node pos="r" depth="5" NCoef="0" IVar="4" Cut="9.0524785220623016e-02" cType="1" res="1.0335202328860760e-02" rms="4.4254532456398010e-01" purity="5.0558340549468994e-01" nType="0">
                  <Node pos="l" depth="6" NCoef="0" IVar="3" Cut="8.0793786048889160e-01" cType="1" res="6.8724439479410648e-03" rms="4.4156563282012939e-01" purity="5.3647083044052124e-01" nType="0">
                    <Node pos="l" depth="7" NCoef="0" IVar="-1" Cut="0.0000000000000000e+00" cType="1" res="-4.9124624638352543e-05" rms="4.4261762499809265e-01" purity="4.2189979553222656e-01" nType="-99"/>
                    <Node pos="r" depth="7" NCoef="0" IVar="-1" Cut="0.0000000000000000e+00" cType="1" res="1.9398023141548038e-03" rms="4.3950289487838745e-01" purity="7.3028838634490967e-01" nType="-99"/>
                  </Node>
                  <Node pos="r" depth="6" NCoef="0" IVar="2" Cut="1.3583642578125000e+02" cType="1" res="2.3995034396648407e-02" rms="4.4612687826156616e-01" purity="3.8373929262161255e-01" nType="0">
                    <Node pos="l" depth="7" NCoef="0" IVar="-1" Cut="0.0000000000000000e+00" cType="1" res="4.1148168966174126e-03" rms="4.6408796310424805e-01" purity="4.3489289283752441e-01" nType="-99"/>
                    <Node pos="r" depth="7" NCoef="0" IVar="-1" Cut="0.0000000000000000e+00" cType="1" res="7.3132762918248773e-04" rms="4.2655634880065918e-01" purity="3.3233493566513062e-01" nType="-99"/>
                  </Node>
                </Node>
              </Node>
            </Node>
            <Node pos="r" depth="3" NCoef="0" IVar="3" Cut="1.0131342411041260e+00" cType="1" res="1.9315082579851151e-02" rms="3.9726051688194275e-01" purity="8.0037599802017212e-01" nType="0">
              <Node pos="l" depth="4" NCoef="0" IVar="3" Cut="1.0004407167434692e+00" cType="1" res="1.8345892429351807e-02" rms="3.9684191346168518e-01" purity="8.0095165967941284e-01" nType="0">
                <Node pos="l" depth="5" NCoef="0" IVar="3" Cut="9.9690932035446167e-01" cType="1" res="1.6646021977066994e-02" rms="4.0077179670333862e-01" purity="7.9529744386672974e-01" nType="0">
                  <Node pos="l" depth="6" NCoef="0" IVar="3" Cut="9.8415231704711914e-01" cType="1" res="1.8729792907834053e-02" rms="4.0095034241676331e-01" purity="7.9524612426757812e-01" nType="0">
                    <Node pos="l" depth="7" NCoef="0" IVar="-1" Cut="0.0000000000000000e+00" cType="1" res="1.3613282935693860e-03" rms="4.1214644908905029e-01" purity="7.8048872947692871e-01" nType="-99"/>
                    <Node pos="r" depth="7" NCoef="0" IVar="-1" Cut="0.0000000000000000e+00" cType="1" res="2.4160193279385567e-03" rms="3.9637717604637146e-01" purity="8.0112302303314209e-01" nType="-99"/>
                  </Node>
                  <Node pos="r" depth="6" NCoef="0" IVar="3" Cut="9.9816328287124634e-01" cType="1" res="1.2719990685582161e-02" rms="4.0040579438209534e-01" purity="7.9539430141448975e-01" nType="0">
                    <Node pos="l" depth="7" NCoef="0" IVar="-1" Cut="0.0000000000000000e+00" cType="1" res="3.5088294680463150e-05" rms="4.1135051846504211e-01" purity="7.7762192487716675e-01" nType="-99"/>
                    <Node pos="r" depth="7" NCoef="0" IVar="-1" Cut="0.0000000000000000e+00" cType="1" res="2.0860116928815842e-03" rms="3.9494764804840088e-01" purity="8.0386149883270264e-01" nType="-99"/>
                  </Node>
                </Node>
                <Node pos="r" depth="5" NCoef="0" IVar="3" Cut="1.0053533315658569e+00" cType="1" res="2.1844005212187767e-02" rms="3.8860625028610229e-01" purity="8.1258708238601685e-01" nType="0">
                  <Node pos="l" depth="6" NCoef="0" IVar="3" Cut="1.0021837949752808e+00" cType="1" res="2.3635344579815865e-02" rms="3.8667801022529602e-01" purity="8.1448829174041748e-01" nType="0">
                    <Node pos="l" depth="7" NCoef="0" IVar="-1" Cut="0.0000000000000000e+00" cType="1" res="2.9116489458829165e-03" rms="3.8519182801246643e-01" purity="8.1641274690628052e-01" nType="-99"/>
                    <Node pos="r" depth="7" NCoef="0" IVar="-1" Cut="0.0000000000000000e+00" cType="1" res="2.3672957904636860e-03" rms="3.8834226131439209e-01" purity="8.1229645013809204e-01" nType="-99"/>
                  </Node>
                  <Node pos="r" depth="6" NCoef="0" IVar="-1" Cut="0.0000000000000000e+00" cType="1" res="2.0742823835462332e-03" rms="3.9235597848892212e-01" purity="8.0883908271789551e-01" nType="-99"/>
                </Node>
              </Node>
              <Node pos="r" depth="4" NCoef="0" IVar="-1" Cut="0.0000000000000000e+00" cType="1" res="2.5316150858998299e-03" rms="3.9906963706016541e-01" purity="7.9784262180328369e-01" nType="-99"/>
            </Node>
          </Node>
          <Node pos="r" depth="2" NCoef="0" IVar="1" Cut="3.5356040000915527e+00" cType="1" res="9.9307144409976900e-05" rms="4.1007062792778015e-01" purity="4.4943401217460632e-01" nType="0">
            <Node pos="l" depth="3" NCoef="0" IVar="1" Cut="1.0195608139038086e+00" cType="1" res="-2.4749462027102709e-03" rms="4.1072425246238708e-01" purity="4.5109933614730835e-01" nType="0">
              <Node pos="l" depth="4" NCoef="0" IVar="3" Cut="4.7596868872642517e-01" cType="1" res="6.5420954488217831e-03" rms="4.1778233647346497e-01" purity="4.9678903818130493e-01" nType="0">
                <Node pos="l" depth="5" NCoef="0" IVar="4" Cut="6.6071376204490662e-02" cType="1" res="-7.6617659069597721e-03" rms="2.4559140205383301e-01" purity="6.7573748528957367e-02" nType="0">
                  <Node pos="l" depth="6" NCoef="0" IVar="-1" Cut="0.0000000000000000e+00" cType="1" res="-9.8356781527400017e-03" rms="1.9980980455875397e-01" purity="4.2772497981786728e-02" nType="-99"/>
                  <Node pos="r" depth="6" NCoef="0" IVar="-1" Cut="0.0000000000000000e+00" cType="1" res="2.1008015610277653e-03" rms="2.8633949160575867e-01" purity="9.4363518059253693e-02" nType="-99"/>
                </Node>
                <Node pos="r" depth="5" NCoef="0" IVar="4" Cut="7.5373031198978424e-02" cType="1" res="1.0240809991955757e-02" rms="4.5190796256065369e-01" purity="6.0855752229690552e-01" nType="0">
                  <Node pos="l" depth="6" NCoef="0" IVar="3" Cut="1.0009762048721313e+00" cType="1" res="8.2037057727575302e-03" rms="4.4922170042991638e-01" purity="6.2478935718536377e-01" nType="0">
                    <Node pos="l" depth="7" NCoef="0" IVar="-1" Cut="0.0000000000000000e+00" cType="1" res="4.2636037687771022e-04" rms="4.5526036620140076e-01" purity="5.9184062480926514e-01" nType="-99"/>
                    <Node pos="r" depth="7" NCoef="0" IVar="-1" Cut="0.0000000000000000e+00" cType="1" res="2.2519463673233986e-03" rms="4.2295721173286438e-01" purity="7.6114809513092041e-01" nType="-99"/>
                  </Node>
                  <Node pos="r" depth="6" NCoef="0" IVar="-1" Cut="0.0000000000000000e+00" cType="1" res="3.0027921311557293e-03" rms="4.7974899411201477e-01" purity="4.3099224567413330e-01" nType="-99"/>
                </Node>
              </Node>
              <Node pos="r" depth="4" NCoef="0" IVar="3" Cut="5.4317516088485718e-01" cType="1" res="-3.4516692161560059e-02" rms="3.8288292288780212e-01" purity="2.8874272108078003e-01" nType="0">
                <Node pos="l" depth="5" NCoef="0" IVar="-1" Cut="0.0000000000000000e+00" cType="1" res="-6.2079774215817451e-03" rms="2.3137420415878296e-01" purity="5.9265490621328354e-02" nType="-99"/>
                <Node pos="r" depth="5" NCoef="0" IVar="1" Cut="1.5056521892547607e+00" cType="1" res="-5.1275979727506638e-02" rms="4.7109752893447876e-01" purity="4.7603869438171387e-01" nType="0">
                  <Node pos="l" depth="6" NCoef="0" IVar="-1" Cut="0.0000000000000000e+00" cType="1" res="-2.7484081219881773e-03" rms="4.7251883149147034e-01" purity="4.9797290563583374e-01" nType="-99"/>
                  <Node pos="r" depth="6" NCoef="0" IVar="-1" Cut="0.0000000000000000e+00" cType="1" res="-7.2640064172446728e-03" rms="4.6800348162651062e-01" purity="4.4864225387573242e-01" nType="-99"/>
                </Node>
              </Node>
            </Node>
            <Node pos="r" depth="3" NCoef="0" IVar="-1" Cut="0.0000000000000000e+00" cType="1" res="6.0839927755296230e-03" rms="3.9450517296791077e-01" purity="4.1818711161613464e-01" nType="-99"/>
          </Node>
        </Node>
        <Node pos="r" depth="1" NCoef="0" IVar="2" Cut="3.7767733764648438e+02" cType="1" res="-8.0275544896721840e-03" rms="3.8517072796821594e-01" purity="2.5269225239753723e-01" nType="0">
          <Node pos="l" depth="2" NCoef="0" IVar="2" Cut="2.5784173583984375e+02" cType="1" res="-2.2119667846709490e-03" rms="3.9782071113586426e-01" purity="2.9747515916824341e-01" nType="0">
            <Node pos="l" depth="3" NCoef="0" IVar="3" Cut="7.7272880077362061e-01" cType="1" res="7.2825187817215919e-03" rms="4.1060227155685425e-01" purity="3.3946320414543152e-01" nType="0">
              <Node pos="l" depth="4" NCoef="0" IVar="4" Cut="6.6087305545806885e-02" cType="1" res="3.3646537922322750e-03" rms="3.9368814229965210e-01" purity="2.5701117515563965e-01" nType="0">
                <Node pos="l" depth="5" NCoef="0" IVar="-1" Cut="0.0000000000000000e+00" cType="1" res="-2.2634207271039486e-03" rms="3.8528469204902649e-01" purity="2.4874570965766907e-01" nType="-99"/>
                <Node pos="r" depth="5" NCoef="0" IVar="3" Cut="4.7694957256317139e-01" cType="1" res="1.0559988208115101e-02" rms="3.9672437310218811e-01" purity="2.6027247309684753e-01" nType="0">
                  <Node pos="l" depth="6" NCoef="0" IVar="3" Cut="3.2586759328842163e-01" cType="1" res="2.0053992047905922e-03" rms="3.0857717990875244e-01" purity="1.1619561910629272e-01" nType="0">
                    <Node pos="l" depth="7" NCoef="0" IVar="-1" Cut="0.0000000000000000e+00" cType="1" res="-7.5192505028098822e-04" rms="2.6272764801979065e-01" purity="8.2091704010963440e-02" nType="-99"/>
                    <Node pos="r" depth="7" NCoef="0" IVar="-1" Cut="0.0000000000000000e+00" cType="1" res="1.3860979815945029e-03" rms="3.5259607434272766e-01" purity="1.5413640439510345e-01" nType="-99"/>
                  </Node>
                  <Node pos="r" depth="6" NCoef="0" IVar="3" Cut="6.2005633115768433e-01" cType="1" res="2.0039163529872894e-02" rms="4.7550925612449646e-01" purity="4.1992130875587463e-01" nType="0">
                    <Node pos="l" depth="7" NCoef="0" IVar="-1" Cut="0.0000000000000000e+00" cType="1" res="1.5998465241864324e-03" rms="4.5658230781555176e-01" purity="3.1971156597137451e-01" nType="-99"/>
                    <Node pos="r" depth="7" NCoef="0" IVar="-1" Cut="0.0000000000000000e+00" cType="1" res="2.2221496328711510e-03" rms="4.9370592832565308e-01" purity="5.2049696445465088e-01" nType="-99"/>
                  </Node>
                </Node>
              </Node>
              <Node pos="r" depth="4" NCoef="0" IVar="-1" Cut="0.0000000000000000e+00" cType="1" res="2.0056101493537426e-03" rms="4.6741712093353271e-01" purity="6.4341658353805542e-01" nType="-99"/>
            </Node>
            <Node pos="r" depth="3" NCoef="0" IVar="4" Cut="8.7042860686779022e-02" cType="1" res="-1.0846493765711784e-02" rms="3.8562643527984619e-01" purity="2.5929012894630432e-01" nType="0">
              <Node pos="l" depth="4" NCoef="0" IVar="3" Cut="6.7354708909988403e-01" cType="1" res="-1.7884925007820129e-02" rms="3.9746743440628052e-01" purity="3.1229206919670105e-01" nType="0">
                <Node pos="l" depth="5" NCoef="0" IVar="-1" Cut="0.0000000000000000e+00" cType="1" res="-5.6329430080950260e-03" rms="3.1666451692581177e-01" purity="1.3326127827167511e-01" nType="-99"/>
                <Node pos="r" depth="5" NCoef="0" IVar="-1" Cut="0.0000000000000000e+00" cType="1" res="-5.7430181186646223e-04" rms="4.8684051632881165e-01" purity="5.5826121568679810e-01" nType="-99"/>
              </Node>
              <Node pos="r" depth="4" NCoef="0" IVar="5" Cut="5.0000000000000000e+00" cType="1" res="-6.0020303353667259e-03" rms="3.7725162506103516e-01" purity="2.2315289080142975e-01" nType="0">
                <Node pos="l" depth="5" NCoef="0" IVar="2" Cut="3.0423852539062500e+02" cType="1" res="3.0802846886217594e-03" rms="4.3026131391525269e-01" purity="3.1184118986129761e-01" nType="0">
                  <Node pos="l" depth="6" NCoef="0" IVar="-1" Cut="0.0000000000000000e+00" cType="1" res="3.1656504143029451e-03" rms="4.3972864747047424e-01" purity="3.4080773591995239e-01" nType="-99"/>
                  <Node pos="r" depth="6" NCoef="0" IVar="-1" Cut="0.0000000000000000e+00" cType="1" res="-1.5944362385198474e-03" rms="4.2318087816238403e-01" purity="2.9268613457679749e-01" nType="-99"/>
                </Node>
                <Node pos="r" depth="5" NCoef="0" IVar="2" Cut="3.1968496704101562e+02" cType="1" res="-1.8582344055175781e-02" rms="2.8859749436378479e-01" purity="1.0136356949806213e-01" nType="0">
                  <Node pos="l" depth="6" NCoef="0" IVar="-1" Cut="0.0000000000000000e+00" cType="1" res="-7.5905057601630688e-03" rms="2.7843043208122253e-01" purity="9.3337409198284149e-02" nType="-99"/>
                  <Node pos="r" depth="6" NCoef="0" IVar="-1" Cut="0.0000000000000000e+00" cType="1" res="-2.6437824126332998e-03" rms="2.9920619726181030e-01" purity="1.1025846004486084e-01" nType="-99"/>
                </Node>
              </Node>
            </Node>
          </Node>
          <Node pos="r" depth="2" NCoef="0" IVar="3" Cut="6.7608582973480225e-01" cType="1" res="-1.5757087618112564e-02" rms="3.6754217743873596e-01" purity="1.9317103922367096e-01" nType="0">
            <Node pos="l" depth="3" NCoef="0" IVar="4" Cut="2.1826440095901489e-01" cType="1" res="-1.0069946758449078e-02" rms="3.5512056946754456e-01" purity="1.7047600448131561e-01" nType="0">
              <Node pos="l" depth="4" NCoef="0" IVar="4" Cut="1.0864593833684921e-01" cType="1" res="-1.4705464243888855e-02" rms="3.4280741214752197e-01" purity="1.6031295061111450e-01" nType="0">
                <Node pos="l" depth="5" NCoef="0" IVar="-1" Cut="0.0000000000000000e+00" cType="1" res="-7.2315698489546776e-03" rms="3.1986117362976074e-01" purity="1.3459947705268860e-01" nType="-99"/>
                <Node pos="r" depth="5" NCoef="0" IVar="2" Cut="6.3574023437500000e+02" cType="1" res="-9.2919887974858284e-03" rms="3.4795269370079041e-01" purity="1.6657617688179016e-01" nType="0">
                  <Node pos="l" depth="6" NCoef="0" IVar="3" Cut="5.2341890335083008e-01" cType="1" res="-3.5326059442013502e-03" rms="3.5250681638717651e-01" purity="1.7613559961318970e-01" nType="0">
                    <Node pos="l" depth="7" NCoef="0" IVar="-1" Cut="0.0000000000000000e+00" cType="1" res="-3.1222493853420019e-03" rms="3.0382153391838074e-01" purity="1.1221957206726074e-01" nType="-99"/>
                    <Node pos="r" depth="7" NCoef="0" IVar="-1" Cut="0.0000000000000000e+00" cType="1" res="2.5105827953666449e-03" rms="4.8002278804779053e-01" purity="3.9047783613204956e-01" nType="-99"/>
                  </Node>
                  <Node pos="r" depth="6" NCoef="0" IVar="-1" Cut="0.0000000000000000e+00" cType="1" res="-4.4382228516042233e-03" rms="3.3664500713348389e-01" purity="1.4415790140628815e-01" nType="-99"/>
                </Node>
              </Node>
              <Node pos="r" depth="4" NCoef="0" IVar="5" Cut="7.0000000000000000e+00" cType="1" res="1.5138836205005646e-01" rms="1.5561370551586151e-01" purity="2.0066381990909576e-01" nType="0">
                <Node pos="l" depth="5" NCoef="0" IVar="-1" Cut="0.0000000000000000e+00" cType="1" res="2.4230345152318478e-03" rms="4.1865381598472595e-01" purity="2.4610127508640289e-01" nType="-99"/>
                <Node pos="r" depth="5" NCoef="0" IVar="-1" Cut="0.0000000000000000e+00" cType="1" res="-2.5681108236312866e-03" rms="3.4846457839012146e-01" purity="1.4455854892730713e-01" nType="-99"/>
              </Node>
            </Node>
            <Node pos="r" depth="3" NCoef="0" IVar="-1" Cut="0.0000000000000000e+00" cType="1" res="-7.2824680246412754e-03" rms="4.7465091943740845e-01" purity="4.3107625842094421e-01" nType="-99"/>
          </Node>
        </Node>
      </Node>
    </BinaryTree>
    <BinaryTree type="DecisionTree" boostWeight="1.0000000000000000e+00" itree="79">
      <Node pos="s" depth="0" NCoef="0" IVar="3" Cut="5.7838916778564453e-01" cType="1" res="5.8997869491577148e-03" rms="4.1103544831275940e-01" purity="5.0062918663024902e-01" nType="0">
        <Node pos="l" depth="1" NCoef="0" IVar="4" Cut="1.5685297548770905e-01" cType="1" res="-3.5251474473625422e-03" rms="3.3200997114181519e-01" purity="1.4508458971977234e-01" nType="0">
          <Node pos="l" depth="2" NCoef="0" IVar="2" Cut="5.8873485565185547e+01" cType="1" res="-7.4113095179200172e-03" rms="3.1499758362770081e-01" purity="1.2978991866111755e-01" nType="0">
            <Node pos="l" depth="3" NCoef="0" IVar="4" Cut="2.5493904948234558e-02" cType="1" res="8.4658944979310036e-03" rms="3.4241762757301331e-01" purity="1.5835480391979218e-01" nType="0">
              <Node pos="l" depth="4" NCoef="0" IVar="-1" Cut="0.0000000000000000e+00" cType="1" res="-2.7718662749975920e-03" rms="3.0940049886703491e-01" purity="1.1751880496740341e-01" nType="-99"/>
              <Node pos="r" depth="4" NCoef="0" IVar="-1" Cut="0.0000000000000000e+00" cType="1" res="4.2079156264662743e-03" rms="3.6220332980155945e-01" purity="1.8561311066150665e-01" nType="-99"/>
            </Node>
            <Node pos="r" depth="3" NCoef="0" IVar="4" Cut="9.0886808931827545e-02" cType="1" res="-9.2915026471018791e-03" rms="3.1153714656829834e-01" purity="1.2640723586082458e-01" nType="0">
              <Node pos="l" depth="4" NCoef="0" IVar="2" Cut="2.5787234497070312e+02" cType="1" res="-1.4279028400778770e-02" rms="2.8330886363983154e-01" purity="1.0075152665376663e-01" nType="0">
                <Node pos="l" depth="5" NCoef="0" IVar="3" Cut="4.6662852168083191e-01" cType="1" res="-1.1844282969832420e-02" rms="2.9060065746307373e-01" purity="1.0721403360366821e-01" nType="0">
                  <Node pos="l" depth="6" NCoef="0" IVar="3" Cut="2.5636476278305054e-01" cType="1" res="-1.5406695194542408e-02" rms="2.1502281725406647e-01" purity="5.0248712301254272e-02" nType="0">
                    <Node pos="l" depth="7" NCoef="0" IVar="-1" Cut="0.0000000000000000e+00" cType="1" res="-3.6899049300700426e-03" rms="1.9123092293739319e-01" purity="3.9501540362834930e-02" nType="-99"/>
                    <Node pos="r" depth="7" NCoef="0" IVar="-1" Cut="0.0000000000000000e+00" cType="1" res="-8.0361701548099518e-03" rms="2.2319070994853973e-01" purity="5.4287496954202652e-02" nType="-99"/>
                  </Node>
                  <Node pos="r" depth="6" NCoef="0" IVar="2" Cut="1.1021948242187500e+02" cType="1" res="-4.5823133550584316e-03" rms="4.0282645821571350e-01" purity="2.2333770990371704e-01" nType="0">
                    <Node pos="l" depth="7" NCoef="0" IVar="-1" Cut="0.0000000000000000e+00" cType="1" res="-3.1233213376253843e-03" rms="4.1167640686035156e-01" purity="2.3720197379589081e-01" nType="-99"/>
                    <Node pos="r" depth="7" NCoef="0" IVar="-1" Cut="0.0000000000000000e+00" cType="1" res="1.2566141085699201e-03" rms="3.9622053503990173e-01" purity="2.1394427120685577e-01" nType="-99"/>
                  </Node>
                </Node>
                <Node pos="r" depth="5" NCoef="0" IVar="2" Cut="3.2009234619140625e+02" cType="1" res="-2.3933758959174156e-02" rms="2.5209653377532959e-01" purity="7.5125165283679962e-02" nType="0">
                  <Node pos="l" depth="6" NCoef="0" IVar="-1" Cut="0.0000000000000000e+00" cType="1" res="-6.0549229383468628e-03" rms="2.5619634985923767e-01" purity="7.9916417598724365e-02" nType="-99"/>
                  <Node pos="r" depth="6" NCoef="0" IVar="-1" Cut="0.0000000000000000e+00" cType="1" res="-8.3702495321631432e-03" rms="2.4781082570552826e-01" purity="7.0292472839355469e-02" nType="-99"/>
                </Node>
              </Node>
              <Node pos="r" depth="4" NCoef="0" IVar="2" Cut="1.1375134277343750e+02" cType="1" res="-4.6445834450423717e-03" rms="3.3564177155494690e-01" purity="1.5031085908412933e-01" nType="0">
                <Node pos="l" depth="5" NCoef="0" IVar="-1" Cut="0.0000000000000000e+00" cType="1" res="2.7146032080054283e-03" rms="3.8095650076866150e-01" purity="2.2438725829124451e-01" nType="-99"/>
                <Node pos="r" depth="5" NCoef="0" IVar="3" Cut="3.0267438292503357e-01" cType="1" res="-7.0794988423585892e-03" rms="3.3005523681640625e-01" purity="1.4196069538593292e-01" nType="0">
                  <Node pos="l" depth="6" NCoef="0" IVar="5" Cut="6.0000000000000000e+00" cType="1" res="3.5222467035055161e-02" rms="6.0515895485877991e-02" purity="3.7850506603717804e-02" nType="0">
                    <Node pos="l" depth="7" NCoef="0" IVar="-1" Cut="0.0000000000000000e+00" cType="1" res="-2.4166423827409744e-03" rms="2.3710000514984131e-01" purity="6.3376136124134064e-02" nType="-99"/>
                    <Node pos="r" depth="7" NCoef="0" IVar="-1" Cut="0.0000000000000000e+00" cType="1" res="-1.6732100397348404e-02" rms="1.4966453611850739e-01" purity="2.3052476346492767e-02" nType="-99"/>
                  </Node>
                  <Node pos="r" depth="6" NCoef="0" IVar="5" Cut="6.0000000000000000e+00" cType="1" res="-2.6142862625420094e-03" rms="3.7178009748458862e-01" purity="1.8326386809349060e-01" nType="0">
                    <Node pos="l" depth="7" NCoef="0" IVar="-1" Cut="0.0000000000000000e+00" cType="1" res="-1.3098821509629488e-03" rms="3.7900653481483459e-01" purity="1.9134473800659180e-01" nType="-99"/>
                    <Node pos="r" depth="7" NCoef="0" IVar="-1" Cut="0.0000000000000000e+00" cType="1" res="3.6962090525776148e-03" rms="3.4177252650260925e-01" purity="1.5190057456493378e-01" nType="-99"/>
                  </Node>
                </Node>
              </Node>
            </Node>
          </Node>
          <Node pos="r" depth="2" NCoef="0" IVar="2" Cut="2.7224468994140625e+02" cType="1" res="7.4981208890676498e-03" rms="3.7588360905647278e-01" purity="1.8846859037876129e-01" nType="0">
            <Node pos="l" depth="3" NCoef="0" IVar="-1" Cut="0.0000000000000000e+00" cType="1" res="3.6362786777317524e-03" rms="3.9894744753837585e-01" purity="2.2403314709663391e-01" nType="-99"/>
            <Node pos="r" depth="3" NCoef="0" IVar="3" Cut="1.4929167926311493e-01" cType="1" res="3.8128737360239029e-03" rms="3.6979180574417114e-01" purity="1.7956343293190002e-01" nType="0">
              <Node pos="l" depth="4" NCoef="0" IVar="-1" Cut="0.0000000000000000e+00" cType="1" res="4.3624797835946083e-03" rms="3.9199671149253845e-01" purity="2.1097533404827118e-01" nType="-99"/>
              <Node pos="r" depth="4" NCoef="0" IVar="0" Cut="8.2720440626144409e-01" cType="1" res="-1.3713425723835826e-03" rms="3.6378982663154602e-01" purity="1.7163482308387756e-01" nType="0">
                <Node pos="l" depth="5" NCoef="0" IVar="5" Cut="6.0000000000000000e+00" cType="1" res="8.3718020468950272e-03" rms="3.6360046267509460e-01" purity="2.2910305857658386e-01" nType="0">
                  <Node pos="l" depth="6" NCoef="0" IVar="3" Cut="3.9829725027084351e-01" cType="1" res="2.8825581539422274e-03" rms="4.2203933000564575e-01" purity="2.5104182958602905e-01" nType="0">
                    <Node pos="l" depth="7" NCoef="0" IVar="-1" Cut="0.0000000000000000e+00" cType="1" res="3.2455555628985167e-04" rms="3.9742162823677063e-01" purity="2.0992290973663330e-01" nType="-99"/>
                    <Node pos="r" depth="7" NCoef="0" IVar="-1" Cut="0.0000000000000000e+00" cType="1" res="4.4824462383985519e-04" rms="4.4541391730308533e-01" purity="2.9237392544746399e-01" nType="-99"/>
                  </Node>
                  <Node pos="r" depth="6" NCoef="0" IVar="-1" Cut="0.0000000000000000e+00" cType="1" res="3.5030462313443422e-03" rms="3.8593333959579468e-01" purity="1.8880808353424072e-01" nType="-99"/>
                </Node>
                <Node pos="r" depth="5" NCoef="0" IVar="2" Cut="5.9781762695312500e+02" cType="1" res="-1.5018181875348091e-02" rms="2.8833547234535217e-01" purity="9.2609718441963196e-02" nType="0">
                  <Node pos="l" depth="6" NCoef="0" IVar="-1" Cut="0.0000000000000000e+00" cType="1" res="-6.7298319190740585e-03" rms="2.7471420168876648e-01" purity="8.3558008074760437e-02" nType="-99"/>
                  <Node pos="r" depth="6" NCoef="0" IVar="-1" Cut="0.0000000000000000e+00" cType="1" res="-2.5781157892197371e-03" rms="3.0138546228408813e-01" purity="1.0177412629127502e-01" nType="-99"/>
                </Node>
              </Node>
            </Node>
          </Node>
        </Node>
        <Node pos="r" depth="1" NCoef="0" IVar="0" Cut="7.9670566320419312e-01" cType="1" res="1.0387709364295006e-02" rms="4.4367614388465881e-01" purity="6.6993081569671631e-01" nType="0">
          <Node pos="l" depth="2" NCoef="0" IVar="0" Cut="1.7979152500629425e-01" cType="1" res="1.1864811182022095e-02" rms="4.4324126839637756e-01" purity="6.7858320474624634e-01" nType="0">
            <Node pos="l" depth="3" NCoef="0" IVar="3" Cut="8.7183725833892822e-01" cType="1" res="1.5637353062629700e-02" rms="4.3309730291366577e-01" purity="7.3035895824432373e-01" nType="0">
              <Node pos="l" depth="4" NCoef="0" IVar="4" Cut="1.0037749260663986e-01" cType="1" res="1.1787032708525658e-02" rms="4.7443920373916626e-01" purity="6.3183832168579102e-01" nType="0">
                <Node pos="l" depth="5" NCoef="0" IVar="4" Cut="4.5495092868804932e-02" cType="1" res="7.8298496082425117e-03" rms="4.7185802459716797e-01" purity="6.4556509256362915e-01" nType="0">
                  <Node pos="l" depth="6" NCoef="0" IVar="2" Cut="7.8506568908691406e+01" cType="1" res="-1.4316866872832179e-03" rms="4.7034257650375366e-01" purity="6.5501588582992554e-01" nType="0">
                    <Node pos="l" depth="7" NCoef="0" IVar="-1" Cut="0.0000000000000000e+00" cType="1" res="5.7031243341043591e-04" rms="4.6550136804580688e-01" purity="6.6797828674316406e-01" nType="-99"/>
                    <Node pos="r" depth="7" NCoef="0" IVar="-1" Cut="0.0000000000000000e+00" cType="1" res="-1.6607190482318401e-03" rms="4.7976756095886230e-01" purity="6.2826657295227051e-01" nType="-99"/>
                  </Node>
                  <Node pos="r" depth="6" NCoef="0" IVar="3" Cut="7.9610931873321533e-01" cType="1" res="1.5112507157027721e-02" rms="4.7291889786720276e-01" purity="6.3813352584838867e-01" nType="0">
                    <Node pos="l" depth="7" NCoef="0" IVar="-1" Cut="0.0000000000000000e+00" cType="1" res="7.6603720663115382e-04" rms="4.8334550857543945e-01" purity="5.9775829315185547e-01" nType="-99"/>
                    <Node pos="r" depth="7" NCoef="0" IVar="-1" Cut="0.0000000000000000e+00" cType="1" res="2.0898077636957169e-03" rms="4.5725443959236145e-01" purity="6.9659548997879028e-01" nType="-99"/>
                  </Node>
                </Node>
                <Node pos="r" depth="5" NCoef="0" IVar="3" Cut="6.6260331869125366e-01" cType="1" res="3.7259537726640701e-02" rms="4.8996493220329285e-01" purity="5.4347902536392212e-01" nType="0">
                  <Node pos="l" depth="6" NCoef="0" IVar="-1" Cut="0.0000000000000000e+00" cType="1" res="1.9098167540505528e-03" rms="4.9401402473449707e-01" purity="4.9007502198219299e-01" nType="-99"/>
                  <Node pos="r" depth="6" NCoef="0" IVar="-1" Cut="0.0000000000000000e+00" cType="1" res="4.4522364623844624e-03" rms="4.8442208766937256e-01" purity="6.0791754722595215e-01" nType="-99"/>
                </Node>
              </Node>
              <Node pos="r" depth="4" NCoef="0" IVar="1" Cut="9.2064899206161499e-01" cType="1" res="1.7681136727333069e-02" rms="4.0944552421569824e-01" purity="7.8265458345413208e-01" nType="0">
                <Node pos="l" depth="5" NCoef="0" IVar="1" Cut="1.4352825284004211e-01" cType="1" res="1.8605699762701988e-02" rms="4.0526852011680603e-01" purity="7.9056471586227417e-01" nType="0">
                  <Node pos="l" depth="6" NCoef="0" IVar="1" Cut="-1.2986892461776733e-01" cType="1" res="2.0350681617856026e-02" rms="3.9634683728218079e-01" purity="8.0348330736160278e-01" nType="0">
                    <Node pos="l" depth="7" NCoef="0" IVar="-1" Cut="0.0000000000000000e+00" cType="1" res="1.4328142860904336e-03" rms="4.0096208453178406e-01" purity="7.9756796360015869e-01" nType="-99"/>
                    <Node pos="r" depth="7" NCoef="0" IVar="-1" Cut="0.0000000000000000e+00" cType="1" res="2.8053140267729759e-03" rms="3.9386829733848572e-01" purity="8.0656194686889648e-01" nType="-99"/>
                  </Node>
                  <Node pos="r" depth="6" NCoef="0" IVar="1" Cut="5.4450815916061401e-01" cType="1" res="1.4775155112147331e-02" rms="4.2417043447494507e-01" purity="7.6220619678497314e-01" nType="0">
                    <Node pos="l" depth="7" NCoef="0" IVar="-1" Cut="0.0000000000000000e+00" cType="1" res="1.2479714350774884e-03" rms="4.1940855979919434e-01" purity="7.7050548791885376e-01" nType="-99"/>
                    <Node pos="r" depth="7" NCoef="0" IVar="-1" Cut="0.0000000000000000e+00" cType="1" res="2.3649993818253279e-03" rms="4.4106027483940125e-01" purity="7.3169076442718506e-01" nType="-99"/>
                  </Node>
                </Node>
                <Node pos="r" depth="5" NCoef="0" IVar="-1" Cut="0.0000000000000000e+00" cType="1" res="1.6979149950202554e-04" rms="4.7456631064414978e-01" purity="6.4823591709136963e-01" nType="-99"/>
              </Node>
            </Node>
            <Node pos="r" depth="3" NCoef="0" IVar="2" Cut="3.2852670288085938e+02" cType="1" res="-1.6850217944011092e-03" rms="4.7765758633613586e-01" purity="4.9262046813964844e-01" nType="0">
              <Node pos="l" depth="4" NCoef="0" IVar="4" Cut="4.2183253914117813e-02" cType="1" res="1.4460004167631269e-03" rms="4.7836673259735107e-01" purity="5.0474315881729126e-01" nType="0">
                <Node pos="l" depth="5" NCoef="0" IVar="2" Cut="3.1097764968872070e+01" cType="1" res="-8.3750430494546890e-03" rms="4.7348472476005554e-01" purity="5.3863656520843506e-01" nType="0">
                  <Node pos="l" depth="6" NCoef="0" IVar="3" Cut="9.6290534734725952e-01" cType="1" res="7.2040795348584652e-03" rms="4.7037592530250549e-01" purity="6.2224560976028442e-01" nType="0">
                    <Node pos="l" depth="7" NCoef="0" IVar="-1" Cut="0.0000000000000000e+00" cType="1" res="1.6935288440436125e-03" rms="4.7933241724967957e-01" purity="5.4591178894042969e-01" nType="-99"/>
                    <Node pos="r" depth="7" NCoef="0" IVar="-1" Cut="0.0000000000000000e+00" cType="1" res="-6.3396852056030184e-05" rms="4.6388539671897888e-01" purity="6.7530280351638794e-01" nType="-99"/>
                  </Node>
                  <Node pos="r" depth="6" NCoef="0" IVar="4" Cut="2.8402416035532951e-02" cType="1" res="-2.1417861804366112e-02" rms="4.7567957639694214e-01" purity="4.6863919496536255e-01" nType="0">
                    <Node pos="l" depth="7" NCoef="0" IVar="-1" Cut="0.0000000000000000e+00" cType="1" res="-4.5866598375141621e-03" rms="4.7316280007362366e-01" purity="4.4009736180305481e-01" nType="-99"/>
                    <Node pos="r" depth="7" NCoef="0" IVar="-1" Cut="0.0000000000000000e+00" cType="1" res="-5.4285908117890358e-04" rms="4.7661462426185608e-01" purity="4.8688262701034546e-01" nType="-99"/>
                  </Node>
                </Node>
                <Node pos="r" depth="5" NCoef="0" IVar="2" Cut="7.3809722900390625e+01" cType="1" res="1.0522882454097271e-02" rms="4.8265728354454041e-01" purity="4.7341793775558472e-01" nType="0">
                  <Node pos="l" depth="6" NCoef="0" IVar="-1" Cut="0.0000000000000000e+00" cType="1" res="2.8993270825594664e-03" rms="4.8061627149581909e-01" purity="5.5385351181030273e-01" nType="-99"/>
                  <Node pos="r" depth="6" NCoef="0" IVar="4" Cut="8.0284796655178070e-02" cType="1" res="4.8794136382639408e-03" rms="4.8296573758125305e-01" purity="4.5441412925720215e-01" nType="0">
                    <Node pos="l" depth="7" NCoef="0" IVar="-1" Cut="0.0000000000000000e+00" cType="1" res="-1.9393727416172624e-04" rms="4.8088356852531433e-01" purity="4.5561832189559937e-01" nType="-99"/>
                    <Node pos="r" depth="7" NCoef="0" IVar="-1" Cut="0.0000000000000000e+00" cType="1" res="2.2296374663710594e-03" rms="4.8824980854988098e-01" purity="4.5102995634078979e-01" nType="-99"/>
                  </Node>
                </Node>
              </Node>
              <Node pos="r" depth="4" NCoef="0" IVar="-1" Cut="0.0000000000000000e+00" cType="1" res="-4.3407492339611053e-03" rms="4.6668097376823425e-01" purity="3.3801990747451782e-01" nType="-99"/>
            </Node>
          </Node>
          <Node pos="r" depth="2" NCoef="0" IVar="-1" Cut="0.0000000000000000e+00" cType="1" res="-5.1173819229006767e-03" rms="4.5699498057365417e-01" purity="3.1771188974380493e-01" nType="-99"/>
        </Node>
      </Node>
    </BinaryTree>
    <BinaryTree type="DecisionTree" boostWeight="1.0000000000000000e+00" itree="80">
      <Node pos="s" depth="0" NCoef="0" IVar="2" Cut="1.9370317077636719e+02" cType="1" res="3.8488402497023344e-03" rms="4.1069877147674561e-01" purity="4.9882838129997253e-01" nType="0">
        <Node pos="l" depth="1" NCoef="0" IVar="2" Cut="5.6236186981201172e+01" cType="1" res="8.5336482152342796e-03" rms="4.2077103257179260e-01" purity="5.9578067064285278e-01" nType="0">
          <Node pos="l" depth="2" NCoef="0" IVar="4" Cut="2.0536465570330620e-02" cType="1" res="1.2914511375129223e-02" rms="4.1928216814994812e-01" purity="7.1103405952453613e-01" nType="0">
            <Node pos="l" depth="3" NCoef="0" IVar="4" Cut="6.6236924612894654e-04" cType="1" res="1.0862622410058975e-02" rms="4.1508030891418457e-01" purity="7.4679690599441528e-01" nType="0">
              <Node pos="l" depth="4" NCoef="0" IVar="2" Cut="3.9966666698455811e-01" cType="1" res="1.4127769507467747e-02" rms="4.1038605570793152e-01" purity="7.7842545509338379e-01" nType="0">
                <Node pos="l" depth="5" NCoef="0" IVar="4" Cut="2.1325202396837994e-05" cType="1" res="1.6162196174263954e-02" rms="4.0805283188819885e-01" purity="7.8237539529800415e-01" nType="0">
                  <Node pos="l" depth="6" NCoef="0" IVar="2" Cut="2.3571748286485672e-02" cType="1" res="2.3136150091886520e-02" rms="4.0201979875564575e-01" purity="7.9186767339706421e-01" nType="0">
                    <Node pos="l" depth="7" NCoef="0" IVar="-1" Cut="0.0000000000000000e+00" cType="1" res="6.8421667674556375e-04" rms="4.1326600313186646e-01" purity="7.7820247411727905e-01" nType="-99"/>
                    <Node pos="r" depth="7" NCoef="0" IVar="-1" Cut="0.0000000000000000e+00" cType="1" res="3.1422935426235199e-03" rms="3.9788842201232910e-01" purity="7.9660236835479736e-01" nType="-99"/>
                  </Node>
                  <Node pos="r" depth="6" NCoef="0" IVar="4" Cut="2.6890862500295043e-04" cType="1" res="1.4008840546011925e-02" rms="4.0987375378608704e-01" purity="7.7944439649581909e-01" nType="0">
                    <Node pos="l" depth="7" NCoef="0" IVar="-1" Cut="0.0000000000000000e+00" cType="1" res="1.6356073319911957e-03" rms="4.0832349658012390e-01" purity="7.8212773799896240e-01" nType="-99"/>
                    <Node pos="r" depth="7" NCoef="0" IVar="-1" Cut="0.0000000000000000e+00" cType="1" res="-2.1894255769439042e-04" rms="4.3108591437339783e-01" purity="7.4109727144241333e-01" nType="-99"/>
                  </Node>
                </Node>
                <Node pos="r" depth="5" NCoef="0" IVar="-1" Cut="0.0000000000000000e+00" cType="1" res="-1.8524449551478028e-03" rms="4.4353231787681580e-01" purity="7.1772652864456177e-01" nType="-99"/>
              </Node>
              <Node pos="r" depth="4" NCoef="0" IVar="4" Cut="1.2841592542827129e-02" cType="1" res="-1.0542215779423714e-02" rms="4.4403386116027832e-01" purity="5.3945434093475342e-01" nType="0">
                <Node pos="l" depth="5" NCoef="0" IVar="3" Cut="8.4923499822616577e-01" cType="1" res="-2.4890787899494171e-02" rms="4.4641330838203430e-01" purity="5.3983044624328613e-01" nType="0">
                  <Node pos="l" depth="6" NCoef="0" IVar="-1" Cut="0.0000000000000000e+00" cType="1" res="-3.4356121905148029e-03" rms="4.3723297119140625e-01" purity="4.1300392150878906e-01" nType="-99"/>
                  <Node pos="r" depth="6" NCoef="0" IVar="-1" Cut="0.0000000000000000e+00" cType="1" res="-1.8582864431664348e-03" rms="4.5677733421325684e-01" purity="6.8729901313781738e-01" nType="-99"/>
                </Node>
                <Node pos="r" depth="5" NCoef="0" IVar="2" Cut="2.7844474792480469e+01" cType="1" res="6.8919775076210499e-03" rms="4.4049692153930664e-01" purity="5.3899735212326050e-01" nType="0">
                  <Node pos="l" depth="6" NCoef="0" IVar="-1" Cut="0.0000000000000000e+00" cType="1" res="1.2237656628713012e-03" rms="4.4936829805374146e-01" purity="5.5439728498458862e-01" nType="-99"/>
                  <Node pos="r" depth="6" NCoef="0" IVar="-1" Cut="0.0000000000000000e+00" cType="1" res="2.0571802451740950e-04" rms="4.3126058578491211e-01" purity="5.2339017391204834e-01" nType="-99"/>
                </Node>
              </Node>
            </Node>
            <Node pos="r" depth="3" NCoef="0" IVar="3" Cut="4.8788097500801086e-01" cType="1" res="2.2050619125366211e-02" rms="4.3738463521003723e-01" purity="5.5179864168167114e-01" nType="0">
              <Node pos="l" depth="4" NCoef="0" IVar="-1" Cut="0.0000000000000000e+00" cType="1" res="2.5914961588568985e-04" rms="2.8356149792671204e-01" purity="9.7490519285202026e-02" nType="-99"/>
              <Node pos="r" depth="4" NCoef="0" IVar="1" Cut="1.2338072061538696e-01" cType="1" res="2.5591352954506874e-02" rms="4.5792150497436523e-01" purity="6.2748205661773682e-01" nType="0">
                <Node pos="l" depth="5" NCoef="0" IVar="2" Cut="4.0391902923583984e+01" cType="1" res="3.1331550329923630e-02" rms="4.5133572816848755e-01" purity="6.8020492792129517e-01" nType="0">
                  <Node pos="l" depth="6" NCoef="0" IVar="-1" Cut="0.0000000000000000e+00" cType="1" res="3.6448065657168627e-03" rms="4.4753941893577576e-01" purity="6.9492816925048828e-01" nType="-99"/>
                  <Node pos="r" depth="6" NCoef="0" IVar="-1" Cut="0.0000000000000000e+00" cType="1" res="1.8382299458608031e-03" rms="4.5526757836341858e-01" purity="6.6376936435699463e-01" nType="-99"/>
                </Node>
                <Node pos="r" depth="5" NCoef="0" IVar="2" Cut="3.8842823028564453e+01" cType="1" res="1.5795899555087090e-02" rms="4.6878409385681152e-01" purity="5.3751230239868164e-01" nType="0">
                  <Node pos="l" depth="6" NCoef="0" IVar="-1" Cut="0.0000000000000000e+00" cType="1" res="-7.1656343061476946e-04" rms="4.7692736983299255e-01" purity="5.1463216543197632e-01" nType="-99"/>
                  <Node pos="r" depth="6" NCoef="0" IVar="-1" Cut="0.0000000000000000e+00" cType="1" res="3.2978178933262825e-03" rms="4.6057644486427307e-01" purity="5.5742561817169189e-01" nType="-99"/>
                </Node>
              </Node>
            </Node>
          </Node>
          <Node pos="r" depth="2" NCoef="0" IVar="4" Cut="6.1398319900035858e-02" cType="1" res="2.2933254949748516e-03" rms="4.2280444502830505e-01" purity="4.3160805106163025e-01" nType="0">
            <Node pos="l" depth="3" NCoef="0" IVar="4" Cut="2.3357538506388664e-02" cType="1" res="-4.8545850440859795e-03" rms="4.2847305536270142e-01" purity="4.8766997456550598e-01" nType="0">
              <Node pos="l" depth="4" NCoef="0" IVar="-1" Cut="0.0000000000000000e+00" cType="1" res="-3.4893250558525324e-03" rms="4.2858481407165527e-01" purity="4.9057987332344055e-01" nType="-99"/>
              <Node pos="r" depth="4" NCoef="0" IVar="3" Cut="8.3976715803146362e-01" cType="1" res="-1.9501012284308672e-03" rms="4.2836761474609375e-01" purity="4.8732149600982666e-01" nType="0">
                <Node pos="l" depth="5" NCoef="0" IVar="4" Cut="3.9309848099946976e-02" cType="1" res="-7.2355098091065884e-03" rms="4.1894769668579102e-01" purity="3.7407901883125305e-01" nType="0">
                  <Node pos="l" depth="6" NCoef="0" IVar="2" Cut="1.2712229919433594e+02" cType="1" res="-1.6496077179908752e-02" rms="4.1617453098297119e-01" purity="3.4683677554130554e-01" nType="0">
                    <Node pos="l" depth="7" NCoef="0" IVar="-1" Cut="0.0000000000000000e+00" cType="1" res="-1.2584811775013804e-03" rms="4.1986075043678284e-01" purity="3.5931235551834106e-01" nType="-99"/>
                    <Node pos="r" depth="7" NCoef="0" IVar="-1" Cut="0.0000000000000000e+00" cType="1" res="-4.1572973132133484e-03" rms="4.0704786777496338e-01" purity="3.1763705611228943e-01" nType="-99"/>
                  </Node>
                  <Node pos="r" depth="6" NCoef="0" IVar="3" Cut="5.9638118743896484e-01" cType="1" res="-1.9731014035642147e-03" rms="4.2042455077171326e-01" purity="3.8955974578857422e-01" nType="0">
                    <Node pos="l" depth="7" NCoef="0" IVar="-1" Cut="0.0000000000000000e+00" cType="1" res="-3.2100398093461990e-03" rms="2.9501694440841675e-01" purity="1.1151766777038574e-01" nType="-99"/>
                    <Node pos="r" depth="7" NCoef="0" IVar="-1" Cut="0.0000000000000000e+00" cType="1" res="3.7965780938975513e-04" rms="4.8037973046302795e-01" purity="5.5724138021469116e-01" nType="-99"/>
                  </Node>
                </Node>
                <Node pos="r" depth="5" NCoef="0" IVar="3" Cut="8.7722456455230713e-01" cType="1" res="8.5984505712985992e-03" rms="4.4638708233833313e-01" purity="7.1332943439483643e-01" nType="0">
                  <Node pos="l" depth="6" NCoef="0" IVar="3" Cut="8.5910481214523315e-01" cType="1" res="2.3409957066178322e-03" rms="4.5969825983047485e-01" purity="6.8592649698257446e-01" nType="0">
                    <Node pos="l" depth="7" NCoef="0" IVar="-1" Cut="0.0000000000000000e+00" cType="1" res="1.3285863678902388e-03" rms="4.5969411730766296e-01" purity="6.8645429611206055e-01" nType="-99"/>
                    <Node pos="r" depth="7" NCoef="0" IVar="-1" Cut="0.0000000000000000e+00" cType="1" res="-9.2959840549156070e-04" rms="4.5939263701438904e-01" purity="6.8543308973312378e-01" nType="-99"/>
                  </Node>
                  <Node pos="r" depth="6" NCoef="0" IVar="4" Cut="3.4384191036224365e-02" cType="1" res="1.5075976960361004e-02" rms="4.3208065629005432e-01" purity="7.4169611930847168e-01" nType="0">
                    <Node pos="l" depth="7" NCoef="0" IVar="-1" Cut="0.0000000000000000e+00" cType="1" res="2.1321596577763557e-03" rms="4.2924085259437561e-01" purity="7.4583828449249268e-01" nType="-99"/>
                    <Node pos="r" depth="7" NCoef="0" IVar="-1" Cut="0.0000000000000000e+00" cType="1" res="1.2858475092798471e-03" rms="4.3478897213935852e-01" purity="7.3767894506454468e-01" nType="-99"/>
                  </Node>
                </Node>
              </Node>
            </Node>
            <Node pos="r" depth="3" NCoef="0" IVar="1" Cut="7.3296999931335449e-01" cType="1" res="1.1797453276813030e-02" rms="4.1495668888092041e-01" purity="3.5706606507301331e-01" nType="0">
              <Node pos="l" depth="4" NCoef="0" IVar="1" Cut="-1.0151574015617371e-01" cType="1" res="1.7154676839709282e-02" rms="4.3266165256500244e-01" purity="4.0202388167381287e-01" nType="0">
                <Node pos="l" depth="5" NCoef="0" IVar="2" Cut="1.3605450439453125e+02" cType="1" res="4.1173771023750305e-02" rms="4.5668992400169373e-01" purity="4.8838740587234497e-01" nType="0">
                  <Node pos="l" depth="6" NCoef="0" IVar="-1" Cut="0.0000000000000000e+00" cType="1" res="4.6810470521450043e-03" rms="4.6311619877815247e-01" purity="5.3550684452056885e-01" nType="-99"/>
                  <Node pos="r" depth="6" NCoef="0" IVar="-1" Cut="0.0000000000000000e+00" cType="1" res="2.8269479516893625e-03" rms="4.4742619991302490e-01" purity="4.2461457848548889e-01" nType="-99"/>
                </Node>
                <Node pos="r" depth="5" NCoef="0" IVar="1" Cut="3.3085703849792480e-02" cType="1" res="1.0118866339325905e-02" rms="4.2510929703712463e-01" purity="3.7672582268714905e-01" nType="0">
                  <Node pos="l" depth="6" NCoef="0" IVar="4" Cut="8.7207324802875519e-02" cType="1" res="2.7845118194818497e-02" rms="4.4749745726585388e-01" purity="4.7798046469688416e-01" nType="0">
                    <Node pos="l" depth="7" NCoef="0" IVar="-1" Cut="0.0000000000000000e+00" cType="1" res="4.4646835885941982e-03" rms="4.4579663872718811e-01" purity="5.5667608976364136e-01" nType="-99"/>
                    <Node pos="r" depth="7" NCoef="0" IVar="-1" Cut="0.0000000000000000e+00" cType="1" res="1.1594198876991868e-03" rms="4.4849941134452820e-01" purity="4.0084317326545715e-01" nType="-99"/>
                  </Node>
                  <Node pos="r" depth="6" NCoef="0" IVar="3" Cut="4.8750305175781250e-01" cType="1" res="1.9899052567780018e-03" rms="4.1418454051017761e-01" purity="3.3029210567474365e-01" nType="0">
                    <Node pos="l" depth="7" NCoef="0" IVar="-1" Cut="0.0000000000000000e+00" cType="1" res="-3.7852253299206495e-03" rms="2.9236274957656860e-01" purity="1.0082701593637466e-01" nType="-99"/>
                    <Node pos="r" depth="7" NCoef="0" IVar="-1" Cut="0.0000000000000000e+00" cType="1" res="1.0989034781232476e-03" rms="4.7976371645927429e-01" purity="4.8726159334182739e-01" nType="-99"/>
                  </Node>
                </Node>
              </Node>
              <Node pos="r" depth="4" NCoef="0" IVar="4" Cut="9.4562299549579620e-02" cType="1" res="-1.3501995243132114e-02" rms="3.1708487868309021e-01" purity="1.4475311338901520e-01" nType="0">
                <Node pos="l" depth="5" NCoef="0" IVar="-1" Cut="0.0000000000000000e+00" cType="1" res="-4.0003675967454910e-03" rms="3.1815552711486816e-01" purity="1.5464055538177490e-01" nType="-99"/>
                <Node pos="r" depth="5" NCoef="0" IVar="-1" Cut="0.0000000000000000e+00" cType="1" res="-1.6636260552331805e-03" rms="3.1566718220710754e-01" purity="1.3286510109901428e-01" nType="-99"/>
              </Node>
            </Node>
          </Node>
        </Node>
        <Node pos="r" depth="1" NCoef="0" IVar="2" Cut="5.6861560058593750e+02" cType="1" res="-8.1496955826878548e-03" rms="3.8343724608421326e-01" purity="2.5051832199096680e-01" nType="0">
          <Node pos="l" depth="2" NCoef="0" IVar="3" Cut="6.3474094867706299e-01" cType="1" res="-4.9138478934764862e-03" rms="3.8752922415733337e-01" purity="2.6882851123809814e-01" nType="0">
            <Node pos="l" depth="3" NCoef="0" IVar="4" Cut="8.3009809255599976e-02" cType="1" res="-8.6860824376344681e-03" rms="3.3856600522994995e-01" purity="1.5424835681915283e-01" nType="0">
              <Node pos="l" depth="4" NCoef="0" IVar="2" Cut="2.3114822387695312e+02" cType="1" res="-2.2454176098108292e-02" rms="2.8991037607192993e-01" purity="1.0701425373554230e-01" nType="0">
                <Node pos="l" depth="5" NCoef="0" IVar="-1" Cut="0.0000000000000000e+00" cType="1" res="-5.7537422981113195e-04" rms="3.1138861179351807e-01" purity="1.3038258254528046e-01" nType="-99"/>
                <Node pos="r" depth="5" NCoef="0" IVar="3" Cut="4.5411318540573120e-01" cType="1" res="-3.1959660351276398e-02" rms="2.7866160869598389e-01" purity="9.5950506627559662e-02" nType="0">
                  <Node pos="l" depth="6" NCoef="0" IVar="-1" Cut="0.0000000000000000e+00" cType="1" res="-1.0196727700531483e-02" rms="1.8228921294212341e-01" purity="3.4982480108737946e-02" nType="-99"/>
                  <Node pos="r" depth="6" NCoef="0" IVar="-1" Cut="0.0000000000000000e+00" cType="1" res="-7.1729104965925217e-03" rms="3.5671031475067139e-01" purity="1.6447967290878296e-01" nType="-99"/>
                </Node>
              </Node>
              <Node pos="r" depth="4" NCoef="0" IVar="1" Cut="4.2818191647529602e-01" cType="1" res="-4.8527913168072701e-03" rms="3.5081791877746582e-01" purity="1.6739919781684875e-01" nType="0">
                <Node pos="l" depth="5" NCoef="0" IVar="2" Cut="3.6300823974609375e+02" cType="1" res="3.6143325269222260e-04" rms="3.7372556328773499e-01" purity="1.9650699198246002e-01" nType="0">
                  <Node pos="l" depth="6" NCoef="0" IVar="3" Cut="5.3363609313964844e-01" cType="1" res="7.0918733254075050e-03" rms="3.8506436347961426e-01" purity="2.1180072426795959e-01" nType="0">
                    <Node pos="l" depth="7" NCoef="0" IVar="-1" Cut="0.0000000000000000e+00" cType="1" res="4.8759064520709217e-04" rms="3.5143133997917175e-01" purity="1.5733860433101654e-01" nType="-99"/>
                    <Node pos="r" depth="7" NCoef="0" IVar="-1" Cut="0.0000000000000000e+00" cType="1" res="2.3497163783758879e-03" rms="4.8397487401962280e-01" purity="4.0157929062843323e-01" nType="-99"/>
                  </Node>
                  <Node pos="r" depth="6" NCoef="0" IVar="4" Cut="1.2963381409645081e-01" cType="1" res="-7.6467180624604225e-03" rms="3.5960483551025391e-01" purity="1.7830990254878998e-01" nType="0">
                    <Node pos="l" depth="7" NCoef="0" IVar="-1" Cut="0.0000000000000000e+00" cType="1" res="-3.4677984658628702e-03" rms="3.4500813484191895e-01" purity="1.6221253573894501e-01" nType="-99"/>
                    <Node pos="r" depth="7" NCoef="0" IVar="-1" Cut="0.0000000000000000e+00" cType="1" res="-2.6022004021797329e-05" rms="3.6947196722030640e-01" purity="1.8978096544742584e-01" nType="-99"/>
                  </Node>
                </Node>
                <Node pos="r" depth="5" NCoef="0" IVar="3" Cut="4.3055438995361328e-01" cType="1" res="-1.6131147742271423e-02" rms="2.9493504762649536e-01" purity="1.0443913936614990e-01" nType="0">
                  <Node pos="l" depth="6" NCoef="0" IVar="2" Cut="3.2674856567382812e+02" cType="1" res="-1.0697710327804089e-02" rms="2.4703869223594666e-01" purity="6.7960873246192932e-02" nType="0">
                    <Node pos="l" depth="7" NCoef="0" IVar="-1" Cut="0.0000000000000000e+00" cType="1" res="-6.9342744536697865e-03" rms="2.3858186602592468e-01" purity="6.2957733869552612e-02" nType="-99"/>
                    <Node pos="r" depth="7" NCoef="0" IVar="-1" Cut="0.0000000000000000e+00" cType="1" res="-2.4431780911982059e-03" rms="2.5320228934288025e-01" purity="7.1782037615776062e-02" nType="-99"/>
                  </Node>
                  <Node pos="r" depth="6" NCoef="0" IVar="-1" Cut="0.0000000000000000e+00" cType="1" res="-4.5119100250303745e-03" rms="3.8819503784179688e-01" purity="1.9431987404823303e-01" nType="-99"/>
                </Node>
              </Node>
            </Node>
            <Node pos="r" depth="3" NCoef="0" IVar="2" Cut="2.5417387390136719e+02" cType="1" res="3.9559556171298027e-03" rms="4.8338541388511658e-01" purity="5.3824526071548462e-01" nType="0">
              <Node pos="l" depth="4" NCoef="0" IVar="2" Cut="2.1321105957031250e+02" cType="1" res="1.3809659518301487e-02" rms="4.8006442189216614e-01" purity="5.7230144739151001e-01" nType="0">
                <Node pos="l" depth="5" NCoef="0" IVar="-1" Cut="0.0000000000000000e+00" cType="1" res="2.2506017703562975e-03" rms="4.8127979040145874e-01" purity="5.9157454967498779e-01" nType="-99"/>
                <Node pos="r" depth="5" NCoef="0" IVar="-1" Cut="0.0000000000000000e+00" cType="1" res="6.4345065038651228e-04" rms="4.7918701171875000e-01" purity="5.6040716171264648e-01" nType="-99"/>
              </Node>
              <Node pos="r" depth="4" NCoef="0" IVar="3" Cut="7.0493292808532715e-01" cType="1" res="-3.7360291462391615e-03" rms="4.8582318425178528e-01" purity="5.1166033744812012e-01" nType="0">
                <Node pos="l" depth="5" NCoef="0" IVar="-1" Cut="0.0000000000000000e+00" cType="1" res="7.2798051405698061e-04" rms="4.8808971047401428e-01" purity="4.5162358880043030e-01" nType="-99"/>
                <Node pos="r" depth="5" NCoef="0" IVar="3" Cut="7.7279406785964966e-01" cType="1" res="-1.1366670019924641e-02" rms="4.8416417837142944e-01" purity="5.5145490169525146e-01" nType="0">
                  <Node pos="l" depth="6" NCoef="0" IVar="-1" Cut="0.0000000000000000e+00" cType="1" res="4.1581157711334527e-04" rms="4.9220877885818481e-01" purity="5.3556329011917114e-01" nType="-99"/>
                  <Node pos="r" depth="6" NCoef="0" IVar="-1" Cut="0.0000000000000000e+00" cType="1" res="-2.9493395704776049e-03" rms="4.7385540604591370e-01" purity="5.7012677192687988e-01" nType="-99"/>
                </Node>
              </Node>
            </Node>
          </Node>
          <Node pos="r" depth="2" NCoef="0" IVar="3" Cut="4.9068346619606018e-01" cType="1" res="-2.1110352128744125e-02" rms="3.6630356311798096e-01" purity="1.7717994749546051e-01" nType="0">
            <Node pos="l" depth="3" NCoef="0" IVar="3" Cut="3.1980350613594055e-01" cType="1" res="-8.7752575054764748e-03" rms="3.4473016858100891e-01" purity="1.4993733167648315e-01" nType="0">
              <Node pos="l" depth="4" NCoef="0" IVar="5" Cut="7.0000000000000000e+00" cType="1" res="1.1804638057947159e-01" rms="0.0000000000000000e+00" purity="1.5306322276592255e-01" nType="0">
                <Node pos="l" depth="5" NCoef="0" IVar="-1" Cut="0.0000000000000000e+00" cType="1" res="2.6817640755325556e-03" rms="3.7454891204833984e-01" purity="1.9261068105697632e-01" nType="-99"/>
                <Node pos="r" depth="5" NCoef="0" IVar="-1" Cut="0.0000000000000000e+00" cType="1" res="-3.1318578403443098e-03" rms="3.0961051583290100e-01" purity="1.1275586485862732e-01" nType="-99"/>
              </Node>
              <Node pos="r" depth="4" NCoef="0" IVar="-1" Cut="0.0000000000000000e+00" cType="1" res="-5.1199058070778847e-03" rms="3.4496119618415833e-01" purity="1.4399853348731995e-01" nType="-99"/>
            </Node>
            <Node pos="r" depth="3" NCoef="0" IVar="-1" Cut="0.0000000000000000e+00" cType="1" res="-8.2045793533325195e-03" rms="4.4681096076965332e-01" purity="3.0016654729843140e-01" nType="-99"/>
          </Node>
        </Node>
      </Node>
    </BinaryTree>
    <BinaryTree type="DecisionTree" boostWeight="1.0000000000000000e+00" itree="81">
      <Node pos="s" depth="0" NCoef="0" IVar="1" Cut="5.0828151702880859e+00" cType="1" res="4.3534594587981701e-03" rms="4.1054096817970276e-01" purity="4.9997708201408386e-01" nType="0">
        <Node pos="l" depth="1" NCoef="0" IVar="1" Cut="1.6784092187881470e+00" cType="1" res="3.5516126081347466e-03" rms="4.1095969080924988e-01" purity="5.0114297866821289e-01" nType="0">
          <Node pos="l" depth="2" NCoef="0" IVar="3" Cut="5.8000195026397705e-01" cType="1" res="4.8099281266331673e-03" rms="4.1227829456329346e-01" purity="5.0926047563552856e-01" nType="0">
            <Node pos="l" depth="3" NCoef="0" IVar="1" Cut="8.6168423295021057e-02" cType="1" res="-6.3018114306032658e-03" rms="3.3333700895309448e-01" purity="1.4690464735031128e-01" nType="0">
              <Node pos="l" depth="4" NCoef="0" IVar="2" Cut="3.5504080200195312e+02" cType="1" res="1.4548941981047392e-03" rms="3.7581583857536316e-01" purity="1.9813302159309387e-01" nType="0">
                <Node pos="l" depth="5" NCoef="0" IVar="5" Cut="4.0000000000000000e+00" cType="1" res="6.9450666196644306e-03" rms="3.8346627354621887e-01" purity="2.1233867108821869e-01" nType="0">
                  <Node pos="l" depth="6" NCoef="0" IVar="-1" Cut="0.0000000000000000e+00" cType="1" res="-1.0963606182485819e-03" rms="4.1138643026351929e-01" purity="2.3671858012676239e-01" nType="-99"/>
                  <Node pos="r" depth="6" NCoef="0" IVar="3" Cut="2.9980772733688354e-01" cType="1" res="1.1642087250947952e-02" rms="3.7399160861968994e-01" purity="2.0454804599285126e-01" nType="0">
                    <Node pos="l" depth="7" NCoef="0" IVar="-1" Cut="0.0000000000000000e+00" cType="1" res="-8.1714810803532600e-03" rms="2.3684698343276978e-01" purity="6.3364945352077484e-02" nType="-99"/>
                    <Node pos="r" depth="7" NCoef="0" IVar="-1" Cut="0.0000000000000000e+00" cType="1" res="3.1473573762923479e-03" rms="4.0510988235473633e-01" purity="2.4603959918022156e-01" nType="-99"/>
                  </Node>
                </Node>
                <Node pos="r" depth="5" NCoef="0" IVar="3" Cut="2.2493714094161987e-01" cType="1" res="-7.5104855932295322e-03" rms="3.6275187134742737e-01" purity="1.7487373948097229e-01" nType="0">
                  <Node pos="l" depth="6" NCoef="0" IVar="-1" Cut="0.0000000000000000e+00" cType="1" res="3.2674139365553856e-03" rms="3.7688523530960083e-01" purity="1.9873318076133728e-01" nType="-99"/>
                  <Node pos="r" depth="6" NCoef="0" IVar="5" Cut="6.0000000000000000e+00" cType="1" res="-1.5892129391431808e-02" rms="3.5667613148689270e-01" purity="1.6679695248603821e-01" nType="0">
                    <Node pos="l" depth="7" NCoef="0" IVar="-1" Cut="0.0000000000000000e+00" cType="1" res="-3.5710898227989674e-03" rms="3.7183713912963867e-01" purity="1.8525415658950806e-01" nType="-99"/>
                    <Node pos="r" depth="7" NCoef="0" IVar="-1" Cut="0.0000000000000000e+00" cType="1" res="-7.3322840034961700e-04" rms="3.2275643944740295e-01" purity="1.2576587498188019e-01" nType="-99"/>
                  </Node>
                </Node>
              </Node>
              <Node pos="r" depth="4" NCoef="0" IVar="1" Cut="1.0106213092803955e+00" cType="1" res="-1.1254257522523403e-02" rms="3.0301362276077271e-01" purity="1.1419670283794403e-01" nType="0">
                <Node pos="l" depth="5" NCoef="0" IVar="5" Cut="7.0000000000000000e+00" cType="1" res="0.0000000000000000e+00" rms="0.0000000000000000e+00" purity="1.2382574379444122e-01" nType="0">
                  <Node pos="l" depth="6" NCoef="0" IVar="1" Cut="1.7563368380069733e-01" cType="1" res="-1.1480135843157768e-02" rms="3.2594248652458191e-01" purity="1.3544152677059174e-01" nType="0">
                    <Node pos="l" depth="7" NCoef="0" IVar="-1" Cut="0.0000000000000000e+00" cType="1" res="-4.5682997442781925e-03" rms="3.5294124484062195e-01" purity="1.6452544927597046e-01" nType="-99"/>
                    <Node pos="r" depth="7" NCoef="0" IVar="-1" Cut="0.0000000000000000e+00" cType="1" res="-2.0169480703771114e-03" rms="3.2027277350425720e-01" purity="1.2970271706581116e-01" nType="-99"/>
                  </Node>
                  <Node pos="r" depth="6" NCoef="0" IVar="0" Cut="2.2152087688446045e+00" cType="1" res="7.1490963455289602e-04" rms="2.6470923423767090e-01" purity="8.1020936369895935e-02" nType="0">
                    <Node pos="l" depth="7" NCoef="0" IVar="-1" Cut="0.0000000000000000e+00" cType="1" res="3.8838374894112349e-03" rms="3.0178400874137878e-01" purity="1.0780015587806702e-01" nType="-99"/>
                    <Node pos="r" depth="7" NCoef="0" IVar="-1" Cut="0.0000000000000000e+00" cType="1" res="-1.2133544310927391e-02" rms="1.7939215898513794e-01" purity="3.3547662198543549e-02" nType="-99"/>
                  </Node>
                </Node>
                <Node pos="r" depth="5" NCoef="0" IVar="5" Cut="5.0000000000000000e+00" cType="1" res="-2.3857638239860535e-02" rms="2.3653949797153473e-01" purity="6.3123911619186401e-02" nType="0">
                  <Node pos="l" depth="6" NCoef="0" IVar="-1" Cut="0.0000000000000000e+00" cType="1" res="-1.0006143711507320e-02" rms="2.6259094476699829e-01" purity="7.8781753778457642e-02" nType="-99"/>
                  <Node pos="r" depth="6" NCoef="0" IVar="-1" Cut="0.0000000000000000e+00" cType="1" res="-7.7175744809210300e-03" rms="2.1600095927715302e-01" purity="5.2089426666498184e-02" nType="-99"/>
                </Node>
              </Node>
            </Node>
            <Node pos="r" depth="3" NCoef="0" IVar="0" Cut="7.9670560359954834e-01" cType="1" res="9.8797306418418884e-03" rms="4.4356116652488708e-01" purity="6.7458766698837280e-01" nType="0">
              <Node pos="l" depth="4" NCoef="0" IVar="1" Cut="7.9907643795013428e-01" cType="1" res="1.0992957279086113e-02" rms="4.4314497709274292e-01" purity="6.8240118026733398e-01" nType="0">
                <Node pos="l" depth="5" NCoef="0" IVar="0" Cut="6.1649137735366821e-01" cType="1" res="1.2879674322903156e-02" rms="4.4112905859947205e-01" purity="6.9144749641418457e-01" nType="0">
                  <Node pos="l" depth="6" NCoef="0" IVar="1" Cut="-5.1849480718374252e-02" cType="1" res="1.2367380782961845e-02" rms="4.4046622514724731e-01" purity="6.9631713628768921e-01" nType="0">
                    <Node pos="l" depth="7" NCoef="0" IVar="-1" Cut="0.0000000000000000e+00" cType="1" res="1.6923836665228009e-03" rms="4.3213841319084167e-01" purity="7.2190588712692261e-01" nType="-99"/>
                    <Node pos="r" depth="7" NCoef="0" IVar="-1" Cut="0.0000000000000000e+00" cType="1" res="9.3133054906502366e-04" rms="4.4582930207252502e-01" purity="6.7950105667114258e-01" nType="-99"/>
                  </Node>
                  <Node pos="r" depth="6" NCoef="0" IVar="-1" Cut="0.0000000000000000e+00" cType="1" res="4.0401299484074116e-03" rms="4.7499984502792358e-01" purity="4.2626416683197021e-01" nType="-99"/>
                </Node>
                <Node pos="r" depth="5" NCoef="0" IVar="1" Cut="1.0543593168258667e+00" cType="1" res="-2.3141263052821159e-02" rms="4.7686320543289185e-01" purity="5.1873630285263062e-01" nType="0">
                  <Node pos="l" depth="6" NCoef="0" IVar="-1" Cut="0.0000000000000000e+00" cType="1" res="-9.3634304357692599e-04" rms="4.7314411401748657e-01" purity="5.4644101858139038e-01" nType="-99"/>
                  <Node pos="r" depth="6" NCoef="0" IVar="-1" Cut="0.0000000000000000e+00" cType="1" res="-3.3480550628155470e-03" rms="4.8067319393157959e-01" purity="4.8713627457618713e-01" nType="-99"/>
                </Node>
              </Node>
              <Node pos="r" depth="4" NCoef="0" IVar="-1" Cut="0.0000000000000000e+00" cType="1" res="-4.0132873691618443e-03" rms="4.5890575647354126e-01" purity="3.2888275384902954e-01" nType="-99"/>
            </Node>
          </Node>
          <Node pos="r" depth="2" NCoef="0" IVar="3" Cut="5.7878971099853516e-01" cType="1" res="-3.7755195051431656e-02" rms="3.6262321472167969e-01" purity="2.3466864228248596e-01" nType="0">
            <Node pos="l" depth="3" NCoef="0" IVar="-1" Cut="0.0000000000000000e+00" cType="1" res="-4.7865747474133968e-03" rms="2.5100925564765930e-01" purity="7.1193948388099670e-02" nType="-99"/>
            <Node pos="r" depth="3" NCoef="0" IVar="-1" Cut="0.0000000000000000e+00" cType="1" res="-6.5819085575640202e-03" rms="4.6595248579978943e-01" purity="4.4352915883064270e-01" nType="-99"/>
          </Node>
        </Node>
        <Node pos="r" depth="1" NCoef="0" IVar="-1" Cut="0.0000000000000000e+00" cType="1" res="1.0758941993117332e-02" rms="3.6193343997001648e-01" purity="3.9170506596565247e-01" nType="-99"/>
      </Node>
    </BinaryTree>
    <BinaryTree type="DecisionTree" boostWeight="1.0000000000000000e+00" itree="82">
      <Node pos="s" depth="0" NCoef="0" IVar="3" Cut="7.7301573753356934e-01" cType="1" res="4.9913292750716209e-03" rms="4.1090387105941772e-01" purity="5.0160294771194458e-01" nType="0">
        <Node pos="l" depth="1" NCoef="0" IVar="3" Cut="1.5014205873012543e-01" cType="1" res="-1.7813598969951272e-03" rms="3.9269188046455383e-01" purity="2.6453030109405518e-01" nType="0">
          <Node pos="l" depth="2" NCoef="0" IVar="5" Cut="8.0000000000000000e+00" cType="1" res="1.1114826053380966e-01" rms="2.4632801115512848e-01" purity="1.4698006212711334e-01" nType="0">
            <Node pos="l" depth="3" NCoef="0" IVar="-1" Cut="0.0000000000000000e+00" cType="1" res="7.9596107825636864e-03" rms="3.7681627273559570e-01" purity="2.0138520002365112e-01" nType="-99"/>
            <Node pos="r" depth="3" NCoef="0" IVar="-1" Cut="0.0000000000000000e+00" cType="1" res="-3.4550337586551905e-03" rms="2.8175935149192810e-01" purity="9.3845278024673462e-02" nType="-99"/>
          </Node>
          <Node pos="r" depth="2" NCoef="0" IVar="0" Cut="1.3562297821044922e+00" cType="1" res="-2.6228525675833225e-03" rms="3.9558205008506775e-01" purity="2.7076166868209839e-01" nType="0">
            <Node pos="l" depth="3" NCoef="0" IVar="1" Cut="1.3742886781692505e+00" cType="1" res="4.9411132931709290e-04" rms="4.3431273102760315e-01" purity="3.3686518669128418e-01" nType="0">
              <Node pos="l" depth="4" NCoef="0" IVar="0" Cut="8.7495446205139160e-01" cType="1" res="1.5838948311284184e-03" rms="4.3618229031562805e-01" purity="3.4214881062507629e-01" nType="0">
                <Node pos="l" depth="5" NCoef="0" IVar="5" Cut="5.0000000000000000e+00" cType="1" res="2.7008329052478075e-03" rms="3.8852062821388245e-01" purity="3.8843923807144165e-01" nType="0">
                  <Node pos="l" depth="6" NCoef="0" IVar="3" Cut="7.5293052196502686e-01" cType="1" res="2.5016098516061902e-04" rms="4.6905040740966797e-01" purity="4.2537248134613037e-01" nType="0">
                    <Node pos="l" depth="7" NCoef="0" IVar="-1" Cut="0.0000000000000000e+00" cType="1" res="-1.4890998136252165e-04" rms="4.6790227293968201e-01" purity="4.0799927711486816e-01" nType="-99"/>
                    <Node pos="r" depth="7" NCoef="0" IVar="-1" Cut="0.0000000000000000e+00" cType="1" res="1.6277686227113008e-03" rms="4.8060938715934753e-01" purity="6.0864740610122681e-01" nType="-99"/>
                  </Node>
                  <Node pos="r" depth="6" NCoef="0" IVar="2" Cut="1.6385427856445312e+02" cType="1" res="1.7724459990859032e-02" rms="4.1259256005287170e-01" purity="2.5116607546806335e-01" nType="0">
                    <Node pos="l" depth="7" NCoef="0" IVar="-1" Cut="0.0000000000000000e+00" cType="1" res="4.3607302941381931e-03" rms="4.4417583942413330e-01" purity="3.3045879006385803e-01" nType="-99"/>
                    <Node pos="r" depth="7" NCoef="0" IVar="-1" Cut="0.0000000000000000e+00" cType="1" res="1.7017330974340439e-03" rms="3.9856123924255371e-01" purity="2.1832209825515747e-01" nType="-99"/>
                  </Node>
                </Node>
                <Node pos="r" depth="5" NCoef="0" IVar="2" Cut="1.6254983520507812e+02" cType="1" res="-9.9561857059597969e-03" rms="3.1047233939170837e-01" purity="1.1684224009513855e-01" nType="0">
                  <Node pos="l" depth="6" NCoef="0" IVar="4" Cut="6.3102327287197113e-02" cType="1" res="3.7656738422811031e-03" rms="3.4103086590766907e-01" purity="1.5075497329235077e-01" nType="0">
                    <Node pos="l" depth="7" NCoef="0" IVar="-1" Cut="0.0000000000000000e+00" cType="1" res="-1.9444141071289778e-03" rms="3.1396734714508057e-01" purity="1.2790839374065399e-01" nType="-99"/>
                    <Node pos="r" depth="7" NCoef="0" IVar="-1" Cut="0.0000000000000000e+00" cType="1" res="4.0169241838157177e-03" rms="3.7348347902297974e-01" purity="1.8124413490295410e-01" nType="-99"/>
                  </Node>
                  <Node pos="r" depth="6" NCoef="0" IVar="4" Cut="9.9824100732803345e-02" cType="1" res="-1.9155288115143776e-02" rms="2.8781121969223022e-01" purity="9.4107218086719513e-02" nType="0">
                    <Node pos="l" depth="7" NCoef="0" IVar="-1" Cut="0.0000000000000000e+00" cType="1" res="-9.8074888810515404e-03" rms="2.4737417697906494e-01" purity="6.8388760089874268e-02" nType="-99"/>
                    <Node pos="r" depth="7" NCoef="0" IVar="-1" Cut="0.0000000000000000e+00" cType="1" res="-2.8725606389343739e-03" rms="3.0948242545127869e-01" purity="1.0970138758420944e-01" nType="-99"/>
                  </Node>
                </Node>
              </Node>
              <Node pos="r" depth="4" NCoef="0" IVar="-1" Cut="0.0000000000000000e+00" cType="1" res="-4.2817862704396248e-03" rms="3.8176751136779785e-01" purity="2.0032408833503723e-01" nType="-99"/>
            </Node>
            <Node pos="r" depth="3" NCoef="0" IVar="3" Cut="3.9125123620033264e-01" cType="1" res="-1.2654704973101616e-02" rms="2.3000873625278473e-01" purity="5.8009453117847443e-02" nType="0">
              <Node pos="l" depth="4" NCoef="0" IVar="5" Cut="4.0000000000000000e+00" cType="1" res="-1.0445544496178627e-02" rms="2.1562689542770386e-01" purity="5.0094027072191238e-02" nType="0">
                <Node pos="l" depth="5" NCoef="0" IVar="-1" Cut="0.0000000000000000e+00" cType="1" res="1.2174869189038873e-03" rms="2.9545795917510986e-01" purity="9.8424769937992096e-02" nType="-99"/>
                <Node pos="r" depth="5" NCoef="0" IVar="3" Cut="2.0458613336086273e-01" cType="1" res="-1.2614414095878601e-02" rms="2.0051866769790649e-01" purity="4.2686045169830322e-02" nType="0">
                  <Node pos="l" depth="6" NCoef="0" IVar="-1" Cut="0.0000000000000000e+00" cType="1" res="-1.4132836833596230e-02" rms="1.7440055310726166e-01" purity="3.2199848443269730e-02" nType="-99"/>
                  <Node pos="r" depth="6" NCoef="0" IVar="5" Cut="8.0000000000000000e+00" cType="1" res="-1.0185931809246540e-02" rms="2.0584879815578461e-01" purity="4.5040633529424667e-02" nType="0">
                    <Node pos="l" depth="7" NCoef="0" IVar="-1" Cut="0.0000000000000000e+00" cType="1" res="-6.5161185339093208e-03" rms="2.0502670109272003e-01" purity="4.4608414173126221e-02" nType="-99"/>
                    <Node pos="r" depth="7" NCoef="0" IVar="-1" Cut="0.0000000000000000e+00" cType="1" res="-1.2200508499518037e-03" rms="2.0989637076854706e-01" purity="4.7286242246627808e-02" nType="-99"/>
                  </Node>
                </Node>
              </Node>
              <Node pos="r" depth="4" NCoef="0" IVar="-1" Cut="0.0000000000000000e+00" cType="1" res="-6.7287092097103596e-03" rms="3.2092475891113281e-01" purity="1.2029564380645752e-01" nType="-99"/>
            </Node>
          </Node>
        </Node>
        <Node pos="r" depth="1" NCoef="0" IVar="3" Cut="1.0595389604568481e+00" cType="1" res="1.1778309941291809e-02" rms="4.2827081680297852e-01" purity="7.3917585611343384e-01" nType="0">
          <Node pos="l" depth="2" NCoef="0" IVar="0" Cut="6.1459434032440186e-01" cType="1" res="1.3310084119439125e-02" rms="4.2784073948860168e-01" purity="7.4273693561553955e-01" nType="0">
            <Node pos="l" depth="3" NCoef="0" IVar="3" Cut="9.9482589960098267e-01" cType="1" res="1.4126903377473354e-02" rms="4.2638361454010010e-01" purity="7.4984037876129150e-01" nType="0">
              <Node pos="l" depth="4" NCoef="0" IVar="1" Cut="6.5580528974533081e-01" cType="1" res="1.0466969572007656e-02" rms="4.4374409317970276e-01" purity="7.1703523397445679e-01" nType="0">
                <Node pos="l" depth="5" NCoef="0" IVar="2" Cut="1.0638781738281250e+02" cType="1" res="1.2408381327986717e-02" rms="4.3880113959312439e-01" purity="7.3143112659454346e-01" nType="0">
                  <Node pos="l" depth="6" NCoef="0" IVar="4" Cut="2.7494527399539948e-02" cType="1" res="9.7276419401168823e-03" rms="4.3258327245712280e-01" purity="7.4367856979370117e-01" nType="0">
                    <Node pos="l" depth="7" NCoef="0" IVar="-1" Cut="0.0000000000000000e+00" cType="1" res="6.1328773153945804e-04" rms="4.2800423502922058e-01" purity="7.5150603055953979e-01" nType="-99"/>
                    <Node pos="r" depth="7" NCoef="0" IVar="-1" Cut="0.0000000000000000e+00" cType="1" res="1.7224034527316689e-03" rms="4.4243329763412476e-01" purity="7.2633755207061768e-01" nType="-99"/>
                  </Node>
                  <Node pos="r" depth="6" NCoef="0" IVar="3" Cut="8.5851120948791504e-01" cType="1" res="2.0428976044058800e-02" rms="4.5680555701255798e-01" purity="6.9478780031204224e-01" nType="0">
                    <Node pos="l" depth="7" NCoef="0" IVar="-1" Cut="0.0000000000000000e+00" cType="1" res="1.1815991019830108e-03" rms="4.7115889191627502e-01" purity="6.6298794746398926e-01" nType="-99"/>
                    <Node pos="r" depth="7" NCoef="0" IVar="-1" Cut="0.0000000000000000e+00" cType="1" res="3.4891944378614426e-03" rms="4.3201649188995361e-01" purity="7.4679481983184814e-01" nType="-99"/>
                  </Node>
                </Node>
                <Node pos="r" depth="5" NCoef="0" IVar="3" Cut="8.5892176628112793e-01" cType="1" res="-8.3776712417602539e-03" rms="4.8873445391654968e-01" purity="5.7729810476303101e-01" nType="0">
                  <Node pos="l" depth="6" NCoef="0" IVar="-1" Cut="0.0000000000000000e+00" cType="1" res="1.3464386574923992e-04" rms="4.9396437406539917e-01" purity="5.3991860151290894e-01" nType="-99"/>
                  <Node pos="r" depth="6" NCoef="0" IVar="-1" Cut="0.0000000000000000e+00" cType="1" res="-1.4385394752025604e-03" rms="4.8447853326797485e-01" purity="6.0640251636505127e-01" nType="-99"/>
                </Node>
              </Node>
              <Node pos="r" depth="4" NCoef="0" IVar="3" Cut="9.9691277742385864e-01" cType="1" res="1.9210292026400566e-02" rms="4.0097084641456604e-01" purity="7.9540455341339111e-01" nType="0">
                <Node pos="l" depth="5" NCoef="0" IVar="3" Cut="9.9597001075744629e-01" cType="1" res="2.7547894045710564e-02" rms="3.9849740266799927e-01" purity="7.9872995615005493e-01" nType="0">
                  <Node pos="l" depth="6" NCoef="0" IVar="-1" Cut="0.0000000000000000e+00" cType="1" res="3.0506551265716553e-03" rms="3.9850533008575439e-01" purity="7.9878199100494385e-01" nType="-99"/>
                  <Node pos="r" depth="6" NCoef="0" IVar="-1" Cut="0.0000000000000000e+00" cType="1" res="3.0429824255406857e-03" rms="3.9848986268043518e-01" purity="7.9868024587631226e-01" nType="-99"/>
                </Node>
                <Node pos="r" depth="5" NCoef="0" IVar="3" Cut="1.0009523630142212e+00" cType="1" res="1.8072519451379776e-02" rms="4.0129375457763672e-01" purity="7.9495078325271606e-01" nType="0">
                  <Node pos="l" depth="6" NCoef="0" IVar="3" Cut="9.9782520532608032e-01" cType="1" res="1.2677185237407684e-02" rms="4.0914338827133179e-01" purity="7.8357654809951782e-01" nType="0">
                    <Node pos="l" depth="7" NCoef="0" IVar="-1" Cut="0.0000000000000000e+00" cType="1" res="2.4734126054681838e-04" rms="4.1881301999092102e-01" purity="7.6782631874084473e-01" nType="-99"/>
                    <Node pos="r" depth="7" NCoef="0" IVar="-1" Cut="0.0000000000000000e+00" cType="1" res="1.6475892625749111e-03" rms="4.0655684471130371e-01" purity="7.8765743970870972e-01" nType="-99"/>
                  </Node>
                  <Node pos="r" depth="6" NCoef="0" IVar="3" Cut="1.0066207647323608e+00" cType="1" res="2.1299416199326515e-02" rms="3.9648962020874023e-01" purity="8.0175358057022095e-01" nType="0">
                    <Node pos="l" depth="7" NCoef="0" IVar="-1" Cut="0.0000000000000000e+00" cType="1" res="2.9866306576877832e-03" rms="3.9080685377120972e-01" purity="8.0994170904159546e-01" nType="-99"/>
                    <Node pos="r" depth="7" NCoef="0" IVar="-1" Cut="0.0000000000000000e+00" cType="1" res="1.7593940719962120e-03" rms="4.0079328417778015e-01" purity="7.9536914825439453e-01" nType="-99"/>
                  </Node>
                </Node>
              </Node>
            </Node>
            <Node pos="r" depth="3" NCoef="0" IVar="-1" Cut="0.0000000000000000e+00" cType="1" res="-1.9521466456353664e-03" rms="4.8533317446708679e-01" purity="4.3584173917770386e-01" nType="-99"/>
          </Node>
          <Node pos="r" depth="2" NCoef="0" IVar="-1" Cut="0.0000000000000000e+00" cType="1" res="-5.2931150421500206e-03" rms="4.4150087237358093e-01" purity="5.8357173204421997e-01" nType="-99"/>
        </Node>
      </Node>
    </BinaryTree>
    <BinaryTree type="DecisionTree" boostWeight="1.0000000000000000e+00" itree="83">
      <Node pos="s" depth="0" NCoef="0" IVar="5" Cut="2.0000000000000000e+00" cType="1" res="1.6922681033611298e-01" rms="0.0000000000000000e+00" purity="5.0001257658004761e-01" nType="0">
        <Node pos="l" depth="1" NCoef="0" IVar="1" Cut="-3.1146436929702759e-01" cType="1" res="1.1684594675898552e-02" rms="4.1102838516235352e-01" purity="7.7463603019714355e-01" nType="0">
          <Node pos="l" depth="2" NCoef="0" IVar="-1" Cut="0.0000000000000000e+00" cType="1" res="-6.4885843312367797e-04" rms="4.1643401980400085e-01" purity="7.6858448982238770e-01" nType="-99"/>
          <Node pos="r" depth="2" NCoef="0" IVar="1" Cut="8.6896204948425293e-01" cType="1" res="1.2535759247839451e-02" rms="4.1075360774993896e-01" purity="7.7491962909698486e-01" nType="0">
            <Node pos="l" depth="3" NCoef="0" IVar="1" Cut="-1.2112680822610855e-01" cType="1" res="1.4191009104251862e-02" rms="4.0623167157173157e-01" purity="7.8507918119430542e-01" nType="0">
              <Node pos="l" depth="4" NCoef="0" IVar="3" Cut="9.9098759889602661e-01" cType="1" res="8.4103383123874664e-03" rms="4.0239313244819641e-01" purity="7.9242485761642456e-01" nType="0">
                <Node pos="l" depth="5" NCoef="0" IVar="-1" Cut="0.0000000000000000e+00" cType="1" res="-1.7144756566267461e-04" rms="4.2134046554565430e-01" purity="7.6248359680175781e-01" nType="-99"/>
                <Node pos="r" depth="5" NCoef="0" IVar="1" Cut="-2.0095629990100861e-01" cType="1" res="1.1045344173908234e-02" rms="3.9723020792007446e-01" purity="8.0028063058853149e-01" nType="0">
                  <Node pos="l" depth="6" NCoef="0" IVar="-1" Cut="0.0000000000000000e+00" cType="1" res="2.2410063538700342e-03" rms="3.9132890105247498e-01" purity="8.0757594108581543e-01" nType="-99"/>
                  <Node pos="r" depth="6" NCoef="0" IVar="1" Cut="-1.5719147026538849e-01" cType="1" res="4.0419935248792171e-03" rms="4.0159317851066589e-01" purity="7.9464048147201538e-01" nType="0">
                    <Node pos="l" depth="7" NCoef="0" IVar="-1" Cut="0.0000000000000000e+00" cType="1" res="-7.2887174610514194e-05" rms="4.0490946173667908e-01" purity="7.8931671380996704e-01" nType="-99"/>
                    <Node pos="r" depth="7" NCoef="0" IVar="-1" Cut="0.0000000000000000e+00" cType="1" res="1.0337977437302470e-03" rms="3.9813628792762756e-01" purity="8.0005437135696411e-01" nType="-99"/>
                  </Node>
                </Node>
              </Node>
              <Node pos="r" depth="4" NCoef="0" IVar="1" Cut="6.5837292931973934e-03" cType="1" res="1.5742355957627296e-02" rms="4.0724167227745056e-01" purity="7.8310781717300415e-01" nType="0">
                <Node pos="l" depth="5" NCoef="0" IVar="1" Cut="-3.0496608465909958e-02" cType="1" res="2.2456407546997070e-02" rms="3.9213824272155762e-01" purity="8.0727410316467285e-01" nType="0">
                  <Node pos="l" depth="6" NCoef="0" IVar="1" Cut="-8.3114877343177795e-02" cType="1" res="2.4750420823693275e-02" rms="3.9017623662948608e-01" purity="8.0973744392395020e-01" nType="0">
                    <Node pos="l" depth="7" NCoef="0" IVar="-1" Cut="0.0000000000000000e+00" cType="1" res="2.0703657064586878e-03" rms="3.9534085988998413e-01" purity="8.0372422933578491e-01" nType="-99"/>
                    <Node pos="r" depth="7" NCoef="0" IVar="-1" Cut="0.0000000000000000e+00" cType="1" res="3.3382838591933250e-03" rms="3.8654765486717224e-01" purity="8.1384122371673584e-01" nType="-99"/>
                  </Node>
                  <Node pos="r" depth="6" NCoef="0" IVar="-1" Cut="0.0000000000000000e+00" cType="1" res="1.8318637739866972e-03" rms="3.9783823490142822e-01" purity="7.9994803667068481e-01" nType="-99"/>
                </Node>
                <Node pos="r" depth="5" NCoef="0" IVar="1" Cut="5.9049034118652344e-01" cType="1" res="1.2179941870272160e-02" rms="4.1498818993568420e-01" purity="7.7028542757034302e-01" nType="0">
                  <Node pos="l" depth="6" NCoef="0" IVar="1" Cut="2.1375243365764618e-01" cType="1" res="1.3180082663893700e-02" rms="4.1117677092552185e-01" purity="7.7758347988128662e-01" nType="0">
                    <Node pos="l" depth="7" NCoef="0" IVar="-1" Cut="0.0000000000000000e+00" cType="1" res="1.2785164872184396e-03" rms="4.0541407465934753e-01" purity="7.8680366277694702e-01" nType="-99"/>
                    <Node pos="r" depth="7" NCoef="0" IVar="-1" Cut="0.0000000000000000e+00" cType="1" res="1.5749025624245405e-03" rms="4.1819193959236145e-01" purity="7.6616525650024414e-01" nType="-99"/>
                  </Node>
                  <Node pos="r" depth="6" NCoef="0" IVar="-1" Cut="0.0000000000000000e+00" cType="1" res="3.0151754617691040e-04" rms="4.4734007120132446e-01" purity="7.0542335510253906e-01" nType="-99"/>
                </Node>
              </Node>
            </Node>
            <Node pos="r" depth="3" NCoef="0" IVar="-1" Cut="0.0000000000000000e+00" cType="1" res="-9.2603784287348390e-04" rms="4.6933993697166443e-01" purity="6.3151699304580688e-01" nType="-99"/>
          </Node>
        </Node>
        <Node pos="r" depth="1" NCoef="0" IVar="2" Cut="5.8151635742187500e+02" cType="1" res="5.5614666780456901e-04" rms="4.1147571802139282e-01" purity="3.7783053517341614e-01" nType="0">
          <Node pos="l" depth="2" NCoef="0" IVar="4" Cut="2.6090517640113831e-02" cType="1" res="1.5846970491111279e-03" rms="4.1464456915855408e-01" purity="3.9377251267433167e-01" nType="0">
            <Node pos="l" depth="3" NCoef="0" IVar="2" Cut="4.4350597381591797e+01" cType="1" res="-1.1488729156553745e-02" rms="4.3757650256156921e-01" purity="5.1878416538238525e-01" nType="0">
              <Node pos="l" depth="4" NCoef="0" IVar="4" Cut="9.4826165586709976e-03" cType="1" res="1.2017464032396674e-03" rms="4.4124212861061096e-01" purity="5.3901255130767822e-01" nType="0">
                <Node pos="l" depth="5" NCoef="0" IVar="-1" Cut="0.0000000000000000e+00" cType="1" res="-3.3983418252319098e-03" rms="4.4883197546005249e-01" purity="5.0317931175231934e-01" nType="-99"/>
                <Node pos="r" depth="5" NCoef="0" IVar="2" Cut="2.4151109695434570e+01" cType="1" res="1.0637667030096054e-02" rms="4.3850222229957581e-01" purity="5.4974973201751709e-01" nType="0">
                  <Node pos="l" depth="6" NCoef="0" IVar="-1" Cut="0.0000000000000000e+00" cType="1" res="2.0305553916841745e-03" rms="4.4341421127319336e-01" purity="5.6346452236175537e-01" nType="-99"/>
                  <Node pos="r" depth="6" NCoef="0" IVar="-1" Cut="0.0000000000000000e+00" cType="1" res="2.5215809000656009e-04" rms="4.3399482965469360e-01" purity="5.3777784109115601e-01" nType="-99"/>
                </Node>
              </Node>
              <Node pos="r" depth="4" NCoef="0" IVar="4" Cut="2.0771974697709084e-02" cType="1" res="-2.7862271293997765e-02" rms="4.3225103616714478e-01" purity="4.9268499016761780e-01" nType="0">
                <Node pos="l" depth="5" NCoef="0" IVar="-1" Cut="0.0000000000000000e+00" cType="1" res="-4.8654424026608467e-03" rms="4.3057164549827576e-01" purity="4.8499545454978943e-01" nType="-99"/>
                <Node pos="r" depth="5" NCoef="0" IVar="-1" Cut="0.0000000000000000e+00" cType="1" res="-1.8020385177806020e-03" rms="4.3345496058464050e-01" purity="4.9990171194076538e-01" nType="-99"/>
              </Node>
            </Node>
            <Node pos="r" depth="3" NCoef="0" IVar="2" Cut="8.6887664794921875e+01" cType="1" res="3.4711477346718311e-03" rms="4.1119566559791565e-01" purity="3.7573373317718506e-01" nType="0">
              <Node pos="l" depth="4" NCoef="0" IVar="1" Cut="4.0211838483810425e-01" cType="1" res="1.5276355668902397e-02" rms="4.3538349866867065e-01" purity="5.1378911733627319e-01" nType="0">
                <Node pos="l" depth="5" NCoef="0" IVar="4" Cut="5.9068735688924789e-02" cType="1" res="2.0702414214611053e-02" rms="4.4987794756889343e-01" purity="5.8966863155364990e-01" nType="0">
                  <Node pos="l" depth="6" NCoef="0" IVar="2" Cut="5.6152359008789062e+01" cType="1" res="1.6317721456289291e-02" rms="4.4607576727867126e-01" purity="6.0806101560592651e-01" nType="0">
                    <Node pos="l" depth="7" NCoef="0" IVar="-1" Cut="0.0000000000000000e+00" cType="1" res="2.1904667373746634e-03" rms="4.5082587003707886e-01" purity="6.2720781564712524e-01" nType="-99"/>
                    <Node pos="r" depth="7" NCoef="0" IVar="-1" Cut="0.0000000000000000e+00" cType="1" res="7.0658663753420115e-04" rms="4.3934398889541626e-01" purity="5.8199709653854370e-01" nType="-99"/>
                  </Node>
                  <Node pos="r" depth="6" NCoef="0" IVar="4" Cut="7.4362829327583313e-02" cType="1" res="3.3607579767704010e-02" rms="4.6064454317092896e-01" purity="5.3553587198257446e-01" nType="0">
                    <Node pos="l" depth="7" NCoef="0" IVar="-1" Cut="0.0000000000000000e+00" cType="1" res="3.9122011512517929e-03" rms="4.6038866043090820e-01" purity="5.7483148574829102e-01" nType="-99"/>
                    <Node pos="r" depth="7" NCoef="0" IVar="-1" Cut="0.0000000000000000e+00" cType="1" res="1.9394526025280356e-03" rms="4.6067202091217041e-01" purity="4.8766994476318359e-01" nType="-99"/>
                  </Node>
                </Node>
                <Node pos="r" depth="5" NCoef="0" IVar="5" Cut="4.0000000000000000e+00" cType="1" res="-1.0257745161652565e-03" rms="3.8810473680496216e-01" purity="2.8565320372581482e-01" nType="0">
                  <Node pos="l" depth="6" NCoef="0" IVar="-1" Cut="0.0000000000000000e+00" cType="1" res="7.4493576539680362e-04" rms="4.4935220479965210e-01" purity="4.2176839709281921e-01" nType="-99"/>
                  <Node pos="r" depth="6" NCoef="0" IVar="-1" Cut="0.0000000000000000e+00" cType="1" res="-3.8173943758010864e-03" rms="2.8428137302398682e-01" purity="1.0100492835044861e-01" nType="-99"/>
                </Node>
              </Node>
              <Node pos="r" depth="4" NCoef="0" IVar="3" Cut="3.5850650072097778e-01" cType="1" res="-1.5685505059082061e-04" rms="4.0340164303779602e-01" purity="3.3330625295639038e-01" nType="0">
                <Node pos="l" depth="5" NCoef="0" IVar="3" Cut="1.3936519622802734e-01" cType="1" res="-5.8138472959399223e-03" rms="2.4645218253135681e-01" purity="7.0082694292068481e-02" nType="0">
                  <Node pos="l" depth="6" NCoef="0" IVar="-1" Cut="0.0000000000000000e+00" cType="1" res="7.1755824610590935e-03" rms="3.1535115838050842e-01" purity="1.2582463026046753e-01" nType="-99"/>
                  <Node pos="r" depth="6" NCoef="0" IVar="0" Cut="1.2462846040725708e+00" cType="1" res="-9.4411261379718781e-03" rms="2.3613691329956055e-01" purity="6.3083805143833160e-02" nType="0">
                    <Node pos="l" depth="7" NCoef="0" IVar="-1" Cut="0.0000000000000000e+00" cType="1" res="1.1155562242493033e-03" rms="3.2739278674125671e-01" purity="1.2964835762977600e-01" nType="-99"/>
                    <Node pos="r" depth="7" NCoef="0" IVar="-1" Cut="0.0000000000000000e+00" cType="1" res="-7.5314654968678951e-03" rms="2.0180480182170868e-01" purity="4.3714638799428940e-02" nType="-99"/>
                  </Node>
                </Node>
                <Node pos="r" depth="5" NCoef="0" IVar="0" Cut="7.9670566320419312e-01" cType="1" res="1.6510878922417760e-03" rms="4.4194588065147400e-01" purity="4.1743102669715881e-01" nType="0">
                  <Node pos="l" depth="6" NCoef="0" IVar="1" Cut="7.0100414752960205e-01" cType="1" res="4.2477557435631752e-03" rms="4.6512496471405029e-01" purity="4.8566678166389465e-01" nType="0">
                    <Node pos="l" depth="7" NCoef="0" IVar="-1" Cut="0.0000000000000000e+00" cType="1" res="7.0515047991648316e-04" rms="4.6718901395797729e-01" purity="5.0168102979660034e-01" nType="-99"/>
                    <Node pos="r" depth="7" NCoef="0" IVar="-1" Cut="0.0000000000000000e+00" cType="1" res="-1.9705502782016993e-03" rms="4.4761991500854492e-01" purity="3.5748320817947388e-01" nType="-99"/>
                  </Node>
                  <Node pos="r" depth="6" NCoef="0" IVar="3" Cut="5.0483143329620361e-01" cType="1" res="-9.3409083783626556e-03" rms="3.2583019137382507e-01" purity="1.2858119606971741e-01" nType="0">
                    <Node pos="l" depth="7" NCoef="0" IVar="-1" Cut="0.0000000000000000e+00" cType="1" res="-4.4611678458750248e-04" rms="2.9699593782424927e-01" purity="1.0249380767345428e-01" nType="-99"/>
                    <Node pos="r" depth="7" NCoef="0" IVar="-1" Cut="0.0000000000000000e+00" cType="1" res="-4.8078121617436409e-03" rms="4.0288445353507996e-01" purity="2.1131968498229980e-01" nType="-99"/>
                  </Node>
                </Node>
              </Node>
            </Node>
          </Node>
          <Node pos="r" depth="2" NCoef="0" IVar="3" Cut="3.8820472359657288e-01" cType="1" res="-1.2073073536157608e-02" rms="3.7012985348701477e-01" purity="1.8208469450473785e-01" nType="0">
            <Node pos="l" depth="3" NCoef="0" IVar="3" Cut="2.2625724971294403e-01" cType="1" res="1.1263188207522035e-03" rms="3.4472891688346863e-01" purity="1.5136209130287170e-01" nType="0">
              <Node pos="l" depth="4" NCoef="0" IVar="-1" Cut="0.0000000000000000e+00" cType="1" res="2.0032520405948162e-03" rms="3.6829948425292969e-01" purity="1.8230296671390533e-01" nType="-99"/>
              <Node pos="r" depth="4" NCoef="0" IVar="-1" Cut="0.0000000000000000e+00" cType="1" res="-1.7775817541405559e-03" rms="3.2105925679206848e-01" purity="1.2263365834951401e-01" nType="-99"/>
            </Node>
            <Node pos="r" depth="3" NCoef="0" IVar="-1" Cut="0.0000000000000000e+00" cType="1" res="-5.1467036828398705e-03" rms="4.1826048493385315e-01" purity="2.4829120934009552e-01" nType="-99"/>
          </Node>
        </Node>
      </Node>
    </BinaryTree>
    <BinaryTree type="DecisionTree" boostWeight="1.0000000000000000e+00" itree="84">
      <Node pos="s" depth="0" NCoef="0" IVar="3" Cut="6.7514586448669434e-01" cType="1" res="5.3093815222382545e-03" rms="4.1018685698509216e-01" purity="5.0215137004852295e-01" nType="0">
        <Node pos="l" depth="1" NCoef="0" IVar="3" Cut="6.5338778495788574e-01" cType="1" res="-2.9542353004217148e-03" rms="3.6565709114074707e-01" purity="1.9807763397693634e-01" nType="0">
          <Node pos="l" depth="2" NCoef="0" IVar="4" Cut="1.5685297548770905e-01" cType="1" res="-4.0913466364145279e-03" rms="3.5818865895271301e-01" purity="1.8409229815006256e-01" nType="0">
            <Node pos="l" depth="3" NCoef="0" IVar="4" Cut="1.4170725643634796e-01" cType="1" res="-6.8902401253581047e-03" rms="3.5313209891319275e-01" purity="1.8192827701568604e-01" nType="0">
              <Node pos="l" depth="4" NCoef="0" IVar="2" Cut="1.0709157562255859e+02" cType="1" res="-8.5262414067983627e-03" rms="3.5127797722816467e-01" purity="1.7959636449813843e-01" nType="0">
                <Node pos="l" depth="5" NCoef="0" IVar="4" Cut="8.2423098385334015e-02" cType="1" res="-1.3271385105326772e-03" rms="3.7189182639122009e-01" purity="2.1574495732784271e-01" nType="0">
                  <Node pos="l" depth="6" NCoef="0" IVar="2" Cut="3.1839191436767578e+01" cType="1" res="-6.6649094223976135e-03" rms="3.6339941620826721e-01" purity="1.9704277813434601e-01" nType="0">
                    <Node pos="l" depth="7" NCoef="0" IVar="-1" Cut="0.0000000000000000e+00" cType="1" res="2.1396293304860592e-03" rms="3.7946280837059021e-01" purity="2.2762297093868256e-01" nType="-99"/>
                    <Node pos="r" depth="7" NCoef="0" IVar="-1" Cut="0.0000000000000000e+00" cType="1" res="-1.8933442188426852e-03" rms="3.5995602607727051e-01" purity="1.9090706110000610e-01" nType="-99"/>
                  </Node>
                  <Node pos="r" depth="6" NCoef="0" IVar="-1" Cut="0.0000000000000000e+00" cType="1" res="2.8661659453064203e-03" rms="4.0607616305351257e-01" purity="2.9739493131637573e-01" nType="-99"/>
                </Node>
                <Node pos="r" depth="5" NCoef="0" IVar="4" Cut="4.2316123843193054e-02" cType="1" res="-1.1746946722269058e-02" rms="3.4160429239273071e-01" purity="1.6342435777187347e-01" nType="0">
                  <Node pos="l" depth="6" NCoef="0" IVar="-1" Cut="0.0000000000000000e+00" cType="1" res="-6.9251745007932186e-03" rms="2.9139766097068787e-01" purity="1.0763105005025864e-01" nType="-99"/>
                  <Node pos="r" depth="6" NCoef="0" IVar="5" Cut="4.0000000000000000e+00" cType="1" res="-1.0648153722286224e-02" rms="3.4448358416557312e-01" purity="1.6692826151847839e-01" nType="0">
                    <Node pos="l" depth="7" NCoef="0" IVar="-1" Cut="0.0000000000000000e+00" cType="1" res="-2.5308046024292707e-03" rms="3.9444795250892639e-01" purity="2.2371083498001099e-01" nType="-99"/>
                    <Node pos="r" depth="7" NCoef="0" IVar="-1" Cut="0.0000000000000000e+00" cType="1" res="-1.7847398994490504e-03" rms="3.1960892677307129e-01" purity="1.4156487584114075e-01" nType="-99"/>
                  </Node>
                </Node>
              </Node>
              <Node pos="r" depth="4" NCoef="0" IVar="3" Cut="4.0484270453453064e-01" cType="1" res="1.3443078845739365e-02" rms="3.7481737136840820e-01" purity="2.1091081202030182e-01" nType="0">
                <Node pos="l" depth="5" NCoef="0" IVar="-1" Cut="0.0000000000000000e+00" cType="1" res="6.6759712353814393e-05" rms="2.7267432212829590e-01" purity="8.4214143455028534e-02" nType="-99"/>
                <Node pos="r" depth="5" NCoef="0" IVar="-1" Cut="0.0000000000000000e+00" cType="1" res="3.0048012267798185e-03" rms="4.5317715406417847e-01" purity="3.3586305379867554e-01" nType="-99"/>
              </Node>
            </Node>
            <Node pos="r" depth="3" NCoef="0" IVar="2" Cut="2.7272128295898438e+02" cType="1" res="5.5761956609785557e-03" rms="3.7496978044509888e-01" purity="1.9156700372695923e-01" nType="0">
              <Node pos="l" depth="4" NCoef="0" IVar="-1" Cut="0.0000000000000000e+00" cType="1" res="4.3221972882747650e-03" rms="4.0502780675888062e-01" purity="2.3995141685009003e-01" nType="-99"/>
              <Node pos="r" depth="4" NCoef="0" IVar="5" Cut="4.0000000000000000e+00" cType="1" res="1.3415034115314484e-01" rms="0.0000000000000000e+00" purity="1.7895019054412842e-01" nType="0">
                <Node pos="l" depth="5" NCoef="0" IVar="-1" Cut="0.0000000000000000e+00" cType="1" res="2.1763418335467577e-03" rms="4.4105872511863708e-01" purity="2.9417845606803894e-01" nType="-99"/>
                <Node pos="r" depth="5" NCoef="0" IVar="1" Cut="1.0882715880870819e-01" cType="1" res="-4.1119642555713654e-03" rms="3.4753209352493286e-01" purity="1.5317925810813904e-01" nType="0">
                  <Node pos="l" depth="6" NCoef="0" IVar="5" Cut="6.0000000000000000e+00" cType="1" res="2.8501800261437893e-03" rms="3.7136638164520264e-01" purity="1.8372461199760437e-01" nType="0">
                    <Node pos="l" depth="7" NCoef="0" IVar="-1" Cut="0.0000000000000000e+00" cType="1" res="2.0518191158771515e-03" rms="3.9712294936180115e-01" purity="2.2593401372432709e-01" nType="-99"/>
                    <Node pos="r" depth="7" NCoef="0" IVar="-1" Cut="0.0000000000000000e+00" cType="1" res="-8.4224931197240949e-04" rms="3.5146510601043701e-01" purity="1.5184600651264191e-01" nType="-99"/>
                  </Node>
                  <Node pos="r" depth="6" NCoef="0" IVar="2" Cut="5.9597882080078125e+02" cType="1" res="-1.0955293662846088e-02" rms="3.2340097427368164e-01" purity="1.2513437867164612e-01" nType="0">
                    <Node pos="l" depth="7" NCoef="0" IVar="-1" Cut="0.0000000000000000e+00" cType="1" res="-4.4397357851266861e-03" rms="3.0716353654861450e-01" purity="1.1194207519292831e-01" nType="-99"/>
                    <Node pos="r" depth="7" NCoef="0" IVar="-1" Cut="0.0000000000000000e+00" cType="1" res="-1.3974871253594756e-03" rms="3.3499038219451904e-01" purity="1.3503257930278778e-01" nType="-99"/>
                  </Node>
                </Node>
              </Node>
            </Node>
          </Node>
          <Node pos="r" depth="2" NCoef="0" IVar="-1" Cut="0.0000000000000000e+00" cType="1" res="1.7141160788014531e-03" rms="4.8714587092399597e-01" purity="4.6741190552711487e-01" nType="-99"/>
        </Node>
        <Node pos="r" depth="1" NCoef="0" IVar="4" Cut="1.0650962591171265e-01" cType="1" res="1.0907457210123539e-02" rms="4.3769833445549011e-01" purity="7.0814204216003418e-01" nType="0">
          <Node pos="l" depth="2" NCoef="0" IVar="1" Cut="5.1668083667755127e-01" cType="1" res="1.2274459004402161e-02" rms="4.3689098954200745e-01" purity="7.1323758363723755e-01" nType="0">
            <Node pos="l" depth="3" NCoef="0" IVar="3" Cut="9.0915691852569580e-01" cType="1" res="1.4332189224660397e-02" rms="4.3113332986831665e-01" purity="7.3175323009490967e-01" nType="0">
              <Node pos="l" depth="4" NCoef="0" IVar="4" Cut="5.8522645384073257e-02" cType="1" res="1.0258147493004799e-02" rms="4.6491369605064392e-01" purity="6.5651696920394897e-01" nType="0">
                <Node pos="l" depth="5" NCoef="0" IVar="3" Cut="7.8839415311813354e-01" cType="1" res="5.6574163027107716e-03" rms="4.6163085103034973e-01" purity="6.6533678770065308e-01" nType="0">
                  <Node pos="l" depth="6" NCoef="0" IVar="2" Cut="4.5340526580810547e+01" cType="1" res="-5.1946630701422691e-03" rms="4.8771989345550537e-01" purity="5.6010627746582031e-01" nType="0">
                    <Node pos="l" depth="7" NCoef="0" IVar="-1" Cut="0.0000000000000000e+00" cType="1" res="2.2803279571235180e-03" rms="4.8033365607261658e-01" purity="6.1769604682922363e-01" nType="-99"/>
                    <Node pos="r" depth="7" NCoef="0" IVar="-1" Cut="0.0000000000000000e+00" cType="1" res="-1.9093116279691458e-03" rms="4.9047031998634338e-01" purity="5.3227823972702026e-01" nType="-99"/>
                  </Node>
                  <Node pos="r" depth="6" NCoef="0" IVar="4" Cut="1.9071236252784729e-02" cType="1" res="1.0011916980147362e-02" rms="4.5066457986831665e-01" purity="7.0756155252456665e-01" nType="0">
                    <Node pos="l" depth="7" NCoef="0" IVar="-1" Cut="0.0000000000000000e+00" cType="1" res="-6.0503900749608874e-04" rms="4.5675569772720337e-01" purity="6.9136619567871094e-01" nType="-99"/>
                    <Node pos="r" depth="7" NCoef="0" IVar="-1" Cut="0.0000000000000000e+00" cType="1" res="1.3402514159679413e-03" rms="4.4915148615837097e-01" purity="7.1133464574813843e-01" nType="-99"/>
                  </Node>
                </Node>
                <Node pos="r" depth="5" NCoef="0" IVar="3" Cut="7.0535480976104736e-01" cType="1" res="2.2327657788991928e-02" rms="4.7320514917373657e-01" purity="6.3337910175323486e-01" nType="0">
                  <Node pos="l" depth="6" NCoef="0" IVar="-1" Cut="0.0000000000000000e+00" cType="1" res="-9.5582203357480466e-05" rms="4.9036529660224915e-01" purity="5.3093695640563965e-01" nType="-99"/>
                  <Node pos="r" depth="6" NCoef="0" IVar="0" Cut="2.0298233628273010e-01" cType="1" res="2.7007168158888817e-02" rms="4.6956032514572144e-01" purity="6.5385341644287109e-01" nType="0">
                    <Node pos="l" depth="7" NCoef="0" IVar="-1" Cut="0.0000000000000000e+00" cType="1" res="1.9862372428178787e-03" rms="4.6394151449203491e-01" purity="6.7833560705184937e-01" nType="-99"/>
                    <Node pos="r" depth="7" NCoef="0" IVar="-1" Cut="0.0000000000000000e+00" cType="1" res="3.4500123001635075e-03" rms="4.8690488934516907e-01" purity="5.7533639669418335e-01" nType="-99"/>
                  </Node>
                </Node>
              </Node>
              <Node pos="r" depth="4" NCoef="0" IVar="0" Cut="2.4072991311550140e-01" cType="1" res="1.7742047086358070e-02" rms="4.0064489841461182e-01" purity="7.9472380876541138e-01" nType="0">
                <Node pos="l" depth="5" NCoef="0" IVar="1" Cut="6.6970507614314556e-03" cType="1" res="1.8945945426821709e-02" rms="3.9603683352470398e-01" purity="8.0453473329544067e-01" nType="0">
                  <Node pos="l" depth="6" NCoef="0" IVar="3" Cut="1.0028251409530640e+00" cType="1" res="2.1626736968755722e-02" rms="3.8861122727394104e-01" purity="8.1419593095779419e-01" nType="0">
                    <Node pos="l" depth="7" NCoef="0" IVar="-1" Cut="0.0000000000000000e+00" cType="1" res="2.2646391298621893e-03" rms="3.9173051714897156e-01" purity="8.1031662225723267e-01" nType="-99"/>
                    <Node pos="r" depth="7" NCoef="0" IVar="-1" Cut="0.0000000000000000e+00" cType="1" res="2.9847731348127127e-03" rms="3.8120758533477783e-01" purity="8.2323175668716431e-01" nType="-99"/>
                  </Node>
                  <Node pos="r" depth="6" NCoef="0" IVar="1" Cut="1.2184315919876099e-01" cType="1" res="1.5715049579739571e-02" rms="4.0478163957595825e-01" purity="7.9289096593856812e-01" nType="0">
                    <Node pos="l" depth="7" NCoef="0" IVar="-1" Cut="0.0000000000000000e+00" cType="1" res="1.2060999870300293e-03" rms="4.0099701285362244e-01" purity="7.9829996824264526e-01" nType="-99"/>
                    <Node pos="r" depth="7" NCoef="0" IVar="-1" Cut="0.0000000000000000e+00" cType="1" res="2.0347987301647663e-03" rms="4.0701660513877869e-01" purity="7.8962445259094238e-01" nType="-99"/>
                  </Node>
                </Node>
                <Node pos="r" depth="5" NCoef="0" IVar="-1" Cut="0.0000000000000000e+00" cType="1" res="-1.2223246449138969e-04" rms="4.6727594733238220e-01" purity="6.3914149999618530e-01" nType="-99"/>
              </Node>
            </Node>
            <Node pos="r" depth="3" NCoef="0" IVar="3" Cut="9.6996092796325684e-01" cType="1" res="-5.0118088256567717e-04" rms="4.7086462378501892e-01" purity="5.9828132390975952e-01" nType="0">
              <Node pos="l" depth="4" NCoef="0" IVar="4" Cut="3.4409489482641220e-02" cType="1" res="-9.2807831242680550e-03" rms="4.8670846223831177e-01" purity="5.1479816436767578e-01" nType="0">
                <Node pos="l" depth="5" NCoef="0" IVar="-1" Cut="0.0000000000000000e+00" cType="1" res="-3.5846990067511797e-03" rms="4.8608359694480896e-01" purity="5.0617855787277222e-01" nType="-99"/>
                <Node pos="r" depth="5" NCoef="0" IVar="4" Cut="5.2981425076723099e-02" cType="1" res="1.0179718025028706e-02" rms="4.8609983921051025e-01" purity="5.2025502920150757e-01" nType="0">
                  <Node pos="l" depth="6" NCoef="0" IVar="-1" Cut="0.0000000000000000e+00" cType="1" res="-6.5207120496779680e-04" rms="4.8493093252182007e-01" purity="5.2542197704315186e-01" nType="-99"/>
                  <Node pos="r" depth="6" NCoef="0" IVar="-1" Cut="0.0000000000000000e+00" cType="1" res="2.1007538307458162e-03" rms="4.8658165335655212e-01" purity="5.1589900255203247e-01" nType="-99"/>
                </Node>
              </Node>
              <Node pos="r" depth="4" NCoef="0" IVar="-1" Cut="0.0000000000000000e+00" cType="1" res="8.4629253251478076e-04" rms="4.5187228918075562e-01" purity="6.9367504119873047e-01" nType="-99"/>
            </Node>
          </Node>
          <Node pos="r" depth="2" NCoef="0" IVar="-1" Cut="0.0000000000000000e+00" cType="1" res="-5.2593322470784187e-03" rms="4.7183969616889954e-01" purity="4.4828867912292480e-01" nType="-99"/>
        </Node>
      </Node>
    </BinaryTree>
    <BinaryTree type="DecisionTree" boostWeight="1.0000000000000000e+00" itree="85">
      <Node pos="s" depth="0" NCoef="0" IVar="2" Cut="1.9193357849121094e+02" cType="1" res="4.3267123401165009e-03" rms="4.1105902194976807e-01" purity="5.0096368789672852e-01" nType="0">
        <Node pos="l" depth="1" NCoef="0" IVar="1" Cut="9.1525220870971680e-01" cType="1" res="7.4007660150527954e-03" rms="4.2044097185134888e-01" purity="5.9766596555709839e-01" nType="0">
          <Node pos="l" depth="2" NCoef="0" IVar="2" Cut="8.0488250732421875e+01" cType="1" res="9.8426891490817070e-03" rms="4.2329591512680054e-01" purity="6.2538850307464600e-01" nType="0">
            <Node pos="l" depth="3" NCoef="0" IVar="3" Cut="4.6039503812789917e-01" cType="1" res="1.3567334040999413e-02" rms="4.2036786675453186e-01" purity="7.0400339365005493e-01" nType="0">
              <Node pos="l" depth="4" NCoef="0" IVar="-1" Cut="0.0000000000000000e+00" cType="1" res="-2.6968137826770544e-03" rms="2.6601624488830566e-01" purity="8.0616421997547150e-02" nType="-99"/>
              <Node pos="r" depth="4" NCoef="0" IVar="4" Cut="3.6250598728656769e-02" cType="1" res="1.4409786090254784e-02" rms="4.2534109950065613e-01" purity="7.2886025905609131e-01" nType="0">
                <Node pos="l" depth="5" NCoef="0" IVar="0" Cut="2.4608691036701202e-01" cType="1" res="1.2665404938161373e-02" rms="4.1816163063049316e-01" purity="7.4907171726226807e-01" nType="0">
                  <Node pos="l" depth="6" NCoef="0" IVar="2" Cut="3.3751068115234375e+01" cType="1" res="1.4250278472900391e-02" rms="4.1134878993034363e-01" purity="7.7837264537811279e-01" nType="0">
                    <Node pos="l" depth="7" NCoef="0" IVar="-1" Cut="0.0000000000000000e+00" cType="1" res="1.4378568157553673e-03" rms="4.0759095549583435e-01" purity="7.8562754392623901e-01" nType="-99"/>
                    <Node pos="r" depth="7" NCoef="0" IVar="-1" Cut="0.0000000000000000e+00" cType="1" res="2.3491997271776199e-03" rms="4.4259700179100037e-01" purity="7.1524918079376221e-01" nType="-99"/>
                  </Node>
                  <Node pos="r" depth="6" NCoef="0" IVar="2" Cut="3.6336093902587891e+01" cType="1" res="-1.6121263615787029e-04" rms="4.6947985887527466e-01" purity="5.1193511486053467e-01" nType="0">
                    <Node pos="l" depth="7" NCoef="0" IVar="-1" Cut="0.0000000000000000e+00" cType="1" res="9.6523307729512453e-04" rms="4.7237366437911987e-01" purity="5.6133568286895752e-01" nType="-99"/>
                    <Node pos="r" depth="7" NCoef="0" IVar="-1" Cut="0.0000000000000000e+00" cType="1" res="-2.9879058711230755e-03" rms="4.6058309078216553e-01" purity="3.8184961676597595e-01" nType="-99"/>
                  </Node>
                </Node>
                <Node pos="r" depth="5" NCoef="0" IVar="0" Cut="2.3032858967781067e-01" cType="1" res="2.4804029613733292e-02" rms="4.6569761633872986e-01" purity="6.0842645168304443e-01" nType="0">
                  <Node pos="l" depth="6" NCoef="0" IVar="5" Cut="3.0000000000000000e+00" cType="1" res="1.1151284910738468e-02" rms="4.4539564847946167e-01" purity="6.8923377990722656e-01" nType="0">
                    <Node pos="l" depth="7" NCoef="0" IVar="-1" Cut="0.0000000000000000e+00" cType="1" res="7.5946695869788527e-04" rms="4.4727453589439392e-01" purity="7.1632069349288940e-01" nType="-99"/>
                    <Node pos="r" depth="7" NCoef="0" IVar="-1" Cut="0.0000000000000000e+00" cType="1" res="2.2229615133255720e-03" rms="4.7269570827484131e-01" purity="6.4123427867889404e-01" nType="-99"/>
                  </Node>
                  <Node pos="r" depth="6" NCoef="0" IVar="2" Cut="5.3200366973876953e+01" cType="1" res="3.8223866373300552e-02" rms="4.7754874825477600e-01" purity="4.9674439430236816e-01" nType="0">
                    <Node pos="l" depth="7" NCoef="0" IVar="-1" Cut="0.0000000000000000e+00" cType="1" res="5.1455530337989330e-03" rms="4.7905623912811279e-01" purity="5.3412312269210815e-01" nType="-99"/>
                    <Node pos="r" depth="7" NCoef="0" IVar="-1" Cut="0.0000000000000000e+00" cType="1" res="2.0550801418721676e-03" rms="4.7585827112197876e-01" purity="4.7125533223152161e-01" nType="-99"/>
                  </Node>
                </Node>
              </Node>
            </Node>
            <Node pos="r" depth="3" NCoef="0" IVar="4" Cut="4.4736862182617188e-02" cType="1" res="1.2698635691776872e-03" rms="4.2983680963516235e-01" purity="4.4444456696510315e-01" nType="0">
              <Node pos="l" depth="4" NCoef="0" IVar="3" Cut="8.7643563747406006e-01" cType="1" res="-1.2069515883922577e-02" rms="4.3506896495819092e-01" purity="5.2383232116699219e-01" nType="0">
                <Node pos="l" depth="5" NCoef="0" IVar="4" Cut="3.2747909426689148e-02" cType="1" res="-2.4119058623909950e-02" rms="4.3748563528060913e-01" purity="4.3724572658538818e-01" nType="0">
                  <Node pos="l" depth="6" NCoef="0" IVar="-1" Cut="0.0000000000000000e+00" cType="1" res="-4.8853638581931591e-03" rms="4.3204057216644287e-01" purity="4.0763238072395325e-01" nType="-99"/>
                  <Node pos="r" depth="6" NCoef="0" IVar="3" Cut="7.7204442024230957e-01" cType="1" res="-1.3167666271328926e-02" rms="4.4055455923080444e-01" purity="4.5603221654891968e-01" nType="0">
                    <Node pos="l" depth="7" NCoef="0" IVar="-1" Cut="0.0000000000000000e+00" cType="1" res="-3.0429000617004931e-04" rms="4.0613785386085510e-01" purity="2.9875615239143372e-01" nType="-99"/>
                    <Node pos="r" depth="7" NCoef="0" IVar="-1" Cut="0.0000000000000000e+00" cType="1" res="-2.4531823582947254e-03" rms="4.7689482569694519e-01" purity="6.3756638765335083e-01" nType="-99"/>
                  </Node>
                </Node>
                <Node pos="r" depth="5" NCoef="0" IVar="-1" Cut="0.0000000000000000e+00" cType="1" res="2.2955823224037886e-03" rms="4.2693516612052917e-01" purity="7.5383013486862183e-01" nType="-99"/>
              </Node>
              <Node pos="r" depth="4" NCoef="0" IVar="1" Cut="1.3021951913833618e-01" cType="1" res="7.8280698508024216e-03" rms="4.2708826065063477e-01" purity="4.0541416406631470e-01" nType="0">
                <Node pos="l" depth="5" NCoef="0" IVar="4" Cut="1.1686296761035919e-01" cType="1" res="1.3477361761033535e-02" rms="4.4762206077575684e-01" purity="4.7481659054756165e-01" nType="0">
                  <Node pos="l" depth="6" NCoef="0" IVar="3" Cut="6.4492005109786987e-01" cType="1" res="9.6692889928817749e-03" rms="4.4674399495124817e-01" purity="4.9828335642814636e-01" nType="0">
                    <Node pos="l" depth="7" NCoef="0" IVar="-1" Cut="0.0000000000000000e+00" cType="1" res="2.0980653061997145e-04" rms="4.1258898377418518e-01" purity="2.7889588475227356e-01" nType="-99"/>
                    <Node pos="r" depth="7" NCoef="0" IVar="-1" Cut="0.0000000000000000e+00" cType="1" res="1.3673797948285937e-03" rms="4.6854484081268311e-01" purity="6.4799964427947998e-01" nType="-99"/>
                  </Node>
                  <Node pos="r" depth="6" NCoef="0" IVar="-1" Cut="0.0000000000000000e+00" cType="1" res="3.4756381064653397e-03" rms="4.5129552483558655e-01" purity="3.6453700065612793e-01" nType="-99"/>
                </Node>
                <Node pos="r" depth="5" NCoef="0" IVar="3" Cut="4.2965400218963623e-01" cType="1" res="1.7021494568325579e-04" rms="3.9743599295616150e-01" purity="3.1133621931076050e-01" nType="0">
                  <Node pos="l" depth="6" NCoef="0" IVar="-1" Cut="0.0000000000000000e+00" cType="1" res="-5.4785069078207016e-03" rms="2.3316965997219086e-01" purity="6.0830045491456985e-02" nType="-99"/>
                  <Node pos="r" depth="6" NCoef="0" IVar="4" Cut="9.1359868645668030e-02" cType="1" res="6.5786223858594894e-03" rms="4.5872324705123901e-01" purity="4.3852376937866211e-01" nType="0">
                    <Node pos="l" depth="7" NCoef="0" IVar="-1" Cut="0.0000000000000000e+00" cType="1" res="5.8743229601532221e-05" rms="4.5457917451858521e-01" purity="4.5320218801498413e-01" nType="-99"/>
                    <Node pos="r" depth="7" NCoef="0" IVar="-1" Cut="0.0000000000000000e+00" cType="1" res="2.1817171946167946e-03" rms="4.6884101629257202e-01" purity="4.0084737539291382e-01" nType="-99"/>
                  </Node>
                </Node>
              </Node>
            </Node>
          </Node>
          <Node pos="r" depth="2" NCoef="0" IVar="1" Cut="3.3971824645996094e+00" cType="1" res="-1.7096431925892830e-02" rms="3.8980209827423096e-01" purity="3.1955549120903015e-01" nType="0">
            <Node pos="l" depth="3" NCoef="0" IVar="3" Cut="4.6575680375099182e-01" cType="1" res="-2.7663858607411385e-02" rms="3.8820260763168335e-01" purity="3.0132845044136047e-01" nType="0">
              <Node pos="l" depth="4" NCoef="0" IVar="3" Cut="2.8592684864997864e-01" cType="1" res="-6.8637365475296974e-03" rms="2.1925441920757294e-01" purity="5.2710127085447311e-02" nType="0">
                <Node pos="l" depth="5" NCoef="0" IVar="-1" Cut="0.0000000000000000e+00" cType="1" res="-9.3249902129173279e-03" rms="1.7634502053260803e-01" purity="3.2771196216344833e-02" nType="-99"/>
                <Node pos="r" depth="5" NCoef="0" IVar="-1" Cut="0.0000000000000000e+00" cType="1" res="-4.3209918658249080e-04" rms="2.5604081153869629e-01" purity="7.3325976729393005e-02" nType="-99"/>
              </Node>
              <Node pos="r" depth="4" NCoef="0" IVar="4" Cut="3.7138428539037704e-02" cType="1" res="-4.0456436574459076e-02" rms="4.6194231510162354e-01" purity="4.5423474907875061e-01" nType="0">
                <Node pos="l" depth="5" NCoef="0" IVar="1" Cut="1.3150919675827026e+00" cType="1" res="-5.0204612314701080e-02" rms="4.7144627571105957e-01" purity="5.1133173704147339e-01" nType="0">
                  <Node pos="l" depth="6" NCoef="0" IVar="-1" Cut="0.0000000000000000e+00" cType="1" res="-4.0258960798382759e-03" rms="4.6766132116317749e-01" purity="5.2881395816802979e-01" nType="-99"/>
                  <Node pos="r" depth="6" NCoef="0" IVar="-1" Cut="0.0000000000000000e+00" cType="1" res="-5.1370379514992237e-03" rms="4.7522833943367004e-01" purity="4.9336642026901245e-01" nType="-99"/>
                </Node>
                <Node pos="r" depth="5" NCoef="0" IVar="-1" Cut="0.0000000000000000e+00" cType="1" res="-2.1654388401657343e-03" rms="4.4145512580871582e-01" purity="3.3884292840957642e-01" nType="-99"/>
              </Node>
            </Node>
            <Node pos="r" depth="3" NCoef="0" IVar="-1" Cut="0.0000000000000000e+00" cType="1" res="4.4221999123692513e-03" rms="3.9346387982368469e-01" purity="4.0837672352790833e-01" nType="-99"/>
          </Node>
        </Node>
        <Node pos="r" depth="1" NCoef="0" IVar="5" Cut="3.0000000000000000e+00" cType="1" res="1.4913107454776764e-01" rms="1.1098509654402733e-02" purity="2.5594785809516907e-01" nType="0">
          <Node pos="l" depth="2" NCoef="0" IVar="1" Cut="5.6605750322341919e-01" cType="1" res="3.7391493096947670e-03" rms="4.5824596285820007e-01" purity="4.5871588587760925e-01" nType="0">
            <Node pos="l" depth="3" NCoef="0" IVar="3" Cut="7.4108618497848511e-01" cType="1" res="1.0997545905411243e-02" rms="4.6790543198585510e-01" purity="5.0294953584671021e-01" nType="0">
              <Node pos="l" depth="4" NCoef="0" IVar="3" Cut="6.2324631214141846e-01" cType="1" res="1.7656436190009117e-02" rms="4.6393504738807678e-01" purity="3.7563973665237427e-01" nType="0">
                <Node pos="l" depth="5" NCoef="0" IVar="-1" Cut="0.0000000000000000e+00" cType="1" res="1.9212729530408978e-03" rms="4.3287575244903564e-01" purity="2.7556645870208740e-01" nType="-99"/>
                <Node pos="r" depth="5" NCoef="0" IVar="-1" Cut="0.0000000000000000e+00" cType="1" res="1.8475146498531103e-03" rms="4.9161973595619202e-01" purity="4.7074168920516968e-01" nType="-99"/>
              </Node>
              <Node pos="r" depth="4" NCoef="0" IVar="-1" Cut="0.0000000000000000e+00" cType="1" res="4.6252654283307493e-04" rms="4.7138637304306030e-01" purity="6.1808699369430542e-01" nType="-99"/>
            </Node>
            <Node pos="r" depth="3" NCoef="0" IVar="-1" Cut="0.0000000000000000e+00" cType="1" res="-2.4061689618974924e-03" rms="4.2393878102302551e-01" purity="3.1276628375053406e-01" nType="-99"/>
          </Node>
          <Node pos="r" depth="2" NCoef="0" IVar="3" Cut="7.3490649461746216e-01" cType="1" res="-5.2549121901392937e-03" rms="3.6598965525627136e-01" purity="2.0546565949916840e-01" nType="0">
            <Node pos="l" depth="3" NCoef="0" IVar="5" Cut="1.0000000000000000e+01" cType="1" res="1.2927928566932678e-01" rms="7.8116744756698608e-02" purity="1.8788769841194153e-01" nType="0">
              <Node pos="l" depth="4" NCoef="0" IVar="4" Cut="2.1819531917572021e-01" cType="1" res="-3.1323635485023260e-03" rms="3.6362221837043762e-01" purity="1.9347761571407318e-01" nType="0">
                <Node pos="l" depth="5" NCoef="0" IVar="4" Cut="8.0402851104736328e-02" cType="1" res="-4.4776508584618568e-03" rms="3.5928168892860413e-01" purity="1.9267936050891876e-01" nType="0">
                  <Node pos="l" depth="6" NCoef="0" IVar="1" Cut="1.0309348255395889e-01" cType="1" res="-1.8207352608442307e-02" rms="3.5332551598548889e-01" purity="1.9319517910480499e-01" nType="0">
                    <Node pos="l" depth="7" NCoef="0" IVar="-1" Cut="0.0000000000000000e+00" cType="1" res="-7.6504412572830915e-04" rms="4.0155676007270813e-01" purity="2.7323043346405029e-01" nType="-99"/>
                    <Node pos="r" depth="7" NCoef="0" IVar="-1" Cut="0.0000000000000000e+00" cType="1" res="-5.5446289479732513e-03" rms="3.1801292300224304e-01" purity="1.4146512746810913e-01" nType="-99"/>
                  </Node>
                  <Node pos="r" depth="6" NCoef="0" IVar="3" Cut="4.7793829441070557e-01" cType="1" res="-8.4582838462665677e-04" rms="3.6075341701507568e-01" purity="1.9254291057586670e-01" nType="0">
                    <Node pos="l" depth="7" NCoef="0" IVar="-1" Cut="0.0000000000000000e+00" cType="1" res="-2.3332871496677399e-03" rms="2.8581541776657104e-01" purity="9.5118492841720581e-02" nType="-99"/>
                    <Node pos="r" depth="7" NCoef="0" IVar="-1" Cut="0.0000000000000000e+00" cType="1" res="1.2233590241521597e-03" rms="4.6694302558898926e-01" purity="3.6974042654037476e-01" nType="-99"/>
                  </Node>
                </Node>
                <Node pos="r" depth="5" NCoef="0" IVar="3" Cut="2.1174168586730957e-01" cType="1" res="6.1488184146583080e-03" rms="3.9213550090789795e-01" purity="1.9898474216461182e-01" nType="0">
                  <Node pos="l" depth="6" NCoef="0" IVar="-1" Cut="0.0000000000000000e+00" cType="1" res="3.0347658321261406e-03" rms="3.9869040250778198e-01" purity="2.1517784893512726e-01" nType="-99"/>
                  <Node pos="r" depth="6" NCoef="0" IVar="-1" Cut="0.0000000000000000e+00" cType="1" res="-5.0124229164794087e-04" rms="3.8673096895217896e-01" purity="1.8641573190689087e-01" nType="-99"/>
                </Node>
              </Node>
              <Node pos="r" depth="4" NCoef="0" IVar="-1" Cut="0.0000000000000000e+00" cType="1" res="-5.2640796639025211e-03" rms="2.7632772922515869e-01" purity="8.8215723633766174e-02" nType="-99"/>
            </Node>
            <Node pos="r" depth="3" NCoef="0" IVar="-1" Cut="0.0000000000000000e+00" cType="1" res="-3.1932597048580647e-03" rms="4.7581684589385986e-01" purity="5.5538243055343628e-01" nType="-99"/>
          </Node>
        </Node>
      </Node>
    </BinaryTree>
    <BinaryTree type="DecisionTree" boostWeight="1.0000000000000000e+00" itree="86">
      <Node pos="s" depth="0" NCoef="0" IVar="1" Cut="1.4958879351615906e-01" cType="1" res="4.4574034400284290e-03" rms="4.1079798340797424e-01" purity="5.0146782398223877e-01" nType="0">
        <Node pos="l" depth="1" NCoef="0" IVar="3" Cut="7.3390698432922363e-01" cType="1" res="9.8529616370797157e-03" rms="4.2134717106819153e-01" purity="5.8450627326965332e-01" nType="0">
          <Node pos="l" depth="2" NCoef="0" IVar="4" Cut="1.1083666980266571e-01" cType="1" res="3.6968919448554516e-03" rms="4.2066609859466553e-01" purity="3.1011682748794556e-01" nType="0">
            <Node pos="l" depth="3" NCoef="0" IVar="4" Cut="6.8107396364212036e-02" cType="1" res="-1.5903098974376917e-03" rms="4.3088483810424805e-01" purity="3.4492102265357971e-01" nType="0">
              <Node pos="l" depth="4" NCoef="0" IVar="2" Cut="3.8901554107666016e+01" cType="1" res="-1.1592274531722069e-02" rms="4.3301230669021606e-01" purity="3.4066501259803772e-01" nType="0">
                <Node pos="l" depth="5" NCoef="0" IVar="-1" Cut="0.0000000000000000e+00" cType="1" res="1.6413113335147500e-03" rms="4.6132957935333252e-01" purity="4.3834370374679565e-01" nType="-99"/>
                <Node pos="r" depth="5" NCoef="0" IVar="4" Cut="4.8530701547861099e-02" cType="1" res="-1.7445314675569534e-02" rms="4.2672118544578552e-01" purity="3.2057860493659973e-01" nType="0">
                  <Node pos="l" depth="6" NCoef="0" IVar="5" Cut="4.0000000000000000e+00" cType="1" res="-2.9632369056344032e-02" rms="4.2098593711853027e-01" purity="2.9739582538604736e-01" nType="0">
                    <Node pos="l" depth="7" NCoef="0" IVar="-1" Cut="0.0000000000000000e+00" cType="1" res="-4.6212864108383656e-03" rms="4.5592412352561951e-01" purity="3.5079020261764526e-01" nType="-99"/>
                    <Node pos="r" depth="7" NCoef="0" IVar="-1" Cut="0.0000000000000000e+00" cType="1" res="-2.4753992911428213e-03" rms="3.8513812422752380e-01" purity="2.4766996502876282e-01" nType="-99"/>
                  </Node>
                  <Node pos="r" depth="6" NCoef="0" IVar="5" Cut="4.0000000000000000e+00" cType="1" res="-5.8602839708328247e-03" rms="4.3176338076591492e-01" purity="3.4253427386283875e-01" nType="0">
                    <Node pos="l" depth="7" NCoef="0" IVar="-1" Cut="0.0000000000000000e+00" cType="1" res="-1.5838376712054014e-03" rms="4.6488320827484131e-01" purity="4.0941235423088074e-01" nType="-99"/>
                    <Node pos="r" depth="7" NCoef="0" IVar="-1" Cut="0.0000000000000000e+00" cType="1" res="5.4034852655604482e-04" rms="3.9644414186477661e-01" purity="2.7706733345985413e-01" nType="-99"/>
                  </Node>
                </Node>
              </Node>
              <Node pos="r" depth="4" NCoef="0" IVar="2" Cut="3.6461715698242188e+02" cType="1" res="8.7359678000211716e-03" rms="4.2843234539031982e-01" purity="3.4931507706642151e-01" nType="0">
                <Node pos="l" depth="5" NCoef="0" IVar="4" Cut="8.1889785826206207e-02" cType="1" res="1.4544066973030567e-02" rms="4.3608808517456055e-01" purity="3.6867269873619080e-01" nType="0">
                  <Node pos="l" depth="6" NCoef="0" IVar="-1" Cut="0.0000000000000000e+00" cType="1" res="3.2588001340627670e-03" rms="4.3894430994987488e-01" purity="3.8732424378395081e-01" nType="-99"/>
                  <Node pos="r" depth="6" NCoef="0" IVar="4" Cut="9.0293332934379578e-02" cType="1" res="6.3893403857946396e-03" rms="4.3419745564460754e-01" purity="3.5773608088493347e-01" nType="0">
                    <Node pos="l" depth="7" NCoef="0" IVar="-1" Cut="0.0000000000000000e+00" cType="1" res="-1.5181461349129677e-03" rms="4.2255124449729919e-01" purity="3.3890205621719360e-01" nType="-99"/>
                    <Node pos="r" depth="7" NCoef="0" IVar="-1" Cut="0.0000000000000000e+00" cType="1" res="1.8301460659131408e-03" rms="4.3957120180130005e-01" purity="3.6711022257804871e-01" nType="-99"/>
                  </Node>
                </Node>
                <Node pos="r" depth="5" NCoef="0" IVar="-1" Cut="0.0000000000000000e+00" cType="1" res="-3.1070134136825800e-03" rms="3.8464578986167908e-01" purity="2.4838474392890930e-01" nType="-99"/>
              </Node>
            </Node>
            <Node pos="r" depth="3" NCoef="0" IVar="3" Cut="4.0345174074172974e-01" cType="1" res="1.1349436827003956e-02" rms="4.0529772639274597e-01" purity="2.5974217057228088e-01" nType="0">
              <Node pos="l" depth="4" NCoef="0" IVar="5" Cut="5.0000000000000000e+00" cType="1" res="3.3334519248455763e-03" rms="3.4389623999595642e-01" purity="1.5246531367301941e-01" nType="0">
                <Node pos="l" depth="5" NCoef="0" IVar="-1" Cut="0.0000000000000000e+00" cType="1" res="3.7751221098005772e-03" rms="3.9210054278373718e-01" purity="2.1700325608253479e-01" nType="-99"/>
                <Node pos="r" depth="5" NCoef="0" IVar="4" Cut="2.0750768482685089e-01" cType="1" res="-3.9739012718200684e-03" rms="3.2265368103981018e-01" purity="1.2666815519332886e-01" nType="0">
                  <Node pos="l" depth="6" NCoef="0" IVar="-1" Cut="0.0000000000000000e+00" cType="1" res="-4.0047732181847095e-03" rms="2.6684358716011047e-01" purity="8.0994933843612671e-02" nType="-99"/>
                  <Node pos="r" depth="6" NCoef="0" IVar="-1" Cut="0.0000000000000000e+00" cType="1" res="1.1358981719240546e-03" rms="3.8332915306091309e-01" purity="1.8639063835144043e-01" nType="-99"/>
                </Node>
              </Node>
              <Node pos="r" depth="4" NCoef="0" IVar="2" Cut="2.1462246704101562e+02" cType="1" res="2.0306633785367012e-02" rms="4.6564537286758423e-01" purity="3.8308480381965637e-01" nType="0">
                <Node pos="l" depth="5" NCoef="0" IVar="-1" Cut="0.0000000000000000e+00" cType="1" res="3.4639060031622648e-03" rms="4.8741945624351501e-01" purity="4.6927547454833984e-01" nType="-99"/>
                <Node pos="r" depth="5" NCoef="0" IVar="3" Cut="5.4198873043060303e-01" cType="1" res="1.0983506217598915e-02" rms="4.5426601171493530e-01" purity="3.4070271253585815e-01" nType="0">
                  <Node pos="l" depth="6" NCoef="0" IVar="-1" Cut="0.0000000000000000e+00" cType="1" res="5.0624003051780164e-05" rms="4.2895206809043884e-01" purity="2.5567930936813354e-01" nType="-99"/>
                  <Node pos="r" depth="6" NCoef="0" IVar="-1" Cut="0.0000000000000000e+00" cType="1" res="2.4228091351687908e-03" rms="4.8786807060241699e-01" purity="4.6258375048637390e-01" nType="-99"/>
                </Node>
              </Node>
            </Node>
          </Node>
          <Node pos="r" depth="2" NCoef="0" IVar="3" Cut="1.0057771205902100e+00" cType="1" res="1.3693938963115215e-02" rms="4.2172601819038391e-01" purity="7.5570714473724365e-01" nType="0">
            <Node pos="l" depth="3" NCoef="0" IVar="5" Cut="3.0000000000000000e+00" cType="1" res="1.2505806051194668e-02" rms="4.2649069428443909e-01" purity="7.4850797653198242e-01" nType="0">
              <Node pos="l" depth="4" NCoef="0" IVar="3" Cut="7.7777433395385742e-01" cType="1" res="1.1010229587554932e-02" rms="4.2317962646484375e-01" purity="7.5511944293975830e-01" nType="0">
                <Node pos="l" depth="5" NCoef="0" IVar="-1" Cut="0.0000000000000000e+00" cType="1" res="-1.0538976639509201e-03" rms="4.8840001225471497e-01" purity="5.7171791791915894e-01" nType="-99"/>
                <Node pos="r" depth="5" NCoef="0" IVar="5" Cut="2.0000000000000000e+00" cType="1" res="1.1577029712498188e-02" rms="4.1226851940155029e-01" purity="7.6479744911193848e-01" nType="0">
                  <Node pos="l" depth="6" NCoef="0" IVar="3" Cut="9.9844783544540405e-01" cType="1" res="8.7844561785459518e-03" rms="4.0279808640480042e-01" purity="7.9255944490432739e-01" nType="0">
                    <Node pos="l" depth="7" NCoef="0" IVar="-1" Cut="0.0000000000000000e+00" cType="1" res="5.4820062359794974e-04" rms="4.1066777706146240e-01" purity="7.8147149085998535e-01" nType="-99"/>
                    <Node pos="r" depth="7" NCoef="0" IVar="-1" Cut="0.0000000000000000e+00" cType="1" res="1.7965149600058794e-03" rms="3.8867753744125366e-01" purity="8.1179124116897583e-01" nType="-99"/>
                  </Node>
                  <Node pos="r" depth="6" NCoef="0" IVar="3" Cut="8.5100036859512329e-01" cType="1" res="1.7205396667122841e-02" rms="4.4203403592109680e-01" purity="7.2513896226882935e-01" nType="0">
                    <Node pos="l" depth="7" NCoef="0" IVar="-1" Cut="0.0000000000000000e+00" cType="1" res="8.6990854470059276e-04" rms="4.6338260173797607e-01" purity="6.7919796705245972e-01" nType="-99"/>
                    <Node pos="r" depth="7" NCoef="0" IVar="-1" Cut="0.0000000000000000e+00" cType="1" res="2.4567600339651108e-03" rms="4.2524504661560059e-01" purity="7.5957751274108887e-01" nType="-99"/>
                  </Node>
                </Node>
              </Node>
              <Node pos="r" depth="4" NCoef="0" IVar="3" Cut="7.7746129035949707e-01" cType="1" res="2.7146439999341965e-02" rms="4.5957300066947937e-01" purity="6.8243438005447388e-01" nType="0">
                <Node pos="l" depth="5" NCoef="0" IVar="-1" Cut="0.0000000000000000e+00" cType="1" res="2.7595902793109417e-03" rms="4.6827813982963562e-01" purity="6.6265112161636353e-01" nType="-99"/>
                <Node pos="r" depth="5" NCoef="0" IVar="-1" Cut="0.0000000000000000e+00" cType="1" res="2.5081564672291279e-03" rms="4.4844144582748413e-01" purity="7.0714110136032104e-01" nType="-99"/>
              </Node>
            </Node>
            <Node pos="r" depth="3" NCoef="0" IVar="-1" Cut="0.0000000000000000e+00" cType="1" res="2.2653187625110149e-03" rms="3.9274361729621887e-01" purity="7.9634529352188110e-01" nType="-99"/>
          </Node>
        </Node>
        <Node pos="r" depth="1" NCoef="0" IVar="1" Cut="3.6453137397766113e+00" cType="1" res="-2.5072016287595034e-03" rms="3.9665812253952026e-01" purity="3.9428141713142395e-01" nType="0">
          <Node pos="l" depth="2" NCoef="0" IVar="1" Cut="1.0512248277664185e+00" cType="1" res="-4.2807799763977528e-03" rms="3.9719617366790771e-01" purity="3.9599969983100891e-01" nType="0">
            <Node pos="l" depth="3" NCoef="0" IVar="2" Cut="1.7305227661132812e+02" cType="1" res="1.7777508764993399e-04" rms="4.0412956476211548e-01" purity="4.2743754386901855e-01" nType="0">
              <Node pos="l" depth="4" NCoef="0" IVar="2" Cut="1.0047806549072266e+02" cType="1" res="3.8576386868953705e-03" rms="4.2019060254096985e-01" purity="5.3708565235137939e-01" nType="0">
                <Node pos="l" depth="5" NCoef="0" IVar="2" Cut="7.1306259155273438e+01" cType="1" res="7.1068438701331615e-03" rms="4.2645382881164551e-01" purity="6.0149639844894409e-01" nType="0">
                  <Node pos="l" depth="6" NCoef="0" IVar="2" Cut="5.2900676727294922e+01" cType="1" res="4.5146550983190536e-03" rms="4.2845022678375244e-01" purity="6.3962316513061523e-01" nType="0">
                    <Node pos="l" depth="7" NCoef="0" IVar="-1" Cut="0.0000000000000000e+00" cType="1" res="7.6363811967894435e-04" rms="4.2852976918220520e-01" purity="6.7424809932708740e-01" nType="-99"/>
                    <Node pos="r" depth="7" NCoef="0" IVar="-1" Cut="0.0000000000000000e+00" cType="1" res="-1.8715534824877977e-03" rms="4.2734676599502563e-01" purity="3.9878121018409729e-01" nType="-99"/>
                  </Node>
                  <Node pos="r" depth="6" NCoef="0" IVar="4" Cut="6.0944940894842148e-02" cType="1" res="2.0998345687985420e-02" rms="4.1531622409820557e-01" purity="3.9717581868171692e-01" nType="0">
                    <Node pos="l" depth="7" NCoef="0" IVar="-1" Cut="0.0000000000000000e+00" cType="1" res="1.4239733573049307e-03" rms="4.1262260079383850e-01" purity="4.3400707840919495e-01" nType="-99"/>
                    <Node pos="r" depth="7" NCoef="0" IVar="-1" Cut="0.0000000000000000e+00" cType="1" res="4.6805366873741150e-03" rms="4.1920354962348938e-01" purity="3.3747863769531250e-01" nType="-99"/>
                  </Node>
                </Node>
                <Node pos="r" depth="5" NCoef="0" IVar="0" Cut="9.0684288740158081e-01" cType="1" res="-6.1067631468176842e-03" rms="4.0020802617073059e-01" purity="3.3955594897270203e-01" nType="0">
                  <Node pos="l" depth="6" NCoef="0" IVar="3" Cut="7.0802307128906250e-01" cType="1" res="-5.6418357416987419e-04" rms="4.5972949266433716e-01" purity="4.7442391514778137e-01" nType="0">
                    <Node pos="l" depth="7" NCoef="0" IVar="-1" Cut="0.0000000000000000e+00" cType="1" res="-1.1419397778809071e-03" rms="4.4352179765701294e-01" purity="2.9926159977912903e-01" nType="-99"/>
                    <Node pos="r" depth="7" NCoef="0" IVar="-1" Cut="0.0000000000000000e+00" cType="1" res="6.6725938813760877e-04" rms="4.7346484661102295e-01" purity="6.2939381599426270e-01" nType="-99"/>
                  </Node>
                  <Node pos="r" depth="6" NCoef="0" IVar="-1" Cut="0.0000000000000000e+00" cType="1" res="-7.1734469383955002e-03" rms="2.3267689347267151e-01" purity="6.0693699866533279e-02" nType="-99"/>
                </Node>
              </Node>
              <Node pos="r" depth="4" NCoef="0" IVar="2" Cut="6.7546801757812500e+02" cType="1" res="-6.4697423949837685e-03" rms="3.7327682971954346e-01" purity="2.2936283051967621e-01" nType="0">
                <Node pos="l" depth="5" NCoef="0" IVar="2" Cut="3.6739639282226562e+02" cType="1" res="-4.4539752416312695e-03" rms="3.7502136826515198e-01" purity="2.3842842876911163e-01" nType="0">
                  <Node pos="l" depth="6" NCoef="0" IVar="2" Cut="2.8589370727539062e+02" cType="1" res="-9.5435967668890953e-03" rms="3.8095691800117493e-01" purity="2.5937578082084656e-01" nType="0">
                    <Node pos="l" depth="7" NCoef="0" IVar="-1" Cut="0.0000000000000000e+00" cType="1" res="-8.3511613775044680e-04" rms="3.8840529322624207e-01" purity="2.8097045421600342e-01" nType="-99"/>
                    <Node pos="r" depth="7" NCoef="0" IVar="-1" Cut="0.0000000000000000e+00" cType="1" res="-3.3232024870812893e-03" rms="3.6281239986419678e-01" purity="2.0898889005184174e-01" nType="-99"/>
                  </Node>
                  <Node pos="r" depth="6" NCoef="0" IVar="3" Cut="5.2541542053222656e-01" cType="1" res="5.6567164137959480e-03" rms="3.6273056268692017e-01" purity="1.9681592285633087e-01" nType="0">
                    <Node pos="l" depth="7" NCoef="0" IVar="-1" Cut="0.0000000000000000e+00" cType="1" res="-7.8219821443781257e-04" rms="3.0021297931671143e-01" purity="1.0771765559911728e-01" nType="-99"/>
                    <Node pos="r" depth="7" NCoef="0" IVar="-1" Cut="0.0000000000000000e+00" cType="1" res="2.6193019002676010e-03" rms="4.7759640216827393e-01" purity="4.0551802515983582e-01" nType="-99"/>
                  </Node>
                </Node>
                <Node pos="r" depth="5" NCoef="0" IVar="-1" Cut="0.0000000000000000e+00" cType="1" res="-4.0605538524687290e-03" rms="3.5921779274940491e-01" purity="1.5972843766212463e-01" nType="-99"/>
              </Node>
            </Node>
            <Node pos="r" depth="3" NCoef="0" IVar="3" Cut="6.1760342121124268e-01" cType="1" res="-2.7564547955989838e-02" rms="3.5791668295860291e-01" purity="2.3182313144207001e-01" nType="0">
              <Node pos="l" depth="4" NCoef="0" IVar="5" Cut="7.0000000000000000e+00" cType="1" res="-1.5883181244134903e-02" rms="2.5355032086372375e-01" purity="7.3825910687446594e-02" nType="0">
                <Node pos="l" depth="5" NCoef="0" IVar="3" Cut="3.3913543820381165e-01" cType="1" res="-1.1999150738120079e-02" rms="2.7629256248474121e-01" purity="8.8826306164264679e-02" nType="0">
                  <Node pos="l" depth="6" NCoef="0" IVar="-1" Cut="0.0000000000000000e+00" cType="1" res="1.8121863831765950e-05" rms="2.4288025498390198e-01" purity="6.4913704991340637e-02" nType="-99"/>
                  <Node pos="r" depth="6" NCoef="0" IVar="-1" Cut="0.0000000000000000e+00" cType="1" res="-5.6783184409141541e-03" rms="3.0373939871788025e-01" purity="1.1113214492797852e-01" nType="-99"/>
                </Node>
                <Node pos="r" depth="5" NCoef="0" IVar="-1" Cut="0.0000000000000000e+00" cType="1" res="-1.5669289976358414e-02" rms="1.6854558885097504e-01" purity="2.9380362480878830e-02" nType="-99"/>
              </Node>
              <Node pos="r" depth="4" NCoef="0" IVar="1" Cut="1.6366592645645142e+00" cType="1" res="-4.5696880668401718e-02" rms="4.7607827186584473e-01" purity="4.7714251279830933e-01" nType="0">
                <Node pos="l" depth="5" NCoef="0" IVar="-1" Cut="0.0000000000000000e+00" cType="1" res="-1.9580032676458359e-03" rms="4.7674575448036194e-01" purity="5.0245869159698486e-01" nType="-99"/>
                <Node pos="r" depth="5" NCoef="0" IVar="-1" Cut="0.0000000000000000e+00" cType="1" res="-7.3888502083718777e-03" rms="4.7284707427024841e-01" purity="4.3849012255668640e-01" nType="-99"/>
              </Node>
            </Node>
          </Node>
          <Node pos="r" depth="2" NCoef="0" IVar="-1" Cut="0.0000000000000000e+00" cType="1" res="6.7646554671227932e-03" rms="3.7855798006057739e-01" purity="3.4754061698913574e-01" nType="-99"/>
        </Node>
      </Node>
    </BinaryTree>
    <BinaryTree type="DecisionTree" boostWeight="1.0000000000000000e+00" itree="87">
      <Node pos="s" depth="0" NCoef="0" IVar="3" Cut="8.6956107616424561e-01" cType="1" res="4.4496236369013786e-03" rms="4.1008189320564270e-01" purity="5.0166958570480347e-01" nType="0">
        <Node pos="l" depth="1" NCoef="0" IVar="5" Cut="3.0000000000000000e+00" cType="1" res="1.6661304235458374e-01" rms="0.0000000000000000e+00" purity="3.4262430667877197e-01" nType="0">
          <Node pos="l" depth="2" NCoef="0" IVar="1" Cut="1.0784374475479126e+00" cType="1" res="-5.2310386672616005e-03" rms="4.6236589550971985e-01" purity="5.3321707248687744e-01" nType="0">
            <Node pos="l" depth="3" NCoef="0" IVar="3" Cut="5.0766360759735107e-01" cType="1" res="-2.1053212694823742e-03" rms="4.6647971868515015e-01" purity="5.5728596448898315e-01" nType="0">
              <Node pos="l" depth="4" NCoef="0" IVar="-1" Cut="0.0000000000000000e+00" cType="1" res="4.7736279666423798e-03" rms="3.9526900649070740e-01" purity="2.2481808066368103e-01" nType="-99"/>
              <Node pos="r" depth="4" NCoef="0" IVar="3" Cut="8.3453780412673950e-01" cType="1" res="-4.0285540744662285e-03" rms="4.7058790922164917e-01" purity="5.7847708463668823e-01" nType="0">
                <Node pos="l" depth="5" NCoef="0" IVar="4" Cut="1.0051941871643066e-01" cType="1" res="-9.9392002448439598e-03" rms="4.7627925872802734e-01" purity="5.2700078487396240e-01" nType="0">
                  <Node pos="l" depth="6" NCoef="0" IVar="3" Cut="7.1859091520309448e-01" cType="1" res="-1.3291663490235806e-02" rms="4.7502100467681885e-01" purity="5.3722763061523438e-01" nType="0">
                    <Node pos="l" depth="7" NCoef="0" IVar="-1" Cut="0.0000000000000000e+00" cType="1" res="-3.9345594123005867e-03" rms="4.4978749752044678e-01" purity="3.2274323701858521e-01" nType="-99"/>
                    <Node pos="r" depth="7" NCoef="0" IVar="-1" Cut="0.0000000000000000e+00" cType="1" res="-5.1948969485238194e-04" rms="4.8203667998313904e-01" purity="6.0099118947982788e-01" nType="-99"/>
                  </Node>
                  <Node pos="r" depth="6" NCoef="0" IVar="-1" Cut="0.0000000000000000e+00" cType="1" res="1.2758191442117095e-03" rms="4.8451340198516846e-01" purity="4.5379945635795593e-01" nType="-99"/>
                </Node>
                <Node pos="r" depth="5" NCoef="0" IVar="3" Cut="8.6164236068725586e-01" cType="1" res="9.1955913230776787e-03" rms="4.5732155442237854e-01" purity="6.9364720582962036e-01" nType="0">
                  <Node pos="l" depth="6" NCoef="0" IVar="3" Cut="8.4590429067611694e-01" cType="1" res="5.7206214405596256e-03" rms="4.6084833145141602e-01" purity="6.8552803993225098e-01" nType="0">
                    <Node pos="l" depth="7" NCoef="0" IVar="-1" Cut="0.0000000000000000e+00" cType="1" res="1.6725341556593776e-03" rms="4.5716977119445801e-01" purity="6.9389265775680542e-01" nType="-99"/>
                    <Node pos="r" depth="7" NCoef="0" IVar="-1" Cut="0.0000000000000000e+00" cType="1" res="-2.2952456492930651e-04" rms="4.6289673447608948e-01" purity="6.8040204048156738e-01" nType="-99"/>
                  </Node>
                  <Node pos="r" depth="6" NCoef="0" IVar="-1" Cut="0.0000000000000000e+00" cType="1" res="1.9155032932758331e-03" rms="4.4596710801124573e-01" purity="7.1897387504577637e-01" nType="-99"/>
                </Node>
              </Node>
            </Node>
            <Node pos="r" depth="3" NCoef="0" IVar="-1" Cut="0.0000000000000000e+00" cType="1" res="-4.5323628000915051e-03" rms="4.1635245084762573e-01" purity="2.8567549586296082e-01" nType="-99"/>
          </Node>
          <Node pos="r" depth="2" NCoef="0" IVar="3" Cut="3.9269176125526428e-01" cType="1" res="1.7913718475028872e-03" rms="3.8352182507514954e-01" purity="2.6370826363563538e-01" nType="0">
            <Node pos="l" depth="3" NCoef="0" IVar="4" Cut="2.3485511541366577e-01" cType="1" res="-6.5705836750566959e-03" rms="2.6218825578689575e-01" purity="8.0618895590305328e-02" nType="0">
              <Node pos="l" depth="4" NCoef="0" IVar="4" Cut="2.0463465154170990e-01" cType="1" res="-8.4906155243515968e-03" rms="2.3530729115009308e-01" purity="6.1623923480510712e-02" nType="0">
                <Node pos="l" depth="5" NCoef="0" IVar="3" Cut="3.2945901155471802e-01" cType="1" res="-1.0467204265296459e-02" rms="2.2243395447731018e-01" purity="5.4275337606668472e-02" nType="0">
                  <Node pos="l" depth="6" NCoef="0" IVar="5" Cut="6.0000000000000000e+00" cType="1" res="3.9033457636833191e-02" rms="1.1953780800104141e-01" purity="4.1730806231498718e-02" nType="0">
                    <Node pos="l" depth="7" NCoef="0" IVar="-1" Cut="0.0000000000000000e+00" cType="1" res="-3.2191304489970207e-03" rms="2.3042447865009308e-01" purity="5.8191649615764618e-02" nType="-99"/>
                    <Node pos="r" depth="7" NCoef="0" IVar="-1" Cut="0.0000000000000000e+00" cType="1" res="-1.1262432672083378e-02" rms="1.7357251048088074e-01" purity="3.1517062336206436e-02" nType="-99"/>
                  </Node>
                  <Node pos="r" depth="6" NCoef="0" IVar="5" Cut="6.0000000000000000e+00" cType="1" res="-3.5181187558919191e-03" rms="2.7140724658966064e-01" purity="8.3191558718681335e-02" nType="0">
                    <Node pos="l" depth="7" NCoef="0" IVar="-1" Cut="0.0000000000000000e+00" cType="1" res="-4.1575720533728600e-03" rms="2.5928354263305664e-01" purity="7.4586056172847748e-02" nType="-99"/>
                    <Node pos="r" depth="7" NCoef="0" IVar="-1" Cut="0.0000000000000000e+00" cType="1" res="3.3031890634447336e-03" rms="2.9118159413337708e-01" purity="9.8423406481742859e-02" nType="-99"/>
                  </Node>
                </Node>
                <Node pos="r" depth="5" NCoef="0" IVar="-1" Cut="0.0000000000000000e+00" cType="1" res="3.5644315648823977e-03" rms="3.5265117883682251e-01" purity="1.4840072393417358e-01" nType="-99"/>
              </Node>
              <Node pos="r" depth="4" NCoef="0" IVar="2" Cut="8.5208679199218750e+02" cType="1" res="5.2302042022347450e-03" rms="3.8829636573791504e-01" purity="1.9736461341381073e-01" nType="0">
                <Node pos="l" depth="5" NCoef="0" IVar="-1" Cut="0.0000000000000000e+00" cType="1" res="-6.9222575984895229e-04" rms="3.7913259863853455e-01" purity="1.8208648264408112e-01" nType="-99"/>
                <Node pos="r" depth="5" NCoef="0" IVar="-1" Cut="0.0000000000000000e+00" cType="1" res="2.8862277977168560e-03" rms="4.0029981732368469e-01" purity="2.1851366758346558e-01" nType="-99"/>
              </Node>
            </Node>
            <Node pos="r" depth="3" NCoef="0" IVar="5" Cut="5.0000000000000000e+00" cType="1" res="7.2064893320202827e-03" rms="4.4349330663681030e-01" purity="3.8001182675361633e-01" nType="0">
              <Node pos="l" depth="4" NCoef="0" IVar="3" Cut="6.6911309957504272e-01" cType="1" res="3.8923807442188263e-03" rms="4.5009672641754150e-01" purity="4.0852355957031250e-01" nType="0">
                <Node pos="l" depth="5" NCoef="0" IVar="4" Cut="1.5451493859291077e-01" cType="1" res="-3.1323388684540987e-03" rms="4.3184280395507812e-01" purity="2.9741284251213074e-01" nType="0">
                  <Node pos="l" depth="6" NCoef="0" IVar="2" Cut="5.7319980621337891e+01" cType="1" res="-5.5275103077292442e-03" rms="4.2971220612525940e-01" purity="2.9517543315887451e-01" nType="0">
                    <Node pos="l" depth="7" NCoef="0" IVar="-1" Cut="0.0000000000000000e+00" cType="1" res="2.0545504521578550e-03" rms="4.5325344800949097e-01" purity="3.5144788026809692e-01" nType="-99"/>
                    <Node pos="r" depth="7" NCoef="0" IVar="-1" Cut="0.0000000000000000e+00" cType="1" res="-1.1225822381675243e-03" rms="4.2609006166458130e-01" purity="2.8704950213432312e-01" nType="-99"/>
                  </Node>
                  <Node pos="r" depth="6" NCoef="0" IVar="-1" Cut="0.0000000000000000e+00" cType="1" res="2.2514963056892157e-03" rms="4.5073410868644714e-01" purity="3.1841674447059631e-01" nType="-99"/>
                </Node>
                <Node pos="r" depth="5" NCoef="0" IVar="4" Cut="7.9211309552192688e-02" cType="1" res="1.5741357579827309e-02" rms="4.7908061742782593e-01" purity="5.9594005346298218e-01" nType="0">
                  <Node pos="l" depth="6" NCoef="0" IVar="2" Cut="1.9516514587402344e+02" cType="1" res="1.2251825071871281e-02" rms="4.7859311103820801e-01" purity="5.9597188234329224e-01" nType="0">
                    <Node pos="l" depth="7" NCoef="0" IVar="-1" Cut="0.0000000000000000e+00" cType="1" res="1.6984713729470968e-03" rms="4.7635930776596069e-01" purity="6.0922372341156006e-01" nType="-99"/>
                    <Node pos="r" depth="7" NCoef="0" IVar="-1" Cut="0.0000000000000000e+00" cType="1" res="-1.4290451072156429e-03" rms="4.8714330792427063e-01" purity="5.3903782367706299e-01" nType="-99"/>
                  </Node>
                  <Node pos="r" depth="6" NCoef="0" IVar="-1" Cut="0.0000000000000000e+00" cType="1" res="2.5882401969283819e-03" rms="4.8076760768890381e-01" purity="5.9581321477890015e-01" nType="-99"/>
                </Node>
              </Node>
              <Node pos="r" depth="4" NCoef="0" IVar="4" Cut="5.1473092287778854e-02" cType="1" res="2.0270710811018944e-02" rms="4.1565656661987305e-01" purity="2.6308256387710571e-01" nType="0">
                <Node pos="l" depth="5" NCoef="0" IVar="-1" Cut="0.0000000000000000e+00" cType="1" res="4.8706654342822731e-04" rms="3.8353541493415833e-01" purity="2.2852867841720581e-01" nType="-99"/>
                <Node pos="r" depth="5" NCoef="0" IVar="2" Cut="1.5654475402832031e+02" cType="1" res="2.4725848808884621e-02" rms="4.2346823215484619e-01" purity="2.7203553915023804e-01" nType="0">
                  <Node pos="l" depth="6" NCoef="0" IVar="-1" Cut="0.0000000000000000e+00" cType="1" res="5.6831296533346176e-03" rms="4.4554984569549561e-01" purity="3.3814275264739990e-01" nType="-99"/>
                  <Node pos="r" depth="6" NCoef="0" IVar="0" Cut="6.4437073469161987e-01" cType="1" res="1.6075938940048218e-02" rms="4.1390523314476013e-01" purity="2.4534493684768677e-01" nType="0">
                    <Node pos="l" depth="7" NCoef="0" IVar="-1" Cut="0.0000000000000000e+00" cType="1" res="3.0062634032219648e-03" rms="4.5216906070709229e-01" purity="3.0748197436332703e-01" nType="-99"/>
                    <Node pos="r" depth="7" NCoef="0" IVar="-1" Cut="0.0000000000000000e+00" cType="1" res="9.6019160992000252e-05" rms="3.2730218768119812e-01" purity="1.2568503618240356e-01" nType="-99"/>
                  </Node>
                </Node>
              </Node>
            </Node>
          </Node>
        </Node>
        <Node pos="r" depth="1" NCoef="0" IVar="1" Cut="1.1755354404449463e+00" cType="1" res="1.2340486049652100e-02" rms="4.1309076547622681e-01" purity="7.6786965131759644e-01" nType="0">
          <Node pos="l" depth="2" NCoef="0" IVar="1" Cut="-7.7317744493484497e-02" cType="1" res="1.3113789260387421e-02" rms="4.1040918231010437e-01" purity="7.7445363998413086e-01" nType="0">
            <Node pos="l" depth="3" NCoef="0" IVar="3" Cut="9.3324792385101318e-01" cType="1" res="1.5273332595825195e-02" rms="4.0028411149978638e-01" purity="7.9341655969619751e-01" nType="0">
              <Node pos="l" depth="4" NCoef="0" IVar="-1" Cut="0.0000000000000000e+00" cType="1" res="3.4334764350205660e-03" rms="4.1171011328697205e-01" purity="7.8093630075454712e-01" nType="-99"/>
              <Node pos="r" depth="4" NCoef="0" IVar="3" Cut="9.9487739801406860e-01" cType="1" res="1.1818033643066883e-02" rms="3.9757075905799866e-01" purity="7.9624164104461670e-01" nType="0">
                <Node pos="l" depth="5" NCoef="0" IVar="3" Cut="9.8692387342453003e-01" cType="1" res="8.5965180769562721e-03" rms="4.0740904211997986e-01" purity="7.8596693277359009e-01" nType="0">
                  <Node pos="l" depth="6" NCoef="0" IVar="-1" Cut="0.0000000000000000e+00" cType="1" res="1.4805693645030260e-03" rms="4.0991342067718506e-01" purity="7.8328961133956909e-01" nType="-99"/>
                  <Node pos="r" depth="6" NCoef="0" IVar="-1" Cut="0.0000000000000000e+00" cType="1" res="3.5579549148678780e-04" rms="4.0470409393310547e-01" purity="7.8876090049743652e-01" nType="-99"/>
                </Node>
                <Node pos="r" depth="5" NCoef="0" IVar="-1" Cut="0.0000000000000000e+00" cType="1" res="1.4683405170217156e-03" rms="3.9358159899711609e-01" purity="8.0032867193222046e-01" nType="-99"/>
              </Node>
            </Node>
            <Node pos="r" depth="3" NCoef="0" IVar="1" Cut="4.3917149305343628e-02" cType="1" res="1.2052305042743683e-02" rms="4.1529139876365662e-01" purity="7.6513272523880005e-01" nType="0">
              <Node pos="l" depth="4" NCoef="0" IVar="1" Cut="2.0445065572857857e-02" cType="1" res="2.1767850965261459e-02" rms="3.9422914385795593e-01" purity="8.0085462331771851e-01" nType="0">
                <Node pos="l" depth="5" NCoef="0" IVar="1" Cut="-1.6313834348693490e-03" cType="1" res="2.4719402194023132e-02" rms="3.9158034324645996e-01" purity="8.0476909875869751e-01" nType="0">
                  <Node pos="l" depth="6" NCoef="0" IVar="1" Cut="-3.0937077477574348e-02" cType="1" res="1.9963670521974564e-02" rms="3.9449694752693176e-01" purity="8.0109786987304688e-01" nType="0">
                    <Node pos="l" depth="7" NCoef="0" IVar="-1" Cut="0.0000000000000000e+00" cType="1" res="2.6788832619786263e-03" rms="3.9164069294929504e-01" purity="8.0488312244415283e-01" nType="-99"/>
                    <Node pos="r" depth="7" NCoef="0" IVar="-1" Cut="0.0000000000000000e+00" cType="1" res="1.6515785828232765e-03" rms="3.9976486563682556e-01" purity="7.9395735263824463e-01" nType="-99"/>
                  </Node>
                  <Node pos="r" depth="6" NCoef="0" IVar="-1" Cut="0.0000000000000000e+00" cType="1" res="5.0382185727357864e-03" rms="3.7880837917327881e-01" purity="8.1977182626724243e-01" nType="-99"/>
                </Node>
                <Node pos="r" depth="5" NCoef="0" IVar="-1" Cut="0.0000000000000000e+00" cType="1" res="6.3525838777422905e-04" rms="4.0813142061233521e-01" purity="7.7928918600082397e-01" nType="-99"/>
              </Node>
              <Node pos="r" depth="4" NCoef="0" IVar="3" Cut="9.9365413188934326e-01" cType="1" res="7.2781955823302269e-03" rms="4.2517772316932678e-01" purity="7.4757939577102661e-01" nType="0">
                <Node pos="l" depth="5" NCoef="0" IVar="1" Cut="4.0867924690246582e-01" cType="1" res="-2.2659129463136196e-03" rms="4.4377419352531433e-01" purity="7.1692448854446411e-01" nType="0">
                  <Node pos="l" depth="6" NCoef="0" IVar="1" Cut="1.8509371578693390e-01" cType="1" res="4.8733749426901340e-03" rms="4.3222841620445251e-01" purity="7.4506390094757080e-01" nType="0">
                    <Node pos="l" depth="7" NCoef="0" IVar="-1" Cut="0.0000000000000000e+00" cType="1" res="-7.7370658982545137e-04" rms="4.3426501750946045e-01" purity="7.4213689565658569e-01" nType="-99"/>
                    <Node pos="r" depth="7" NCoef="0" IVar="-1" Cut="0.0000000000000000e+00" cType="1" res="1.9449993269518018e-03" rms="4.2943644523620605e-01" purity="7.4847108125686646e-01" nType="-99"/>
                  </Node>
                  <Node pos="r" depth="6" NCoef="0" IVar="-1" Cut="0.0000000000000000e+00" cType="1" res="-1.9899758044630289e-03" rms="4.7208791971206665e-01" purity="6.4344078302383423e-01" nType="-99"/>
                </Node>
                <Node pos="r" depth="5" NCoef="0" IVar="1" Cut="1.8992851674556732e-01" cType="1" res="1.3284533284604549e-02" rms="4.1293242573738098e-01" purity="7.6687127351760864e-01" nType="0">
                  <Node pos="l" depth="6" NCoef="0" IVar="1" Cut="9.1021895408630371e-02" cType="1" res="1.9272435456514359e-02" rms="3.9540919661521912e-01" purity="7.9826343059539795e-01" nType="0">
                    <Node pos="l" depth="7" NCoef="0" IVar="-1" Cut="0.0000000000000000e+00" cType="1" res="1.1474178172647953e-03" rms="4.0192988514900208e-01" purity="7.9257196187973022e-01" nType="-99"/>
                    <Node pos="r" depth="7" NCoef="0" IVar="-1" Cut="0.0000000000000000e+00" cType="1" res="2.7577055152505636e-03" rms="3.9162260293960571e-01" purity="8.0144262313842773e-01" nType="-99"/>
                  </Node>
                  <Node pos="r" depth="6" NCoef="0" IVar="1" Cut="4.1250780224800110e-01" cType="1" res="1.0063306428492069e-02" rms="4.2202311754226685e-01" purity="7.4998366832733154e-01" nType="0">
                    <Node pos="l" depth="7" NCoef="0" IVar="-1" Cut="0.0000000000000000e+00" cType="1" res="3.3436273224651814e-04" rms="4.1459107398986816e-01" purity="7.6761728525161743e-01" nType="-99"/>
                    <Node pos="r" depth="7" NCoef="0" IVar="-1" Cut="0.0000000000000000e+00" cType="1" res="1.6022026538848877e-03" rms="4.2923781275749207e-01" purity="7.3229199647903442e-01" nType="-99"/>
                  </Node>
                </Node>
              </Node>
            </Node>
          </Node>
          <Node pos="r" depth="2" NCoef="0" IVar="-1" Cut="0.0000000000000000e+00" cType="1" res="-5.1120319403707981e-04" rms="4.7185218334197998e-01" purity="6.1178588867187500e-01" nType="-99"/>
        </Node>
      </Node>
    </BinaryTree>
    <BinaryTree type="DecisionTree" boostWeight="1.0000000000000000e+00" itree="88">
      <Node pos="s" depth="0" NCoef="0" IVar="3" Cut="7.7301573753356934e-01" cType="1" res="3.6627775989472866e-03" rms="4.1107130050659180e-01" purity="5.0105684995651245e-01" nType="0">
        <Node pos="l" depth="1" NCoef="0" IVar="3" Cut="1.2522728741168976e-01" cType="1" res="-6.9533230271190405e-04" rms="3.9202371239662170e-01" purity="2.6581832766532898e-01" nType="0">
          <Node pos="l" depth="2" NCoef="0" IVar="-1" Cut="0.0000000000000000e+00" cType="1" res="3.2416849862784147e-03" rms="3.4288564324378967e-01" purity="1.5662112832069397e-01" nType="-99"/>
          <Node pos="r" depth="2" NCoef="0" IVar="0" Cut="6.2314200401306152e-01" cType="1" res="-1.2479209108278155e-03" rms="3.9373669028282166e-01" purity="2.6991391181945801e-01" nType="0">
            <Node pos="l" depth="3" NCoef="0" IVar="5" Cut="4.0000000000000000e+00" cType="1" res="3.6225637886673212e-03" rms="4.1583925485610962e-01" purity="4.2092165350914001e-01" nType="0">
              <Node pos="l" depth="4" NCoef="0" IVar="4" Cut="1.5659306943416595e-01" cType="1" res="-2.4197101593017578e-03" rms="4.7917196154594421e-01" purity="4.6927285194396973e-01" nType="0">
                <Node pos="l" depth="5" NCoef="0" IVar="4" Cut="4.0466926991939545e-02" cType="1" res="-4.4369464740157127e-03" rms="4.8041310906410217e-01" purity="4.7871428728103638e-01" nType="0">
                  <Node pos="l" depth="6" NCoef="0" IVar="0" Cut="2.6120981574058533e-01" cType="1" res="-2.3835312575101852e-02" rms="4.7729080915451050e-01" purity="4.5893609523773193e-01" nType="0">
                    <Node pos="l" depth="7" NCoef="0" IVar="-1" Cut="0.0000000000000000e+00" cType="1" res="-5.2990816766396165e-04" rms="4.8348084092140198e-01" purity="5.6005269289016724e-01" nType="-99"/>
                    <Node pos="r" depth="7" NCoef="0" IVar="-1" Cut="0.0000000000000000e+00" cType="1" res="-3.7181791849434376e-03" rms="4.7167679667472839e-01" purity="3.7631565332412720e-01" nType="-99"/>
                  </Node>
                  <Node pos="r" depth="6" NCoef="0" IVar="3" Cut="6.4777857065200806e-01" cType="1" res="7.2408805135637522e-04" rms="4.8110869526863098e-01" purity="4.8397636413574219e-01" nType="0">
                    <Node pos="l" depth="7" NCoef="0" IVar="-1" Cut="0.0000000000000000e+00" cType="1" res="-1.7806846881285310e-03" rms="4.6275883913040161e-01" purity="3.4841978549957275e-01" nType="-99"/>
                    <Node pos="r" depth="7" NCoef="0" IVar="-1" Cut="0.0000000000000000e+00" cType="1" res="7.4840616434812546e-04" rms="4.8867300152778625e-01" purity="5.4303747415542603e-01" nType="-99"/>
                  </Node>
                </Node>
                <Node pos="r" depth="5" NCoef="0" IVar="-1" Cut="0.0000000000000000e+00" cType="1" res="2.6388254482299089e-03" rms="4.6153056621551514e-01" purity="3.4383973479270935e-01" nType="-99"/>
              </Node>
              <Node pos="r" depth="4" NCoef="0" IVar="0" Cut="2.0099751651287079e-02" cType="1" res="1.4740345068275928e-02" rms="4.5046547055244446e-01" purity="3.4933879971504211e-01" nType="0">
                <Node pos="l" depth="5" NCoef="0" IVar="1" Cut="-9.9470112472772598e-03" cType="1" res="3.3006254583597183e-02" rms="4.7011718153953552e-01" purity="4.3213099241256714e-01" nType="0">
                  <Node pos="l" depth="6" NCoef="0" IVar="-1" Cut="0.0000000000000000e+00" cType="1" res="4.0910677053034306e-03" rms="4.7593867778778076e-01" purity="4.7752425074577332e-01" nType="-99"/>
                  <Node pos="r" depth="6" NCoef="0" IVar="3" Cut="5.6366842985153198e-01" cType="1" res="2.6300322264432907e-02" rms="4.6567946672439575e-01" purity="3.9877790212631226e-01" nType="0">
                    <Node pos="l" depth="7" NCoef="0" IVar="-1" Cut="0.0000000000000000e+00" cType="1" res="1.5976289287209511e-03" rms="4.3618008494377136e-01" purity="2.7145841717720032e-01" nType="-99"/>
                    <Node pos="r" depth="7" NCoef="0" IVar="-1" Cut="0.0000000000000000e+00" cType="1" res="3.6581063177436590e-03" rms="4.9459877610206604e-01" purity="5.3379046916961670e-01" nType="-99"/>
                  </Node>
                </Node>
                <Node pos="r" depth="5" NCoef="0" IVar="0" Cut="4.3231996893882751e-01" cType="1" res="2.4032720830291510e-03" rms="4.3625980615615845e-01" purity="2.9341971874237061e-01" nType="0">
                  <Node pos="l" depth="6" NCoef="0" IVar="1" Cut="1.6639235615730286e-01" cType="1" res="-4.7905091196298599e-03" rms="4.4677057862281799e-01" purity="3.2368335127830505e-01" nType="0">
                    <Node pos="l" depth="7" NCoef="0" IVar="-1" Cut="0.0000000000000000e+00" cType="1" res="8.1130198668688536e-04" rms="4.5973640680313110e-01" purity="3.6844161152839661e-01" nType="-99"/>
                    <Node pos="r" depth="7" NCoef="0" IVar="-1" Cut="0.0000000000000000e+00" cType="1" res="-3.2042011152952909e-03" rms="4.2428922653198242e-01" purity="2.5152498483657837e-01" nType="-99"/>
                  </Node>
                  <Node pos="r" depth="6" NCoef="0" IVar="3" Cut="4.9276709556579590e-01" cType="1" res="1.4031372964382172e-02" rms="4.1845107078552246e-01" purity="2.4450124800205231e-01" nType="0">
                    <Node pos="l" depth="7" NCoef="0" IVar="-1" Cut="0.0000000000000000e+00" cType="1" res="3.6330311559140682e-03" rms="3.8957348465919495e-01" purity="1.9616226851940155e-01" nType="-99"/>
                    <Node pos="r" depth="7" NCoef="0" IVar="-1" Cut="0.0000000000000000e+00" cType="1" res="8.1812741700559855e-04" rms="4.4887253642082214e-01" purity="2.9935234785079956e-01" nType="-99"/>
                  </Node>
                </Node>
              </Node>
            </Node>
            <Node pos="r" depth="3" NCoef="0" IVar="4" Cut="2.0870636403560638e-01" cType="1" res="-7.5513129122555256e-03" rms="2.9132246971130371e-01" purity="1.0426501929759979e-01" nType="0">
              <Node pos="l" depth="4" NCoef="0" IVar="0" Cut="1.8292261362075806e+00" cType="1" res="-5.9274691157042980e-03" rms="2.8974634408950806e-01" purity="1.0393256694078445e-01" nType="0">
                <Node pos="l" depth="5" NCoef="0" IVar="4" Cut="2.7249880135059357e-02" cType="1" res="-2.4110404774546623e-03" rms="3.2547381520271301e-01" purity="1.3444428145885468e-01" nType="0">
                  <Node pos="l" depth="6" NCoef="0" IVar="-1" Cut="0.0000000000000000e+00" cType="1" res="-6.0051041655242443e-03" rms="3.1793355941772461e-01" purity="1.2649901211261749e-01" nType="-99"/>
                  <Node pos="r" depth="6" NCoef="0" IVar="3" Cut="5.6403756141662598e-01" cType="1" res="-4.4301740126684308e-04" rms="3.2595166563987732e-01" purity="1.3504441082477570e-01" nType="0">
                    <Node pos="l" depth="7" NCoef="0" IVar="-1" Cut="0.0000000000000000e+00" cType="1" res="-8.2888727774843574e-04" rms="3.0529940128326416e-01" purity="1.1050524562597275e-01" nType="-99"/>
                    <Node pos="r" depth="7" NCoef="0" IVar="-1" Cut="0.0000000000000000e+00" cType="1" res="2.1255246829241514e-03" rms="4.4934314489364624e-01" purity="3.1588801741600037e-01" nType="-99"/>
                  </Node>
                </Node>
                <Node pos="r" depth="5" NCoef="0" IVar="1" Cut="1.2594096660614014e+00" cType="1" res="-1.2744407169520855e-02" rms="2.0315425097942352e-01" purity="4.4782605022192001e-02" nType="0">
                  <Node pos="l" depth="6" NCoef="0" IVar="4" Cut="1.2162652611732483e-01" cType="1" res="-1.5987545251846313e-02" rms="1.9655467569828033e-01" purity="4.1776947677135468e-02" nType="0">
                    <Node pos="l" depth="7" NCoef="0" IVar="-1" Cut="0.0000000000000000e+00" cType="1" res="-1.1611198075115681e-02" rms="1.7551220953464508e-01" purity="3.2900769263505936e-02" nType="-99"/>
                    <Node pos="r" depth="7" NCoef="0" IVar="-1" Cut="0.0000000000000000e+00" cType="1" res="-4.8419740051031113e-03" rms="2.3402696847915649e-01" purity="6.0119148343801498e-02" nType="-99"/>
                  </Node>
                  <Node pos="r" depth="6" NCoef="0" IVar="-1" Cut="0.0000000000000000e+00" cType="1" res="-6.5437471494078636e-04" rms="2.2475840151309967e-01" purity="5.5511575192213058e-02" nType="-99"/>
                </Node>
              </Node>
              <Node pos="r" depth="4" NCoef="0" IVar="-1" Cut="0.0000000000000000e+00" cType="1" res="-7.7885789796710014e-03" rms="3.1351512670516968e-01" purity="1.0937876999378204e-01" nType="-99"/>
            </Node>
          </Node>
        </Node>
        <Node pos="r" depth="1" NCoef="0" IVar="3" Cut="1.0595389604568481e+00" cType="1" res="8.0446340143680573e-03" rms="4.2932701110839844e-01" purity="7.3757708072662354e-01" nType="0">
          <Node pos="l" depth="2" NCoef="0" IVar="0" Cut="6.1459434032440186e-01" cType="1" res="8.9084068313241005e-03" rms="4.2908406257629395e-01" purity="7.4066889286041260e-01" nType="0">
            <Node pos="l" depth="3" NCoef="0" IVar="0" Cut="2.5766184926033020e-01" cType="1" res="9.6086300909519196e-03" rms="4.2772313952445984e-01" purity="7.4768006801605225e-01" nType="0">
              <Node pos="l" depth="4" NCoef="0" IVar="2" Cut="1.9245346069335938e+02" cType="1" res="1.1088798753917217e-02" rms="4.2420476675033569e-01" purity="7.5585991144180298e-01" nType="0">
                <Node pos="l" depth="5" NCoef="0" IVar="2" Cut="9.9327980041503906e+01" cType="1" res="1.0207870043814182e-02" rms="4.2180505394935608e-01" purity="7.6039201021194458e-01" nType="0">
                  <Node pos="l" depth="6" NCoef="0" IVar="4" Cut="2.2001268342137337e-02" cType="1" res="1.1411844752728939e-02" rms="4.1691154241561890e-01" purity="7.6971685886383057e-01" nType="0">
                    <Node pos="l" depth="7" NCoef="0" IVar="-1" Cut="0.0000000000000000e+00" cType="1" res="1.0634784121066332e-03" rms="4.1152644157409668e-01" purity="7.7881658077239990e-01" nType="-99"/>
                    <Node pos="r" depth="7" NCoef="0" IVar="-1" Cut="0.0000000000000000e+00" cType="1" res="1.7952959751710296e-03" rms="4.4116294384002686e-01" purity="7.2712081670761108e-01" nType="-99"/>
                  </Node>
                  <Node pos="r" depth="6" NCoef="0" IVar="2" Cut="1.3837831115722656e+02" cType="1" res="8.4028614219278097e-04" rms="4.5798891782760620e-01" purity="6.8783962726593018e-01" nType="0">
                    <Node pos="l" depth="7" NCoef="0" IVar="-1" Cut="0.0000000000000000e+00" cType="1" res="-1.3598017394542694e-03" rms="4.6171870827674866e-01" purity="6.7483335733413696e-01" nType="-99"/>
                    <Node pos="r" depth="7" NCoef="0" IVar="-1" Cut="0.0000000000000000e+00" cType="1" res="1.5558208106085658e-03" rms="4.5355665683746338e-01" purity="7.0142632722854614e-01" nType="-99"/>
                  </Node>
                </Node>
                <Node pos="r" depth="5" NCoef="0" IVar="-1" Cut="0.0000000000000000e+00" cType="1" res="2.6470071170479059e-03" rms="4.6779760718345642e-01" purity="6.6837710142135620e-01" nType="-99"/>
              </Node>
              <Node pos="r" depth="4" NCoef="0" IVar="3" Cut="8.3769387006759644e-01" cType="1" res="-1.3553921133279800e-02" rms="4.7883328795433044e-01" purity="6.1967533826828003e-01" nType="0">
                <Node pos="l" depth="5" NCoef="0" IVar="-1" Cut="0.0000000000000000e+00" cType="1" res="6.4276464399881661e-05" rms="4.8871004581451416e-01" purity="5.7551687955856323e-01" nType="-99"/>
                <Node pos="r" depth="5" NCoef="0" IVar="-1" Cut="0.0000000000000000e+00" cType="1" res="-2.0025540143251419e-03" rms="4.7274500131607056e-01" purity="6.4556908607482910e-01" nType="-99"/>
              </Node>
            </Node>
            <Node pos="r" depth="3" NCoef="0" IVar="-1" Cut="0.0000000000000000e+00" cType="1" res="-1.8885271856561303e-03" rms="4.8363485932350159e-01" purity="4.3558794260025024e-01" nType="-99"/>
          </Node>
          <Node pos="r" depth="2" NCoef="0" IVar="-1" Cut="0.0000000000000000e+00" cType="1" res="-2.7392888441681862e-03" rms="4.3804118037223816e-01" purity="6.0458689928054810e-01" nType="-99"/>
        </Node>
      </Node>
    </BinaryTree>
    <BinaryTree type="DecisionTree" boostWeight="1.0000000000000000e+00" itree="89">
      <Node pos="s" depth="0" NCoef="0" IVar="3" Cut="1.0602499246597290e+00" cType="1" res="3.4234083723276854e-03" rms="4.1102921962738037e-01" purity="4.9996778368949890e-01" nType="0">
        <Node pos="l" depth="1" NCoef="0" IVar="3" Cut="8.5505819320678711e-01" cType="1" res="3.9769317954778671e-03" rms="4.1070294380187988e-01" purity="4.9903258681297302e-01" nType="0">
          <Node pos="l" depth="2" NCoef="0" IVar="5" Cut="1.0000000000000000e+01" cType="1" res="1.6539260745048523e-01" rms="0.0000000000000000e+00" purity="3.3046770095825195e-01" nType="0">
            <Node pos="l" depth="3" NCoef="0" IVar="3" Cut="1.6588403284549713e-01" cType="1" res="1.1355616152286530e-03" rms="4.1000282764434814e-01" purity="3.3729031682014465e-01" nType="0">
              <Node pos="l" depth="4" NCoef="0" IVar="3" Cut="1.1786135286092758e-01" cType="1" res="2.0593229681253433e-02" rms="3.4009277820587158e-01" purity="1.5485183894634247e-01" nType="0">
                <Node pos="l" depth="5" NCoef="0" IVar="-1" Cut="0.0000000000000000e+00" cType="1" res="5.2044047042727470e-03" rms="3.7299484014511108e-01" purity="1.9004528224468231e-01" nType="-99"/>
                <Node pos="r" depth="5" NCoef="0" IVar="-1" Cut="0.0000000000000000e+00" cType="1" res="4.9107638187706470e-03" rms="3.0802822113037109e-01" purity="1.2374743819236755e-01" nType="-99"/>
              </Node>
              <Node pos="r" depth="4" NCoef="0" IVar="0" Cut="1.3562297821044922e+00" cType="1" res="4.0258996887132525e-04" rms="4.1238683462142944e-01" purity="3.4416279196739197e-01" nType="0">
                <Node pos="l" depth="5" NCoef="0" IVar="1" Cut="1.3742886781692505e+00" cType="1" res="3.0457153916358948e-03" rms="4.4343274831771851e-01" purity="4.0952253341674805e-01" nType="0">
                  <Node pos="l" depth="6" NCoef="0" IVar="5" Cut="4.0000000000000000e+00" cType="1" res="3.0561503954231739e-03" rms="3.7340965867042542e-01" purity="4.1543492674827576e-01" nType="0">
                    <Node pos="l" depth="7" NCoef="0" IVar="-1" Cut="0.0000000000000000e+00" cType="1" res="1.6611868340987712e-04" rms="4.6570029854774475e-01" purity="5.0306731462478638e-01" nType="-99"/>
                    <Node pos="r" depth="7" NCoef="0" IVar="-1" Cut="0.0000000000000000e+00" cType="1" res="1.2383079156279564e-03" rms="4.0636354684829712e-01" purity="2.6469916105270386e-01" nType="-99"/>
                  </Node>
                  <Node pos="r" depth="6" NCoef="0" IVar="-1" Cut="0.0000000000000000e+00" cType="1" res="-3.7388706114143133e-03" rms="4.0455749630928040e-01" purity="2.5618952512741089e-01" nType="-99"/>
                </Node>
                <Node pos="r" depth="5" NCoef="0" IVar="3" Cut="3.8799074292182922e-01" cType="1" res="-1.1097968555986881e-02" rms="2.3300686478614807e-01" purity="5.9774827212095261e-02" nType="0">
                  <Node pos="l" depth="6" NCoef="0" IVar="4" Cut="1.0403878241777420e-01" cType="1" res="-8.1858923658728600e-03" rms="2.1448436379432678e-01" purity="4.9695536494255066e-02" nType="0">
                    <Node pos="l" depth="7" NCoef="0" IVar="-1" Cut="0.0000000000000000e+00" cType="1" res="-7.8765861690044403e-03" rms="1.8237812817096710e-01" purity="3.5159841179847717e-02" nType="-99"/>
                    <Node pos="r" depth="7" NCoef="0" IVar="-1" Cut="0.0000000000000000e+00" cType="1" res="-1.4377032639458776e-03" rms="2.4942100048065186e-01" purity="6.8235851824283600e-02" nType="-99"/>
                  </Node>
                  <Node pos="r" depth="6" NCoef="0" IVar="-1" Cut="0.0000000000000000e+00" cType="1" res="-6.5672076307237148e-03" rms="3.2760998606681824e-01" purity="1.2476371973752975e-01" nType="-99"/>
                </Node>
              </Node>
            </Node>
            <Node pos="r" depth="3" NCoef="0" IVar="-1" Cut="0.0000000000000000e+00" cType="1" res="-7.0115462876856327e-03" rms="2.4672384560108185e-01" purity="6.8344540894031525e-02" nType="-99"/>
          </Node>
          <Node pos="r" depth="2" NCoef="0" IVar="3" Cut="1.0006679296493530e+00" cType="1" res="9.2743868008255959e-03" rms="4.1691398620605469e-01" purity="7.6518082618713379e-01" nType="0">
            <Node pos="l" depth="3" NCoef="0" IVar="5" Cut="2.0000000000000000e+00" cType="1" res="6.9705038331449032e-03" rms="4.2407718300819397e-01" purity="7.5298422574996948e-01" nType="0">
              <Node pos="l" depth="4" NCoef="0" IVar="3" Cut="9.6781188249588013e-01" cType="1" res="2.8010967653244734e-03" rms="4.1740900278091431e-01" purity="7.6501524448394775e-01" nType="0">
                <Node pos="l" depth="5" NCoef="0" IVar="3" Cut="9.4600701332092285e-01" cType="1" res="-1.4822505414485931e-02" rms="4.4363474845886230e-01" purity="7.1772027015686035e-01" nType="0">
                  <Node pos="l" depth="6" NCoef="0" IVar="-1" Cut="0.0000000000000000e+00" cType="1" res="-6.8513519363477826e-04" rms="4.4345927238464355e-01" purity="7.1729385852813721e-01" nType="-99"/>
                  <Node pos="r" depth="6" NCoef="0" IVar="-1" Cut="0.0000000000000000e+00" cType="1" res="-2.3051931057125330e-03" rms="4.4367030262947083e-01" purity="7.1810454130172729e-01" nType="-99"/>
                </Node>
                <Node pos="r" depth="5" NCoef="0" IVar="3" Cut="9.8795109987258911e-01" cType="1" res="5.4666372016072273e-03" rms="4.1323208808898926e-01" purity="7.7216851711273193e-01" nType="0">
                  <Node pos="l" depth="6" NCoef="0" IVar="3" Cut="9.7820752859115601e-01" cType="1" res="1.2306411750614643e-02" rms="4.1245776414871216e-01" purity="7.7440994977951050e-01" nType="0">
                    <Node pos="l" depth="7" NCoef="0" IVar="-1" Cut="0.0000000000000000e+00" cType="1" res="4.5570285874418914e-04" rms="4.2188239097595215e-01" purity="7.5998532772064209e-01" nType="-99"/>
                    <Node pos="r" depth="7" NCoef="0" IVar="-1" Cut="0.0000000000000000e+00" cType="1" res="1.8163064960390329e-03" rms="4.0716484189033508e-01" purity="7.8227108716964722e-01" nType="-99"/>
                  </Node>
                  <Node pos="r" depth="6" NCoef="0" IVar="3" Cut="9.9164354801177979e-01" cType="1" res="3.6374344490468502e-03" rms="4.1341975331306458e-01" purity="7.7156901359558105e-01" nType="0">
                    <Node pos="l" depth="7" NCoef="0" IVar="-1" Cut="0.0000000000000000e+00" cType="1" res="-1.2776006478816271e-03" rms="4.2146700620651245e-01" purity="7.5527399778366089e-01" nType="-99"/>
                    <Node pos="r" depth="7" NCoef="0" IVar="-1" Cut="0.0000000000000000e+00" cType="1" res="6.3724821666255593e-04" rms="4.1221272945404053e-01" purity="7.7389848232269287e-01" nType="-99"/>
                  </Node>
                </Node>
              </Node>
              <Node pos="r" depth="4" NCoef="0" IVar="3" Cut="9.1135323047637939e-01" cType="1" res="1.5385987237095833e-02" rms="4.3808934092521667e-01" purity="7.2762590646743774e-01" nType="0">
                <Node pos="l" depth="5" NCoef="0" IVar="3" Cut="8.7321835756301880e-01" cType="1" res="1.2389347888529301e-02" rms="4.4195765256881714e-01" purity="7.2233402729034424e-01" nType="0">
                  <Node pos="l" depth="6" NCoef="0" IVar="4" Cut="3.8622621446847916e-02" cType="1" res="1.8467700108885765e-02" rms="4.4864287972450256e-01" purity="7.0857727527618408e-01" nType="0">
                    <Node pos="l" depth="7" NCoef="0" IVar="-1" Cut="0.0000000000000000e+00" cType="1" res="8.3628232823684812e-04" rms="4.5150521397590637e-01" purity="6.9945663213729858e-01" nType="-99"/>
                    <Node pos="r" depth="7" NCoef="0" IVar="-1" Cut="0.0000000000000000e+00" cType="1" res="2.7436141390353441e-03" rms="4.4511935114860535e-01" purity="7.1889781951904297e-01" nType="-99"/>
                  </Node>
                  <Node pos="r" depth="6" NCoef="0" IVar="3" Cut="8.8305890560150146e-01" cType="1" res="8.9028887450695038e-03" rms="4.3803897500038147e-01" purity="7.3022472858428955e-01" nType="0">
                    <Node pos="l" depth="7" NCoef="0" IVar="-1" Cut="0.0000000000000000e+00" cType="1" res="1.4792415313422680e-03" rms="4.4369748234748840e-01" purity="7.2230792045593262e-01" nType="-99"/>
                    <Node pos="r" depth="7" NCoef="0" IVar="-1" Cut="0.0000000000000000e+00" cType="1" res="7.3458882980048656e-04" rms="4.3550390005111694e-01" purity="7.3370844125747681e-01" nType="-99"/>
                  </Node>
                </Node>
                <Node pos="r" depth="5" NCoef="0" IVar="-1" Cut="0.0000000000000000e+00" cType="1" res="4.1851587593555450e-03" rms="4.0991976857185364e-01" purity="7.6400393247604370e-01" nType="-99"/>
              </Node>
            </Node>
            <Node pos="r" depth="3" NCoef="0" IVar="3" Cut="1.0352551937103271e+00" cType="1" res="1.4832860790193081e-02" rms="3.9961352944374084e-01" purity="7.9315137863159180e-01" nType="0">
              <Node pos="l" depth="4" NCoef="0" IVar="3" Cut="1.0051310062408447e+00" cType="1" res="1.7243493348360062e-02" rms="3.9719116687774658e-01" purity="7.9705804586410522e-01" nType="0">
                <Node pos="l" depth="5" NCoef="0" IVar="3" Cut="1.0021077394485474e+00" cType="1" res="1.3414820656180382e-02" rms="3.9944931864738464e-01" purity="7.9315495491027832e-01" nType="0">
                  <Node pos="l" depth="6" NCoef="0" IVar="-1" Cut="0.0000000000000000e+00" cType="1" res="1.9357859855517745e-03" rms="3.9751923084259033e-01" purity="7.9628038406372070e-01" nType="-99"/>
                  <Node pos="r" depth="6" NCoef="0" IVar="3" Cut="1.0032781362533569e+00" cType="1" res="8.9249238371849060e-03" rms="4.0120881795883179e-01" purity="7.9020822048187256e-01" nType="0">
                    <Node pos="l" depth="7" NCoef="0" IVar="-1" Cut="0.0000000000000000e+00" cType="1" res="2.6695162523537874e-04" rms="4.0480443835258484e-01" purity="7.8224331140518188e-01" nType="-99"/>
                    <Node pos="r" depth="7" NCoef="0" IVar="-1" Cut="0.0000000000000000e+00" cType="1" res="1.7237327992916107e-03" rms="3.9737984538078308e-01" purity="7.9836750030517578e-01" nType="-99"/>
                  </Node>
                </Node>
                <Node pos="r" depth="5" NCoef="0" IVar="3" Cut="1.0148489475250244e+00" cType="1" res="2.0454620942473412e-02" rms="3.9525872468948364e-01" purity="8.0033147335052490e-01" nType="0">
                  <Node pos="l" depth="6" NCoef="0" IVar="3" Cut="1.0092056989669800e+00" cType="1" res="2.6744769886136055e-02" rms="3.9075133204460144e-01" purity="8.0740958452224731e-01" nType="0">
                    <Node pos="l" depth="7" NCoef="0" IVar="-1" Cut="0.0000000000000000e+00" cType="1" res="2.2599326912313700e-03" rms="3.9480265974998474e-01" purity="8.0171465873718262e-01" nType="-99"/>
                    <Node pos="r" depth="7" NCoef="0" IVar="-1" Cut="0.0000000000000000e+00" cType="1" res="3.7130503915250301e-03" rms="3.8600525259971619e-01" purity="8.1383538246154785e-01" nType="-99"/>
                  </Node>
                  <Node pos="r" depth="6" NCoef="0" IVar="3" Cut="1.0234122276306152e+00" cType="1" res="1.3830362819135189e-02" rms="3.9984363317489624e-01" purity="7.9287737607955933e-01" nType="0">
                    <Node pos="l" depth="7" NCoef="0" IVar="-1" Cut="0.0000000000000000e+00" cType="1" res="9.3491969164460897e-04" rms="4.0329453349113464e-01" purity="7.8846210241317749e-01" nType="-99"/>
                    <Node pos="r" depth="7" NCoef="0" IVar="-1" Cut="0.0000000000000000e+00" cType="1" res="2.1779076196253300e-03" rms="3.9572426676750183e-01" purity="7.9798436164855957e-01" nType="-99"/>
                  </Node>
                </Node>
              </Node>
              <Node pos="r" depth="4" NCoef="0" IVar="-1" Cut="0.0000000000000000e+00" cType="1" res="-4.4376129517331719e-04" rms="4.1770333051681519e-01" purity="7.6240551471710205e-01" nType="-99"/>
            </Node>
          </Node>
        </Node>
        <Node pos="r" depth="1" NCoef="0" IVar="-1" Cut="0.0000000000000000e+00" cType="1" res="-4.4687339104712009e-03" rms="4.3685948848724365e-01" purity="5.8536857366561890e-01" nType="-99"/>
      </Node>
    </BinaryTree>
    <BinaryTree type="DecisionTree" boostWeight="1.0000000000000000e+00" itree="90">
      <Node pos="s" depth="0" NCoef="0" IVar="3" Cut="6.6696786880493164e-01" cType="1" res="2.4257062468677759e-03" rms="4.1063287854194641e-01" purity="4.9967584013938904e-01" nType="0">
        <Node pos="l" depth="1" NCoef="0" IVar="4" Cut="1.2373861670494080e-01" cType="1" res="-3.3254418522119522e-03" rms="3.6179018020629883e-01" purity="1.9124035537242889e-01" nType="0">
          <Node pos="l" depth="2" NCoef="0" IVar="2" Cut="4.6963809967041016e+01" cType="1" res="-6.6212513484060764e-03" rms="3.5599020123481750e-01" purity="1.8873116374015808e-01" nType="0">
            <Node pos="l" depth="3" NCoef="0" IVar="4" Cut="3.1178873032331467e-02" cType="1" res="1.2206421233713627e-02" rms="3.8841977715492249e-01" purity="2.4034836888313293e-01" nType="0">
              <Node pos="l" depth="4" NCoef="0" IVar="-1" Cut="0.0000000000000000e+00" cType="1" res="-1.1442677350714803e-03" rms="3.6462965607643127e-01" purity="1.9987113773822784e-01" nType="-99"/>
              <Node pos="r" depth="4" NCoef="0" IVar="-1" Cut="0.0000000000000000e+00" cType="1" res="5.2523808553814888e-03" rms="4.1821059584617615e-01" purity="2.9735136032104492e-01" nType="-99"/>
            </Node>
            <Node pos="r" depth="3" NCoef="0" IVar="4" Cut="3.0493164435029030e-02" cType="1" res="-8.7024979293346405e-03" rms="3.5216036438941956e-01" purity="1.8302530050277710e-01" nType="0">
              <Node pos="l" depth="4" NCoef="0" IVar="-1" Cut="0.0000000000000000e+00" cType="1" res="-6.2118284404277802e-03" rms="3.1158763170242310e-01" purity="1.2696045637130737e-01" nType="-99"/>
              <Node pos="r" depth="4" NCoef="0" IVar="5" Cut="3.0000000000000000e+00" cType="1" res="-7.5407926924526691e-03" rms="3.5434424877166748e-01" purity="1.8642894923686981e-01" nType="0">
                <Node pos="l" depth="5" NCoef="0" IVar="2" Cut="1.9015679931640625e+02" cType="1" res="-2.1065840497612953e-02" rms="3.8507401943206787e-01" purity="2.0723442733287811e-01" nType="0">
                  <Node pos="l" depth="6" NCoef="0" IVar="-1" Cut="0.0000000000000000e+00" cType="1" res="-3.5880147479474545e-03" rms="3.9513400197029114e-01" purity="2.2084063291549683e-01" nType="-99"/>
                  <Node pos="r" depth="6" NCoef="0" IVar="-1" Cut="0.0000000000000000e+00" cType="1" res="-2.6153428480029106e-03" rms="3.7357279658317566e-01" purity="1.9218876957893372e-01" nType="-99"/>
                </Node>
                <Node pos="r" depth="5" NCoef="0" IVar="1" Cut="2.9603871703147888e-01" cType="1" res="-5.9812921099364758e-03" rms="3.5088121891021729e-01" purity="1.8414673209190369e-01" nType="0">
                  <Node pos="l" depth="6" NCoef="0" IVar="4" Cut="4.5534186065196991e-02" cType="1" res="-2.0224447362124920e-03" rms="3.9321732521057129e-01" purity="2.4489897489547729e-01" nType="0">
                    <Node pos="l" depth="7" NCoef="0" IVar="-1" Cut="0.0000000000000000e+00" cType="1" res="3.5725755151361227e-03" rms="3.9923715591430664e-01" purity="2.4674771726131439e-01" nType="-99"/>
                    <Node pos="r" depth="7" NCoef="0" IVar="-1" Cut="0.0000000000000000e+00" cType="1" res="-7.3051388608291745e-04" rms="3.9241245388984680e-01" purity="2.4468484520912170e-01" nType="-99"/>
                  </Node>
                  <Node pos="r" depth="6" NCoef="0" IVar="2" Cut="1.1113146972656250e+02" cType="1" res="-1.0718422010540962e-02" rms="2.9220035672187805e-01" purity="1.1145097762346268e-01" nType="0">
                    <Node pos="l" depth="7" NCoef="0" IVar="-1" Cut="0.0000000000000000e+00" cType="1" res="-5.6067593395709991e-03" rms="2.9132565855979919e-01" purity="1.1327803879976273e-01" nType="-99"/>
                    <Node pos="r" depth="7" NCoef="0" IVar="-1" Cut="0.0000000000000000e+00" cType="1" res="-1.8776820506900549e-03" rms="2.9240936040878296e-01" purity="1.1079895496368408e-01" nType="-99"/>
                  </Node>
                </Node>
              </Node>
            </Node>
          </Node>
          <Node pos="r" depth="2" NCoef="0" IVar="5" Cut="3.0000000000000000e+00" cType="1" res="1.3832147419452667e-01" rms="1.5945814549922943e-01" purity="1.9574703276157379e-01" nType="0">
            <Node pos="l" depth="3" NCoef="0" IVar="-1" Cut="0.0000000000000000e+00" cType="1" res="2.9294134583324194e-03" rms="4.5457357168197632e-01" purity="3.3597052097320557e-01" nType="-99"/>
            <Node pos="r" depth="3" NCoef="0" IVar="3" Cut="4.7337406873703003e-01" cType="1" res="5.9584132395684719e-04" rms="3.6385482549667358e-01" purity="1.8369124829769135e-01" nType="0">
              <Node pos="l" depth="4" NCoef="0" IVar="2" Cut="4.2843664550781250e+02" cType="1" res="-3.9645233191549778e-03" rms="3.3116275072097778e-01" purity="1.3481773436069489e-01" nType="0">
                <Node pos="l" depth="5" NCoef="0" IVar="2" Cut="1.8234902954101562e+02" cType="1" res="2.1201688796281815e-03" rms="3.3445772528648376e-01" purity="1.3955202698707581e-01" nType="0">
                  <Node pos="l" depth="6" NCoef="0" IVar="-1" Cut="0.0000000000000000e+00" cType="1" res="4.2713209986686707e-03" rms="3.5923057794570923e-01" purity="1.7195507884025574e-01" nType="-99"/>
                  <Node pos="r" depth="6" NCoef="0" IVar="3" Cut="2.4438111484050751e-01" cType="1" res="-3.8159019313752651e-03" rms="3.2574313879013062e-01" purity="1.2897352874279022e-01" nType="0">
                    <Node pos="l" depth="7" NCoef="0" IVar="-1" Cut="0.0000000000000000e+00" cType="1" res="-4.9479696899652481e-03" rms="2.7623963356018066e-01" purity="9.0226136147975922e-02" nType="-99"/>
                    <Node pos="r" depth="7" NCoef="0" IVar="-1" Cut="0.0000000000000000e+00" cType="1" res="3.4648730070330203e-04" rms="3.4686991572380066e-01" purity="1.4756508171558380e-01" nType="-99"/>
                  </Node>
                </Node>
                <Node pos="r" depth="5" NCoef="0" IVar="5" Cut="7.0000000000000000e+00" cType="1" res="1.0784594714641571e-01" rms="0.0000000000000000e+00" purity="1.3083562254905701e-01" nType="0">
                  <Node pos="l" depth="6" NCoef="0" IVar="3" Cut="3.5155278444290161e-01" cType="1" res="-1.4975901693105698e-02" rms="3.3522418141365051e-01" purity="1.3796131312847137e-01" nType="0">
                    <Node pos="l" depth="7" NCoef="0" IVar="-1" Cut="0.0000000000000000e+00" cType="1" res="-2.4674476590007544e-03" rms="3.2393011450767517e-01" purity="1.3097302615642548e-01" nType="-99"/>
                    <Node pos="r" depth="7" NCoef="0" IVar="-1" Cut="0.0000000000000000e+00" cType="1" res="-4.2106308974325657e-03" rms="3.5306242108345032e-01" purity="1.4956650137901306e-01" nType="-99"/>
                  </Node>
                  <Node pos="r" depth="6" NCoef="0" IVar="3" Cut="1.9686956703662872e-01" cType="1" res="4.5365517144091427e-04" rms="3.1648465991020203e-01" purity="1.1930574476718903e-01" nType="0">
                    <Node pos="l" depth="7" NCoef="0" IVar="-1" Cut="0.0000000000000000e+00" cType="1" res="-1.1819121427834034e-03" rms="3.2308623194694519e-01" purity="1.2726351618766785e-01" nType="-99"/>
                    <Node pos="r" depth="7" NCoef="0" IVar="-1" Cut="0.0000000000000000e+00" cType="1" res="1.5826881863176823e-03" rms="3.0975198745727539e-01" purity="1.1145988851785660e-01" nType="-99"/>
                  </Node>
                </Node>
              </Node>
              <Node pos="r" depth="4" NCoef="0" IVar="2" Cut="3.5481359863281250e+02" cType="1" res="1.9349658861756325e-02" rms="4.7475484013557434e-01" purity="3.8467633724212646e-01" nType="0">
                <Node pos="l" depth="5" NCoef="0" IVar="-1" Cut="0.0000000000000000e+00" cType="1" res="1.0814177803695202e-03" rms="4.8266860842704773e-01" purity="4.1348710656166077e-01" nType="-99"/>
                <Node pos="r" depth="5" NCoef="0" IVar="-1" Cut="0.0000000000000000e+00" cType="1" res="2.9504699632525444e-03" rms="4.6686387062072754e-01" purity="3.5686609148979187e-01" nType="-99"/>
              </Node>
            </Node>
          </Node>
        </Node>
        <Node pos="r" depth="1" NCoef="0" IVar="2" Cut="3.3275845336914062e+02" cType="1" res="6.2121856026351452e-03" rms="4.3979805707931519e-01" purity="7.0274567604064941e-01" nType="0">
          <Node pos="l" depth="2" NCoef="0" IVar="1" Cut="1.1786408424377441e+00" cType="1" res="7.4015511199831963e-03" rms="4.3858784437179565e-01" purity="7.0925134420394897e-01" nType="0">
            <Node pos="l" depth="3" NCoef="0" IVar="1" Cut="1.7768697813153267e-02" cType="1" res="8.7503632530570030e-03" rms="4.3673789501190186e-01" purity="7.1694248914718628e-01" nType="0">
              <Node pos="l" depth="4" NCoef="0" IVar="4" Cut="3.9163056761026382e-02" cType="1" res="1.2527393177151680e-02" rms="4.2655971646308899e-01" purity="7.4378359317779541e-01" nType="0">
                <Node pos="l" depth="5" NCoef="0" IVar="3" Cut="1.0131423473358154e+00" cType="1" res="9.7484383732080460e-03" rms="4.1413822770118713e-01" purity="7.6927810907363892e-01" nType="0">
                  <Node pos="l" depth="6" NCoef="0" IVar="4" Cut="3.4108296036720276e-02" cType="1" res="7.2402344085276127e-03" rms="4.1742035746574402e-01" purity="7.6306653022766113e-01" nType="0">
                    <Node pos="l" depth="7" NCoef="0" IVar="-1" Cut="0.0000000000000000e+00" cType="1" res="5.9003027854487300e-04" rms="4.1582119464874268e-01" purity="7.6608979701995850e-01" nType="-99"/>
                    <Node pos="r" depth="7" NCoef="0" IVar="-1" Cut="0.0000000000000000e+00" cType="1" res="3.4450907260179520e-03" rms="4.3857741355895996e-01" purity="7.2017359733581543e-01" nType="-99"/>
                  </Node>
                  <Node pos="r" depth="6" NCoef="0" IVar="-1" Cut="0.0000000000000000e+00" cType="1" res="2.9779735486954451e-03" rms="3.9023029804229736e-01" purity="8.1226074695587158e-01" nType="-99"/>
                </Node>
                <Node pos="r" depth="5" NCoef="0" IVar="4" Cut="7.4536517262458801e-02" cType="1" res="2.0502759143710136e-02" rms="4.6025767922401428e-01" purity="6.7061650753021240e-01" nType="0">
                  <Node pos="l" depth="6" NCoef="0" IVar="4" Cut="5.6275364011526108e-02" cType="1" res="2.3756098002195358e-02" rms="4.5586854219436646e-01" purity="6.8320327997207642e-01" nType="0">
                    <Node pos="l" depth="7" NCoef="0" IVar="-1" Cut="0.0000000000000000e+00" cType="1" res="2.7443622238934040e-03" rms="4.4836229085922241e-01" purity="7.0066815614700317e-01" nType="-99"/>
                    <Node pos="r" depth="7" NCoef="0" IVar="-1" Cut="0.0000000000000000e+00" cType="1" res="1.3879801845178008e-03" rms="4.6712383627891541e-01" purity="6.5618968009948730e-01" nType="-99"/>
                  </Node>
                  <Node pos="r" depth="6" NCoef="0" IVar="-1" Cut="0.0000000000000000e+00" cType="1" res="7.4049760587513447e-04" rms="4.7549736499786377e-01" purity="6.2543141841888428e-01" nType="-99"/>
                </Node>
              </Node>
              <Node pos="r" depth="4" NCoef="0" IVar="1" Cut="5.7947641611099243e-01" cType="1" res="4.9354895018041134e-03" rms="4.4675034284591675e-01" purity="6.8983250856399536e-01" nType="0">
                <Node pos="l" depth="5" NCoef="0" IVar="1" Cut="5.0692433118820190e-01" cType="1" res="6.8126283586025238e-03" rms="4.4223996996879578e-01" purity="7.0600217580795288e-01" nType="0">
                  <Node pos="l" depth="6" NCoef="0" IVar="1" Cut="3.3551067113876343e-02" cType="1" res="5.7488922029733658e-03" rms="4.4138419628143311e-01" purity="7.0824664831161499e-01" nType="0">
                    <Node pos="l" depth="7" NCoef="0" IVar="-1" Cut="0.0000000000000000e+00" cType="1" res="2.4317356292158365e-03" rms="4.2388796806335449e-01" purity="7.4631488323211670e-01" nType="-99"/>
                    <Node pos="r" depth="7" NCoef="0" IVar="-1" Cut="0.0000000000000000e+00" cType="1" res="4.6598742483183742e-04" rms="4.4246035814285278e-01" purity="7.0580393075942993e-01" nType="-99"/>
                  </Node>
                  <Node pos="r" depth="6" NCoef="0" IVar="-1" Cut="0.0000000000000000e+00" cType="1" res="2.1959568839520216e-03" rms="4.5586758852005005e-01" purity="6.6869097948074341e-01" nType="-99"/>
                </Node>
                <Node pos="r" depth="5" NCoef="0" IVar="3" Cut="9.6353918313980103e-01" cType="1" res="-4.9426737241446972e-03" rms="4.6964880824089050e-01" purity="6.0474205017089844e-01" nType="0">
                  <Node pos="l" depth="6" NCoef="0" IVar="2" Cut="9.6668853759765625e+01" cType="1" res="-1.1229933239519596e-02" rms="4.8736247420310974e-01" purity="5.1737833023071289e-01" nType="0">
                    <Node pos="l" depth="7" NCoef="0" IVar="-1" Cut="0.0000000000000000e+00" cType="1" res="-1.8818031530827284e-03" rms="4.8832896351814270e-01" purity="5.1982146501541138e-01" nType="-99"/>
                    <Node pos="r" depth="7" NCoef="0" IVar="-1" Cut="0.0000000000000000e+00" cType="1" res="-1.3979732466395944e-04" rms="4.8627853393554688e-01" purity="5.1514887809753418e-01" nType="-99"/>
                  </Node>
                  <Node pos="r" depth="6" NCoef="0" IVar="-1" Cut="0.0000000000000000e+00" cType="1" res="1.5383362188003957e-04" rms="4.5004644989967346e-01" purity="6.9720709323883057e-01" nType="-99"/>
                </Node>
              </Node>
            </Node>
            <Node pos="r" depth="3" NCoef="0" IVar="2" Cut="1.0730834007263184e+01" cType="1" res="-2.3798683658242226e-02" rms="4.7833171486854553e-01" purity="5.3134208917617798e-01" nType="0">
              <Node pos="l" depth="4" NCoef="0" IVar="-1" Cut="0.0000000000000000e+00" cType="1" res="-8.9646643027663231e-04" rms="4.7802951931953430e-01" purity="6.2072575092315674e-01" nType="-99"/>
              <Node pos="r" depth="4" NCoef="0" IVar="-1" Cut="0.0000000000000000e+00" cType="1" res="-3.2628360204398632e-03" rms="4.7826823592185974e-01" purity="4.4259467720985413e-01" nType="-99"/>
            </Node>
          </Node>
          <Node pos="r" depth="2" NCoef="0" IVar="-1" Cut="0.0000000000000000e+00" cType="1" res="-3.4551648423075676e-03" rms="4.7890278697013855e-01" purity="4.7165158390998840e-01" nType="-99"/>
        </Node>
      </Node>
    </BinaryTree>
    <BinaryTree type="DecisionTree" boostWeight="1.0000000000000000e+00" itree="91">
      <Node pos="s" depth="0" NCoef="0" IVar="1" Cut="4.6526150703430176e+00" cType="1" res="3.4324303269386292e-03" rms="4.1018068790435791e-01" purity="4.9975380301475525e-01" nType="0">
        <Node pos="l" depth="1" NCoef="0" IVar="1" Cut="4.1491055488586426e-01" cType="1" res="2.7041647117584944e-03" rms="4.1064023971557617e-01" purity="5.0128102302551270e-01" nType="0">
          <Node pos="l" depth="2" NCoef="0" IVar="3" Cut="8.1878399848937988e-01" cType="1" res="6.3237585127353668e-03" rms="4.1944259405136108e-01" purity="5.5786615610122681e-01" nType="0">
            <Node pos="l" depth="3" NCoef="0" IVar="4" Cut="1.0693603008985519e-01" cType="1" res="2.1381264086812735e-03" rms="4.2391252517700195e-01" purity="3.5405263304710388e-01" nType="0">
              <Node pos="l" depth="4" NCoef="0" IVar="4" Cut="4.4986866414546967e-02" cType="1" res="-1.0941844666376710e-03" rms="4.3751311302185059e-01" purity="4.0969681739807129e-01" nType="0">
                <Node pos="l" depth="5" NCoef="0" IVar="2" Cut="5.1768672943115234e+01" cType="1" res="-1.1657822877168655e-02" rms="4.4671654701232910e-01" purity="4.3091189861297607e-01" nType="0">
                  <Node pos="l" depth="6" NCoef="0" IVar="2" Cut="2.1941894531250000e+01" cType="1" res="1.1888082372024655e-03" rms="4.6032831072807312e-01" purity="4.9109354615211487e-01" nType="0">
                    <Node pos="l" depth="7" NCoef="0" IVar="-1" Cut="0.0000000000000000e+00" cType="1" res="1.9429024541750550e-03" rms="4.6463629603385925e-01" purity="5.2610093355178833e-01" nType="-99"/>
                    <Node pos="r" depth="7" NCoef="0" IVar="-1" Cut="0.0000000000000000e+00" cType="1" res="-7.3236814932897687e-04" rms="4.5823723077774048e-01" purity="4.7627329826354980e-01" nType="-99"/>
                  </Node>
                  <Node pos="r" depth="6" NCoef="0" IVar="4" Cut="2.9197650030255318e-02" cType="1" res="-2.2100603207945824e-02" rms="4.3505889177322388e-01" purity="3.8199141621589661e-01" nType="0">
                    <Node pos="l" depth="7" NCoef="0" IVar="-1" Cut="0.0000000000000000e+00" cType="1" res="-5.2248639985918999e-03" rms="4.2239934206008911e-01" purity="3.4701192378997803e-01" nType="-99"/>
                    <Node pos="r" depth="7" NCoef="0" IVar="-1" Cut="0.0000000000000000e+00" cType="1" res="-1.4414817560464144e-03" rms="4.4026654958724976e-01" purity="3.9764079451560974e-01" nType="-99"/>
                  </Node>
                </Node>
                <Node pos="r" depth="5" NCoef="0" IVar="2" Cut="6.3365463256835938e+01" cType="1" res="3.6208569072186947e-03" rms="4.3325898051261902e-01" purity="4.0022751688957214e-01" nType="0">
                  <Node pos="l" depth="6" NCoef="0" IVar="-1" Cut="0.0000000000000000e+00" cType="1" res="3.1213255133479834e-03" rms="4.6545505523681641e-01" purity="5.4120260477066040e-01" nType="-99"/>
                  <Node pos="r" depth="6" NCoef="0" IVar="5" Cut="4.0000000000000000e+00" cType="1" res="-1.3751670485362411e-04" rms="4.2918440699577332e-01" purity="3.8390535116195679e-01" nType="0">
                    <Node pos="l" depth="7" NCoef="0" IVar="-1" Cut="0.0000000000000000e+00" cType="1" res="-5.8250909205526114e-04" rms="4.6330991387367249e-01" purity="4.8413270711898804e-01" nType="-99"/>
                    <Node pos="r" depth="7" NCoef="0" IVar="-1" Cut="0.0000000000000000e+00" cType="1" res="1.3917522737756371e-03" rms="3.7441393733024597e-01" purity="2.3921337723731995e-01" nType="-99"/>
                  </Node>
                </Node>
              </Node>
              <Node pos="r" depth="4" NCoef="0" IVar="5" Cut="3.0000000000000000e+00" cType="1" res="1.5728172659873962e-01" rms="0.0000000000000000e+00" purity="2.4773190915584564e-01" nType="0">
                <Node pos="l" depth="5" NCoef="0" IVar="-1" Cut="0.0000000000000000e+00" cType="1" res="3.6666649393737316e-03" rms="4.7238823771476746e-01" purity="4.1749274730682373e-01" nType="-99"/>
                <Node pos="r" depth="5" NCoef="0" IVar="3" Cut="5.0017672777175903e-01" cType="1" res="4.8704408109188080e-03" rms="3.8640052080154419e-01" purity="2.2753107547760010e-01" nType="0">
                  <Node pos="l" depth="6" NCoef="0" IVar="2" Cut="4.2328576660156250e+02" cType="1" res="-1.0097961639985442e-03" rms="3.4996968507766724e-01" purity="1.5619274973869324e-01" nType="0">
                    <Node pos="l" depth="7" NCoef="0" IVar="-1" Cut="0.0000000000000000e+00" cType="1" res="1.2069974327459931e-03" rms="3.5876992344856262e-01" purity="1.6699081659317017e-01" nType="-99"/>
                    <Node pos="r" depth="7" NCoef="0" IVar="-1" Cut="0.0000000000000000e+00" cType="1" res="-1.6460571205243468e-03" rms="3.4079337120056152e-01" purity="1.4538125693798065e-01" nType="-99"/>
                  </Node>
                  <Node pos="r" depth="6" NCoef="0" IVar="2" Cut="2.4712034606933594e+02" cType="1" res="2.3066915571689606e-02" rms="4.8154178261756897e-01" purity="4.4828858971595764e-01" nType="0">
                    <Node pos="l" depth="7" NCoef="0" IVar="-1" Cut="0.0000000000000000e+00" cType="1" res="3.3324833493679762e-03" rms="4.8740002512931824e-01" purity="5.1886767148971558e-01" nType="-99"/>
                    <Node pos="r" depth="7" NCoef="0" IVar="-1" Cut="0.0000000000000000e+00" cType="1" res="1.1585763422772288e-03" rms="4.7715428471565247e-01" purity="4.0003320574760437e-01" nType="-99"/>
                  </Node>
                </Node>
              </Node>
            </Node>
            <Node pos="r" depth="3" NCoef="0" IVar="2" Cut="1.7122796630859375e+02" cType="1" res="1.0683475993573666e-02" rms="4.1469061374664307e-01" purity="7.7015650272369385e-01" nType="0">
              <Node pos="l" depth="4" NCoef="0" IVar="1" Cut="-2.5778242945671082e-01" cType="1" res="1.1529559269547462e-02" rms="4.1222402453422546e-01" purity="7.7681726217269897e-01" nType="0">
                <Node pos="l" depth="5" NCoef="0" IVar="-1" Cut="0.0000000000000000e+00" cType="1" res="-2.7452455833554268e-04" rms="4.2102882266044617e-01" purity="7.6356291770935059e-01" nType="-99"/>
                <Node pos="r" depth="5" NCoef="0" IVar="1" Cut="4.6023253351449966e-02" cType="1" res="1.2900660745799541e-02" rms="4.1133973002433777e-01" purity="7.7809435129165649e-01" nType="0">
                  <Node pos="l" depth="6" NCoef="0" IVar="4" Cut="4.3041087687015533e-02" cType="1" res="1.6474300995469093e-02" rms="4.0369859337806702e-01" purity="7.9044044017791748e-01" nType="0">
                    <Node pos="l" depth="7" NCoef="0" IVar="-1" Cut="0.0000000000000000e+00" cType="1" res="1.7017795471474528e-03" rms="4.0262183547019958e-01" purity="7.9198235273361206e-01" nType="-99"/>
                    <Node pos="r" depth="7" NCoef="0" IVar="-1" Cut="0.0000000000000000e+00" cType="1" res="3.5543306730687618e-03" rms="4.1747725009918213e-01" purity="7.6952320337295532e-01" nType="-99"/>
                  </Node>
                  <Node pos="r" depth="6" NCoef="0" IVar="1" Cut="8.1745192408561707e-02" cType="1" res="7.3946360498666763e-03" rms="4.2278337478637695e-01" purity="7.5907236337661743e-01" nType="0">
                    <Node pos="l" depth="7" NCoef="0" IVar="-1" Cut="0.0000000000000000e+00" cType="1" res="-7.4344174936413765e-04" rms="4.2561545968055725e-01" purity="7.5856691598892212e-01" nType="-99"/>
                    <Node pos="r" depth="7" NCoef="0" IVar="-1" Cut="0.0000000000000000e+00" cType="1" res="1.0509722633287311e-03" rms="4.2222258448600769e-01" purity="7.5916326045989990e-01" nType="-99"/>
                  </Node>
                </Node>
              </Node>
              <Node pos="r" depth="4" NCoef="0" IVar="-1" Cut="0.0000000000000000e+00" cType="1" res="-6.0305150691419840e-04" rms="4.6049749851226807e-01" purity="6.3827580213546753e-01" nType="-99"/>
            </Node>
          </Node>
          <Node pos="r" depth="2" NCoef="0" IVar="1" Cut="9.6094620227813721e-01" cType="1" res="-8.7055964395403862e-03" rms="3.8134190440177917e-01" purity="3.2291224598884583e-01" nType="0">
            <Node pos="l" depth="3" NCoef="0" IVar="1" Cut="5.7343316078186035e-01" cType="1" res="5.6401168694719672e-04" rms="3.9452394843101501e-01" purity="3.7231430411338806e-01" nType="0">
              <Node pos="l" depth="4" NCoef="0" IVar="1" Cut="4.9672311544418335e-01" cType="1" res="9.3794846907258034e-03" rms="4.0648740530014038e-01" purity="4.2242416739463806e-01" nType="0">
                <Node pos="l" depth="5" NCoef="0" IVar="3" Cut="8.0317711830139160e-01" cType="1" res="6.3429865986108780e-03" rms="4.0937456488609314e-01" purity="4.3012347817420959e-01" nType="0">
                  <Node pos="l" depth="6" NCoef="0" IVar="3" Cut="4.9276494979858398e-01" cType="1" res="1.4979429543018341e-02" rms="3.8617265224456787e-01" purity="2.5423955917358398e-01" nType="0">
                    <Node pos="l" depth="7" NCoef="0" IVar="-1" Cut="0.0000000000000000e+00" cType="1" res="9.3629339244216681e-04" rms="2.9017812013626099e-01" purity="9.8173603415489197e-02" nType="-99"/>
                    <Node pos="r" depth="7" NCoef="0" IVar="-1" Cut="0.0000000000000000e+00" cType="1" res="2.7975328266620636e-03" rms="4.7036269307136536e-01" purity="4.2841428518295288e-01" nType="-99"/>
                  </Node>
                  <Node pos="r" depth="6" NCoef="0" IVar="-1" Cut="0.0000000000000000e+00" cType="1" res="-7.2252791142091155e-04" rms="4.4337356090545654e-01" purity="7.0930558443069458e-01" nType="-99"/>
                </Node>
                <Node pos="r" depth="5" NCoef="0" IVar="5" Cut="4.0000000000000000e+00" cType="1" res="1.3333708047866821e-02" rms="4.0266230702400208e-01" purity="4.1239792108535767e-01" nType="0">
                  <Node pos="l" depth="6" NCoef="0" IVar="-1" Cut="0.0000000000000000e+00" cType="1" res="2.2169484291225672e-03" rms="4.4284716248512268e-01" purity="5.7206487655639648e-01" nType="-99"/>
                  <Node pos="r" depth="6" NCoef="0" IVar="-1" Cut="0.0000000000000000e+00" cType="1" res="-5.7364301756024361e-04" rms="3.1906050443649292e-01" purity="1.3064618408679962e-01" nType="-99"/>
                </Node>
              </Node>
              <Node pos="r" depth="4" NCoef="0" IVar="3" Cut="5.6954699754714966e-01" cType="1" res="-6.1022592708468437e-03" rms="3.8509657979011536e-01" purity="3.3442121744155884e-01" nType="0">
                <Node pos="l" depth="5" NCoef="0" IVar="1" Cut="8.3594173192977905e-01" cType="1" res="-1.3803453184664249e-02" rms="2.7256444096565247e-01" purity="8.7900243699550629e-02" nType="0">
                  <Node pos="l" depth="6" NCoef="0" IVar="1" Cut="7.0893073081970215e-01" cType="1" res="-9.1890310868620872e-03" rms="2.8405225276947021e-01" purity="9.6624650061130524e-02" nType="0">
                    <Node pos="l" depth="7" NCoef="0" IVar="-1" Cut="0.0000000000000000e+00" cType="1" res="-6.1697135679423809e-03" rms="2.7420186996459961e-01" purity="8.8884525001049042e-02" nType="-99"/>
                    <Node pos="r" depth="7" NCoef="0" IVar="-1" Cut="0.0000000000000000e+00" cType="1" res="1.8350441241636872e-03" rms="2.9556193947792053e-01" purity="1.0659304261207581e-01" nType="-99"/>
                  </Node>
                  <Node pos="r" depth="6" NCoef="0" IVar="-1" Cut="0.0000000000000000e+00" cType="1" res="-9.8432116210460663e-03" rms="2.3590560257434845e-01" purity="6.2792122364044189e-02" nType="-99"/>
                </Node>
                <Node pos="r" depth="5" NCoef="0" IVar="1" Cut="6.6092932224273682e-01" cType="1" res="9.6692296210676432e-04" rms="4.6489715576171875e-01" purity="5.6071096658706665e-01" nType="0">
                  <Node pos="l" depth="6" NCoef="0" IVar="-1" Cut="0.0000000000000000e+00" cType="1" res="-6.7528034560382366e-04" rms="4.6424716711044312e-01" purity="5.7305377721786499e-01" nType="-99"/>
                  <Node pos="r" depth="6" NCoef="0" IVar="1" Cut="7.6741486787796021e-01" cType="1" res="4.9707535654306412e-03" rms="4.6516278386116028e-01" purity="5.5466592311859131e-01" nType="0">
                    <Node pos="l" depth="7" NCoef="0" IVar="-1" Cut="0.0000000000000000e+00" cType="1" res="9.8255474586039782e-04" rms="4.6214777231216431e-01" purity="5.7843673229217529e-01" nType="-99"/>
                    <Node pos="r" depth="7" NCoef="0" IVar="-1" Cut="0.0000000000000000e+00" cType="1" res="2.0423229216248728e-05" rms="4.6757262945175171e-01" purity="5.3513050079345703e-01" nType="-99"/>
                  </Node>
                </Node>
              </Node>
            </Node>
            <Node pos="r" depth="3" NCoef="0" IVar="3" Cut="4.8618206381797791e-01" cType="1" res="-2.5801507756114006e-02" rms="3.5511735081672668e-01" purity="2.3180012404918671e-01" nType="0">
              <Node pos="l" depth="4" NCoef="0" IVar="3" Cut="3.4843528270721436e-01" cType="1" res="-1.0111110284924507e-02" rms="2.3241719603538513e-01" purity="5.9725668281316757e-02" nType="0">
                <Node pos="l" depth="5" NCoef="0" IVar="3" Cut="2.6154762506484985e-01" cType="1" res="-5.2915718406438828e-03" rms="2.2211988270282745e-01" purity="5.4428331553936005e-02" nType="0">
                  <Node pos="l" depth="6" NCoef="0" IVar="1" Cut="1.5556671619415283e+00" cType="1" res="-1.0230153799057007e-02" rms="2.1183374524116516e-01" purity="4.9406647682189941e-02" nType="0">
                    <Node pos="l" depth="7" NCoef="0" IVar="-1" Cut="0.0000000000000000e+00" cType="1" res="-1.0927865281701088e-02" rms="1.8879093229770660e-01" purity="3.8331311196088791e-02" nType="-99"/>
                    <Node pos="r" depth="7" NCoef="0" IVar="-1" Cut="0.0000000000000000e+00" cType="1" res="-1.1332960566505790e-03" rms="2.3219555616378784e-01" purity="6.0408033430576324e-02" nType="-99"/>
                  </Node>
                  <Node pos="r" depth="6" NCoef="0" IVar="-1" Cut="0.0000000000000000e+00" cType="1" res="1.9532218575477600e-03" rms="2.3956926167011261e-01" purity="6.3634105026721954e-02" nType="-99"/>
                </Node>
                <Node pos="r" depth="5" NCoef="0" IVar="-1" Cut="0.0000000000000000e+00" cType="1" res="-7.5619532726705074e-03" rms="2.5731587409973145e-01" purity="7.3781125247478485e-02" nType="-99"/>
              </Node>
              <Node pos="r" depth="4" NCoef="0" IVar="1" Cut="1.4361026287078857e+00" cType="1" res="-4.2668461799621582e-02" rms="4.5061686635017395e-01" purity="4.1677772998809814e-01" nType="0">
                <Node pos="l" depth="5" NCoef="0" IVar="1" Cut="1.1296697854995728e+00" cType="1" res="-2.5090374052524567e-02" rms="4.4865977764129639e-01" purity="4.3463724851608276e-01" nType="0">
                  <Node pos="l" depth="6" NCoef="0" IVar="-1" Cut="0.0000000000000000e+00" cType="1" res="-2.1648772526532412e-03" rms="4.4995522499084473e-01" purity="4.4561654329299927e-01" nType="-99"/>
                  <Node pos="r" depth="6" NCoef="0" IVar="-1" Cut="0.0000000000000000e+00" cType="1" res="-2.6942023541778326e-03" rms="4.4743558764457703e-01" purity="4.2444470524787903e-01" nType="-99"/>
                </Node>
                <Node pos="r" depth="5" NCoef="0" IVar="-1" Cut="0.0000000000000000e+00" cType="1" res="-6.4256405457854271e-03" rms="4.5203536748886108e-01" purity="3.9574015140533447e-01" nType="-99"/>
              </Node>
            </Node>
          </Node>
        </Node>
        <Node pos="r" depth="1" NCoef="0" IVar="-1" Cut="0.0000000000000000e+00" cType="1" res="8.9373961091041565e-03" rms="3.6558276414871216e-01" purity="3.7433877587318420e-01" nType="-99"/>
      </Node>
    </BinaryTree>
    <BinaryTree type="DecisionTree" boostWeight="1.0000000000000000e+00" itree="92">
      <Node pos="s" depth="0" NCoef="0" IVar="1" Cut="4.6526150703430176e+00" cType="1" res="2.7767273131757975e-03" rms="4.1199356317520142e-01" purity="4.9948579072952271e-01" nType="0">
        <Node pos="l" depth="1" NCoef="0" IVar="1" Cut="4.1752320528030396e-01" cType="1" res="2.2553787566721439e-03" rms="4.1239738464355469e-01" purity="5.0118029117584229e-01" nType="0">
          <Node pos="l" depth="2" NCoef="0" IVar="2" Cut="1.9370323181152344e+02" cType="1" res="4.4490504078567028e-03" rms="4.2088505625724792e-01" purity="5.5622678995132446e-01" nType="0">
            <Node pos="l" depth="3" NCoef="0" IVar="2" Cut="5.6236232757568359e+01" cType="1" res="6.3263215124607086e-03" rms="4.2610770463943481e-01" purity="6.4767944812774658e-01" nType="0">
              <Node pos="l" depth="4" NCoef="0" IVar="5" Cut="3.0000000000000000e+00" cType="1" res="9.9683944135904312e-03" rms="4.1682782769203186e-01" purity="7.4347245693206787e-01" nType="0">
                <Node pos="l" depth="5" NCoef="0" IVar="3" Cut="1.0226652622222900e+00" cType="1" res="8.3940746262669563e-03" rms="4.1253596544265747e-01" purity="7.7191072702407837e-01" nType="0">
                  <Node pos="l" depth="6" NCoef="0" IVar="1" Cut="-2.3377953469753265e-01" cType="1" res="7.1316352114081383e-03" rms="4.1344344615936279e-01" purity="7.6972723007202148e-01" nType="0">
                    <Node pos="l" depth="7" NCoef="0" IVar="-1" Cut="0.0000000000000000e+00" cType="1" res="-4.4570895261131227e-04" rms="4.1802334785461426e-01" purity="7.6247763633728027e-01" nType="-99"/>
                    <Node pos="r" depth="7" NCoef="0" IVar="-1" Cut="0.0000000000000000e+00" cType="1" res="9.3716930132359266e-04" rms="4.1287297010421753e-01" purity="7.7059143781661987e-01" nType="-99"/>
                  </Node>
                  <Node pos="r" depth="6" NCoef="0" IVar="3" Cut="1.0408673286437988e+00" cType="1" res="2.0636962726712227e-02" rms="4.0342482924461365e-01" purity="7.9308509826660156e-01" nType="0">
                    <Node pos="l" depth="7" NCoef="0" IVar="-1" Cut="0.0000000000000000e+00" cType="1" res="1.3079839991405606e-03" rms="3.9477455615997314e-01" purity="8.0312919616699219e-01" nType="-99"/>
                    <Node pos="r" depth="7" NCoef="0" IVar="-1" Cut="0.0000000000000000e+00" cType="1" res="3.0844765715301037e-03" rms="4.1229110956192017e-01" purity="7.8228747844696045e-01" nType="-99"/>
                  </Node>
                </Node>
                <Node pos="r" depth="5" NCoef="0" IVar="2" Cut="4.3805908203125000e+01" cType="1" res="2.4409741163253784e-02" rms="4.5414856076240540e-01" purity="4.8196446895599365e-01" nType="0">
                  <Node pos="l" depth="6" NCoef="0" IVar="2" Cut="3.1451396942138672e+01" cType="1" res="3.2673545181751251e-02" rms="4.5364773273468018e-01" purity="4.9474212527275085e-01" nType="0">
                    <Node pos="l" depth="7" NCoef="0" IVar="-1" Cut="0.0000000000000000e+00" cType="1" res="2.2030055988579988e-03" rms="4.5076039433479309e-01" purity="4.8280215263366699e-01" nType="-99"/>
                    <Node pos="r" depth="7" NCoef="0" IVar="-1" Cut="0.0000000000000000e+00" cType="1" res="4.7259815037250519e-03" rms="4.5684140920639038e-01" purity="5.0952082872390747e-01" nType="-99"/>
                  </Node>
                  <Node pos="r" depth="6" NCoef="0" IVar="-1" Cut="0.0000000000000000e+00" cType="1" res="8.0547120887786150e-04" rms="4.5470485091209412e-01" purity="4.5570939779281616e-01" nType="-99"/>
                </Node>
              </Node>
              <Node pos="r" depth="4" NCoef="0" IVar="4" Cut="5.0677254796028137e-02" cType="1" res="4.6331257908605039e-04" rms="4.4058573246002197e-01" purity="4.9332422018051147e-01" nType="0">
                <Node pos="l" depth="5" NCoef="0" IVar="3" Cut="8.5851734876632690e-01" cType="1" res="-7.9310154542326927e-03" rms="4.3953120708465576e-01" purity="5.5574989318847656e-01" nType="0">
                  <Node pos="l" depth="6" NCoef="0" IVar="4" Cut="3.2120283693075180e-02" cType="1" res="-1.6003835946321487e-02" rms="4.4282352924346924e-01" purity="4.5113846659660339e-01" nType="0">
                    <Node pos="l" depth="7" NCoef="0" IVar="-1" Cut="0.0000000000000000e+00" cType="1" res="-4.0671587921679020e-03" rms="4.4136416912078857e-01" purity="4.1206008195877075e-01" nType="-99"/>
                    <Node pos="r" depth="7" NCoef="0" IVar="-1" Cut="0.0000000000000000e+00" cType="1" res="-7.3019962292164564e-04" rms="4.4321885704994202e-01" purity="4.6987164020538330e-01" nType="-99"/>
                  </Node>
                  <Node pos="r" depth="6" NCoef="0" IVar="3" Cut="8.9762562513351440e-01" cType="1" res="6.7036324180662632e-03" rms="4.3311560153961182e-01" purity="7.4539262056350708e-01" nType="0">
                    <Node pos="l" depth="7" NCoef="0" IVar="-1" Cut="0.0000000000000000e+00" cType="1" res="-1.6457252786494792e-04" rms="4.4228485226631165e-01" purity="7.2965651750564575e-01" nType="-99"/>
                    <Node pos="r" depth="7" NCoef="0" IVar="-1" Cut="0.0000000000000000e+00" cType="1" res="2.9438845813274384e-03" rms="4.1263118386268616e-01" purity="7.7849245071411133e-01" nType="-99"/>
                  </Node>
                </Node>
                <Node pos="r" depth="5" NCoef="0" IVar="4" Cut="1.2224811315536499e-01" cType="1" res="7.4437875300645828e-03" rms="4.4133913516998291e-01" purity="4.4141280651092529e-01" nType="0">
                  <Node pos="l" depth="6" NCoef="0" IVar="3" Cut="7.1049773693084717e-01" cType="1" res="5.3652576170861721e-03" rms="4.4289949536323547e-01" purity="4.6124026179313660e-01" nType="0">
                    <Node pos="l" depth="7" NCoef="0" IVar="-1" Cut="0.0000000000000000e+00" cType="1" res="1.7998533439822495e-04" rms="4.2908340692520142e-01" purity="3.3058631420135498e-01" nType="-99"/>
                    <Node pos="r" depth="7" NCoef="0" IVar="-1" Cut="0.0000000000000000e+00" cType="1" res="1.0216138325631618e-03" rms="4.6402722597122192e-01" purity="6.6972303390502930e-01" nType="-99"/>
                  </Node>
                  <Node pos="r" depth="6" NCoef="0" IVar="-1" Cut="0.0000000000000000e+00" cType="1" res="2.3724795319139957e-03" rms="4.3173760175704956e-01" purity="3.2351011037826538e-01" nType="-99"/>
                </Node>
              </Node>
            </Node>
            <Node pos="r" depth="3" NCoef="0" IVar="3" Cut="6.7608582973480225e-01" cType="1" res="-9.8828319460153580e-04" rms="4.0532955527305603e-01" purity="2.9134282469749451e-01" nType="0">
              <Node pos="l" depth="4" NCoef="0" IVar="5" Cut="3.0000000000000000e+00" cType="1" res="1.4423669874668121e-01" rms="1.4728523790836334e-01" purity="2.0909383893013000e-01" nType="0">
                <Node pos="l" depth="5" NCoef="0" IVar="-1" Cut="0.0000000000000000e+00" cType="1" res="2.5284118019044399e-03" rms="4.5015493035316467e-01" purity="3.2239121198654175e-01" nType="-99"/>
                <Node pos="r" depth="5" NCoef="0" IVar="3" Cut="3.9263042807579041e-01" cType="1" res="2.7550169033929706e-04" rms="3.7265163660049438e-01" purity="1.9876423478126526e-01" nType="0">
                  <Node pos="l" depth="6" NCoef="0" IVar="5" Cut="5.0000000000000000e+00" cType="1" res="8.9877352118492126e-02" rms="2.5424364209175110e-01" purity="1.0882768779993057e-01" nType="0">
                    <Node pos="l" depth="7" NCoef="0" IVar="-1" Cut="0.0000000000000000e+00" cType="1" res="-3.2047196291387081e-03" rms="3.1858536601066589e-01" purity="1.3030922412872314e-01" nType="-99"/>
                    <Node pos="r" depth="7" NCoef="0" IVar="-1" Cut="0.0000000000000000e+00" cType="1" res="-8.7492709280923009e-04" rms="2.9361897706985474e-01" purity="1.0217572003602982e-01" nType="-99"/>
                  </Node>
                  <Node pos="r" depth="6" NCoef="0" IVar="5" Cut="5.0000000000000000e+00" cType="1" res="6.1624664813280106e-03" rms="4.3223440647125244e-01" purity="2.8726783394813538e-01" nType="0">
                    <Node pos="l" depth="7" NCoef="0" IVar="-1" Cut="0.0000000000000000e+00" cType="1" res="-5.7908775488613173e-05" rms="4.3766480684280396e-01" purity="3.0044794082641602e-01" nType="-99"/>
                    <Node pos="r" depth="7" NCoef="0" IVar="-1" Cut="0.0000000000000000e+00" cType="1" res="3.0540947336703539e-03" rms="4.1943693161010742e-01" purity="2.5572112202644348e-01" nType="-99"/>
                  </Node>
                </Node>
              </Node>
              <Node pos="r" depth="4" NCoef="0" IVar="3" Cut="8.2564353942871094e-01" cType="1" res="-1.1309629306197166e-02" rms="4.8171392083168030e-01" purity="5.6972593069076538e-01" nType="0">
                <Node pos="l" depth="5" NCoef="0" IVar="2" Cut="2.9387612915039062e+02" cType="1" res="-8.3194132894277573e-03" rms="4.8837751150131226e-01" purity="5.6090867519378662e-01" nType="0">
                  <Node pos="l" depth="6" NCoef="0" IVar="-1" Cut="0.0000000000000000e+00" cType="1" res="-1.4067409792914987e-03" rms="4.8742884397506714e-01" purity="5.6347125768661499e-01" nType="-99"/>
                  <Node pos="r" depth="6" NCoef="0" IVar="-1" Cut="0.0000000000000000e+00" cType="1" res="1.6866972146090120e-04" rms="4.8956227302551270e-01" purity="5.5721998214721680e-01" nType="-99"/>
                </Node>
                <Node pos="r" depth="5" NCoef="0" IVar="-1" Cut="0.0000000000000000e+00" cType="1" res="-1.9994664471596479e-03" rms="4.6144023537635803e-01" purity="5.9566569328308105e-01" nType="-99"/>
              </Node>
            </Node>
          </Node>
          <Node pos="r" depth="2" NCoef="0" IVar="1" Cut="8.2707095146179199e-01" cType="1" res="-4.6964487992227077e-03" rms="3.8418039679527283e-01" purity="3.2673603296279907e-01" nType="0">
            <Node pos="l" depth="3" NCoef="0" IVar="3" Cut="5.4209762811660767e-01" cType="1" res="4.3933843262493610e-03" rms="3.9767029881477356e-01" purity="3.8610848784446716e-01" nType="0">
              <Node pos="l" depth="4" NCoef="0" IVar="1" Cut="5.4963767528533936e-01" cType="1" res="-6.0487389564514160e-03" rms="2.8429502248764038e-01" purity="9.6086412668228149e-02" nType="0">
                <Node pos="l" depth="5" NCoef="0" IVar="2" Cut="2.4455099487304688e+02" cType="1" res="8.2154925912618637e-03" rms="3.0877020955085754e-01" purity="1.1606574803590775e-01" nType="0">
                  <Node pos="l" depth="6" NCoef="0" IVar="-1" Cut="0.0000000000000000e+00" cType="1" res="-1.3630226021632552e-03" rms="2.8077194094657898e-01" purity="9.5501154661178589e-02" nType="-99"/>
                  <Node pos="r" depth="6" NCoef="0" IVar="-1" Cut="0.0000000000000000e+00" cType="1" res="5.8313473127782345e-03" rms="3.3559414744377136e-01" purity="1.3803385198116302e-01" nType="-99"/>
                </Node>
                <Node pos="r" depth="5" NCoef="0" IVar="1" Cut="7.1072834730148315e-01" cType="1" res="-1.5385620296001434e-02" rms="2.6664963364601135e-01" purity="8.3008632063865662e-02" nType="0">
                  <Node pos="l" depth="6" NCoef="0" IVar="1" Cut="6.2237942218780518e-01" cType="1" res="-2.2592997178435326e-02" rms="2.6065477728843689e-01" purity="7.9273223876953125e-02" nType="0">
                    <Node pos="l" depth="7" NCoef="0" IVar="-1" Cut="0.0000000000000000e+00" cType="1" res="-6.5762102603912354e-03" rms="2.6854211091995239e-01" purity="8.3121456205844879e-02" nType="-99"/>
                    <Node pos="r" depth="7" NCoef="0" IVar="-1" Cut="0.0000000000000000e+00" cType="1" res="-7.7780550345778465e-03" rms="2.5285756587982178e-01" purity="7.5583957135677338e-02" nType="-99"/>
                  </Node>
                  <Node pos="r" depth="6" NCoef="0" IVar="-1" Cut="0.0000000000000000e+00" cType="1" res="-9.0644112788140774e-04" rms="2.7642646431922913e-01" purity="8.9580811560153961e-02" nType="-99"/>
                </Node>
              </Node>
              <Node pos="r" depth="4" NCoef="0" IVar="1" Cut="4.9680089950561523e-01" cType="1" res="1.1592311784625053e-02" rms="4.5969405770301819e-01" purity="5.8605331182479858e-01" nType="0">
                <Node pos="l" depth="5" NCoef="0" IVar="1" Cut="4.5332649350166321e-01" cType="1" res="-3.6397092044353485e-03" rms="4.5983365178108215e-01" purity="6.0328066349029541e-01" nType="0">
                  <Node pos="l" depth="6" NCoef="0" IVar="-1" Cut="0.0000000000000000e+00" cType="1" res="6.5927935065701604e-04" rms="4.5608019828796387e-01" purity="6.1710709333419800e-01" nType="-99"/>
                  <Node pos="r" depth="6" NCoef="0" IVar="-1" Cut="0.0000000000000000e+00" cType="1" res="-1.2810365296900272e-03" rms="4.6305873990058899e-01" purity="5.9054243564605713e-01" nType="-99"/>
                </Node>
                <Node pos="r" depth="5" NCoef="0" IVar="3" Cut="8.6238896846771240e-01" cType="1" res="1.7965236678719521e-02" rms="4.5948585867881775e-01" purity="5.7884550094604492e-01" nType="0">
                  <Node pos="l" depth="6" NCoef="0" IVar="3" Cut="7.3836743831634521e-01" cType="1" res="2.5384457781910896e-02" rms="4.7182682156562805e-01" purity="4.5626065135002136e-01" nType="0">
                    <Node pos="l" depth="7" NCoef="0" IVar="-1" Cut="0.0000000000000000e+00" cType="1" res="1.4284959761425853e-03" rms="4.6543821692466736e-01" purity="3.5875463485717773e-01" nType="-99"/>
                    <Node pos="r" depth="7" NCoef="0" IVar="-1" Cut="0.0000000000000000e+00" cType="1" res="3.3630644902586937e-03" rms="4.8035645484924316e-01" purity="5.9626775979995728e-01" nType="-99"/>
                  </Node>
                  <Node pos="r" depth="6" NCoef="0" IVar="1" Cut="6.3531553745269775e-01" cType="1" res="1.0151092894375324e-02" rms="4.4598555564880371e-01" purity="7.0795553922653198e-01" nType="0">
                    <Node pos="l" depth="7" NCoef="0" IVar="-1" Cut="0.0000000000000000e+00" cType="1" res="1.4112701173871756e-03" rms="4.4091108441352844e-01" purity="7.2488200664520264e-01" nType="-99"/>
                    <Node pos="r" depth="7" NCoef="0" IVar="-1" Cut="0.0000000000000000e+00" cType="1" res="4.1363481432199478e-04" rms="4.5195713639259338e-01" purity="6.8757230043411255e-01" nType="-99"/>
                  </Node>
                </Node>
              </Node>
            </Node>
            <Node pos="r" depth="3" NCoef="0" IVar="3" Cut="5.4042828083038330e-01" cType="1" res="-1.6080195084214211e-02" rms="3.6626872420310974e-01" purity="2.5238034129142761e-01" nType="0">
              <Node pos="l" depth="4" NCoef="0" IVar="2" Cut="3.4871704101562500e+02" cType="1" res="-4.9641197547316551e-03" rms="2.5171279907226562e-01" purity="7.1774445474147797e-02" nType="0">
                <Node pos="l" depth="5" NCoef="0" IVar="1" Cut="1.6902872323989868e+00" cType="1" res="-3.3005370642058551e-04" rms="2.4708460271358490e-01" purity="6.8903021514415741e-02" nType="0">
                  <Node pos="l" depth="6" NCoef="0" IVar="3" Cut="3.1781566143035889e-01" cType="1" res="-5.1081879064440727e-03" rms="2.3920050263404846e-01" purity="6.4921841025352478e-02" nType="0">
                    <Node pos="l" depth="7" NCoef="0" IVar="-1" Cut="0.0000000000000000e+00" cType="1" res="-1.0913597419857979e-02" rms="1.6835719347000122e-01" purity="2.9686678200960159e-02" nType="-99"/>
                    <Node pos="r" depth="7" NCoef="0" IVar="-1" Cut="0.0000000000000000e+00" cType="1" res="1.4578931732103229e-03" rms="2.9414579272270203e-01" purity="1.0091014951467514e-01" nType="-99"/>
                  </Node>
                  <Node pos="r" depth="6" NCoef="0" IVar="-1" Cut="0.0000000000000000e+00" cType="1" res="6.1481310985982418e-03" rms="2.6719319820404053e-01" purity="7.9887501895427704e-02" nType="-99"/>
                </Node>
                <Node pos="r" depth="5" NCoef="0" IVar="-1" Cut="0.0000000000000000e+00" cType="1" res="-5.7608010247349739e-03" rms="2.6321858167648315e-01" purity="7.9403281211853027e-02" nType="-99"/>
              </Node>
              <Node pos="r" depth="4" NCoef="0" IVar="1" Cut="1.8115143775939941e+00" cType="1" res="-2.9259119182825089e-02" rms="4.6665129065513611e-01" purity="4.6650192141532898e-01" nType="0">
                <Node pos="l" depth="5" NCoef="0" IVar="0" Cut="3.1588453054428101e-01" cType="1" res="-1.7401872202754021e-02" rms="4.6651655435562134e-01" purity="4.8074865341186523e-01" nType="0">
                  <Node pos="l" depth="6" NCoef="0" IVar="3" Cut="9.6855086088180542e-01" cType="1" res="-1.0990206152200699e-02" rms="4.7907063364982605e-01" purity="5.5989551544189453e-01" nType="0">
                    <Node pos="l" depth="7" NCoef="0" IVar="-1" Cut="0.0000000000000000e+00" cType="1" res="-1.7892220057547092e-03" rms="4.8870030045509338e-01" purity="4.7117704153060913e-01" nType="-99"/>
                    <Node pos="r" depth="7" NCoef="0" IVar="-1" Cut="0.0000000000000000e+00" cType="1" res="8.7347107182722539e-05" rms="4.6646422147750854e-01" purity="6.7089599370956421e-01" nType="-99"/>
                  </Node>
                  <Node pos="r" depth="6" NCoef="0" IVar="-1" Cut="0.0000000000000000e+00" cType="1" res="-3.9702286012470722e-03" rms="4.3157356977462769e-01" purity="2.7410125732421875e-01" nType="-99"/>
                </Node>
                <Node pos="r" depth="5" NCoef="0" IVar="-1" Cut="0.0000000000000000e+00" cType="1" res="-6.6245268099009991e-03" rms="4.6486806869506836e-01" purity="4.1827833652496338e-01" nType="-99"/>
              </Node>
            </Node>
          </Node>
        </Node>
        <Node pos="r" depth="1" NCoef="0" IVar="-1" Cut="0.0000000000000000e+00" cType="1" res="6.8792402744293213e-03" rms="3.7315568327903748e-01" purity="3.5451197624206543e-01" nType="-99"/>
      </Node>
    </BinaryTree>
    <BinaryTree type="DecisionTree" boostWeight="1.0000000000000000e+00" itree="93">
      <Node pos="s" depth="0" NCoef="0" IVar="3" Cut="1.0602499246597290e+00" cType="1" res="3.6453460343182087e-03" rms="4.1046991944313049e-01" purity="5.0106590986251831e-01" nType="0">
        <Node pos="l" depth="1" NCoef="0" IVar="3" Cut="7.8667336702346802e-01" cType="1" res="4.1793598793447018e-03" rms="4.1012766957283020e-01" purity="5.0011026859283447e-01" nType="0">
          <Node pos="l" depth="2" NCoef="0" IVar="5" Cut="3.0000000000000000e+00" cType="1" res="1.5595407783985138e-01" rms="0.0000000000000000e+00" purity="2.7621954679489136e-01" nType="0">
            <Node pos="l" depth="3" NCoef="0" IVar="4" Cut="1.2393106520175934e-01" cType="1" res="-7.9663731157779694e-03" rms="4.5662054419517517e-01" purity="4.0086278319358826e-01" nType="0">
              <Node pos="l" depth="4" NCoef="0" IVar="4" Cut="1.0002826154232025e-01" cType="1" res="-1.3569287955760956e-02" rms="4.5572665333747864e-01" purity="4.0856447815895081e-01" nType="0">
                <Node pos="l" depth="5" NCoef="0" IVar="4" Cut="3.5780664533376694e-02" cType="1" res="-1.8104378134012222e-02" rms="4.5617470145225525e-01" purity="4.0801480412483215e-01" nType="0">
                  <Node pos="l" depth="6" NCoef="0" IVar="-1" Cut="0.0000000000000000e+00" cType="1" res="-4.0415395051240921e-03" rms="4.4415274262428284e-01" purity="3.6143383383750916e-01" nType="-99"/>
                  <Node pos="r" depth="6" NCoef="0" IVar="2" Cut="2.4792053222656250e+02" cType="1" res="-1.2866331264376640e-02" rms="4.5907795429229736e-01" purity="4.2002633213996887e-01" nType="0">
                    <Node pos="l" depth="7" NCoef="0" IVar="-1" Cut="0.0000000000000000e+00" cType="1" res="-4.9292563926428556e-04" rms="4.6277490258216858e-01" purity="4.3933486938476562e-01" nType="-99"/>
                    <Node pos="r" depth="7" NCoef="0" IVar="-1" Cut="0.0000000000000000e+00" cType="1" res="-4.3740835972130299e-03" rms="4.4522649049758911e-01" purity="3.5413095355033875e-01" nType="-99"/>
                  </Node>
                </Node>
                <Node pos="r" depth="5" NCoef="0" IVar="-1" Cut="0.0000000000000000e+00" cType="1" res="1.4069073367863894e-03" rms="4.5199966430664062e-01" purity="4.1191750764846802e-01" nType="-99"/>
              </Node>
              <Node pos="r" depth="4" NCoef="0" IVar="-1" Cut="0.0000000000000000e+00" cType="1" res="3.0343637336045504e-03" rms="4.6065932512283325e-01" purity="3.5213267803192139e-01" nType="-99"/>
            </Node>
            <Node pos="r" depth="3" NCoef="0" IVar="3" Cut="4.3147036433219910e-01" cType="1" res="1.3496932806447148e-03" rms="3.8097551465034485e-01" purity="2.5060957670211792e-01" nType="0">
              <Node pos="l" depth="4" NCoef="0" IVar="5" Cut="6.0000000000000000e+00" cType="1" res="7.3570042848587036e-02" rms="1.6203539073467255e-01" purity="8.6371585726737976e-02" nType="0">
                <Node pos="l" depth="5" NCoef="0" IVar="3" Cut="2.0947618782520294e-01" cType="1" res="-1.0527079924941063e-02" rms="2.7944481372833252e-01" purity="9.2280365526676178e-02" nType="0">
                  <Node pos="l" depth="6" NCoef="0" IVar="-1" Cut="0.0000000000000000e+00" cType="1" res="5.4862112738192081e-03" rms="3.5079032182693481e-01" purity="1.5979291498661041e-01" nType="-99"/>
                  <Node pos="r" depth="6" NCoef="0" IVar="5" Cut="4.0000000000000000e+00" cType="1" res="-1.1621048673987389e-02" rms="2.4961209297180176e-01" purity="8.2584843039512634e-02" nType="0">
                    <Node pos="l" depth="7" NCoef="0" IVar="-1" Cut="0.0000000000000000e+00" cType="1" res="-7.5373072177171707e-03" rms="2.7762925624847412e-01" purity="9.0958893299102783e-02" nType="-99"/>
                    <Node pos="r" depth="7" NCoef="0" IVar="-1" Cut="0.0000000000000000e+00" cType="1" res="-4.3363808654248714e-03" rms="2.6459491252899170e-01" purity="8.0498360097408295e-02" nType="-99"/>
                  </Node>
                </Node>
                <Node pos="r" depth="5" NCoef="0" IVar="3" Cut="3.6189752817153931e-01" cType="1" res="-1.5668713022023439e-03" rms="2.6309803128242493e-01" purity="8.0824032425880432e-02" nType="0">
                  <Node pos="l" depth="6" NCoef="0" IVar="4" Cut="2.3124901950359344e-01" cType="1" res="-6.2461527995765209e-03" rms="2.4601818621158600e-01" purity="6.9412127137184143e-02" nType="0">
                    <Node pos="l" depth="7" NCoef="0" IVar="-1" Cut="0.0000000000000000e+00" cType="1" res="-5.7731773704290390e-03" rms="2.0498104393482208e-01" purity="4.5167490839958191e-02" nType="-99"/>
                    <Node pos="r" depth="7" NCoef="0" IVar="-1" Cut="0.0000000000000000e+00" cType="1" res="2.3226523771882057e-03" rms="3.7585806846618652e-01" purity="1.7570494115352631e-01" nType="-99"/>
                  </Node>
                  <Node pos="r" depth="6" NCoef="0" IVar="-1" Cut="0.0000000000000000e+00" cType="1" res="6.8064499646425247e-03" rms="3.5189774632453918e-01" purity="1.5385538339614868e-01" nType="-99"/>
                </Node>
              </Node>
              <Node pos="r" depth="4" NCoef="0" IVar="1" Cut="-9.1236419975757599e-02" cType="1" res="7.6606380753219128e-03" rms="4.5534873008728027e-01" purity="3.9346805214881897e-01" nType="0">
                <Node pos="l" depth="5" NCoef="0" IVar="0" Cut="1.8975174427032471e-01" cType="1" res="2.1251406520605087e-02" rms="4.6899399161338806e-01" purity="4.6400794386863708e-01" nType="0">
                  <Node pos="l" depth="6" NCoef="0" IVar="3" Cut="6.6056382656097412e-01" cType="1" res="3.2720267772674561e-02" rms="4.8008826375007629e-01" purity="5.9167271852493286e-01" nType="0">
                    <Node pos="l" depth="7" NCoef="0" IVar="-1" Cut="0.0000000000000000e+00" cType="1" res="3.6911859642714262e-03" rms="4.9086186289787292e-01" purity="5.0676459074020386e-01" nType="-99"/>
                    <Node pos="r" depth="7" NCoef="0" IVar="-1" Cut="0.0000000000000000e+00" cType="1" res="2.1557842846959829e-03" rms="4.7132799029350281e-01" purity="6.5808641910552979e-01" nType="-99"/>
                  </Node>
                  <Node pos="r" depth="6" NCoef="0" IVar="2" Cut="2.5654055786132812e+02" cType="1" res="1.2507693842053413e-02" rms="4.6016427874565125e-01" purity="3.6667785048484802e-01" nType="0">
                    <Node pos="l" depth="7" NCoef="0" IVar="-1" Cut="0.0000000000000000e+00" cType="1" res="2.0195126999169588e-03" rms="4.6757352352142334e-01" purity="4.0254053473472595e-01" nType="-99"/>
                    <Node pos="r" depth="7" NCoef="0" IVar="-1" Cut="0.0000000000000000e+00" cType="1" res="-3.2704905606806278e-04" rms="4.4318333268165588e-01" purity="2.8839915990829468e-01" nType="-99"/>
                  </Node>
                </Node>
                <Node pos="r" depth="5" NCoef="0" IVar="1" Cut="1.0768890380859375e+00" cType="1" res="2.9669208452105522e-03" rms="4.5044493675231934e-01" purity="3.6910632252693176e-01" nType="0">
                  <Node pos="l" depth="6" NCoef="0" IVar="1" Cut="2.4785888195037842e-01" cType="1" res="4.7902623191475868e-03" rms="4.5400792360305786e-01" purity="3.7944969534873962e-01" nType="0">
                    <Node pos="l" depth="7" NCoef="0" IVar="-1" Cut="0.0000000000000000e+00" cType="1" res="-1.3066134124528617e-04" rms="4.6342593431472778e-01" purity="4.1585758328437805e-01" nType="-99"/>
                    <Node pos="r" depth="7" NCoef="0" IVar="-1" Cut="0.0000000000000000e+00" cType="1" res="1.5496104024350643e-03" rms="4.4053322076797485e-01" purity="3.2916617393493652e-01" nType="-99"/>
                  </Node>
                  <Node pos="r" depth="6" NCoef="0" IVar="-1" Cut="0.0000000000000000e+00" cType="1" res="-3.3653615973889828e-03" rms="3.9467629790306091e-01" purity="2.2019600868225098e-01" nType="-99"/>
                </Node>
              </Node>
            </Node>
          </Node>
          <Node pos="r" depth="2" NCoef="0" IVar="0" Cut="5.5945098400115967e-01" cType="1" res="9.0289879590272903e-03" rms="4.2615565657615662e-01" purity="7.4589961767196655e-01" nType="0">
            <Node pos="l" depth="3" NCoef="0" IVar="0" Cut="3.0673494935035706e-01" cType="1" res="9.7083803266286850e-03" rms="4.2449769377708435e-01" purity="7.5349056720733643e-01" nType="0">
              <Node pos="l" depth="4" NCoef="0" IVar="3" Cut="9.9847131967544556e-01" cType="1" res="1.0979748331010342e-02" rms="4.2248189449310303e-01" purity="7.5798434019088745e-01" nType="0">
                <Node pos="l" depth="5" NCoef="0" IVar="1" Cut="7.7907377481460571e-01" cType="1" res="8.6851110681891441e-03" rms="4.3448024988174438e-01" purity="7.3638534545898438e-01" nType="0">
                  <Node pos="l" depth="6" NCoef="0" IVar="3" Cut="8.2083773612976074e-01" cType="1" res="1.0258980095386505e-02" rms="4.3041536211967468e-01" purity="7.4775439500808716e-01" nType="0">
                    <Node pos="l" depth="7" NCoef="0" IVar="-1" Cut="0.0000000000000000e+00" cType="1" res="1.9238461973145604e-03" rms="4.6272626519203186e-01" purity="6.7905080318450928e-01" nType="-99"/>
                    <Node pos="r" depth="7" NCoef="0" IVar="-1" Cut="0.0000000000000000e+00" cType="1" res="9.2501530889421701e-04" rms="4.2558503150939941e-01" purity="7.5754779577255249e-01" nType="-99"/>
                  </Node>
                  <Node pos="r" depth="6" NCoef="0" IVar="-1" Cut="0.0000000000000000e+00" cType="1" res="-1.0629842290654778e-03" rms="4.8484110832214355e-01" purity="5.8514440059661865e-01" nType="-99"/>
                </Node>
                <Node pos="r" depth="5" NCoef="0" IVar="3" Cut="1.0144131183624268e+00" cType="1" res="1.5673164278268814e-02" rms="3.9677095413208008e-01" purity="8.0216252803802490e-01" nType="0">
                  <Node pos="l" depth="6" NCoef="0" IVar="1" Cut="4.9463775753974915e-01" cType="1" res="1.8850099295377731e-02" rms="3.9437457919120789e-01" purity="8.0574017763137817e-01" nType="0">
                    <Node pos="l" depth="7" NCoef="0" IVar="-1" Cut="0.0000000000000000e+00" cType="1" res="1.8781438702717423e-03" rms="3.8678777217864990e-01" purity="8.1655162572860718e-01" nType="-99"/>
                    <Node pos="r" depth="7" NCoef="0" IVar="-1" Cut="0.0000000000000000e+00" cType="1" res="3.0006899032741785e-03" rms="4.3365362286567688e-01" purity="7.4592381715774536e-01" nType="-99"/>
                  </Node>
                  <Node pos="r" depth="6" NCoef="0" IVar="3" Cut="1.0262416601181030e+00" cType="1" res="6.7004510201513767e-03" rms="4.0332713723182678e-01" purity="7.9205799102783203e-01" nType="0">
                    <Node pos="l" depth="7" NCoef="0" IVar="-1" Cut="0.0000000000000000e+00" cType="1" res="1.2971524847671390e-03" rms="3.9616212248802185e-01" purity="8.0136442184448242e-01" nType="-99"/>
                    <Node pos="r" depth="7" NCoef="0" IVar="-1" Cut="0.0000000000000000e+00" cType="1" res="2.6323978090658784e-04" rms="4.0938386321067810e-01" purity="7.8399640321731567e-01" nType="-99"/>
                  </Node>
                </Node>
              </Node>
              <Node pos="r" depth="4" NCoef="0" IVar="-1" Cut="0.0000000000000000e+00" cType="1" res="-2.3967681918293238e-03" rms="4.7818130254745483e-01" purity="6.2218815088272095e-01" nType="-99"/>
            </Node>
            <Node pos="r" depth="3" NCoef="0" IVar="-1" Cut="0.0000000000000000e+00" cType="1" res="-1.4735469594597816e-03" rms="4.8427310585975647e-01" purity="4.5743185281753540e-01" nType="-99"/>
          </Node>
        </Node>
        <Node pos="r" depth="1" NCoef="0" IVar="-1" Cut="0.0000000000000000e+00" cType="1" res="-4.2530423961579800e-03" rms="4.3762511014938354e-01" purity="5.8744454383850098e-01" nType="-99"/>
      </Node>
    </BinaryTree>
    <BinaryTree type="DecisionTree" boostWeight="1.0000000000000000e+00" itree="94">
      <Node pos="s" depth="0" NCoef="0" IVar="1" Cut="1.4958879351615906e-01" cType="1" res="2.4561835452914238e-03" rms="4.0981787443161011e-01" purity="4.9864935874938965e-01" nType="0">
        <Node pos="l" depth="1" NCoef="0" IVar="2" Cut="3.7649099731445312e+02" cType="1" res="7.9111112281680107e-03" rms="4.2072269320487976e-01" purity="5.8282732963562012e-01" nType="0">
          <Node pos="l" depth="2" NCoef="0" IVar="2" Cut="7.2869071960449219e+01" cType="1" res="9.8570147529244423e-03" rms="4.2416641116142273e-01" purity="6.2419790029525757e-01" nType="0">
            <Node pos="l" depth="3" NCoef="0" IVar="4" Cut="2.1860742941498756e-02" cType="1" res="1.3397864997386932e-02" rms="4.1536736488342285e-01" purity="7.4335950613021851e-01" nType="0">
              <Node pos="l" depth="4" NCoef="0" IVar="2" Cut="2.1152828216552734e+01" cType="1" res="9.2840204015374184e-03" rms="4.0515112876892090e-01" purity="7.7431738376617432e-01" nType="0">
                <Node pos="l" depth="5" NCoef="0" IVar="3" Cut="1.0215917825698853e+00" cType="1" res="1.2085421942174435e-02" rms="4.0188407897949219e-01" purity="7.9009383916854858e-01" nType="0">
                  <Node pos="l" depth="6" NCoef="0" IVar="3" Cut="8.9632630348205566e-01" cType="1" res="9.9937384948134422e-03" rms="4.0284353494644165e-01" purity="7.8787988424301147e-01" nType="0">
                    <Node pos="l" depth="7" NCoef="0" IVar="-1" Cut="0.0000000000000000e+00" cType="1" res="2.4042162112891674e-03" rms="4.5490252971649170e-01" purity="6.4928859472274780e-01" nType="-99"/>
                    <Node pos="r" depth="7" NCoef="0" IVar="-1" Cut="0.0000000000000000e+00" cType="1" res="1.0250351624563336e-03" rms="3.9879402518272400e-01" purity="7.9789787530899048e-01" nType="-99"/>
                  </Node>
                  <Node pos="r" depth="6" NCoef="0" IVar="3" Cut="1.0398669242858887e+00" cType="1" res="2.7743248268961906e-02" rms="3.9427545666694641e-01" purity="8.0666697025299072e-01" nType="0">
                    <Node pos="l" depth="7" NCoef="0" IVar="-1" Cut="0.0000000000000000e+00" cType="1" res="1.7924497369676828e-03" rms="3.8966512680053711e-01" purity="8.1240189075469971e-01" nType="-99"/>
                    <Node pos="r" depth="7" NCoef="0" IVar="-1" Cut="0.0000000000000000e+00" cType="1" res="4.1496013291180134e-03" rms="3.9873898029327393e-01" purity="8.0055242776870728e-01" nType="-99"/>
                  </Node>
                </Node>
                <Node pos="r" depth="5" NCoef="0" IVar="-1" Cut="0.0000000000000000e+00" cType="1" res="-2.6428874116390944e-03" rms="4.4069975614547729e-01" purity="5.8723825216293335e-01" nType="-99"/>
              </Node>
              <Node pos="r" depth="4" NCoef="0" IVar="0" Cut="5.2171343564987183e-01" cType="1" res="2.6968024671077728e-02" rms="4.4714814424514771e-01" purity="6.4124011993408203e-01" nType="0">
                <Node pos="l" depth="5" NCoef="0" IVar="3" Cut="7.9957592487335205e-01" cType="1" res="2.1685194224119186e-02" rms="4.4867917895317078e-01" purity="6.9362449645996094e-01" nType="0">
                  <Node pos="l" depth="6" NCoef="0" IVar="3" Cut="7.3000741004943848e-01" cType="1" res="1.5169133432209492e-02" rms="4.7956103086471558e-01" purity="6.0553878545761108e-01" nType="0">
                    <Node pos="l" depth="7" NCoef="0" IVar="-1" Cut="0.0000000000000000e+00" cType="1" res="2.0723396446555853e-03" rms="4.8615637421607971e-01" purity="5.6160849332809448e-01" nType="-99"/>
                    <Node pos="r" depth="7" NCoef="0" IVar="-1" Cut="0.0000000000000000e+00" cType="1" res="1.8017226830124855e-04" rms="4.7095713019371033e-01" purity="6.5980875492095947e-01" nType="-99"/>
                  </Node>
                  <Node pos="r" depth="6" NCoef="0" IVar="3" Cut="8.6413800716400146e-01" cType="1" res="2.7035046368837357e-02" rms="4.2156156897544861e-01" purity="7.6594513654708862e-01" nType="0">
                    <Node pos="l" depth="7" NCoef="0" IVar="-1" Cut="0.0000000000000000e+00" cType="1" res="1.9751829095184803e-03" rms="4.3945476412773132e-01" purity="7.3685669898986816e-01" nType="-99"/>
                    <Node pos="r" depth="7" NCoef="0" IVar="-1" Cut="0.0000000000000000e+00" cType="1" res="3.6746035329997540e-03" rms="3.9916101098060608e-01" purity="8.0054789781570435e-01" nType="-99"/>
                  </Node>
                </Node>
                <Node pos="r" depth="5" NCoef="0" IVar="-1" Cut="0.0000000000000000e+00" cType="1" res="6.8960078060626984e-03" rms="4.3726289272308350e-01" purity="3.4694993495941162e-01" nType="-99"/>
              </Node>
            </Node>
            <Node pos="r" depth="3" NCoef="0" IVar="3" Cut="6.2785589694976807e-01" cType="1" res="4.8598255962133408e-03" rms="4.3623369932174683e-01" purity="4.5602563023567200e-01" nType="0">
              <Node pos="l" depth="4" NCoef="0" IVar="4" Cut="1.7251162230968475e-01" cType="1" res="-8.7769288802519441e-04" rms="3.9115375280380249e-01" purity="2.3126608133316040e-01" nType="0">
                <Node pos="l" depth="5" NCoef="0" IVar="2" Cut="2.4917338562011719e+02" cType="1" res="-6.7699295468628407e-03" rms="3.8657644391059875e-01" purity="2.2607727348804474e-01" nType="0">
                  <Node pos="l" depth="6" NCoef="0" IVar="4" Cut="6.5404482185840607e-02" cType="1" res="-1.6777052078396082e-03" rms="3.9773949980735779e-01" purity="2.4601577222347260e-01" nType="0">
                    <Node pos="l" depth="7" NCoef="0" IVar="-1" Cut="0.0000000000000000e+00" cType="1" res="-2.9987224843353033e-03" rms="3.5437527298927307e-01" purity="1.7738521099090576e-01" nType="-99"/>
                    <Node pos="r" depth="7" NCoef="0" IVar="-1" Cut="0.0000000000000000e+00" cType="1" res="7.5079017551615834e-04" rms="4.1649627685546875e-01" purity="2.7849575877189636e-01" nType="-99"/>
                  </Node>
                  <Node pos="r" depth="6" NCoef="0" IVar="3" Cut="4.3166866898536682e-01" cType="1" res="-1.9734378904104233e-02" rms="3.5625371336936951e-01" purity="1.7531518638134003e-01" nType="0">
                    <Node pos="l" depth="7" NCoef="0" IVar="-1" Cut="0.0000000000000000e+00" cType="1" res="-4.8331767320632935e-03" rms="2.4449084699153900e-01" purity="6.7153528332710266e-02" nType="-99"/>
                    <Node pos="r" depth="7" NCoef="0" IVar="-1" Cut="0.0000000000000000e+00" cType="1" res="-3.1935656443238258e-03" rms="4.2524436116218567e-01" purity="2.6229855418205261e-01" nType="-99"/>
                  </Node>
                </Node>
                <Node pos="r" depth="5" NCoef="0" IVar="-1" Cut="0.0000000000000000e+00" cType="1" res="6.3099875114858150e-03" rms="4.2120268940925598e-01" purity="2.7005147933959961e-01" nType="-99"/>
              </Node>
              <Node pos="r" depth="4" NCoef="0" IVar="5" Cut="3.0000000000000000e+00" cType="1" res="1.0161496698856354e-02" rms="4.6785783767700195e-01" purity="6.3226729631423950e-01" nType="0">
                <Node pos="l" depth="5" NCoef="0" IVar="0" Cut="1.9453330338001251e-01" cType="1" res="4.6295165084302425e-03" rms="4.6230873465538025e-01" purity="6.5576052665710449e-01" nType="0">
                  <Node pos="l" depth="6" NCoef="0" IVar="3" Cut="8.4408104419708252e-01" cType="1" res="1.2550705287139863e-04" rms="4.5284777879714966e-01" purity="7.0231068134307861e-01" nType="0">
                    <Node pos="l" depth="7" NCoef="0" IVar="-1" Cut="0.0000000000000000e+00" cType="1" res="-9.8781124688684940e-04" rms="4.7450944781303406e-01" purity="6.4723259210586548e-01" nType="-99"/>
                    <Node pos="r" depth="7" NCoef="0" IVar="-1" Cut="0.0000000000000000e+00" cType="1" res="9.6969382138922811e-04" rms="4.3545398116111755e-01" purity="7.4418181180953979e-01" nType="-99"/>
                  </Node>
                  <Node pos="r" depth="6" NCoef="0" IVar="2" Cut="1.4139460754394531e+02" cType="1" res="1.5792468562722206e-02" rms="4.8478198051452637e-01" purity="5.4038840532302856e-01" nType="0">
                    <Node pos="l" depth="7" NCoef="0" IVar="-1" Cut="0.0000000000000000e+00" cType="1" res="3.1309970654547215e-04" rms="4.8386642336845398e-01" purity="5.5350559949874878e-01" nType="-99"/>
                    <Node pos="r" depth="7" NCoef="0" IVar="-1" Cut="0.0000000000000000e+00" cType="1" res="2.5033976417034864e-03" rms="4.8535835742950439e-01" purity="5.2795535326004028e-01" nType="-99"/>
                  </Node>
                </Node>
                <Node pos="r" depth="5" NCoef="0" IVar="3" Cut="7.1185427904129028e-01" cType="1" res="1.7558054998517036e-02" rms="4.7895821928977966e-01" purity="5.9153681993484497e-01" nType="0">
                  <Node pos="l" depth="6" NCoef="0" IVar="3" Cut="6.6850632429122925e-01" cType="1" res="4.1951546445488930e-03" rms="4.9232476949691772e-01" purity="5.1667040586471558e-01" nType="0">
                    <Node pos="l" depth="7" NCoef="0" IVar="-1" Cut="0.0000000000000000e+00" cType="1" res="6.7312963074073195e-04" rms="4.9382939934730530e-01" purity="4.8722124099731445e-01" nType="-99"/>
                    <Node pos="r" depth="7" NCoef="0" IVar="-1" Cut="0.0000000000000000e+00" cType="1" res="9.8354437795933336e-05" rms="4.9084720015525818e-01" purity="5.4511749744415283e-01" nType="-99"/>
                  </Node>
                  <Node pos="r" depth="6" NCoef="0" IVar="-1" Cut="0.0000000000000000e+00" cType="1" res="2.9505812563002110e-03" rms="4.6470049023628235e-01" purity="6.6703784465789795e-01" nType="-99"/>
                </Node>
              </Node>
            </Node>
          </Node>
          <Node pos="r" depth="2" NCoef="0" IVar="4" Cut="1.7888323962688446e-01" cType="1" res="-8.6665116250514984e-03" rms="3.8976052403450012e-01" purity="2.3038159310817719e-01" nType="0">
            <Node pos="l" depth="3" NCoef="0" IVar="3" Cut="5.3287190198898315e-01" cType="1" res="-1.4894901541993022e-03" rms="3.9125385880470276e-01" purity="2.5019401311874390e-01" nType="0">
              <Node pos="l" depth="4" NCoef="0" IVar="2" Cut="5.0668041992187500e+02" cType="1" res="-7.3327268473803997e-03" rms="3.2226932048797607e-01" purity="1.2921205163002014e-01" nType="0">
                <Node pos="l" depth="5" NCoef="0" IVar="-1" Cut="0.0000000000000000e+00" cType="1" res="-3.1078527681529522e-03" rms="3.0799549818038940e-01" purity="1.1860197037458420e-01" nType="-99"/>
                <Node pos="r" depth="5" NCoef="0" IVar="-1" Cut="0.0000000000000000e+00" cType="1" res="-4.2529019992798567e-04" rms="3.3626729249954224e-01" purity="1.4015214145183563e-01" nType="-99"/>
              </Node>
              <Node pos="r" depth="4" NCoef="0" IVar="-1" Cut="0.0000000000000000e+00" cType="1" res="7.6195190194994211e-04" rms="4.8064866662025452e-01" purity="4.4211420416831970e-01" nType="-99"/>
            </Node>
            <Node pos="r" depth="3" NCoef="0" IVar="3" Cut="2.7649483084678650e-01" cType="1" res="-1.8325880169868469e-02" rms="3.8753181695938110e-01" purity="2.0371659100055695e-01" nType="0">
              <Node pos="l" depth="4" NCoef="0" IVar="-1" Cut="0.0000000000000000e+00" cType="1" res="-7.4819690780714154e-04" rms="3.7721458077430725e-01" purity="1.9007547199726105e-01" nType="-99"/>
              <Node pos="r" depth="4" NCoef="0" IVar="-1" Cut="0.0000000000000000e+00" cType="1" res="-4.9976119771599770e-03" rms="3.9845010638237000e-01" purity="2.1939924359321594e-01" nType="-99"/>
            </Node>
          </Node>
        </Node>
        <Node pos="r" depth="1" NCoef="0" IVar="1" Cut="3.6453206539154053e+00" cType="1" res="-4.5813526958227158e-03" rms="3.9519393444061279e-01" purity="3.9004918932914734e-01" nType="0">
          <Node pos="l" depth="2" NCoef="0" IVar="1" Cut="1.0512301921844482e+00" cType="1" res="-5.8402623981237411e-03" rms="3.9594110846519470e-01" purity="3.9212059974670410e-01" nType="0">
            <Node pos="l" depth="3" NCoef="0" IVar="4" Cut="2.0214124023914337e-01" cType="1" res="-2.6492008473724127e-03" rms="4.0280842781066895e-01" purity="4.2314386367797852e-01" nType="0">
              <Node pos="l" depth="4" NCoef="0" IVar="3" Cut="9.9199527502059937e-01" cType="1" res="-1.7613630043342710e-03" rms="4.0458339452743530e-01" purity="4.3673834204673767e-01" nType="0">
                <Node pos="l" depth="5" NCoef="0" IVar="4" Cut="1.3056153431534767e-02" cType="1" res="-4.4734021648764610e-03" rms="3.9983895421028137e-01" purity="3.4761500358581543e-01" nType="0">
                  <Node pos="l" depth="6" NCoef="0" IVar="1" Cut="3.8230627775192261e-01" cType="1" res="-2.2081287577748299e-02" rms="4.4326311349868774e-01" purity="6.3015013933181763e-01" nType="0">
                    <Node pos="l" depth="7" NCoef="0" IVar="-1" Cut="0.0000000000000000e+00" cType="1" res="-1.0210645850747824e-03" rms="4.3442031741142273e-01" purity="6.8549472093582153e-01" nType="-99"/>
                    <Node pos="r" depth="7" NCoef="0" IVar="-1" Cut="0.0000000000000000e+00" cType="1" res="-3.8574305362999439e-03" rms="4.5409139990806580e-01" purity="5.5745732784271240e-01" nType="-99"/>
                  </Node>
                  <Node pos="r" depth="6" NCoef="0" IVar="3" Cut="8.6318439245223999e-01" cType="1" res="-2.4418854154646397e-03" rms="3.9447090029716492e-01" purity="3.1501737236976624e-01" nType="0">
                    <Node pos="l" depth="7" NCoef="0" IVar="-1" Cut="0.0000000000000000e+00" cType="1" res="-6.1216391623020172e-04" rms="3.8877415657043457e-01" purity="2.7920016646385193e-01" nType="-99"/>
                    <Node pos="r" depth="7" NCoef="0" IVar="-1" Cut="0.0000000000000000e+00" cType="1" res="1.6764778411015868e-03" rms="4.5097967982292175e-01" purity="7.0168256759643555e-01" nType="-99"/>
                  </Node>
                </Node>
                <Node pos="r" depth="5" NCoef="0" IVar="1" Cut="5.5669999122619629e-01" cType="1" res="8.0644385889172554e-03" rms="4.2117920517921448e-01" purity="7.5963491201400757e-01" nType="0">
                  <Node pos="l" depth="6" NCoef="0" IVar="1" Cut="2.6781845092773438e-01" cType="1" res="4.7451797872781754e-03" rms="4.1592323780059814e-01" purity="7.7059692144393921e-01" nType="0">
                    <Node pos="l" depth="7" NCoef="0" IVar="-1" Cut="0.0000000000000000e+00" cType="1" res="1.7111208289861679e-03" rms="4.0348058938980103e-01" purity="7.9159647226333618e-01" nType="-99"/>
                    <Node pos="r" depth="7" NCoef="0" IVar="-1" Cut="0.0000000000000000e+00" cType="1" res="-2.7708327979780734e-04" rms="4.2410847544670105e-01" purity="7.5615853071212769e-01" nType="-99"/>
                  </Node>
                  <Node pos="r" depth="6" NCoef="0" IVar="-1" Cut="0.0000000000000000e+00" cType="1" res="1.6255442751571536e-03" rms="4.3627345561981201e-01" purity="7.2706466913223267e-01" nType="-99"/>
                </Node>
              </Node>
              <Node pos="r" depth="4" NCoef="0" IVar="-1" Cut="0.0000000000000000e+00" cType="1" res="-3.6527728661894798e-03" rms="3.6728471517562866e-01" purity="1.6644118726253510e-01" nType="-99"/>
            </Node>
            <Node pos="r" depth="3" NCoef="0" IVar="3" Cut="3.8214117288589478e-01" cType="1" res="-2.2417169064283371e-02" rms="3.5769653320312500e-01" purity="2.3096130788326263e-01" nType="0">
              <Node pos="l" depth="4" NCoef="0" IVar="3" Cut="2.1011683344841003e-01" cType="1" res="-4.4390521943569183e-03" rms="2.2514966130256653e-01" purity="5.5861487984657288e-02" nType="0">
                <Node pos="l" depth="5" NCoef="0" IVar="-1" Cut="0.0000000000000000e+00" cType="1" res="-5.7663763873279095e-03" rms="2.1498596668243408e-01" purity="5.2471701055765152e-02" nType="-99"/>
                <Node pos="r" depth="5" NCoef="0" IVar="-1" Cut="0.0000000000000000e+00" cType="1" res="-1.7903438128996640e-04" rms="2.3089635372161865e-01" purity="5.7881705462932587e-02" nType="-99"/>
              </Node>
              <Node pos="r" depth="4" NCoef="0" IVar="1" Cut="1.8038035631179810e+00" cType="1" res="-3.5531315952539444e-02" rms="4.2882668972015381e-01" purity="3.5868793725967407e-01" nType="0">
                <Node pos="l" depth="5" NCoef="0" IVar="1" Cut="1.3665610551834106e+00" cType="1" res="-2.5942642241716385e-02" rms="4.2805233597755432e-01" purity="3.6027854681015015e-01" nType="0">
                  <Node pos="l" depth="6" NCoef="0" IVar="-1" Cut="0.0000000000000000e+00" cType="1" res="-2.0757662132382393e-03" rms="4.3035870790481567e-01" purity="3.6978968977928162e-01" nType="-99"/>
                  <Node pos="r" depth="6" NCoef="0" IVar="-1" Cut="0.0000000000000000e+00" cType="1" res="-4.2805178090929985e-03" rms="4.2407467961311340e-01" purity="3.4502631425857544e-01" nType="-99"/>
                </Node>
                <Node pos="r" depth="5" NCoef="0" IVar="-1" Cut="0.0000000000000000e+00" cType="1" res="-6.3359439373016357e-03" rms="4.2980921268463135e-01" purity="3.5485288500785828e-01" nType="-99"/>
              </Node>
            </Node>
          </Node>
          <Node pos="r" depth="2" NCoef="0" IVar="-1" Cut="0.0000000000000000e+00" cType="1" res="4.5569776557385921e-03" rms="3.7226882576942444e-01" purity="3.3279150724411011e-01" nType="-99"/>
        </Node>
      </Node>
    </BinaryTree>
    <BinaryTree type="DecisionTree" boostWeight="1.0000000000000000e+00" itree="95">
      <Node pos="s" depth="0" NCoef="0" IVar="2" Cut="3.8740634155273438e+02" cType="1" res="2.4857183452695608e-03" rms="4.1076615452766418e-01" purity="5.0020200014114380e-01" nType="0">
        <Node pos="l" depth="1" NCoef="0" IVar="2" Cut="7.4981620788574219e+01" cType="1" res="3.9512128569185734e-03" rms="4.1620981693267822e-01" purity="5.4031878709793091e-01" nType="0">
          <Node pos="l" depth="2" NCoef="0" IVar="2" Cut="7.0143867492675781e+01" cType="1" res="8.0450261011719704e-03" rms="4.2173805832862854e-01" purity="6.8776899576187134e-01" nType="0">
            <Node pos="l" depth="3" NCoef="0" IVar="2" Cut="5.8829662322998047e+01" cType="1" res="7.5033968314528465e-03" rms="4.2149940133094788e-01" purity="6.9285613298416138e-01" nType="0">
              <Node pos="l" depth="4" NCoef="0" IVar="4" Cut="4.6152491122484207e-02" cType="1" res="8.3970092236995697e-03" rms="4.2067319154739380e-01" purity="7.0816987752914429e-01" nType="0">
                <Node pos="l" depth="5" NCoef="0" IVar="2" Cut="2.8464336395263672e+01" cType="1" res="7.4007702060043812e-03" rms="4.1908717155456543e-01" purity="7.1944361925125122e-01" nType="0">
                  <Node pos="l" depth="6" NCoef="0" IVar="3" Cut="1.0148280858993530e+00" cType="1" res="8.4669925272464752e-03" rms="4.1564828157424927e-01" purity="7.5112199783325195e-01" nType="0">
                    <Node pos="l" depth="7" NCoef="0" IVar="-1" Cut="0.0000000000000000e+00" cType="1" res="7.1030965773388743e-04" rms="4.1740459203720093e-01" purity="7.4518311023712158e-01" nType="-99"/>
                    <Node pos="r" depth="7" NCoef="0" IVar="-1" Cut="0.0000000000000000e+00" cType="1" res="2.1292760502547026e-03" rms="4.0444162487983704e-01" purity="7.8777450323104858e-01" nType="-99"/>
                  </Node>
                  <Node pos="r" depth="6" NCoef="0" IVar="4" Cut="1.6874691471457481e-02" cType="1" res="1.5694533940404654e-03" rms="4.3737101554870605e-01" purity="5.4619014263153076e-01" nType="0">
                    <Node pos="l" depth="7" NCoef="0" IVar="-1" Cut="0.0000000000000000e+00" cType="1" res="-2.6041506789624691e-03" rms="4.4527405500411987e-01" purity="4.9743416905403137e-01" nType="-99"/>
                    <Node pos="r" depth="7" NCoef="0" IVar="-1" Cut="0.0000000000000000e+00" cType="1" res="7.4785365723073483e-04" rms="4.3542945384979248e-01" purity="5.5694729089736938e-01" nType="-99"/>
                  </Node>
                </Node>
                <Node pos="r" depth="5" NCoef="0" IVar="4" Cut="5.4402198642492294e-02" cType="1" res="2.5537995621562004e-02" rms="4.4673338532447815e-01" purity="5.1419717073440552e-01" nType="0">
                  <Node pos="l" depth="6" NCoef="0" IVar="-1" Cut="0.0000000000000000e+00" cType="1" res="3.9360001683235168e-03" rms="4.5109352469444275e-01" purity="5.5015623569488525e-01" nType="-99"/>
                  <Node pos="r" depth="6" NCoef="0" IVar="-1" Cut="0.0000000000000000e+00" cType="1" res="1.2026240583509207e-03" rms="4.4285500049591064e-01" purity="4.8576402664184570e-01" nType="-99"/>
                </Node>
              </Node>
              <Node pos="r" depth="4" NCoef="0" IVar="4" Cut="3.7142869085073471e-02" cType="1" res="-4.4375350698828697e-03" rms="4.3221095204353333e-01" purity="4.8822557926177979e-01" nType="0">
                <Node pos="l" depth="5" NCoef="0" IVar="-1" Cut="0.0000000000000000e+00" cType="1" res="-2.1952900569885969e-03" rms="4.2870861291885376e-01" purity="5.0999230146408081e-01" nType="-99"/>
                <Node pos="r" depth="5" NCoef="0" IVar="-1" Cut="0.0000000000000000e+00" cType="1" res="4.4982854160480201e-04" rms="4.3409559130668640e-01" purity="4.7501665353775024e-01" nType="-99"/>
              </Node>
            </Node>
            <Node pos="r" depth="3" NCoef="0" IVar="-1" Cut="0.0000000000000000e+00" cType="1" res="2.8368616476655006e-03" rms="4.2932265996932983e-01" purity="5.1589256525039673e-01" nType="-99"/>
          </Node>
          <Node pos="r" depth="2" NCoef="0" IVar="4" Cut="9.3662008643150330e-02" cType="1" res="-8.7164412252604961e-04" rms="4.0954881906509399e-01" purity="3.6661002039909363e-01" nType="0">
            <Node pos="l" depth="3" NCoef="0" IVar="3" Cut="7.2871422767639160e-01" cType="1" res="-4.5356303453445435e-03" rms="4.1580212116241455e-01" purity="4.1443488001823425e-01" nType="0">
              <Node pos="l" depth="4" NCoef="0" IVar="4" Cut="4.6971108764410019e-02" cType="1" res="-1.1709370650351048e-02" rms="3.7005755305290222e-01" purity="2.2192208468914032e-01" nType="0">
                <Node pos="l" depth="5" NCoef="0" IVar="3" Cut="5.6923699378967285e-01" cType="1" res="-2.4116400629281998e-02" rms="3.5534268617630005e-01" purity="1.8704257905483246e-01" nType="0">
                  <Node pos="l" depth="6" NCoef="0" IVar="-1" Cut="0.0000000000000000e+00" cType="1" res="-3.6044658627361059e-03" rms="2.5730979442596436e-01" purity="7.7804706990718842e-02" nType="-99"/>
                  <Node pos="r" depth="6" NCoef="0" IVar="-1" Cut="0.0000000000000000e+00" cType="1" res="-4.4338591396808624e-03" rms="4.5411026477813721e-01" purity="3.3350330591201782e-01" nType="-99"/>
                </Node>
                <Node pos="r" depth="5" NCoef="0" IVar="2" Cut="2.5639007568359375e+02" cType="1" res="-8.1410231068730354e-03" rms="3.7410634756088257e-01" purity="2.3195362091064453e-01" nType="0">
                  <Node pos="l" depth="6" NCoef="0" IVar="3" Cut="6.3481289148330688e-01" cType="1" res="-3.4142334479838610e-03" rms="3.8129651546478271e-01" purity="2.4730701744556427e-01" nType="0">
                    <Node pos="l" depth="7" NCoef="0" IVar="-1" Cut="0.0000000000000000e+00" cType="1" res="-1.9594449549913406e-03" rms="3.2972928881645203e-01" purity="1.5185078978538513e-01" nType="-99"/>
                    <Node pos="r" depth="7" NCoef="0" IVar="-1" Cut="0.0000000000000000e+00" cType="1" res="1.0152780450880527e-03" rms="4.9019268155097961e-01" purity="4.9515277147293091e-01" nType="-99"/>
                  </Node>
                  <Node pos="r" depth="6" NCoef="0" IVar="4" Cut="8.0135025084018707e-02" cType="1" res="-2.2357515990734100e-02" rms="3.5121262073516846e-01" purity="1.8577615916728973e-01" nType="0">
                    <Node pos="l" depth="7" NCoef="0" IVar="-1" Cut="0.0000000000000000e+00" cType="1" res="-5.6763272732496262e-03" rms="3.4367617964744568e-01" purity="1.7123195528984070e-01" nType="-99"/>
                    <Node pos="r" depth="7" NCoef="0" IVar="-1" Cut="0.0000000000000000e+00" cType="1" res="-1.6803235048428178e-03" rms="3.6178579926490784e-01" purity="2.0747894048690796e-01" nType="-99"/>
                  </Node>
                </Node>
              </Node>
              <Node pos="r" depth="4" NCoef="0" IVar="2" Cut="1.8582101440429688e+02" cType="1" res="4.1925907135009766e-03" rms="4.6528610587120056e-01" purity="6.4866340160369873e-01" nType="0">
                <Node pos="l" depth="5" NCoef="0" IVar="4" Cut="6.2420561909675598e-02" cType="1" res="-2.4822980631142855e-03" rms="4.6180391311645508e-01" purity="6.5690732002258301e-01" nType="0">
                  <Node pos="l" depth="6" NCoef="0" IVar="3" Cut="8.3826160430908203e-01" cType="1" res="-6.2031741254031658e-03" rms="4.6104669570922852e-01" purity="6.5588599443435669e-01" nType="0">
                    <Node pos="l" depth="7" NCoef="0" IVar="-1" Cut="0.0000000000000000e+00" cType="1" res="-1.5925122424960136e-03" rms="4.8076698184013367e-01" purity="5.8104246854782104e-01" nType="-99"/>
                    <Node pos="r" depth="7" NCoef="0" IVar="-1" Cut="0.0000000000000000e+00" cType="1" res="1.7049777670763433e-04" rms="4.4658818840980530e-01" purity="7.0816540718078613e-01" nType="-99"/>
                  </Node>
                  <Node pos="r" depth="6" NCoef="0" IVar="-1" Cut="0.0000000000000000e+00" cType="1" res="1.5049618668854237e-03" rms="4.6531614661216736e-01" purity="6.6234868764877319e-01" nType="-99"/>
                </Node>
                <Node pos="r" depth="5" NCoef="0" IVar="3" Cut="8.2730078697204590e-01" cType="1" res="2.0907329395413399e-02" rms="4.7348105907440186e-01" purity="6.2801963090896606e-01" nType="0">
                  <Node pos="l" depth="6" NCoef="0" IVar="2" Cut="2.4433291625976562e+02" cType="1" res="6.9148680195212364e-03" rms="4.8264494538307190e-01" purity="5.9378319978713989e-01" nType="0">
                    <Node pos="l" depth="7" NCoef="0" IVar="-1" Cut="0.0000000000000000e+00" cType="1" res="-8.5852798292762600e-06" rms="4.8518723249435425e-01" purity="5.8820450305938721e-01" nType="-99"/>
                    <Node pos="r" depth="7" NCoef="0" IVar="-1" Cut="0.0000000000000000e+00" cType="1" res="1.2737079523503780e-03" rms="4.8010322451591492e-01" purity="5.9912246465682983e-01" nType="-99"/>
                  </Node>
                  <Node pos="r" depth="6" NCoef="0" IVar="-1" Cut="0.0000000000000000e+00" cType="1" res="4.5149456709623337e-03" rms="4.5497652888298035e-01" purity="6.9114136695861816e-01" nType="-99"/>
                </Node>
              </Node>
            </Node>
            <Node pos="r" depth="3" NCoef="0" IVar="2" Cut="1.9592645263671875e+02" cType="1" res="7.2049335576593876e-03" rms="3.9529561996459961e-01" purity="2.6118901371955872e-01" nType="0">
              <Node pos="l" depth="4" NCoef="0" IVar="3" Cut="3.4176757931709290e-01" cType="1" res="1.7660297453403473e-02" rms="4.1154599189758301e-01" purity="3.0671870708465576e-01" nType="0">
                <Node pos="l" depth="5" NCoef="0" IVar="-1" Cut="0.0000000000000000e+00" cType="1" res="6.8049173569306731e-04" rms="2.6296314597129822e-01" purity="8.0132946372032166e-02" nType="-99"/>
                <Node pos="r" depth="5" NCoef="0" IVar="0" Cut="2.6929530501365662e-01" cType="1" res="2.3945642635226250e-02" rms="4.5661759376525879e-01" purity="3.9550283551216125e-01" nType="0">
                  <Node pos="l" depth="6" NCoef="0" IVar="-1" Cut="0.0000000000000000e+00" cType="1" res="1.0182750411331654e-03" rms="4.8185312747955322e-01" purity="5.1889824867248535e-01" nType="-99"/>
                  <Node pos="r" depth="6" NCoef="0" IVar="0" Cut="7.9054260253906250e-01" cType="1" res="3.2989036291837692e-02" rms="4.3635770678520203e-01" purity="3.0222940444946289e-01" nType="0">
                    <Node pos="l" depth="7" NCoef="0" IVar="-1" Cut="0.0000000000000000e+00" cType="1" res="5.1533617079257965e-03" rms="4.7525542974472046e-01" purity="3.9608174562454224e-01" nType="-99"/>
                    <Node pos="r" depth="7" NCoef="0" IVar="-1" Cut="0.0000000000000000e+00" cType="1" res="1.9520964706316590e-03" rms="3.8214191794395447e-01" purity="1.8718691170215607e-01" nType="-99"/>
                  </Node>
                </Node>
              </Node>
              <Node pos="r" depth="4" NCoef="0" IVar="5" Cut="6.0000000000000000e+00" cType="1" res="-8.6101726628839970e-04" rms="3.8211834430694580e-01" purity="2.2634144127368927e-01" nType="0">
                <Node pos="l" depth="5" NCoef="0" IVar="4" Cut="1.1123425513505936e-01" cType="1" res="-4.5422310940921307e-03" rms="4.1099491715431213e-01" purity="2.7263706922531128e-01" nType="0">
                  <Node pos="l" depth="6" NCoef="0" IVar="-1" Cut="0.0000000000000000e+00" cType="1" res="9.9143118131905794e-04" rms="4.1902193427085876e-01" purity="3.1228530406951904e-01" nType="-99"/>
                  <Node pos="r" depth="6" NCoef="0" IVar="3" Cut="3.9891517162322998e-01" cType="1" res="-1.0473652742803097e-02" rms="4.0687751770019531e-01" purity="2.5323456525802612e-01" nType="0">
                    <Node pos="l" depth="7" NCoef="0" IVar="-1" Cut="0.0000000000000000e+00" cType="1" res="7.0181564660742879e-04" rms="3.2588151097297668e-01" purity="1.3461089134216309e-01" nType="-99"/>
                    <Node pos="r" depth="7" NCoef="0" IVar="-1" Cut="0.0000000000000000e+00" cType="1" res="-2.0495937205851078e-03" rms="4.4753363728523254e-01" purity="3.2299241423606873e-01" nType="-99"/>
                  </Node>
                </Node>
                <Node pos="r" depth="5" NCoef="0" IVar="3" Cut="2.5345101952552795e-01" cType="1" res="8.4196701645851135e-03" rms="2.9956260323524475e-01" purity="1.1239515990018845e-01" nType="0">
                  <Node pos="l" depth="6" NCoef="0" IVar="-1" Cut="0.0000000000000000e+00" cType="1" res="-4.6328678727149963e-03" rms="2.4295991659164429e-01" purity="6.6499345004558563e-02" nType="-99"/>
                  <Node pos="r" depth="6" NCoef="0" IVar="-1" Cut="0.0000000000000000e+00" cType="1" res="6.4022340811789036e-03" rms="3.4355053305625916e-01" purity="1.5565195679664612e-01" nType="-99"/>
                </Node>
              </Node>
            </Node>
          </Node>
        </Node>
        <Node pos="r" depth="1" NCoef="0" IVar="3" Cut="5.7952451705932617e-01" cType="1" res="-8.7002618238329887e-03" rms="3.6636826395988464e-01" purity="1.9399419426918030e-01" nType="0">
          <Node pos="l" depth="2" NCoef="0" IVar="2" Cut="9.3104162597656250e+02" cType="1" res="-3.9435536600649357e-03" rms="3.3985659480094910e-01" purity="1.5011827647686005e-01" nType="0">
            <Node pos="l" depth="3" NCoef="0" IVar="2" Cut="7.2060754394531250e+02" cType="1" res="-7.0908116176724434e-03" rms="3.2958742976188660e-01" purity="1.3934588432312012e-01" nType="0">
              <Node pos="l" depth="4" NCoef="0" IVar="3" Cut="4.8606783151626587e-01" cType="1" res="-3.4987425897270441e-03" rms="3.2868051528930664e-01" purity="1.3933619856834412e-01" nType="0">
                <Node pos="l" depth="5" NCoef="0" IVar="5" Cut="5.0000000000000000e+00" cType="1" res="-7.1578049100935459e-03" rms="2.9796817898750305e-01" purity="1.0610034316778183e-01" nType="0">
                  <Node pos="l" depth="6" NCoef="0" IVar="-1" Cut="0.0000000000000000e+00" cType="1" res="-3.6123819882050157e-05" rms="3.3801925182342529e-01" purity="1.4449125528335571e-01" nType="-99"/>
                  <Node pos="r" depth="6" NCoef="0" IVar="2" Cut="5.2708160400390625e+02" cType="1" res="-1.0873496532440186e-02" rms="2.7425652742385864e-01" purity="8.5710287094116211e-02" nType="0">
                    <Node pos="l" depth="7" NCoef="0" IVar="-1" Cut="0.0000000000000000e+00" cType="1" res="-1.7764623044058681e-03" rms="2.7236312627792358e-01" purity="8.5155211389064789e-02" nType="-99"/>
                    <Node pos="r" depth="7" NCoef="0" IVar="-1" Cut="0.0000000000000000e+00" cType="1" res="-5.2764452993869781e-03" rms="2.7629765868186951e-01" purity="8.6357556283473969e-02" nType="-99"/>
                  </Node>
                </Node>
                <Node pos="r" depth="5" NCoef="0" IVar="-1" Cut="0.0000000000000000e+00" cType="1" res="1.5893679810687900e-03" rms="4.3987661600112915e-01" purity="2.8748142719268799e-01" nType="-99"/>
              </Node>
              <Node pos="r" depth="4" NCoef="0" IVar="-1" Cut="0.0000000000000000e+00" cType="1" res="-4.6601542271673679e-03" rms="3.3311292529106140e-01" purity="1.3938884437084198e-01" nType="-99"/>
            </Node>
            <Node pos="r" depth="3" NCoef="0" IVar="-1" Cut="0.0000000000000000e+00" cType="1" res="2.4539406877011061e-03" rms="3.9633581042289734e-01" purity="2.1594718098640442e-01" nType="-99"/>
          </Node>
          <Node pos="r" depth="2" NCoef="0" IVar="-1" Cut="0.0000000000000000e+00" cType="1" res="-3.1145482789725065e-03" rms="4.7331011295318604e-01" purity="4.0591669082641602e-01" nType="-99"/>
        </Node>
      </Node>
    </BinaryTree>
    <BinaryTree type="DecisionTree" boostWeight="1.0000000000000000e+00" itree="96">
      <Node pos="s" depth="0" NCoef="0" IVar="5" Cut="2.0000000000000000e+00" cType="1" res="1.6834378242492676e-01" rms="0.0000000000000000e+00" purity="5.0080198049545288e-01" nType="0">
        <Node pos="l" depth="1" NCoef="0" IVar="3" Cut="9.7807377576828003e-01" cType="1" res="9.6193104982376099e-03" rms="4.0947553515434265e-01" purity="7.7662360668182373e-01" nType="0">
          <Node pos="l" depth="2" NCoef="0" IVar="3" Cut="9.4720387458801270e-01" cType="1" res="1.1071214685216546e-03" rms="4.3102318048477173e-01" purity="7.3518067598342896e-01" nType="0">
            <Node pos="l" depth="3" NCoef="0" IVar="-1" Cut="0.0000000000000000e+00" cType="1" res="3.8702830352121964e-05" rms="4.4115424156188965e-01" purity="7.0608633756637573e-01" nType="-99"/>
            <Node pos="r" depth="3" NCoef="0" IVar="3" Cut="9.6712869405746460e-01" cType="1" res="1.5049900393933058e-03" rms="4.2529785633087158e-01" purity="7.5132220983505249e-01" nType="0">
              <Node pos="l" depth="4" NCoef="0" IVar="-1" Cut="0.0000000000000000e+00" cType="1" res="-9.6999685047194362e-04" rms="4.3454617261886597e-01" purity="7.3195010423660278e-01" nType="-99"/>
              <Node pos="r" depth="4" NCoef="0" IVar="-1" Cut="0.0000000000000000e+00" cType="1" res="1.2365655275061727e-03" rms="4.1601124405860901e-01" purity="7.6980012655258179e-01" nType="-99"/>
            </Node>
          </Node>
          <Node pos="r" depth="2" NCoef="0" IVar="3" Cut="1.0429024696350098e+00" cType="1" res="1.0801194235682487e-02" rms="4.0637931227684021e-01" purity="7.8237783908843994e-01" nType="0">
            <Node pos="l" depth="3" NCoef="0" IVar="3" Cut="1.0010789632797241e+00" cType="1" res="1.0611549951136112e-02" rms="4.0560594201087952e-01" purity="7.8514558076858521e-01" nType="0">
              <Node pos="l" depth="4" NCoef="0" IVar="1" Cut="8.2654766738414764e-02" cType="1" res="6.9005498662590981e-03" rms="4.1113364696502686e-01" purity="7.7620345354080200e-01" nType="0">
                <Node pos="l" depth="5" NCoef="0" IVar="3" Cut="9.9959158897399902e-01" cType="1" res="1.0369785130023956e-02" rms="3.9575994014739990e-01" purity="8.0226659774780273e-01" nType="0">
                  <Node pos="l" depth="6" NCoef="0" IVar="3" Cut="9.9750941991806030e-01" cType="1" res="8.8592693209648132e-03" rms="3.9799374341964722e-01" purity="7.9962444305419922e-01" nType="0">
                    <Node pos="l" depth="7" NCoef="0" IVar="-1" Cut="0.0000000000000000e+00" cType="1" res="1.4159905258566141e-03" rms="3.9606741070747375e-01" purity="8.0213624238967896e-01" nType="-99"/>
                    <Node pos="r" depth="7" NCoef="0" IVar="-1" Cut="0.0000000000000000e+00" cType="1" res="-4.8190049710683525e-05" rms="4.0344390273094177e-01" purity="7.9226255416870117e-01" nType="-99"/>
                  </Node>
                  <Node pos="r" depth="6" NCoef="0" IVar="-1" Cut="0.0000000000000000e+00" cType="1" res="2.0751981064677238e-03" rms="3.8390839099884033e-01" purity="8.1592732667922974e-01" nType="-99"/>
                </Node>
                <Node pos="r" depth="5" NCoef="0" IVar="3" Cut="9.9588555097579956e-01" cType="1" res="2.5576483458280563e-03" rms="4.2956474423408508e-01" purity="7.4357664585113525e-01" nType="0">
                  <Node pos="l" depth="6" NCoef="0" IVar="3" Cut="9.9186468124389648e-01" cType="1" res="6.0550109483301640e-03" rms="4.3055149912834167e-01" purity="7.4183547496795654e-01" nType="0">
                    <Node pos="l" depth="7" NCoef="0" IVar="-1" Cut="0.0000000000000000e+00" cType="1" res="-4.3054053094238043e-05" rms="4.3614313006401062e-01" purity="7.3156851530075073e-01" nType="-99"/>
                    <Node pos="r" depth="7" NCoef="0" IVar="-1" Cut="0.0000000000000000e+00" cType="1" res="1.3966583646833897e-03" rms="4.2416855692863464e-01" purity="7.5318711996078491e-01" nType="-99"/>
                  </Node>
                  <Node pos="r" depth="6" NCoef="0" IVar="4" Cut="2.3144724764279090e-05" cType="1" res="-5.1848233852069825e-05" rms="4.2880845069885254e-01" purity="7.4487584829330444e-01" nType="0">
                    <Node pos="l" depth="7" NCoef="0" IVar="-1" Cut="0.0000000000000000e+00" cType="1" res="9.6734636463224888e-04" rms="4.2352759838104248e-01" purity="7.5673693418502808e-01" nType="-99"/>
                    <Node pos="r" depth="7" NCoef="0" IVar="-1" Cut="0.0000000000000000e+00" cType="1" res="-1.8457809928804636e-03" rms="4.3795254826545715e-01" purity="7.2270923852920532e-01" nType="-99"/>
                  </Node>
                </Node>
              </Node>
              <Node pos="r" depth="4" NCoef="0" IVar="3" Cut="1.0226652622222900e+00" cType="1" res="1.6220390796661377e-02" rms="3.9703950285911560e-01" purity="7.9866087436676025e-01" nType="0">
                <Node pos="l" depth="5" NCoef="0" IVar="3" Cut="1.0157002210617065e+00" cType="1" res="1.4414965175092220e-02" rms="3.9790606498718262e-01" purity="7.9760760068893433e-01" nType="0">
                  <Node pos="l" depth="6" NCoef="0" IVar="3" Cut="1.0100400447845459e+00" cType="1" res="1.6860635951161385e-02" rms="3.9556956291198730e-01" purity="8.0031728744506836e-01" nType="0">
                    <Node pos="l" depth="7" NCoef="0" IVar="-1" Cut="0.0000000000000000e+00" cType="1" res="1.6479110345244408e-03" rms="3.9735278487205505e-01" purity="7.9791963100433350e-01" nType="-99"/>
                    <Node pos="r" depth="7" NCoef="0" IVar="-1" Cut="0.0000000000000000e+00" cType="1" res="2.8954001609236002e-03" rms="3.8737869262695312e-01" purity="8.1102669239044189e-01" nType="-99"/>
                  </Node>
                  <Node pos="r" depth="6" NCoef="0" IVar="-1" Cut="0.0000000000000000e+00" cType="1" res="7.3732185228436720e-06" rms="4.1105324029922485e-01" purity="7.8171116113662720e-01" nType="-99"/>
                </Node>
                <Node pos="r" depth="5" NCoef="0" IVar="-1" Cut="0.0000000000000000e+00" cType="1" res="2.5791106745600700e-03" rms="3.9325907826423645e-01" purity="8.0311828851699829e-01" nType="-99"/>
              </Node>
            </Node>
            <Node pos="r" depth="3" NCoef="0" IVar="-1" Cut="0.0000000000000000e+00" cType="1" res="1.3520887587219477e-03" rms="4.1841262578964233e-01" purity="7.3859101533889771e-01" nType="-99"/>
          </Node>
        </Node>
        <Node pos="r" depth="1" NCoef="0" IVar="3" Cut="5.7328301668167114e-01" cType="1" res="2.0765137378475629e-05" rms="4.1061174869537354e-01" purity="3.7854415178298950e-01" nType="0">
          <Node pos="l" depth="2" NCoef="0" IVar="4" Cut="1.1529558151960373e-01" cType="1" res="-2.5287575554102659e-03" rms="3.2744568586349487e-01" purity="1.4069625735282898e-01" nType="0">
            <Node pos="l" depth="3" NCoef="0" IVar="4" Cut="4.8551876097917557e-02" cType="1" res="-6.1154686845839024e-03" rms="2.9747167229652405e-01" purity="1.1300084739923477e-01" nType="0">
              <Node pos="l" depth="4" NCoef="0" IVar="3" Cut="3.5160022974014282e-01" cType="1" res="-1.3634378090500832e-02" rms="2.8111192584037781e-01" purity="9.5768503844738007e-02" nType="0">
                <Node pos="l" depth="5" NCoef="0" IVar="-1" Cut="0.0000000000000000e+00" cType="1" res="1.0739665012806654e-03" rms="2.1106694638729095e-01" purity="4.8545882105827332e-02" nType="-99"/>
                <Node pos="r" depth="5" NCoef="0" IVar="4" Cut="3.1452931463718414e-02" cType="1" res="-2.3828899487853050e-02" rms="3.1892395019531250e-01" purity="1.2720301747322083e-01" nType="0">
                  <Node pos="l" depth="6" NCoef="0" IVar="-1" Cut="0.0000000000000000e+00" cType="1" res="-6.6812192089855671e-03" rms="3.1311777234077454e-01" purity="1.2122169882059097e-01" nType="-99"/>
                  <Node pos="r" depth="6" NCoef="0" IVar="-1" Cut="0.0000000000000000e+00" cType="1" res="-3.6906308960169554e-03" rms="3.2347443699836731e-01" purity="1.3214121758937836e-01" nType="-99"/>
                </Node>
              </Node>
              <Node pos="r" depth="4" NCoef="0" IVar="2" Cut="9.0515838623046875e+01" cType="1" res="-3.3616079017519951e-03" rms="3.0319616198539734e-01" purity="1.1931233853101730e-01" nType="0">
                <Node pos="l" depth="5" NCoef="0" IVar="4" Cut="6.7896634340286255e-02" cType="1" res="1.4139494858682156e-02" rms="3.5601180791854858e-01" purity="1.8371988832950592e-01" nType="0">
                  <Node pos="l" depth="6" NCoef="0" IVar="-1" Cut="0.0000000000000000e+00" cType="1" res="7.5250340159982443e-04" rms="3.3666104078292847e-01" purity="1.5380299091339111e-01" nType="-99"/>
                  <Node pos="r" depth="6" NCoef="0" IVar="-1" Cut="0.0000000000000000e+00" cType="1" res="4.3946639634668827e-03" rms="3.7325766682624817e-01" purity="2.1226494014263153e-01" nType="-99"/>
                </Node>
                <Node pos="r" depth="5" NCoef="0" IVar="5" Cut="4.0000000000000000e+00" cType="1" res="-6.8554934114217758e-03" rms="2.9137563705444336e-01" purity="1.0644689947366714e-01" nType="0">
                  <Node pos="l" depth="6" NCoef="0" IVar="2" Cut="2.1739956665039062e+02" cType="1" res="-1.8383266404271126e-02" rms="3.1108269095420837e-01" purity="1.1825316399335861e-01" nType="0">
                    <Node pos="l" depth="7" NCoef="0" IVar="-1" Cut="0.0000000000000000e+00" cType="1" res="-7.1233133785426617e-03" rms="3.1082782149314880e-01" purity="1.1796102672815323e-01" nType="-99"/>
                    <Node pos="r" depth="7" NCoef="0" IVar="-1" Cut="0.0000000000000000e+00" cType="1" res="-1.6835095593705773e-03" rms="3.1083866953849792e-01" purity="1.1850433796644211e-01" nType="-99"/>
                  </Node>
                  <Node pos="r" depth="6" NCoef="0" IVar="2" Cut="2.5869909667968750e+02" cType="1" res="-3.4823534078896046e-03" rms="2.8525945544242859e-01" purity="1.0298965871334076e-01" nType="0">
                    <Node pos="l" depth="7" NCoef="0" IVar="-1" Cut="0.0000000000000000e+00" cType="1" res="6.9228583015501499e-04" rms="2.9987946152687073e-01" purity="1.1676286160945892e-01" nType="-99"/>
                    <Node pos="r" depth="7" NCoef="0" IVar="-1" Cut="0.0000000000000000e+00" cType="1" res="-3.9020990952849388e-03" rms="2.6192691922187805e-01" purity="8.2637816667556763e-02" nType="-99"/>
                  </Node>
                </Node>
              </Node>
            </Node>
            <Node pos="r" depth="3" NCoef="0" IVar="5" Cut="1.0000000000000000e+01" cType="1" res="1.2903600931167603e-01" rms="0.0000000000000000e+00" purity="1.7299991846084595e-01" nType="0">
              <Node pos="l" depth="4" NCoef="0" IVar="3" Cut="1.6674695909023285e-01" cType="1" res="2.8402185998857021e-03" rms="3.6428746581077576e-01" purity="1.7900316417217255e-01" nType="0">
                <Node pos="l" depth="5" NCoef="0" IVar="-1" Cut="0.0000000000000000e+00" cType="1" res="4.9904668703675270e-03" rms="3.7823724746704102e-01" purity="2.0133773982524872e-01" nType="-99"/>
                <Node pos="r" depth="5" NCoef="0" IVar="0" Cut="1.2462846040725708e+00" cType="1" res="8.4638166299555451e-05" rms="3.6250653862953186e-01" purity="1.7636728286743164e-01" nType="0">
                  <Node pos="l" depth="6" NCoef="0" IVar="5" Cut="6.0000000000000000e+00" cType="1" res="1.5928713837638497e-03" rms="2.8548648953437805e-01" purity="2.2406390309333801e-01" nType="0">
                    <Node pos="l" depth="7" NCoef="0" IVar="-1" Cut="0.0000000000000000e+00" cType="1" res="-3.7339046684792265e-05" rms="4.1570675373077393e-01" purity="2.4407647550106049e-01" nType="-99"/>
                    <Node pos="r" depth="7" NCoef="0" IVar="-1" Cut="0.0000000000000000e+00" cType="1" res="2.9225868638604879e-03" rms="3.6602973937988281e-01" purity="1.7454473674297333e-01" nType="-99"/>
                  </Node>
                  <Node pos="r" depth="6" NCoef="0" IVar="2" Cut="3.9971713256835938e+02" cType="1" res="-8.2916738465428352e-03" rms="2.5818088650703430e-01" purity="7.4493706226348877e-02" nType="0">
                    <Node pos="l" depth="7" NCoef="0" IVar="-1" Cut="0.0000000000000000e+00" cType="1" res="-1.1834469623863697e-03" rms="2.6983100175857544e-01" purity="8.3451040089130402e-02" nType="-99"/>
                    <Node pos="r" depth="7" NCoef="0" IVar="-1" Cut="0.0000000000000000e+00" cType="1" res="-5.7012941688299179e-03" rms="2.4440048635005951e-01" purity="6.4500480890274048e-02" nType="-99"/>
                  </Node>
                </Node>
              </Node>
              <Node pos="r" depth="4" NCoef="0" IVar="-1" Cut="0.0000000000000000e+00" cType="1" res="-4.1027218103408813e-03" rms="2.8466573357582092e-01" purity="9.4883076846599579e-02" nType="-99"/>
            </Node>
          </Node>
          <Node pos="r" depth="2" NCoef="0" IVar="4" Cut="1.2932893633842468e-01" cType="1" res="2.1645312663167715e-03" rms="4.6925944089889526e-01" purity="5.7853853702545166e-01" nType="0">
            <Node pos="l" depth="3" NCoef="0" IVar="4" Cut="2.5228900834918022e-02" cType="1" res="4.0157428011298180e-03" rms="4.6901249885559082e-01" purity="5.8486121892929077e-01" nType="0">
              <Node pos="l" depth="4" NCoef="0" IVar="2" Cut="4.2934993743896484e+01" cType="1" res="-1.0484824888408184e-02" rms="4.6243306994438171e-01" purity="6.1400789022445679e-01" nType="0">
                <Node pos="l" depth="5" NCoef="0" IVar="4" Cut="1.0722166858613491e-02" cType="1" res="-5.8067496865987778e-04" rms="4.6405985951423645e-01" purity="6.3038581609725952e-01" nType="0">
                  <Node pos="l" depth="6" NCoef="0" IVar="-1" Cut="0.0000000000000000e+00" cType="1" res="-2.0602068398147821e-03" rms="4.6793058514595032e-01" purity="6.0675787925720215e-01" nType="-99"/>
                  <Node pos="r" depth="6" NCoef="0" IVar="4" Cut="1.7271598801016808e-02" cType="1" res="8.4029445424675941e-03" rms="4.6203890442848206e-01" purity="6.4093124866485596e-01" nType="0">
                    <Node pos="l" depth="7" NCoef="0" IVar="-1" Cut="0.0000000000000000e+00" cType="1" res="1.6893328865990043e-03" rms="4.6566107869148254e-01" purity="6.4421856403350830e-01" nType="-99"/>
                    <Node pos="r" depth="7" NCoef="0" IVar="-1" Cut="0.0000000000000000e+00" cType="1" res="5.7219738664571196e-05" rms="4.5881089568138123e-01" purity="6.3815379142761230e-01" nType="-99"/>
                  </Node>
                </Node>
                <Node pos="r" depth="5" NCoef="0" IVar="3" Cut="8.4585785865783691e-01" cType="1" res="-2.3796459659934044e-02" rms="4.5990163087844849e-01" purity="5.9199517965316772e-01" nType="0">
                  <Node pos="l" depth="6" NCoef="0" IVar="-1" Cut="0.0000000000000000e+00" cType="1" res="-4.3846010230481625e-03" rms="4.6922728419303894e-01" purity="4.6200013160705566e-01" nType="-99"/>
                  <Node pos="r" depth="6" NCoef="0" IVar="-1" Cut="0.0000000000000000e+00" cType="1" res="-6.7923957249149680e-04" rms="4.5108297467231750e-01" purity="7.0246911048889160e-01" nType="-99"/>
                </Node>
              </Node>
              <Node pos="r" depth="4" NCoef="0" IVar="2" Cut="8.5095268249511719e+01" cType="1" res="6.9827958941459656e-03" rms="4.7029229998588562e-01" purity="5.7889735698699951e-01" nType="0">
                <Node pos="l" depth="5" NCoef="0" IVar="0" Cut="4.7289642691612244e-01" cType="1" res="1.7309773713350296e-02" rms="4.6199738979339600e-01" purity="6.3949877023696899e-01" nType="0">
                  <Node pos="l" depth="6" NCoef="0" IVar="1" Cut="1.9875006377696991e-01" cType="1" res="1.3024249114096165e-02" rms="4.5935654640197754e-01" purity="6.6171103715896606e-01" nType="0">
                    <Node pos="l" depth="7" NCoef="0" IVar="-1" Cut="0.0000000000000000e+00" cType="1" res="1.7061932012438774e-03" rms="4.5108318328857422e-01" purity="6.9576615095138550e-01" nType="-99"/>
                    <Node pos="r" depth="7" NCoef="0" IVar="-1" Cut="0.0000000000000000e+00" cType="1" res="-2.4300231598317623e-04" rms="4.8079228401184082e-01" purity="5.6903547048568726e-01" nType="-99"/>
                  </Node>
                  <Node pos="r" depth="6" NCoef="0" IVar="-1" Cut="0.0000000000000000e+00" cType="1" res="4.7822524793446064e-03" rms="4.8163533210754395e-01" purity="4.5772889256477356e-01" nType="-99"/>
                </Node>
                <Node pos="r" depth="5" NCoef="0" IVar="4" Cut="3.8666591048240662e-02" cType="1" res="1.9776606932282448e-03" rms="4.7417944669723511e-01" purity="5.4952591657638550e-01" nType="0">
                  <Node pos="l" depth="6" NCoef="0" IVar="3" Cut="8.6783182621002197e-01" cType="1" res="-1.2985633686184883e-02" rms="4.6436801552772522e-01" purity="6.0269033908843994e-01" nType="0">
                    <Node pos="l" depth="7" NCoef="0" IVar="-1" Cut="0.0000000000000000e+00" cType="1" res="-2.2640654351562262e-03" rms="4.7955027222633362e-01" purity="5.1649481058120728e-01" nType="-99"/>
                    <Node pos="r" depth="7" NCoef="0" IVar="-1" Cut="0.0000000000000000e+00" cType="1" res="1.4807030675001442e-04" rms="4.4207361340522766e-01" purity="7.2212255001068115e-01" nType="-99"/>
                  </Node>
                  <Node pos="r" depth="6" NCoef="0" IVar="3" Cut="8.0425870418548584e-01" cType="1" res="4.8259301111102104e-03" rms="4.7597086429595947e-01" purity="5.3940606117248535e-01" nType="0">
                    <Node pos="l" depth="7" NCoef="0" IVar="-1" Cut="0.0000000000000000e+00" cType="1" res="7.9008961620274931e-05" rms="4.8264291882514954e-01" purity="4.8708775639533997e-01" nType="-99"/>
                    <Node pos="r" depth="7" NCoef="0" IVar="-1" Cut="0.0000000000000000e+00" cType="1" res="1.4916622312739491e-03" rms="4.5685297250747681e-01" purity="6.8393599987030029e-01" nType="-99"/>
                  </Node>
                </Node>
              </Node>
            </Node>
            <Node pos="r" depth="3" NCoef="0" IVar="-1" Cut="0.0000000000000000e+00" cType="1" res="-4.8332102596759796e-03" rms="4.7321650385856628e-01" purity="3.9698952436447144e-01" nType="-99"/>
          </Node>
        </Node>
      </Node>
    </BinaryTree>
    <BinaryTree type="DecisionTree" boostWeight="1.0000000000000000e+00" itree="97">
      <Node pos="s" depth="0" NCoef="0" IVar="1" Cut="1.4958879351615906e-01" cType="1" res="2.7302259113639593e-03" rms="4.1075795888900757e-01" purity="4.9976110458374023e-01" nType="0">
        <Node pos="l" depth="1" NCoef="0" IVar="2" Cut="3.6746166992187500e+02" cType="1" res="6.2684793956577778e-03" rms="4.2248064279556274e-01" purity="5.8175867795944214e-01" nType="0">
          <Node pos="l" depth="2" NCoef="0" IVar="2" Cut="3.0818481445312500e+02" cType="1" res="8.0695962533354759e-03" rms="4.2595484852790833e-01" purity="6.2474876642227173e-01" nType="0">
            <Node pos="l" depth="3" NCoef="0" IVar="4" Cut="8.6448244750499725e-02" cType="1" res="8.5531687363982201e-03" rms="4.2648613452911377e-01" purity="6.3646888732910156e-01" nType="0">
              <Node pos="l" depth="4" NCoef="0" IVar="2" Cut="2.3857974243164062e+02" cType="1" res="7.4402275495231152e-03" rms="4.2466214299201965e-01" purity="6.7573708295822144e-01" nType="0">
                <Node pos="l" depth="5" NCoef="0" IVar="5" Cut="4.0000000000000000e+00" cType="1" res="8.0764601007103920e-03" rms="4.2444923520088196e-01" purity="6.8464076519012451e-01" nType="0">
                  <Node pos="l" depth="6" NCoef="0" IVar="3" Cut="6.0215055942535400e-01" cType="1" res="6.8262140266597271e-03" rms="4.2579376697540283e-01" purity="7.2347068786621094e-01" nType="0">
                    <Node pos="l" depth="7" NCoef="0" IVar="-1" Cut="0.0000000000000000e+00" cType="1" res="-3.3678391482681036e-03" rms="3.9337483048439026e-01" purity="2.1324543654918671e-01" nType="-99"/>
                    <Node pos="r" depth="7" NCoef="0" IVar="-1" Cut="0.0000000000000000e+00" cType="1" res="8.0902298213914037e-04" rms="4.2663735151290894e-01" purity="7.3779016733169556e-01" nType="-99"/>
                  </Node>
                  <Node pos="r" depth="6" NCoef="0" IVar="2" Cut="6.3138313293457031e+01" cType="1" res="1.9914047792553902e-02" rms="4.1130915284156799e-01" purity="3.1687876582145691e-01" nType="0">
                    <Node pos="l" depth="7" NCoef="0" IVar="-1" Cut="0.0000000000000000e+00" cType="1" res="5.1813879981637001e-03" rms="4.3735933303833008e-01" purity="4.0736386179924011e-01" nType="-99"/>
                    <Node pos="r" depth="7" NCoef="0" IVar="-1" Cut="0.0000000000000000e+00" cType="1" res="1.4770223060622811e-03" rms="4.0018430352210999e-01" purity="2.8140518069267273e-01" nType="-99"/>
                  </Node>
                </Node>
                <Node pos="r" depth="5" NCoef="0" IVar="-1" Cut="0.0000000000000000e+00" cType="1" res="-1.2360459659248590e-03" rms="4.3021565675735474e-01" purity="4.2562237381935120e-01" nType="-99"/>
              </Node>
              <Node pos="r" depth="4" NCoef="0" IVar="2" Cut="1.3881584167480469e+02" cType="1" res="1.6217565163969994e-02" rms="4.3876463174819946e-01" purity="3.6604398488998413e-01" nType="0">
                <Node pos="l" depth="5" NCoef="0" IVar="-1" Cut="0.0000000000000000e+00" cType="1" res="2.3742043413221836e-03" rms="4.5963370800018311e-01" purity="4.5029801130294800e-01" nType="-99"/>
                <Node pos="r" depth="5" NCoef="0" IVar="2" Cut="1.7707202148437500e+02" cType="1" res="1.2577096931636333e-02" rms="4.2927753925323486e-01" purity="3.2923209667205811e-01" nType="0">
                  <Node pos="l" depth="6" NCoef="0" IVar="-1" Cut="0.0000000000000000e+00" cType="1" res="-5.2856391994282603e-04" rms="4.2741098999977112e-01" purity="3.5423442721366882e-01" nType="-99"/>
                  <Node pos="r" depth="6" NCoef="0" IVar="5" Cut="4.0000000000000000e+00" cType="1" res="1.8537100404500961e-02" rms="4.2974737286567688e-01" purity="3.2057178020477295e-01" nType="0">
                    <Node pos="l" depth="7" NCoef="0" IVar="-1" Cut="0.0000000000000000e+00" cType="1" res="2.4723876267671585e-03" rms="4.7325998544692993e-01" purity="4.3786665797233582e-01" nType="-99"/>
                    <Node pos="r" depth="7" NCoef="0" IVar="-1" Cut="0.0000000000000000e+00" cType="1" res="2.2501889616250992e-03" rms="3.9599695801734924e-01" purity="2.3746377229690552e-01" nType="-99"/>
                  </Node>
                </Node>
              </Node>
            </Node>
            <Node pos="r" depth="3" NCoef="0" IVar="-1" Cut="0.0000000000000000e+00" cType="1" res="-6.7244161618873477e-04" rms="4.1122221946716309e-01" purity="3.1007584929466248e-01" nType="-99"/>
          </Node>
          <Node pos="r" depth="2" NCoef="0" IVar="3" Cut="4.5906320214271545e-01" cType="1" res="-8.4762554615736008e-03" rms="3.9257493615150452e-01" purity="2.2982333600521088e-01" nType="0">
            <Node pos="l" depth="3" NCoef="0" IVar="5" Cut="5.0000000000000000e+00" cType="1" res="2.6361164054833353e-04" rms="3.4335303306579590e-01" purity="1.4990073442459106e-01" nType="0">
              <Node pos="l" depth="4" NCoef="0" IVar="-1" Cut="0.0000000000000000e+00" cType="1" res="1.8857547547668219e-03" rms="3.8165083527565002e-01" purity="2.0241437852382660e-01" nType="-99"/>
              <Node pos="r" depth="4" NCoef="0" IVar="5" Cut="7.0000000000000000e+00" cType="1" res="-4.3996009044349194e-03" rms="3.2508134841918945e-01" purity="1.2692332267761230e-01" nType="0">
                <Node pos="l" depth="5" NCoef="0" IVar="-1" Cut="0.0000000000000000e+00" cType="1" res="-2.7840682305395603e-03" rms="3.1854972243309021e-01" purity="1.2161321938037872e-01" nType="-99"/>
                <Node pos="r" depth="5" NCoef="0" IVar="-1" Cut="0.0000000000000000e+00" cType="1" res="6.9516914663836360e-04" rms="3.3140757679939270e-01" purity="1.3230107724666595e-01" nType="-99"/>
              </Node>
            </Node>
            <Node pos="r" depth="3" NCoef="0" IVar="-1" Cut="0.0000000000000000e+00" cType="1" res="-2.4142330512404442e-03" rms="4.6159574389457703e-01" purity="3.6064192652702332e-01" nType="-99"/>
          </Node>
        </Node>
        <Node pos="r" depth="1" NCoef="0" IVar="5" Cut="2.0000000000000000e+00" cType="1" res="1.5603728592395782e-01" rms="0.0000000000000000e+00" purity="3.9373841881752014e-01" nType="0">
          <Node pos="l" depth="2" NCoef="0" IVar="1" Cut="1.1509151458740234e+00" cType="1" res="6.2716268002986908e-03" rms="4.2965769767761230e-01" purity="7.3657113313674927e-01" nType="0">
            <Node pos="l" depth="3" NCoef="0" IVar="1" Cut="7.3090589046478271e-01" cType="1" res="8.7528536096215248e-03" rms="4.2368489503860474e-01" purity="7.5270247459411621e-01" nType="0">
              <Node pos="l" depth="4" NCoef="0" IVar="1" Cut="2.6214659214019775e-01" cType="1" res="1.1594094336032867e-02" rms="4.1786378622055054e-01" purity="7.6547056436538696e-01" nType="0">
                <Node pos="l" depth="5" NCoef="0" IVar="1" Cut="2.0408752560615540e-01" cType="1" res="1.8280996009707451e-02" rms="4.0321791172027588e-01" purity="7.8914570808410645e-01" nType="0">
                  <Node pos="l" depth="6" NCoef="0" IVar="-1" Cut="0.0000000000000000e+00" cType="1" res="7.7923259232193232e-04" rms="4.0911781787872314e-01" purity="7.7942574024200439e-01" nType="-99"/>
                  <Node pos="r" depth="6" NCoef="0" IVar="-1" Cut="0.0000000000000000e+00" cType="1" res="3.2863137312233448e-03" rms="3.9642089605331421e-01" purity="7.9959219694137573e-01" nType="-99"/>
                </Node>
                <Node pos="r" depth="5" NCoef="0" IVar="1" Cut="5.4942178726196289e-01" cType="1" res="7.9435808584094048e-03" rms="4.2560231685638428e-01" purity="7.5254583358764648e-01" nType="0">
                  <Node pos="l" depth="6" NCoef="0" IVar="1" Cut="4.3820554018020630e-01" cType="1" res="5.8608911931514740e-03" rms="4.2247581481933594e-01" purity="7.5880092382431030e-01" nType="0">
                    <Node pos="l" depth="7" NCoef="0" IVar="-1" Cut="0.0000000000000000e+00" cType="1" res="9.0307847131043673e-04" rms="4.1827860474586487e-01" purity="7.6633292436599731e-01" nType="-99"/>
                    <Node pos="r" depth="7" NCoef="0" IVar="-1" Cut="0.0000000000000000e+00" cType="1" res="-9.0253248345106840e-05" rms="4.3280515074729919e-01" purity="7.3980706930160522e-01" nType="-99"/>
                  </Node>
                  <Node pos="r" depth="6" NCoef="0" IVar="-1" Cut="0.0000000000000000e+00" cType="1" res="1.3876685407012701e-03" rms="4.3578222393989563e-01" purity="7.3171234130859375e-01" nType="-99"/>
                </Node>
              </Node>
              <Node pos="r" depth="4" NCoef="0" IVar="-1" Cut="0.0000000000000000e+00" cType="1" res="-9.3806762015447021e-04" rms="4.6101108193397522e-01" purity="6.6550785303115845e-01" nType="-99"/>
            </Node>
            <Node pos="r" depth="3" NCoef="0" IVar="-1" Cut="0.0000000000000000e+00" cType="1" res="-1.0794573463499546e-03" rms="4.7223904728889465e-01" purity="6.1374628543853760e-01" nType="-99"/>
          </Node>
          <Node pos="r" depth="2" NCoef="0" IVar="5" Cut="3.0000000000000000e+00" cType="1" res="1.4663074910640717e-01" rms="0.0000000000000000e+00" purity="2.8101149201393127e-01" nType="0">
            <Node pos="l" depth="3" NCoef="0" IVar="3" Cut="8.6529099941253662e-01" cType="1" res="-1.2894137762486935e-02" rms="4.5298433303833008e-01" purity="4.8971349000930786e-01" nType="0">
              <Node pos="l" depth="4" NCoef="0" IVar="3" Cut="6.9996786117553711e-01" cType="1" res="-1.8097970634698868e-02" rms="4.5169681310653687e-01" purity="4.3108519911766052e-01" nType="0">
                <Node pos="l" depth="5" NCoef="0" IVar="3" Cut="5.4442435503005981e-01" cType="1" res="-2.9315132647752762e-02" rms="3.7812864780426025e-01" purity="1.9527959823608398e-01" nType="0">
                  <Node pos="l" depth="6" NCoef="0" IVar="-1" Cut="0.0000000000000000e+00" cType="1" res="-5.0830016843974590e-03" rms="3.1373786926269531e-01" purity="1.1633142083883286e-01" nType="-99"/>
                  <Node pos="r" depth="6" NCoef="0" IVar="-1" Cut="0.0000000000000000e+00" cType="1" res="-4.3745683506131172e-03" rms="4.2584455013275146e-01" purity="2.6347121596336365e-01" nType="-99"/>
                </Node>
                <Node pos="r" depth="5" NCoef="0" IVar="4" Cut="4.7958195209503174e-02" cType="1" res="-1.2357822619378567e-02" rms="4.8494648933410645e-01" purity="5.5175375938415527e-01" nType="0">
                  <Node pos="l" depth="6" NCoef="0" IVar="4" Cut="2.9423926025629044e-02" cType="1" res="-2.9364291578531265e-02" rms="4.8276379704475403e-01" purity="5.4090362787246704e-01" nType="0">
                    <Node pos="l" depth="7" NCoef="0" IVar="-1" Cut="0.0000000000000000e+00" cType="1" res="-3.9749019779264927e-03" rms="4.8100513219833374e-01" purity="5.1515352725982666e-01" nType="-99"/>
                    <Node pos="r" depth="7" NCoef="0" IVar="-1" Cut="0.0000000000000000e+00" cType="1" res="-1.4526459854096174e-03" rms="4.8372232913970947e-01" purity="5.6026542186737061e-01" nType="-99"/>
                  </Node>
                  <Node pos="r" depth="6" NCoef="0" IVar="3" Cut="8.0128377676010132e-01" cType="1" res="4.2930282652378082e-03" rms="4.8649841547012329e-01" purity="5.6237703561782837e-01" nType="0">
                    <Node pos="l" depth="7" NCoef="0" IVar="-1" Cut="0.0000000000000000e+00" cType="1" res="8.0491678090766072e-04" rms="4.9008926749229431e-01" purity="5.2440547943115234e-01" nType="-99"/>
                    <Node pos="r" depth="7" NCoef="0" IVar="-1" Cut="0.0000000000000000e+00" cType="1" res="-2.2001044999342412e-04" rms="4.8179087042808533e-01" purity="6.1081320047378540e-01" nType="-99"/>
                  </Node>
                </Node>
              </Node>
              <Node pos="r" depth="4" NCoef="0" IVar="-1" Cut="0.0000000000000000e+00" cType="1" res="2.6051324675790966e-04" rms="4.5644152164459229e-01" purity="6.6407686471939087e-01" nType="-99"/>
            </Node>
            <Node pos="r" depth="3" NCoef="0" IVar="3" Cut="7.3527503013610840e-01" cType="1" res="-8.7557587539777160e-04" rms="3.4810489416122437e-01" purity="1.9041782617568970e-01" nType="0">
              <Node pos="l" depth="4" NCoef="0" IVar="3" Cut="4.9829068779945374e-01" cType="1" res="4.8835319466888905e-04" rms="3.3727842569351196e-01" purity="1.6643700003623962e-01" nType="0">
                <Node pos="l" depth="5" NCoef="0" IVar="2" Cut="3.4771395874023438e+02" cType="1" res="-3.6820818204432726e-03" rms="2.6543226838111877e-01" purity="8.1295289099216461e-02" nType="0">
                  <Node pos="l" depth="6" NCoef="0" IVar="3" Cut="4.3407532572746277e-01" cType="1" res="-5.9673311188817024e-03" rms="2.4777917563915253e-01" purity="6.9534853100776672e-02" nType="0">
                    <Node pos="l" depth="7" NCoef="0" IVar="-1" Cut="0.0000000000000000e+00" cType="1" res="-3.9743124507367611e-03" rms="2.2331003844738007e-01" purity="5.4656557738780975e-02" nType="-99"/>
                    <Node pos="r" depth="7" NCoef="0" IVar="-1" Cut="0.0000000000000000e+00" cType="1" res="8.1917562056332827e-04" rms="3.4771603345870972e-01" purity="1.4649344980716705e-01" nType="-99"/>
                  </Node>
                  <Node pos="r" depth="6" NCoef="0" IVar="2" Cut="5.1024749755859375e+02" cType="1" res="9.5757830422371626e-04" rms="2.9801991581916809e-01" purity="1.0517206043004990e-01" nType="0">
                    <Node pos="l" depth="7" NCoef="0" IVar="-1" Cut="0.0000000000000000e+00" cType="1" res="2.8111340943723917e-03" rms="2.8246983885765076e-01" purity="9.2607989907264709e-02" nType="-99"/>
                    <Node pos="r" depth="7" NCoef="0" IVar="-1" Cut="0.0000000000000000e+00" cType="1" res="-1.1607386404648423e-03" rms="3.0971625447273254e-01" purity="1.1515747755765915e-01" nType="-99"/>
                  </Node>
                </Node>
                <Node pos="r" depth="5" NCoef="0" IVar="2" Cut="1.3310505676269531e+02" cType="1" res="9.7468290477991104e-03" rms="4.5800107717514038e-01" purity="3.5545384883880615e-01" nType="0">
                  <Node pos="l" depth="6" NCoef="0" IVar="4" Cut="4.7682892531156540e-02" cType="1" res="2.2867934778332710e-02" rms="4.6782916784286499e-01" purity="3.8960012793540955e-01" nType="0">
                    <Node pos="l" depth="7" NCoef="0" IVar="-1" Cut="0.0000000000000000e+00" cType="1" res="4.2533542728051543e-04" rms="4.5519319176673889e-01" purity="3.4667003154754639e-01" nType="-99"/>
                    <Node pos="r" depth="7" NCoef="0" IVar="-1" Cut="0.0000000000000000e+00" cType="1" res="3.7630037404596806e-03" rms="4.7823926806449890e-01" purity="4.2810755968093872e-01" nType="-99"/>
                  </Node>
                  <Node pos="r" depth="6" NCoef="0" IVar="4" Cut="8.2332141697406769e-02" cType="1" res="2.8680704417638481e-04" rms="4.5054531097412109e-01" purity="3.3083513379096985e-01" nType="0">
                    <Node pos="l" depth="7" NCoef="0" IVar="-1" Cut="0.0000000000000000e+00" cType="1" res="-2.0547006279230118e-03" rms="4.3354558944702148e-01" purity="2.9253137111663818e-01" nType="-99"/>
                    <Node pos="r" depth="7" NCoef="0" IVar="-1" Cut="0.0000000000000000e+00" cType="1" res="1.3753913808614016e-03" rms="4.6197181940078735e-01" purity="3.5835978388786316e-01" nType="-99"/>
                  </Node>
                </Node>
              </Node>
              <Node pos="r" depth="4" NCoef="0" IVar="-1" Cut="0.0000000000000000e+00" cType="1" res="-2.0143776200711727e-03" rms="4.8232844471931458e-01" purity="5.5210369825363159e-01" nType="-99"/>
            </Node>
          </Node>
        </Node>
      </Node>
    </BinaryTree>
    <BinaryTree type="DecisionTree" boostWeight="1.0000000000000000e+00" itree="98">
      <Node pos="s" depth="0" NCoef="0" IVar="3" Cut="6.7647039890289307e-01" cType="1" res="2.8683885466307402e-03" rms="4.0944597125053406e-01" purity="5.0022679567337036e-01" nType="0">
        <Node pos="l" depth="1" NCoef="0" IVar="3" Cut="6.5466958284378052e-01" cType="1" res="-1.8800530815497041e-03" rms="3.6360898613929749e-01" purity="1.9756826758384705e-01" nType="0">
          <Node pos="l" depth="2" NCoef="0" IVar="4" Cut="1.5685297548770905e-01" cType="1" res="-2.5992894079536200e-03" rms="3.5625156760215759e-01" purity="1.8398840725421906e-01" nType="0">
            <Node pos="l" depth="3" NCoef="0" IVar="4" Cut="9.1221928596496582e-02" cType="1" res="-4.3221609666943550e-03" rms="3.5157895088195801e-01" purity="1.8267737329006195e-01" nType="0">
              <Node pos="l" depth="4" NCoef="0" IVar="2" Cut="5.1841625213623047e+01" cType="1" res="-9.5894234254956245e-03" rms="3.4001362323760986e-01" purity="1.6650706529617310e-01" nType="0">
                <Node pos="l" depth="5" NCoef="0" IVar="4" Cut="2.6642549782991409e-02" cType="1" res="5.1858383230865002e-03" rms="3.7966978549957275e-01" purity="2.2113429009914398e-01" nType="0">
                  <Node pos="l" depth="6" NCoef="0" IVar="-1" Cut="0.0000000000000000e+00" cType="1" res="-1.7816037870943546e-03" rms="3.5328572988510132e-01" purity="1.7854845523834229e-01" nType="-99"/>
                  <Node pos="r" depth="6" NCoef="0" IVar="-1" Cut="0.0000000000000000e+00" cType="1" res="2.6115979999303818e-03" rms="4.0021035075187683e-01" purity="2.5715243816375732e-01" nType="-99"/>
                </Node>
                <Node pos="r" depth="5" NCoef="0" IVar="4" Cut="5.1746137440204620e-02" cType="1" res="-1.2524646706879139e-02" rms="3.3149299025535583e-01" purity="1.5565493702888489e-01" nType="0">
                  <Node pos="l" depth="6" NCoef="0" IVar="5" Cut="4.0000000000000000e+00" cType="1" res="-2.0006779581308365e-02" rms="3.1028005480766296e-01" purity="1.2877231836318970e-01" nType="0">
                    <Node pos="l" depth="7" NCoef="0" IVar="-1" Cut="0.0000000000000000e+00" cType="1" res="-6.6036996431648731e-03" rms="3.4562420845031738e-01" purity="1.4876091480255127e-01" nType="-99"/>
                    <Node pos="r" depth="7" NCoef="0" IVar="-1" Cut="0.0000000000000000e+00" cType="1" res="-3.1863229814916849e-03" rms="2.9254561662673950e-01" purity="1.1970655620098114e-01" nType="-99"/>
                  </Node>
                  <Node pos="r" depth="6" NCoef="0" IVar="4" Cut="7.3395028710365295e-02" cType="1" res="-9.0027712285518646e-03" rms="3.4095790982246399e-01" purity="1.6829955577850342e-01" nType="0">
                    <Node pos="l" depth="7" NCoef="0" IVar="-1" Cut="0.0000000000000000e+00" cType="1" res="-6.8478746106848121e-04" rms="3.4038913249969482e-01" purity="1.6711634397506714e-01" nType="-99"/>
                    <Node pos="r" depth="7" NCoef="0" IVar="-1" Cut="0.0000000000000000e+00" cType="1" res="-2.9636577237397432e-03" rms="3.4147772192955017e-01" purity="1.6960605978965759e-01" nType="-99"/>
                  </Node>
                </Node>
              </Node>
              <Node pos="r" depth="4" NCoef="0" IVar="2" Cut="1.5798963928222656e+02" cType="1" res="2.3419961798936129e-03" rms="3.6557894945144653e-01" purity="2.0313608646392822e-01" nType="0">
                <Node pos="l" depth="5" NCoef="0" IVar="3" Cut="4.9019268155097961e-01" cType="1" res="1.7263138666749001e-02" rms="3.9940446615219116e-01" purity="2.7673679590225220e-01" nType="0">
                  <Node pos="l" depth="6" NCoef="0" IVar="-1" Cut="0.0000000000000000e+00" cType="1" res="1.4100577682256699e-03" rms="3.2598695158958435e-01" purity="1.3258826732635498e-01" nType="-99"/>
                  <Node pos="r" depth="6" NCoef="0" IVar="-1" Cut="0.0000000000000000e+00" cType="1" res="2.8424460906535387e-03" rms="4.8120027780532837e-01" purity="4.7293275594711304e-01" nType="-99"/>
                </Node>
                <Node pos="r" depth="5" NCoef="0" IVar="3" Cut="5.5016815662384033e-01" cType="1" res="-2.2089208941906691e-03" rms="3.5449573397636414e-01" purity="1.8068803846836090e-01" nType="0">
                  <Node pos="l" depth="6" NCoef="0" IVar="4" Cut="1.0392766445875168e-01" cType="1" res="-5.7991892099380493e-03" rms="3.0592197179794312e-01" purity="1.1633329093456268e-01" nType="0">
                    <Node pos="l" depth="7" NCoef="0" IVar="-1" Cut="0.0000000000000000e+00" cType="1" res="-7.2689098306000233e-03" rms="2.5426965951919556e-01" purity="7.5071655213832855e-02" nType="-99"/>
                    <Node pos="r" depth="7" NCoef="0" IVar="-1" Cut="0.0000000000000000e+00" cType="1" res="-4.0469755185768008e-04" rms="3.1752172112464905e-01" purity="1.2676948308944702e-01" nType="-99"/>
                  </Node>
                  <Node pos="r" depth="6" NCoef="0" IVar="3" Cut="6.0410141944885254e-01" cType="1" res="9.6424808725714684e-03" rms="4.8101586103439331e-01" purity="3.9312177896499634e-01" nType="0">
                    <Node pos="l" depth="7" NCoef="0" IVar="-1" Cut="0.0000000000000000e+00" cType="1" res="3.1547140679322183e-04" rms="4.7371238470077515e-01" purity="3.5239896178245544e-01" nType="-99"/>
                    <Node pos="r" depth="7" NCoef="0" IVar="-1" Cut="0.0000000000000000e+00" cType="1" res="1.6127721173688769e-03" rms="4.8922526836395264e-01" purity="4.4028854370117188e-01" nType="-99"/>
                  </Node>
                </Node>
              </Node>
            </Node>
            <Node pos="r" depth="3" NCoef="0" IVar="3" Cut="4.6411895751953125e-01" cType="1" res="3.4565173555165529e-03" rms="3.7214714288711548e-01" purity="1.8859660625457764e-01" nType="0">
              <Node pos="l" depth="4" NCoef="0" IVar="3" Cut="3.8956674933433533e-01" cType="1" res="1.0116012999787927e-03" rms="3.5502308607101440e-01" purity="1.6240754723548889e-01" nType="0">
                <Node pos="l" depth="5" NCoef="0" IVar="5" Cut="7.0000000000000000e+00" cType="1" res="1.1943462491035461e-01" rms="0.0000000000000000e+00" purity="1.5352737903594971e-01" nType="0">
                  <Node pos="l" depth="6" NCoef="0" IVar="3" Cut="2.1442168951034546e-01" cType="1" res="1.1442483402788639e-02" rms="3.6797106266021729e-01" purity="1.8089263141155243e-01" nType="0">
                    <Node pos="l" depth="7" NCoef="0" IVar="-1" Cut="0.0000000000000000e+00" cType="1" res="5.8372351340949535e-03" rms="4.1082432866096497e-01" purity="2.5347942113876343e-01" nType="-99"/>
                    <Node pos="r" depth="7" NCoef="0" IVar="-1" Cut="0.0000000000000000e+00" cType="1" res="8.8398766820318997e-05" rms="3.4765109419822693e-01" purity="1.5015681087970734e-01" nType="-99"/>
                  </Node>
                  <Node pos="r" depth="6" NCoef="0" IVar="3" Cut="2.0203964412212372e-01" cType="1" res="-7.0102270692586899e-03" rms="3.1172752380371094e-01" purity="1.1489861458539963e-01" nType="0">
                    <Node pos="l" depth="7" NCoef="0" IVar="-1" Cut="0.0000000000000000e+00" cType="1" res="-4.8914942890405655e-03" rms="3.0637994408607483e-01" purity="1.1136735230684280e-01" nType="-99"/>
                    <Node pos="r" depth="7" NCoef="0" IVar="-1" Cut="0.0000000000000000e+00" cType="1" res="1.9249138422310352e-03" rms="3.1731256842613220e-01" purity="1.1904086917638779e-01" nType="-99"/>
                  </Node>
                </Node>
                <Node pos="r" depth="5" NCoef="0" IVar="-1" Cut="0.0000000000000000e+00" cType="1" res="-2.3262046743184328e-03" rms="4.0635740756988525e-01" purity="2.1704186499118805e-01" nType="-99"/>
              </Node>
              <Node pos="r" depth="4" NCoef="0" IVar="-1" Cut="0.0000000000000000e+00" cType="1" res="2.0739915780723095e-03" rms="4.7451922297477722e-01" purity="3.7159186601638794e-01" nType="-99"/>
            </Node>
          </Node>
          <Node pos="r" depth="2" NCoef="0" IVar="-1" Cut="0.0000000000000000e+00" cType="1" res="1.1046362342312932e-03" rms="4.8515424132347107e-01" purity="4.6261119842529297e-01" nType="-99"/>
        </Node>
        <Node pos="r" depth="1" NCoef="0" IVar="4" Cut="1.0650961846113205e-01" cType="1" res="6.1220303177833557e-03" rms="4.3806368112564087e-01" purity="7.0760911703109741e-01" nType="0">
          <Node pos="l" depth="2" NCoef="0" IVar="3" Cut="1.0447753667831421e+00" cType="1" res="7.4822264723479748e-03" rms="4.3743881583213806e-01" purity="7.1284455060958862e-01" nType="0">
            <Node pos="l" depth="3" NCoef="0" IVar="3" Cut="7.2399461269378662e-01" cType="1" res="7.0529482327401638e-03" rms="4.3794682621955872e-01" purity="7.1170890331268311e-01" nType="0">
              <Node pos="l" depth="4" NCoef="0" IVar="5" Cut="3.0000000000000000e+00" cType="1" res="-5.5509381927549839e-03" rms="4.8785129189491272e-01" purity="5.0289517641067505e-01" nType="0">
                <Node pos="l" depth="5" NCoef="0" IVar="-1" Cut="0.0000000000000000e+00" cType="1" res="-2.0977163221687078e-03" rms="4.8517623543739319e-01" purity="4.3391412496566772e-01" nType="-99"/>
                <Node pos="r" depth="5" NCoef="0" IVar="4" Cut="4.9169272184371948e-02" cType="1" res="1.3543104287236929e-03" rms="4.9043184518814087e-01" purity="5.3500711917877197e-01" nType="0">
                  <Node pos="l" depth="6" NCoef="0" IVar="-1" Cut="0.0000000000000000e+00" cType="1" res="-8.5396954091265798e-04" rms="4.9331086874008179e-01" purity="5.0363349914550781e-01" nType="-99"/>
                  <Node pos="r" depth="6" NCoef="0" IVar="-1" Cut="0.0000000000000000e+00" cType="1" res="7.3065841570496559e-04" rms="4.8844411969184875e-01" purity="5.5518496036529541e-01" nType="-99"/>
                </Node>
              </Node>
              <Node pos="r" depth="4" NCoef="0" IVar="4" Cut="4.4658839702606201e-02" cType="1" res="8.0815097317099571e-03" rms="4.3383771181106567e-01" purity="7.2747945785522461e-01" nType="0">
                <Node pos="l" depth="5" NCoef="0" IVar="3" Cut="8.7921345233917236e-01" cType="1" res="5.9063378721475601e-03" rms="4.2603191733360291e-01" purity="7.4442702531814575e-01" nType="0">
                  <Node pos="l" depth="6" NCoef="0" IVar="5" Cut="3.0000000000000000e+00" cType="1" res="-4.3208063580095768e-03" rms="4.6976298093795776e-01" purity="6.3592642545700073e-01" nType="0">
                    <Node pos="l" depth="7" NCoef="0" IVar="-1" Cut="0.0000000000000000e+00" cType="1" res="-1.0074119782075286e-03" rms="4.7132322192192078e-01" purity="6.3512486219406128e-01" nType="-99"/>
                    <Node pos="r" depth="7" NCoef="0" IVar="-1" Cut="0.0000000000000000e+00" cType="1" res="1.4958847314119339e-03" rms="4.7241345047950745e-01" purity="6.3853144645690918e-01" nType="-99"/>
                  </Node>
                  <Node pos="r" depth="6" NCoef="0" IVar="3" Cut="1.0020465850830078e+00" cType="1" res="8.9233024045825005e-03" rms="4.1210347414016724e-01" purity="7.7520298957824707e-01" nType="0">
                    <Node pos="l" depth="7" NCoef="0" IVar="-1" Cut="0.0000000000000000e+00" cType="1" res="6.9709774106740952e-04" rms="4.1729527711868286e-01" purity="7.6651543378829956e-01" nType="-99"/>
                    <Node pos="r" depth="7" NCoef="0" IVar="-1" Cut="0.0000000000000000e+00" cType="1" res="1.7842367524281144e-03" rms="3.9711984992027283e-01" purity="7.9952406883239746e-01" nType="-99"/>
                  </Node>
                </Node>
                <Node pos="r" depth="5" NCoef="0" IVar="3" Cut="7.4471974372863770e-01" cType="1" res="1.7551802098751068e-02" rms="4.6618393063545227e-01" purity="6.5369307994842529e-01" nType="0">
                  <Node pos="l" depth="6" NCoef="0" IVar="-1" Cut="0.0000000000000000e+00" cType="1" res="-2.0170719653833658e-04" rms="4.8924481868743896e-01" purity="5.6279259920120239e-01" nType="-99"/>
                  <Node pos="r" depth="6" NCoef="0" IVar="3" Cut="8.5119485855102539e-01" cType="1" res="2.0554259419441223e-02" rms="4.6251413226127625e-01" purity="6.6747128963470459e-01" nType="0">
                    <Node pos="l" depth="7" NCoef="0" IVar="-1" Cut="0.0000000000000000e+00" cType="1" res="1.4957427047193050e-03" rms="4.6892181038856506e-01" purity="6.4930003881454468e-01" nType="-99"/>
                    <Node pos="r" depth="7" NCoef="0" IVar="-1" Cut="0.0000000000000000e+00" cType="1" res="3.1565628014504910e-03" rms="4.3788373470306396e-01" purity="7.3436790704727173e-01" nType="-99"/>
                  </Node>
                </Node>
              </Node>
            </Node>
            <Node pos="r" depth="3" NCoef="0" IVar="-1" Cut="0.0000000000000000e+00" cType="1" res="2.5069238618016243e-03" rms="4.1538372635841370e-01" purity="7.6004934310913086e-01" nType="-99"/>
          </Node>
          <Node pos="r" depth="2" NCoef="0" IVar="-1" Cut="0.0000000000000000e+00" cType="1" res="-5.6613530032336712e-03" rms="4.6366375684738159e-01" purity="4.3925985693931580e-01" nType="-99"/>
        </Node>
      </Node>
    </BinaryTree>
    <BinaryTree type="DecisionTree" boostWeight="1.0000000000000000e+00" itree="99">
      <Node pos="s" depth="0" NCoef="0" IVar="3" Cut="5.7838916778564453e-01" cType="1" res="1.6442325431853533e-03" rms="4.0953880548477173e-01" purity="5.0027936697006226e-01" nType="0">
        <Node pos="l" depth="1" NCoef="0" IVar="1" Cut="1.4958879351615906e-01" cType="1" res="-5.4197865538299084e-03" rms="3.2683584094047546e-01" purity="1.4028456807136536e-01" nType="0">
          <Node pos="l" depth="2" NCoef="0" IVar="3" Cut="4.6653088927268982e-01" cType="1" res="-8.0440257443115115e-04" rms="3.7234622240066528e-01" purity="1.9274386763572693e-01" nType="0">
            <Node pos="l" depth="3" NCoef="0" IVar="5" Cut="4.0000000000000000e+00" cType="1" res="3.6371452733874321e-03" rms="3.3197826147079468e-01" purity="1.3944058120250702e-01" nType="0">
              <Node pos="l" depth="4" NCoef="0" IVar="-1" Cut="0.0000000000000000e+00" cType="1" res="4.1897068731486797e-03" rms="3.9165633916854858e-01" purity="2.1689477562904358e-01" nType="-99"/>
              <Node pos="r" depth="4" NCoef="0" IVar="3" Cut="3.1619212031364441e-01" cType="1" res="-9.4275266746990383e-05" rms="3.2000580430030823e-01" purity="1.2560434639453888e-01" nType="0">
                <Node pos="l" depth="5" NCoef="0" IVar="3" Cut="1.8379399180412292e-01" cType="1" res="-1.0651908814907074e-02" rms="2.8373718261718750e-01" purity="9.5409110188484192e-02" nType="0">
                  <Node pos="l" depth="6" NCoef="0" IVar="-1" Cut="0.0000000000000000e+00" cType="1" res="-6.1577833257615566e-03" rms="3.1345969438552856e-01" purity="1.2314841896295547e-01" nType="-99"/>
                  <Node pos="r" depth="6" NCoef="0" IVar="5" Cut="7.0000000000000000e+00" cType="1" res="1.7360475612804294e-03" rms="2.6148170232772827e-01" purity="8.4553964436054230e-02" nType="0">
                    <Node pos="l" depth="7" NCoef="0" IVar="-1" Cut="0.0000000000000000e+00" cType="1" res="-3.9835469797253609e-03" rms="2.6619106531143188e-01" purity="8.1301882863044739e-02" nType="-99"/>
                    <Node pos="r" depth="7" NCoef="0" IVar="-1" Cut="0.0000000000000000e+00" cType="1" res="1.6189541202038527e-03" rms="2.7672022581100464e-01" purity="8.8732667267322540e-02" nType="-99"/>
                  </Node>
                </Node>
                <Node pos="r" depth="5" NCoef="0" IVar="2" Cut="3.8384655761718750e+02" cType="1" res="1.0094398632645607e-02" rms="3.5117521882057190e-01" purity="1.5474432706832886e-01" nType="0">
                  <Node pos="l" depth="6" NCoef="0" IVar="3" Cut="4.1319632530212402e-01" cType="1" res="1.5512694604694843e-02" rms="3.5364148020744324e-01" purity="1.5922340750694275e-01" nType="0">
                    <Node pos="l" depth="7" NCoef="0" IVar="-1" Cut="0.0000000000000000e+00" cType="1" res="1.6533774323761463e-03" rms="3.1749990582466125e-01" purity="1.2217283248901367e-01" nType="-99"/>
                    <Node pos="r" depth="7" NCoef="0" IVar="-1" Cut="0.0000000000000000e+00" cType="1" res="5.0739534199237823e-03" rms="4.0441364049911499e-01" purity="2.1857945621013641e-01" nType="-99"/>
                  </Node>
                  <Node pos="r" depth="6" NCoef="0" IVar="-1" Cut="0.0000000000000000e+00" cType="1" res="-4.0097217424772680e-04" rms="3.4534943103790283e-01" purity="1.4482663571834564e-01" nType="-99"/>
                </Node>
              </Node>
            </Node>
            <Node pos="r" depth="3" NCoef="0" IVar="5" Cut="4.0000000000000000e+00" cType="1" res="-1.0063063353300095e-02" rms="4.4445970654487610e-01" purity="3.0357408523559570e-01" nType="0">
              <Node pos="l" depth="4" NCoef="0" IVar="-1" Cut="0.0000000000000000e+00" cType="1" res="-3.8526973221451044e-03" rms="4.2665433883666992e-01" purity="2.5757950544357300e-01" nType="-99"/>
              <Node pos="r" depth="4" NCoef="0" IVar="5" Cut="5.0000000000000000e+00" cType="1" res="3.4341735299676657e-03" rms="4.5395046472549438e-01" purity="3.3115530014038086e-01" nType="0">
                <Node pos="l" depth="5" NCoef="0" IVar="-1" Cut="0.0000000000000000e+00" cType="1" res="-7.7297940151765943e-04" rms="4.4745638966560364e-01" purity="3.1717640161514282e-01" nType="-99"/>
                <Node pos="r" depth="5" NCoef="0" IVar="-1" Cut="0.0000000000000000e+00" cType="1" res="1.5963313635438681e-03" rms="4.6271678805351257e-01" purity="3.4838110208511353e-01" nType="-99"/>
              </Node>
            </Node>
          </Node>
          <Node pos="r" depth="2" NCoef="0" IVar="5" Cut="3.0000000000000000e+00" cType="1" res="8.3884842693805695e-02" rms="9.0455569326877594e-02" purity="1.0238779336214066e-01" nType="0">
            <Node pos="l" depth="3" NCoef="0" IVar="-1" Cut="0.0000000000000000e+00" cType="1" res="-4.9903956241905689e-03" rms="3.2390156388282776e-01" purity="1.2638372182846069e-01" nType="-99"/>
            <Node pos="r" depth="3" NCoef="0" IVar="2" Cut="1.7091780090332031e+02" cType="1" res="-7.7230315655469894e-03" rms="2.8660541772842407e-01" purity="1.0051058977842331e-01" nType="0">
              <Node pos="l" depth="4" NCoef="0" IVar="4" Cut="1.0195223242044449e-01" cType="1" res="-1.0883604176342487e-02" rms="2.7497762441635132e-01" purity="9.2645429074764252e-02" nType="0">
                <Node pos="l" depth="5" NCoef="0" IVar="3" Cut="4.8523727059364319e-01" cType="1" res="-8.7030325084924698e-03" rms="2.6814720034599304e-01" purity="8.6225800216197968e-02" nType="0">
                  <Node pos="l" depth="6" NCoef="0" IVar="4" Cut="6.9281838834285736e-02" cType="1" res="-5.8956202119588852e-03" rms="2.2305549681186676e-01" purity="5.4668433964252472e-02" nType="0">
                    <Node pos="l" depth="7" NCoef="0" IVar="-1" Cut="0.0000000000000000e+00" cType="1" res="-4.7060330398380756e-03" rms="2.1272063255310059e-01" purity="4.9044284969568253e-02" nType="-99"/>
                    <Node pos="r" depth="7" NCoef="0" IVar="-1" Cut="0.0000000000000000e+00" cType="1" res="7.6239608461037278e-04" rms="2.4759107828140259e-01" purity="6.9186881184577942e-02" nType="-99"/>
                  </Node>
                  <Node pos="r" depth="6" NCoef="0" IVar="-1" Cut="0.0000000000000000e+00" cType="1" res="-2.8209066949784756e-03" rms="3.9435210824012756e-01" purity="2.0555433630943298e-01" nType="-99"/>
                </Node>
                <Node pos="r" depth="5" NCoef="0" IVar="-1" Cut="0.0000000000000000e+00" cType="1" res="-5.0310739316046238e-03" rms="3.0189472436904907e-01" purity="1.1969633400440216e-01" nType="-99"/>
              </Node>
              <Node pos="r" depth="4" NCoef="0" IVar="5" Cut="5.0000000000000000e+00" cType="1" res="8.6382918059825897e-02" rms="7.7739305794239044e-02" purity="1.0559190809726715e-01" nType="0">
                <Node pos="l" depth="5" NCoef="0" IVar="3" Cut="4.6849703788757324e-01" cType="1" res="1.7925373977050185e-03" rms="3.4143945574760437e-01" purity="1.4945831894874573e-01" nType="0">
                  <Node pos="l" depth="6" NCoef="0" IVar="2" Cut="3.7105075073242188e+02" cType="1" res="-4.3266634456813335e-03" rms="2.9633849859237671e-01" purity="1.0344673693180084e-01" nType="0">
                    <Node pos="l" depth="7" NCoef="0" IVar="-1" Cut="0.0000000000000000e+00" cType="1" res="-3.6420067772269249e-03" rms="2.6350224018096924e-01" purity="7.7525086700916290e-02" nType="-99"/>
                    <Node pos="r" depth="7" NCoef="0" IVar="-1" Cut="0.0000000000000000e+00" cType="1" res="5.2215380128473043e-04" rms="3.3013340830802917e-01" purity="1.3341017067432404e-01" nType="-99"/>
                  </Node>
                  <Node pos="r" depth="6" NCoef="0" IVar="-1" Cut="0.0000000000000000e+00" cType="1" res="1.8289439612999558e-03" rms="4.0625199675559998e-01" purity="2.2724713385105133e-01" nType="-99"/>
                </Node>
                <Node pos="r" depth="5" NCoef="0" IVar="3" Cut="1.6798664629459381e-01" cType="1" res="-9.9572129547595978e-03" rms="2.6268661022186279e-01" purity="8.0493643879890442e-02" nType="0">
                  <Node pos="l" depth="6" NCoef="0" IVar="-1" Cut="0.0000000000000000e+00" cType="1" res="-8.1348950043320656e-03" rms="2.3991084098815918e-01" purity="6.4736351370811462e-02" nType="-99"/>
                  <Node pos="r" depth="6" NCoef="0" IVar="0" Cut="6.7811506986618042e-01" cType="1" res="-7.2382781654596329e-03" rms="2.6776427030563354e-01" purity="8.4254123270511627e-02" nType="0">
                    <Node pos="l" depth="7" NCoef="0" IVar="-1" Cut="0.0000000000000000e+00" cType="1" res="8.1257376587018371e-04" rms="3.8422018289566040e-01" purity="1.8633168935775757e-01" nType="-99"/>
                    <Node pos="r" depth="7" NCoef="0" IVar="-1" Cut="0.0000000000000000e+00" cType="1" res="-5.5692112073302269e-03" rms="2.1421369910240173e-01" purity="4.9640387296676636e-02" nType="-99"/>
                  </Node>
                </Node>
              </Node>
            </Node>
          </Node>
        </Node>
        <Node pos="r" depth="1" NCoef="0" IVar="0" Cut="7.9670560359954834e-01" cType="1" res="4.9728145822882652e-03" rms="4.4315215945243835e-01" purity="6.6990965604782104e-01" nType="0">
          <Node pos="l" depth="2" NCoef="0" IVar="0" Cut="2.3122318089008331e-01" cType="1" res="6.5715704113245010e-03" rms="4.4300705194473267e-01" purity="6.7877292633056641e-01" nType="0">
            <Node pos="l" depth="3" NCoef="0" IVar="2" Cut="1.8824549865722656e+02" cType="1" res="8.3191990852355957e-03" rms="4.3439146876335144e-01" purity="7.2505414485931396e-01" nType="0">
              <Node pos="l" depth="4" NCoef="0" IVar="3" Cut="1.0003721714019775e+00" cType="1" res="7.4368636123836040e-03" rms="4.2783004045486450e-01" purity="7.4358034133911133e-01" nType="0">
                <Node pos="l" depth="5" NCoef="0" IVar="1" Cut="6.7961849272251129e-02" cType="1" res="5.1692342385649681e-03" rms="4.3773928284645081e-01" purity="7.2387892007827759e-01" nType="0">
                  <Node pos="l" depth="6" NCoef="0" IVar="5" Cut="3.0000000000000000e+00" cType="1" res="7.1007194928824902e-03" rms="4.1536432504653931e-01" purity="7.5268834829330444e-01" nType="0">
                    <Node pos="l" depth="7" NCoef="0" IVar="-1" Cut="0.0000000000000000e+00" cType="1" res="7.1445415960624814e-04" rms="4.1709393262863159e-01" purity="7.7044028043746948e-01" nType="-99"/>
                    <Node pos="r" depth="7" NCoef="0" IVar="-1" Cut="0.0000000000000000e+00" cType="1" res="1.7626346088945866e-03" rms="4.6713063120841980e-01" purity="6.5986531972885132e-01" nType="-99"/>
                  </Node>
                  <Node pos="r" depth="6" NCoef="0" IVar="4" Cut="6.2264386564493179e-02" cType="1" res="5.4448912851512432e-04" rms="4.5324170589447021e-01" purity="6.8595945835113525e-01" nType="0">
                    <Node pos="l" depth="7" NCoef="0" IVar="-1" Cut="0.0000000000000000e+00" cType="1" res="2.3701894679106772e-04" rms="4.4943195581436157e-01" purity="6.9906514883041382e-01" nType="-99"/>
                    <Node pos="r" depth="7" NCoef="0" IVar="-1" Cut="0.0000000000000000e+00" cType="1" res="-1.4775631716474891e-03" rms="4.8813688755035400e-01" purity="5.5936968326568604e-01" nType="-99"/>
                  </Node>
                </Node>
                <Node pos="r" depth="5" NCoef="0" IVar="1" Cut="-1.0639248788356781e-01" cType="1" res="1.4151072129607201e-02" rms="3.9696627855300903e-01" purity="8.0191421508789062e-01" nType="0">
                  <Node pos="l" depth="6" NCoef="0" IVar="3" Cut="1.0090991258621216e+00" cType="1" res="4.8909070901572704e-03" rms="3.9191299676895142e-01" purity="8.1010854244232178e-01" nType="0">
                    <Node pos="l" depth="7" NCoef="0" IVar="-1" Cut="0.0000000000000000e+00" cType="1" res="1.1191902449354529e-03" rms="3.8389590382575989e-01" purity="8.2000339031219482e-01" nType="-99"/>
                    <Node pos="r" depth="7" NCoef="0" IVar="-1" Cut="0.0000000000000000e+00" cType="1" res="-1.5538943989668041e-04" rms="4.0217885375022888e-01" purity="7.9702961444854736e-01" nType="-99"/>
                  </Node>
                  <Node pos="r" depth="6" NCoef="0" IVar="3" Cut="1.0395061969757080e+00" cType="1" res="1.7512742429971695e-02" rms="3.9873170852661133e-01" purity="7.9893946647644043e-01" nType="0">
                    <Node pos="l" depth="7" NCoef="0" IVar="-1" Cut="0.0000000000000000e+00" cType="1" res="2.0686010830104351e-03" rms="3.9482048153877258e-01" purity="8.0489182472229004e-01" nType="-99"/>
                    <Node pos="r" depth="7" NCoef="0" IVar="-1" Cut="0.0000000000000000e+00" cType="1" res="9.8251749295741320e-04" rms="4.2280566692352295e-01" purity="7.6087641716003418e-01" nType="-99"/>
                  </Node>
                </Node>
              </Node>
              <Node pos="r" depth="4" NCoef="0" IVar="3" Cut="6.5178930759429932e-01" cType="1" res="1.5398188494145870e-02" rms="4.8376551270484924e-01" purity="5.7641839981079102e-01" nType="0">
                <Node pos="l" depth="5" NCoef="0" IVar="-1" Cut="0.0000000000000000e+00" cType="1" res="5.9975558542646468e-05" rms="4.9184688925743103e-01" purity="4.3533757328987122e-01" nType="-99"/>
                <Node pos="r" depth="5" NCoef="0" IVar="5" Cut="3.0000000000000000e+00" cType="1" res="1.5541805885732174e-02" rms="4.6300333738327026e-01" purity="6.1076879501342773e-01" nType="0">
                  <Node pos="l" depth="6" NCoef="0" IVar="3" Cut="7.9437124729156494e-01" cType="1" res="2.4476170539855957e-02" rms="4.7603738307952881e-01" purity="6.3330644369125366e-01" nType="0">
                    <Node pos="l" depth="7" NCoef="0" IVar="-1" Cut="0.0000000000000000e+00" cType="1" res="8.4392097778618336e-04" rms="4.9294626712799072e-01" purity="5.6291234493255615e-01" nType="-99"/>
                    <Node pos="r" depth="7" NCoef="0" IVar="-1" Cut="0.0000000000000000e+00" cType="1" res="3.1718984246253967e-03" rms="4.6461942791938782e-01" purity="6.7851376533508301e-01" nType="-99"/>
                  </Node>
                  <Node pos="r" depth="6" NCoef="0" IVar="-1" Cut="0.0000000000000000e+00" cType="1" res="1.0773821268230677e-03" rms="4.8901882767677307e-01" purity="5.8094328641891479e-01" nType="-99"/>
                </Node>
              </Node>
            </Node>
            <Node pos="r" depth="3" NCoef="0" IVar="1" Cut="7.6260614395141602e-01" cType="1" res="-9.2619284987449646e-04" rms="4.7813940048217773e-01" purity="4.8021495342254639e-01" nType="0">
              <Node pos="l" depth="4" NCoef="0" IVar="2" Cut="1.5046730041503906e+02" cType="1" res="5.9161707758903503e-03" rms="4.8150381445884705e-01" purity="5.0067788362503052e-01" nType="0">
                <Node pos="l" depth="5" NCoef="0" IVar="2" Cut="4.8530605316162109e+01" cType="1" res="1.0966056026518345e-02" rms="4.8199561238288879e-01" purity="5.4434734582901001e-01" nType="0">
                  <Node pos="l" depth="6" NCoef="0" IVar="4" Cut="8.8757714256644249e-03" cType="1" res="2.2174300625920296e-02" rms="4.7356382012367249e-01" purity="6.1710804700851440e-01" nType="0">
                    <Node pos="l" depth="7" NCoef="0" IVar="-1" Cut="0.0000000000000000e+00" cType="1" res="-1.9288343537482433e-05" rms="4.6248826384544373e-01" purity="6.6249102354049683e-01" nType="-99"/>
                    <Node pos="r" depth="7" NCoef="0" IVar="-1" Cut="0.0000000000000000e+00" cType="1" res="3.9476589299738407e-03" rms="4.8391726613044739e-01" purity="5.6890958547592163e-01" nType="-99"/>
                  </Node>
                  <Node pos="r" depth="6" NCoef="0" IVar="4" Cut="6.2514282763004303e-02" cType="1" res="2.5431639514863491e-03" rms="4.8806682229042053e-01" purity="4.8966830968856812e-01" nType="0">
                    <Node pos="l" depth="7" NCoef="0" IVar="-1" Cut="0.0000000000000000e+00" cType="1" res="-6.0689100064337254e-04" rms="4.8605811595916748e-01" purity="4.7806853055953979e-01" nType="-99"/>
                    <Node pos="r" depth="7" NCoef="0" IVar="-1" Cut="0.0000000000000000e+00" cType="1" res="1.9203628180548549e-03" rms="4.9193382263183594e-01" purity="5.1555722951889038e-01" nType="-99"/>
                  </Node>
                </Node>
                <Node pos="r" depth="5" NCoef="0" IVar="3" Cut="6.4885371923446655e-01" cType="1" res="-4.3428563512861729e-03" rms="4.8033973574638367e-01" purity="4.1196173429489136e-01" nType="0">
                  <Node pos="l" depth="6" NCoef="0" IVar="-1" Cut="0.0000000000000000e+00" cType="1" res="1.5805967850610614e-03" rms="4.6554347872734070e-01" purity="3.4408459067344666e-01" nType="-99"/>
                  <Node pos="r" depth="6" NCoef="0" IVar="0" Cut="3.4060186147689819e-01" cType="1" res="-1.6871239989995956e-02" rms="4.8947492241859436e-01" purity="4.5684167742729187e-01" nType="0">
                    <Node pos="l" depth="7" NCoef="0" IVar="-1" Cut="0.0000000000000000e+00" cType="1" res="-1.8352854531258345e-03" rms="4.9286854267120361e-01" purity="4.9981760978698730e-01" nType="-99"/>
                    <Node pos="r" depth="7" NCoef="0" IVar="-1" Cut="0.0000000000000000e+00" cType="1" res="-1.3642053818330169e-03" rms="4.8608076572418213e-01" purity="4.1433745622634888e-01" nType="-99"/>
                  </Node>
                </Node>
              </Node>
              <Node pos="r" depth="4" NCoef="0" IVar="-1" Cut="0.0000000000000000e+00" cType="1" res="-6.1979824677109718e-03" rms="4.4456976652145386e-01" purity="3.0753320455551147e-01" nType="-99"/>
            </Node>
          </Node>
          <Node pos="r" depth="2" NCoef="0" IVar="-1" Cut="0.0000000000000000e+00" cType="1" res="-6.7417826503515244e-03" rms="4.4397836923599243e-01" purity="2.9260405898094177e-01" nType="-99"/>
        </Node>
      </Node>
    </BinaryTree>
  </Weights>
</MethodSetup>
