<?xml version="1.0"?>
<MethodSetup Method="BDT::BDT">
  <GeneralInfo>
    <Info name="TMVA Release" value="4.2.1 [262657]"/>
    <Info name="ROOT Release" value="6.04/14 [394254]"/>
    <Info name="Training events" value="91113"/>
    <Info name="AnalysisType" value="Classification"/>
  </GeneralInfo>
  <Options>
    <Option name="V" modified="No">False</Option>
    <Option name="VerbosityLevel" modified="No">Default</Option>
    <Option name="VarTransform" modified="No">None</Option>
    <Option name="H" modified="No">False</Option>
    <Option name="CreateMVAPdfs" modified="No">False</Option>
    <Option name="IgnoreNegWeightsInTraining" modified="No">False</Option>
    <Option name="NTrees" modified="Yes">400</Option>
    <Option name="MaxDepth" modified="No">3</Option>
    <Option name="MinNodeSize" modified="Yes">4</Option>
    <Option name="nCuts" modified="No">20</Option>
    <Option name="BoostType" modified="Yes">Grad</Option>
    <Option name="AdaBoostR2Loss" modified="No">quadratic</Option>
    <Option name="UseBaggedBoost" modified="Yes">True</Option>
    <Option name="Shrinkage" modified="No">1.000000e+00</Option>
    <Option name="AdaBoostBeta" modified="No">5.000000e-01</Option>
    <Option name="UseRandomisedTrees" modified="Yes">True</Option>
    <Option name="UseNvars" modified="Yes">10</Option>
    <Option name="UsePoissonNvars" modified="No">True</Option>
    <Option name="BaggedSampleFraction" modified="Yes">6.000000e-01</Option>
    <Option name="UseYesNoLeaf" modified="No">True</Option>
    <Option name="NegWeightTreatment" modified="No">ignorenegweightsintraining</Option>
    <Option name="Css" modified="No">1.000000e+00</Option>
    <Option name="Cts_sb" modified="No">1.000000e+00</Option>
    <Option name="Ctb_ss" modified="No">1.000000e+00</Option>
    <Option name="Cbb" modified="No">1.000000e+00</Option>
    <Option name="NodePurityLimit" modified="No">5.000000e-01</Option>
    <Option name="SeparationType" modified="No">giniindex</Option>
    <Option name="DoBoostMonitor" modified="No">False</Option>
    <Option name="UseFisherCuts" modified="No">False</Option>
    <Option name="MinLinCorrForFisher" modified="No">8.000000e-01</Option>
    <Option name="UseExclusiveVars" modified="No">False</Option>
    <Option name="DoPreselection" modified="No">False</Option>
    <Option name="SigToBkgFraction" modified="No">1.000000e+00</Option>
    <Option name="PruneMethod" modified="No">nopruning</Option>
    <Option name="PruneStrength" modified="No">0.000000e+00</Option>
    <Option name="PruningValFraction" modified="No">5.000000e-01</Option>
    <Option name="nEventsMin" modified="No">0</Option>
    <Option name="UseBaggedGrad" modified="No">False</Option>
    <Option name="GradBaggingFraction" modified="No">6.000000e-01</Option>
    <Option name="UseNTrainEvents" modified="No">0</Option>
    <Option name="NNodesMax" modified="No">0</Option>
  </Options>
  <Variables NVar="10">
    <Variable VarIndex="0" Expression="met" Label="met" Title="met" Unit="" Internal="met" Type="F" Min="1.20000539e+05" Max="2.93781500e+06"/>
    <Variable VarIndex="1" Expression="mt" Label="mt" Title="mt" Unit="" Internal="mt" Type="F" Min="1.20000695e+05" Max="2.78422000e+06"/>
    <Variable VarIndex="2" Expression="m_top_chi2" Label="m_top_chi2" Title="m_top_chi2" Unit="" Internal="m_top_chi2" Type="F" Min="5.66272469e+01" Max="5.55204102e+03"/>
    <Variable VarIndex="3" Expression="ht_sig" Label="ht_sig" Title="ht_sig" Unit="" Internal="ht_sig" Type="F" Min="-1.58975420e+01" Max="1.31475876e+02"/>
    <Variable VarIndex="4" Expression="dr_bjet_lep" Label="dr_bjet_lep" Title="dr_bjet_lep" Unit="" Internal="dr_bjet_lep" Type="F" Min="7.39222690e-02" Max="5.64179468e+00"/>
    <Variable VarIndex="5" Expression="dphi_ttbar" Label="dphi_ttbar" Title="dphi_ttbar" Unit="" Internal="dphi_ttbar" Type="F" Min="-3.14148831e+00" Max="3.14158058e+00"/>
    <Variable VarIndex="6" Expression="dphi_hadtop_met" Label="dphi_hadtop_met" Title="dphi_hadtop_met" Unit="" Internal="dphi_hadtop_met" Type="F" Min="-3.14155102e+00" Max="3.14158940e+00"/>
    <Variable VarIndex="7" Expression="n_jet" Label="n_jet" Title="n_jet" Unit="" Internal="n_jet" Type="I" Min="4.00000000e+00" Max="1.30000000e+01"/>
    <Variable VarIndex="8" Expression="jet_pt[2]" Label="jet_pt[2]" Title="jet_pt[2]" Unit="" Internal="jet_pt_2_" Type="F" Min="2.50345078e+04" Max="1.09648638e+06"/>
    <Variable VarIndex="9" Expression="jet_pt[3]" Label="jet_pt[3]" Title="jet_pt[3]" Unit="" Internal="jet_pt_3_" Type="F" Min="2.50001289e+04" Max="4.71873062e+05"/>
  </Variables>
  <Spectators NSpec="0" />
  <Classes NClass="2">
    <Class Name="Signal" Index="0"/>
    <Class Name="Background" Index="1"/>
  </Classes>
  <Transformations NTransformations="0"/>
  <MVAPdfs/>
  <Weights NTrees="400" AnalysisType="1">
    <BinaryTree type="DecisionTree" boostWeight="1.0000000000000000e+00" itree="0">
      <Node pos="s" depth="0" NCoef="0" IVar="8" Cut="6.4859007812500000e+04" cType="1" res="2.8209502343088388e-03" rms="4.9999204277992249e-01" purity="5.0282096862792969e-01" nType="0">
        <Node pos="l" depth="1" NCoef="0" IVar="9" Cut="3.2516111328125000e+04" cType="1" res="-8.3542570471763611e-02" rms="4.9297124147415161e-01" purity="4.1645744442939758e-01" nType="0">
          <Node pos="l" depth="2" NCoef="0" IVar="1" Cut="1.8134251562500000e+05" cType="1" res="-1.6939432919025421e-01" rms="4.7043123841285706e-01" purity="3.3060568571090698e-01" nType="0">
            <Node pos="l" depth="3" NCoef="0" IVar="-1" Cut="0.0000000000000000e+00" cType="1" res="-1.1697947978973389e-01" rms="4.8274096846580505e-01" purity="3.6976504325866699e-01" nType="-99"/>
            <Node pos="r" depth="3" NCoef="0" IVar="-1" Cut="0.0000000000000000e+00" cType="1" res="-2.8991153836250305e-01" rms="4.3242269754409790e-01" purity="2.4898086488246918e-01" nType="-99"/>
          </Node>
          <Node pos="r" depth="2" NCoef="0" IVar="4" Cut="1.6841244697570801e+00" cType="1" res="0.0000000000000000e+00" rms="0.0000000000000000e+00" purity="4.8385673761367798e-01" nType="0">
            <Node pos="l" depth="3" NCoef="0" IVar="-1" Cut="0.0000000000000000e+00" cType="1" res="-3.8698040880262852e-03" rms="4.9396863579750061e-01" purity="4.2257267236709595e-01" nType="-99"/>
            <Node pos="r" depth="3" NCoef="0" IVar="-1" Cut="0.0000000000000000e+00" cType="1" res="2.5603327900171280e-02" rms="4.9917119741439819e-01" purity="5.2877730131149292e-01" nType="-99"/>
          </Node>
        </Node>
        <Node pos="r" depth="1" NCoef="0" IVar="9" Cut="6.6368898437500000e+04" cType="1" res="1.1033017188310623e-01" rms="4.8767536878585815e-01" purity="6.1033016443252563e-01" nType="0">
          <Node pos="l" depth="2" NCoef="0" IVar="1" Cut="1.8009609375000000e+05" cType="1" res="5.5008329451084137e-02" rms="4.9696487188339233e-01" purity="5.5500835180282593e-01" nType="0">
            <Node pos="l" depth="3" NCoef="0" IVar="-1" Cut="0.0000000000000000e+00" cType="1" res="4.9488559365272522e-02" rms="4.9248072504997253e-01" purity="5.8638715744018555e-01" nType="-99"/>
            <Node pos="r" depth="3" NCoef="0" IVar="-1" Cut="0.0000000000000000e+00" cType="1" res="-2.7786850929260254e-02" rms="4.9940970540046692e-01" purity="4.7571140527725220e-01" nType="-99"/>
          </Node>
          <Node pos="r" depth="2" NCoef="0" IVar="3" Cut="4.3063726425170898e+00" cType="1" res="0.0000000000000000e+00" rms="0.0000000000000000e+00" purity="6.8957859277725220e-01" nType="0">
            <Node pos="l" depth="3" NCoef="0" IVar="-1" Cut="0.0000000000000000e+00" cType="1" res="6.7987754940986633e-02" rms="4.8483663797378540e-01" purity="6.2220245599746704e-01" nType="-99"/>
            <Node pos="r" depth="3" NCoef="0" IVar="-1" Cut="0.0000000000000000e+00" cType="1" res="2.1536259353160858e-01" rms="4.3700656294822693e-01" purity="7.4295121431350708e-01" nType="-99"/>
          </Node>
        </Node>
      </Node>
    </BinaryTree>
    <BinaryTree type="DecisionTree" boostWeight="1.0000000000000000e+00" itree="1">
      <Node pos="s" depth="0" NCoef="0" IVar="9" Cut="4.5680500000000000e+04" cType="1" res="0.0000000000000000e+00" rms="0.0000000000000000e+00" purity="4.9405324459075928e-01" nType="0">
        <Node pos="l" depth="1" NCoef="0" IVar="1" Cut="1.9391548437500000e+05" cType="1" res="-5.6813985109329224e-02" rms="4.8652103543281555e-01" purity="4.1217231750488281e-01" nType="0">
          <Node pos="l" depth="2" NCoef="0" IVar="0" Cut="1.9003475000000000e+05" cType="1" res="-3.5002764314413071e-02" rms="4.9332794547080994e-01" purity="4.4507363438606262e-01" nType="0">
            <Node pos="l" depth="3" NCoef="0" IVar="-1" Cut="0.0000000000000000e+00" cType="1" res="-1.6292756423354149e-02" rms="4.9123486876487732e-01" purity="4.2580613493919373e-01" nType="-99"/>
            <Node pos="r" depth="3" NCoef="0" IVar="-1" Cut="0.0000000000000000e+00" cType="1" res="8.4350734949111938e-02" rms="4.9060618877410889e-01" purity="5.6802052259445190e-01" nType="-99"/>
          </Node>
          <Node pos="r" depth="2" NCoef="0" IVar="4" Cut="1.3432530164718628e+00" cType="1" res="-1.3068087399005890e-01" rms="4.5502442121505737e-01" purity="3.0074715614318848e-01" nType="0">
            <Node pos="l" depth="3" NCoef="0" IVar="-1" Cut="0.0000000000000000e+00" cType="1" res="-2.3174452781677246e-01" rms="4.3945086002349854e-01" purity="2.6295486092567444e-01" nType="-99"/>
            <Node pos="r" depth="3" NCoef="0" IVar="-1" Cut="0.0000000000000000e+00" cType="1" res="-1.1658193171024323e-01" rms="4.6458536386489868e-01" purity="3.2859799265861511e-01" nType="-99"/>
          </Node>
        </Node>
        <Node pos="r" depth="1" NCoef="0" IVar="6" Cut="2.2441282272338867e+00" cType="1" res="6.8029828369617462e-02" rms="4.8316192626953125e-01" purity="6.0514843463897705e-01" nType="0">
          <Node pos="l" depth="2" NCoef="0" IVar="2" Cut="2.1723799133300781e+02" cType="1" res="1.1024018377065659e-01" rms="4.7367984056472778e-01" purity="6.4949941635131836e-01" nType="0">
            <Node pos="l" depth="3" NCoef="0" IVar="-1" Cut="0.0000000000000000e+00" cType="1" res="1.3468490540981293e-01" rms="4.6337774395942688e-01" purity="6.8121176958084106e-01" nType="-99"/>
            <Node pos="r" depth="3" NCoef="0" IVar="-1" Cut="0.0000000000000000e+00" cType="1" res="4.6526819467544556e-02" rms="4.8604390025138855e-01" purity="5.9066420793533325e-01" nType="-99"/>
          </Node>
          <Node pos="r" depth="2" NCoef="0" IVar="2" Cut="2.1356741333007812e+02" cType="1" res="-6.4000599086284637e-02" rms="4.8869150876998901e-01" purity="4.6642261743545532e-01" nType="0">
            <Node pos="l" depth="3" NCoef="0" IVar="-1" Cut="0.0000000000000000e+00" cType="1" res="1.8628979101777077e-02" rms="4.9242812395095825e-01" purity="5.6191927194595337e-01" nType="-99"/>
            <Node pos="r" depth="3" NCoef="0" IVar="-1" Cut="0.0000000000000000e+00" cType="1" res="-1.4901971444487572e-03" rms="4.7682207822799683e-01" purity="4.0212056040763855e-01" nType="-99"/>
          </Node>
        </Node>
      </Node>
    </BinaryTree>
    <BinaryTree type="DecisionTree" boostWeight="1.0000000000000000e+00" itree="2">
      <Node pos="s" depth="0" NCoef="0" IVar="8" Cut="1.0042424218750000e+05" cType="1" res="-3.8342247717082500e-03" rms="4.8336854577064514e-01" purity="5.0022923946380615e-01" nType="0">
        <Node pos="l" depth="1" NCoef="0" IVar="8" Cut="3.9392757812500000e+04" cType="1" res="-2.1422255784273148e-02" rms="4.8535022139549255e-01" purity="4.6688100695610046e-01" nType="0">
          <Node pos="l" depth="2" NCoef="0" IVar="8" Cut="3.1187587890625000e+04" cType="1" res="-1.0541035234928131e-01" rms="4.5581987500190735e-01" purity="3.0471861362457275e-01" nType="0">
            <Node pos="l" depth="3" NCoef="0" IVar="-1" Cut="0.0000000000000000e+00" cType="1" res="-6.4470410346984863e-02" rms="4.2212656140327454e-01" purity="2.3145824670791626e-01" nType="-99"/>
            <Node pos="r" depth="3" NCoef="0" IVar="-1" Cut="0.0000000000000000e+00" cType="1" res="-7.1753166615962982e-02" rms="4.6797302365303040e-01" purity="3.3783784508705139e-01" nType="-99"/>
          </Node>
          <Node pos="r" depth="2" NCoef="0" IVar="8" Cut="6.8451476562500000e+04" cType="1" res="-4.0961784543469548e-04" rms="4.9021622538566589e-01" purity="5.0745177268981934e-01" nType="0">
            <Node pos="l" depth="3" NCoef="0" IVar="-1" Cut="0.0000000000000000e+00" cType="1" res="-3.0405067373067141e-03" rms="4.9192157387733459e-01" purity="4.6150350570678711e-01" nType="-99"/>
            <Node pos="r" depth="3" NCoef="0" IVar="-1" Cut="0.0000000000000000e+00" cType="1" res="3.2578319311141968e-02" rms="4.8497521877288818e-01" purity="5.8994030952453613e-01" nType="-99"/>
          </Node>
        </Node>
        <Node pos="r" depth="1" NCoef="0" IVar="6" Cut="-1.3458961248397827e+00" cType="1" res="0.0000000000000000e+00" rms="0.0000000000000000e+00" purity="6.6523832082748413e-01" nType="0">
          <Node pos="l" depth="2" NCoef="0" IVar="-1" Cut="0.0000000000000000e+00" cType="1" res="2.7970783412456512e-02" rms="4.8012581467628479e-01" purity="6.1018413305282593e-01" nType="-99"/>
          <Node pos="r" depth="2" NCoef="0" IVar="5" Cut="-1.6453227996826172e+00" cType="1" res="1.0409194976091385e-01" rms="4.5543828606605530e-01" purity="6.8681699037551880e-01" nType="0">
            <Node pos="l" depth="3" NCoef="0" IVar="-1" Cut="0.0000000000000000e+00" cType="1" res="9.7265727818012238e-02" rms="4.3099033832550049e-01" purity="7.3192512989044189e-01" nType="-99"/>
            <Node pos="r" depth="3" NCoef="0" IVar="-1" Cut="0.0000000000000000e+00" cType="1" res="8.1336483359336853e-02" rms="4.6710744500160217e-01" purity="6.6147011518478394e-01" nType="-99"/>
          </Node>
        </Node>
      </Node>
    </BinaryTree>
    <BinaryTree type="DecisionTree" boostWeight="1.0000000000000000e+00" itree="3">
      <Node pos="s" depth="0" NCoef="0" IVar="4" Cut="3.2555637359619141e+00" cType="1" res="-1.8434294033795595e-03" rms="4.8124220967292786e-01" purity="5.0577723979949951e-01" nType="0">
        <Node pos="l" depth="1" NCoef="0" IVar="8" Cut="5.8406152343750000e+04" cType="1" res="5.0312583334743977e-03" rms="4.8063814640045166e-01" purity="5.1217490434646606e-01" nType="0">
          <Node pos="l" depth="2" NCoef="0" IVar="9" Cut="2.9745009765625000e+04" cType="1" res="-2.5768609717488289e-02" rms="4.7934386134147644e-01" purity="4.0888881683349609e-01" nType="0">
            <Node pos="l" depth="3" NCoef="0" IVar="-1" Cut="0.0000000000000000e+00" cType="1" res="-5.8732200413942337e-02" rms="4.5457699894905090e-01" purity="3.0613392591476440e-01" nType="-99"/>
            <Node pos="r" depth="3" NCoef="0" IVar="-1" Cut="0.0000000000000000e+00" cType="1" res="-2.4024366866797209e-03" rms="4.9090313911437988e-01" purity="4.6550491452217102e-01" nType="-99"/>
          </Node>
          <Node pos="r" depth="2" NCoef="0" IVar="0" Cut="2.4166362500000000e+05" cType="1" res="3.1558103859424591e-02" rms="4.8016914725303650e-01" purity="6.0113155841827393e-01" nType="0">
            <Node pos="l" depth="3" NCoef="0" IVar="-1" Cut="0.0000000000000000e+00" cType="1" res="1.8895657733082771e-02" rms="4.8484650254249573e-01" purity="5.8571064472198486e-01" nType="-99"/>
            <Node pos="r" depth="3" NCoef="0" IVar="-1" Cut="0.0000000000000000e+00" cType="1" res="1.2856437265872955e-01" rms="4.4014802575111389e-01" purity="7.0632559061050415e-01" nType="-99"/>
          </Node>
        </Node>
        <Node pos="r" depth="1" NCoef="0" IVar="-1" Cut="0.0000000000000000e+00" cType="1" res="-5.4122529923915863e-02" rms="4.7749668359756470e-01" purity="4.0320307016372681e-01" nType="-99"/>
      </Node>
    </BinaryTree>
    <BinaryTree type="DecisionTree" boostWeight="1.0000000000000000e+00" itree="4">
      <Node pos="s" depth="0" NCoef="0" IVar="1" Cut="2.4686928125000000e+05" cType="1" res="-1.3741659000515938e-02" rms="4.7788202762603760e-01" purity="4.9389165639877319e-01" nType="0">
        <Node pos="l" depth="1" NCoef="0" IVar="9" Cut="4.5680769531250000e+04" cType="1" res="0.0000000000000000e+00" rms="0.0000000000000000e+00" purity="5.0864177942276001e-01" nType="0">
          <Node pos="l" depth="2" NCoef="0" IVar="3" Cut="1.9189136028289795e+00" cType="1" res="-2.8550824150443077e-02" rms="4.8183071613311768e-01" purity="4.1920030117034912e-01" nType="0">
            <Node pos="l" depth="3" NCoef="0" IVar="-1" Cut="0.0000000000000000e+00" cType="1" res="-9.0643567964434624e-03" rms="4.7780525684356689e-01" purity="3.6582121253013611e-01" nType="-99"/>
            <Node pos="r" depth="3" NCoef="0" IVar="-1" Cut="0.0000000000000000e+00" cType="1" res="-3.1515141017735004e-03" rms="4.8173928260803223e-01" purity="4.4049647450447083e-01" nType="-99"/>
          </Node>
          <Node pos="r" depth="2" NCoef="0" IVar="3" Cut="1.6231706142425537e+00" cType="1" res="2.8408879414200783e-02" rms="4.7267296910285950e-01" purity="6.3750022649765015e-01" nType="0">
            <Node pos="l" depth="3" NCoef="0" IVar="-1" Cut="0.0000000000000000e+00" cType="1" res="-5.8535039424896240e-02" rms="4.9481159448623657e-01" purity="5.2126228809356689e-01" nType="-99"/>
            <Node pos="r" depth="3" NCoef="0" IVar="-1" Cut="0.0000000000000000e+00" cType="1" res="5.0407428294420242e-02" rms="4.6449041366577148e-01" purity="6.6512805223464966e-01" nType="-99"/>
          </Node>
        </Node>
        <Node pos="r" depth="1" NCoef="0" IVar="2" Cut="2.0411471557617188e+02" cType="1" res="-9.8077014088630676e-02" rms="4.5904341340065002e-01" purity="3.4802916646003723e-01" nType="0">
          <Node pos="l" depth="2" NCoef="0" IVar="-1" Cut="0.0000000000000000e+00" cType="1" res="-1.0101242363452911e-01" rms="4.6185481548309326e-01" purity="3.5267674922943115e-01" nType="-99"/>
          <Node pos="r" depth="2" NCoef="0" IVar="-1" Cut="0.0000000000000000e+00" cType="1" res="-1.5167200565338135e-01" rms="4.5530360937118530e-01" purity="3.4302085638046265e-01" nType="-99"/>
        </Node>
      </Node>
    </BinaryTree>
    <BinaryTree type="DecisionTree" boostWeight="1.0000000000000000e+00" itree="5">
      <Node pos="s" depth="0" NCoef="0" IVar="4" Cut="3.2590503692626953e+00" cType="1" res="0.0000000000000000e+00" rms="0.0000000000000000e+00" purity="5.0204634666442871e-01" nType="0">
        <Node pos="l" depth="1" NCoef="0" IVar="4" Cut="1.1409680843353271e+00" cType="1" res="2.7124597690999508e-03" rms="4.7789633274078369e-01" purity="5.1061898469924927e-01" nType="0">
          <Node pos="l" depth="2" NCoef="0" IVar="8" Cut="1.1284712500000000e+05" cType="1" res="0.0000000000000000e+00" rms="0.0000000000000000e+00" purity="4.6825367212295532e-01" nType="0">
            <Node pos="l" depth="3" NCoef="0" IVar="-1" Cut="0.0000000000000000e+00" cType="1" res="-2.3881994187831879e-02" rms="4.7345438599586487e-01" purity="4.2362889647483826e-01" nType="-99"/>
            <Node pos="r" depth="3" NCoef="0" IVar="-1" Cut="0.0000000000000000e+00" cType="1" res="4.1171800345182419e-02" rms="4.5957407355308533e-01" purity="6.7788153886795044e-01" nType="-99"/>
          </Node>
          <Node pos="r" depth="2" NCoef="0" IVar="2" Cut="1.9653382873535156e+02" cType="1" res="1.5828516334295273e-02" rms="4.7925356030464172e-01" purity="5.2604901790618896e-01" nType="0">
            <Node pos="l" depth="3" NCoef="0" IVar="-1" Cut="0.0000000000000000e+00" cType="1" res="2.4013904854655266e-02" rms="4.7605577111244202e-01" purity="5.4361653327941895e-01" nType="-99"/>
            <Node pos="r" depth="3" NCoef="0" IVar="-1" Cut="0.0000000000000000e+00" cType="1" res="-8.8598672300577164e-03" rms="4.8229932785034180e-01" purity="5.0268322229385376e-01" nType="-99"/>
          </Node>
        </Node>
        <Node pos="r" depth="1" NCoef="0" IVar="-1" Cut="0.0000000000000000e+00" cType="1" res="-2.6531949639320374e-02" rms="4.7097030282020569e-01" purity="3.6627152562141418e-01" nType="-99"/>
      </Node>
    </BinaryTree>
    <BinaryTree type="DecisionTree" boostWeight="1.0000000000000000e+00" itree="6">
      <Node pos="s" depth="0" NCoef="0" IVar="4" Cut="1.1468667984008789e+00" cType="1" res="-5.1442058756947517e-03" rms="4.7791180014610291e-01" purity="5.0167709589004517e-01" nType="0">
        <Node pos="l" depth="1" NCoef="0" IVar="8" Cut="5.3295949218750000e+04" cType="1" res="-4.6799510717391968e-02" rms="4.6758550405502319e-01" purity="4.4214439392089844e-01" nType="0">
          <Node pos="l" depth="2" NCoef="0" IVar="9" Cut="2.8967041015625000e+04" cType="1" res="-9.4358086585998535e-02" rms="4.3945449590682983e-01" purity="2.7093183994293213e-01" nType="0">
            <Node pos="l" depth="3" NCoef="0" IVar="-1" Cut="0.0000000000000000e+00" cType="1" res="-6.5160491503775120e-03" rms="3.8187292218208313e-01" purity="1.6909524798393250e-01" nType="-99"/>
            <Node pos="r" depth="3" NCoef="0" IVar="-1" Cut="0.0000000000000000e+00" cType="1" res="-6.3343189656734467e-02" rms="4.7601461410522461e-01" purity="3.5407075285911560e-01" nType="-99"/>
          </Node>
          <Node pos="r" depth="2" NCoef="0" IVar="6" Cut="-1.6447997093200684e+00" cType="1" res="0.0000000000000000e+00" rms="0.0000000000000000e+00" purity="5.4630792140960693e-01" nType="0">
            <Node pos="l" depth="3" NCoef="0" IVar="-1" Cut="0.0000000000000000e+00" cType="1" res="-5.5856287479400635e-02" rms="4.8481860756874084e-01" purity="4.8988106846809387e-01" nType="-99"/>
            <Node pos="r" depth="3" NCoef="0" IVar="-1" Cut="0.0000000000000000e+00" cType="1" res="-4.0635120240040123e-04" rms="4.7923716902732849e-01" purity="5.6690692901611328e-01" nType="-99"/>
          </Node>
        </Node>
        <Node pos="r" depth="1" NCoef="0" IVar="4" Cut="3.2873110771179199e+00" cType="1" res="9.3962969258427620e-03" rms="4.8061490058898926e-01" purity="5.2245795726776123e-01" nType="0">
          <Node pos="l" depth="2" NCoef="0" IVar="8" Cut="5.8754046875000000e+04" cType="1" res="1.7297985032200813e-02" rms="4.7996604442596436e-01" purity="5.3272509574890137e-01" nType="0">
            <Node pos="l" depth="3" NCoef="0" IVar="-1" Cut="0.0000000000000000e+00" cType="1" res="-6.8608083529397845e-04" rms="4.8606896400451660e-01" purity="4.3201664090156555e-01" nType="-99"/>
            <Node pos="r" depth="3" NCoef="0" IVar="-1" Cut="0.0000000000000000e+00" cType="1" res="3.3383719623088837e-02" rms="4.7343203425407410e-01" purity="6.2863636016845703e-01" nType="-99"/>
          </Node>
          <Node pos="r" depth="2" NCoef="0" IVar="-1" Cut="0.0000000000000000e+00" cType="1" res="-3.7194419652223587e-02" rms="4.7682851552963257e-01" purity="3.8553482294082642e-01" nType="-99"/>
        </Node>
      </Node>
    </BinaryTree>
    <BinaryTree type="DecisionTree" boostWeight="1.0000000000000000e+00" itree="7">
      <Node pos="s" depth="0" NCoef="0" IVar="2" Cut="2.1755102539062500e+02" cType="1" res="-9.5840813592076302e-03" rms="4.7770935297012329e-01" purity="5.0029247999191284e-01" nType="0">
        <Node pos="l" depth="1" NCoef="0" IVar="2" Cut="1.8826913452148438e+02" cType="1" res="2.6997551321983337e-03" rms="4.7713774442672729e-01" purity="5.1454031467437744e-01" nType="0">
          <Node pos="l" depth="2" NCoef="0" IVar="5" Cut="-2.5428869724273682e+00" cType="1" res="1.6329741105437279e-02" rms="4.7567310929298401e-01" purity="5.2939260005950928e-01" nType="0">
            <Node pos="l" depth="3" NCoef="0" IVar="-1" Cut="0.0000000000000000e+00" cType="1" res="6.1245828866958618e-02" rms="4.6335992217063904e-01" purity="6.0495322942733765e-01" nType="-99"/>
            <Node pos="r" depth="3" NCoef="0" IVar="-1" Cut="0.0000000000000000e+00" cType="1" res="8.9605273678898811e-03" rms="4.7742551565170288e-01" purity="5.1614946126937866e-01" nType="-99"/>
          </Node>
          <Node pos="r" depth="2" NCoef="0" IVar="5" Cut="1.6446170806884766e+00" cType="1" res="-4.4119305908679962e-02" rms="4.7919085621833801e-01" purity="4.6352270245552063e-01" nType="0">
            <Node pos="l" depth="3" NCoef="0" IVar="-1" Cut="0.0000000000000000e+00" cType="1" res="-3.9746936410665512e-02" rms="4.7381260991096497e-01" purity="4.4445031881332397e-01" nType="-99"/>
            <Node pos="r" depth="3" NCoef="0" IVar="-1" Cut="0.0000000000000000e+00" cType="1" res="-1.2402070686221123e-02" rms="4.8981434106826782e-01" purity="5.0749170780181885e-01" nType="-99"/>
          </Node>
        </Node>
        <Node pos="r" depth="1" NCoef="0" IVar="7" Cut="6.0000000000000000e+00" cType="1" res="-3.1687580049037933e-02" rms="4.7791412472724915e-01" purity="4.7459846735000610e-01" nType="0">
          <Node pos="l" depth="2" NCoef="0" IVar="8" Cut="1.0465728906250000e+05" cType="1" res="-1.6736028715968132e-02" rms="4.7894170880317688e-01" purity="4.7690966725349426e-01" nType="0">
            <Node pos="l" depth="3" NCoef="0" IVar="-1" Cut="0.0000000000000000e+00" cType="1" res="-2.7030205354094505e-02" rms="4.8020574450492859e-01" purity="4.4163760542869568e-01" nType="-99"/>
            <Node pos="r" depth="3" NCoef="0" IVar="-1" Cut="0.0000000000000000e+00" cType="1" res="4.9580883234739304e-02" rms="4.6805351972579956e-01" purity="6.5202653408050537e-01" nType="-99"/>
          </Node>
          <Node pos="r" depth="2" NCoef="0" IVar="-1" Cut="0.0000000000000000e+00" cType="1" res="-2.3894447367638350e-03" rms="4.6170550584793091e-01" purity="4.6069529652595520e-01" nType="-99"/>
        </Node>
      </Node>
    </BinaryTree>
    <BinaryTree type="DecisionTree" boostWeight="1.0000000000000000e+00" itree="8">
      <Node pos="s" depth="0" NCoef="0" IVar="3" Cut="-4.7924369573593140e-01" cType="1" res="-1.1930455453693867e-02" rms="4.7644224762916565e-01" purity="4.9593120813369751e-01" nType="0">
        <Node pos="l" depth="1" NCoef="0" IVar="-1" Cut="0.0000000000000000e+00" cType="1" res="-1.2716787867248058e-02" rms="4.7962242364883423e-01" purity="3.8444995880126953e-01" nType="-99"/>
        <Node pos="r" depth="1" NCoef="0" IVar="4" Cut="3.2565276622772217e+00" cType="1" res="-3.6460787523537874e-03" rms="4.7535565495491028e-01" purity="5.0790309906005859e-01" nType="0">
          <Node pos="l" depth="2" NCoef="0" IVar="4" Cut="1.8960267305374146e+00" cType="1" res="1.6073833685368299e-03" rms="4.7544136643409729e-01" purity="5.1608139276504517e-01" nType="0">
            <Node pos="l" depth="3" NCoef="0" IVar="-1" Cut="0.0000000000000000e+00" cType="1" res="-9.2177242040634155e-03" rms="4.7204905748367310e-01" purity="4.7768417000770569e-01" nType="-99"/>
            <Node pos="r" depth="3" NCoef="0" IVar="-1" Cut="0.0000000000000000e+00" cType="1" res="2.6116412132978439e-02" rms="4.7828391194343567e-01" purity="5.6130969524383545e-01" nType="-99"/>
          </Node>
          <Node pos="r" depth="2" NCoef="0" IVar="-1" Cut="0.0000000000000000e+00" cType="1" res="-2.9917165637016296e-02" rms="4.6484652161598206e-01" purity="3.6848357319831848e-01" nType="-99"/>
        </Node>
      </Node>
    </BinaryTree>
    <BinaryTree type="DecisionTree" boostWeight="1.0000000000000000e+00" itree="9">
      <Node pos="s" depth="0" NCoef="0" IVar="0" Cut="2.1606589062500000e+05" cType="1" res="-1.6314575448632240e-02" rms="4.7341370582580566e-01" purity="4.9470332264900208e-01" nType="0">
        <Node pos="l" depth="1" NCoef="0" IVar="0" Cut="1.4745237500000000e+05" cType="1" res="-2.4221006780862808e-02" rms="4.7686684131622314e-01" purity="4.7587537765502930e-01" nType="0">
          <Node pos="l" depth="2" NCoef="0" IVar="3" Cut="1.2932764291763306e+00" cType="1" res="-5.1484864205121994e-02" rms="4.8042759299278259e-01" purity="4.3963247537612915e-01" nType="0">
            <Node pos="l" depth="3" NCoef="0" IVar="-1" Cut="0.0000000000000000e+00" cType="1" res="-1.7665492370724678e-02" rms="4.8001554608345032e-01" purity="3.8724949955940247e-01" nType="-99"/>
            <Node pos="r" depth="3" NCoef="0" IVar="-1" Cut="0.0000000000000000e+00" cType="1" res="-1.1709968559443951e-02" rms="4.7943028807640076e-01" purity="4.6371668577194214e-01" nType="-99"/>
          </Node>
          <Node pos="r" depth="2" NCoef="0" IVar="3" Cut="9.6892690658569336e+00" cType="1" res="6.6247833892703056e-03" rms="4.7090661525726318e-01" purity="5.1687991619110107e-01" nType="0">
            <Node pos="l" depth="3" NCoef="0" IVar="-1" Cut="0.0000000000000000e+00" cType="1" res="1.6227889806032181e-02" rms="4.7226351499557495e-01" purity="5.3251761198043823e-01" nType="-99"/>
            <Node pos="r" depth="3" NCoef="0" IVar="-1" Cut="0.0000000000000000e+00" cType="1" res="-2.7355315163731575e-02" rms="4.5251181721687317e-01" purity="3.7938371300697327e-01" nType="-99"/>
          </Node>
        </Node>
        <Node pos="r" depth="1" NCoef="0" IVar="4" Cut="1.2959982156753540e+00" cType="1" res="0.0000000000000000e+00" rms="0.0000000000000000e+00" purity="6.1227637529373169e-01" nType="0">
          <Node pos="l" depth="2" NCoef="0" IVar="-1" Cut="0.0000000000000000e+00" cType="1" res="-3.7651754915714264e-02" rms="4.5714208483695984e-01" purity="5.0680482387542725e-01" nType="-99"/>
          <Node pos="r" depth="2" NCoef="0" IVar="6" Cut="1.4952011406421661e-01" cType="1" res="6.2750212848186493e-02" rms="4.4039353728294373e-01" purity="6.6766023635864258e-01" nType="0">
            <Node pos="l" depth="3" NCoef="0" IVar="-1" Cut="0.0000000000000000e+00" cType="1" res="7.8737683594226837e-02" rms="4.4176521897315979e-01" purity="6.6121697425842285e-01" nType="-99"/>
            <Node pos="r" depth="3" NCoef="0" IVar="-1" Cut="0.0000000000000000e+00" cType="1" res="8.8940769433975220e-02" rms="4.3892121315002441e-01" purity="6.7371249198913574e-01" nType="-99"/>
          </Node>
        </Node>
      </Node>
    </BinaryTree>
    <BinaryTree type="DecisionTree" boostWeight="1.0000000000000000e+00" itree="10">
      <Node pos="s" depth="0" NCoef="0" IVar="3" Cut="-9.7690427303314209e-01" cType="1" res="-7.7025089412927628e-03" rms="4.7791954874992371e-01" purity="5.0384676456451416e-01" nType="0">
        <Node pos="l" depth="1" NCoef="0" IVar="-1" Cut="0.0000000000000000e+00" cType="1" res="-8.3650480955839157e-03" rms="4.8478555679321289e-01" purity="3.9703157544136047e-01" nType="-99"/>
        <Node pos="r" depth="1" NCoef="0" IVar="4" Cut="3.1678779125213623e+00" cType="1" res="-2.4504913017153740e-03" rms="4.7694510221481323e-01" purity="5.1350969076156616e-01" nType="0">
          <Node pos="l" depth="2" NCoef="0" IVar="3" Cut="5.0589718818664551e+00" cType="1" res="0.0000000000000000e+00" rms="0.0000000000000000e+00" purity="5.2068036794662476e-01" nType="0">
            <Node pos="l" depth="3" NCoef="0" IVar="-1" Cut="0.0000000000000000e+00" cType="1" res="1.2592603452503681e-02" rms="4.8455029726028442e-01" purity="5.2937781810760498e-01" nType="-99"/>
            <Node pos="r" depth="3" NCoef="0" IVar="-1" Cut="0.0000000000000000e+00" cType="1" res="-9.0736253187060356e-03" rms="4.6767088770866394e-01" purity="5.1115930080413818e-01" nType="-99"/>
          </Node>
          <Node pos="r" depth="2" NCoef="0" IVar="-1" Cut="0.0000000000000000e+00" cType="1" res="-2.3234950378537178e-02" rms="4.7672641277313232e-01" purity="4.2675536870956421e-01" nType="-99"/>
        </Node>
      </Node>
    </BinaryTree>
    <BinaryTree type="DecisionTree" boostWeight="1.0000000000000000e+00" itree="11">
      <Node pos="s" depth="0" NCoef="0" IVar="7" Cut="7.0000000000000000e+00" cType="1" res="0.0000000000000000e+00" rms="0.0000000000000000e+00" purity="4.9240350723266602e-01" nType="0">
        <Node pos="l" depth="1" NCoef="0" IVar="0" Cut="2.1692687500000000e+05" cType="1" res="-1.3897250406444073e-02" rms="4.7688007354736328e-01" purity="4.8305693268775940e-01" nType="0">
          <Node pos="l" depth="2" NCoef="0" IVar="3" Cut="8.8818633556365967e-01" cType="1" res="-1.9770419225096703e-02" rms="4.7940376400947571e-01" purity="4.6647238731384277e-01" nType="0">
            <Node pos="l" depth="3" NCoef="0" IVar="-1" Cut="0.0000000000000000e+00" cType="1" res="-3.0343096703290939e-02" rms="4.8171117901802063e-01" purity="4.0333163738250732e-01" nType="-99"/>
            <Node pos="r" depth="3" NCoef="0" IVar="-1" Cut="0.0000000000000000e+00" cType="1" res="-8.7139951065182686e-03" rms="4.7841244935989380e-01" purity="4.8107960820198059e-01" nType="-99"/>
          </Node>
          <Node pos="r" depth="2" NCoef="0" IVar="4" Cut="1.9501239061355591e+00" cType="1" res="2.6043999940156937e-02" rms="4.5735353231430054e-01" purity="5.9584230184555054e-01" nType="0">
            <Node pos="l" depth="3" NCoef="0" IVar="-1" Cut="0.0000000000000000e+00" cType="1" res="7.0009678602218628e-02" rms="4.5410320162773132e-01" purity="5.7286673784255981e-01" nType="-99"/>
            <Node pos="r" depth="3" NCoef="0" IVar="-1" Cut="0.0000000000000000e+00" cType="1" res="4.3878294527530670e-03" rms="4.6016725897789001e-01" purity="6.2306928634643555e-01" nType="-99"/>
          </Node>
        </Node>
        <Node pos="r" depth="1" NCoef="0" IVar="3" Cut="4.6883645057678223e+00" cType="1" res="-6.2118999660015106e-02" rms="4.6861636638641357e-01" purity="5.6782281398773193e-01" nType="0">
          <Node pos="l" depth="2" NCoef="0" IVar="-1" Cut="0.0000000000000000e+00" cType="1" res="-2.8484123758971691e-03" rms="4.7464054822921753e-01" purity="4.7726258635520935e-01" nType="-99"/>
          <Node pos="r" depth="2" NCoef="0" IVar="-1" Cut="0.0000000000000000e+00" cType="1" res="1.2055945582687855e-02" rms="4.5110124349594116e-01" purity="6.8141639232635498e-01" nType="-99"/>
        </Node>
      </Node>
    </BinaryTree>
    <BinaryTree type="DecisionTree" boostWeight="1.0000000000000000e+00" itree="12">
      <Node pos="s" depth="0" NCoef="0" IVar="6" Cut="-1.6455661058425903e+00" cType="1" res="-6.7076911218464375e-03" rms="4.7438120841979980e-01" purity="5.0378471612930298e-01" nType="0">
        <Node pos="l" depth="1" NCoef="0" IVar="5" Cut="1.3464223146438599e+00" cType="1" res="-2.4653537198901176e-02" rms="4.8119452595710754e-01" purity="4.7260800004005432e-01" nType="0">
          <Node pos="l" depth="2" NCoef="0" IVar="5" Cut="-5.7686221599578857e-01" cType="1" res="0.0000000000000000e+00" rms="0.0000000000000000e+00" purity="4.5466354489326477e-01" nType="0">
            <Node pos="l" depth="3" NCoef="0" IVar="-1" Cut="0.0000000000000000e+00" cType="1" res="-1.8163880333304405e-02" rms="4.8322153091430664e-01" purity="4.6828153729438782e-01" nType="-99"/>
            <Node pos="r" depth="3" NCoef="0" IVar="-1" Cut="0.0000000000000000e+00" cType="1" res="-8.3590015769004822e-02" rms="4.7662785649299622e-01" purity="3.9038470387458801e-01" nType="-99"/>
          </Node>
          <Node pos="r" depth="2" NCoef="0" IVar="-1" Cut="0.0000000000000000e+00" cType="1" res="6.9686160422861576e-03" rms="4.7085016965866089e-01" purity="5.9667152166366577e-01" nType="-99"/>
        </Node>
        <Node pos="r" depth="1" NCoef="0" IVar="6" Cut="1.5460659265518188e+00" cType="1" res="0.0000000000000000e+00" rms="0.0000000000000000e+00" purity="5.1955068111419678e-01" nType="0">
          <Node pos="l" depth="2" NCoef="0" IVar="7" Cut="5.0000000000000000e+00" cType="1" res="2.5172702968120575e-02" rms="4.5917654037475586e-01" purity="5.7235467433929443e-01" nType="0">
            <Node pos="l" depth="3" NCoef="0" IVar="-1" Cut="0.0000000000000000e+00" cType="1" res="-3.3627171069383621e-02" rms="4.6275991201400757e-01" purity="3.6931717395782471e-01" nType="-99"/>
            <Node pos="r" depth="3" NCoef="0" IVar="-1" Cut="0.0000000000000000e+00" cType="1" res="5.1977220922708511e-02" rms="4.5555093884468079e-01" purity="6.4511334896087646e-01" nType="-99"/>
          </Node>
          <Node pos="r" depth="2" NCoef="0" IVar="6" Cut="2.9896569252014160e+00" cType="1" res="-1.7757739871740341e-02" rms="4.7962239384651184e-01" purity="4.7293129563331604e-01" nType="0">
            <Node pos="l" depth="3" NCoef="0" IVar="-1" Cut="0.0000000000000000e+00" cType="1" res="-1.2233845889568329e-02" rms="4.7740787267684937e-01" purity="4.6770545840263367e-01" nType="-99"/>
            <Node pos="r" depth="3" NCoef="0" IVar="-1" Cut="0.0000000000000000e+00" cType="1" res="3.1145812943577766e-02" rms="4.9017295241355896e-01" purity="5.0367146730422974e-01" nType="-99"/>
          </Node>
        </Node>
      </Node>
    </BinaryTree>
    <BinaryTree type="DecisionTree" boostWeight="1.0000000000000000e+00" itree="13">
      <Node pos="s" depth="0" NCoef="0" IVar="3" Cut="-5.0363677740097046e-01" cType="1" res="-6.6737993620336056e-03" rms="4.7429323196411133e-01" purity="5.0313419103622437e-01" nType="0">
        <Node pos="l" depth="1" NCoef="0" IVar="-1" Cut="0.0000000000000000e+00" cType="1" res="-1.0823838412761688e-02" rms="4.7347384691238403e-01" purity="3.6822703480720520e-01" nType="-99"/>
        <Node pos="r" depth="1" NCoef="0" IVar="1" Cut="2.4550084375000000e+05" cType="1" res="8.9377281256020069e-04" rms="4.7374579310417175e-01" purity="5.1734733581542969e-01" nType="0">
          <Node pos="l" depth="2" NCoef="0" IVar="1" Cut="1.2597535937500000e+05" cType="1" res="0.0000000000000000e+00" rms="0.0000000000000000e+00" purity="5.3347343206405640e-01" nType="0">
            <Node pos="l" depth="3" NCoef="0" IVar="-1" Cut="0.0000000000000000e+00" cType="1" res="-2.8185956180095673e-02" rms="4.8897701501846313e-01" purity="5.1145267486572266e-01" nType="-99"/>
            <Node pos="r" depth="3" NCoef="0" IVar="-1" Cut="0.0000000000000000e+00" cType="1" res="1.0379979386925697e-02" rms="4.7222399711608887e-01" purity="5.3717350959777832e-01" nType="-99"/>
          </Node>
          <Node pos="r" depth="2" NCoef="0" IVar="4" Cut="1.5933080911636353e+00" cType="1" res="-3.4722190350294113e-02" rms="4.6177607774734497e-01" purity="3.7002274394035339e-01" nType="0">
            <Node pos="l" depth="3" NCoef="0" IVar="-1" Cut="0.0000000000000000e+00" cType="1" res="-1.4983466826379299e-02" rms="4.6332275867462158e-01" purity="3.7189850211143494e-01" nType="-99"/>
            <Node pos="r" depth="3" NCoef="0" IVar="-1" Cut="0.0000000000000000e+00" cType="1" res="-9.0644620358943939e-02" rms="4.5829695463180542e-01" purity="3.6783024668693542e-01" nType="-99"/>
          </Node>
        </Node>
      </Node>
    </BinaryTree>
    <BinaryTree type="DecisionTree" boostWeight="1.0000000000000000e+00" itree="14">
      <Node pos="s" depth="0" NCoef="0" IVar="8" Cut="9.1777796875000000e+04" cType="1" res="-9.8540242761373520e-03" rms="4.7299084067344666e-01" purity="4.9851208925247192e-01" nType="0">
        <Node pos="l" depth="1" NCoef="0" IVar="4" Cut="3.2671926021575928e+00" cType="1" res="-1.5084129758179188e-02" rms="4.7694227099418640e-01" purity="4.5460438728332520e-01" nType="0">
          <Node pos="l" depth="2" NCoef="0" IVar="8" Cut="3.4567824218750000e+04" cType="1" res="-1.0768811218440533e-02" rms="4.7772023081779480e-01" purity="4.6273964643478394e-01" nType="0">
            <Node pos="l" depth="3" NCoef="0" IVar="-1" Cut="0.0000000000000000e+00" cType="1" res="-1.8483312800526619e-02" rms="4.4002592563629150e-01" purity="2.7219316363334656e-01" nType="-99"/>
            <Node pos="r" depth="3" NCoef="0" IVar="-1" Cut="0.0000000000000000e+00" cType="1" res="-2.4896892718970776e-03" rms="4.8263970017433167e-01" purity="4.9044570326805115e-01" nType="-99"/>
          </Node>
          <Node pos="r" depth="2" NCoef="0" IVar="-1" Cut="0.0000000000000000e+00" cType="1" res="-2.0696744322776794e-02" rms="4.5894032716751099e-01" purity="3.2504478096961975e-01" nType="-99"/>
        </Node>
        <Node pos="r" depth="1" NCoef="0" IVar="7" Cut="7.0000000000000000e+00" cType="1" res="1.0217309929430485e-02" rms="4.5695462822914124e-01" purity="6.6701370477676392e-01" nType="0">
          <Node pos="l" depth="2" NCoef="0" IVar="7" Cut="5.0000000000000000e+00" cType="1" res="2.6500036939978600e-02" rms="4.5464390516281128e-01" purity="6.6816049814224243e-01" nType="0">
            <Node pos="l" depth="3" NCoef="0" IVar="-1" Cut="0.0000000000000000e+00" cType="1" res="5.1466904580593109e-02" rms="4.6823099255561829e-01" purity="6.3958585262298584e-01" nType="-99"/>
            <Node pos="r" depth="3" NCoef="0" IVar="-1" Cut="0.0000000000000000e+00" cType="1" res="1.8822204321622849e-02" rms="4.5066708326339722e-01" purity="6.7921543121337891e-01" nType="-99"/>
          </Node>
          <Node pos="r" depth="2" NCoef="0" IVar="-1" Cut="0.0000000000000000e+00" cType="1" res="-4.4557023793458939e-02" rms="4.5671749114990234e-01" purity="6.6357839107513428e-01" nType="-99"/>
        </Node>
      </Node>
    </BinaryTree>
    <BinaryTree type="DecisionTree" boostWeight="1.0000000000000000e+00" itree="15">
      <Node pos="s" depth="0" NCoef="0" IVar="0" Cut="2.5418370312500000e+05" cType="1" res="-5.6629865430295467e-03" rms="4.7321647405624390e-01" purity="5.0217097997665405e-01" nType="0">
        <Node pos="l" depth="1" NCoef="0" IVar="0" Cut="1.3277954687500000e+05" cType="1" res="-8.6032822728157043e-03" rms="4.7635036706924438e-01" purity="4.8890519142150879e-01" nType="0">
          <Node pos="l" depth="2" NCoef="0" IVar="1" Cut="1.7942289062500000e+05" cType="1" res="-4.1417174041271210e-02" rms="4.8260793089866638e-01" purity="4.3333238363265991e-01" nType="0">
            <Node pos="l" depth="3" NCoef="0" IVar="-1" Cut="0.0000000000000000e+00" cType="1" res="-1.7178894951939583e-02" rms="4.8247051239013672e-01" purity="4.3277117609977722e-01" nType="-99"/>
            <Node pos="r" depth="3" NCoef="0" IVar="-1" Cut="0.0000000000000000e+00" cType="1" res="1.8321229144930840e-02" rms="4.7923862934112549e-01" purity="4.3572604656219482e-01" nType="-99"/>
          </Node>
          <Node pos="r" depth="2" NCoef="0" IVar="1" Cut="1.5807593750000000e+05" cType="1" res="3.3282688818871975e-03" rms="4.7349113225936890e-01" purity="5.0911217927932739e-01" nType="0">
            <Node pos="l" depth="3" NCoef="0" IVar="-1" Cut="0.0000000000000000e+00" cType="1" res="2.1207798272371292e-02" rms="4.7915208339691162e-01" purity="5.6177949905395508e-01" nType="-99"/>
            <Node pos="r" depth="3" NCoef="0" IVar="-1" Cut="0.0000000000000000e+00" cType="1" res="-2.4371132254600525e-02" rms="4.6513539552688599e-01" purity="4.4356995820999146e-01" nType="-99"/>
          </Node>
        </Node>
        <Node pos="r" depth="1" NCoef="0" IVar="-1" Cut="0.0000000000000000e+00" cType="1" res="3.7090089172124863e-02" rms="4.3282654881477356e-01" purity="6.5943217277526855e-01" nType="-99"/>
      </Node>
    </BinaryTree>
    <BinaryTree type="DecisionTree" boostWeight="1.0000000000000000e+00" itree="16">
      <Node pos="s" depth="0" NCoef="0" IVar="7" Cut="7.0000000000000000e+00" cType="1" res="0.0000000000000000e+00" rms="0.0000000000000000e+00" purity="5.0186985731124878e-01" nType="0">
        <Node pos="l" depth="1" NCoef="0" IVar="4" Cut="3.1938369274139404e+00" cType="1" res="-2.0002300152555108e-04" rms="4.7378671169281006e-01" purity="4.9205446243286133e-01" nType="0">
          <Node pos="l" depth="2" NCoef="0" IVar="9" Cut="8.7041242187500000e+04" cType="1" res="3.6747688427567482e-03" rms="4.7388935089111328e-01" purity="5.0035202503204346e-01" nType="0">
            <Node pos="l" depth="3" NCoef="0" IVar="-1" Cut="0.0000000000000000e+00" cType="1" res="9.0085272677242756e-04" rms="4.7638499736785889e-01" purity="4.8507118225097656e-01" nType="-99"/>
            <Node pos="r" depth="3" NCoef="0" IVar="-1" Cut="0.0000000000000000e+00" cType="1" res="4.8468094319105148e-02" rms="4.2950183153152466e-01" purity="7.4826788902282715e-01" nType="-99"/>
          </Node>
          <Node pos="r" depth="2" NCoef="0" IVar="-1" Cut="0.0000000000000000e+00" cType="1" res="-1.8589766696095467e-02" rms="4.6966123580932617e-01" purity="3.8592737913131714e-01" nType="-99"/>
        </Node>
        <Node pos="r" depth="1" NCoef="0" IVar="2" Cut="1.7165176391601562e+02" cType="1" res="-4.8889681696891785e-02" rms="4.5956444740295410e-01" purity="5.7797616720199585e-01" nType="0">
          <Node pos="l" depth="2" NCoef="0" IVar="-1" Cut="0.0000000000000000e+00" cType="1" res="2.6984270662069321e-02" rms="4.5758593082427979e-01" purity="6.6541796922683716e-01" nType="-99"/>
          <Node pos="r" depth="2" NCoef="0" IVar="-1" Cut="0.0000000000000000e+00" cType="1" res="-2.6237957645207644e-03" rms="4.5328748226165771e-01" purity="5.0874024629592896e-01" nType="-99"/>
        </Node>
      </Node>
    </BinaryTree>
    <BinaryTree type="DecisionTree" boostWeight="1.0000000000000000e+00" itree="17">
      <Node pos="s" depth="0" NCoef="0" IVar="7" Cut="7.0000000000000000e+00" cType="1" res="-1.7467973753809929e-02" rms="4.7217559814453125e-01" purity="4.8995262384414673e-01" nType="0">
        <Node pos="l" depth="1" NCoef="0" IVar="7" Cut="6.0000000000000000e+00" cType="1" res="-2.1910753566771746e-03" rms="4.7333133220672607e-01" purity="4.9029520153999329e-01" nType="0">
          <Node pos="l" depth="2" NCoef="0" IVar="2" Cut="4.2403292846679688e+02" cType="1" res="3.8977116346359253e-03" rms="4.7380593419075012e-01" purity="4.7431293129920959e-01" nType="0">
            <Node pos="l" depth="3" NCoef="0" IVar="-1" Cut="0.0000000000000000e+00" cType="1" res="7.7455228893086314e-04" rms="4.7429749369621277e-01" purity="4.6207538247108459e-01" nType="-99"/>
            <Node pos="r" depth="3" NCoef="0" IVar="-1" Cut="0.0000000000000000e+00" cType="1" res="2.9208915308117867e-02" rms="4.6866312623023987e-01" purity="5.8043062686920166e-01" nType="-99"/>
          </Node>
          <Node pos="r" depth="2" NCoef="0" IVar="2" Cut="1.8822546386718750e+02" cType="1" res="-3.1960349529981613e-02" rms="4.7323432564735413e-01" purity="5.6541889905929565e-01" nType="0">
            <Node pos="l" depth="3" NCoef="0" IVar="-1" Cut="0.0000000000000000e+00" cType="1" res="-8.3430660888552666e-03" rms="4.6893024444580078e-01" purity="5.8799928426742554e-01" nType="-99"/>
            <Node pos="r" depth="3" NCoef="0" IVar="-1" Cut="0.0000000000000000e+00" cType="1" res="-5.8956462889909744e-02" rms="4.7765293717384338e-01" purity="5.2702426910400391e-01" nType="-99"/>
          </Node>
        </Node>
        <Node pos="r" depth="1" NCoef="0" IVar="3" Cut="4.1443743705749512e+00" cType="1" res="-1.1775435507297516e-01" rms="4.4786518812179565e-01" purity="4.8767557740211487e-01" nType="0">
          <Node pos="l" depth="2" NCoef="0" IVar="-1" Cut="0.0000000000000000e+00" cType="1" res="-2.0181282889097929e-03" rms="4.2928194999694824e-01" purity="3.4867802262306213e-01" nType="-99"/>
          <Node pos="r" depth="2" NCoef="0" IVar="-1" Cut="0.0000000000000000e+00" cType="1" res="-8.8017573580145836e-03" rms="4.4812804460525513e-01" purity="6.7273932695388794e-01" nType="-99"/>
        </Node>
      </Node>
    </BinaryTree>
    <BinaryTree type="DecisionTree" boostWeight="1.0000000000000000e+00" itree="18">
      <Node pos="s" depth="0" NCoef="0" IVar="7" Cut="7.0000000000000000e+00" cType="1" res="-1.8060091882944107e-02" rms="4.7194710373878479e-01" purity="4.9003824591636658e-01" nType="0">
        <Node pos="l" depth="1" NCoef="0" IVar="5" Cut="-2.8422966003417969e+00" cType="1" res="-7.5190933421254158e-03" rms="4.7341418266296387e-01" purity="4.8522591590881348e-01" nType="0">
          <Node pos="l" depth="2" NCoef="0" IVar="-1" Cut="0.0000000000000000e+00" cType="1" res="-5.5402573198080063e-03" rms="4.6654179692268372e-01" purity="4.9154779314994812e-01" nType="-99"/>
          <Node pos="r" depth="2" NCoef="0" IVar="6" Cut="-2.8422908782958984e+00" cType="1" res="-3.9114844985306263e-03" rms="4.7377315163612366e-01" purity="4.8472094535827637e-01" nType="0">
            <Node pos="l" depth="3" NCoef="0" IVar="-1" Cut="0.0000000000000000e+00" cType="1" res="2.5520805269479752e-02" rms="4.8899191617965698e-01" purity="4.8327127099037170e-01" nType="-99"/>
            <Node pos="r" depth="3" NCoef="0" IVar="-1" Cut="0.0000000000000000e+00" cType="1" res="-6.2190778553485870e-03" rms="4.7187510132789612e-01" purity="4.8488780856132507e-01" nType="-99"/>
          </Node>
        </Node>
        <Node pos="r" depth="1" NCoef="0" IVar="6" Cut="7.4831092357635498e-01" cType="1" res="-9.2395283281803131e-02" rms="4.5461842417716980e-01" purity="5.2395337820053101e-01" nType="0">
          <Node pos="l" depth="2" NCoef="0" IVar="-1" Cut="0.0000000000000000e+00" cType="1" res="-3.5755762364715338e-03" rms="4.5964059233665466e-01" purity="6.4660739898681641e-01" nType="-99"/>
          <Node pos="r" depth="2" NCoef="0" IVar="-1" Cut="0.0000000000000000e+00" cType="1" res="-2.2519628982990980e-03" rms="4.2640385031700134e-01" purity="3.8024547696113586e-01" nType="-99"/>
        </Node>
      </Node>
    </BinaryTree>
    <BinaryTree type="DecisionTree" boostWeight="1.0000000000000000e+00" itree="19">
      <Node pos="s" depth="0" NCoef="0" IVar="6" Cut="1.9447276592254639e+00" cType="1" res="-9.6558229997754097e-03" rms="4.7429510951042175e-01" purity="4.9854439496994019e-01" nType="0">
        <Node pos="l" depth="1" NCoef="0" IVar="2" Cut="2.4291113281250000e+02" cType="1" res="1.2479511497076601e-04" rms="4.7205686569213867e-01" purity="5.1902109384536743e-01" nType="0">
          <Node pos="l" depth="2" NCoef="0" IVar="6" Cut="-1.6883324384689331e+00" cType="1" res="1.1279541067779064e-02" rms="4.7088649868965149e-01" purity="5.3112685680389404e-01" nType="0">
            <Node pos="l" depth="3" NCoef="0" IVar="-1" Cut="0.0000000000000000e+00" cType="1" res="-2.0278969779610634e-02" rms="4.8621499538421631e-01" purity="4.6021619439125061e-01" nType="-99"/>
            <Node pos="r" depth="3" NCoef="0" IVar="-1" Cut="0.0000000000000000e+00" cType="1" res="3.0339995399117470e-02" rms="4.5686218142509460e-01" purity="5.8763951063156128e-01" nType="-99"/>
          </Node>
          <Node pos="r" depth="2" NCoef="0" IVar="6" Cut="-2.6572217941284180e+00" cType="1" res="-3.2036826014518738e-02" rms="4.7394770383834839e-01" purity="4.8411747813224792e-01" nType="0">
            <Node pos="l" depth="3" NCoef="0" IVar="-1" Cut="0.0000000000000000e+00" cType="1" res="3.0965723097324371e-02" rms="4.8068124055862427e-01" purity="5.3261005878448486e-01" nType="-99"/>
            <Node pos="r" depth="3" NCoef="0" IVar="-1" Cut="0.0000000000000000e+00" cType="1" res="-5.1935538649559021e-02" rms="4.6934944391250610e-01" purity="4.6578738093376160e-01" nType="-99"/>
          </Node>
        </Node>
        <Node pos="r" depth="1" NCoef="0" IVar="7" Cut="6.0000000000000000e+00" cType="1" res="-3.1951345503330231e-02" rms="4.7861173748970032e-01" purity="4.5186635851860046e-01" nType="0">
          <Node pos="l" depth="2" NCoef="0" IVar="2" Cut="3.3127832031250000e+02" cType="1" res="-1.1600627563893795e-02" rms="4.7817283868789673e-01" purity="4.5319950580596924e-01" nType="0">
            <Node pos="l" depth="3" NCoef="0" IVar="-1" Cut="0.0000000000000000e+00" cType="1" res="-2.1245419979095459e-02" rms="4.7892588376998901e-01" purity="4.2289340496063232e-01" nType="-99"/>
            <Node pos="r" depth="3" NCoef="0" IVar="-1" Cut="0.0000000000000000e+00" cType="1" res="3.0354950577020645e-02" rms="4.7309398651123047e-01" purity="5.6974303722381592e-01" nType="-99"/>
          </Node>
          <Node pos="r" depth="2" NCoef="0" IVar="-1" Cut="0.0000000000000000e+00" cType="1" res="-5.5498871952295303e-03" rms="4.7298648953437805e-01" purity="4.4706416130065918e-01" nType="-99"/>
        </Node>
      </Node>
    </BinaryTree>
    <BinaryTree type="DecisionTree" boostWeight="1.0000000000000000e+00" itree="20">
      <Node pos="s" depth="0" NCoef="0" IVar="6" Cut="2.5431435108184814e+00" cType="1" res="-5.1505435258150101e-03" rms="4.7229444980621338e-01" purity="4.9946543574333191e-01" nType="0">
        <Node pos="l" depth="1" NCoef="0" IVar="4" Cut="5.9424012899398804e-01" cType="1" res="2.5540192145854235e-03" rms="4.7081208229064941e-01" purity="5.1460093259811401e-01" nType="0">
          <Node pos="l" depth="2" NCoef="0" IVar="-1" Cut="0.0000000000000000e+00" cType="1" res="-4.6258118003606796e-02" rms="4.6896207332611084e-01" purity="4.6720400452613831e-01" nType="-99"/>
          <Node pos="r" depth="2" NCoef="0" IVar="3" Cut="1.3169778585433960e+00" cType="1" res="5.6762942112982273e-03" rms="4.7078678011894226e-01" purity="5.1796340942382812e-01" nType="0">
            <Node pos="l" depth="3" NCoef="0" IVar="-1" Cut="0.0000000000000000e+00" cType="1" res="-1.5084232203662395e-02" rms="4.8194301128387451e-01" purity="4.3375974893569946e-01" nType="-99"/>
            <Node pos="r" depth="3" NCoef="0" IVar="-1" Cut="0.0000000000000000e+00" cType="1" res="1.4320660382509232e-02" rms="4.6760553121566772e-01" purity="5.3963673114776611e-01" nType="-99"/>
          </Node>
        </Node>
        <Node pos="r" depth="1" NCoef="0" IVar="6" Cut="2.8566229343414307e+00" cType="1" res="-3.6459248512983322e-02" rms="4.7699224948883057e-01" purity="4.3796002864837646e-01" nType="0">
          <Node pos="l" depth="2" NCoef="0" IVar="4" Cut="1.9572838544845581e+00" cType="1" res="-6.1568129807710648e-02" rms="4.7286251187324524e-01" purity="4.0746408700942993e-01" nType="0">
            <Node pos="l" depth="3" NCoef="0" IVar="-1" Cut="0.0000000000000000e+00" cType="1" res="1.5820132568478584e-02" rms="4.7798019647598267e-01" purity="4.6671646833419800e-01" nType="-99"/>
            <Node pos="r" depth="3" NCoef="0" IVar="-1" Cut="0.0000000000000000e+00" cType="1" res="-5.0915279425680637e-03" rms="4.6213629841804504e-01" purity="3.6630287766456604e-01" nType="-99"/>
          </Node>
          <Node pos="r" depth="2" NCoef="0" IVar="4" Cut="2.0527482032775879e+00" cType="1" res="-8.3820763975381851e-03" rms="4.8001527786254883e-01" purity="4.7206121683120728e-01" nType="0">
            <Node pos="l" depth="3" NCoef="0" IVar="-1" Cut="0.0000000000000000e+00" cType="1" res="-3.3105082809925079e-02" rms="4.7637677192687988e-01" purity="4.3287479877471924e-01" nType="-99"/>
            <Node pos="r" depth="3" NCoef="0" IVar="-1" Cut="0.0000000000000000e+00" cType="1" res="9.3790516257286072e-03" rms="4.8229804635047913e-01" purity="5.0537461042404175e-01" nType="-99"/>
          </Node>
        </Node>
      </Node>
    </BinaryTree>
    <BinaryTree type="DecisionTree" boostWeight="1.0000000000000000e+00" itree="21">
      <Node pos="s" depth="0" NCoef="0" IVar="6" Cut="1.6456035375595093e+00" cType="1" res="-1.0722148232161999e-02" rms="4.7147077322006226e-01" purity="4.9539285898208618e-01" nType="0">
        <Node pos="l" depth="1" NCoef="0" IVar="6" Cut="-1.5458532571792603e+00" cType="1" res="6.3841434894129634e-04" rms="4.6865138411521912e-01" purity="5.2050638198852539e-01" nType="0">
          <Node pos="l" depth="2" NCoef="0" IVar="7" Cut="6.0000000000000000e+00" cType="1" res="0.0000000000000000e+00" rms="0.0000000000000000e+00" purity="4.6671512722969055e-01" nType="0">
            <Node pos="l" depth="3" NCoef="0" IVar="-1" Cut="0.0000000000000000e+00" cType="1" res="-4.4053727760910988e-03" rms="4.7929742932319641e-01" purity="4.5347276329994202e-01" nType="-99"/>
            <Node pos="r" depth="3" NCoef="0" IVar="-1" Cut="0.0000000000000000e+00" cType="1" res="-4.4535614550113678e-02" rms="4.8192000389099121e-01" purity="5.1733571290969849e-01" nType="-99"/>
          </Node>
          <Node pos="r" depth="2" NCoef="0" IVar="2" Cut="1.8508447265625000e+02" cType="1" res="1.7930582165718079e-02" rms="4.5475566387176514e-01" purity="5.8002501726150513e-01" nType="0">
            <Node pos="l" depth="3" NCoef="0" IVar="-1" Cut="0.0000000000000000e+00" cType="1" res="4.7011960297822952e-02" rms="4.4386121630668640e-01" purity="6.2344986200332642e-01" nType="-99"/>
            <Node pos="r" depth="3" NCoef="0" IVar="-1" Cut="0.0000000000000000e+00" cType="1" res="-1.2713315896689892e-02" rms="4.6657586097717285e-01" purity="5.2519941329956055e-01" nType="-99"/>
          </Node>
        </Node>
        <Node pos="r" depth="1" NCoef="0" IVar="7" Cut="6.0000000000000000e+00" cType="1" res="-3.1345054507255554e-02" rms="4.7585293650627136e-01" purity="4.4979956746101379e-01" nType="0">
          <Node pos="l" depth="2" NCoef="0" IVar="4" Cut="1.6941045522689819e+00" cType="1" res="-4.2127449996769428e-03" rms="4.7720456123352051e-01" purity="4.5741128921508789e-01" nType="0">
            <Node pos="l" depth="3" NCoef="0" IVar="-1" Cut="0.0000000000000000e+00" cType="1" res="1.5554274432361126e-02" rms="4.7487229108810425e-01" purity="4.6230247616767883e-01" nType="-99"/>
            <Node pos="r" depth="3" NCoef="0" IVar="-1" Cut="0.0000000000000000e+00" cType="1" res="-1.0909716598689556e-02" rms="4.7832971811294556e-01" purity="4.5397076010704041e-01" nType="-99"/>
          </Node>
          <Node pos="r" depth="2" NCoef="0" IVar="-1" Cut="0.0000000000000000e+00" cType="1" res="-3.0665160156786442e-03" rms="4.6040642261505127e-01" purity="4.2493873834609985e-01" nType="-99"/>
        </Node>
      </Node>
    </BinaryTree>
    <BinaryTree type="DecisionTree" boostWeight="1.0000000000000000e+00" itree="22">
      <Node pos="s" depth="0" NCoef="0" IVar="4" Cut="1.3996062278747559e+00" cType="1" res="-1.2106649810448289e-03" rms="4.7153687477111816e-01" purity="5.0643336772918701e-01" nType="0">
        <Node pos="l" depth="1" NCoef="0" IVar="8" Cut="9.8216007812500000e+04" cType="1" res="-1.7467426136136055e-02" rms="4.6734675765037537e-01" purity="4.6276375651359558e-01" nType="0">
          <Node pos="l" depth="2" NCoef="0" IVar="6" Cut="-1.9447392225265503e+00" cType="1" res="-2.6365285739302635e-02" rms="4.7119489312171936e-01" purity="4.0537065267562866e-01" nType="0">
            <Node pos="l" depth="3" NCoef="0" IVar="-1" Cut="0.0000000000000000e+00" cType="1" res="2.2335243411362171e-03" rms="4.7815570235252380e-01" purity="4.1071447730064392e-01" nType="-99"/>
            <Node pos="r" depth="3" NCoef="0" IVar="-1" Cut="0.0000000000000000e+00" cType="1" res="-1.7490722239017487e-02" rms="4.6804398298263550e-01" purity="4.0332064032554626e-01" nType="-99"/>
          </Node>
          <Node pos="r" depth="2" NCoef="0" IVar="-1" Cut="0.0000000000000000e+00" cType="1" res="1.4993378892540932e-02" rms="4.5183804631233215e-01" purity="6.6860336065292358e-01" nType="-99"/>
        </Node>
        <Node pos="r" depth="1" NCoef="0" IVar="7" Cut="7.0000000000000000e+00" cType="1" res="0.0000000000000000e+00" rms="0.0000000000000000e+00" purity="5.2911186218261719e-01" nType="0">
          <Node pos="l" depth="2" NCoef="0" IVar="6" Cut="2.8422145843505859e+00" cType="1" res="1.1072425171732903e-02" rms="4.7495567798614502e-01" purity="5.1606309413909912e-01" nType="0">
            <Node pos="l" depth="3" NCoef="0" IVar="-1" Cut="0.0000000000000000e+00" cType="1" res="5.7384148240089417e-03" rms="4.7302219271659851e-01" purity="5.1340150833129883e-01" nType="-99"/>
            <Node pos="r" depth="3" NCoef="0" IVar="-1" Cut="0.0000000000000000e+00" cType="1" res="5.2731666713953018e-02" rms="4.8772850632667542e-01" purity="5.3618973493576050e-01" nType="-99"/>
          </Node>
          <Node pos="r" depth="2" NCoef="0" IVar="-1" Cut="0.0000000000000000e+00" cType="1" res="-2.4262769147753716e-02" rms="4.5965698361396790e-01" purity="6.3841229677200317e-01" nType="-99"/>
        </Node>
      </Node>
    </BinaryTree>
    <BinaryTree type="DecisionTree" boostWeight="1.0000000000000000e+00" itree="23">
      <Node pos="s" depth="0" NCoef="0" IVar="6" Cut="2.5431978702545166e+00" cType="1" res="-5.4729357361793518e-03" rms="4.7296187281608582e-01" purity="5.0215762853622437e-01" nType="0">
        <Node pos="l" depth="1" NCoef="0" IVar="7" Cut="7.0000000000000000e+00" cType="1" res="-1.1146197794005275e-03" rms="4.7144705057144165e-01" purity="5.1184576749801636e-01" nType="0">
          <Node pos="l" depth="2" NCoef="0" IVar="4" Cut="1.4192287921905518e+00" cType="1" res="0.0000000000000000e+00" rms="0.0000000000000000e+00" purity="4.9702757596969604e-01" nType="0">
            <Node pos="l" depth="3" NCoef="0" IVar="-1" Cut="0.0000000000000000e+00" cType="1" res="-7.2790873236954212e-03" rms="4.6887278556823730e-01" purity="4.5415329933166504e-01" nType="-99"/>
            <Node pos="r" depth="3" NCoef="0" IVar="-1" Cut="0.0000000000000000e+00" cType="1" res="8.5523882880806923e-03" rms="4.7418954968452454e-01" purity="5.2220702171325684e-01" nType="-99"/>
          </Node>
          <Node pos="r" depth="2" NCoef="0" IVar="3" Cut="4.7188072204589844e+00" cType="1" res="-3.1029002740979195e-02" rms="4.6384453773498535e-01" purity="6.2499266862869263e-01" nType="0">
            <Node pos="l" depth="3" NCoef="0" IVar="-1" Cut="0.0000000000000000e+00" cType="1" res="-6.4503565430641174e-02" rms="4.8236367106437683e-01" purity="5.6586802005767822e-01" nType="-99"/>
            <Node pos="r" depth="3" NCoef="0" IVar="-1" Cut="0.0000000000000000e+00" cType="1" res="-3.4778111148625612e-03" rms="4.4131866097450256e-01" purity="6.8852829933166504e-01" nType="-99"/>
          </Node>
        </Node>
        <Node pos="r" depth="1" NCoef="0" IVar="7" Cut="5.0000000000000000e+00" cType="1" res="0.0000000000000000e+00" rms="0.0000000000000000e+00" purity="4.6067506074905396e-01" nType="0">
          <Node pos="l" depth="2" NCoef="0" IVar="6" Cut="2.7996735572814941e+00" cType="1" res="-8.5472557693719864e-03" rms="4.7696363925933838e-01" purity="4.4795918464660645e-01" nType="0">
            <Node pos="l" depth="3" NCoef="0" IVar="-1" Cut="0.0000000000000000e+00" cType="1" res="-1.7775801941752434e-02" rms="4.6823623776435852e-01" purity="4.0046960115432739e-01" nType="-99"/>
            <Node pos="r" depth="3" NCoef="0" IVar="-1" Cut="0.0000000000000000e+00" cType="1" res="1.3495036400854588e-02" rms="4.8120191693305969e-01" purity="4.7947725653648376e-01" nType="-99"/>
          </Node>
          <Node pos="r" depth="2" NCoef="0" IVar="-1" Cut="0.0000000000000000e+00" cType="1" res="-5.7802163064479828e-03" rms="4.8076787590980530e-01" purity="4.7736167907714844e-01" nType="-99"/>
        </Node>
      </Node>
    </BinaryTree>
    <BinaryTree type="DecisionTree" boostWeight="1.0000000000000000e+00" itree="24">
      <Node pos="s" depth="0" NCoef="0" IVar="1" Cut="2.4356289062500000e+05" cType="1" res="-1.2944345362484455e-03" rms="4.7170230746269226e-01" purity="5.0536310672760010e-01" nType="0">
        <Node pos="l" depth="1" NCoef="0" IVar="1" Cut="1.3176884375000000e+05" cType="1" res="1.6861516050994396e-03" rms="4.7369748353958130e-01" purity="5.2269250154495239e-01" nType="0">
          <Node pos="l" depth="2" NCoef="0" IVar="3" Cut="3.1496124267578125e+00" cType="1" res="-2.1956836804747581e-02" rms="4.8229336738586426e-01" purity="5.0517439842224121e-01" nType="0">
            <Node pos="l" depth="3" NCoef="0" IVar="-1" Cut="0.0000000000000000e+00" cType="1" res="-4.3648406863212585e-02" rms="4.8183438181877136e-01" purity="4.2476311326026917e-01" nType="-99"/>
            <Node pos="r" depth="3" NCoef="0" IVar="-1" Cut="0.0000000000000000e+00" cType="1" res="7.7463826164603233e-03" rms="4.8050546646118164e-01" purity="5.6510597467422485e-01" nType="-99"/>
          </Node>
          <Node pos="r" depth="2" NCoef="0" IVar="4" Cut="1.5991551876068115e+00" cType="1" res="1.0382534004747868e-02" rms="4.7019726037979126e-01" purity="5.2913606166839600e-01" nType="0">
            <Node pos="l" depth="3" NCoef="0" IVar="-1" Cut="0.0000000000000000e+00" cType="1" res="-1.0597547516226768e-02" rms="4.7099715471267700e-01" purity="4.8157382011413574e-01" nType="-99"/>
            <Node pos="r" depth="3" NCoef="0" IVar="-1" Cut="0.0000000000000000e+00" cType="1" res="2.6279812678694725e-02" rms="4.6910405158996582e-01" purity="5.6248104572296143e-01" nType="-99"/>
          </Node>
        </Node>
        <Node pos="r" depth="1" NCoef="0" IVar="7" Cut="5.0000000000000000e+00" cType="1" res="-2.9403544962406158e-02" rms="4.5148682594299316e-01" purity="3.4193259477615356e-01" nType="0">
          <Node pos="l" depth="2" NCoef="0" IVar="-1" Cut="0.0000000000000000e+00" cType="1" res="-2.4591121822595596e-02" rms="4.3246346712112427e-01" purity="2.6933175325393677e-01" nType="-99"/>
          <Node pos="r" depth="2" NCoef="0" IVar="-1" Cut="0.0000000000000000e+00" cType="1" res="-5.6171763688325882e-02" rms="4.6934345364570618e-01" purity="4.1437032818794250e-01" nType="-99"/>
        </Node>
      </Node>
    </BinaryTree>
    <BinaryTree type="DecisionTree" boostWeight="1.0000000000000000e+00" itree="25">
      <Node pos="s" depth="0" NCoef="0" IVar="6" Cut="1.6456414461135864e+00" cType="1" res="-1.1209728196263313e-02" rms="4.7199007868766785e-01" purity="4.9677941203117371e-01" nType="0">
        <Node pos="l" depth="1" NCoef="0" IVar="5" Cut="7.4795818328857422e-01" cType="1" res="-5.8001524303108454e-04" rms="4.6947550773620605e-01" purity="5.2105182409286499e-01" nType="0">
          <Node pos="l" depth="2" NCoef="0" IVar="6" Cut="-1.7848698794841766e-01" cType="1" res="-7.0332759059965611e-03" rms="4.7308239340782166e-01" purity="4.9694392085075378e-01" nType="0">
            <Node pos="l" depth="3" NCoef="0" IVar="-1" Cut="0.0000000000000000e+00" cType="1" res="-1.3864542357623577e-02" rms="4.7742259502410889e-01" purity="4.6193879842758179e-01" nType="-99"/>
            <Node pos="r" depth="3" NCoef="0" IVar="-1" Cut="0.0000000000000000e+00" cType="1" res="3.6131840199232101e-02" rms="4.4727525115013123e-01" purity="6.8341797590255737e-01" nType="-99"/>
          </Node>
          <Node pos="r" depth="2" NCoef="0" IVar="6" Cut="-1.7795164883136749e-01" cType="1" res="1.3913449831306934e-02" rms="4.6094274520874023e-01" purity="5.7519614696502686e-01" nType="0">
            <Node pos="l" depth="3" NCoef="0" IVar="-1" Cut="0.0000000000000000e+00" cType="1" res="6.8899527192115784e-02" rms="4.5103582739830017e-01" purity="6.7064785957336426e-01" nType="-99"/>
            <Node pos="r" depth="3" NCoef="0" IVar="-1" Cut="0.0000000000000000e+00" cType="1" res="-4.0262825787067413e-02" rms="4.6573448181152344e-01" purity="4.8159614205360413e-01" nType="-99"/>
          </Node>
        </Node>
        <Node pos="r" depth="1" NCoef="0" IVar="7" Cut="6.0000000000000000e+00" cType="1" res="-3.0828770250082016e-02" rms="4.7595477104187012e-01" purity="4.5190024375915527e-01" nType="0">
          <Node pos="l" depth="2" NCoef="0" IVar="4" Cut="1.3585423231124878e+00" cType="1" res="-9.1209169477224350e-03" rms="4.7896358370780945e-01" purity="4.5831915736198425e-01" nType="0">
            <Node pos="l" depth="3" NCoef="0" IVar="-1" Cut="0.0000000000000000e+00" cType="1" res="1.3602908700704575e-02" rms="4.7054547071456909e-01" purity="4.4101637601852417e-01" nType="-99"/>
            <Node pos="r" depth="3" NCoef="0" IVar="-1" Cut="0.0000000000000000e+00" cType="1" res="-1.7803559079766273e-02" rms="4.8205956816673279e-01" purity="4.6543091535568237e-01" nType="-99"/>
          </Node>
          <Node pos="r" depth="2" NCoef="0" IVar="-1" Cut="0.0000000000000000e+00" cType="1" res="-2.7084182947874069e-03" rms="4.5875182747840881e-01" purity="4.3072578310966492e-01" nType="-99"/>
        </Node>
      </Node>
    </BinaryTree>
    <BinaryTree type="DecisionTree" boostWeight="1.0000000000000000e+00" itree="26">
      <Node pos="s" depth="0" NCoef="0" IVar="3" Cut="1.3194136619567871e+01" cType="1" res="-1.8078138818964362e-03" rms="4.7008380293846130e-01" purity="5.0492429733276367e-01" nType="0">
        <Node pos="l" depth="1" NCoef="0" IVar="3" Cut="7.3838645219802856e-01" cType="1" res="1.8100317101925611e-03" rms="4.7122219204902649e-01" purity="5.0791299343109131e-01" nType="0">
          <Node pos="l" depth="2" NCoef="0" IVar="0" Cut="1.3538131250000000e+05" cType="1" res="-3.3990848809480667e-02" rms="4.7503024339675903e-01" purity="4.0268906950950623e-01" nType="0">
            <Node pos="l" depth="3" NCoef="0" IVar="-1" Cut="0.0000000000000000e+00" cType="1" res="-2.7032280340790749e-02" rms="4.6579438447952271e-01" purity="3.6990904808044434e-01" nType="-99"/>
            <Node pos="r" depth="3" NCoef="0" IVar="-1" Cut="0.0000000000000000e+00" cType="1" res="-3.9707496762275696e-04" rms="4.8536148667335510e-01" purity="4.4746452569961548e-01" nType="-99"/>
          </Node>
          <Node pos="r" depth="2" NCoef="0" IVar="5" Cut="-1.3463591337203979e+00" cType="1" res="8.5128340870141983e-03" rms="4.7020295262336731e-01" purity="5.2761346101760864e-01" nType="0">
            <Node pos="l" depth="3" NCoef="0" IVar="-1" Cut="0.0000000000000000e+00" cType="1" res="3.1542640179395676e-02" rms="4.6600118279457092e-01" purity="5.6039851903915405e-01" nType="-99"/>
            <Node pos="r" depth="3" NCoef="0" IVar="-1" Cut="0.0000000000000000e+00" cType="1" res="-1.2898835120722651e-03" rms="4.7224563360214233e-01" purity="5.0925576686859131e-01" nType="-99"/>
          </Node>
        </Node>
        <Node pos="r" depth="1" NCoef="0" IVar="-1" Cut="0.0000000000000000e+00" cType="1" res="-3.5021252930164337e-02" rms="4.4576168060302734e-01" purity="4.5401254296302795e-01" nType="-99"/>
      </Node>
    </BinaryTree>
    <BinaryTree type="DecisionTree" boostWeight="1.0000000000000000e+00" itree="27">
      <Node pos="s" depth="0" NCoef="0" IVar="4" Cut="3.3532602787017822e+00" cType="1" res="-6.8672862835228443e-03" rms="4.6911486983299255e-01" purity="5.0158876180648804e-01" nType="0">
        <Node pos="l" depth="1" NCoef="0" IVar="6" Cut="7.4801212549209595e-01" cType="1" res="-4.3726637959480286e-03" rms="4.6919500827789307e-01" purity="5.0751978158950806e-01" nType="0">
          <Node pos="l" depth="2" NCoef="0" IVar="4" Cut="2.8869295120239258e+00" cType="1" res="5.7216645218431950e-03" rms="4.6894425153732300e-01" purity="5.2656090259552002e-01" nType="0">
            <Node pos="l" depth="3" NCoef="0" IVar="-1" Cut="0.0000000000000000e+00" cType="1" res="1.3065718114376068e-02" rms="4.6759697794914246e-01" purity="5.2769601345062256e-01" nType="-99"/>
            <Node pos="r" depth="3" NCoef="0" IVar="-1" Cut="0.0000000000000000e+00" cType="1" res="-2.6906346902251244e-02" rms="4.7588992118835449e-01" purity="5.1955950260162354e-01" nType="-99"/>
          </Node>
          <Node pos="r" depth="2" NCoef="0" IVar="7" Cut="6.0000000000000000e+00" cType="1" res="-1.6942899674177170e-02" rms="4.6920162439346313e-01" purity="4.8380199074745178e-01" nType="0">
            <Node pos="l" depth="3" NCoef="0" IVar="-1" Cut="0.0000000000000000e+00" cType="1" res="-2.6872728485614061e-03" rms="4.7011378407478333e-01" purity="4.6640399098396301e-01" nType="-99"/>
            <Node pos="r" depth="3" NCoef="0" IVar="-1" Cut="0.0000000000000000e+00" cType="1" res="-4.7227656468749046e-03" rms="4.6461576223373413e-01" purity="5.3571766614913940e-01" nType="-99"/>
          </Node>
        </Node>
        <Node pos="r" depth="1" NCoef="0" IVar="-1" Cut="0.0000000000000000e+00" cType="1" res="-3.5646110773086548e-02" rms="4.6344769001007080e-01" purity="3.6323997378349304e-01" nType="-99"/>
      </Node>
    </BinaryTree>
    <BinaryTree type="DecisionTree" boostWeight="1.0000000000000000e+00" itree="28">
      <Node pos="s" depth="0" NCoef="0" IVar="2" Cut="2.2296136474609375e+02" cType="1" res="-3.7285133730620146e-03" rms="4.6934086084365845e-01" purity="5.0459825992584229e-01" nType="0">
        <Node pos="l" depth="1" NCoef="0" IVar="3" Cut="5.1558032035827637e+00" cType="1" res="0.0000000000000000e+00" rms="0.0000000000000000e+00" purity="5.2051937580108643e-01" nType="0">
          <Node pos="l" depth="2" NCoef="0" IVar="2" Cut="1.4787806701660156e+02" cType="1" res="1.6929609701037407e-02" rms="4.7539275884628296e-01" purity="5.1956933736801147e-01" nType="0">
            <Node pos="l" depth="3" NCoef="0" IVar="-1" Cut="0.0000000000000000e+00" cType="1" res="-1.8453314900398254e-02" rms="4.8223707079887390e-01" purity="4.5774140954017639e-01" nType="-99"/>
            <Node pos="r" depth="3" NCoef="0" IVar="-1" Cut="0.0000000000000000e+00" cType="1" res="1.2474044226109982e-02" rms="4.7389808297157288e-01" purity="5.3071445226669312e-01" nType="-99"/>
          </Node>
          <Node pos="r" depth="2" NCoef="0" IVar="4" Cut="2.6168677806854248e+00" cType="1" res="-1.0880728252232075e-02" rms="4.5465907454490662e-01" purity="5.2195888757705688e-01" nType="0">
            <Node pos="l" depth="3" NCoef="0" IVar="-1" Cut="0.0000000000000000e+00" cType="1" res="-2.6909872889518738e-02" rms="4.5387372374534607e-01" purity="4.9872148036956787e-01" nType="-99"/>
            <Node pos="r" depth="3" NCoef="0" IVar="-1" Cut="0.0000000000000000e+00" cType="1" res="2.2326681762933731e-02" rms="4.5554122328758240e-01" purity="5.8934438228607178e-01" nType="-99"/>
          </Node>
        </Node>
        <Node pos="r" depth="1" NCoef="0" IVar="3" Cut="3.1449859142303467e+00" cType="1" res="-2.2689022123813629e-02" rms="4.7246471047401428e-01" purity="4.7315740585327148e-01" nType="0">
          <Node pos="l" depth="2" NCoef="0" IVar="5" Cut="-4.4864013791084290e-01" cType="1" res="-7.2073541581630707e-02" rms="4.6246850490570068e-01" purity="3.8214811682701111e-01" nType="0">
            <Node pos="l" depth="3" NCoef="0" IVar="-1" Cut="0.0000000000000000e+00" cType="1" res="-1.5847271308302879e-02" rms="4.7391846776008606e-01" purity="4.3403470516204834e-01" nType="-99"/>
            <Node pos="r" depth="3" NCoef="0" IVar="-1" Cut="0.0000000000000000e+00" cType="1" res="-2.8573027811944485e-03" rms="4.4951680302619934e-01" purity="3.4047248959541321e-01" nType="-99"/>
          </Node>
          <Node pos="r" depth="2" NCoef="0" IVar="8" Cut="7.6056023437500000e+04" cType="1" res="2.9236532282084227e-03" rms="4.7555136680603027e-01" purity="5.2035826444625854e-01" nType="0">
            <Node pos="l" depth="3" NCoef="0" IVar="-1" Cut="0.0000000000000000e+00" cType="1" res="2.3594249039888382e-02" rms="4.7835332155227661e-01" purity="4.4549331068992615e-01" nType="-99"/>
            <Node pos="r" depth="3" NCoef="0" IVar="-1" Cut="0.0000000000000000e+00" cType="1" res="-1.1823109351098537e-02" rms="4.7125333547592163e-01" purity="6.1434161663055420e-01" nType="-99"/>
          </Node>
        </Node>
      </Node>
    </BinaryTree>
    <BinaryTree type="DecisionTree" boostWeight="1.0000000000000000e+00" itree="29">
      <Node pos="s" depth="0" NCoef="0" IVar="7" Cut="7.0000000000000000e+00" cType="1" res="-2.0572864450514317e-03" rms="4.6966636180877686e-01" purity="5.0655323266983032e-01" nType="0">
        <Node pos="l" depth="1" NCoef="0" IVar="6" Cut="2.2440009117126465e+00" cType="1" res="3.8983853301033378e-05" rms="4.7057065367698669e-01" purity="4.9333190917968750e-01" nType="0">
          <Node pos="l" depth="2" NCoef="0" IVar="2" Cut="1.8189332580566406e+02" cType="1" res="-4.1161119006574154e-03" rms="4.6837213635444641e-01" purity="4.9729210138320923e-01" nType="0">
            <Node pos="l" depth="3" NCoef="0" IVar="-1" Cut="0.0000000000000000e+00" cType="1" res="4.7483625821769238e-03" rms="4.6375483274459839e-01" purity="5.2162331342697144e-01" nType="-99"/>
            <Node pos="r" depth="3" NCoef="0" IVar="-1" Cut="0.0000000000000000e+00" cType="1" res="-1.5808632597327232e-02" rms="4.7174558043479919e-01" purity="4.7813767194747925e-01" nType="-99"/>
          </Node>
          <Node pos="r" depth="2" NCoef="0" IVar="9" Cut="3.8586035156250000e+04" cType="1" res="1.1467923410236835e-02" rms="4.7637864947319031e-01" purity="4.8243901133537292e-01" nType="0">
            <Node pos="l" depth="3" NCoef="0" IVar="-1" Cut="0.0000000000000000e+00" cType="1" res="-5.3774765692651272e-03" rms="4.7426611185073853e-01" purity="3.9229947328567505e-01" nType="-99"/>
            <Node pos="r" depth="3" NCoef="0" IVar="-1" Cut="0.0000000000000000e+00" cType="1" res="3.9575349539518356e-02" rms="4.7782537341117859e-01" purity="5.9880459308624268e-01" nType="-99"/>
          </Node>
        </Node>
        <Node pos="r" depth="1" NCoef="0" IVar="4" Cut="2.3858964443206787e+00" cType="1" res="0.0000000000000000e+00" rms="0.0000000000000000e+00" purity="6.1837834119796753e-01" nType="0">
          <Node pos="l" depth="2" NCoef="0" IVar="-1" Cut="0.0000000000000000e+00" cType="1" res="-3.4183297306299210e-02" rms="4.6658143401145935e-01" purity="6.0147380828857422e-01" nType="-99"/>
          <Node pos="r" depth="2" NCoef="0" IVar="-1" Cut="0.0000000000000000e+00" cType="1" res="3.7397090345621109e-03" rms="4.5249632000923157e-01" purity="6.4548146724700928e-01" nType="-99"/>
        </Node>
      </Node>
    </BinaryTree>
    <BinaryTree type="DecisionTree" boostWeight="1.0000000000000000e+00" itree="30">
      <Node pos="s" depth="0" NCoef="0" IVar="7" Cut="7.0000000000000000e+00" cType="1" res="-6.8857395090162754e-03" rms="4.7061669826507568e-01" purity="5.0008922815322876e-01" nType="0">
        <Node pos="l" depth="1" NCoef="0" IVar="2" Cut="2.4721499633789062e+02" cType="1" res="0.0000000000000000e+00" rms="0.0000000000000000e+00" purity="4.9220582842826843e-01" nType="0">
          <Node pos="l" depth="2" NCoef="0" IVar="2" Cut="1.4243550109863281e+02" cType="1" res="5.0411573611199856e-03" rms="4.7254997491836548e-01" purity="4.9622583389282227e-01" nType="0">
            <Node pos="l" depth="3" NCoef="0" IVar="-1" Cut="0.0000000000000000e+00" cType="1" res="-2.3004315793514252e-02" rms="4.6515852212905884e-01" purity="4.3196532130241394e-01" nType="-99"/>
            <Node pos="r" depth="3" NCoef="0" IVar="-1" Cut="0.0000000000000000e+00" cType="1" res="8.6112776771187782e-03" rms="4.7337463498115540e-01" purity="5.0434213876724243e-01" nType="-99"/>
          </Node>
          <Node pos="r" depth="2" NCoef="0" IVar="6" Cut="-2.2437195777893066e+00" cType="1" res="-1.9351841881871223e-02" rms="4.7105711698532104e-01" purity="4.8251885175704956e-01" nType="0">
            <Node pos="l" depth="3" NCoef="0" IVar="-1" Cut="0.0000000000000000e+00" cType="1" res="1.3566821813583374e-02" rms="4.7750270366668701e-01" purity="5.1455891132354736e-01" nType="-99"/>
            <Node pos="r" depth="3" NCoef="0" IVar="-1" Cut="0.0000000000000000e+00" cType="1" res="-2.0459042862057686e-02" rms="4.6769377589225769e-01" purity="4.6908187866210938e-01" nType="-99"/>
          </Node>
        </Node>
        <Node pos="r" depth="1" NCoef="0" IVar="6" Cut="7.4830937385559082e-01" cType="1" res="-4.3959464877843857e-02" rms="4.5614594221115112e-01" purity="5.6124228239059448e-01" nType="0">
          <Node pos="l" depth="2" NCoef="0" IVar="-1" Cut="0.0000000000000000e+00" cType="1" res="-1.6459368634968996e-04" rms="4.6197664737701416e-01" purity="6.3635063171386719e-01" nType="-99"/>
          <Node pos="r" depth="2" NCoef="0" IVar="-1" Cut="0.0000000000000000e+00" cType="1" res="-2.1185979712754488e-03" rms="4.4085124135017395e-01" purity="4.5730856060981750e-01" nType="-99"/>
        </Node>
      </Node>
    </BinaryTree>
    <BinaryTree type="DecisionTree" boostWeight="1.0000000000000000e+00" itree="31">
      <Node pos="s" depth="0" NCoef="0" IVar="5" Cut="-1.9447132349014282e+00" cType="1" res="1.4880599337629974e-04" rms="4.6931159496307373e-01" purity="5.0694108009338379e-01" nType="0">
        <Node pos="l" depth="1" NCoef="0" IVar="1" Cut="2.0775965625000000e+05" cType="1" res="1.8367983400821686e-02" rms="4.6885025501251221e-01" purity="5.5891579389572144e-01" nType="0">
          <Node pos="l" depth="2" NCoef="0" IVar="6" Cut="7.4808919429779053e-01" cType="1" res="2.5052757933735847e-02" rms="4.6773648262023926e-01" purity="5.8742278814315796e-01" nType="0">
            <Node pos="l" depth="3" NCoef="0" IVar="-1" Cut="0.0000000000000000e+00" cType="1" res="1.0279163718223572e-02" rms="4.7842413187026978e-01" purity="5.4672878980636597e-01" nType="-99"/>
            <Node pos="r" depth="3" NCoef="0" IVar="-1" Cut="0.0000000000000000e+00" cType="1" res="8.8543325662612915e-02" rms="4.2170026898384094e-01" purity="7.3520660400390625e-01" nType="-99"/>
          </Node>
          <Node pos="r" depth="2" NCoef="0" IVar="-1" Cut="0.0000000000000000e+00" cType="1" res="-1.8597472459077835e-02" rms="4.7280177474021912e-01" purity="4.2417731881141663e-01" nType="-99"/>
        </Node>
        <Node pos="r" depth="1" NCoef="0" IVar="5" Cut="1.9305815696716309e+00" cType="1" res="-6.6664726473391056e-03" rms="4.6930232644081116e-01" purity="4.8749881982803345e-01" nType="0">
          <Node pos="l" depth="2" NCoef="0" IVar="9" Cut="4.4286992187500000e+04" cType="1" res="-1.9408483058214188e-02" rms="4.6968364715576172e-01" purity="4.5549923181533813e-01" nType="0">
            <Node pos="l" depth="3" NCoef="0" IVar="-1" Cut="0.0000000000000000e+00" cType="1" res="1.1538522085174918e-03" rms="4.6840494871139526e-01" purity="3.9855188131332397e-01" nType="-99"/>
            <Node pos="r" depth="3" NCoef="0" IVar="-1" Cut="0.0000000000000000e+00" cType="1" res="-3.7327620666474104e-03" rms="4.6961531043052673e-01" purity="5.4891002178192139e-01" nType="-99"/>
          </Node>
          <Node pos="r" depth="2" NCoef="0" IVar="9" Cut="5.8780785156250000e+04" cType="1" res="1.3643330894410610e-02" rms="4.6797719597816467e-01" purity="5.3850370645523071e-01" nType="0">
            <Node pos="l" depth="3" NCoef="0" IVar="-1" Cut="0.0000000000000000e+00" cType="1" res="6.4540526363998652e-04" rms="4.7575765848159790e-01" purity="4.7196075320243835e-01" nType="-99"/>
            <Node pos="r" depth="3" NCoef="0" IVar="-1" Cut="0.0000000000000000e+00" cType="1" res="5.0733353942632675e-02" rms="4.4637489318847656e-01" purity="7.0439046621322632e-01" nType="-99"/>
          </Node>
        </Node>
      </Node>
    </BinaryTree>
    <BinaryTree type="DecisionTree" boostWeight="1.0000000000000000e+00" itree="32">
      <Node pos="s" depth="0" NCoef="0" IVar="4" Cut="3.2530410289764404e+00" cType="1" res="-1.3632055371999741e-02" rms="4.6708503365516663e-01" purity="4.9492350220680237e-01" nType="0">
        <Node pos="l" depth="1" NCoef="0" IVar="6" Cut="1.3464064598083496e+00" cType="1" res="-1.0976841673254967e-02" rms="4.6771603822708130e-01" purity="5.0305241346359253e-01" nType="0">
          <Node pos="l" depth="2" NCoef="0" IVar="5" Cut="-1.6455991268157959e+00" cType="1" res="-2.6410024147480726e-03" rms="4.6777427196502686e-01" purity="5.2476370334625244e-01" nType="0">
            <Node pos="l" depth="3" NCoef="0" IVar="-1" Cut="0.0000000000000000e+00" cType="1" res="-1.2552252039313316e-02" rms="4.7446274757385254e-01" purity="5.0609773397445679e-01" nType="-99"/>
            <Node pos="r" depth="3" NCoef="0" IVar="-1" Cut="0.0000000000000000e+00" cType="1" res="6.9225984625518322e-03" rms="4.6199804544448853e-01" purity="5.4023450613021851e-01" nType="-99"/>
          </Node>
          <Node pos="r" depth="2" NCoef="0" IVar="7" Cut="6.0000000000000000e+00" cType="1" res="-2.4125384166836739e-02" rms="4.6732068061828613e-01" purity="4.6880182623863220e-01" nType="0">
            <Node pos="l" depth="3" NCoef="0" IVar="-1" Cut="0.0000000000000000e+00" cType="1" res="-3.1891518738120794e-03" rms="4.7090449929237366e-01" purity="4.6429231762886047e-01" nType="-99"/>
            <Node pos="r" depth="3" NCoef="0" IVar="-1" Cut="0.0000000000000000e+00" cType="1" res="-2.4749762378633022e-03" rms="4.5210066437721252e-01" purity="4.8335957527160645e-01" nType="-99"/>
          </Node>
        </Node>
        <Node pos="r" depth="1" NCoef="0" IVar="-1" Cut="0.0000000000000000e+00" cType="1" res="-1.6617599874734879e-02" rms="4.5482710003852844e-01" purity="3.6540284752845764e-01" nType="-99"/>
      </Node>
    </BinaryTree>
    <BinaryTree type="DecisionTree" boostWeight="1.0000000000000000e+00" itree="33">
      <Node pos="s" depth="0" NCoef="0" IVar="7" Cut="6.0000000000000000e+00" cType="1" res="-9.0622818097472191e-03" rms="4.6999907493591309e-01" purity="4.9994474649429321e-01" nType="0">
        <Node pos="l" depth="1" NCoef="0" IVar="1" Cut="2.4686829687500000e+05" cType="1" res="0.0000000000000000e+00" rms="0.0000000000000000e+00" purity="4.7140678763389587e-01" nType="0">
          <Node pos="l" depth="2" NCoef="0" IVar="1" Cut="1.2604192187500000e+05" cType="1" res="-3.9049279876053333e-03" rms="4.7636467218399048e-01" purity="4.8626089096069336e-01" nType="0">
            <Node pos="l" depth="3" NCoef="0" IVar="-1" Cut="0.0000000000000000e+00" cType="1" res="-3.8794133812189102e-02" rms="4.8123908042907715e-01" purity="4.2830297350883484e-01" nType="-99"/>
            <Node pos="r" depth="3" NCoef="0" IVar="-1" Cut="0.0000000000000000e+00" cType="1" res="5.9458645991981030e-03" rms="4.7484359145164490e-01" purity="4.9614492058753967e-01" nType="-99"/>
          </Node>
          <Node pos="r" depth="2" NCoef="0" IVar="-1" Cut="0.0000000000000000e+00" cType="1" res="3.6239363253116608e-02" rms="4.4937178492546082e-01" purity="3.3315604925155640e-01" nType="-99"/>
        </Node>
        <Node pos="r" depth="1" NCoef="0" IVar="6" Cut="1.9446408748626709e+00" cType="1" res="0.0000000000000000e+00" rms="0.0000000000000000e+00" purity="5.7459133863449097e-01" nType="0">
          <Node pos="l" depth="2" NCoef="0" IVar="2" Cut="1.9435626220703125e+02" cType="1" res="-4.4981054961681366e-03" rms="4.5740923285484314e-01" purity="6.2388014793395996e-01" nType="0">
            <Node pos="l" depth="3" NCoef="0" IVar="-1" Cut="0.0000000000000000e+00" cType="1" res="4.3649603612720966e-03" rms="4.5164746046066284e-01" purity="6.4583331346511841e-01" nType="-99"/>
            <Node pos="r" depth="3" NCoef="0" IVar="-1" Cut="0.0000000000000000e+00" cType="1" res="-2.4512121453881264e-02" rms="4.7237947583198547e-01" purity="5.6242054700851440e-01" nType="-99"/>
          </Node>
          <Node pos="r" depth="2" NCoef="0" IVar="-1" Cut="0.0000000000000000e+00" cType="1" res="-2.3905828129500151e-03" rms="4.5637920498847961e-01" purity="4.3041178584098816e-01" nType="-99"/>
        </Node>
      </Node>
    </BinaryTree>
    <BinaryTree type="DecisionTree" boostWeight="1.0000000000000000e+00" itree="34">
      <Node pos="s" depth="0" NCoef="0" IVar="3" Cut="3.9418737888336182e+00" cType="1" res="-1.6315690008923411e-03" rms="4.7024810314178467e-01" purity="5.0738954544067383e-01" nType="0">
        <Node pos="l" depth="1" NCoef="0" IVar="4" Cut="1.1231061220169067e+00" cType="1" res="7.1237972006201744e-03" rms="4.7892653942108154e-01" purity="4.9558976292610168e-01" nType="0">
          <Node pos="l" depth="2" NCoef="0" IVar="-1" Cut="0.0000000000000000e+00" cType="1" res="1.1373643763363361e-02" rms="4.8099386692047119e-01" purity="5.0272941589355469e-01" nType="-99"/>
          <Node pos="r" depth="2" NCoef="0" IVar="3" Cut="1.6803330183029175e-01" cType="1" res="-2.1803993731737137e-03" rms="4.7791221737861633e-01" purity="4.9344724416732788e-01" nType="0">
            <Node pos="l" depth="3" NCoef="0" IVar="-1" Cut="0.0000000000000000e+00" cType="1" res="-2.2472994402050972e-02" rms="4.7682666778564453e-01" purity="3.9539885520935059e-01" nType="-99"/>
            <Node pos="r" depth="3" NCoef="0" IVar="-1" Cut="0.0000000000000000e+00" cType="1" res="9.9978791549801826e-03" rms="4.7774851322174072e-01" purity="5.3255099058151245e-01" nType="-99"/>
          </Node>
        </Node>
        <Node pos="r" depth="1" NCoef="0" IVar="9" Cut="8.2857382812500000e+04" cType="1" res="-8.8990079239010811e-03" rms="4.6279516816139221e-01" purity="5.1718401908874512e-01" nType="0">
          <Node pos="l" depth="2" NCoef="0" IVar="1" Cut="1.9916050000000000e+05" cType="1" res="-1.1871326714754105e-02" rms="4.6767368912696838e-01" purity="4.8984169960021973e-01" nType="0">
            <Node pos="l" depth="3" NCoef="0" IVar="-1" Cut="0.0000000000000000e+00" cType="1" res="-3.2156815286725760e-03" rms="4.7264105081558228e-01" purity="5.4096692800521851e-01" nType="-99"/>
            <Node pos="r" depth="3" NCoef="0" IVar="-1" Cut="0.0000000000000000e+00" cType="1" res="-5.3062535822391510e-02" rms="4.5192798972129822e-01" purity="3.3901458978652954e-01" nType="-99"/>
          </Node>
          <Node pos="r" depth="2" NCoef="0" IVar="-1" Cut="0.0000000000000000e+00" cType="1" res="2.8182789683341980e-02" rms="4.1478690505027771e-01" purity="7.6606476306915283e-01" nType="-99"/>
        </Node>
      </Node>
    </BinaryTree>
    <BinaryTree type="DecisionTree" boostWeight="1.0000000000000000e+00" itree="35">
      <Node pos="s" depth="0" NCoef="0" IVar="9" Cut="4.6279792968750000e+04" cType="1" res="0.0000000000000000e+00" rms="0.0000000000000000e+00" purity="4.9960458278656006e-01" nType="0">
        <Node pos="l" depth="1" NCoef="0" IVar="9" Cut="2.7026595703125000e+04" cType="1" res="4.2715808376669884e-03" rms="4.7285100817680359e-01" purity="4.2323064804077148e-01" nType="0">
          <Node pos="l" depth="2" NCoef="0" IVar="4" Cut="1.5588277578353882e+00" cType="1" res="0.0000000000000000e+00" rms="0.0000000000000000e+00" purity="2.9878488183021545e-01" nType="0">
            <Node pos="l" depth="3" NCoef="0" IVar="-1" Cut="0.0000000000000000e+00" cType="1" res="-1.0244271717965603e-02" rms="4.2018860578536987e-01" purity="2.4074925482273102e-01" nType="-99"/>
            <Node pos="r" depth="3" NCoef="0" IVar="-1" Cut="0.0000000000000000e+00" cType="1" res="-1.6980595886707306e-02" rms="4.6324610710144043e-01" purity="3.4371989965438843e-01" nType="-99"/>
          </Node>
          <Node pos="r" depth="2" NCoef="0" IVar="4" Cut="1.1030410528182983e+00" cType="1" res="1.2486302293837070e-02" rms="4.7732460498809814e-01" purity="4.4663932919502258e-01" nType="0">
            <Node pos="l" depth="3" NCoef="0" IVar="-1" Cut="0.0000000000000000e+00" cType="1" res="3.0094515532255173e-02" rms="4.6974885463714600e-01" purity="3.8734903931617737e-01" nType="-99"/>
            <Node pos="r" depth="3" NCoef="0" IVar="-1" Cut="0.0000000000000000e+00" cType="1" res="8.7027037516236305e-03" rms="4.7930416464805603e-01" purity="4.6263384819030762e-01" nType="-99"/>
          </Node>
        </Node>
        <Node pos="r" depth="1" NCoef="0" IVar="5" Cut="-1.0468697547912598e+00" cType="1" res="-2.0238954573869705e-02" rms="4.6210563182830811e-01" purity="6.1151188611984253e-01" nType="0">
          <Node pos="l" depth="2" NCoef="0" IVar="6" Cut="-1.4951692521572113e-01" cType="1" res="1.0036219842731953e-02" rms="4.6018588542938232e-01" purity="6.5380823612213135e-01" nType="0">
            <Node pos="l" depth="3" NCoef="0" IVar="-1" Cut="0.0000000000000000e+00" cType="1" res="-9.1111212968826294e-03" rms="4.7778657078742981e-01" purity="5.9630650281906128e-01" nType="-99"/>
            <Node pos="r" depth="3" NCoef="0" IVar="-1" Cut="0.0000000000000000e+00" cType="1" res="5.6499633938074112e-02" rms="4.3036445975303650e-01" purity="7.4038517475128174e-01" nType="-99"/>
          </Node>
          <Node pos="r" depth="2" NCoef="0" IVar="5" Cut="1.5461372137069702e+00" cType="1" res="-4.0448080748319626e-02" rms="4.6228048205375671e-01" purity="5.8327841758728027e-01" nType="0">
            <Node pos="l" depth="3" NCoef="0" IVar="-1" Cut="0.0000000000000000e+00" cType="1" res="-3.4072760026901960e-03" rms="4.5847782492637634e-01" purity="5.0455605983734131e-01" nType="-99"/>
            <Node pos="r" depth="3" NCoef="0" IVar="-1" Cut="0.0000000000000000e+00" cType="1" res="-9.8540950566530228e-03" rms="4.6217542886734009e-01" purity="6.3383722305297852e-01" nType="-99"/>
          </Node>
        </Node>
      </Node>
    </BinaryTree>
    <BinaryTree type="DecisionTree" boostWeight="1.0000000000000000e+00" itree="36">
      <Node pos="s" depth="0" NCoef="0" IVar="5" Cut="1.6456168889999390e+00" cType="1" res="-1.0592740960419178e-02" rms="4.6787619590759277e-01" purity="4.9977445602416992e-01" nType="0">
        <Node pos="l" depth="1" NCoef="0" IVar="6" Cut="2.2439980506896973e+00" cType="1" res="0.0000000000000000e+00" rms="0.0000000000000000e+00" purity="4.8261156678199768e-01" nType="0">
          <Node pos="l" depth="2" NCoef="0" IVar="6" Cut="-6.5029926598072052e-02" cType="1" res="-6.2570939771831036e-03" rms="4.6743652224540710e-01" purity="5.0881475210189819e-01" nType="0">
            <Node pos="l" depth="3" NCoef="0" IVar="-1" Cut="0.0000000000000000e+00" cType="1" res="-1.2797957286238670e-02" rms="4.7445040941238403e-01" purity="4.6880653500556946e-01" nType="-99"/>
            <Node pos="r" depth="3" NCoef="0" IVar="-1" Cut="0.0000000000000000e+00" cType="1" res="1.5994347631931305e-02" rms="4.4119679927825928e-01" purity="6.4985501766204834e-01" nType="-99"/>
          </Node>
          <Node pos="r" depth="2" NCoef="0" IVar="9" Cut="3.9805468750000000e+04" cType="1" res="0.0000000000000000e+00" rms="0.0000000000000000e+00" purity="3.9216989278793335e-01" nType="0">
            <Node pos="l" depth="3" NCoef="0" IVar="-1" Cut="0.0000000000000000e+00" cType="1" res="-1.2419567443430424e-02" rms="4.5942902565002441e-01" purity="3.6401161551475525e-01" nType="-99"/>
            <Node pos="r" depth="3" NCoef="0" IVar="-1" Cut="0.0000000000000000e+00" cType="1" res="-2.8274815995246172e-03" rms="4.5690721273422241e-01" purity="4.2745926976203918e-01" nType="-99"/>
          </Node>
        </Node>
        <Node pos="r" depth="1" NCoef="0" IVar="4" Cut="1.6291019916534424e+00" cType="1" res="9.2167351394891739e-03" rms="4.6964380145072937e-01" purity="5.3503352403640747e-01" nType="0">
          <Node pos="l" depth="2" NCoef="0" IVar="3" Cut="3.4887344837188721e+00" cType="1" res="2.5423591956496239e-02" rms="4.6991088986396790e-01" purity="5.2435398101806641e-01" nType="0">
            <Node pos="l" depth="3" NCoef="0" IVar="-1" Cut="0.0000000000000000e+00" cType="1" res="4.3414860963821411e-02" rms="4.8082056641578674e-01" purity="5.2976256608963013e-01" nType="-99"/>
            <Node pos="r" depth="3" NCoef="0" IVar="-1" Cut="0.0000000000000000e+00" cType="1" res="1.6670625656843185e-02" rms="4.6155560016632080e-01" purity="5.2049261331558228e-01" nType="-99"/>
          </Node>
          <Node pos="r" depth="2" NCoef="0" IVar="3" Cut="3.7732262611389160e+00" cType="1" res="-2.4847127497196198e-03" rms="4.6910291910171509e-01" purity="5.4274421930313110e-01" nType="0">
            <Node pos="l" depth="3" NCoef="0" IVar="-1" Cut="0.0000000000000000e+00" cType="1" res="-1.5803884714841843e-02" rms="4.8011836409568787e-01" purity="4.8554453253746033e-01" nType="-99"/>
            <Node pos="r" depth="3" NCoef="0" IVar="-1" Cut="0.0000000000000000e+00" cType="1" res="2.1524647250771523e-02" rms="4.5699641108512878e-01" purity="6.0006737709045410e-01" nType="-99"/>
          </Node>
        </Node>
      </Node>
    </BinaryTree>
    <BinaryTree type="DecisionTree" boostWeight="1.0000000000000000e+00" itree="37">
      <Node pos="s" depth="0" NCoef="0" IVar="5" Cut="-2.8422944545745850e+00" cType="1" res="-7.7388565987348557e-03" rms="4.7001066803932190e-01" purity="5.0304901599884033e-01" nType="0">
        <Node pos="l" depth="1" NCoef="0" IVar="-1" Cut="0.0000000000000000e+00" cType="1" res="2.5101257488131523e-02" rms="4.5708459615707397e-01" purity="5.9675145149230957e-01" nType="-99"/>
        <Node pos="r" depth="1" NCoef="0" IVar="1" Cut="2.4644390625000000e+05" cType="1" res="-9.8954150453209877e-03" rms="4.7089076042175293e-01" purity="4.9605077505111694e-01" nType="0">
          <Node pos="l" depth="2" NCoef="0" IVar="1" Cut="2.1633598437500000e+05" cType="1" res="-1.2498429045081139e-02" rms="4.7194674611091614e-01" purity="5.1112520694732666e-01" nType="0">
            <Node pos="l" depth="3" NCoef="0" IVar="-1" Cut="0.0000000000000000e+00" cType="1" res="-9.1497292742133141e-03" rms="4.7280561923980713e-01" purity="5.1876902580261230e-01" nType="-99"/>
            <Node pos="r" depth="3" NCoef="0" IVar="-1" Cut="0.0000000000000000e+00" cType="1" res="-6.6963702440261841e-02" rms="4.5793071389198303e-01" purity="3.9909350872039795e-01" nType="-99"/>
          </Node>
          <Node pos="r" depth="2" NCoef="0" IVar="5" Cut="5.7747602462768555e-01" cType="1" res="1.4937123283743858e-02" rms="4.5995506644248962e-01" purity="3.5224169492721558e-01" nType="0">
            <Node pos="l" depth="3" NCoef="0" IVar="-1" Cut="0.0000000000000000e+00" cType="1" res="3.7355113774538040e-02" rms="4.6084633469581604e-01" purity="3.4761661291122437e-01" nType="-99"/>
            <Node pos="r" depth="3" NCoef="0" IVar="-1" Cut="0.0000000000000000e+00" cType="1" res="8.4918225184082985e-03" rms="4.5893940329551697e-01" purity="3.5679358243942261e-01" nType="-99"/>
          </Node>
        </Node>
      </Node>
    </BinaryTree>
    <BinaryTree type="DecisionTree" boostWeight="1.0000000000000000e+00" itree="38">
      <Node pos="s" depth="0" NCoef="0" IVar="5" Cut="-2.8422989845275879e+00" cType="1" res="-6.7076794803142548e-03" rms="4.7012507915496826e-01" purity="5.0156491994857788e-01" nType="0">
        <Node pos="l" depth="1" NCoef="0" IVar="-1" Cut="0.0000000000000000e+00" cType="1" res="-5.3353342227637768e-03" rms="4.6266034245491028e-01" purity="5.3060561418533325e-01" nType="-99"/>
        <Node pos="r" depth="1" NCoef="0" IVar="4" Cut="3.1842815876007080e+00" cType="1" res="-3.5393468569964170e-03" rms="4.7059437632560730e-01" purity="4.9917337298393250e-01" nType="0">
          <Node pos="l" depth="2" NCoef="0" IVar="6" Cut="-2.8423540592193604e+00" cType="1" res="-2.7733528986573219e-04" rms="4.7067248821258545e-01" purity="5.0783443450927734e-01" nType="0">
            <Node pos="l" depth="3" NCoef="0" IVar="-1" Cut="0.0000000000000000e+00" cType="1" res="-3.5491496324539185e-02" rms="4.7870910167694092e-01" purity="4.4974431395530701e-01" nType="-99"/>
            <Node pos="r" depth="3" NCoef="0" IVar="-1" Cut="0.0000000000000000e+00" cType="1" res="3.0054547823965549e-03" rms="4.6974101662635803e-01" purity="5.1374137401580811e-01" nType="-99"/>
          </Node>
          <Node pos="r" depth="2" NCoef="0" IVar="-1" Cut="0.0000000000000000e+00" cType="1" res="-2.1826583892107010e-02" rms="4.6728566288948059e-01" purity="3.8160458207130432e-01" nType="-99"/>
        </Node>
      </Node>
    </BinaryTree>
    <BinaryTree type="DecisionTree" boostWeight="1.0000000000000000e+00" itree="39">
      <Node pos="s" depth="0" NCoef="0" IVar="6" Cut="-4.4877767562866211e-01" cType="1" res="5.9742789017036557e-04" rms="4.6765893697738647e-01" purity="5.0789040327072144e-01" nType="0">
        <Node pos="l" depth="1" NCoef="0" IVar="8" Cut="5.8838488281250000e+04" cType="1" res="1.6563050448894501e-02" rms="4.7044152021408081e-01" purity="5.1061457395553589e-01" nType="0">
          <Node pos="l" depth="2" NCoef="0" IVar="8" Cut="4.9224234375000000e+04" cType="1" res="2.5226414203643799e-02" rms="4.7459015250205994e-01" purity="4.1907274723052979e-01" nType="0">
            <Node pos="l" depth="3" NCoef="0" IVar="-1" Cut="0.0000000000000000e+00" cType="1" res="9.8344609141349792e-03" rms="4.6965327858924866e-01" purity="3.7459516525268555e-01" nType="-99"/>
            <Node pos="r" depth="3" NCoef="0" IVar="-1" Cut="0.0000000000000000e+00" cType="1" res="6.2323078513145447e-02" rms="4.8346653580665588e-01" purity="5.2169477939605713e-01" nType="-99"/>
          </Node>
          <Node pos="r" depth="2" NCoef="0" IVar="6" Cut="-2.6285107135772705e+00" cType="1" res="8.2824453711509705e-03" rms="4.6629127860069275e-01" purity="5.9811198711395264e-01" nType="0">
            <Node pos="l" depth="3" NCoef="0" IVar="-1" Cut="0.0000000000000000e+00" cType="1" res="-2.8041798621416092e-02" rms="4.7977733612060547e-01" purity="5.4426634311676025e-01" nType="-99"/>
            <Node pos="r" depth="3" NCoef="0" IVar="-1" Cut="0.0000000000000000e+00" cType="1" res="2.6745108887553215e-02" rms="4.5960760116577148e-01" purity="6.2091052532196045e-01" nType="-99"/>
          </Node>
        </Node>
        <Node pos="r" depth="1" NCoef="0" IVar="4" Cut="8.6565023660659790e-01" cType="1" res="-1.2837818823754787e-02" rms="4.6487981081008911e-01" purity="5.0559794902801514e-01" nType="0">
          <Node pos="l" depth="2" NCoef="0" IVar="9" Cut="4.4292355468750000e+04" cType="1" res="0.0000000000000000e+00" rms="0.0000000000000000e+00" purity="4.3886947631835938e-01" nType="0">
            <Node pos="l" depth="3" NCoef="0" IVar="-1" Cut="0.0000000000000000e+00" cType="1" res="-7.0248632691800594e-03" rms="4.3866214156150818e-01" purity="2.7502587437629700e-01" nType="-99"/>
            <Node pos="r" depth="3" NCoef="0" IVar="-1" Cut="0.0000000000000000e+00" cType="1" res="-1.1124392971396446e-02" rms="4.6928912401199341e-01" purity="6.1182147264480591e-01" nType="-99"/>
          </Node>
          <Node pos="r" depth="2" NCoef="0" IVar="6" Cut="2.2869889736175537e+00" cType="1" res="-6.0200090520083904e-03" rms="4.6639606356620789e-01" purity="5.1852715015411377e-01" nType="0">
            <Node pos="l" depth="3" NCoef="0" IVar="-1" Cut="0.0000000000000000e+00" cType="1" res="-1.5635900199413300e-02" rms="4.5456826686859131e-01" purity="5.4196017980575562e-01" nType="-99"/>
            <Node pos="r" depth="3" NCoef="0" IVar="-1" Cut="0.0000000000000000e+00" cType="1" res="5.3840456530451775e-03" rms="4.7950100898742676e-01" purity="4.9133995175361633e-01" nType="-99"/>
          </Node>
        </Node>
      </Node>
    </BinaryTree>
    <BinaryTree type="DecisionTree" boostWeight="1.0000000000000000e+00" itree="40">
      <Node pos="s" depth="0" NCoef="0" IVar="9" Cut="6.7559710937500000e+04" cType="1" res="0.0000000000000000e+00" rms="0.0000000000000000e+00" purity="5.0600171089172363e-01" nType="0">
        <Node pos="l" depth="1" NCoef="0" IVar="9" Cut="2.7026789062500000e+04" cType="1" res="0.0000000000000000e+00" rms="0.0000000000000000e+00" purity="4.7081291675567627e-01" nType="0">
          <Node pos="l" depth="2" NCoef="0" IVar="4" Cut="1.8851528167724609e+00" cType="1" res="-2.3581508547067642e-02" rms="4.4603714346885681e-01" purity="3.0310395359992981e-01" nType="0">
            <Node pos="l" depth="3" NCoef="0" IVar="-1" Cut="0.0000000000000000e+00" cType="1" res="-3.4245952963829041e-02" rms="4.3043309450149536e-01" purity="2.6387652754783630e-01" nType="-99"/>
            <Node pos="r" depth="3" NCoef="0" IVar="-1" Cut="0.0000000000000000e+00" cType="1" res="-2.5752286892384291e-03" rms="4.6214669942855835e-01" purity="3.4751391410827637e-01" nType="-99"/>
          </Node>
          <Node pos="r" depth="2" NCoef="0" IVar="4" Cut="3.1877682209014893e+00" cType="1" res="3.5100334789603949e-03" rms="4.7680893540382385e-01" purity="4.9149438738822937e-01" nType="0">
            <Node pos="l" depth="3" NCoef="0" IVar="-1" Cut="0.0000000000000000e+00" cType="1" res="6.8328850902616978e-03" rms="4.7689777612686157e-01" purity="5.0037038326263428e-01" nType="-99"/>
            <Node pos="r" depth="3" NCoef="0" IVar="-1" Cut="0.0000000000000000e+00" cType="1" res="-1.1115336790680885e-02" rms="4.7452443838119507e-01" purity="3.8039502501487732e-01" nType="-99"/>
          </Node>
        </Node>
        <Node pos="r" depth="1" NCoef="0" IVar="6" Cut="-1.6450489759445190e+00" cType="1" res="-2.5267686694860458e-02" rms="4.4712394475936890e-01" purity="6.6897052526473999e-01" nType="0">
          <Node pos="l" depth="2" NCoef="0" IVar="-1" Cut="0.0000000000000000e+00" cType="1" res="-2.6743518188595772e-02" rms="4.6458795666694641e-01" purity="5.5444103479385376e-01" nType="-99"/>
          <Node pos="r" depth="2" NCoef="0" IVar="5" Cut="-1.0470870733261108e+00" cType="1" res="-8.3411922678351402e-03" rms="4.3999442458152771e-01" purity="7.0603615045547485e-01" nType="0">
            <Node pos="l" depth="3" NCoef="0" IVar="-1" Cut="0.0000000000000000e+00" cType="1" res="1.4850942417979240e-02" rms="4.1917571425437927e-01" purity="7.5103908777236938e-01" nType="-99"/>
            <Node pos="r" depth="3" NCoef="0" IVar="-1" Cut="0.0000000000000000e+00" cType="1" res="-2.3175649344921112e-02" rms="4.5243951678276062e-01" purity="6.7701756954193115e-01" nType="-99"/>
          </Node>
        </Node>
      </Node>
    </BinaryTree>
    <BinaryTree type="DecisionTree" boostWeight="1.0000000000000000e+00" itree="41">
      <Node pos="s" depth="0" NCoef="0" IVar="7" Cut="6.0000000000000000e+00" cType="1" res="0.0000000000000000e+00" rms="0.0000000000000000e+00" purity="4.9174928665161133e-01" nType="0">
        <Node pos="l" depth="1" NCoef="0" IVar="4" Cut="8.9483839273452759e-01" cType="1" res="-5.3910464048385620e-03" rms="4.6990725398063660e-01" purity="4.6677759289741516e-01" nType="0">
          <Node pos="l" depth="2" NCoef="0" IVar="4" Cut="6.6877567768096924e-01" cType="1" res="-4.3773911893367767e-02" rms="4.5014283061027527e-01" purity="3.8628742098808289e-01" nType="0">
            <Node pos="l" depth="3" NCoef="0" IVar="-1" Cut="0.0000000000000000e+00" cType="1" res="-8.6125964298844337e-03" rms="4.5328491926193237e-01" purity="4.2696642875671387e-01" nType="-99"/>
            <Node pos="r" depth="3" NCoef="0" IVar="-1" Cut="0.0000000000000000e+00" cType="1" res="-8.3191776648163795e-03" rms="4.4436272978782654e-01" purity="3.4107124805450439e-01" nType="-99"/>
          </Node>
          <Node pos="r" depth="2" NCoef="0" IVar="5" Cut="-2.2438697814941406e+00" cType="1" res="2.4359105154871941e-03" rms="4.7345456480979919e-01" purity="4.8319095373153687e-01" nType="0">
            <Node pos="l" depth="3" NCoef="0" IVar="-1" Cut="0.0000000000000000e+00" cType="1" res="-2.0824505016207695e-02" rms="4.7296634316444397e-01" purity="5.1005119085311890e-01" nType="-99"/>
            <Node pos="r" depth="3" NCoef="0" IVar="-1" Cut="0.0000000000000000e+00" cType="1" res="7.5060618110001087e-03" rms="4.7344180941581726e-01" purity="4.7631931304931641e-01" nType="-99"/>
          </Node>
        </Node>
        <Node pos="r" depth="1" NCoef="0" IVar="6" Cut="1.9440989494323730e+00" cType="1" res="-4.1305042803287506e-02" rms="4.5935621857643127e-01" purity="5.5747622251510620e-01" nType="0">
          <Node pos="l" depth="2" NCoef="0" IVar="5" Cut="2.2430055141448975e+00" cType="1" res="-4.6173883602023125e-03" rms="4.5716130733489990e-01" purity="6.1943870782852173e-01" nType="0">
            <Node pos="l" depth="3" NCoef="0" IVar="-1" Cut="0.0000000000000000e+00" cType="1" res="-1.5368280932307243e-02" rms="4.6017563343048096e-01" purity="6.0239994525909424e-01" nType="-99"/>
            <Node pos="r" depth="3" NCoef="0" IVar="-1" Cut="0.0000000000000000e+00" cType="1" res="4.8512395471334457e-02" rms="4.4311693310737610e-01" purity="6.8200415372848511e-01" nType="-99"/>
          </Node>
          <Node pos="r" depth="2" NCoef="0" IVar="-1" Cut="0.0000000000000000e+00" cType="1" res="-2.9260735027492046e-03" rms="4.5110780000686646e-01" purity="3.9499294757843018e-01" nType="-99"/>
        </Node>
      </Node>
    </BinaryTree>
    <BinaryTree type="DecisionTree" boostWeight="1.0000000000000000e+00" itree="42">
      <Node pos="s" depth="0" NCoef="0" IVar="7" Cut="7.0000000000000000e+00" cType="1" res="-9.5797413960099220e-03" rms="4.6779033541679382e-01" purity="4.9889996647834778e-01" nType="0">
        <Node pos="l" depth="1" NCoef="0" IVar="3" Cut="-1.7233834266662598e+00" cType="1" res="0.0000000000000000e+00" rms="0.0000000000000000e+00" purity="4.9064132571220398e-01" nType="0">
          <Node pos="l" depth="2" NCoef="0" IVar="-1" Cut="0.0000000000000000e+00" cType="1" res="2.9410371556878090e-02" rms="4.7756963968276978e-01" purity="4.4130998849868774e-01" nType="-99"/>
          <Node pos="r" depth="2" NCoef="0" IVar="5" Cut="1.9447710514068604e+00" cType="1" res="-7.6768295839428902e-03" rms="4.6940279006958008e-01" purity="4.9385425448417664e-01" nType="0">
            <Node pos="l" depth="3" NCoef="0" IVar="-1" Cut="0.0000000000000000e+00" cType="1" res="-8.6010834202170372e-03" rms="4.7094410657882690e-01" purity="4.7629925608634949e-01" nType="-99"/>
            <Node pos="r" depth="3" NCoef="0" IVar="-1" Cut="0.0000000000000000e+00" cType="1" res="2.8041810728609562e-03" rms="4.6523335576057434e-01" purity="5.3922671079635620e-01" nType="-99"/>
          </Node>
        </Node>
        <Node pos="r" depth="1" NCoef="0" IVar="6" Cut="7.4796861410140991e-01" cType="1" res="0.0000000000000000e+00" rms="0.0000000000000000e+00" purity="5.6402581930160522e-01" nType="0">
          <Node pos="l" depth="2" NCoef="0" IVar="-1" Cut="0.0000000000000000e+00" cType="1" res="-3.2822333741933107e-03" rms="4.5439791679382324e-01" purity="6.2557369470596313e-01" nType="-99"/>
          <Node pos="r" depth="2" NCoef="0" IVar="-1" Cut="0.0000000000000000e+00" cType="1" res="-1.8951137317344546e-03" rms="4.3490090966224670e-01" purity="4.7740200161933899e-01" nType="-99"/>
        </Node>
      </Node>
    </BinaryTree>
    <BinaryTree type="DecisionTree" boostWeight="1.0000000000000000e+00" itree="43">
      <Node pos="s" depth="0" NCoef="0" IVar="6" Cut="-2.8422269821166992e+00" cType="1" res="-3.9707105606794357e-03" rms="4.6918067336082458e-01" purity="5.0351881980895996e-01" nType="0">
        <Node pos="l" depth="1" NCoef="0" IVar="8" Cut="5.6249402343750000e+04" cType="1" res="0.0000000000000000e+00" rms="0.0000000000000000e+00" purity="4.9353820085525513e-01" nType="0">
          <Node pos="l" depth="2" NCoef="0" IVar="-1" Cut="0.0000000000000000e+00" cType="1" res="6.1283197253942490e-02" rms="4.8904386162757874e-01" purity="4.4340422749519348e-01" nType="-99"/>
          <Node pos="r" depth="2" NCoef="0" IVar="-1" Cut="0.0000000000000000e+00" cType="1" res="-2.9881619848310947e-03" rms="4.7894182801246643e-01" purity="5.5449324846267700e-01" nType="-99"/>
        </Node>
        <Node pos="r" depth="1" NCoef="0" IVar="5" Cut="2.5430893898010254e+00" cType="1" res="-7.3526450432837009e-03" rms="4.6727791428565979e-01" purity="5.0459897518157959e-01" nType="0">
          <Node pos="l" depth="2" NCoef="0" IVar="0" Cut="2.1692801562500000e+05" cType="1" res="-3.8160476833581924e-03" rms="4.6792408823966980e-01" purity="5.0001537799835205e-01" nType="0">
            <Node pos="l" depth="3" NCoef="0" IVar="-1" Cut="0.0000000000000000e+00" cType="1" res="-4.4886660762131214e-03" rms="4.7158449888229370e-01" purity="4.8122164607048035e-01" nType="-99"/>
            <Node pos="r" depth="3" NCoef="0" IVar="-1" Cut="0.0000000000000000e+00" cType="1" res="2.0715340971946716e-02" rms="4.4322127103805542e-01" purity="6.2095046043395996e-01" nType="-99"/>
          </Node>
          <Node pos="r" depth="2" NCoef="0" IVar="9" Cut="4.0038000000000000e+04" cType="1" res="-2.5043787434697151e-02" rms="4.6362730860710144e-01" purity="5.2752751111984253e-01" nType="0">
            <Node pos="l" depth="3" NCoef="0" IVar="-1" Cut="0.0000000000000000e+00" cType="1" res="-4.7871068120002747e-02" rms="4.5910227298736572e-01" purity="3.7067088484764099e-01" nType="-99"/>
            <Node pos="r" depth="3" NCoef="0" IVar="-1" Cut="0.0000000000000000e+00" cType="1" res="-6.9186030887067318e-03" rms="4.6534529328346252e-01" purity="6.2295466661453247e-01" nType="-99"/>
          </Node>
        </Node>
      </Node>
    </BinaryTree>
    <BinaryTree type="DecisionTree" boostWeight="1.0000000000000000e+00" itree="44">
      <Node pos="s" depth="0" NCoef="0" IVar="7" Cut="7.0000000000000000e+00" cType="1" res="0.0000000000000000e+00" rms="0.0000000000000000e+00" purity="4.8886018991470337e-01" nType="0">
        <Node pos="l" depth="1" NCoef="0" IVar="3" Cut="9.7806491851806641e+00" cType="1" res="0.0000000000000000e+00" rms="0.0000000000000000e+00" purity="4.8760125041007996e-01" nType="0">
          <Node pos="l" depth="2" NCoef="0" IVar="0" Cut="1.6085845312500000e+05" cType="1" res="-1.2854089727625251e-03" rms="4.7254854440689087e-01" purity="4.8908323049545288e-01" nType="0">
            <Node pos="l" depth="3" NCoef="0" IVar="-1" Cut="0.0000000000000000e+00" cType="1" res="-9.3632834032177925e-03" rms="4.7586861252784729e-01" purity="4.5791098475456238e-01" nType="-99"/>
            <Node pos="r" depth="3" NCoef="0" IVar="-1" Cut="0.0000000000000000e+00" cType="1" res="2.2454023361206055e-02" rms="4.6475747227668762e-01" purity="5.5544662475585938e-01" nType="-99"/>
          </Node>
          <Node pos="r" depth="2" NCoef="0" IVar="0" Cut="2.2104235937500000e+05" cType="1" res="-2.3097315803170204e-02" rms="4.5184940099716187e-01" purity="4.7778224945068359e-01" nType="0">
            <Node pos="l" depth="3" NCoef="0" IVar="-1" Cut="0.0000000000000000e+00" cType="1" res="-7.8532621264457703e-02" rms="4.4829300045967102e-01" purity="3.4607252478599548e-01" nType="-99"/>
            <Node pos="r" depth="3" NCoef="0" IVar="-1" Cut="0.0000000000000000e+00" cType="1" res="-8.0215428024530411e-03" rms="4.5323902368545532e-01" purity="5.6430518627166748e-01" nType="-99"/>
          </Node>
        </Node>
        <Node pos="r" depth="1" NCoef="0" IVar="6" Cut="4.4841840863227844e-01" cType="1" res="-7.7143795788288116e-02" rms="4.3130871653556824e-01" purity="4.9718546867370605e-01" nType="0">
          <Node pos="l" depth="2" NCoef="0" IVar="-1" Cut="0.0000000000000000e+00" cType="1" res="2.8347749263048172e-02" rms="4.5798343420028687e-01" purity="6.5486168861389160e-01" nType="-99"/>
          <Node pos="r" depth="2" NCoef="0" IVar="-1" Cut="0.0000000000000000e+00" cType="1" res="-1.6533921007066965e-03" rms="3.8885033130645752e-01" purity="3.6487799882888794e-01" nType="-99"/>
        </Node>
      </Node>
    </BinaryTree>
    <BinaryTree type="DecisionTree" boostWeight="1.0000000000000000e+00" itree="45">
      <Node pos="s" depth="0" NCoef="0" IVar="6" Cut="7.4800986051559448e-01" cType="1" res="-5.3102866513654590e-04" rms="4.7065773606300354e-01" purity="5.0649231672286987e-01" nType="0">
        <Node pos="l" depth="1" NCoef="0" IVar="4" Cut="2.9957275390625000e+00" cType="1" res="9.7360219806432724e-03" rms="4.6763491630554199e-01" purity="5.2482426166534424e-01" nType="0">
          <Node pos="l" depth="2" NCoef="0" IVar="6" Cut="-2.9563481807708740e+00" cType="1" res="1.2918712571263313e-02" rms="4.6681621670722961e-01" purity="5.3184390068054199e-01" nType="0">
            <Node pos="l" depth="3" NCoef="0" IVar="-1" Cut="0.0000000000000000e+00" cType="1" res="4.2635556310415268e-02" rms="4.8445087671279907e-01" purity="5.2549755573272705e-01" nType="-99"/>
            <Node pos="r" depth="3" NCoef="0" IVar="-1" Cut="0.0000000000000000e+00" cType="1" res="1.2042129412293434e-02" rms="4.6458619832992554e-01" purity="5.3260183334350586e-01" nType="-99"/>
          </Node>
          <Node pos="r" depth="2" NCoef="0" IVar="-1" Cut="0.0000000000000000e+00" cType="1" res="-1.0874511674046516e-02" rms="4.7232395410537720e-01" purity="4.7999987006187439e-01" nType="-99"/>
        </Node>
        <Node pos="r" depth="1" NCoef="0" IVar="7" Cut="6.0000000000000000e+00" cType="1" res="-1.3894223608076572e-02" rms="4.7423031926155090e-01" purity="4.8263102769851685e-01" nType="0">
          <Node pos="l" depth="2" NCoef="0" IVar="8" Cut="7.6205820312500000e+04" cType="1" res="-2.5592434685677290e-03" rms="4.7487473487854004e-01" purity="4.6038579940795898e-01" nType="0">
            <Node pos="l" depth="3" NCoef="0" IVar="-1" Cut="0.0000000000000000e+00" cType="1" res="1.0567968711256981e-03" rms="4.7478249669075012e-01" purity="4.1681143641471863e-01" nType="-99"/>
            <Node pos="r" depth="3" NCoef="0" IVar="-1" Cut="0.0000000000000000e+00" cType="1" res="-2.0099541172385216e-02" rms="4.7487127780914307e-01" purity="6.0570287704467773e-01" nType="-99"/>
          </Node>
          <Node pos="r" depth="2" NCoef="0" IVar="4" Cut="1.6155147552490234e+00" cType="1" res="-4.9088194966316223e-02" rms="4.7048833966255188e-01" purity="5.5169463157653809e-01" nType="0">
            <Node pos="l" depth="3" NCoef="0" IVar="-1" Cut="0.0000000000000000e+00" cType="1" res="-2.2710323333740234e-02" rms="4.6949136257171631e-01" purity="5.5732327699661255e-01" nType="-99"/>
            <Node pos="r" depth="3" NCoef="0" IVar="-1" Cut="0.0000000000000000e+00" cType="1" res="-7.0010693743824959e-03" rms="4.7016212344169617e-01" purity="5.4794001579284668e-01" nType="-99"/>
          </Node>
        </Node>
      </Node>
    </BinaryTree>
    <BinaryTree type="DecisionTree" boostWeight="1.0000000000000000e+00" itree="46">
      <Node pos="s" depth="0" NCoef="0" IVar="5" Cut="-2.8422954082489014e+00" cType="1" res="-1.1084346100687981e-02" rms="4.6742352843284607e-01" purity="4.9460437893867493e-01" nType="0">
        <Node pos="l" depth="1" NCoef="0" IVar="-1" Cut="0.0000000000000000e+00" cType="1" res="-4.1903662495315075e-03" rms="4.5643958449363708e-01" purity="5.0514090061187744e-01" nType="-99"/>
        <Node pos="r" depth="1" NCoef="0" IVar="8" Cut="6.2729375000000000e+04" cType="1" res="-6.6451984457671642e-03" rms="4.6808698773384094e-01" purity="4.9370080232620239e-01" nType="0">
          <Node pos="l" depth="2" NCoef="0" IVar="8" Cut="3.0419126953125000e+04" cType="1" res="-9.5113122370094061e-04" rms="4.6929991245269775e-01" purity="4.0835741162300110e-01" nType="0">
            <Node pos="l" depth="3" NCoef="0" IVar="-1" Cut="0.0000000000000000e+00" cType="1" res="-4.9589600414037704e-02" rms="3.9775609970092773e-01" purity="2.0781473815441132e-01" nType="-99"/>
            <Node pos="r" depth="3" NCoef="0" IVar="-1" Cut="0.0000000000000000e+00" cType="1" res="5.4389587603509426e-03" rms="4.7479477524757385e-01" purity="4.2694577574729919e-01" nType="-99"/>
          </Node>
          <Node pos="r" depth="2" NCoef="0" IVar="6" Cut="1.9447978734970093e+00" cType="1" res="-1.3351261615753174e-02" rms="4.6656534075737000e-01" purity="5.9421223402023315e-01" nType="0">
            <Node pos="l" depth="3" NCoef="0" IVar="-1" Cut="0.0000000000000000e+00" cType="1" res="-2.8854834381490946e-03" rms="4.6127563714981079e-01" purity="6.1475604772567749e-01" nType="-99"/>
            <Node pos="r" depth="3" NCoef="0" IVar="-1" Cut="0.0000000000000000e+00" cType="1" res="-1.9502071663737297e-02" rms="4.7899454832077026e-01" purity="5.4037171602249146e-01" nType="-99"/>
          </Node>
        </Node>
      </Node>
    </BinaryTree>
    <BinaryTree type="DecisionTree" boostWeight="1.0000000000000000e+00" itree="47">
      <Node pos="s" depth="0" NCoef="0" IVar="2" Cut="5.5020941162109375e+02" cType="1" res="-2.7615407016128302e-03" rms="4.6798902750015259e-01" purity="5.0538271665573120e-01" nType="0">
        <Node pos="l" depth="1" NCoef="0" IVar="4" Cut="8.8844335079193115e-01" cType="1" res="0.0000000000000000e+00" rms="0.0000000000000000e+00" purity="5.0120431184768677e-01" nType="0">
          <Node pos="l" depth="2" NCoef="0" IVar="6" Cut="-1.3465261459350586e+00" cType="1" res="-1.9557492807507515e-02" rms="4.6481248736381531e-01" purity="4.4661664962768555e-01" nType="0">
            <Node pos="l" depth="3" NCoef="0" IVar="-1" Cut="0.0000000000000000e+00" cType="1" res="2.1246526390314102e-02" rms="4.8164930939674377e-01" purity="4.6770468354225159e-01" nType="-99"/>
            <Node pos="r" depth="3" NCoef="0" IVar="-1" Cut="0.0000000000000000e+00" cType="1" res="-1.0620906949043274e-02" rms="4.5605862140655518e-01" purity="4.3716624379158020e-01" nType="-99"/>
          </Node>
          <Node pos="r" depth="2" NCoef="0" IVar="7" Cut="7.0000000000000000e+00" cType="1" res="-1.1872242903336883e-03" rms="4.6818506717681885e-01" purity="5.1154154539108276e-01" nType="0">
            <Node pos="l" depth="3" NCoef="0" IVar="-1" Cut="0.0000000000000000e+00" cType="1" res="1.3075185706838965e-03" rms="4.6937602758407593e-01" purity="4.9899819493293762e-01" nType="-99"/>
            <Node pos="r" depth="3" NCoef="0" IVar="-1" Cut="0.0000000000000000e+00" cType="1" res="-1.7668344080448151e-02" rms="4.5765838027000427e-01" purity="6.1559462547302246e-01" nType="-99"/>
          </Node>
        </Node>
        <Node pos="r" depth="1" NCoef="0" IVar="-1" Cut="0.0000000000000000e+00" cType="1" res="2.4730252102017403e-02" rms="4.7355625033378601e-01" purity="6.0414528846740723e-01" nType="-99"/>
      </Node>
    </BinaryTree>
    <BinaryTree type="DecisionTree" boostWeight="1.0000000000000000e+00" itree="48">
      <Node pos="s" depth="0" NCoef="0" IVar="4" Cut="3.3659248352050781e+00" cType="1" res="0.0000000000000000e+00" rms="0.0000000000000000e+00" purity="4.9425193667411804e-01" nType="0">
        <Node pos="l" depth="1" NCoef="0" IVar="4" Cut="3.0521962642669678e+00" cType="1" res="-7.7015920542180538e-03" rms="4.6697694063186646e-01" purity="5.0197589397430420e-01" nType="0">
          <Node pos="l" depth="2" NCoef="0" IVar="5" Cut="2.2439064979553223e+00" cType="1" res="-1.1270293034613132e-02" rms="4.6571889519691467e-01" purity="4.9847102165222168e-01" nType="0">
            <Node pos="l" depth="3" NCoef="0" IVar="-1" Cut="0.0000000000000000e+00" cType="1" res="-3.9693233557045460e-03" rms="4.6594691276550293e-01" purity="4.8174387216567993e-01" nType="-99"/>
            <Node pos="r" depth="3" NCoef="0" IVar="-1" Cut="0.0000000000000000e+00" cType="1" res="1.2935140170156956e-02" rms="4.6420034766197205e-01" purity="5.5820846557617188e-01" nType="-99"/>
          </Node>
          <Node pos="r" depth="2" NCoef="0" IVar="-1" Cut="0.0000000000000000e+00" cType="1" res="1.9086973741650581e-02" rms="4.7881853580474854e-01" purity="5.4042476415634155e-01" nType="-99"/>
        </Node>
        <Node pos="r" depth="1" NCoef="0" IVar="-1" Cut="0.0000000000000000e+00" cType="1" res="-1.7748750746250153e-02" rms="4.3977636098861694e-01" purity="3.1830909848213196e-01" nType="-99"/>
      </Node>
    </BinaryTree>
    <BinaryTree type="DecisionTree" boostWeight="1.0000000000000000e+00" itree="49">
      <Node pos="s" depth="0" NCoef="0" IVar="5" Cut="-2.8422944545745850e+00" cType="1" res="-1.1696770787239075e-02" rms="4.6738225221633911e-01" purity="4.9413871765136719e-01" nType="0">
        <Node pos="l" depth="1" NCoef="0" IVar="-1" Cut="0.0000000000000000e+00" cType="1" res="-4.2313053272664547e-03" rms="4.5606723427772522e-01" purity="4.7614037990570068e-01" nType="-99"/>
        <Node pos="r" depth="1" NCoef="0" IVar="7" Cut="7.0000000000000000e+00" cType="1" res="-4.8258882015943527e-03" rms="4.6773055195808411e-01" purity="4.9571302533149719e-01" nType="0">
          <Node pos="l" depth="2" NCoef="0" IVar="3" Cut="1.0031783103942871e+01" cType="1" res="0.0000000000000000e+00" rms="0.0000000000000000e+00" purity="4.8860886693000793e-01" nType="0">
            <Node pos="l" depth="3" NCoef="0" IVar="-1" Cut="0.0000000000000000e+00" cType="1" res="-2.7115645352751017e-03" rms="4.7158727049827576e-01" purity="4.8683571815490723e-01" nType="-99"/>
            <Node pos="r" depth="3" NCoef="0" IVar="-1" Cut="0.0000000000000000e+00" cType="1" res="1.8628073856234550e-02" rms="4.5763769745826721e-01" purity="4.9992516636848450e-01" nType="-99"/>
          </Node>
          <Node pos="r" depth="2" NCoef="0" IVar="2" Cut="1.7327644348144531e+02" cType="1" res="-4.3722044676542282e-02" rms="4.4876223802566528e-01" purity="5.5264389514923096e-01" nType="0">
            <Node pos="l" depth="3" NCoef="0" IVar="-1" Cut="0.0000000000000000e+00" cType="1" res="-7.6222250936552882e-04" rms="4.5606181025505066e-01" purity="6.4347648620605469e-01" nType="-99"/>
            <Node pos="r" depth="3" NCoef="0" IVar="-1" Cut="0.0000000000000000e+00" cType="1" res="-1.9461227348074317e-03" rms="4.3901905417442322e-01" purity="4.7452190518379211e-01" nType="-99"/>
          </Node>
        </Node>
      </Node>
    </BinaryTree>
    <BinaryTree type="DecisionTree" boostWeight="1.0000000000000000e+00" itree="50">
      <Node pos="s" depth="0" NCoef="0" IVar="3" Cut="-4.9304363131523132e-01" cType="1" res="0.0000000000000000e+00" rms="0.0000000000000000e+00" purity="4.9219474196434021e-01" nType="0">
        <Node pos="l" depth="1" NCoef="0" IVar="-1" Cut="0.0000000000000000e+00" cType="1" res="-4.0664044208824635e-03" rms="4.7408005595207214e-01" purity="3.6171764135360718e-01" nType="-99"/>
        <Node pos="r" depth="1" NCoef="0" IVar="1" Cut="2.4644390625000000e+05" cType="1" res="-5.9589403681457043e-03" rms="4.6633279323577881e-01" purity="5.0750601291656494e-01" nType="0">
          <Node pos="l" depth="2" NCoef="0" IVar="1" Cut="1.2602166406250000e+05" cType="1" res="-9.6878260374069214e-03" rms="4.6688938140869141e-01" purity="5.2064943313598633e-01" nType="0">
            <Node pos="l" depth="3" NCoef="0" IVar="-1" Cut="0.0000000000000000e+00" cType="1" res="-3.0555163975805044e-03" rms="4.6795871853828430e-01" purity="4.4100576639175415e-01" nType="-99"/>
            <Node pos="r" depth="3" NCoef="0" IVar="-1" Cut="0.0000000000000000e+00" cType="1" res="-9.1365340631455183e-04" rms="4.6617352962493896e-01" purity="5.3524625301361084e-01" nType="-99"/>
          </Node>
          <Node pos="r" depth="2" NCoef="0" IVar="6" Cut="4.4843861460685730e-01" cType="1" res="0.0000000000000000e+00" rms="0.0000000000000000e+00" purity="3.8782697916030884e-01" nType="0">
            <Node pos="l" depth="3" NCoef="0" IVar="-1" Cut="0.0000000000000000e+00" cType="1" res="-7.9142777249217033e-03" rms="4.5742407441139221e-01" purity="3.6887931823730469e-01" nType="-99"/>
            <Node pos="r" depth="3" NCoef="0" IVar="-1" Cut="0.0000000000000000e+00" cType="1" res="7.3941737413406372e-02" rms="4.5971694588661194e-01" purity="4.0926966071128845e-01" nType="-99"/>
          </Node>
        </Node>
      </Node>
    </BinaryTree>
    <BinaryTree type="DecisionTree" boostWeight="1.0000000000000000e+00" itree="51">
      <Node pos="s" depth="0" NCoef="0" IVar="3" Cut="-5.0363677740097046e-01" cType="1" res="-5.5323983542621136e-03" rms="4.6767583489418030e-01" purity="5.0088238716125488e-01" nType="0">
        <Node pos="l" depth="1" NCoef="0" IVar="-1" Cut="0.0000000000000000e+00" cType="1" res="-5.2224891260266304e-03" rms="4.7413724660873413e-01" purity="3.7817549705505371e-01" nType="-99"/>
        <Node pos="r" depth="1" NCoef="0" IVar="6" Cut="1.9447600841522217e+00" cType="1" res="0.0000000000000000e+00" rms="0.0000000000000000e+00" purity="5.1375049352645874e-01" nType="0">
          <Node pos="l" depth="2" NCoef="0" IVar="6" Cut="1.2177773714065552e+00" cType="1" res="0.0000000000000000e+00" rms="0.0000000000000000e+00" purity="5.2102452516555786e-01" nType="0">
            <Node pos="l" depth="3" NCoef="0" IVar="-1" Cut="0.0000000000000000e+00" cType="1" res="-5.3465203382074833e-03" rms="4.6355491876602173e-01" purity="5.2717173099517822e-01" nType="-99"/>
            <Node pos="r" depth="3" NCoef="0" IVar="-1" Cut="0.0000000000000000e+00" cType="1" res="-6.2552029266953468e-03" rms="4.4568604230880737e-01" purity="4.7918322682380676e-01" nType="-99"/>
          </Node>
          <Node pos="r" depth="2" NCoef="0" IVar="8" Cut="7.6131976562500000e+04" cType="1" res="0.0000000000000000e+00" rms="0.0000000000000000e+00" purity="4.9742335081100464e-01" nType="0">
            <Node pos="l" depth="3" NCoef="0" IVar="-1" Cut="0.0000000000000000e+00" cType="1" res="2.4477327242493629e-02" rms="4.8012804985046387e-01" purity="4.5815044641494751e-01" nType="-99"/>
            <Node pos="r" depth="3" NCoef="0" IVar="-1" Cut="0.0000000000000000e+00" cType="1" res="-9.0322121977806091e-03" rms="4.7233834862709045e-01" purity="6.0580092668533325e-01" nType="-99"/>
          </Node>
        </Node>
      </Node>
    </BinaryTree>
    <BinaryTree type="DecisionTree" boostWeight="1.0000000000000000e+00" itree="52">
      <Node pos="s" depth="0" NCoef="0" IVar="6" Cut="2.5431306362152100e+00" cType="1" res="-8.8844932615756989e-03" rms="4.6623790264129639e-01" purity="4.9690133333206177e-01" nType="0">
        <Node pos="l" depth="1" NCoef="0" IVar="4" Cut="8.3361518383026123e-01" cType="1" res="-2.8980812057852745e-03" rms="4.6467217803001404e-01" purity="5.0941580533981323e-01" nType="0">
          <Node pos="l" depth="2" NCoef="0" IVar="9" Cut="4.1886914062500000e+04" cType="1" res="-2.7755644172430038e-02" rms="4.4939792156219482e-01" purity="4.4048801064491272e-01" nType="0">
            <Node pos="l" depth="3" NCoef="0" IVar="-1" Cut="0.0000000000000000e+00" cType="1" res="-5.7573779486119747e-03" rms="4.2326536774635315e-01" purity="2.6356193423271179e-01" nType="-99"/>
            <Node pos="r" depth="3" NCoef="0" IVar="-1" Cut="0.0000000000000000e+00" cType="1" res="1.4967941679060459e-02" rms="4.6911558508872986e-01" purity="6.0834771394729614e-01" nType="-99"/>
          </Node>
          <Node pos="r" depth="2" NCoef="0" IVar="8" Cut="1.3824703125000000e+05" cType="1" res="1.8180984770879149e-03" rms="4.6736463904380798e-01" purity="5.2249330282211304e-01" nType="0">
            <Node pos="l" depth="3" NCoef="0" IVar="-1" Cut="0.0000000000000000e+00" cType="1" res="3.8201173301786184e-03" rms="4.6862128376960754e-01" purity="5.1310223340988159e-01" nType="-99"/>
            <Node pos="r" depth="3" NCoef="0" IVar="-1" Cut="0.0000000000000000e+00" cType="1" res="-3.4542605280876160e-02" rms="4.4582295417785645e-01" purity="6.7270457744598389e-01" nType="-99"/>
          </Node>
        </Node>
        <Node pos="r" depth="1" NCoef="0" IVar="5" Cut="1.4900019764900208e-01" cType="1" res="-3.3586740493774414e-02" rms="4.7184109687805176e-01" purity="4.4526195526123047e-01" nType="0">
          <Node pos="l" depth="2" NCoef="0" IVar="-1" Cut="0.0000000000000000e+00" cType="1" res="-4.5553613454103470e-03" rms="4.6797537803649902e-01" purity="4.1099631786346436e-01" nType="-99"/>
          <Node pos="r" depth="2" NCoef="0" IVar="6" Cut="2.7143132686614990e+00" cType="1" res="-9.1726994141936302e-03" rms="4.7117352485656738e-01" purity="4.5898398756980896e-01" nType="0">
            <Node pos="l" depth="3" NCoef="0" IVar="-1" Cut="0.0000000000000000e+00" cType="1" res="-1.3111840002238750e-02" rms="4.5674353837966919e-01" purity="4.1604635119438171e-01" nType="-99"/>
            <Node pos="r" depth="3" NCoef="0" IVar="-1" Cut="0.0000000000000000e+00" cType="1" res="1.7790821148082614e-03" rms="4.7719109058380127e-01" purity="4.7857910394668579e-01" nType="-99"/>
          </Node>
        </Node>
      </Node>
    </BinaryTree>
    <BinaryTree type="DecisionTree" boostWeight="1.0000000000000000e+00" itree="53">
      <Node pos="s" depth="0" NCoef="0" IVar="4" Cut="1.3400771617889404e+00" cType="1" res="-5.6620296090841293e-03" rms="4.6786564588546753e-01" purity="5.0061792135238647e-01" nType="0">
        <Node pos="l" depth="1" NCoef="0" IVar="6" Cut="-1.3463692665100098e+00" cType="1" res="-1.9157718867063522e-02" rms="4.6367728710174561e-01" purity="4.4742906093597412e-01" nType="0">
          <Node pos="l" depth="2" NCoef="0" IVar="5" Cut="-1.3464083671569824e+00" cType="1" res="3.7790713831782341e-03" rms="4.7829690575599670e-01" purity="4.4390481710433960e-01" nType="0">
            <Node pos="l" depth="3" NCoef="0" IVar="-1" Cut="0.0000000000000000e+00" cType="1" res="2.7200073003768921e-02" rms="4.8313140869140625e-01" purity="4.6029773354530334e-01" nType="-99"/>
            <Node pos="r" depth="3" NCoef="0" IVar="-1" Cut="0.0000000000000000e+00" cType="1" res="-2.4983275681734085e-02" rms="4.7073379158973694e-01" purity="4.2268708348274231e-01" nType="-99"/>
          </Node>
          <Node pos="r" depth="2" NCoef="0" IVar="9" Cut="6.3570996093750000e+04" cType="1" res="-3.1096620485186577e-02" rms="4.5542523264884949e-01" purity="4.4926342368125916e-01" nType="0">
            <Node pos="l" depth="3" NCoef="0" IVar="-1" Cut="0.0000000000000000e+00" cType="1" res="-2.0199676975607872e-02" rms="4.5684784650802612e-01" purity="3.6804175376892090e-01" nType="-99"/>
            <Node pos="r" depth="3" NCoef="0" IVar="-1" Cut="0.0000000000000000e+00" cType="1" res="1.2760887853801250e-02" rms="4.4823461771011353e-01" purity="6.8944108486175537e-01" nType="-99"/>
          </Node>
        </Node>
        <Node pos="r" depth="1" NCoef="0" IVar="3" Cut="1.2183589935302734e+01" cType="1" res="7.7523285290226340e-04" rms="4.6971371769905090e-01" purity="5.2598828077316284e-01" nType="0">
          <Node pos="l" depth="2" NCoef="0" IVar="6" Cut="-1.0471720695495605e+00" cType="1" res="4.3640364892780781e-03" rms="4.7083780169487000e-01" purity="5.2799451351165771e-01" nType="0">
            <Node pos="l" depth="3" NCoef="0" IVar="-1" Cut="0.0000000000000000e+00" cType="1" res="-8.6321327835321426e-03" rms="4.7602871060371399e-01" purity="4.9599146842956543e-01" nType="-99"/>
            <Node pos="r" depth="3" NCoef="0" IVar="-1" Cut="0.0000000000000000e+00" cType="1" res="1.1491689831018448e-02" rms="4.6692535281181335e-01" purity="5.5055826902389526e-01" nType="-99"/>
          </Node>
          <Node pos="r" depth="2" NCoef="0" IVar="-1" Cut="0.0000000000000000e+00" cType="1" res="-2.1884199231863022e-02" rms="4.4894960522651672e-01" purity="4.9572214484214783e-01" nType="-99"/>
        </Node>
      </Node>
    </BinaryTree>
    <BinaryTree type="DecisionTree" boostWeight="1.0000000000000000e+00" itree="54">
      <Node pos="s" depth="0" NCoef="0" IVar="5" Cut="1.3464180231094360e+00" cType="1" res="-1.0435409843921661e-02" rms="4.6858191490173340e-01" purity="4.9748072028160095e-01" nType="0">
        <Node pos="l" depth="1" NCoef="0" IVar="6" Cut="2.2440021038055420e+00" cType="1" res="-3.6334684118628502e-03" rms="4.7020074725151062e-01" purity="4.9572750926017761e-01" nType="0">
          <Node pos="l" depth="2" NCoef="0" IVar="6" Cut="-3.2139334082603455e-01" cType="1" res="5.9731965884566307e-03" rms="4.6933752298355103e-01" purity="5.1523679494857788e-01" nType="0">
            <Node pos="l" depth="3" NCoef="0" IVar="-1" Cut="0.0000000000000000e+00" cType="1" res="-1.9990352448076010e-03" rms="4.7713762521743774e-01" purity="4.6784791350364685e-01" nType="-99"/>
            <Node pos="r" depth="3" NCoef="0" IVar="-1" Cut="0.0000000000000000e+00" cType="1" res="3.4671232104301453e-02" rms="4.4183060526847839e-01" purity="6.7052578926086426e-01" nType="-99"/>
          </Node>
          <Node pos="r" depth="2" NCoef="0" IVar="5" Cut="-5.7702380418777466e-01" cType="1" res="-4.1259016841650009e-02" rms="4.7168642282485962e-01" purity="4.1931682825088501e-01" nType="0">
            <Node pos="l" depth="3" NCoef="0" IVar="-1" Cut="0.0000000000000000e+00" cType="1" res="-6.9101350381970406e-03" rms="4.6586865186691284e-01" purity="4.5459160208702087e-01" nType="-99"/>
            <Node pos="r" depth="3" NCoef="0" IVar="-1" Cut="0.0000000000000000e+00" cType="1" res="-8.0391205847263336e-03" rms="4.7125011682510376e-01" purity="4.0074294805526733e-01" nType="-99"/>
          </Node>
        </Node>
        <Node pos="r" depth="1" NCoef="0" IVar="5" Cut="1.7738473415374756e+00" cType="1" res="-2.2030316293239594e-02" rms="4.6558034420013428e-01" purity="5.0046944618225098e-01" nType="0">
          <Node pos="l" depth="2" NCoef="0" IVar="-1" Cut="0.0000000000000000e+00" cType="1" res="-2.3776083253324032e-03" rms="4.4887340068817139e-01" purity="3.8441741466522217e-01" nType="-99"/>
          <Node pos="r" depth="2" NCoef="0" IVar="7" Cut="5.0000000000000000e+00" cType="1" res="0.0000000000000000e+00" rms="0.0000000000000000e+00" purity="5.2634298801422119e-01" nType="0">
            <Node pos="l" depth="3" NCoef="0" IVar="-1" Cut="0.0000000000000000e+00" cType="1" res="8.0266529694199562e-03" rms="4.6824342012405396e-01" purity="4.6332252025604248e-01" nType="-99"/>
            <Node pos="r" depth="3" NCoef="0" IVar="-1" Cut="0.0000000000000000e+00" cType="1" res="-2.1614903584122658e-02" rms="4.6776881814002991e-01" purity="5.7396095991134644e-01" nType="-99"/>
          </Node>
        </Node>
      </Node>
    </BinaryTree>
    <BinaryTree type="DecisionTree" boostWeight="1.0000000000000000e+00" itree="55">
      <Node pos="s" depth="0" NCoef="0" IVar="5" Cut="-2.8422966003417969e+00" cType="1" res="-2.0595490932464600e-03" rms="4.6905344724655151e-01" purity="5.0473171472549438e-01" nType="0">
        <Node pos="l" depth="1" NCoef="0" IVar="-1" Cut="0.0000000000000000e+00" cType="1" res="-6.1895535327494144e-03" rms="4.6073332428932190e-01" purity="5.1497095823287964e-01" nType="-99"/>
        <Node pos="r" depth="1" NCoef="0" IVar="6" Cut="1.0472092628479004e+00" cType="1" res="1.8737585050985217e-03" rms="4.6947720646858215e-01" purity="5.0392496585845947e-01" nType="0">
          <Node pos="l" depth="2" NCoef="0" IVar="6" Cut="-2.9420874118804932e+00" cType="1" res="1.1354463174939156e-02" rms="4.6667668223381042e-01" purity="5.2746397256851196e-01" nType="0">
            <Node pos="l" depth="3" NCoef="0" IVar="-1" Cut="0.0000000000000000e+00" cType="1" res="-1.9899899140000343e-02" rms="4.9197128415107727e-01" purity="4.6263468265533447e-01" nType="-99"/>
            <Node pos="r" depth="3" NCoef="0" IVar="-1" Cut="0.0000000000000000e+00" cType="1" res="1.5999490395188332e-02" rms="4.6343863010406494e-01" purity="5.3521019220352173e-01" nType="-99"/>
          </Node>
          <Node pos="r" depth="2" NCoef="0" IVar="7" Cut="6.0000000000000000e+00" cType="1" res="-1.1131828650832176e-02" rms="4.7296866774559021e-01" purity="4.7156381607055664e-01" nType="0">
            <Node pos="l" depth="3" NCoef="0" IVar="-1" Cut="0.0000000000000000e+00" cType="1" res="-1.6059217741712928e-03" rms="4.7195118665695190e-01" purity="4.5360898971557617e-01" nType="-99"/>
            <Node pos="r" depth="3" NCoef="0" IVar="-1" Cut="0.0000000000000000e+00" cType="1" res="-2.2607404738664627e-02" rms="4.7560027241706848e-01" purity="5.3698468208312988e-01" nType="-99"/>
          </Node>
        </Node>
      </Node>
    </BinaryTree>
    <BinaryTree type="DecisionTree" boostWeight="1.0000000000000000e+00" itree="56">
      <Node pos="s" depth="0" NCoef="0" IVar="6" Cut="2.8423943519592285e+00" cType="1" res="-1.4581408351659775e-02" rms="4.6715250611305237e-01" purity="4.9537909030914307e-01" nType="0">
        <Node pos="l" depth="1" NCoef="0" IVar="3" Cut="-1.2729742527008057e+00" cType="1" res="-1.2030747719109058e-02" rms="4.6670246124267578e-01" purity="4.9992346763610840e-01" nType="0">
          <Node pos="l" depth="2" NCoef="0" IVar="-1" Cut="0.0000000000000000e+00" cType="1" res="-3.2992593944072723e-02" rms="4.6671348810195923e-01" purity="3.8014537096023560e-01" nType="-99"/>
          <Node pos="r" depth="2" NCoef="0" IVar="5" Cut="-1.9447214603424072e+00" cType="1" res="-9.8234070464968681e-03" rms="4.6662917733192444e-01" purity="5.0922805070877075e-01" nType="0">
            <Node pos="l" depth="3" NCoef="0" IVar="-1" Cut="0.0000000000000000e+00" cType="1" res="2.1951124072074890e-03" rms="4.6463176608085632e-01" purity="5.5044800043106079e-01" nType="-99"/>
            <Node pos="r" depth="3" NCoef="0" IVar="-1" Cut="0.0000000000000000e+00" cType="1" res="-1.1363640427589417e-02" rms="4.6733975410461426e-01" purity="4.9281832575798035e-01" nType="-99"/>
          </Node>
        </Node>
        <Node pos="r" depth="1" NCoef="0" IVar="8" Cut="5.1455019531250000e+04" cType="1" res="0.0000000000000000e+00" rms="0.0000000000000000e+00" purity="4.5252239704132080e-01" nType="0">
          <Node pos="l" depth="2" NCoef="0" IVar="-1" Cut="0.0000000000000000e+00" cType="1" res="-1.9599473103880882e-02" rms="4.6883660554885864e-01" purity="3.7933662533760071e-01" nType="-99"/>
          <Node pos="r" depth="2" NCoef="0" IVar="-1" Cut="0.0000000000000000e+00" cType="1" res="-4.2651716619729996e-02" rms="4.7151076793670654e-01" purity="5.1402896642684937e-01" nType="-99"/>
        </Node>
      </Node>
    </BinaryTree>
    <BinaryTree type="DecisionTree" boostWeight="1.0000000000000000e+00" itree="57">
      <Node pos="s" depth="0" NCoef="0" IVar="7" Cut="8.0000000000000000e+00" cType="1" res="-5.1212497055530548e-03" rms="4.6948015689849854e-01" purity="4.9828511476516724e-01" nType="0">
        <Node pos="l" depth="1" NCoef="0" IVar="4" Cut="1.1271457672119141e+00" cType="1" res="-2.6784483343362808e-03" rms="4.6949315071105957e-01" purity="4.9454402923583984e-01" nType="0">
          <Node pos="l" depth="2" NCoef="0" IVar="6" Cut="1.0471589565277100e+00" cType="1" res="9.9775092676281929e-03" rms="4.6680179238319397e-01" purity="4.6473920345306396e-01" nType="0">
            <Node pos="l" depth="3" NCoef="0" IVar="-1" Cut="0.0000000000000000e+00" cType="1" res="-8.9506572112441063e-04" rms="4.6618086099624634e-01" purity="4.6816730499267578e-01" nType="-99"/>
            <Node pos="r" depth="3" NCoef="0" IVar="-1" Cut="0.0000000000000000e+00" cType="1" res="3.1524311751127243e-02" rms="4.6728461980819702e-01" purity="4.5921152830123901e-01" nType="-99"/>
          </Node>
          <Node pos="r" depth="2" NCoef="0" IVar="6" Cut="-2.5431566238403320e+00" cType="1" res="-6.7752776667475700e-03" rms="4.7028806805610657e-01" purity="5.0419205427169800e-01" nType="0">
            <Node pos="l" depth="3" NCoef="0" IVar="-1" Cut="0.0000000000000000e+00" cType="1" res="1.3545536436140537e-02" rms="4.8053240776062012e-01" purity="5.0283724069595337e-01" nType="-99"/>
            <Node pos="r" depth="3" NCoef="0" IVar="-1" Cut="0.0000000000000000e+00" cType="1" res="-9.3456516042351723e-03" rms="4.6749714016914368e-01" purity="5.0453847646713257e-01" nType="-99"/>
          </Node>
        </Node>
        <Node pos="r" depth="1" NCoef="0" IVar="-1" Cut="0.0000000000000000e+00" cType="1" res="-4.1982352733612061e-02" rms="4.6557760238647461e-01" purity="5.8639192581176758e-01" nType="-99"/>
      </Node>
    </BinaryTree>
    <BinaryTree type="DecisionTree" boostWeight="1.0000000000000000e+00" itree="58">
      <Node pos="s" depth="0" NCoef="0" IVar="6" Cut="2.8423888683319092e+00" cType="1" res="6.4660911448299885e-03" rms="4.6769398450851440e-01" purity="5.0826495885848999e-01" nType="0">
        <Node pos="l" depth="1" NCoef="0" IVar="5" Cut="-1.9447205066680908e+00" cType="1" res="3.1578987836837769e-03" rms="4.6626660227775574e-01" purity="5.0767499208450317e-01" nType="0">
          <Node pos="l" depth="2" NCoef="0" IVar="6" Cut="5.6298518180847168e-01" cType="1" res="1.4624365605413914e-02" rms="4.6555355191230774e-01" purity="5.4764473438262939e-01" nType="0">
            <Node pos="l" depth="3" NCoef="0" IVar="-1" Cut="0.0000000000000000e+00" cType="1" res="5.9736678376793861e-03" rms="4.7419813275337219e-01" purity="5.0799846649169922e-01" nType="-99"/>
            <Node pos="r" depth="3" NCoef="0" IVar="-1" Cut="0.0000000000000000e+00" cType="1" res="7.4343748390674591e-02" rms="4.1798210144042969e-01" purity="7.4221920967102051e-01" nType="-99"/>
          </Node>
          <Node pos="r" depth="2" NCoef="0" IVar="4" Cut="8.6933261156082153e-01" cType="1" res="-1.6530086286365986e-03" rms="4.6648153662681580e-01" purity="4.9090513586997986e-01" nType="0">
            <Node pos="l" depth="3" NCoef="0" IVar="-1" Cut="0.0000000000000000e+00" cType="1" res="-9.8432973027229309e-03" rms="4.6104189753532410e-01" purity="4.2902886867523193e-01" nType="-99"/>
            <Node pos="r" depth="3" NCoef="0" IVar="-1" Cut="0.0000000000000000e+00" cType="1" res="3.6462990101426840e-03" rms="4.6726495027542114e-01" purity="5.0215363502502441e-01" nType="-99"/>
          </Node>
        </Node>
        <Node pos="r" depth="1" NCoef="0" IVar="5" Cut="4.4829383492469788e-01" cType="1" res="3.5922449082136154e-02" rms="4.7921046614646912e-01" purity="5.1351779699325562e-01" nType="0">
          <Node pos="l" depth="2" NCoef="0" IVar="-1" Cut="0.0000000000000000e+00" cType="1" res="8.9896656572818756e-03" rms="4.6984085440635681e-01" purity="4.7169527411460876e-01" nType="-99"/>
          <Node pos="r" depth="2" NCoef="0" IVar="-1" Cut="0.0000000000000000e+00" cType="1" res="6.3083171844482422e-02" rms="4.8493695259094238e-01" purity="5.4400593042373657e-01" nType="-99"/>
        </Node>
      </Node>
    </BinaryTree>
    <BinaryTree type="DecisionTree" boostWeight="1.0000000000000000e+00" itree="59">
      <Node pos="s" depth="0" NCoef="0" IVar="4" Cut="8.8245928287506104e-01" cType="1" res="-9.5440149307250977e-03" rms="4.6618050336837769e-01" purity="4.9548232555389404e-01" nType="0">
        <Node pos="l" depth="1" NCoef="0" IVar="6" Cut="1.6452128887176514e+00" cType="1" res="-3.0307145789265633e-02" rms="4.5585310459136963e-01" purity="4.3455675244331360e-01" nType="0">
          <Node pos="l" depth="2" NCoef="0" IVar="6" Cut="-4.0643119812011719e-01" cType="1" res="-4.8108492046594620e-02" rms="4.4782349467277527e-01" purity="4.2103168368339539e-01" nType="0">
            <Node pos="l" depth="3" NCoef="0" IVar="-1" Cut="0.0000000000000000e+00" cType="1" res="-1.1747920885682106e-02" rms="4.6860787272453308e-01" purity="4.6557465195655823e-01" nType="-99"/>
            <Node pos="r" depth="3" NCoef="0" IVar="-1" Cut="0.0000000000000000e+00" cType="1" res="-5.5065262131392956e-03" rms="4.1126975417137146e-01" purity="3.5953471064567566e-01" nType="-99"/>
          </Node>
          <Node pos="r" depth="2" NCoef="0" IVar="-1" Cut="0.0000000000000000e+00" cType="1" res="2.4839330464601517e-02" rms="4.7386479377746582e-01" purity="4.7190508246421814e-01" nType="-99"/>
        </Node>
        <Node pos="r" depth="1" NCoef="0" IVar="9" Cut="4.5124500000000000e+04" cType="1" res="0.0000000000000000e+00" rms="0.0000000000000000e+00" purity="5.0767970085144043e-01" nType="0">
          <Node pos="l" depth="2" NCoef="0" IVar="9" Cut="3.6499316406250000e+04" cType="1" res="1.2293955078348517e-03" rms="4.7302052378654480e-01" purity="4.3009451031684875e-01" nType="0">
            <Node pos="l" depth="3" NCoef="0" IVar="-1" Cut="0.0000000000000000e+00" cType="1" res="-9.1899596154689789e-03" rms="4.6897625923156738e-01" purity="3.8113987445831299e-01" nType="-99"/>
            <Node pos="r" depth="3" NCoef="0" IVar="-1" Cut="0.0000000000000000e+00" cType="1" res="3.4074347466230392e-02" rms="4.8084264993667603e-01" purity="5.4188799858093262e-01" nType="-99"/>
          </Node>
          <Node pos="r" depth="2" NCoef="0" IVar="8" Cut="8.2011632812500000e+04" cType="1" res="-1.5021366067230701e-02" rms="4.6069672703742981e-01" purity="6.2064766883850098e-01" nType="0">
            <Node pos="l" depth="3" NCoef="0" IVar="-1" Cut="0.0000000000000000e+00" cType="1" res="-3.3059071749448776e-02" rms="4.7663521766662598e-01" purity="5.6228125095367432e-01" nType="-99"/>
            <Node pos="r" depth="3" NCoef="0" IVar="-1" Cut="0.0000000000000000e+00" cType="1" res="2.2857554722577333e-03" rms="4.4368007779121399e-01" purity="6.7835295200347900e-01" nType="-99"/>
          </Node>
        </Node>
      </Node>
    </BinaryTree>
    <BinaryTree type="DecisionTree" boostWeight="1.0000000000000000e+00" itree="60">
      <Node pos="s" depth="0" NCoef="0" IVar="7" Cut="5.0000000000000000e+00" cType="1" res="-7.9325214028358459e-03" rms="4.6803906559944153e-01" purity="4.9685183167457581e-01" nType="0">
        <Node pos="l" depth="1" NCoef="0" IVar="4" Cut="2.1530330181121826e+00" cType="1" res="5.5318288505077362e-03" rms="4.7243043780326843e-01" purity="4.2861667275428772e-01" nType="0">
          <Node pos="l" depth="2" NCoef="0" IVar="4" Cut="7.8719592094421387e-01" cType="1" res="9.1587239876389503e-04" rms="4.6885827183723450e-01" purity="4.0371915698051453e-01" nType="0">
            <Node pos="l" depth="3" NCoef="0" IVar="-1" Cut="0.0000000000000000e+00" cType="1" res="2.9318705201148987e-02" rms="4.6835437417030334e-01" purity="4.0059813857078552e-01" nType="-99"/>
            <Node pos="r" depth="3" NCoef="0" IVar="-1" Cut="0.0000000000000000e+00" cType="1" res="-4.3216771446168423e-03" rms="4.6886137127876282e-01" purity="4.0455281734466553e-01" nType="-99"/>
          </Node>
          <Node pos="r" depth="2" NCoef="0" IVar="1" Cut="1.7916279687500000e+05" cType="1" res="1.2253620661795139e-02" rms="4.7750464081764221e-01" purity="4.6487271785736084e-01" nType="0">
            <Node pos="l" depth="3" NCoef="0" IVar="-1" Cut="0.0000000000000000e+00" cType="1" res="2.5962390936911106e-03" rms="4.8015561699867249e-01" purity="4.8640495538711548e-01" nType="-99"/>
            <Node pos="r" depth="3" NCoef="0" IVar="-1" Cut="0.0000000000000000e+00" cType="1" res="4.9092072993516922e-02" rms="4.6950072050094604e-01" purity="4.0817177295684814e-01" nType="-99"/>
          </Node>
        </Node>
        <Node pos="r" depth="1" NCoef="0" IVar="6" Cut="1.6453878879547119e+00" cType="1" res="-1.8093096092343330e-02" rms="4.6444475650787354e-01" purity="5.4831576347351074e-01" nType="0">
          <Node pos="l" depth="2" NCoef="0" IVar="4" Cut="2.4113407135009766e+00" cType="1" res="-4.6365987509489059e-03" rms="4.6190506219863892e-01" purity="5.8408939838409424e-01" nType="0">
            <Node pos="l" depth="3" NCoef="0" IVar="-1" Cut="0.0000000000000000e+00" cType="1" res="5.8614285662770271e-03" rms="4.6177178621292114e-01" purity="5.8896392583847046e-01" nType="-99"/>
            <Node pos="r" depth="3" NCoef="0" IVar="-1" Cut="0.0000000000000000e+00" cType="1" res="-1.9044300541281700e-02" rms="4.6163061261177063e-01" purity="5.7524490356445312e-01" nType="-99"/>
          </Node>
          <Node pos="r" depth="2" NCoef="0" IVar="4" Cut="2.3037035465240479e+00" cType="1" res="-4.8666425049304962e-02" rms="4.6873021125793457e-01" purity="4.6703752875328064e-01" nType="0">
            <Node pos="l" depth="3" NCoef="0" IVar="-1" Cut="0.0000000000000000e+00" cType="1" res="-2.8791499789804220e-03" rms="4.6380236744880676e-01" purity="4.2593568563461304e-01" nType="-99"/>
            <Node pos="r" depth="3" NCoef="0" IVar="-1" Cut="0.0000000000000000e+00" cType="1" res="-5.3578228689730167e-03" rms="4.7393670678138733e-01" purity="5.3764241933822632e-01" nType="-99"/>
          </Node>
        </Node>
      </Node>
    </BinaryTree>
    <BinaryTree type="DecisionTree" boostWeight="1.0000000000000000e+00" itree="61">
      <Node pos="s" depth="0" NCoef="0" IVar="4" Cut="3.2598927021026611e+00" cType="1" res="-1.8246489344164729e-03" rms="4.6774017810821533e-01" purity="5.0434416532516479e-01" nType="0">
        <Node pos="l" depth="1" NCoef="0" IVar="5" Cut="1.6455790996551514e+00" cType="1" res="-4.4610081240534782e-03" rms="4.6753692626953125e-01" purity="5.0884348154067993e-01" nType="0">
          <Node pos="l" depth="2" NCoef="0" IVar="5" Cut="1.1896252632141113e+00" cType="1" res="-1.1784816160798073e-02" rms="4.6788781881332397e-01" purity="4.9238771200180054e-01" nType="0">
            <Node pos="l" depth="3" NCoef="0" IVar="-1" Cut="0.0000000000000000e+00" cType="1" res="-3.6479292903095484e-03" rms="4.7006484866142273e-01" purity="5.0651067495346069e-01" nType="-99"/>
            <Node pos="r" depth="3" NCoef="0" IVar="-1" Cut="0.0000000000000000e+00" cType="1" res="-2.3875809274613857e-03" rms="4.4181790947914124e-01" purity="3.6903461813926697e-01" nType="-99"/>
          </Node>
          <Node pos="r" depth="2" NCoef="0" IVar="8" Cut="7.6282789062500000e+04" cType="1" res="1.0537698864936829e-02" rms="4.6645867824554443e-01" purity="5.4254376888275146e-01" nType="0">
            <Node pos="l" depth="3" NCoef="0" IVar="-1" Cut="0.0000000000000000e+00" cType="1" res="-3.2242638990283012e-03" rms="4.7396415472030640e-01" purity="4.6628463268280029e-01" nType="-99"/>
            <Node pos="r" depth="3" NCoef="0" IVar="-1" Cut="0.0000000000000000e+00" cType="1" res="3.7173308432102203e-02" rms="4.5250317454338074e-01" purity="6.7178970575332642e-01" nType="-99"/>
          </Node>
        </Node>
        <Node pos="r" depth="1" NCoef="0" IVar="-1" Cut="0.0000000000000000e+00" cType="1" res="4.4099312275648117e-02" rms="4.6890634298324585e-01" purity="4.2682185769081116e-01" nType="-99"/>
      </Node>
    </BinaryTree>
    <BinaryTree type="DecisionTree" boostWeight="1.0000000000000000e+00" itree="62">
      <Node pos="s" depth="0" NCoef="0" IVar="5" Cut="-2.2439553737640381e+00" cType="1" res="-6.6539323888719082e-03" rms="4.6947333216667175e-01" purity="5.0000482797622681e-01" nType="0">
        <Node pos="l" depth="1" NCoef="0" IVar="5" Cut="-2.9278032779693604e+00" cType="1" res="-2.6233831420540810e-02" rms="4.6295011043548584e-01" purity="5.2350991964340210e-01" nType="0">
          <Node pos="l" depth="2" NCoef="0" IVar="-1" Cut="0.0000000000000000e+00" cType="1" res="-5.6990552693605423e-03" rms="4.5827203989028931e-01" purity="5.1929867267608643e-01" nType="-99"/>
          <Node pos="r" depth="2" NCoef="0" IVar="6" Cut="-4.4850611686706543e-01" cType="1" res="-1.4432251453399658e-02" rms="4.6380749344825745e-01" purity="5.2485018968582153e-01" nType="0">
            <Node pos="l" depth="3" NCoef="0" IVar="-1" Cut="0.0000000000000000e+00" cType="1" res="-3.5213559865951538e-02" rms="4.7607588768005371e-01" purity="4.6361488103866577e-01" nType="-99"/>
            <Node pos="r" depth="3" NCoef="0" IVar="-1" Cut="0.0000000000000000e+00" cType="1" res="2.8049604967236519e-02" rms="4.2708620429039001e-01" purity="6.8884301185607910e-01" nType="-99"/>
          </Node>
        </Node>
        <Node pos="r" depth="1" NCoef="0" IVar="6" Cut="7.4801212549209595e-01" cType="1" res="0.0000000000000000e+00" rms="0.0000000000000000e+00" purity="4.9323645234107971e-01" nType="0">
          <Node pos="l" depth="2" NCoef="0" IVar="3" Cut="7.3155484199523926e+00" cType="1" res="0.0000000000000000e+00" rms="0.0000000000000000e+00" purity="5.2723693847656250e-01" nType="0">
            <Node pos="l" depth="3" NCoef="0" IVar="-1" Cut="0.0000000000000000e+00" cType="1" res="2.1198917180299759e-02" rms="4.7270479798316956e-01" purity="5.3965842723846436e-01" nType="-99"/>
            <Node pos="r" depth="3" NCoef="0" IVar="-1" Cut="0.0000000000000000e+00" cType="1" res="-1.7579205334186554e-02" rms="4.5480138063430786e-01" purity="4.9410626292228699e-01" nType="-99"/>
          </Node>
          <Node pos="r" depth="2" NCoef="0" IVar="6" Cut="1.6600966453552246e+00" cType="1" res="0.0000000000000000e+00" rms="0.0000000000000000e+00" purity="4.5990923047065735e-01" nType="0">
            <Node pos="l" depth="3" NCoef="0" IVar="-1" Cut="0.0000000000000000e+00" cType="1" res="-7.8858286142349243e-03" rms="4.4757637381553650e-01" purity="4.2158827185630798e-01" nType="-99"/>
            <Node pos="r" depth="3" NCoef="0" IVar="-1" Cut="0.0000000000000000e+00" cType="1" res="2.6606940664350986e-03" rms="4.7981095314025879e-01" purity="4.7088479995727539e-01" nType="-99"/>
          </Node>
        </Node>
      </Node>
    </BinaryTree>
    <BinaryTree type="DecisionTree" boostWeight="1.0000000000000000e+00" itree="63">
      <Node pos="s" depth="0" NCoef="0" IVar="5" Cut="4.4883728027343750e-01" cType="1" res="0.0000000000000000e+00" rms="0.0000000000000000e+00" purity="5.0252485275268555e-01" nType="0">
        <Node pos="l" depth="1" NCoef="0" IVar="6" Cut="-2.2439594268798828e+00" cType="1" res="-1.2673981487751007e-02" rms="4.6757626533508301e-01" purity="4.9414095282554626e-01" nType="0">
          <Node pos="l" depth="2" NCoef="0" IVar="5" Cut="-2.2866683006286621e+00" cType="1" res="3.6783888936042786e-03" rms="4.7702252864837646e-01" purity="4.6235641837120056e-01" nType="0">
            <Node pos="l" depth="3" NCoef="0" IVar="-1" Cut="0.0000000000000000e+00" cType="1" res="3.6928385496139526e-02" rms="4.8291152715682983e-01" purity="5.4710376262664795e-01" nType="-99"/>
            <Node pos="r" depth="3" NCoef="0" IVar="-1" Cut="0.0000000000000000e+00" cType="1" res="-1.1220077984035015e-02" rms="4.7348046302795410e-01" purity="4.2085328698158264e-01" nType="-99"/>
          </Node>
          <Node pos="r" depth="2" NCoef="0" IVar="6" Cut="-1.9230750203132629e-01" cType="1" res="-2.3218574002385139e-02" rms="4.6107497811317444e-01" purity="5.1463681459426880e-01" nType="0">
            <Node pos="l" depth="3" NCoef="0" IVar="-1" Cut="0.0000000000000000e+00" cType="1" res="-3.9723750203847885e-02" rms="4.6921613812446594e-01" purity="4.3935081362724304e-01" nType="-99"/>
            <Node pos="r" depth="3" NCoef="0" IVar="-1" Cut="0.0000000000000000e+00" cType="1" res="-5.4586101323366165e-03" rms="4.5192128419876099e-01" purity="5.9280383586883545e-01" nType="-99"/>
          </Node>
        </Node>
        <Node pos="r" depth="1" NCoef="0" IVar="6" Cut="-2.2438580989837646e+00" cType="1" res="8.5646059596911073e-04" rms="4.6986904740333557e-01" purity="5.1222664117813110e-01" nType="0">
          <Node pos="l" depth="2" NCoef="0" IVar="-1" Cut="0.0000000000000000e+00" cType="1" res="-3.6410305649042130e-02" rms="4.8631012439727783e-01" purity="5.3585129976272583e-01" nType="-99"/>
          <Node pos="r" depth="2" NCoef="0" IVar="6" Cut="-1.9231536984443665e-01" cType="1" res="4.8645567148923874e-03" rms="4.6791574358940125e-01" purity="5.0972616672515869e-01" nType="0">
            <Node pos="l" depth="3" NCoef="0" IVar="-1" Cut="0.0000000000000000e+00" cType="1" res="5.8343548327684402e-02" rms="4.2663928866386414e-01" purity="7.2742998600006104e-01" nType="-99"/>
            <Node pos="r" depth="3" NCoef="0" IVar="-1" Cut="0.0000000000000000e+00" cType="1" res="-2.2874202113598585e-03" rms="4.7448927164077759e-01" purity="4.7083303332328796e-01" nType="-99"/>
          </Node>
        </Node>
      </Node>
    </BinaryTree>
    <BinaryTree type="DecisionTree" boostWeight="1.0000000000000000e+00" itree="64">
      <Node pos="s" depth="0" NCoef="0" IVar="6" Cut="2.5431978702545166e+00" cType="1" res="-1.3448263052850962e-03" rms="4.6923658251762390e-01" purity="5.0523620843887329e-01" nType="0">
        <Node pos="l" depth="1" NCoef="0" IVar="3" Cut="-1.3618662357330322e+00" cType="1" res="5.3311358205974102e-03" rms="4.6709099411964417e-01" purity="5.1776188611984253e-01" nType="0">
          <Node pos="l" depth="2" NCoef="0" IVar="-1" Cut="0.0000000000000000e+00" cType="1" res="4.9668952822685242e-02" rms="4.7893357276916504e-01" purity="4.5189127326011658e-01" nType="-99"/>
          <Node pos="r" depth="2" NCoef="0" IVar="6" Cut="-7.0522862672805786e-01" cType="1" res="2.2053564898669720e-03" rms="4.6603369712829590e-01" purity="5.2274590730667114e-01" nType="0">
            <Node pos="l" depth="3" NCoef="0" IVar="-1" Cut="0.0000000000000000e+00" cType="1" res="1.3784936629235744e-02" rms="4.7303393483161926e-01" purity="5.1096487045288086e-01" nType="-99"/>
            <Node pos="r" depth="3" NCoef="0" IVar="-1" Cut="0.0000000000000000e+00" cType="1" res="-5.7685310021042824e-03" rms="4.5740786194801331e-01" purity="5.3659158945083618e-01" nType="-99"/>
          </Node>
        </Node>
        <Node pos="r" depth="1" NCoef="0" IVar="1" Cut="1.6920253125000000e+05" cType="1" res="-2.9832344502210617e-02" rms="4.7723567485809326e-01" purity="4.5178681612014771e-01" nType="0">
          <Node pos="l" depth="2" NCoef="0" IVar="1" Cut="1.3171465625000000e+05" cType="1" res="-3.8821268826723099e-02" rms="4.8136797547340393e-01" purity="4.6817505359649658e-01" nType="0">
            <Node pos="l" depth="3" NCoef="0" IVar="-1" Cut="0.0000000000000000e+00" cType="1" res="-6.1624520458281040e-03" rms="4.8667782545089722e-01" purity="4.1881182789802551e-01" nType="-99"/>
            <Node pos="r" depth="3" NCoef="0" IVar="-1" Cut="0.0000000000000000e+00" cType="1" res="-7.0926561020314693e-03" rms="4.7645941376686096e-01" purity="5.0204688310623169e-01" nType="-99"/>
          </Node>
          <Node pos="r" depth="2" NCoef="0" IVar="-1" Cut="0.0000000000000000e+00" cType="1" res="-9.4150779768824577e-03" rms="4.6608218550682068e-01" purity="4.1114357113838196e-01" nType="-99"/>
        </Node>
      </Node>
    </BinaryTree>
    <BinaryTree type="DecisionTree" boostWeight="1.0000000000000000e+00" itree="65">
      <Node pos="s" depth="0" NCoef="0" IVar="3" Cut="1.3069732189178467e+00" cType="1" res="0.0000000000000000e+00" rms="0.0000000000000000e+00" purity="5.0467759370803833e-01" nType="0">
        <Node pos="l" depth="1" NCoef="0" IVar="5" Cut="-1.9446967840194702e+00" cType="1" res="-2.7224350720643997e-02" rms="4.7667470574378967e-01" purity="4.1500747203826904e-01" nType="0">
          <Node pos="l" depth="2" NCoef="0" IVar="-1" Cut="0.0000000000000000e+00" cType="1" res="1.4270103536546230e-02" rms="4.7577351331710815e-01" purity="4.6188077330589294e-01" nType="-99"/>
          <Node pos="r" depth="2" NCoef="0" IVar="4" Cut="1.8332425355911255e+00" cType="1" res="0.0000000000000000e+00" rms="0.0000000000000000e+00" purity="3.9205440878868103e-01" nType="0">
            <Node pos="l" depth="3" NCoef="0" IVar="-1" Cut="0.0000000000000000e+00" cType="1" res="-1.3896894641220570e-02" rms="4.8125854134559631e-01" purity="4.2185679078102112e-01" nType="-99"/>
            <Node pos="r" depth="3" NCoef="0" IVar="-1" Cut="0.0000000000000000e+00" cType="1" res="-4.3001886457204819e-02" rms="4.7088515758514404e-01" purity="3.7119400501251221e-01" nType="-99"/>
          </Node>
        </Node>
        <Node pos="r" depth="1" NCoef="0" IVar="4" Cut="2.7315621376037598e+00" cType="1" res="0.0000000000000000e+00" rms="0.0000000000000000e+00" purity="5.2530407905578613e-01" nType="0">
          <Node pos="l" depth="2" NCoef="0" IVar="4" Cut="9.7045516967773438e-01" cType="1" res="7.7328407205641270e-03" rms="4.6593695878982544e-01" purity="5.2774930000305176e-01" nType="0">
            <Node pos="l" depth="3" NCoef="0" IVar="-1" Cut="0.0000000000000000e+00" cType="1" res="-1.9250141456723213e-02" rms="4.6189266443252563e-01" purity="4.6769753098487854e-01" nType="-99"/>
            <Node pos="r" depth="3" NCoef="0" IVar="-1" Cut="0.0000000000000000e+00" cType="1" res="1.7553785815834999e-02" rms="4.6708178520202637e-01" purity="5.4867297410964966e-01" nType="-99"/>
          </Node>
          <Node pos="r" depth="2" NCoef="0" IVar="5" Cut="2.2429502010345459e+00" cType="1" res="-2.1244959905743599e-02" rms="4.6963116526603699e-01" purity="5.1702135801315308e-01" nType="0">
            <Node pos="l" depth="3" NCoef="0" IVar="-1" Cut="0.0000000000000000e+00" cType="1" res="-4.7658728435635567e-03" rms="4.6928328275680542e-01" purity="5.2387577295303345e-01" nType="-99"/>
            <Node pos="r" depth="3" NCoef="0" IVar="-1" Cut="0.0000000000000000e+00" cType="1" res="-3.0220998451113701e-02" rms="4.6733853220939636e-01" purity="4.9615758657455444e-01" nType="-99"/>
          </Node>
        </Node>
      </Node>
    </BinaryTree>
    <BinaryTree type="DecisionTree" boostWeight="1.0000000000000000e+00" itree="66">
      <Node pos="s" depth="0" NCoef="0" IVar="5" Cut="-2.8423111438751221e+00" cType="1" res="-3.5408234689384699e-03" rms="4.6872025728225708e-01" purity="5.0608706474304199e-01" nType="0">
        <Node pos="l" depth="1" NCoef="0" IVar="-1" Cut="0.0000000000000000e+00" cType="1" res="-4.1466588154435158e-03" rms="4.6393460035324097e-01" purity="5.4288768768310547e-01" nType="-99"/>
        <Node pos="r" depth="1" NCoef="0" IVar="8" Cut="1.2709000000000000e+05" cType="1" res="-1.0029954137280583e-03" rms="4.6902924776077271e-01" purity="5.0300979614257812e-01" nType="0">
          <Node pos="l" depth="2" NCoef="0" IVar="8" Cut="3.9625453125000000e+04" cType="1" res="1.2299078516662121e-03" rms="4.7038987278938293e-01" purity="4.8912420868873596e-01" nType="0">
            <Node pos="l" depth="3" NCoef="0" IVar="-1" Cut="0.0000000000000000e+00" cType="1" res="-1.3391371816396713e-02" rms="4.5114320516586304e-01" purity="3.0793502926826477e-01" nType="-99"/>
            <Node pos="r" depth="3" NCoef="0" IVar="-1" Cut="0.0000000000000000e+00" cType="1" res="5.4218429140746593e-03" rms="4.7489809989929199e-01" purity="5.3336995840072632e-01" nType="-99"/>
          </Node>
          <Node pos="r" depth="2" NCoef="0" IVar="-1" Cut="0.0000000000000000e+00" cType="1" res="-3.3401191234588623e-02" rms="4.5245862007141113e-01" purity="6.6124117374420166e-01" nType="-99"/>
        </Node>
      </Node>
    </BinaryTree>
    <BinaryTree type="DecisionTree" boostWeight="1.0000000000000000e+00" itree="67">
      <Node pos="s" depth="0" NCoef="0" IVar="3" Cut="-5.0363677740097046e-01" cType="1" res="-9.6656745299696922e-03" rms="4.6600264310836792e-01" purity="4.9824100732803345e-01" nType="0">
        <Node pos="l" depth="1" NCoef="0" IVar="-1" Cut="0.0000000000000000e+00" cType="1" res="-5.8577847667038441e-03" rms="4.7305053472518921e-01" purity="3.7815499305725098e-01" nType="-99"/>
        <Node pos="r" depth="1" NCoef="0" IVar="9" Cut="4.3180574218750000e+04" cType="1" res="-6.2444927170872688e-03" rms="4.6511128544807434e-01" purity="5.1110500097274780e-01" nType="0">
          <Node pos="l" depth="2" NCoef="0" IVar="1" Cut="1.9681235937500000e+05" cType="1" res="-1.2400023639202118e-02" rms="4.6979704499244690e-01" purity="4.0535748004913330e-01" nType="0">
            <Node pos="l" depth="3" NCoef="0" IVar="-1" Cut="0.0000000000000000e+00" cType="1" res="-1.1224779300391674e-02" rms="4.7789594531059265e-01" purity="4.4155210256576538e-01" nType="-99"/>
            <Node pos="r" depth="3" NCoef="0" IVar="-1" Cut="0.0000000000000000e+00" cType="1" res="9.7672250121831894e-03" rms="4.4246602058410645e-01" purity="2.9017096757888794e-01" nType="-99"/>
          </Node>
          <Node pos="r" depth="2" NCoef="0" IVar="3" Cut="7.5183072090148926e+00" cType="1" res="7.7580090146511793e-04" rms="4.5960834622383118e-01" purity="6.3170850276947021e-01" nType="0">
            <Node pos="l" depth="3" NCoef="0" IVar="-1" Cut="0.0000000000000000e+00" cType="1" res="6.0244379565119743e-03" rms="4.6354231238365173e-01" purity="6.2956547737121582e-01" nType="-99"/>
            <Node pos="r" depth="3" NCoef="0" IVar="-1" Cut="0.0000000000000000e+00" cType="1" res="-2.1072370931506157e-02" rms="4.4761911034584045e-01" purity="6.3789004087448120e-01" nType="-99"/>
          </Node>
        </Node>
      </Node>
    </BinaryTree>
    <BinaryTree type="DecisionTree" boostWeight="1.0000000000000000e+00" itree="68">
      <Node pos="s" depth="0" NCoef="0" IVar="6" Cut="-2.2439355850219727e+00" cType="1" res="-2.9608670156449080e-03" rms="4.6772047877311707e-01" purity="5.0266861915588379e-01" nType="0">
        <Node pos="l" depth="1" NCoef="0" IVar="3" Cut="8.8357582092285156e+00" cType="1" res="-1.6542317345738411e-02" rms="4.7749161720275879e-01" purity="4.6673840284347534e-01" nType="0">
          <Node pos="l" depth="2" NCoef="0" IVar="1" Cut="1.5383703125000000e+05" cType="1" res="0.0000000000000000e+00" rms="0.0000000000000000e+00" purity="4.6079555153846741e-01" nType="0">
            <Node pos="l" depth="3" NCoef="0" IVar="-1" Cut="0.0000000000000000e+00" cType="1" res="-3.7277951836585999e-02" rms="4.8354125022888184e-01" purity="4.6991309523582458e-01" nType="-99"/>
            <Node pos="r" depth="3" NCoef="0" IVar="-1" Cut="0.0000000000000000e+00" cType="1" res="-1.0436663404107094e-02" rms="4.7295257449150085e-01" purity="4.4529470801353455e-01" nType="-99"/>
          </Node>
          <Node pos="r" depth="2" NCoef="0" IVar="-1" Cut="0.0000000000000000e+00" cType="1" res="1.4817397110164165e-02" rms="4.6723085641860962e-01" purity="4.9035641551017761e-01" nType="-99"/>
        </Node>
        <Node pos="r" depth="1" NCoef="0" IVar="1" Cut="2.4356443750000000e+05" cType="1" res="1.6408056253567338e-03" rms="4.6427306532859802e-01" purity="5.1484251022338867e-01" nType="0">
          <Node pos="l" depth="2" NCoef="0" IVar="1" Cut="1.7295406250000000e+05" cType="1" res="4.8524392768740654e-03" rms="4.6585687994956970e-01" purity="5.3402245044708252e-01" nType="0">
            <Node pos="l" depth="3" NCoef="0" IVar="-1" Cut="0.0000000000000000e+00" cType="1" res="1.0290781967341900e-02" rms="4.6862465143203735e-01" purity="5.5849814414978027e-01" nType="-99"/>
            <Node pos="r" depth="3" NCoef="0" IVar="-1" Cut="0.0000000000000000e+00" cType="1" res="-1.5487710013985634e-02" rms="4.5761576294898987e-01" purity="4.6662014722824097e-01" nType="-99"/>
          </Node>
          <Node pos="r" depth="2" NCoef="0" IVar="-1" Cut="0.0000000000000000e+00" cType="1" res="-3.6544479429721832e-02" rms="4.4954329729080200e-01" purity="3.5059162974357605e-01" nType="-99"/>
        </Node>
      </Node>
    </BinaryTree>
    <BinaryTree type="DecisionTree" boostWeight="1.0000000000000000e+00" itree="69">
      <Node pos="s" depth="0" NCoef="0" IVar="7" Cut="6.0000000000000000e+00" cType="1" res="4.0605021640658379e-03" rms="4.6745145320892334e-01" purity="5.0700694322586060e-01" nType="0">
        <Node pos="l" depth="1" NCoef="0" IVar="5" Cut="2.5428578853607178e+00" cType="1" res="1.1754595674574375e-02" rms="4.7142723202705383e-01" purity="4.8072773218154907e-01" nType="0">
          <Node pos="l" depth="2" NCoef="0" IVar="3" Cut="5.6175179481506348e+00" cType="1" res="1.6709951683878899e-02" rms="4.7138151526451111e-01" purity="4.7654664516448975e-01" nType="0">
            <Node pos="l" depth="3" NCoef="0" IVar="-1" Cut="0.0000000000000000e+00" cType="1" res="2.2124923765659332e-02" rms="4.7661203145980835e-01" purity="4.8322367668151855e-01" nType="-99"/>
            <Node pos="r" depth="3" NCoef="0" IVar="-1" Cut="0.0000000000000000e+00" cType="1" res="5.1323333755135536e-03" rms="4.6345728635787964e-01" purity="4.6681052446365356e-01" nType="-99"/>
          </Node>
          <Node pos="r" depth="2" NCoef="0" IVar="5" Cut="2.7708704471588135e+00" cType="1" res="-1.7005460336804390e-02" rms="4.7066342830657959e-01" purity="5.0499397516250610e-01" nType="0">
            <Node pos="l" depth="3" NCoef="0" IVar="-1" Cut="0.0000000000000000e+00" cType="1" res="-5.2080824971199036e-02" rms="4.6776506304740906e-01" purity="4.5453172922134399e-01" nType="-99"/>
            <Node pos="r" depth="3" NCoef="0" IVar="-1" Cut="0.0000000000000000e+00" cType="1" res="7.9528540372848511e-03" rms="4.7121867537498474e-01" purity="5.3934925794601440e-01" nType="-99"/>
          </Node>
        </Node>
        <Node pos="r" depth="1" NCoef="0" IVar="3" Cut="2.3450436592102051e+00" cType="1" res="-1.6381850466132164e-02" rms="4.5609086751937866e-01" purity="5.7682561874389648e-01" nType="0">
          <Node pos="l" depth="2" NCoef="0" IVar="-1" Cut="0.0000000000000000e+00" cType="1" res="-2.2307457402348518e-03" rms="4.6241706609725952e-01" purity="4.4989931583404541e-01" nType="-99"/>
          <Node pos="r" depth="2" NCoef="0" IVar="4" Cut="1.5365929603576660e+00" cType="1" res="3.4141060896217823e-03" rms="4.5198285579681396e-01" purity="6.2887686491012573e-01" nType="0">
            <Node pos="l" depth="3" NCoef="0" IVar="-1" Cut="0.0000000000000000e+00" cType="1" res="2.8921239078044891e-02" rms="4.5308354496955872e-01" purity="6.2244832515716553e-01" nType="-99"/>
            <Node pos="r" depth="3" NCoef="0" IVar="-1" Cut="0.0000000000000000e+00" cType="1" res="-5.7616368867456913e-03" rms="4.5086964964866638e-01" purity="6.3282030820846558e-01" nType="-99"/>
          </Node>
        </Node>
      </Node>
    </BinaryTree>
    <BinaryTree type="DecisionTree" boostWeight="1.0000000000000000e+00" itree="70">
      <Node pos="s" depth="0" NCoef="0" IVar="1" Cut="2.4550129687500000e+05" cType="1" res="-2.4951708037406206e-03" rms="4.6766361594200134e-01" purity="5.0188916921615601e-01" nType="0">
        <Node pos="l" depth="1" NCoef="0" IVar="1" Cut="1.3195042187500000e+05" cType="1" res="-5.0897817127406597e-03" rms="4.6866044402122498e-01" purity="5.1462233066558838e-01" nType="0">
          <Node pos="l" depth="2" NCoef="0" IVar="8" Cut="5.7608007812500000e+04" cType="1" res="-2.6179119944572449e-02" rms="4.7853881120681763e-01" purity="4.9295115470886230e-01" nType="0">
            <Node pos="l" depth="3" NCoef="0" IVar="-1" Cut="0.0000000000000000e+00" cType="1" res="1.1189607903361320e-02" rms="4.7547471523284912e-01" purity="4.3896800279617310e-01" nType="-99"/>
            <Node pos="r" depth="3" NCoef="0" IVar="-1" Cut="0.0000000000000000e+00" cType="1" res="-5.0388038158416748e-02" rms="4.7847497463226318e-01" purity="5.3670173883438110e-01" nType="-99"/>
          </Node>
          <Node pos="r" depth="2" NCoef="0" IVar="9" Cut="6.6361882812500000e+04" cType="1" res="2.7760812081396580e-03" rms="4.6467727422714233e-01" purity="5.2270519733428955e-01" nType="0">
            <Node pos="l" depth="3" NCoef="0" IVar="-1" Cut="0.0000000000000000e+00" cType="1" res="-1.6953600570559502e-03" rms="4.7294420003890991e-01" purity="4.7493514418601990e-01" nType="-99"/>
            <Node pos="r" depth="3" NCoef="0" IVar="-1" Cut="0.0000000000000000e+00" cType="1" res="4.0483269840478897e-02" rms="4.2369076609611511e-01" purity="7.4112677574157715e-01" nType="-99"/>
          </Node>
        </Node>
        <Node pos="r" depth="1" NCoef="0" IVar="3" Cut="6.7116389274597168e+00" cType="1" res="2.1909862756729126e-02" rms="4.5746168494224548e-01" purity="3.8212063908576965e-01" nType="0">
          <Node pos="l" depth="2" NCoef="0" IVar="-1" Cut="0.0000000000000000e+00" cType="1" res="7.1655042469501495e-02" rms="4.6156054735183716e-01" purity="4.4316175580024719e-01" nType="-99"/>
          <Node pos="r" depth="2" NCoef="0" IVar="-1" Cut="0.0000000000000000e+00" cType="1" res="-9.4188256189227104e-03" rms="4.5241221785545349e-01" purity="3.3660003542900085e-01" nType="-99"/>
        </Node>
      </Node>
    </BinaryTree>
    <BinaryTree type="DecisionTree" boostWeight="1.0000000000000000e+00" itree="71">
      <Node pos="s" depth="0" NCoef="0" IVar="5" Cut="-2.8422484397888184e+00" cType="1" res="-3.4290938638150692e-03" rms="4.6584656834602356e-01" purity="5.0308752059936523e-01" nType="0">
        <Node pos="l" depth="1" NCoef="0" IVar="-1" Cut="0.0000000000000000e+00" cType="1" res="-5.6247785687446594e-03" rms="4.6138420701026917e-01" purity="5.2967655658721924e-01" nType="-99"/>
        <Node pos="r" depth="1" NCoef="0" IVar="7" Cut="7.0000000000000000e+00" cType="1" res="9.0237826952943578e-06" rms="4.6603417396545410e-01" purity="5.0094193220138550e-01" nType="0">
          <Node pos="l" depth="2" NCoef="0" IVar="5" Cut="-2.2723414897918701e+00" cType="1" res="3.7264900747686625e-03" rms="4.6828103065490723e-01" purity="4.9335411190986633e-01" nType="0">
            <Node pos="l" depth="3" NCoef="0" IVar="-1" Cut="0.0000000000000000e+00" cType="1" res="-1.2699726969003677e-02" rms="4.6669635176658630e-01" purity="5.1021814346313477e-01" nType="-99"/>
            <Node pos="r" depth="3" NCoef="0" IVar="-1" Cut="0.0000000000000000e+00" cType="1" res="5.0727543421089649e-03" rms="4.6851757168769836e-01" purity="4.9031612277030945e-01" nType="-99"/>
          </Node>
          <Node pos="r" depth="2" NCoef="0" IVar="6" Cut="1.5004988014698029e-01" cType="1" res="-2.8864525258541107e-02" rms="4.4716364145278931e-01" purity="5.5985462665557861e-01" nType="0">
            <Node pos="l" depth="3" NCoef="0" IVar="-1" Cut="0.0000000000000000e+00" cType="1" res="4.9124704673886299e-03" rms="4.5693317055702209e-01" purity="6.2796211242675781e-01" nType="-99"/>
            <Node pos="r" depth="3" NCoef="0" IVar="-1" Cut="0.0000000000000000e+00" cType="1" res="-1.5535146230831742e-03" rms="4.3575093150138855e-01" purity="4.9884966015815735e-01" nType="-99"/>
          </Node>
        </Node>
      </Node>
    </BinaryTree>
    <BinaryTree type="DecisionTree" boostWeight="1.0000000000000000e+00" itree="72">
      <Node pos="s" depth="0" NCoef="0" IVar="8" Cut="1.2709000000000000e+05" cType="1" res="-2.4222466163337231e-03" rms="4.6639451384544373e-01" purity="5.0550180673599243e-01" nType="0">
        <Node pos="l" depth="1" NCoef="0" IVar="8" Cut="4.4484511718750000e+04" cType="1" res="-6.6445436095818877e-04" rms="4.6805074810981750e-01" purity="4.9105346202850342e-01" nType="0">
          <Node pos="l" depth="2" NCoef="0" IVar="2" Cut="2.4299652099609375e+02" cType="1" res="-1.5531524084508419e-02" rms="4.5559486746788025e-01" purity="3.3324092626571655e-01" nType="0">
            <Node pos="l" depth="3" NCoef="0" IVar="-1" Cut="0.0000000000000000e+00" cType="1" res="-1.7253620317205787e-03" rms="4.6130701899528503e-01" purity="3.4845083951950073e-01" nType="-99"/>
            <Node pos="r" depth="3" NCoef="0" IVar="-1" Cut="0.0000000000000000e+00" cType="1" res="-7.3578312993049622e-02" rms="4.2411819100379944e-01" purity="2.6334911584854126e-01" nType="-99"/>
          </Node>
          <Node pos="r" depth="2" NCoef="0" IVar="8" Cut="6.8086015625000000e+04" cType="1" res="5.1260599866509438e-03" rms="4.7268682718276978e-01" purity="5.5251920223236084e-01" nType="0">
            <Node pos="l" depth="3" NCoef="0" IVar="-1" Cut="0.0000000000000000e+00" cType="1" res="1.5837270766496658e-02" rms="4.8257234692573547e-01" purity="5.0215262174606323e-01" nType="-99"/>
            <Node pos="r" depth="3" NCoef="0" IVar="-1" Cut="0.0000000000000000e+00" cType="1" res="-5.4187537170946598e-03" rms="4.6195375919342041e-01" purity="6.0474687814712524e-01" nType="-99"/>
          </Node>
        </Node>
        <Node pos="r" depth="1" NCoef="0" IVar="6" Cut="1.4987203478813171e-01" cType="1" res="-2.1379102021455765e-02" rms="4.4770580530166626e-01" purity="6.6131949424743652e-01" nType="0">
          <Node pos="l" depth="2" NCoef="0" IVar="-1" Cut="0.0000000000000000e+00" cType="1" res="-2.3803068324923515e-02" rms="4.5156285166740417e-01" purity="6.5689301490783691e-01" nType="-99"/>
          <Node pos="r" depth="2" NCoef="0" IVar="-1" Cut="0.0000000000000000e+00" cType="1" res="-3.0279086902737617e-02" rms="4.4368091225624084e-01" purity="6.6585195064544678e-01" nType="-99"/>
        </Node>
      </Node>
    </BinaryTree>
    <BinaryTree type="DecisionTree" boostWeight="1.0000000000000000e+00" itree="73">
      <Node pos="s" depth="0" NCoef="0" IVar="1" Cut="2.4686828125000000e+05" cType="1" res="-4.1710897348821163e-03" rms="4.6689257025718689e-01" purity="5.0375837087631226e-01" nType="0">
        <Node pos="l" depth="1" NCoef="0" IVar="6" Cut="1.0472092628479004e+00" cType="1" res="0.0000000000000000e+00" rms="0.0000000000000000e+00" purity="5.1690036058425903e-01" nType="0">
          <Node pos="l" depth="2" NCoef="0" IVar="1" Cut="2.1061923437500000e+05" cType="1" res="-1.4238060684874654e-03" rms="4.6486291289329529e-01" purity="5.3652000427246094e-01" nType="0">
            <Node pos="l" depth="3" NCoef="0" IVar="-1" Cut="0.0000000000000000e+00" cType="1" res="1.8452142830938101e-03" rms="4.6645987033843994e-01" purity="5.4919117689132690e-01" nType="-99"/>
            <Node pos="r" depth="3" NCoef="0" IVar="-1" Cut="0.0000000000000000e+00" cType="1" res="-4.7117143869400024e-02" rms="4.4556900858879089e-01" purity="3.9840421080589294e-01" nType="-99"/>
          </Node>
          <Node pos="r" depth="2" NCoef="0" IVar="5" Cut="1.9440331459045410e+00" cType="1" res="0.0000000000000000e+00" rms="0.0000000000000000e+00" purity="4.8868921399116516e-01" nType="0">
            <Node pos="l" depth="3" NCoef="0" IVar="-1" Cut="0.0000000000000000e+00" cType="1" res="-1.1650609783828259e-02" rms="4.6716943383216858e-01" purity="4.7800934314727783e-01" nType="-99"/>
            <Node pos="r" depth="3" NCoef="0" IVar="-1" Cut="0.0000000000000000e+00" cType="1" res="2.4876596871763468e-03" rms="4.7658309340476990e-01" purity="5.0367224216461182e-01" nType="-99"/>
          </Node>
        </Node>
        <Node pos="r" depth="1" NCoef="0" IVar="7" Cut="5.0000000000000000e+00" cType="1" res="1.1463494040071964e-02" rms="4.6018388867378235e-01" purity="3.7568917870521545e-01" nType="0">
          <Node pos="l" depth="2" NCoef="0" IVar="-1" Cut="0.0000000000000000e+00" cType="1" res="-6.7254453897476196e-03" rms="4.4600120186805725e-01" purity="2.7894401550292969e-01" nType="-99"/>
          <Node pos="r" depth="2" NCoef="0" IVar="-1" Cut="0.0000000000000000e+00" cType="1" res="3.6269277334213257e-02" rms="4.7346934676170349e-01" purity="4.7187206149101257e-01" nType="-99"/>
        </Node>
      </Node>
    </BinaryTree>
    <BinaryTree type="DecisionTree" boostWeight="1.0000000000000000e+00" itree="74">
      <Node pos="s" depth="0" NCoef="0" IVar="6" Cut="2.5431919097900391e+00" cType="1" res="-9.2633254826068878e-03" rms="4.6810588240623474e-01" purity="4.9524077773094177e-01" nType="0">
        <Node pos="l" depth="1" NCoef="0" IVar="5" Cut="-1.9447355270385742e+00" cType="1" res="-5.2930624224245548e-03" rms="4.6538734436035156e-01" purity="5.0570231676101685e-01" nType="0">
          <Node pos="l" depth="2" NCoef="0" IVar="4" Cut="1.1066849231719971e+00" cType="1" res="1.1135694570839405e-02" rms="4.6610057353973389e-01" purity="5.4177552461624146e-01" nType="0">
            <Node pos="l" depth="3" NCoef="0" IVar="-1" Cut="0.0000000000000000e+00" cType="1" res="5.3275376558303833e-02" rms="4.6695640683174133e-01" purity="5.3273999691009521e-01" nType="-99"/>
            <Node pos="r" depth="3" NCoef="0" IVar="-1" Cut="0.0000000000000000e+00" cType="1" res="-1.5255559701472521e-03" rms="4.6514931321144104e-01" purity="5.4512339830398560e-01" nType="-99"/>
          </Node>
          <Node pos="r" depth="2" NCoef="0" IVar="4" Cut="2.2028150558471680e+00" cType="1" res="0.0000000000000000e+00" rms="0.0000000000000000e+00" purity="4.8890024423599243e-01" nType="0">
            <Node pos="l" depth="3" NCoef="0" IVar="-1" Cut="0.0000000000000000e+00" cType="1" res="-9.5200724899768829e-03" rms="4.6274018287658691e-01" purity="4.6462538838386536e-01" nType="-99"/>
            <Node pos="r" depth="3" NCoef="0" IVar="-1" Cut="0.0000000000000000e+00" cType="1" res="-3.5373668652027845e-04" rms="4.6788609027862549e-01" purity="5.2702331542968750e-01" nType="-99"/>
          </Node>
        </Node>
        <Node pos="r" depth="1" NCoef="0" IVar="5" Cut="1.4916104078292847e-01" cType="1" res="-2.6397410780191422e-02" rms="4.7928425669670105e-01" purity="4.5009312033653259e-01" nType="0">
          <Node pos="l" depth="2" NCoef="0" IVar="-1" Cut="0.0000000000000000e+00" cType="1" res="-6.5225092694163322e-03" rms="4.7451463341712952e-01" purity="4.2170482873916626e-01" nType="-99"/>
          <Node pos="r" depth="2" NCoef="0" IVar="4" Cut="2.4568357467651367e+00" cType="1" res="-7.7300122939050198e-03" rms="4.7951859235763550e-01" purity="4.5993921160697937e-01" nType="0">
            <Node pos="l" depth="3" NCoef="0" IVar="-1" Cut="0.0000000000000000e+00" cType="1" res="-1.4835500158369541e-02" rms="4.7718557715415955e-01" purity="4.4052827358245850e-01" nType="-99"/>
            <Node pos="r" depth="3" NCoef="0" IVar="-1" Cut="0.0000000000000000e+00" cType="1" res="1.7301073297858238e-02" rms="4.8279854655265808e-01" purity="4.9468165636062622e-01" nType="-99"/>
          </Node>
        </Node>
      </Node>
    </BinaryTree>
    <BinaryTree type="DecisionTree" boostWeight="1.0000000000000000e+00" itree="75">
      <Node pos="s" depth="0" NCoef="0" IVar="5" Cut="-2.8422944545745850e+00" cType="1" res="-1.0615753009915352e-02" rms="4.6635589003562927e-01" purity="4.9368533492088318e-01" nType="0">
        <Node pos="l" depth="1" NCoef="0" IVar="-1" Cut="0.0000000000000000e+00" cType="1" res="-4.0286658331751823e-03" rms="4.6298161149024963e-01" purity="5.1723539829254150e-01" nType="-99"/>
        <Node pos="r" depth="1" NCoef="0" IVar="7" Cut="7.0000000000000000e+00" cType="1" res="-6.4004696905612946e-03" rms="4.6641036868095398e-01" purity="4.9162825942039490e-01" nType="0">
          <Node pos="l" depth="2" NCoef="0" IVar="4" Cut="1.3868926763534546e+00" cType="1" res="-2.8183606918901205e-03" rms="4.6911635994911194e-01" purity="4.8277688026428223e-01" nType="0">
            <Node pos="l" depth="3" NCoef="0" IVar="-1" Cut="0.0000000000000000e+00" cType="1" res="4.6127424575388432e-03" rms="4.6315127611160278e-01" purity="4.5467981696128845e-01" nType="-99"/>
            <Node pos="r" depth="3" NCoef="0" IVar="-1" Cut="0.0000000000000000e+00" cType="1" res="-7.1659050881862640e-03" rms="4.7216865420341492e-01" purity="4.9780708551406860e-01" nType="-99"/>
          </Node>
          <Node pos="r" depth="2" NCoef="0" IVar="3" Cut="4.7188072204589844e+00" cType="1" res="0.0000000000000000e+00" rms="0.0000000000000000e+00" purity="5.6058520078659058e-01" nType="0">
            <Node pos="l" depth="3" NCoef="0" IVar="-1" Cut="0.0000000000000000e+00" cType="1" res="-1.8984639318659902e-03" rms="4.4602254033088684e-01" purity="4.7136673331260681e-01" nType="-99"/>
            <Node pos="r" depth="3" NCoef="0" IVar="-1" Cut="0.0000000000000000e+00" cType="1" res="1.6687301918864250e-02" rms="4.3659687042236328e-01" purity="6.8074721097946167e-01" nType="-99"/>
          </Node>
        </Node>
      </Node>
    </BinaryTree>
    <BinaryTree type="DecisionTree" boostWeight="1.0000000000000000e+00" itree="76">
      <Node pos="s" depth="0" NCoef="0" IVar="7" Cut="5.0000000000000000e+00" cType="1" res="-4.5346366241574287e-03" rms="4.6575516462326050e-01" purity="4.9938362836837769e-01" nType="0">
        <Node pos="l" depth="1" NCoef="0" IVar="0" Cut="2.2016331250000000e+05" cType="1" res="4.5078550465404987e-03" rms="4.6936783194541931e-01" purity="4.2620506882667542e-01" nType="0">
          <Node pos="l" depth="2" NCoef="0" IVar="4" Cut="1.0813018083572388e+00" cType="1" res="0.0000000000000000e+00" rms="0.0000000000000000e+00" purity="4.1162487864494324e-01" nType="0">
            <Node pos="l" depth="3" NCoef="0" IVar="-1" Cut="0.0000000000000000e+00" cType="1" res="-1.6353290528059006e-02" rms="4.5225462317466736e-01" purity="3.5215291380882263e-01" nType="-99"/>
            <Node pos="r" depth="3" NCoef="0" IVar="-1" Cut="0.0000000000000000e+00" cType="1" res="6.0136886313557625e-03" rms="4.7470048069953918e-01" purity="4.2829510569572449e-01" nType="-99"/>
          </Node>
          <Node pos="r" depth="2" NCoef="0" IVar="-1" Cut="0.0000000000000000e+00" cType="1" res="5.4486818611621857e-02" rms="4.6241542696952820e-01" purity="5.5017822980880737e-01" nType="-99"/>
        </Node>
        <Node pos="r" depth="1" NCoef="0" IVar="3" Cut="1.5923118591308594e+00" cType="1" res="-1.1481066234409809e-02" rms="4.6284118294715881e-01" purity="5.5559664964675903e-01" nType="0">
          <Node pos="l" depth="2" NCoef="0" IVar="6" Cut="4.4870871305465698e-01" cType="1" res="-3.5566806793212891e-02" rms="4.6592038869857788e-01" purity="4.4346204400062561e-01" nType="0">
            <Node pos="l" depth="3" NCoef="0" IVar="-1" Cut="0.0000000000000000e+00" cType="1" res="-1.0060951113700867e-02" rms="4.8015943169593811e-01" purity="4.8598757386207581e-01" nType="-99"/>
            <Node pos="r" depth="3" NCoef="0" IVar="-1" Cut="0.0000000000000000e+00" cType="1" res="-1.5433869557455182e-03" rms="4.4972410798072815e-01" purity="3.9964625239372253e-01" nType="-99"/>
          </Node>
          <Node pos="r" depth="2" NCoef="0" IVar="6" Cut="1.6454014778137207e+00" cType="1" res="-5.1579154096543789e-03" rms="4.6182125806808472e-01" purity="5.8503502607345581e-01" nType="0">
            <Node pos="l" depth="3" NCoef="0" IVar="-1" Cut="0.0000000000000000e+00" cType="1" res="-1.3554458506405354e-02" rms="4.5768791437149048e-01" purity="5.9824836254119873e-01" nType="-99"/>
            <Node pos="r" depth="3" NCoef="0" IVar="-1" Cut="0.0000000000000000e+00" cType="1" res="1.4368621632456779e-02" rms="4.7113353013992310e-01" purity="5.5309981107711792e-01" nType="-99"/>
          </Node>
        </Node>
      </Node>
    </BinaryTree>
    <BinaryTree type="DecisionTree" boostWeight="1.0000000000000000e+00" itree="77">
      <Node pos="s" depth="0" NCoef="0" IVar="5" Cut="-2.8422484397888184e+00" cType="1" res="-1.2055800296366215e-02" rms="4.6640679240226746e-01" purity="4.9230822920799255e-01" nType="0">
        <Node pos="l" depth="1" NCoef="0" IVar="-1" Cut="0.0000000000000000e+00" cType="1" res="-4.1644112206995487e-03" rms="4.6343556046485901e-01" purity="5.0458472967147827e-01" nType="-99"/>
        <Node pos="r" depth="1" NCoef="0" IVar="3" Cut="5.6297845840454102e+00" cType="1" res="-7.7848262153565884e-03" rms="4.6641552448272705e-01" purity="4.9125039577484131e-01" nType="0">
          <Node pos="l" depth="2" NCoef="0" IVar="0" Cut="1.3745618750000000e+05" cType="1" res="-1.5689304098486900e-02" rms="4.7161099314689636e-01" purity="4.7574904561042786e-01" nType="0">
            <Node pos="l" depth="3" NCoef="0" IVar="-1" Cut="0.0000000000000000e+00" cType="1" res="-3.5942506510764360e-03" rms="4.7090619802474976e-01" purity="4.1711571812629700e-01" nType="-99"/>
            <Node pos="r" depth="3" NCoef="0" IVar="-1" Cut="0.0000000000000000e+00" cType="1" res="2.1324963308870792e-03" rms="4.7155338525772095e-01" purity="5.2921831607818604e-01" nType="-99"/>
          </Node>
          <Node pos="r" depth="2" NCoef="0" IVar="3" Cut="1.2181873321533203e+01" cType="1" res="4.6566072851419449e-03" rms="4.5784229040145874e-01" purity="5.1564896106719971e-01" nType="0">
            <Node pos="l" depth="3" NCoef="0" IVar="-1" Cut="0.0000000000000000e+00" cType="1" res="1.0814676992595196e-02" rms="4.5892214775085449e-01" purity="5.2404999732971191e-01" nType="-99"/>
            <Node pos="r" depth="3" NCoef="0" IVar="-1" Cut="0.0000000000000000e+00" cType="1" res="-8.9000836014747620e-03" rms="4.5258435606956482e-01" purity="4.7880741953849792e-01" nType="-99"/>
          </Node>
        </Node>
      </Node>
    </BinaryTree>
    <BinaryTree type="DecisionTree" boostWeight="1.0000000000000000e+00" itree="78">
      <Node pos="s" depth="0" NCoef="0" IVar="5" Cut="-2.8422954082489014e+00" cType="1" res="-5.9124673716723919e-03" rms="4.6859452128410339e-01" purity="5.0377470254898071e-01" nType="0">
        <Node pos="l" depth="1" NCoef="0" IVar="-1" Cut="0.0000000000000000e+00" cType="1" res="-3.6203204654157162e-03" rms="4.6612370014190674e-01" purity="5.2067691087722778e-01" nType="-99"/>
        <Node pos="r" depth="1" NCoef="0" IVar="3" Cut="-1.2729742527008057e+00" cType="1" res="-1.7443621763959527e-03" rms="4.6858182549476624e-01" purity="5.0228852033615112e-01" nType="0">
          <Node pos="l" depth="2" NCoef="0" IVar="-1" Cut="0.0000000000000000e+00" cType="1" res="-1.8667815253138542e-02" rms="4.7034466266632080e-01" purity="3.7931311130523682e-01" nType="-99"/>
          <Node pos="r" depth="2" NCoef="0" IVar="4" Cut="2.1342349052429199e+00" cType="1" res="3.8288440555334091e-04" rms="4.6838101744651794e-01" purity="5.1139003038406372e-01" nType="0">
            <Node pos="l" depth="3" NCoef="0" IVar="-1" Cut="0.0000000000000000e+00" cType="1" res="-6.2258797697722912e-03" rms="4.6668291091918945e-01" purity="4.8788487911224365e-01" nType="-99"/>
            <Node pos="r" depth="3" NCoef="0" IVar="-1" Cut="0.0000000000000000e+00" cType="1" res="8.4415152668952942e-03" rms="4.7055220603942871e-01" purity="5.4300677776336670e-01" nType="-99"/>
          </Node>
        </Node>
      </Node>
    </BinaryTree>
    <BinaryTree type="DecisionTree" boostWeight="1.0000000000000000e+00" itree="79">
      <Node pos="s" depth="0" NCoef="0" IVar="7" Cut="5.0000000000000000e+00" cType="1" res="-9.8532461561262608e-04" rms="4.6782428026199341e-01" purity="5.0621324777603149e-01" nType="0">
        <Node pos="l" depth="1" NCoef="0" IVar="4" Cut="8.2517272233963013e-01" cType="1" res="1.2080920860171318e-02" rms="4.7159847617149353e-01" purity="4.3543443083763123e-01" nType="0">
          <Node pos="l" depth="2" NCoef="0" IVar="-1" Cut="0.0000000000000000e+00" cType="1" res="-3.2839137129485607e-03" rms="4.5195099711418152e-01" purity="3.5846441984176636e-01" nType="-99"/>
          <Node pos="r" depth="2" NCoef="0" IVar="9" Cut="3.8711050781250000e+04" cType="1" res="1.6297530382871628e-02" rms="4.7452804446220398e-01" purity="4.4773897528648376e-01" nType="0">
            <Node pos="l" depth="3" NCoef="0" IVar="-1" Cut="0.0000000000000000e+00" cType="1" res="2.2023139521479607e-02" rms="4.7415107488632202e-01" purity="3.9964753389358521e-01" nType="-99"/>
            <Node pos="r" depth="3" NCoef="0" IVar="-1" Cut="0.0000000000000000e+00" cType="1" res="-1.1180376168340445e-03" rms="4.7488722205162048e-01" purity="5.5674684047698975e-01" nType="-99"/>
          </Node>
        </Node>
        <Node pos="r" depth="1" NCoef="0" IVar="6" Cut="2.5429747104644775e+00" cType="1" res="-1.1368238367140293e-02" rms="4.6454703807830811e-01" purity="5.6242537498474121e-01" nType="0">
          <Node pos="l" depth="2" NCoef="0" IVar="2" Cut="1.8224061584472656e+02" cType="1" res="-3.4028715454041958e-03" rms="4.6110644936561584e-01" purity="5.7965338230133057e-01" nType="0">
            <Node pos="l" depth="3" NCoef="0" IVar="-1" Cut="0.0000000000000000e+00" cType="1" res="8.5099330171942711e-03" rms="4.5478501915931702e-01" purity="6.0743165016174316e-01" nType="-99"/>
            <Node pos="r" depth="3" NCoef="0" IVar="-1" Cut="0.0000000000000000e+00" cType="1" res="-1.7734494060277939e-02" rms="4.6851027011871338e-01" purity="5.4500365257263184e-01" nType="-99"/>
          </Node>
          <Node pos="r" depth="2" NCoef="0" IVar="4" Cut="2.1058466434478760e+00" cType="1" res="-5.6290801614522934e-02" rms="4.8102954030036926e-01" purity="4.6526414155960083e-01" nType="0">
            <Node pos="l" depth="3" NCoef="0" IVar="-1" Cut="0.0000000000000000e+00" cType="1" res="-1.4759946614503860e-02" rms="4.8226234316825867e-01" purity="4.8625162243843079e-01" nType="-99"/>
            <Node pos="r" depth="3" NCoef="0" IVar="-1" Cut="0.0000000000000000e+00" cType="1" res="-6.6414666362106800e-03" rms="4.7684228420257568e-01" purity="4.4435006380081177e-01" nType="-99"/>
          </Node>
        </Node>
      </Node>
    </BinaryTree>
    <BinaryTree type="DecisionTree" boostWeight="1.0000000000000000e+00" itree="80">
      <Node pos="s" depth="0" NCoef="0" IVar="6" Cut="2.8423888683319092e+00" cType="1" res="-2.9442198574542999e-03" rms="4.6693018078804016e-01" purity="5.0556451082229614e-01" nType="0">
        <Node pos="l" depth="1" NCoef="0" IVar="2" Cut="3.1831362915039062e+02" cType="1" res="-4.8989058996085078e-06" rms="4.6555849909782410e-01" purity="5.0934427976608276e-01" nType="0">
          <Node pos="l" depth="2" NCoef="0" IVar="5" Cut="-2.8423106670379639e+00" cType="1" res="1.9611746538430452e-03" rms="4.6479278802871704e-01" purity="5.0943362712860107e-01" nType="0">
            <Node pos="l" depth="3" NCoef="0" IVar="-1" Cut="0.0000000000000000e+00" cType="1" res="4.1935201734304428e-02" rms="4.5036476850509644e-01" purity="6.1885112524032593e-01" nType="-99"/>
            <Node pos="r" depth="3" NCoef="0" IVar="-1" Cut="0.0000000000000000e+00" cType="1" res="-1.1181440204381943e-03" rms="4.6581527590751648e-01" purity="5.0052368640899658e-01" nType="-99"/>
          </Node>
          <Node pos="r" depth="2" NCoef="0" IVar="6" Cut="-2.2867062091827393e+00" cType="1" res="-1.0994800366461277e-02" rms="4.6966412663459778e-01" purity="5.0884509086608887e-01" nType="0">
            <Node pos="l" depth="3" NCoef="0" IVar="-1" Cut="0.0000000000000000e+00" cType="1" res="2.5345740839838982e-02" rms="4.7328963875770569e-01" purity="5.6571632623672485e-01" nType="-99"/>
            <Node pos="r" depth="3" NCoef="0" IVar="-1" Cut="0.0000000000000000e+00" cType="1" res="-1.8015919253230095e-02" rms="4.6636906266212463e-01" purity="4.7679024934768677e-01" nType="-99"/>
          </Node>
        </Node>
        <Node pos="r" depth="1" NCoef="0" IVar="9" Cut="3.9805468750000000e+04" cType="1" res="-3.0204841867089272e-02" rms="4.7860577702522278e-01" purity="4.7050857543945312e-01" nType="0">
          <Node pos="l" depth="2" NCoef="0" IVar="-1" Cut="0.0000000000000000e+00" cType="1" res="-8.6405165493488312e-03" rms="4.7299328446388245e-01" purity="4.2464035749435425e-01" nType="-99"/>
          <Node pos="r" depth="2" NCoef="0" IVar="-1" Cut="0.0000000000000000e+00" cType="1" res="-4.6845424920320511e-02" rms="4.8484113812446594e-01" purity="5.3411078453063965e-01" nType="-99"/>
        </Node>
      </Node>
    </BinaryTree>
    <BinaryTree type="DecisionTree" boostWeight="1.0000000000000000e+00" itree="81">
      <Node pos="s" depth="0" NCoef="0" IVar="5" Cut="-2.8423001766204834e+00" cType="1" res="-5.9456899762153625e-03" rms="4.6924653649330139e-01" purity="5.0104290246963501e-01" nType="0">
        <Node pos="l" depth="1" NCoef="0" IVar="-1" Cut="0.0000000000000000e+00" cType="1" res="-5.2235848270356655e-03" rms="4.5966178178787231e-01" purity="5.4354000091552734e-01" nType="-99"/>
        <Node pos="r" depth="1" NCoef="0" IVar="6" Cut="-2.8423531055450439e+00" cType="1" res="-2.8880836907774210e-03" rms="4.6993434429168701e-01" purity="4.9739506840705872e-01" nType="0">
          <Node pos="l" depth="2" NCoef="0" IVar="4" Cut="2.0067920684814453e+00" cType="1" res="-2.6930907741189003e-02" rms="4.7469857335090637e-01" purity="4.5280554890632629e-01" nType="0">
            <Node pos="l" depth="3" NCoef="0" IVar="-1" Cut="0.0000000000000000e+00" cType="1" res="-4.8556458204984665e-03" rms="4.6770715713500977e-01" purity="4.3868657946586609e-01" nType="-99"/>
            <Node pos="r" depth="3" NCoef="0" IVar="-1" Cut="0.0000000000000000e+00" cType="1" res="-4.9958717077970505e-02" rms="4.7975742816925049e-01" purity="4.6488785743713379e-01" nType="-99"/>
          </Node>
          <Node pos="r" depth="2" NCoef="0" IVar="5" Cut="-1.1326382160186768e+00" cType="1" res="-2.9252050444483757e-04" rms="4.6934348344802856e-01" purity="5.0220876932144165e-01" nType="0">
            <Node pos="l" depth="3" NCoef="0" IVar="-1" Cut="0.0000000000000000e+00" cType="1" res="-1.0273897089064121e-02" rms="4.6730890870094299e-01" purity="5.0351196527481079e-01" nType="-99"/>
            <Node pos="r" depth="3" NCoef="0" IVar="-1" Cut="0.0000000000000000e+00" cType="1" res="4.9487408250570297e-03" rms="4.7030487656593323e-01" purity="5.0154113769531250e-01" nType="-99"/>
          </Node>
        </Node>
      </Node>
    </BinaryTree>
    <BinaryTree type="DecisionTree" boostWeight="1.0000000000000000e+00" itree="82">
      <Node pos="s" depth="0" NCoef="0" IVar="5" Cut="-2.8422944545745850e+00" cType="1" res="-6.7641544155776501e-03" rms="4.6756583452224731e-01" purity="4.9915847182273865e-01" nType="0">
        <Node pos="l" depth="1" NCoef="0" IVar="-1" Cut="0.0000000000000000e+00" cType="1" res="-5.4962774738669395e-03" rms="4.6100783348083496e-01" purity="5.0435101985931396e-01" nType="-99"/>
        <Node pos="r" depth="1" NCoef="0" IVar="5" Cut="1.4319057464599609e+00" cType="1" res="-2.6738579617813230e-04" rms="4.6758955717086792e-01" purity="4.9869787693023682e-01" nType="0">
          <Node pos="l" depth="2" NCoef="0" IVar="7" Cut="7.0000000000000000e+00" cType="1" res="-4.8706713132560253e-03" rms="4.6673876047134399e-01" purity="4.7823619842529297e-01" nType="0">
            <Node pos="l" depth="3" NCoef="0" IVar="-1" Cut="0.0000000000000000e+00" cType="1" res="1.5270906733348966e-03" rms="4.7044748067855835e-01" purity="4.7216692566871643e-01" nType="-99"/>
            <Node pos="r" depth="3" NCoef="0" IVar="-1" Cut="0.0000000000000000e+00" cType="1" res="-1.6500746132805943e-03" rms="4.3677425384521484e-01" purity="5.2142888307571411e-01" nType="-99"/>
          </Node>
          <Node pos="r" depth="2" NCoef="0" IVar="3" Cut="8.4075994491577148e+00" cType="1" res="7.3001221753656864e-03" rms="4.6888574957847595e-01" purity="5.3233087062835693e-01" nType="0">
            <Node pos="l" depth="3" NCoef="0" IVar="-1" Cut="0.0000000000000000e+00" cType="1" res="3.1040986068546772e-03" rms="4.7235560417175293e-01" purity="5.2174115180969238e-01" nType="-99"/>
            <Node pos="r" depth="3" NCoef="0" IVar="-1" Cut="0.0000000000000000e+00" cType="1" res="4.0396351367235184e-02" rms="4.5037585496902466e-01" purity="5.8572840690612793e-01" nType="-99"/>
          </Node>
        </Node>
      </Node>
    </BinaryTree>
    <BinaryTree type="DecisionTree" boostWeight="1.0000000000000000e+00" itree="83">
      <Node pos="s" depth="0" NCoef="0" IVar="5" Cut="-7.4792510271072388e-01" cType="1" res="-4.6210843138396740e-03" rms="4.6717804670333862e-01" purity="4.9991104006767273e-01" nType="0">
        <Node pos="l" depth="1" NCoef="0" IVar="2" Cut="3.1415600585937500e+02" cType="1" res="5.3825411014258862e-03" rms="4.6840253472328186e-01" purity="5.2034425735473633e-01" nType="0">
          <Node pos="l" depth="2" NCoef="0" IVar="5" Cut="-1.3185015916824341e+00" cType="1" res="-8.8823644910007715e-04" rms="4.6776366233825684e-01" purity="5.1262915134429932e-01" nType="0">
            <Node pos="l" depth="3" NCoef="0" IVar="-1" Cut="0.0000000000000000e+00" cType="1" res="-8.9711323380470276e-03" rms="4.6557915210723877e-01" purity="5.1582139730453491e-01" nType="-99"/>
            <Node pos="r" depth="3" NCoef="0" IVar="-1" Cut="0.0000000000000000e+00" cType="1" res="4.6155154705047607e-02" rms="4.7791910171508789e-01" purity="4.9469476938247681e-01" nType="-99"/>
          </Node>
          <Node pos="r" depth="2" NCoef="0" IVar="-1" Cut="0.0000000000000000e+00" cType="1" res="4.2295362800359726e-02" rms="4.7030624747276306e-01" purity="5.5784898996353149e-01" nType="-99"/>
        </Node>
        <Node pos="r" depth="1" NCoef="0" IVar="2" Cut="2.2296136474609375e+02" cType="1" res="-1.2078914791345596e-02" rms="4.6612340211868286e-01" purity="4.8467779159545898e-01" nType="0">
          <Node pos="l" depth="2" NCoef="0" IVar="2" Cut="1.5283396911621094e+02" cType="1" res="0.0000000000000000e+00" rms="0.0000000000000000e+00" purity="5.0104749202728271e-01" nType="0">
            <Node pos="l" depth="3" NCoef="0" IVar="-1" Cut="0.0000000000000000e+00" cType="1" res="-1.0890215635299683e-02" rms="4.6013939380645752e-01" purity="4.2875796556472778e-01" nType="-99"/>
            <Node pos="r" depth="3" NCoef="0" IVar="-1" Cut="0.0000000000000000e+00" cType="1" res="7.2572813369333744e-03" rms="4.7055986523628235e-01" purity="5.2097004652023315e-01" nType="-99"/>
          </Node>
          <Node pos="r" depth="2" NCoef="0" IVar="4" Cut="1.1236507892608643e+00" cType="1" res="0.0000000000000000e+00" rms="0.0000000000000000e+00" purity="4.5157599449157715e-01" nType="0">
            <Node pos="l" depth="3" NCoef="0" IVar="-1" Cut="0.0000000000000000e+00" cType="1" res="1.2692166492342949e-02" rms="4.6642750501632690e-01" purity="4.7165340185165405e-01" nType="-99"/>
            <Node pos="r" depth="3" NCoef="0" IVar="-1" Cut="0.0000000000000000e+00" cType="1" res="-2.9212520457804203e-03" rms="4.5714601874351501e-01" purity="4.4483384490013123e-01" nType="-99"/>
          </Node>
        </Node>
      </Node>
    </BinaryTree>
    <BinaryTree type="DecisionTree" boostWeight="1.0000000000000000e+00" itree="84">
      <Node pos="s" depth="0" NCoef="0" IVar="7" Cut="7.0000000000000000e+00" cType="1" res="-1.0740609839558601e-02" rms="4.6498742699623108e-01" purity="4.9412810802459717e-01" nType="0">
        <Node pos="l" depth="1" NCoef="0" IVar="7" Cut="5.0000000000000000e+00" cType="1" res="-6.9135008379817009e-03" rms="4.6787154674530029e-01" purity="4.8890829086303711e-01" nType="0">
          <Node pos="l" depth="2" NCoef="0" IVar="5" Cut="-4.4889116287231445e-01" cType="1" res="-1.2591480277478695e-02" rms="4.7276189923286438e-01" purity="4.1932117938995361e-01" nType="0">
            <Node pos="l" depth="3" NCoef="0" IVar="-1" Cut="0.0000000000000000e+00" cType="1" res="-2.4174941703677177e-02" rms="4.6882006525993347e-01" purity="4.1298753023147583e-01" nType="-99"/>
            <Node pos="r" depth="3" NCoef="0" IVar="-1" Cut="0.0000000000000000e+00" cType="1" res="-2.5573244784027338e-03" rms="4.7585019469261169e-01" purity="4.2466911673545837e-01" nType="-99"/>
          </Node>
          <Node pos="r" depth="2" NCoef="0" IVar="2" Cut="1.8033074951171875e+02" cType="1" res="-9.2201365623623133e-04" rms="4.6447089314460754e-01" purity="5.5651980638504028e-01" nType="0">
            <Node pos="l" depth="3" NCoef="0" IVar="-1" Cut="0.0000000000000000e+00" cType="1" res="5.6831431575119495e-03" rms="4.6032154560089111e-01" purity="5.7184970378875732e-01" nType="-99"/>
            <Node pos="r" depth="3" NCoef="0" IVar="-1" Cut="0.0000000000000000e+00" cType="1" res="-9.5734130591154099e-03" rms="4.6862098574638367e-01" purity="5.4065406322479248e-01" nType="-99"/>
          </Node>
        </Node>
        <Node pos="r" depth="1" NCoef="0" IVar="6" Cut="7.4830293655395508e-01" cType="1" res="-3.9906214922666550e-02" rms="4.3706774711608887e-01" purity="5.3151601552963257e-01" nType="0">
          <Node pos="l" depth="2" NCoef="0" IVar="-1" Cut="0.0000000000000000e+00" cType="1" res="2.2509707137942314e-02" rms="4.5324972271919250e-01" purity="6.5790361166000366e-01" nType="-99"/>
          <Node pos="r" depth="2" NCoef="0" IVar="-1" Cut="0.0000000000000000e+00" cType="1" res="-1.4442410320043564e-03" rms="4.1055127978324890e-01" purity="3.9620083570480347e-01" nType="-99"/>
        </Node>
      </Node>
    </BinaryTree>
    <BinaryTree type="DecisionTree" boostWeight="1.0000000000000000e+00" itree="85">
      <Node pos="s" depth="0" NCoef="0" IVar="5" Cut="-2.8423161506652832e+00" cType="1" res="-9.0432604774832726e-03" rms="4.6532505750656128e-01" purity="4.9571821093559265e-01" nType="0">
        <Node pos="l" depth="1" NCoef="0" IVar="-1" Cut="0.0000000000000000e+00" cType="1" res="-6.2769274227321148e-03" rms="4.5762103796005249e-01" purity="5.3287827968597412e-01" nType="-99"/>
        <Node pos="r" depth="1" NCoef="0" IVar="5" Cut="1.7164891958236694e+00" cType="1" res="-5.5870492942631245e-03" rms="4.6578156948089600e-01" purity="4.9267271161079407e-01" nType="0">
          <Node pos="l" depth="2" NCoef="0" IVar="5" Cut="1.2820410728454590e+00" cType="1" res="-1.1764082126319408e-02" rms="4.6459314227104187e-01" purity="4.6950525045394897e-01" nType="0">
            <Node pos="l" depth="3" NCoef="0" IVar="-1" Cut="0.0000000000000000e+00" cType="1" res="-5.9167617000639439e-03" rms="4.6655535697937012e-01" purity="4.7860682010650635e-01" nType="-99"/>
            <Node pos="r" depth="3" NCoef="0" IVar="-1" Cut="0.0000000000000000e+00" cType="1" res="-1.8710372969508171e-03" rms="4.4458109140396118e-01" purity="3.9273977279663086e-01" nType="-99"/>
          </Node>
          <Node pos="r" depth="2" NCoef="0" IVar="4" Cut="3.0252799987792969e+00" cType="1" res="6.2977550551295280e-03" rms="4.6783027052879333e-01" purity="5.3724765777587891e-01" nType="0">
            <Node pos="l" depth="3" NCoef="0" IVar="-1" Cut="0.0000000000000000e+00" cType="1" res="1.7728032544255257e-03" rms="4.6589484810829163e-01" purity="5.3978002071380615e-01" nType="-99"/>
            <Node pos="r" depth="3" NCoef="0" IVar="-1" Cut="0.0000000000000000e+00" cType="1" res="3.9821166545152664e-02" rms="4.7923755645751953e-01" purity="5.2060055732727051e-01" nType="-99"/>
          </Node>
        </Node>
      </Node>
    </BinaryTree>
    <BinaryTree type="DecisionTree" boostWeight="1.0000000000000000e+00" itree="86">
      <Node pos="s" depth="0" NCoef="0" IVar="2" Cut="5.5020941162109375e+02" cType="1" res="1.3887896784581244e-04" rms="4.6782338619232178e-01" purity="5.0482350587844849e-01" nType="0">
        <Node pos="l" depth="1" NCoef="0" IVar="2" Cut="1.5283552551269531e+02" cType="1" res="1.9150179577991366e-03" rms="4.6786925196647644e-01" purity="5.0338596105575562e-01" nType="0">
          <Node pos="l" depth="2" NCoef="0" IVar="6" Cut="-1.6455148458480835e+00" cType="1" res="-2.8817800804972649e-02" rms="4.6212923526763916e-01" purity="4.4972541928291321e-01" nType="0">
            <Node pos="l" depth="3" NCoef="0" IVar="-1" Cut="0.0000000000000000e+00" cType="1" res="-3.6732370499521494e-03" rms="4.7225490212440491e-01" purity="4.3888846039772034e-01" nType="-99"/>
            <Node pos="r" depth="3" NCoef="0" IVar="-1" Cut="0.0000000000000000e+00" cType="1" res="-3.7092786282300949e-02" rms="4.5713248848915100e-01" purity="4.5452499389648438e-01" nType="-99"/>
          </Node>
          <Node pos="r" depth="2" NCoef="0" IVar="5" Cut="1.4962053298950195e-01" cType="1" res="7.2413375601172447e-03" rms="4.6865203976631165e-01" purity="5.1268583536148071e-01" nType="0">
            <Node pos="l" depth="3" NCoef="0" IVar="-1" Cut="0.0000000000000000e+00" cType="1" res="1.9256338477134705e-02" rms="4.6892154216766357e-01" purity="5.1674377918243408e-01" nType="-99"/>
            <Node pos="r" depth="3" NCoef="0" IVar="-1" Cut="0.0000000000000000e+00" cType="1" res="-2.3448460269719362e-03" rms="4.6817910671234131e-01" purity="5.0852644443511963e-01" nType="-99"/>
          </Node>
        </Node>
        <Node pos="r" depth="1" NCoef="0" IVar="-1" Cut="0.0000000000000000e+00" cType="1" res="-1.7638050019741058e-02" rms="4.6474716067314148e-01" purity="5.3893071413040161e-01" nType="-99"/>
      </Node>
    </BinaryTree>
    <BinaryTree type="DecisionTree" boostWeight="1.0000000000000000e+00" itree="87">
      <Node pos="s" depth="0" NCoef="0" IVar="3" Cut="-3.7233623862266541e-01" cType="1" res="-3.7431188393384218e-03" rms="4.6655368804931641e-01" purity="5.0091886520385742e-01" nType="0">
        <Node pos="l" depth="1" NCoef="0" IVar="-1" Cut="0.0000000000000000e+00" cType="1" res="1.5864178538322449e-02" rms="4.7684058547019958e-01" purity="4.2731660604476929e-01" nType="-99"/>
        <Node pos="r" depth="1" NCoef="0" IVar="4" Cut="3.1643912792205811e+00" cType="1" res="-6.2780678272247314e-03" rms="4.6538490056991577e-01" purity="5.0866830348968506e-01" nType="0">
          <Node pos="l" depth="2" NCoef="0" IVar="2" Cut="2.2038032531738281e+02" cType="1" res="-4.1859392076730728e-03" rms="4.6590077877044678e-01" purity="5.1622962951660156e-01" nType="0">
            <Node pos="l" depth="3" NCoef="0" IVar="-1" Cut="0.0000000000000000e+00" cType="1" res="-6.3993874937295914e-03" rms="4.6203458309173584e-01" purity="5.1657807826995850e-01" nType="-99"/>
            <Node pos="r" depth="3" NCoef="0" IVar="-1" Cut="0.0000000000000000e+00" cType="1" res="7.3452466167509556e-03" rms="4.7305649518966675e-01" purity="5.1556032896041870e-01" nType="-99"/>
          </Node>
          <Node pos="r" depth="2" NCoef="0" IVar="-1" Cut="0.0000000000000000e+00" cType="1" res="-1.0760220699012280e-02" rms="4.5830217003822327e-01" purity="4.1672554612159729e-01" nType="-99"/>
        </Node>
      </Node>
    </BinaryTree>
    <BinaryTree type="DecisionTree" boostWeight="1.0000000000000000e+00" itree="88">
      <Node pos="s" depth="0" NCoef="0" IVar="5" Cut="1.9447710514068604e+00" cType="1" res="-2.2405658382922411e-03" rms="4.6730542182922363e-01" purity="5.0634127855300903e-01" nType="0">
        <Node pos="l" depth="1" NCoef="0" IVar="8" Cut="1.0481824218750000e+05" cType="1" res="3.0862854328006506e-03" rms="4.6899434924125671e-01" purity="4.9976021051406860e-01" nType="0">
          <Node pos="l" depth="2" NCoef="0" IVar="5" Cut="-2.4149353504180908e+00" cType="1" res="6.8690106272697449e-03" rms="4.7211572527885437e-01" purity="4.7580301761627197e-01" nType="0">
            <Node pos="l" depth="3" NCoef="0" IVar="-1" Cut="0.0000000000000000e+00" cType="1" res="-1.9839733839035034e-02" rms="4.6869754791259766e-01" purity="5.0032281875610352e-01" nType="-99"/>
            <Node pos="r" depth="3" NCoef="0" IVar="-1" Cut="0.0000000000000000e+00" cType="1" res="1.3526578433811665e-02" rms="4.7287181019783020e-01" purity="4.6860447525978088e-01" nType="-99"/>
          </Node>
          <Node pos="r" depth="2" NCoef="0" IVar="4" Cut="1.9837045669555664e+00" cType="1" res="-2.0937234163284302e-02" rms="4.4791936874389648e-01" purity="6.5190917253494263e-01" nType="0">
            <Node pos="l" depth="3" NCoef="0" IVar="-1" Cut="0.0000000000000000e+00" cType="1" res="-7.3393918573856354e-02" rms="4.5500966906547546e-01" purity="6.1123222112655640e-01" nType="-99"/>
            <Node pos="r" depth="3" NCoef="0" IVar="-1" Cut="0.0000000000000000e+00" cType="1" res="2.9665496200323105e-02" rms="4.3535143136978149e-01" purity="6.9970154762268066e-01" nType="-99"/>
          </Node>
        </Node>
        <Node pos="r" depth="1" NCoef="0" IVar="3" Cut="4.7213745117187500e+00" cType="1" res="-1.5786727890372276e-02" rms="4.6270653605461121e-01" purity="5.2307689189910889e-01" nType="0">
          <Node pos="l" depth="2" NCoef="0" IVar="0" Cut="1.4589690625000000e+05" cType="1" res="1.6121844528242946e-03" rms="4.6901854872703552e-01" purity="5.1459062099456787e-01" nType="0">
            <Node pos="l" depth="3" NCoef="0" IVar="-1" Cut="0.0000000000000000e+00" cType="1" res="-1.1392800137400627e-02" rms="4.7174021601676941e-01" purity="4.7898912429809570e-01" nType="-99"/>
            <Node pos="r" depth="3" NCoef="0" IVar="-1" Cut="0.0000000000000000e+00" cType="1" res="3.1742386519908905e-02" rms="4.6215602755546570e-01" purity="5.8344894647598267e-01" nType="-99"/>
          </Node>
          <Node pos="r" depth="2" NCoef="0" IVar="5" Cut="2.5718319416046143e+00" cType="1" res="-4.0830679237842560e-02" rms="4.5229333639144897e-01" purity="5.3529196977615356e-01" nType="0">
            <Node pos="l" depth="3" NCoef="0" IVar="-1" Cut="0.0000000000000000e+00" cType="1" res="-2.7627583593130112e-02" rms="4.5110014081001282e-01" purity="4.9124380946159363e-01" nType="-99"/>
            <Node pos="r" depth="3" NCoef="0" IVar="-1" Cut="0.0000000000000000e+00" cType="1" res="-2.4724556133151054e-02" rms="4.5248359441757202e-01" purity="5.8468848466873169e-01" nType="-99"/>
          </Node>
        </Node>
      </Node>
    </BinaryTree>
    <BinaryTree type="DecisionTree" boostWeight="1.0000000000000000e+00" itree="89">
      <Node pos="s" depth="0" NCoef="0" IVar="7" Cut="7.0000000000000000e+00" cType="1" res="-4.6746926382184029e-03" rms="4.6342849731445312e-01" purity="4.9578288197517395e-01" nType="0">
        <Node pos="l" depth="1" NCoef="0" IVar="7" Cut="5.0000000000000000e+00" cType="1" res="2.6468529831618071e-03" rms="4.6529850363731384e-01" purity="4.9303215742111206e-01" nType="0">
          <Node pos="l" depth="2" NCoef="0" IVar="3" Cut="1.5968405008316040e+00" cType="1" res="-3.6996167618781328e-03" rms="4.6913677453994751e-01" purity="4.2245307564735413e-01" nType="0">
            <Node pos="l" depth="3" NCoef="0" IVar="-1" Cut="0.0000000000000000e+00" cType="1" res="1.5896001830697060e-02" rms="4.7251638770103455e-01" purity="4.0104848146438599e-01" nType="-99"/>
            <Node pos="r" depth="3" NCoef="0" IVar="-1" Cut="0.0000000000000000e+00" cType="1" res="-4.2493701912462711e-03" rms="4.6803584694862366e-01" purity="4.2823418974876404e-01" nType="-99"/>
          </Node>
          <Node pos="r" depth="2" NCoef="0" IVar="6" Cut="-2.5431573390960693e+00" cType="1" res="9.5118898898363113e-03" rms="4.6426221728324890e-01" purity="5.6321209669113159e-01" nType="0">
            <Node pos="l" depth="3" NCoef="0" IVar="-1" Cut="0.0000000000000000e+00" cType="1" res="-2.0211929455399513e-02" rms="4.7815653681755066e-01" purity="4.8004183173179626e-01" nType="-99"/>
            <Node pos="r" depth="3" NCoef="0" IVar="-1" Cut="0.0000000000000000e+00" cType="1" res="1.6594769433140755e-02" rms="4.6155279874801636e-01" purity="5.7806122303009033e-01" nType="-99"/>
          </Node>
        </Node>
        <Node pos="r" depth="1" NCoef="0" IVar="9" Cut="6.2707882812500000e+04" cType="1" res="-5.7405114173889160e-02" rms="4.3612635135650635e-01" purity="5.1485759019851685e-01" nType="0">
          <Node pos="l" depth="2" NCoef="0" IVar="-1" Cut="0.0000000000000000e+00" cType="1" res="-1.8995080608874559e-03" rms="4.1343981027603149e-01" purity="3.4996172785758972e-01" nType="-99"/>
          <Node pos="r" depth="2" NCoef="0" IVar="-1" Cut="0.0000000000000000e+00" cType="1" res="1.8818531185388565e-02" rms="4.4821295142173767e-01" purity="6.9041681289672852e-01" nType="-99"/>
        </Node>
      </Node>
    </BinaryTree>
    <BinaryTree type="DecisionTree" boostWeight="1.0000000000000000e+00" itree="90">
      <Node pos="s" depth="0" NCoef="0" IVar="2" Cut="2.1066612243652344e+02" cType="1" res="0.0000000000000000e+00" rms="0.0000000000000000e+00" purity="4.9610725045204163e-01" nType="0">
        <Node pos="l" depth="1" NCoef="0" IVar="4" Cut="2.3646037578582764e+00" cType="1" res="-3.1138078775256872e-03" rms="4.6775308251380920e-01" purity="5.1482278108596802e-01" nType="0">
          <Node pos="l" depth="2" NCoef="0" IVar="2" Cut="1.6664590454101562e+02" cType="1" res="5.0271046347916126e-03" rms="4.6556404232978821e-01" purity="5.0910097360610962e-01" nType="0">
            <Node pos="l" depth="3" NCoef="0" IVar="-1" Cut="0.0000000000000000e+00" cType="1" res="2.3612350225448608e-02" rms="4.6331641077995300e-01" purity="5.1779866218566895e-01" nType="-99"/>
            <Node pos="r" depth="3" NCoef="0" IVar="-1" Cut="0.0000000000000000e+00" cType="1" res="-5.9246351011097431e-03" rms="4.6708315610885620e-01" purity="5.0209331512451172e-01" nType="-99"/>
          </Node>
          <Node pos="r" depth="2" NCoef="0" IVar="5" Cut="-2.2440824508666992e+00" cType="1" res="-1.7442479729652405e-02" rms="4.7123986482620239e-01" purity="5.2489364147186279e-01" nType="0">
            <Node pos="l" depth="3" NCoef="0" IVar="-1" Cut="0.0000000000000000e+00" cType="1" res="-4.1154067963361740e-02" rms="4.6388486027717590e-01" purity="5.3963172435760498e-01" nType="-99"/>
            <Node pos="r" depth="3" NCoef="0" IVar="-1" Cut="0.0000000000000000e+00" cType="1" res="-1.1033635586500168e-02" rms="4.7326081991195679e-01" purity="5.2048212289810181e-01" nType="-99"/>
          </Node>
        </Node>
        <Node pos="r" depth="1" NCoef="0" IVar="7" Cut="6.0000000000000000e+00" cType="1" res="-2.1318372339010239e-02" rms="4.6760189533233643e-01" purity="4.6561548113822937e-01" nType="0">
          <Node pos="l" depth="2" NCoef="0" IVar="6" Cut="-1.9448366165161133e+00" cType="1" res="-1.1928983964025974e-02" rms="4.7250428795814514e-01" purity="4.6964082121849060e-01" nType="0">
            <Node pos="l" depth="3" NCoef="0" IVar="-1" Cut="0.0000000000000000e+00" cType="1" res="1.1904134415090084e-02" rms="4.8085784912109375e-01" purity="4.9027600884437561e-01" nType="-99"/>
            <Node pos="r" depth="3" NCoef="0" IVar="-1" Cut="0.0000000000000000e+00" cType="1" res="-1.8455650657415390e-02" rms="4.6768447756767273e-01" purity="4.5884072780609131e-01" nType="-99"/>
          </Node>
          <Node pos="r" depth="2" NCoef="0" IVar="-1" Cut="0.0000000000000000e+00" cType="1" res="-1.9917753525078297e-03" rms="4.3530669808387756e-01" purity="4.4298356771469116e-01" nType="-99"/>
        </Node>
      </Node>
    </BinaryTree>
    <BinaryTree type="DecisionTree" boostWeight="1.0000000000000000e+00" itree="91">
      <Node pos="s" depth="0" NCoef="0" IVar="5" Cut="-2.8422944545745850e+00" cType="1" res="-3.0464920564554632e-04" rms="4.6842077374458313e-01" purity="5.0845438241958618e-01" nType="0">
        <Node pos="l" depth="1" NCoef="0" IVar="-1" Cut="0.0000000000000000e+00" cType="1" res="-4.4896821491420269e-03" rms="4.6160104870796204e-01" purity="5.3398835659027100e-01" nType="-99"/>
        <Node pos="r" depth="1" NCoef="0" IVar="5" Cut="-1.9874278306961060e+00" cType="1" res="2.7057135012000799e-03" rms="4.6888560056686401e-01" purity="5.0624269247055054e-01" nType="0">
          <Node pos="l" depth="2" NCoef="0" IVar="7" Cut="5.0000000000000000e+00" cType="1" res="2.0020693540573120e-02" rms="4.6816885471343994e-01" purity="5.4031807184219360e-01" nType="0">
            <Node pos="l" depth="3" NCoef="0" IVar="-1" Cut="0.0000000000000000e+00" cType="1" res="5.1299910992383957e-02" rms="4.8024004697799683e-01" purity="4.8313471674919128e-01" nType="-99"/>
            <Node pos="r" depth="3" NCoef="0" IVar="-1" Cut="0.0000000000000000e+00" cType="1" res="3.1701503321528435e-03" rms="4.5774543285369873e-01" purity="5.8758366107940674e-01" nType="-99"/>
          </Node>
          <Node pos="r" depth="2" NCoef="0" IVar="5" Cut="2.1086318790912628e-01" cType="1" res="-1.9433206180110574e-03" rms="4.6889096498489380e-01" purity="4.9715203046798706e-01" nType="0">
            <Node pos="l" depth="3" NCoef="0" IVar="-1" Cut="0.0000000000000000e+00" cType="1" res="-1.1813681572675705e-02" rms="4.6871420741081238e-01" purity="4.6328368782997131e-01" nType="-99"/>
            <Node pos="r" depth="3" NCoef="0" IVar="-1" Cut="0.0000000000000000e+00" cType="1" res="5.0169122405350208e-03" rms="4.6884593367576599e-01" purity="5.1487225294113159e-01" nType="-99"/>
          </Node>
        </Node>
      </Node>
    </BinaryTree>
    <BinaryTree type="DecisionTree" boostWeight="1.0000000000000000e+00" itree="92">
      <Node pos="s" depth="0" NCoef="0" IVar="7" Cut="8.0000000000000000e+00" cType="1" res="-7.5649013742804527e-03" rms="4.6711164712905884e-01" purity="5.0043934583663940e-01" nType="0">
        <Node pos="l" depth="1" NCoef="0" IVar="8" Cut="1.2596528125000000e+05" cType="1" res="-4.7660162672400475e-03" rms="4.6697312593460083e-01" purity="4.9774265289306641e-01" nType="0">
          <Node pos="l" depth="2" NCoef="0" IVar="2" Cut="2.2038032531738281e+02" cType="1" res="-6.9894785992801189e-03" rms="4.6885561943054199e-01" purity="4.8059779405593872e-01" nType="0">
            <Node pos="l" depth="3" NCoef="0" IVar="-1" Cut="0.0000000000000000e+00" cType="1" res="-9.8462158348411322e-04" rms="4.6896421909332275e-01" purity="4.9407520890235901e-01" nType="-99"/>
            <Node pos="r" depth="3" NCoef="0" IVar="-1" Cut="0.0000000000000000e+00" cType="1" res="-1.7674857750535011e-02" rms="4.6841996908187866e-01" purity="4.5279985666275024e-01" nType="-99"/>
          </Node>
          <Node pos="r" depth="2" NCoef="0" IVar="-1" Cut="0.0000000000000000e+00" cType="1" res="2.6353800669312477e-02" rms="4.4385558366775513e-01" purity="6.9569158554077148e-01" nType="-99"/>
        </Node>
        <Node pos="r" depth="1" NCoef="0" IVar="-1" Cut="0.0000000000000000e+00" cType="1" res="-4.8578709363937378e-02" rms="4.6564900875091553e-01" purity="5.6395101547241211e-01" nType="-99"/>
      </Node>
    </BinaryTree>
    <BinaryTree type="DecisionTree" boostWeight="1.0000000000000000e+00" itree="93">
      <Node pos="s" depth="0" NCoef="0" IVar="7" Cut="6.0000000000000000e+00" cType="1" res="-5.6247990578413010e-03" rms="4.6650719642639160e-01" purity="4.9974068999290466e-01" nType="0">
        <Node pos="l" depth="1" NCoef="0" IVar="5" Cut="-2.5430815219879150e+00" cType="1" res="3.1047184020280838e-03" rms="4.6926364302635193e-01" purity="4.7552296519279480e-01" nType="0">
          <Node pos="l" depth="2" NCoef="0" IVar="9" Cut="3.9986851562500000e+04" cType="1" res="-1.5814103186130524e-02" rms="4.6125337481498718e-01" purity="5.0580161809921265e-01" nType="0">
            <Node pos="l" depth="3" NCoef="0" IVar="-1" Cut="0.0000000000000000e+00" cType="1" res="-3.5111345350742340e-02" rms="4.6015700697898865e-01" purity="4.0067416429519653e-01" nType="-99"/>
            <Node pos="r" depth="3" NCoef="0" IVar="-1" Cut="0.0000000000000000e+00" cType="1" res="-4.8436056822538376e-03" rms="4.6187412738800049e-01" purity="5.9687429666519165e-01" nType="-99"/>
          </Node>
          <Node pos="r" depth="2" NCoef="0" IVar="4" Cut="1.6911656856536865e+00" cType="1" res="6.2670991756021976e-03" rms="4.7051513195037842e-01" purity="4.7046175599098206e-01" nType="0">
            <Node pos="l" depth="3" NCoef="0" IVar="-1" Cut="0.0000000000000000e+00" cType="1" res="1.8047221004962921e-02" rms="4.6652594208717346e-01" purity="4.4565820693969727e-01" nType="-99"/>
            <Node pos="r" depth="3" NCoef="0" IVar="-1" Cut="0.0000000000000000e+00" cType="1" res="-1.2046271003782749e-03" rms="4.7351410984992981e-01" purity="4.9009808897972107e-01" nType="-99"/>
          </Node>
        </Node>
        <Node pos="r" depth="1" NCoef="0" IVar="6" Cut="1.3467106819152832e+00" cType="1" res="-2.8770405799150467e-02" rms="4.5833221077919006e-01" purity="5.6390279531478882e-01" nType="0">
          <Node pos="l" depth="2" NCoef="0" IVar="5" Cut="-2.2436497211456299e+00" cType="1" res="1.7964557046070695e-03" rms="4.5555293560028076e-01" purity="6.2361520528793335e-01" nType="0">
            <Node pos="l" depth="3" NCoef="0" IVar="-1" Cut="0.0000000000000000e+00" cType="1" res="4.0355730801820755e-02" rms="4.5393148064613342e-01" purity="6.5256750583648682e-01" nType="-99"/>
            <Node pos="r" depth="3" NCoef="0" IVar="-1" Cut="0.0000000000000000e+00" cType="1" res="-1.0518895462155342e-02" rms="4.5548853278160095e-01" purity="6.1353778839111328e-01" nType="-99"/>
          </Node>
          <Node pos="r" depth="2" NCoef="0" IVar="5" Cut="7.4664312601089478e-01" cType="1" res="-8.9484982192516327e-02" rms="4.5778959989547729e-01" purity="4.4529682397842407e-01" nType="0">
            <Node pos="l" depth="3" NCoef="0" IVar="-1" Cut="0.0000000000000000e+00" cType="1" res="-5.4803215898573399e-03" rms="4.7146239876747131e-01" purity="5.2443158626556396e-01" nType="-99"/>
            <Node pos="r" depth="3" NCoef="0" IVar="-1" Cut="0.0000000000000000e+00" cType="1" res="-2.3903723340481520e-03" rms="4.4591587781906128e-01" purity="3.7998163700103760e-01" nType="-99"/>
          </Node>
        </Node>
      </Node>
    </BinaryTree>
    <BinaryTree type="DecisionTree" boostWeight="1.0000000000000000e+00" itree="94">
      <Node pos="s" depth="0" NCoef="0" IVar="3" Cut="1.2173584938049316e+01" cType="1" res="-5.7367733679711819e-03" rms="4.6879822015762329e-01" purity="5.0384742021560669e-01" nType="0">
        <Node pos="l" depth="1" NCoef="0" IVar="3" Cut="1.4227962493896484e-01" cType="1" res="-4.2558829300105572e-03" rms="4.7073912620544434e-01" purity="5.0513893365859985e-01" nType="0">
          <Node pos="l" depth="2" NCoef="0" IVar="3" Cut="-1.3856968879699707e+00" cType="1" res="-3.6056883633136749e-02" rms="4.7111454606056213e-01" purity="3.9165803790092468e-01" nType="0">
            <Node pos="l" depth="3" NCoef="0" IVar="-1" Cut="0.0000000000000000e+00" cType="1" res="2.3319930769503117e-03" rms="4.6946644783020020e-01" purity="4.2168876528739929e-01" nType="-99"/>
            <Node pos="r" depth="3" NCoef="0" IVar="-1" Cut="0.0000000000000000e+00" cType="1" res="-7.1288608014583588e-03" rms="4.6893766522407532e-01" purity="3.5541164875030518e-01" nType="-99"/>
          </Node>
          <Node pos="r" depth="2" NCoef="0" IVar="1" Cut="2.6790893750000000e+05" cType="1" res="2.7088250499218702e-04" rms="4.7051092982292175e-01" purity="5.2129256725311279e-01" nType="0">
            <Node pos="l" depth="3" NCoef="0" IVar="-1" Cut="0.0000000000000000e+00" cType="1" res="1.9477059831842780e-03" rms="4.7099795937538147e-01" purity="5.3028899431228638e-01" nType="-99"/>
            <Node pos="r" depth="3" NCoef="0" IVar="-1" Cut="0.0000000000000000e+00" cType="1" res="-4.0654640644788742e-02" rms="4.6052530407905579e-01" purity="3.5670366883277893e-01" nType="-99"/>
          </Node>
        </Node>
        <Node pos="r" depth="1" NCoef="0" IVar="-1" Cut="0.0000000000000000e+00" cType="1" res="-1.6701640561223030e-02" rms="4.4306516647338867e-01" purity="4.8749700188636780e-01" nType="-99"/>
      </Node>
    </BinaryTree>
    <BinaryTree type="DecisionTree" boostWeight="1.0000000000000000e+00" itree="95">
      <Node pos="s" depth="0" NCoef="0" IVar="3" Cut="3.0759871006011963e+00" cType="1" res="-9.6930991858243942e-03" rms="4.6537509560585022e-01" purity="4.9544125795364380e-01" nType="0">
        <Node pos="l" depth="1" NCoef="0" IVar="6" Cut="2.2441678047180176e+00" cType="1" res="-2.3753659799695015e-02" rms="4.7330453991889954e-01" purity="4.4935423135757446e-01" nType="0">
          <Node pos="l" depth="2" NCoef="0" IVar="7" Cut="5.0000000000000000e+00" cType="1" res="-1.0961042717099190e-02" rms="4.7476923465728760e-01" purity="4.7567069530487061e-01" nType="0">
            <Node pos="l" depth="3" NCoef="0" IVar="-1" Cut="0.0000000000000000e+00" cType="1" res="7.6172449626028538e-03" rms="4.7904789447784424e-01" purity="4.1265457868576050e-01" nType="-99"/>
            <Node pos="r" depth="3" NCoef="0" IVar="-1" Cut="0.0000000000000000e+00" cType="1" res="-2.0215105265378952e-02" rms="4.7157493233680725e-01" purity="5.1912444829940796e-01" nType="-99"/>
          </Node>
          <Node pos="r" depth="2" NCoef="0" IVar="-1" Cut="0.0000000000000000e+00" cType="1" res="-2.0764605142176151e-03" rms="4.6591106057167053e-01" purity="3.6644780635833740e-01" nType="-99"/>
        </Node>
        <Node pos="r" depth="1" NCoef="0" IVar="9" Cut="4.4406351562500000e+04" cType="1" res="-1.6476225573569536e-03" rms="4.6058344841003418e-01" purity="5.2181226015090942e-01" nType="0">
          <Node pos="l" depth="2" NCoef="0" IVar="6" Cut="-1.9447731971740723e+00" cType="1" res="-1.1105476878583431e-02" rms="4.6759971976280212e-01" purity="4.0997970104217529e-01" nType="0">
            <Node pos="l" depth="3" NCoef="0" IVar="-1" Cut="0.0000000000000000e+00" cType="1" res="1.2236481532454491e-02" rms="4.7548797726631165e-01" purity="4.3624353408813477e-01" nType="-99"/>
            <Node pos="r" depth="3" NCoef="0" IVar="-1" Cut="0.0000000000000000e+00" cType="1" res="-9.3713933601975441e-03" rms="4.6270605921745300e-01" purity="3.9538773894309998e-01" nType="-99"/>
          </Node>
          <Node pos="r" depth="2" NCoef="0" IVar="6" Cut="2.5431413650512695e+00" cType="1" res="1.0043238289654255e-02" rms="4.5148628950119019e-01" purity="6.6004866361618042e-01" nType="0">
            <Node pos="l" depth="3" NCoef="0" IVar="-1" Cut="0.0000000000000000e+00" cType="1" res="6.7748539149761200e-03" rms="4.4854217767715454e-01" purity="6.6409367322921753e-01" nType="-99"/>
            <Node pos="r" depth="3" NCoef="0" IVar="-1" Cut="0.0000000000000000e+00" cType="1" res="1.5822907909750938e-02" rms="4.6557769179344177e-01" purity="6.3928687572479248e-01" nType="-99"/>
          </Node>
        </Node>
      </Node>
    </BinaryTree>
    <BinaryTree type="DecisionTree" boostWeight="1.0000000000000000e+00" itree="96">
      <Node pos="s" depth="0" NCoef="0" IVar="4" Cut="2.2049133777618408e+00" cType="1" res="-2.7690241113305092e-03" rms="4.6662217378616333e-01" purity="5.0528740882873535e-01" nType="0">
        <Node pos="l" depth="1" NCoef="0" IVar="4" Cut="2.0034594535827637e+00" cType="1" res="0.0000000000000000e+00" rms="0.0000000000000000e+00" purity="4.8018947243690491e-01" nType="0">
          <Node pos="l" depth="2" NCoef="0" IVar="5" Cut="-7.4798923730850220e-01" cType="1" res="-9.1885337606072426e-03" rms="4.6515086293220520e-01" purity="4.7896918654441833e-01" nType="0">
            <Node pos="l" depth="3" NCoef="0" IVar="-1" Cut="0.0000000000000000e+00" cType="1" res="6.3318433240056038e-03" rms="4.6286410093307495e-01" purity="5.0855070352554321e-01" nType="-99"/>
            <Node pos="r" depth="3" NCoef="0" IVar="-1" Cut="0.0000000000000000e+00" cType="1" res="-2.2598756477236748e-02" rms="4.6655952930450439e-01" purity="4.5652034878730774e-01" nType="-99"/>
          </Node>
          <Node pos="r" depth="2" NCoef="0" IVar="-1" Cut="0.0000000000000000e+00" cType="1" res="-5.1776235923171043e-03" rms="4.7574284672737122e-01" purity="4.9006697535514832e-01" nType="-99"/>
        </Node>
        <Node pos="r" depth="1" NCoef="0" IVar="7" Cut="5.0000000000000000e+00" cType="1" res="1.2819828465580940e-02" rms="4.6633887290954590e-01" purity="5.4091984033584595e-01" nType="0">
          <Node pos="l" depth="2" NCoef="0" IVar="5" Cut="-1.6454479694366455e+00" cType="1" res="-4.1911229491233826e-03" rms="4.7507414221763611e-01" purity="4.5842686295509338e-01" nType="0">
            <Node pos="l" depth="3" NCoef="0" IVar="-1" Cut="0.0000000000000000e+00" cType="1" res="1.7979709431529045e-02" rms="4.8020672798156738e-01" purity="4.9575418233871460e-01" nType="-99"/>
            <Node pos="r" depth="3" NCoef="0" IVar="-1" Cut="0.0000000000000000e+00" cType="1" res="-1.0547872632741928e-02" rms="4.7200053930282593e-01" purity="4.3941757082939148e-01" nType="-99"/>
          </Node>
          <Node pos="r" depth="2" NCoef="0" IVar="6" Cut="2.2437703609466553e+00" cType="1" res="2.5325661525130272e-02" rms="4.5941022038459778e-01" purity="6.0159611701965332e-01" nType="0">
            <Node pos="l" depth="3" NCoef="0" IVar="-1" Cut="0.0000000000000000e+00" cType="1" res="3.1457509845495224e-02" rms="4.5443606376647949e-01" purity="6.1654722690582275e-01" nType="-99"/>
            <Node pos="r" depth="3" NCoef="0" IVar="-1" Cut="0.0000000000000000e+00" cType="1" res="6.8704965524375439e-03" rms="4.7861227393150330e-01" purity="5.4095005989074707e-01" nType="-99"/>
          </Node>
        </Node>
      </Node>
    </BinaryTree>
    <BinaryTree type="DecisionTree" boostWeight="1.0000000000000000e+00" itree="97">
      <Node pos="s" depth="0" NCoef="0" IVar="6" Cut="-1.6455826759338379e+00" cType="1" res="1.4931135810911655e-03" rms="4.6541681885719299e-01" purity="5.0991314649581909e-01" nType="0">
        <Node pos="l" depth="1" NCoef="0" IVar="2" Cut="2.4975390625000000e+02" cType="1" res="-6.5432260744273663e-03" rms="4.7684723138809204e-01" purity="4.7393587231636047e-01" nType="0">
          <Node pos="l" depth="2" NCoef="0" IVar="4" Cut="1.1336284875869751e+00" cType="1" res="1.8710740841925144e-03" rms="4.7879675030708313e-01" purity="4.7304454445838928e-01" nType="0">
            <Node pos="l" depth="3" NCoef="0" IVar="-1" Cut="0.0000000000000000e+00" cType="1" res="4.0862124413251877e-02" rms="4.7183832526206970e-01" purity="4.6000412106513977e-01" nType="-99"/>
            <Node pos="r" depth="3" NCoef="0" IVar="-1" Cut="0.0000000000000000e+00" cType="1" res="-6.2100021168589592e-03" rms="4.8028784990310669e-01" purity="4.7652935981750488e-01" nType="-99"/>
          </Node>
          <Node pos="r" depth="2" NCoef="0" IVar="4" Cut="2.1569755077362061e+00" cType="1" res="-2.7719723060727119e-02" rms="4.7124075889587402e-01" purity="4.7617909312248230e-01" nType="0">
            <Node pos="l" depth="3" NCoef="0" IVar="-1" Cut="0.0000000000000000e+00" cType="1" res="-4.4630214571952820e-02" rms="4.6398374438285828e-01" purity="4.3822586536407471e-01" nType="-99"/>
            <Node pos="r" depth="3" NCoef="0" IVar="-1" Cut="0.0000000000000000e+00" cType="1" res="-7.8757544979453087e-03" rms="4.7861364483833313e-01" purity="5.1946753263473511e-01" nType="-99"/>
          </Node>
        </Node>
        <Node pos="r" depth="1" NCoef="0" IVar="7" Cut="5.0000000000000000e+00" cType="1" res="5.5755870416760445e-03" rms="4.5945325493812561e-01" purity="5.2815598249435425e-01" nType="0">
          <Node pos="l" depth="2" NCoef="0" IVar="3" Cut="6.3525371551513672e+00" cType="1" res="1.4954712241888046e-02" rms="4.6594959497451782e-01" purity="4.2698648571968079e-01" nType="0">
            <Node pos="l" depth="3" NCoef="0" IVar="-1" Cut="0.0000000000000000e+00" cType="1" res="2.2401515394449234e-02" rms="4.7221809625625610e-01" purity="4.3747231364250183e-01" nType="-99"/>
            <Node pos="r" depth="3" NCoef="0" IVar="-1" Cut="0.0000000000000000e+00" cType="1" res="1.0650756303220987e-03" rms="4.5268252491950989e-01" purity="4.0573549270629883e-01" nType="-99"/>
          </Node>
          <Node pos="r" depth="2" NCoef="0" IVar="4" Cut="1.8365226984024048e+00" cType="1" res="-7.0258969208225608e-04" rms="4.5496270060539246e-01" purity="5.9574139118194580e-01" nType="0">
            <Node pos="l" depth="3" NCoef="0" IVar="-1" Cut="0.0000000000000000e+00" cType="1" res="1.1630280874669552e-02" rms="4.5717555284500122e-01" purity="5.8466619253158569e-01" nType="-99"/>
            <Node pos="r" depth="3" NCoef="0" IVar="-1" Cut="0.0000000000000000e+00" cType="1" res="-7.0066037587821484e-03" rms="4.5282378792762756e-01" purity="6.0545581579208374e-01" nType="-99"/>
          </Node>
        </Node>
      </Node>
    </BinaryTree>
    <BinaryTree type="DecisionTree" boostWeight="1.0000000000000000e+00" itree="98">
      <Node pos="s" depth="0" NCoef="0" IVar="1" Cut="2.4644434375000000e+05" cType="1" res="-2.0112523343414068e-03" rms="4.6478584408760071e-01" purity="5.0550520420074463e-01" nType="0">
        <Node pos="l" depth="1" NCoef="0" IVar="1" Cut="1.2602210937500000e+05" cType="1" res="-3.3598041627556086e-03" rms="4.6570232510566711e-01" purity="5.1797646284103394e-01" nType="0">
          <Node pos="l" depth="2" NCoef="0" IVar="1" Cut="1.2229485156250000e+05" cType="1" res="-3.3750962466001511e-02" rms="4.6855908632278442e-01" purity="4.4400462508201599e-01" nType="0">
            <Node pos="l" depth="3" NCoef="0" IVar="-1" Cut="0.0000000000000000e+00" cType="1" res="-2.2953436709940434e-03" rms="4.4041529297828674e-01" purity="3.7768599390983582e-01" nType="-99"/>
            <Node pos="r" depth="3" NCoef="0" IVar="-1" Cut="0.0000000000000000e+00" cType="1" res="3.5712462849915028e-03" rms="4.8698598146438599e-01" purity="4.9772700667381287e-01" nType="-99"/>
          </Node>
          <Node pos="r" depth="2" NCoef="0" IVar="6" Cut="-2.8422527313232422e+00" cType="1" res="2.1815267391502857e-03" rms="4.6496546268463135e-01" purity="5.3146404027938843e-01" nType="0">
            <Node pos="l" depth="3" NCoef="0" IVar="-1" Cut="0.0000000000000000e+00" cType="1" res="3.1428676098585129e-02" rms="4.7777354717254639e-01" purity="5.1765453815460205e-01" nType="-99"/>
            <Node pos="r" depth="3" NCoef="0" IVar="-1" Cut="0.0000000000000000e+00" cType="1" res="-4.6021849266253412e-04" rms="4.6349999308586121e-01" purity="5.3293633460998535e-01" nType="-99"/>
          </Node>
        </Node>
        <Node pos="r" depth="1" NCoef="0" IVar="9" Cut="4.2217996093750000e+04" cType="1" res="1.1428747326135635e-02" rms="4.5533323287963867e-01" purity="3.8121390342712402e-01" nType="0">
          <Node pos="l" depth="2" NCoef="0" IVar="-1" Cut="0.0000000000000000e+00" cType="1" res="-1.9334093667566776e-04" rms="4.3112930655479431e-01" purity="2.5906768441200256e-01" nType="-99"/>
          <Node pos="r" depth="2" NCoef="0" IVar="-1" Cut="0.0000000000000000e+00" cType="1" res="3.0435536056756973e-02" rms="4.8340374231338501e-01" purity="5.3334879875183105e-01" nType="-99"/>
        </Node>
      </Node>
    </BinaryTree>
    <BinaryTree type="DecisionTree" boostWeight="1.0000000000000000e+00" itree="99">
      <Node pos="s" depth="0" NCoef="0" IVar="4" Cut="6.0419583320617676e-01" cType="1" res="-1.5625327359884977e-03" rms="4.6725159883499146e-01" purity="5.0684475898742676e-01" nType="0">
        <Node pos="l" depth="1" NCoef="0" IVar="-1" Cut="0.0000000000000000e+00" cType="1" res="-2.6883600279688835e-02" rms="4.6316260099411011e-01" purity="4.5330527424812317e-01" nType="-99"/>
        <Node pos="r" depth="1" NCoef="0" IVar="2" Cut="3.3373031616210938e+02" cType="1" res="1.5004388842498884e-06" rms="4.6748977899551392e-01" purity="5.1051449775695801e-01" nType="0">
          <Node pos="l" depth="2" NCoef="0" IVar="4" Cut="2.2001171112060547e+00" cType="1" res="0.0000000000000000e+00" rms="0.0000000000000000e+00" purity="5.0888073444366455e-01" nType="0">
            <Node pos="l" depth="3" NCoef="0" IVar="-1" Cut="0.0000000000000000e+00" cType="1" res="9.3525703996419907e-03" rms="4.6677628159523010e-01" purity="4.9768733978271484e-01" nType="-99"/>
            <Node pos="r" depth="3" NCoef="0" IVar="-1" Cut="0.0000000000000000e+00" cType="1" res="-6.5117343328893185e-03" rms="4.6768257021903992e-01" purity="5.2333045005798340e-01" nType="-99"/>
          </Node>
          <Node pos="r" depth="2" NCoef="0" IVar="6" Cut="-2.2437071800231934e+00" cType="1" res="-1.5398777090013027e-02" rms="4.6866002678871155e-01" purity="5.2029663324356079e-01" nType="0">
            <Node pos="l" depth="3" NCoef="0" IVar="-1" Cut="0.0000000000000000e+00" cType="1" res="1.5339414589107037e-02" rms="4.7540494799613953e-01" purity="5.7626682519912720e-01" nType="-99"/>
            <Node pos="r" depth="3" NCoef="0" IVar="-1" Cut="0.0000000000000000e+00" cType="1" res="-1.5096291899681091e-02" rms="4.6493825316429138e-01" purity="4.9479696154594421e-01" nType="-99"/>
          </Node>
        </Node>
      </Node>
    </BinaryTree>
    <BinaryTree type="DecisionTree" boostWeight="1.0000000000000000e+00" itree="100">
      <Node pos="s" depth="0" NCoef="0" IVar="5" Cut="-2.5429332256317139e+00" cType="1" res="-7.5252880342304707e-03" rms="4.6576431393623352e-01" purity="5.0240409374237061e-01" nType="0">
        <Node pos="l" depth="1" NCoef="0" IVar="6" Cut="-1.0470364093780518e+00" cType="1" res="0.0000000000000000e+00" rms="0.0000000000000000e+00" purity="5.3284037113189697e-01" nType="0">
          <Node pos="l" depth="2" NCoef="0" IVar="-1" Cut="0.0000000000000000e+00" cType="1" res="-1.5971720218658447e-02" rms="4.7500589489936829e-01" purity="5.1552003622055054e-01" nType="-99"/>
          <Node pos="r" depth="2" NCoef="0" IVar="-1" Cut="0.0000000000000000e+00" cType="1" res="-5.2775178104639053e-02" rms="4.4391757249832153e-01" purity="5.4988610744476318e-01" nType="-99"/>
        </Node>
        <Node pos="r" depth="1" NCoef="0" IVar="6" Cut="2.2440021038055420e+00" cType="1" res="-4.2770328000187874e-03" rms="4.6670299768447876e-01" purity="4.9717929959297180e-01" nType="0">
          <Node pos="l" depth="2" NCoef="0" IVar="2" Cut="1.8349636840820312e+02" cType="1" res="-8.7801292538642883e-03" rms="4.6311998367309570e-01" purity="5.0643700361251831e-01" nType="0">
            <Node pos="l" depth="3" NCoef="0" IVar="-1" Cut="0.0000000000000000e+00" cType="1" res="-9.0451687574386597e-03" rms="4.5448887348175049e-01" purity="5.2986723184585571e-01" nType="-99"/>
            <Node pos="r" depth="3" NCoef="0" IVar="-1" Cut="0.0000000000000000e+00" cType="1" res="-3.3094391692429781e-03" rms="4.7108110785484314e-01" purity="4.8422393202781677e-01" nType="-99"/>
          </Node>
          <Node pos="r" depth="2" NCoef="0" IVar="5" Cut="2.5991849899291992e+00" cType="1" res="6.9552361965179443e-03" rms="4.7533681988716125e-01" purity="4.7408753633499146e-01" nType="0">
            <Node pos="l" depth="3" NCoef="0" IVar="-1" Cut="0.0000000000000000e+00" cType="1" res="1.2906248681247234e-02" rms="4.7643566131591797e-01" purity="4.6362632513046265e-01" nType="-99"/>
            <Node pos="r" depth="3" NCoef="0" IVar="-1" Cut="0.0000000000000000e+00" cType="1" res="-1.9252562895417213e-02" rms="4.6926519274711609e-01" purity="5.2282893657684326e-01" nType="-99"/>
          </Node>
        </Node>
      </Node>
    </BinaryTree>
    <BinaryTree type="DecisionTree" boostWeight="1.0000000000000000e+00" itree="101">
      <Node pos="s" depth="0" NCoef="0" IVar="6" Cut="2.2440021038055420e+00" cType="1" res="0.0000000000000000e+00" rms="0.0000000000000000e+00" purity="4.9624854326248169e-01" nType="0">
        <Node pos="l" depth="1" NCoef="0" IVar="2" Cut="4.3183840942382812e+02" cType="1" res="1.4476120704784989e-03" rms="4.6294438838958740e-01" purity="5.1949250698089600e-01" nType="0">
          <Node pos="l" depth="2" NCoef="0" IVar="5" Cut="-2.8423106670379639e+00" cType="1" res="4.0707280859351158e-03" rms="4.6271795034408569e-01" purity="5.2020329236984253e-01" nType="0">
            <Node pos="l" depth="3" NCoef="0" IVar="-1" Cut="0.0000000000000000e+00" cType="1" res="3.8540806621313095e-02" rms="4.5065218210220337e-01" purity="5.9617137908935547e-01" nType="-99"/>
            <Node pos="r" depth="3" NCoef="0" IVar="-1" Cut="0.0000000000000000e+00" cType="1" res="1.1000370141118765e-03" rms="4.6371597051620483e-01" purity="5.1307934522628784e-01" nType="-99"/>
          </Node>
          <Node pos="r" depth="2" NCoef="0" IVar="-1" Cut="0.0000000000000000e+00" cType="1" res="-2.7552304789423943e-02" rms="4.6455079317092896e-01" purity="5.0949460268020630e-01" nType="-99"/>
        </Node>
        <Node pos="r" depth="1" NCoef="0" IVar="7" Cut="6.0000000000000000e+00" cType="1" res="-3.3418010920286179e-02" rms="4.6784430742263794e-01" purity="4.3089026212692261e-01" nType="0">
          <Node pos="l" depth="2" NCoef="0" IVar="6" Cut="2.5005002021789551e+00" cType="1" res="-1.5378474257886410e-02" rms="4.7195395827293396e-01" purity="4.4257843494415283e-01" nType="0">
            <Node pos="l" depth="3" NCoef="0" IVar="-1" Cut="0.0000000000000000e+00" cType="1" res="-3.9490774273872375e-02" rms="4.6896716952323914e-01" purity="4.0833455324172974e-01" nType="-99"/>
            <Node pos="r" depth="3" NCoef="0" IVar="-1" Cut="0.0000000000000000e+00" cType="1" res="-4.5626456849277020e-03" rms="4.7231063246726990e-01" purity="4.5184275507926941e-01" nType="-99"/>
          </Node>
          <Node pos="r" depth="2" NCoef="0" IVar="-1" Cut="0.0000000000000000e+00" cType="1" res="-2.0589295309036970e-03" rms="4.4709065556526184e-01" purity="3.8925954699516296e-01" nType="-99"/>
        </Node>
      </Node>
    </BinaryTree>
    <BinaryTree type="DecisionTree" boostWeight="1.0000000000000000e+00" itree="102">
      <Node pos="s" depth="0" NCoef="0" IVar="7" Cut="7.0000000000000000e+00" cType="1" res="-4.6058264560997486e-03" rms="4.6489879488945007e-01" purity="4.9853071570396423e-01" nType="0">
        <Node pos="l" depth="1" NCoef="0" IVar="5" Cut="2.2436096668243408e+00" cType="1" res="4.8305664677172899e-04" rms="4.6693184971809387e-01" purity="4.9184924364089966e-01" nType="0">
          <Node pos="l" depth="2" NCoef="0" IVar="2" Cut="3.9083441162109375e+02" cType="1" res="-4.2184526100754738e-03" rms="4.6751123666763306e-01" purity="4.7835728526115417e-01" nType="0">
            <Node pos="l" depth="3" NCoef="0" IVar="-1" Cut="0.0000000000000000e+00" cType="1" res="-4.9551045522093773e-03" rms="4.6777516603469849e-01" purity="4.6916344761848450e-01" nType="-99"/>
            <Node pos="r" depth="3" NCoef="0" IVar="-1" Cut="0.0000000000000000e+00" cType="1" res="2.5425970554351807e-02" rms="4.6415266394615173e-01" purity="5.6240540742874146e-01" nType="-99"/>
          </Node>
          <Node pos="r" depth="2" NCoef="0" IVar="8" Cut="5.7537105468750000e+04" cType="1" res="1.7013344913721085e-02" rms="4.6451142430305481e-01" purity="5.3928649425506592e-01" nType="0">
            <Node pos="l" depth="3" NCoef="0" IVar="-1" Cut="0.0000000000000000e+00" cType="1" res="9.4411842292174697e-04" rms="4.6162971854209900e-01" purity="4.1132014989852905e-01" nType="-99"/>
            <Node pos="r" depth="3" NCoef="0" IVar="-1" Cut="0.0000000000000000e+00" cType="1" res="2.8387065976858139e-02" rms="4.6593347191810608e-01" purity="6.1444616317749023e-01" nType="-99"/>
          </Node>
        </Node>
        <Node pos="r" depth="1" NCoef="0" IVar="4" Cut="1.9427473545074463e+00" cType="1" res="-4.4665630906820297e-02" rms="4.4663897156715393e-01" purity="5.5101931095123291e-01" nType="0">
          <Node pos="l" depth="2" NCoef="0" IVar="-1" Cut="0.0000000000000000e+00" cType="1" res="-1.9081191858276725e-03" rms="4.3276986479759216e-01" purity="4.9634140729904175e-01" nType="-99"/>
          <Node pos="r" depth="2" NCoef="0" IVar="-1" Cut="0.0000000000000000e+00" cType="1" res="-2.0255312323570251e-02" rms="4.6060800552368164e-01" purity="6.1327475309371948e-01" nType="-99"/>
        </Node>
      </Node>
    </BinaryTree>
    <BinaryTree type="DecisionTree" boostWeight="1.0000000000000000e+00" itree="103">
      <Node pos="s" depth="0" NCoef="0" IVar="3" Cut="-5.0363677740097046e-01" cType="1" res="-1.4906245283782482e-02" rms="4.6616888046264648e-01" purity="4.8946079611778259e-01" nType="0">
        <Node pos="l" depth="1" NCoef="0" IVar="-1" Cut="0.0000000000000000e+00" cType="1" res="-7.1811494417488575e-03" rms="4.7019731998443604e-01" purity="3.7027028203010559e-01" nType="-99"/>
        <Node pos="r" depth="1" NCoef="0" IVar="4" Cut="3.3530037403106689e+00" cType="1" res="-1.1166222393512726e-02" rms="4.6558001637458801e-01" purity="5.0223094224929810e-01" nType="0">
          <Node pos="l" depth="2" NCoef="0" IVar="5" Cut="1.3463934659957886e+00" cType="1" res="-8.1020314246416092e-03" rms="4.6678429841995239e-01" purity="5.1150828599929810e-01" nType="0">
            <Node pos="l" depth="3" NCoef="0" IVar="-1" Cut="0.0000000000000000e+00" cType="1" res="-2.5770401116460562e-03" rms="4.6904632449150085e-01" purity="5.0421440601348877e-01" nType="-99"/>
            <Node pos="r" depth="3" NCoef="0" IVar="-1" Cut="0.0000000000000000e+00" cType="1" res="-1.0310382582247257e-02" rms="4.6266126632690430e-01" purity="5.2425646781921387e-01" nType="-99"/>
          </Node>
          <Node pos="r" depth="2" NCoef="0" IVar="-1" Cut="0.0000000000000000e+00" cType="1" res="-1.2519486248493195e-02" rms="4.3563407659530640e-01" purity="3.1307706236839294e-01" nType="-99"/>
        </Node>
      </Node>
    </BinaryTree>
    <BinaryTree type="DecisionTree" boostWeight="1.0000000000000000e+00" itree="104">
      <Node pos="s" depth="0" NCoef="0" IVar="4" Cut="8.5151213407516479e-01" cType="1" res="3.1318599358201027e-03" rms="4.6657273173332214e-01" purity="5.0719237327575684e-01" nType="0">
        <Node pos="l" depth="1" NCoef="0" IVar="3" Cut="5.4217152595520020e+00" cType="1" res="0.0000000000000000e+00" rms="0.0000000000000000e+00" purity="4.5281362533569336e-01" nType="0">
          <Node pos="l" depth="2" NCoef="0" IVar="-1" Cut="0.0000000000000000e+00" cType="1" res="-3.5709571093320847e-02" rms="4.6856927871704102e-01" purity="4.5741292834281921e-01" nType="-99"/>
          <Node pos="r" depth="2" NCoef="0" IVar="-1" Cut="0.0000000000000000e+00" cType="1" res="2.0630299113690853e-03" rms="4.4992795586585999e-01" purity="4.4737067818641663e-01" nType="-99"/>
        </Node>
        <Node pos="r" depth="1" NCoef="0" IVar="4" Cut="1.5180830955505371e+00" cType="1" res="6.2516713514924049e-03" rms="4.6751686930656433e-01" purity="5.1621633768081665e-01" nType="0">
          <Node pos="l" depth="2" NCoef="0" IVar="6" Cut="1.6455863714218140e+00" cType="1" res="1.8142454326152802e-02" rms="4.6682235598564148e-01" purity="4.9511530995368958e-01" nType="0">
            <Node pos="l" depth="3" NCoef="0" IVar="-1" Cut="0.0000000000000000e+00" cType="1" res="8.0600464716553688e-03" rms="4.6238744258880615e-01" purity="4.9514341354370117e-01" nType="-99"/>
            <Node pos="r" depth="3" NCoef="0" IVar="-1" Cut="0.0000000000000000e+00" cType="1" res="3.2620225101709366e-02" rms="4.7439783811569214e-01" purity="4.9506124854087830e-01" nType="-99"/>
          </Node>
          <Node pos="r" depth="2" NCoef="0" IVar="6" Cut="-2.8423666954040527e+00" cType="1" res="1.7228677170351148e-03" rms="4.6770161390304565e-01" purity="5.2425307035446167e-01" nType="0">
            <Node pos="l" depth="3" NCoef="0" IVar="-1" Cut="0.0000000000000000e+00" cType="1" res="3.5458840429782867e-02" rms="4.8159030079841614e-01" purity="5.4114454984664917e-01" nType="-99"/>
            <Node pos="r" depth="3" NCoef="0" IVar="-1" Cut="0.0000000000000000e+00" cType="1" res="-2.0635980181396008e-03" rms="4.6581107378005981e-01" purity="5.2219516038894653e-01" nType="-99"/>
          </Node>
        </Node>
      </Node>
    </BinaryTree>
    <BinaryTree type="DecisionTree" boostWeight="1.0000000000000000e+00" itree="105">
      <Node pos="s" depth="0" NCoef="0" IVar="6" Cut="2.2439329624176025e+00" cType="1" res="-6.4502018503844738e-03" rms="4.6553024649620056e-01" purity="4.9630370736122131e-01" nType="0">
        <Node pos="l" depth="1" NCoef="0" IVar="5" Cut="2.2436378002166748e+00" cType="1" res="0.0000000000000000e+00" rms="0.0000000000000000e+00" purity="5.1851391792297363e-01" nType="0">
          <Node pos="l" depth="2" NCoef="0" IVar="6" Cut="-2.3722045421600342e+00" cType="1" res="7.5648068450391293e-03" rms="4.6487426757812500e-01" purity="5.1831829547882080e-01" nType="0">
            <Node pos="l" depth="3" NCoef="0" IVar="-1" Cut="0.0000000000000000e+00" cType="1" res="-9.3846786767244339e-03" rms="4.8384729027748108e-01" purity="4.6674811840057373e-01" nType="-99"/>
            <Node pos="r" depth="3" NCoef="0" IVar="-1" Cut="0.0000000000000000e+00" cType="1" res="1.5166068449616432e-02" rms="4.5414507389068604e-01" purity="5.4593604803085327e-01" nType="-99"/>
          </Node>
          <Node pos="r" depth="2" NCoef="0" IVar="4" Cut="1.3080772161483765e+00" cType="1" res="-2.0107436925172806e-02" rms="4.5971336960792542e-01" purity="5.1927846670150757e-01" nType="0">
            <Node pos="l" depth="3" NCoef="0" IVar="-1" Cut="0.0000000000000000e+00" cType="1" res="9.7999004647135735e-03" rms="4.5861160755157471e-01" purity="5.0184416770935059e-01" nType="-99"/>
            <Node pos="r" depth="3" NCoef="0" IVar="-1" Cut="0.0000000000000000e+00" cType="1" res="-3.0775634571909904e-02" rms="4.5958876609802246e-01" purity="5.2900648117065430e-01" nType="-99"/>
          </Node>
        </Node>
        <Node pos="r" depth="1" NCoef="0" IVar="7" Cut="6.0000000000000000e+00" cType="1" res="-2.9777852818369865e-02" rms="4.6908167004585266e-01" purity="4.3446514010429382e-01" nType="0">
          <Node pos="l" depth="2" NCoef="0" IVar="2" Cut="3.1831362915039062e+02" cType="1" res="-4.5513594523072243e-03" rms="4.7579434514045715e-01" purity="4.5535677671432495e-01" nType="0">
            <Node pos="l" depth="3" NCoef="0" IVar="-1" Cut="0.0000000000000000e+00" cType="1" res="-1.3456680811941624e-02" rms="4.7857636213302612e-01" purity="4.2158308625221252e-01" nType="-99"/>
            <Node pos="r" depth="3" NCoef="0" IVar="-1" Cut="0.0000000000000000e+00" cType="1" res="4.0565229952335358e-02" rms="4.6435692906379700e-01" purity="5.6635326147079468e-01" nType="-99"/>
          </Node>
          <Node pos="r" depth="2" NCoef="0" IVar="-1" Cut="0.0000000000000000e+00" cType="1" res="-2.5360924191772938e-03" rms="4.3470242619514465e-01" purity="3.6345618963241577e-01" nType="-99"/>
        </Node>
      </Node>
    </BinaryTree>
    <BinaryTree type="DecisionTree" boostWeight="1.0000000000000000e+00" itree="106">
      <Node pos="s" depth="0" NCoef="0" IVar="6" Cut="-1.4955678582191467e-01" cType="1" res="-6.1377044767141342e-03" rms="4.6701028943061829e-01" purity="4.9975416064262390e-01" nType="0">
        <Node pos="l" depth="1" NCoef="0" IVar="5" Cut="1.3462034463882446e+00" cType="1" res="-1.4518447220325470e-02" rms="4.6890816092491150e-01" purity="4.9126717448234558e-01" nType="0">
          <Node pos="l" depth="2" NCoef="0" IVar="6" Cut="-1.8594058752059937e+00" cType="1" res="-2.0877465605735779e-02" rms="4.7413453459739685e-01" purity="4.5115882158279419e-01" nType="0">
            <Node pos="l" depth="3" NCoef="0" IVar="-1" Cut="0.0000000000000000e+00" cType="1" res="-1.1951222084462643e-02" rms="4.7772502899169922e-01" purity="4.4951385259628296e-01" nType="-99"/>
            <Node pos="r" depth="3" NCoef="0" IVar="-1" Cut="0.0000000000000000e+00" cType="1" res="-4.8253279179334641e-02" rms="4.6541750431060791e-01" purity="4.5476174354553223e-01" nType="-99"/>
          </Node>
          <Node pos="r" depth="2" NCoef="0" IVar="-1" Cut="0.0000000000000000e+00" cType="1" res="1.6335284337401390e-02" rms="4.4329208135604858e-01" purity="6.7316043376922607e-01" nType="-99"/>
        </Node>
        <Node pos="r" depth="1" NCoef="0" IVar="5" Cut="2.8415770530700684e+00" cType="1" res="1.5972912078723311e-03" rms="4.6511781215667725e-01" purity="5.0758719444274902e-01" nType="0">
          <Node pos="l" depth="2" NCoef="0" IVar="6" Cut="2.6714732646942139e+00" cType="1" res="-1.8044853350147605e-03" rms="4.6458756923675537e-01" purity="5.0198411941528320e-01" nType="0">
            <Node pos="l" depth="3" NCoef="0" IVar="-1" Cut="0.0000000000000000e+00" cType="1" res="-3.9179050363600254e-03" rms="4.5826852321624756e-01" purity="5.0882792472839355e-01" nType="-99"/>
            <Node pos="r" depth="3" NCoef="0" IVar="-1" Cut="0.0000000000000000e+00" cType="1" res="1.4234852977097034e-02" rms="4.7890064120292664e-01" purity="4.8575094342231750e-01" nType="-99"/>
          </Node>
          <Node pos="r" depth="2" NCoef="0" IVar="-1" Cut="0.0000000000000000e+00" cType="1" res="3.7915244698524475e-02" rms="4.6881413459777832e-01" purity="5.5918985605239868e-01" nType="-99"/>
        </Node>
      </Node>
    </BinaryTree>
    <BinaryTree type="DecisionTree" boostWeight="1.0000000000000000e+00" itree="107">
      <Node pos="s" depth="0" NCoef="0" IVar="4" Cut="3.1126940250396729e+00" cType="1" res="3.2341224141418934e-05" rms="4.6710816025733948e-01" purity="5.0457465648651123e-01" nType="0">
        <Node pos="l" depth="1" NCoef="0" IVar="4" Cut="6.5272057056427002e-01" cType="1" res="-3.5158896353095770e-03" rms="4.6669727563858032e-01" purity="5.0713270902633667e-01" nType="0">
          <Node pos="l" depth="2" NCoef="0" IVar="-1" Cut="0.0000000000000000e+00" cType="1" res="3.1720459461212158e-02" rms="4.6397495269775391e-01" purity="4.8851454257965088e-01" nType="-99"/>
          <Node pos="r" depth="2" NCoef="0" IVar="4" Cut="1.8241258859634399e+00" cType="1" res="-6.4939004369080067e-03" rms="4.6685189008712769e-01" purity="5.0893265008926392e-01" nType="0">
            <Node pos="l" depth="3" NCoef="0" IVar="-1" Cut="0.0000000000000000e+00" cType="1" res="-1.5120884403586388e-02" rms="4.6538689732551575e-01" purity="4.7232365608215332e-01" nType="-99"/>
            <Node pos="r" depth="3" NCoef="0" IVar="-1" Cut="0.0000000000000000e+00" cType="1" res="8.7184144649654627e-04" rms="4.6811315417289734e-01" purity="5.4353630542755127e-01" nType="-99"/>
          </Node>
        </Node>
        <Node pos="r" depth="1" NCoef="0" IVar="9" Cut="3.9352457031250000e+04" cType="1" res="3.2648172229528427e-02" rms="4.6961402893066406e-01" purity="4.8106074333190918e-01" nType="0">
          <Node pos="l" depth="2" NCoef="0" IVar="-1" Cut="0.0000000000000000e+00" cType="1" res="1.0097370482981205e-02" rms="4.5966896414756775e-01" purity="3.6892992258071899e-01" nType="-99"/>
          <Node pos="r" depth="2" NCoef="0" IVar="-1" Cut="0.0000000000000000e+00" cType="1" res="4.2450856417417526e-02" rms="4.7695907950401306e-01" purity="5.7270628213882446e-01" nType="-99"/>
        </Node>
      </Node>
    </BinaryTree>
    <BinaryTree type="DecisionTree" boostWeight="1.0000000000000000e+00" itree="108">
      <Node pos="s" depth="0" NCoef="0" IVar="6" Cut="1.3464064598083496e+00" cType="1" res="-2.5928902905434370e-03" rms="4.6303957700729370e-01" purity="4.9629318714141846e-01" nType="0">
        <Node pos="l" depth="1" NCoef="0" IVar="5" Cut="-1.6455186605453491e+00" cType="1" res="4.3904008343815804e-03" rms="4.6068945527076721e-01" purity="5.1810860633850098e-01" nType="0">
          <Node pos="l" depth="2" NCoef="0" IVar="9" Cut="6.5250035156250000e+04" cType="1" res="1.3899763114750385e-02" rms="4.6408095955848694e-01" purity="5.1498246192932129e-01" nType="0">
            <Node pos="l" depth="3" NCoef="0" IVar="-1" Cut="0.0000000000000000e+00" cType="1" res="8.3976052701473236e-03" rms="4.6986898779869080e-01" purity="4.6997359395027161e-01" nType="-99"/>
            <Node pos="r" depth="3" NCoef="0" IVar="-1" Cut="0.0000000000000000e+00" cType="1" res="5.8600869029760361e-02" rms="4.3634381890296936e-01" purity="7.1466070413589478e-01" nType="-99"/>
          </Node>
          <Node pos="r" depth="2" NCoef="0" IVar="6" Cut="-1.6455918550491333e+00" cType="1" res="-2.9969378374516964e-03" rms="4.5790117979049683e-01" purity="5.2053713798522949e-01" nType="0">
            <Node pos="l" depth="3" NCoef="0" IVar="-1" Cut="0.0000000000000000e+00" cType="1" res="-1.0195375420153141e-02" rms="4.7074434161186218e-01" purity="4.4992119073867798e-01" nType="-99"/>
            <Node pos="r" depth="3" NCoef="0" IVar="-1" Cut="0.0000000000000000e+00" cType="1" res="9.4772074371576309e-03" rms="4.4334173202514648e-01" purity="5.9665954113006592e-01" nType="-99"/>
          </Node>
        </Node>
        <Node pos="r" depth="1" NCoef="0" IVar="7" Cut="6.0000000000000000e+00" cType="1" res="-1.3739949092268944e-02" rms="4.6654859185218811e-01" purity="4.6146059036254883e-01" nType="0">
          <Node pos="l" depth="2" NCoef="0" IVar="2" Cut="3.7124566650390625e+02" cType="1" res="0.0000000000000000e+00" rms="0.0000000000000000e+00" purity="4.5759698748588562e-01" nType="0">
            <Node pos="l" depth="3" NCoef="0" IVar="-1" Cut="0.0000000000000000e+00" cType="1" res="2.9374945443123579e-03" rms="4.7145336866378784e-01" purity="4.4362127780914307e-01" nType="-99"/>
            <Node pos="r" depth="3" NCoef="0" IVar="-1" Cut="0.0000000000000000e+00" cType="1" res="-1.3407236896455288e-02" rms="4.5722845196723938e-01" purity="5.3140228986740112e-01" nType="-99"/>
          </Node>
          <Node pos="r" depth="2" NCoef="0" IVar="-1" Cut="0.0000000000000000e+00" cType="1" res="-2.0028378348797560e-03" rms="4.5440775156021118e-01" purity="4.7387525439262390e-01" nType="-99"/>
        </Node>
      </Node>
    </BinaryTree>
    <BinaryTree type="DecisionTree" boostWeight="1.0000000000000000e+00" itree="109">
      <Node pos="s" depth="0" NCoef="0" IVar="4" Cut="3.1842815876007080e+00" cType="1" res="-4.5069884508848190e-03" rms="4.6445906162261963e-01" purity="4.9848976731300354e-01" nType="0">
        <Node pos="l" depth="1" NCoef="0" IVar="5" Cut="1.3462264537811279e+00" cType="1" res="-1.4552543871104717e-03" rms="4.6533957123756409e-01" purity="5.0766158103942871e-01" nType="0">
          <Node pos="l" depth="2" NCoef="0" IVar="4" Cut="1.5592532157897949e+00" cType="1" res="6.6702333278954029e-03" rms="4.6831664443016052e-01" purity="5.0903737545013428e-01" nType="0">
            <Node pos="l" depth="3" NCoef="0" IVar="-1" Cut="0.0000000000000000e+00" cType="1" res="-3.2053180038928986e-03" rms="4.6610674262046814e-01" purity="4.5953625440597534e-01" nType="-99"/>
            <Node pos="r" depth="3" NCoef="0" IVar="-1" Cut="0.0000000000000000e+00" cType="1" res="1.3712948188185692e-02" rms="4.6978598833084106e-01" purity="5.4453665018081665e-01" nType="-99"/>
          </Node>
          <Node pos="r" depth="2" NCoef="0" IVar="5" Cut="1.8591254949569702e+00" cType="1" res="-1.4501160010695457e-02" rms="4.6021953225135803e-01" purity="5.0545263290405273e-01" nType="0">
            <Node pos="l" depth="3" NCoef="0" IVar="-1" Cut="0.0000000000000000e+00" cType="1" res="-2.5117537006735802e-03" rms="4.3785071372985840e-01" purity="3.8108891248703003e-01" nType="-99"/>
            <Node pos="r" depth="3" NCoef="0" IVar="-1" Cut="0.0000000000000000e+00" cType="1" res="2.3806148674339056e-03" rms="4.6512904763221741e-01" purity="5.4142409563064575e-01" nType="-99"/>
          </Node>
        </Node>
        <Node pos="r" depth="1" NCoef="0" IVar="-1" Cut="0.0000000000000000e+00" cType="1" res="-1.5674520283937454e-02" rms="4.5139700174331665e-01" purity="3.8248026371002197e-01" nType="-99"/>
      </Node>
    </BinaryTree>
    <BinaryTree type="DecisionTree" boostWeight="1.0000000000000000e+00" itree="110">
      <Node pos="s" depth="0" NCoef="0" IVar="5" Cut="1.3464183807373047e+00" cType="1" res="2.0794768352061510e-03" rms="4.6571087837219238e-01" purity="5.0715231895446777e-01" nType="0">
        <Node pos="l" depth="1" NCoef="0" IVar="5" Cut="-2.5003986358642578e+00" cType="1" res="9.6252076327800751e-03" rms="4.6712321043014526e-01" purity="5.0672924518585205e-01" nType="0">
          <Node pos="l" depth="2" NCoef="0" IVar="2" Cut="2.2385273742675781e+02" cType="1" res="2.4015860632061958e-02" rms="4.5516842603683472e-01" purity="5.7239973545074463e-01" nType="0">
            <Node pos="l" depth="3" NCoef="0" IVar="-1" Cut="0.0000000000000000e+00" cType="1" res="4.3143358081579208e-02" rms="4.4787964224815369e-01" purity="6.0116112232208252e-01" nType="-99"/>
            <Node pos="r" depth="3" NCoef="0" IVar="-1" Cut="0.0000000000000000e+00" cType="1" res="8.2810241729021072e-03" rms="4.6713203191757202e-01" purity="5.2210211753845215e-01" nType="-99"/>
          </Node>
          <Node pos="r" depth="2" NCoef="0" IVar="5" Cut="-4.8554357886314392e-01" cType="1" res="4.7706291079521179e-03" rms="4.7098848223686218e-01" purity="4.8457574844360352e-01" nType="0">
            <Node pos="l" depth="3" NCoef="0" IVar="-1" Cut="0.0000000000000000e+00" cType="1" res="-4.7737341374158859e-03" rms="4.6872687339782715e-01" purity="4.9091032147407532e-01" nType="-99"/>
            <Node pos="r" depth="3" NCoef="0" IVar="-1" Cut="0.0000000000000000e+00" cType="1" res="1.9725209102034569e-02" rms="4.7429403662681580e-01" purity="4.7398921847343445e-01" nType="-99"/>
          </Node>
        </Node>
        <Node pos="r" depth="1" NCoef="0" IVar="9" Cut="4.3040250000000000e+04" cType="1" res="0.0000000000000000e+00" rms="0.0000000000000000e+00" purity="5.0787627696990967e-01" nType="0">
          <Node pos="l" depth="2" NCoef="0" IVar="7" Cut="5.0000000000000000e+00" cType="1" res="-2.3838063701987267e-02" rms="4.6655541658401489e-01" purity="3.9173448085784912e-01" nType="0">
            <Node pos="l" depth="3" NCoef="0" IVar="-1" Cut="0.0000000000000000e+00" cType="1" res="-3.0362692195922136e-03" rms="4.6433648467063904e-01" purity="3.6943247914314270e-01" nType="-99"/>
            <Node pos="r" depth="3" NCoef="0" IVar="-1" Cut="0.0000000000000000e+00" cType="1" res="-4.6087089926004410e-02" rms="4.6993389725685120e-01" purity="4.3102771043777466e-01" nType="-99"/>
          </Node>
          <Node pos="r" depth="2" NCoef="0" IVar="5" Cut="2.7144060134887695e+00" cType="1" res="3.3503614831715822e-03" rms="4.5866948366165161e-01" purity="6.3449203968048096e-01" nType="0">
            <Node pos="l" depth="3" NCoef="0" IVar="-1" Cut="0.0000000000000000e+00" cType="1" res="1.7666067928075790e-02" rms="4.5739489793777466e-01" purity="6.3927966356277466e-01" nType="-99"/>
            <Node pos="r" depth="3" NCoef="0" IVar="-1" Cut="0.0000000000000000e+00" cType="1" res="-2.9366560280323029e-02" rms="4.6008425951004028e-01" purity="6.2482398748397827e-01" nType="-99"/>
          </Node>
        </Node>
      </Node>
    </BinaryTree>
    <BinaryTree type="DecisionTree" boostWeight="1.0000000000000000e+00" itree="111">
      <Node pos="s" depth="0" NCoef="0" IVar="7" Cut="7.0000000000000000e+00" cType="1" res="-1.2081338092684746e-02" rms="4.6175414323806763e-01" purity="4.8899134993553162e-01" nType="0">
        <Node pos="l" depth="1" NCoef="0" IVar="5" Cut="-1.9447767734527588e+00" cType="1" res="0.0000000000000000e+00" rms="0.0000000000000000e+00" purity="4.9097630381584167e-01" nType="0">
          <Node pos="l" depth="2" NCoef="0" IVar="6" Cut="4.4934946298599243e-01" cType="1" res="-1.8058175221085548e-02" rms="4.6387502551078796e-01" purity="5.1029658317565918e-01" nType="0">
            <Node pos="l" depth="3" NCoef="0" IVar="-1" Cut="0.0000000000000000e+00" cType="1" res="-2.1260898560285568e-02" rms="4.6915045380592346e-01" purity="4.6697664260864258e-01" nType="-99"/>
            <Node pos="r" depth="3" NCoef="0" IVar="-1" Cut="0.0000000000000000e+00" cType="1" res="1.8594168126583099e-02" rms="4.3915563821792603e-01" purity="6.9504445791244507e-01" nType="-99"/>
          </Node>
          <Node pos="r" depth="2" NCoef="0" IVar="5" Cut="-1.4603887796401978e+00" cType="1" res="2.3661043960601091e-03" rms="4.6826067566871643e-01" purity="4.8344615101814270e-01" nType="0">
            <Node pos="l" depth="3" NCoef="0" IVar="-1" Cut="0.0000000000000000e+00" cType="1" res="4.1970022022724152e-02" rms="4.7262004017829895e-01" purity="5.0294286012649536e-01" nType="-99"/>
            <Node pos="r" depth="3" NCoef="0" IVar="-1" Cut="0.0000000000000000e+00" cType="1" res="-1.2863151496276259e-03" rms="4.6759808063507080e-01" purity="4.8126748204231262e-01" nType="-99"/>
          </Node>
        </Node>
        <Node pos="r" depth="1" NCoef="0" IVar="4" Cut="1.6136367321014404e+00" cType="1" res="-7.1133948862552643e-02" rms="4.1896259784698486e-01" purity="4.7556656599044800e-01" nType="0">
          <Node pos="l" depth="2" NCoef="0" IVar="-1" Cut="0.0000000000000000e+00" cType="1" res="-1.4049425953999162e-03" rms="3.7702426314353943e-01" purity="3.4791401028633118e-01" nType="-99"/>
          <Node pos="r" depth="2" NCoef="0" IVar="-1" Cut="0.0000000000000000e+00" cType="1" res="-8.1855133175849915e-03" rms="4.5358273386955261e-01" purity="6.1755639314651489e-01" nType="-99"/>
        </Node>
      </Node>
    </BinaryTree>
    <BinaryTree type="DecisionTree" boostWeight="1.0000000000000000e+00" itree="112">
      <Node pos="s" depth="0" NCoef="0" IVar="9" Cut="6.5248332031250000e+04" cType="1" res="7.6443498255684972e-04" rms="4.6762806177139282e-01" purity="5.0750839710235596e-01" nType="0">
        <Node pos="l" depth="1" NCoef="0" IVar="9" Cut="5.9497289062500000e+04" cType="1" res="4.8003988340497017e-03" rms="4.7179028391838074e-01" purity="4.6875736117362976e-01" nType="0">
          <Node pos="l" depth="2" NCoef="0" IVar="7" Cut="5.0000000000000000e+00" cType="1" res="0.0000000000000000e+00" rms="0.0000000000000000e+00" purity="4.5794188976287842e-01" nType="0">
            <Node pos="l" depth="3" NCoef="0" IVar="-1" Cut="0.0000000000000000e+00" cType="1" res="5.5289268493652344e-03" rms="4.7072136402130127e-01" purity="4.1696885228157043e-01" nType="-99"/>
            <Node pos="r" depth="3" NCoef="0" IVar="-1" Cut="0.0000000000000000e+00" cType="1" res="-3.6641107872128487e-03" rms="4.7530019283294678e-01" purity="5.0583088397979736e-01" nType="-99"/>
          </Node>
          <Node pos="r" depth="2" NCoef="0" IVar="-1" Cut="0.0000000000000000e+00" cType="1" res="3.7804078310728073e-02" rms="4.5347300171852112e-01" purity="6.3779342174530029e-01" nType="-99"/>
        </Node>
        <Node pos="r" depth="1" NCoef="0" IVar="6" Cut="1.9441511631011963e+00" cType="1" res="0.0000000000000000e+00" rms="0.0000000000000000e+00" purity="6.7333978414535522e-01" nType="0">
          <Node pos="l" depth="2" NCoef="0" IVar="6" Cut="-1.2041877508163452e+00" cType="1" res="-8.5747167468070984e-03" rms="4.4238728284835815e-01" purity="6.8797087669372559e-01" nType="0">
            <Node pos="l" depth="3" NCoef="0" IVar="-1" Cut="0.0000000000000000e+00" cType="1" res="-2.2571511566638947e-02" rms="4.6975833177566528e-01" purity="6.1967319250106812e-01" nType="-99"/>
            <Node pos="r" depth="3" NCoef="0" IVar="-1" Cut="0.0000000000000000e+00" cType="1" res="6.9567714817821980e-03" rms="4.2264980077743530e-01" purity="7.3307740688323975e-01" nType="-99"/>
          </Node>
          <Node pos="r" depth="2" NCoef="0" IVar="-1" Cut="0.0000000000000000e+00" cType="1" res="-4.7786507755517960e-02" rms="4.7103628516197205e-01" purity="6.2008041143417358e-01" nType="-99"/>
        </Node>
      </Node>
    </BinaryTree>
    <BinaryTree type="DecisionTree" boostWeight="1.0000000000000000e+00" itree="113">
      <Node pos="s" depth="0" NCoef="0" IVar="9" Cut="4.5680500000000000e+04" cType="1" res="0.0000000000000000e+00" rms="0.0000000000000000e+00" purity="4.9919980764389038e-01" nType="0">
        <Node pos="l" depth="1" NCoef="0" IVar="9" Cut="2.6969589843750000e+04" cType="1" res="7.9424824798479676e-04" rms="4.7025009989738464e-01" purity="4.2006653547286987e-01" nType="0">
          <Node pos="l" depth="2" NCoef="0" IVar="6" Cut="4.4872063398361206e-01" cType="1" res="-2.2184155881404877e-02" rms="4.3687269091606140e-01" purity="2.8915432095527649e-01" nType="0">
            <Node pos="l" depth="3" NCoef="0" IVar="-1" Cut="0.0000000000000000e+00" cType="1" res="-2.9567174613475800e-02" rms="4.2579904198646545e-01" purity="2.6360580325126648e-01" nType="-99"/>
            <Node pos="r" depth="3" NCoef="0" IVar="-1" Cut="0.0000000000000000e+00" cType="1" res="8.7335631251335144e-03" rms="4.4735112786293030e-01" purity="3.1825515627861023e-01" nType="-99"/>
          </Node>
          <Node pos="r" depth="2" NCoef="0" IVar="9" Cut="3.1425472656250000e+04" cType="1" res="5.0038909539580345e-03" rms="4.7599110007286072e-01" purity="4.4404962658882141e-01" nType="0">
            <Node pos="l" depth="3" NCoef="0" IVar="-1" Cut="0.0000000000000000e+00" cType="1" res="2.2432997822761536e-02" rms="4.6897250413894653e-01" purity="3.8348117470741272e-01" nType="-99"/>
            <Node pos="r" depth="3" NCoef="0" IVar="-1" Cut="0.0000000000000000e+00" cType="1" res="-2.5306742172688246e-03" rms="4.7933310270309448e-01" purity="4.7498679161071777e-01" nType="-99"/>
          </Node>
        </Node>
        <Node pos="r" depth="1" NCoef="0" IVar="8" Cut="8.2543515625000000e+04" cType="1" res="-1.7658842727541924e-02" rms="4.5670345425605774e-01" purity="6.0896837711334229e-01" nType="0">
          <Node pos="l" depth="2" NCoef="0" IVar="9" Cut="5.5984359375000000e+04" cType="1" res="-3.2391287386417389e-02" rms="4.6801394224166870e-01" purity="5.3781074285507202e-01" nType="0">
            <Node pos="l" depth="3" NCoef="0" IVar="-1" Cut="0.0000000000000000e+00" cType="1" res="-3.3282171934843063e-03" rms="4.6490606665611267e-01" purity="4.8238241672515869e-01" nType="-99"/>
            <Node pos="r" depth="3" NCoef="0" IVar="-1" Cut="0.0000000000000000e+00" cType="1" res="4.7255023382604122e-03" rms="4.6943041682243347e-01" purity="6.1204618215560913e-01" nType="-99"/>
          </Node>
          <Node pos="r" depth="2" NCoef="0" IVar="5" Cut="-2.5428102016448975e+00" cType="1" res="-3.5417459439486265e-03" rms="4.4513887166976929e-01" purity="6.7715376615524292e-01" nType="0">
            <Node pos="l" depth="3" NCoef="0" IVar="-1" Cut="0.0000000000000000e+00" cType="1" res="2.2488720715045929e-02" rms="4.2540180683135986e-01" purity="7.1680742502212524e-01" nType="-99"/>
            <Node pos="r" depth="3" NCoef="0" IVar="-1" Cut="0.0000000000000000e+00" cType="1" res="-1.0588765144348145e-02" rms="4.4990336894989014e-01" purity="6.6697722673416138e-01" nType="-99"/>
          </Node>
        </Node>
      </Node>
    </BinaryTree>
    <BinaryTree type="DecisionTree" boostWeight="1.0000000000000000e+00" itree="114">
      <Node pos="s" depth="0" NCoef="0" IVar="6" Cut="2.5431435108184814e+00" cType="1" res="-8.9252628386020660e-03" rms="4.6913716197013855e-01" purity="4.9794918298721313e-01" nType="0">
        <Node pos="l" depth="1" NCoef="0" IVar="9" Cut="4.6279792968750000e+04" cType="1" res="-5.5487331701442599e-04" rms="4.6656447649002075e-01" purity="5.1223802566528320e-01" nType="0">
          <Node pos="l" depth="2" NCoef="0" IVar="8" Cut="4.9671992187500000e+04" cType="1" res="6.9538597017526627e-03" rms="4.7175198793411255e-01" purity="4.2903462052345276e-01" nType="0">
            <Node pos="l" depth="3" NCoef="0" IVar="-1" Cut="0.0000000000000000e+00" cType="1" res="-3.5322848707437515e-03" rms="4.6446564793586731e-01" purity="3.6428865790367126e-01" nType="-99"/>
            <Node pos="r" depth="3" NCoef="0" IVar="-1" Cut="0.0000000000000000e+00" cType="1" res="1.9329588860273361e-02" rms="4.7972699999809265e-01" purity="5.0362265110015869e-01" nType="-99"/>
          </Node>
          <Node pos="r" depth="2" NCoef="0" IVar="6" Cut="1.4602932929992676e+00" cType="1" res="-1.0796174407005310e-02" rms="4.5919683575630188e-01" purity="6.2572062015533447e-01" nType="0">
            <Node pos="l" depth="3" NCoef="0" IVar="-1" Cut="0.0000000000000000e+00" cType="1" res="-1.7554724588990211e-02" rms="4.5830848813056946e-01" purity="6.2367194890975952e-01" nType="-99"/>
            <Node pos="r" depth="3" NCoef="0" IVar="-1" Cut="0.0000000000000000e+00" cType="1" res="2.0927518606185913e-02" rms="4.6161386370658875e-01" purity="6.3430291414260864e-01" nType="-99"/>
          </Node>
        </Node>
        <Node pos="r" depth="1" NCoef="0" IVar="5" Cut="1.4927729964256287e-01" cType="1" res="-4.3165653944015503e-02" rms="4.7799369692802429e-01" purity="4.3949872255325317e-01" nType="0">
          <Node pos="l" depth="2" NCoef="0" IVar="-1" Cut="0.0000000000000000e+00" cType="1" res="-5.7631218805909157e-03" rms="4.7631594538688660e-01" purity="3.8899344205856323e-01" nType="-99"/>
          <Node pos="r" depth="2" NCoef="0" IVar="5" Cut="2.4285120964050293e+00" cType="1" res="-1.2622842565178871e-02" rms="4.7513097524642944e-01" purity="4.5901337265968323e-01" nType="0">
            <Node pos="l" depth="3" NCoef="0" IVar="-1" Cut="0.0000000000000000e+00" cType="1" res="-2.5015242397785187e-02" rms="4.7430825233459473e-01" purity="4.1668519377708435e-01" nType="-99"/>
            <Node pos="r" depth="3" NCoef="0" IVar="-1" Cut="0.0000000000000000e+00" cType="1" res="1.8802603706717491e-02" rms="4.7554999589920044e-01" purity="5.5559486150741577e-01" nType="-99"/>
          </Node>
        </Node>
      </Node>
    </BinaryTree>
    <BinaryTree type="DecisionTree" boostWeight="1.0000000000000000e+00" itree="115">
      <Node pos="s" depth="0" NCoef="0" IVar="6" Cut="7.4800986051559448e-01" cType="1" res="1.5566230285912752e-03" rms="4.6534445881843567e-01" purity="5.0670278072357178e-01" nType="0">
        <Node pos="l" depth="1" NCoef="0" IVar="5" Cut="-1.6455297470092773e+00" cType="1" res="8.6300624534487724e-03" rms="4.6508437395095825e-01" purity="5.2340114116668701e-01" nType="0">
          <Node pos="l" depth="2" NCoef="0" IVar="4" Cut="8.3469927310943604e-01" cType="1" res="-1.1153527302667499e-03" rms="4.6760687232017517e-01" purity="4.9912545084953308e-01" nType="0">
            <Node pos="l" depth="3" NCoef="0" IVar="-1" Cut="0.0000000000000000e+00" cType="1" res="-2.4060387164354324e-02" rms="4.6758973598480225e-01" purity="4.2101040482521057e-01" nType="-99"/>
            <Node pos="r" depth="3" NCoef="0" IVar="-1" Cut="0.0000000000000000e+00" cType="1" res="4.4823298230767250e-03" rms="4.6741420030593872e-01" purity="5.1370728015899658e-01" nType="-99"/>
          </Node>
          <Node pos="r" depth="2" NCoef="0" IVar="6" Cut="-2.7711267471313477e+00" cType="1" res="0.0000000000000000e+00" rms="0.0000000000000000e+00" purity="5.4495579004287720e-01" nType="0">
            <Node pos="l" depth="3" NCoef="0" IVar="-1" Cut="0.0000000000000000e+00" cType="1" res="-7.3300381191074848e-03" rms="4.7472363710403442e-01" purity="4.4085678458213806e-01" nType="-99"/>
            <Node pos="r" depth="3" NCoef="0" IVar="-1" Cut="0.0000000000000000e+00" cType="1" res="2.8583278879523277e-02" rms="4.5833340287208557e-01" purity="5.7942843437194824e-01" nType="-99"/>
          </Node>
        </Node>
        <Node pos="r" depth="1" NCoef="0" IVar="5" Cut="2.5427641868591309e+00" cType="1" res="-7.2959228418767452e-03" rms="4.6551835536956787e-01" purity="4.8580431938171387e-01" nType="0">
          <Node pos="l" depth="2" NCoef="0" IVar="6" Cut="2.3438744544982910e+00" cType="1" res="-1.4995616860687733e-02" rms="4.6415740251541138e-01" purity="4.7402045130729675e-01" nType="0">
            <Node pos="l" depth="3" NCoef="0" IVar="-1" Cut="0.0000000000000000e+00" cType="1" res="-9.2008290812373161e-03" rms="4.5035395026206970e-01" purity="4.8934105038642883e-01" nType="-99"/>
            <Node pos="r" depth="3" NCoef="0" IVar="-1" Cut="0.0000000000000000e+00" cType="1" res="-5.3815812862012535e-05" rms="4.7511929273605347e-01" purity="4.6093857288360596e-01" nType="-99"/>
          </Node>
          <Node pos="r" depth="2" NCoef="0" IVar="7" Cut="5.0000000000000000e+00" cType="1" res="0.0000000000000000e+00" rms="0.0000000000000000e+00" purity="5.3400969505310059e-01" nType="0">
            <Node pos="l" depth="3" NCoef="0" IVar="-1" Cut="0.0000000000000000e+00" cType="1" res="1.6832435503602028e-02" rms="4.6757009625434875e-01" purity="5.0348383188247681e-01" nType="-99"/>
            <Node pos="r" depth="3" NCoef="0" IVar="-1" Cut="0.0000000000000000e+00" cType="1" res="3.3615581691265106e-02" rms="4.7180932760238647e-01" purity="5.6432664394378662e-01" nType="-99"/>
          </Node>
        </Node>
      </Node>
    </BinaryTree>
    <BinaryTree type="DecisionTree" boostWeight="1.0000000000000000e+00" itree="116">
      <Node pos="s" depth="0" NCoef="0" IVar="4" Cut="1.9298797845840454e+00" cType="1" res="-1.1603328399360180e-02" rms="4.6743059158325195e-01" purity="5.0020825862884521e-01" nType="0">
        <Node pos="l" depth="1" NCoef="0" IVar="6" Cut="-2.2439594268798828e+00" cType="1" res="0.0000000000000000e+00" rms="0.0000000000000000e+00" purity="4.8622405529022217e-01" nType="0">
          <Node pos="l" depth="2" NCoef="0" IVar="4" Cut="1.3139129877090454e+00" cType="1" res="1.4429228380322456e-02" rms="4.7469922900199890e-01" purity="4.7188636660575867e-01" nType="0">
            <Node pos="l" depth="3" NCoef="0" IVar="-1" Cut="0.0000000000000000e+00" cType="1" res="-1.8764961278066039e-03" rms="4.7423091530799866e-01" purity="4.3482783436775208e-01" nType="-99"/>
            <Node pos="r" depth="3" NCoef="0" IVar="-1" Cut="0.0000000000000000e+00" cType="1" res="4.0973529219627380e-02" rms="4.7449231147766113e-01" purity="5.1909059286117554e-01" nType="-99"/>
          </Node>
          <Node pos="r" depth="2" NCoef="0" IVar="6" Cut="2.3722288608551025e+00" cType="1" res="-5.7423687539994717e-03" rms="4.6324375271797180e-01" purity="4.9061372876167297e-01" nType="0">
            <Node pos="l" depth="3" NCoef="0" IVar="-1" Cut="0.0000000000000000e+00" cType="1" res="-1.6475629061460495e-02" rms="4.5874166488647461e-01" purity="4.9836635589599609e-01" nType="-99"/>
            <Node pos="r" depth="3" NCoef="0" IVar="-1" Cut="0.0000000000000000e+00" cType="1" res="1.4982974156737328e-02" rms="4.7433897852897644e-01" purity="4.7017720341682434e-01" nType="-99"/>
          </Node>
        </Node>
        <Node pos="r" depth="1" NCoef="0" IVar="6" Cut="2.5431213378906250e+00" cType="1" res="-2.2357344627380371e-02" rms="4.6860131621360779e-01" purity="5.1441019773483276e-01" nType="0">
          <Node pos="l" depth="2" NCoef="0" IVar="3" Cut="3.5063967704772949e+00" cType="1" res="0.0000000000000000e+00" rms="0.0000000000000000e+00" purity="5.3606373071670532e-01" nType="0">
            <Node pos="l" depth="3" NCoef="0" IVar="-1" Cut="0.0000000000000000e+00" cType="1" res="-1.4143808744847775e-02" rms="4.7331267595291138e-01" purity="4.7843199968338013e-01" nType="-99"/>
            <Node pos="r" depth="3" NCoef="0" IVar="-1" Cut="0.0000000000000000e+00" cType="1" res="-4.9055474810302258e-03" rms="4.5696946978569031e-01" purity="5.8376765251159668e-01" nType="-99"/>
          </Node>
          <Node pos="r" depth="2" NCoef="0" IVar="5" Cut="7.4745172262191772e-01" cType="1" res="-6.4741864800453186e-02" rms="4.8037540912628174e-01" purity="4.3821579217910767e-01" nType="0">
            <Node pos="l" depth="3" NCoef="0" IVar="-1" Cut="0.0000000000000000e+00" cType="1" res="-5.1233754493296146e-03" rms="4.8168131709098816e-01" purity="3.8428503274917603e-01" nType="-99"/>
            <Node pos="r" depth="3" NCoef="0" IVar="-1" Cut="0.0000000000000000e+00" cType="1" res="-1.2986690737307072e-02" rms="4.7427093982696533e-01" purity="4.7943651676177979e-01" nType="-99"/>
          </Node>
        </Node>
      </Node>
    </BinaryTree>
    <BinaryTree type="DecisionTree" boostWeight="1.0000000000000000e+00" itree="117">
      <Node pos="s" depth="0" NCoef="0" IVar="6" Cut="1.3464040756225586e+00" cType="1" res="-5.5605093948543072e-03" rms="4.6406671404838562e-01" purity="4.9789923429489136e-01" nType="0">
        <Node pos="l" depth="1" NCoef="0" IVar="6" Cut="-1.8592997789382935e+00" cType="1" res="2.0876233465969563e-03" rms="4.6288090944290161e-01" purity="5.2311611175537109e-01" nType="0">
          <Node pos="l" depth="2" NCoef="0" IVar="7" Cut="6.0000000000000000e+00" cType="1" res="0.0000000000000000e+00" rms="0.0000000000000000e+00" purity="4.7399184107780457e-01" nType="0">
            <Node pos="l" depth="3" NCoef="0" IVar="-1" Cut="0.0000000000000000e+00" cType="1" res="-1.4601619914174080e-02" rms="4.7669130563735962e-01" purity="4.5605111122131348e-01" nType="-99"/>
            <Node pos="r" depth="3" NCoef="0" IVar="-1" Cut="0.0000000000000000e+00" cType="1" res="2.0111378282308578e-02" rms="4.8054638504981995e-01" purity="5.4804760217666626e-01" nType="-99"/>
          </Node>
          <Node pos="r" depth="2" NCoef="0" IVar="4" Cut="2.8454823493957520e+00" cType="1" res="1.1580385267734528e-02" rms="4.4760575890541077e-01" purity="5.7179415225982666e-01" nType="0">
            <Node pos="l" depth="3" NCoef="0" IVar="-1" Cut="0.0000000000000000e+00" cType="1" res="4.6729892492294312e-03" rms="4.4774338603019714e-01" purity="5.6305491924285889e-01" nType="-99"/>
            <Node pos="r" depth="3" NCoef="0" IVar="-1" Cut="0.0000000000000000e+00" cType="1" res="6.1871029436588287e-02" rms="4.4486892223358154e-01" purity="6.1588925123214722e-01" nType="-99"/>
          </Node>
        </Node>
        <Node pos="r" depth="1" NCoef="0" IVar="7" Cut="6.0000000000000000e+00" cType="1" res="-1.7684306949377060e-02" rms="4.6568292379379272e-01" purity="4.5792528986930847e-01" nType="0">
          <Node pos="l" depth="2" NCoef="0" IVar="4" Cut="1.1590515375137329e+00" cType="1" res="-5.7049635797739029e-03" rms="4.6916595101356506e-01" purity="4.5585840940475464e-01" nType="0">
            <Node pos="l" depth="3" NCoef="0" IVar="-1" Cut="0.0000000000000000e+00" cType="1" res="-5.4722996428608894e-03" rms="4.4558796286582947e-01" purity="3.8219305872917175e-01" nType="-99"/>
            <Node pos="r" depth="3" NCoef="0" IVar="-1" Cut="0.0000000000000000e+00" cType="1" res="3.4144318196922541e-03" rms="4.7586062550544739e-01" purity="4.7872972488403320e-01" nType="-99"/>
          </Node>
          <Node pos="r" depth="2" NCoef="0" IVar="-1" Cut="0.0000000000000000e+00" cType="1" res="-2.2359075956046581e-03" rms="4.5227870345115662e-01" purity="4.6451848745346069e-01" nType="-99"/>
        </Node>
      </Node>
    </BinaryTree>
    <BinaryTree type="DecisionTree" boostWeight="1.0000000000000000e+00" itree="118">
      <Node pos="s" depth="0" NCoef="0" IVar="7" Cut="6.0000000000000000e+00" cType="1" res="-1.6252405941486359e-02" rms="4.6515586972236633e-01" purity="4.8733425140380859e-01" nType="0">
        <Node pos="l" depth="1" NCoef="0" IVar="5" Cut="-2.2439122200012207e+00" cType="1" res="-4.9228798598051071e-03" rms="4.7017496824264526e-01" purity="4.6695852279663086e-01" nType="0">
          <Node pos="l" depth="2" NCoef="0" IVar="2" Cut="2.8910766601562500e+02" cType="1" res="9.3035884201526642e-03" rms="4.7391274571418762e-01" purity="5.1070022583007812e-01" nType="0">
            <Node pos="l" depth="3" NCoef="0" IVar="-1" Cut="0.0000000000000000e+00" cType="1" res="2.4933198466897011e-02" rms="4.7456622123718262e-01" purity="5.1200187206268311e-01" nType="-99"/>
            <Node pos="r" depth="3" NCoef="0" IVar="-1" Cut="0.0000000000000000e+00" cType="1" res="-2.3654561489820480e-02" rms="4.7092697024345398e-01" purity="5.0754231214523315e-01" nType="-99"/>
          </Node>
          <Node pos="r" depth="2" NCoef="0" IVar="6" Cut="-2.2439601421356201e+00" cType="1" res="-8.8384468108415604e-03" rms="4.6906524896621704e-01" purity="4.5491948723793030e-01" nType="0">
            <Node pos="l" depth="3" NCoef="0" IVar="-1" Cut="0.0000000000000000e+00" cType="1" res="9.7350496798753738e-03" rms="4.7796759009361267e-01" purity="4.5341318845748901e-01" nType="-99"/>
            <Node pos="r" depth="3" NCoef="0" IVar="-1" Cut="0.0000000000000000e+00" cType="1" res="-1.4694524928927422e-02" rms="4.6586459875106812e-01" purity="4.5543038845062256e-01" nType="-99"/>
          </Node>
        </Node>
        <Node pos="r" depth="1" NCoef="0" IVar="6" Cut="2.2420520782470703e+00" cType="1" res="-4.4218678027391434e-02" rms="4.5136284828186035e-01" purity="5.3755575418472290e-01" nType="0">
          <Node pos="l" depth="2" NCoef="0" IVar="7" Cut="7.0000000000000000e+00" cType="1" res="-7.7307755127549171e-03" rms="4.5723989605903625e-01" purity="6.1493813991546631e-01" nType="0">
            <Node pos="l" depth="3" NCoef="0" IVar="-1" Cut="0.0000000000000000e+00" cType="1" res="-1.6729872673749924e-02" rms="4.5895940065383911e-01" purity="5.9439134597778320e-01" nType="-99"/>
            <Node pos="r" depth="3" NCoef="0" IVar="-1" Cut="0.0000000000000000e+00" cType="1" res="3.8110078312456608e-03" rms="4.5459958910942078e-01" purity="6.4542710781097412e-01" nType="-99"/>
          </Node>
          <Node pos="r" depth="2" NCoef="0" IVar="-1" Cut="0.0000000000000000e+00" cType="1" res="-2.0670976955443621e-03" rms="4.1620016098022461e-01" purity="3.1386584043502808e-01" nType="-99"/>
        </Node>
      </Node>
    </BinaryTree>
    <BinaryTree type="DecisionTree" boostWeight="1.0000000000000000e+00" itree="119">
      <Node pos="s" depth="0" NCoef="0" IVar="3" Cut="-4.7924369573593140e-01" cType="1" res="-8.0275116488337517e-03" rms="4.6384030580520630e-01" purity="4.9518156051635742e-01" nType="0">
        <Node pos="l" depth="1" NCoef="0" IVar="-1" Cut="0.0000000000000000e+00" cType="1" res="-6.9859446957707405e-03" rms="4.6945512294769287e-01" purity="3.7000912427902222e-01" nType="-99"/>
        <Node pos="r" depth="1" NCoef="0" IVar="7" Cut="6.0000000000000000e+00" cType="1" res="-3.5111750476062298e-03" rms="4.6301189064979553e-01" purity="5.0843220949172974e-01" nType="0">
          <Node pos="l" depth="2" NCoef="0" IVar="6" Cut="2.2439329624176025e+00" cType="1" res="1.8289330182597041e-03" rms="4.6722912788391113e-01" purity="4.8040267825126648e-01" nType="0">
            <Node pos="l" depth="3" NCoef="0" IVar="-1" Cut="0.0000000000000000e+00" cType="1" res="-2.7978965081274509e-03" rms="4.6281892061233521e-01" purity="4.8025688529014587e-01" nType="-99"/>
            <Node pos="r" depth="3" NCoef="0" IVar="-1" Cut="0.0000000000000000e+00" cType="1" res="1.0962044820189476e-02" rms="4.7741389274597168e-01" purity="4.8075446486473083e-01" nType="-99"/>
          </Node>
          <Node pos="r" depth="2" NCoef="0" IVar="6" Cut="1.9440608024597168e+00" cType="1" res="0.0000000000000000e+00" rms="0.0000000000000000e+00" purity="5.8307141065597534e-01" nType="0">
            <Node pos="l" depth="3" NCoef="0" IVar="-1" Cut="0.0000000000000000e+00" cType="1" res="-7.6268324628472328e-03" rms="4.4977113604545593e-01" purity="6.2568980455398560e-01" nType="-99"/>
            <Node pos="r" depth="3" NCoef="0" IVar="-1" Cut="0.0000000000000000e+00" cType="1" res="-1.4925338327884674e-03" rms="4.5424848794937134e-01" purity="4.5061686635017395e-01" nType="-99"/>
          </Node>
        </Node>
      </Node>
    </BinaryTree>
    <BinaryTree type="DecisionTree" boostWeight="1.0000000000000000e+00" itree="120">
      <Node pos="s" depth="0" NCoef="0" IVar="6" Cut="-4.4879892468452454e-01" cType="1" res="-1.7038079677149653e-03" rms="4.6445342898368835e-01" purity="5.0071984529495239e-01" nType="0">
        <Node pos="l" depth="1" NCoef="0" IVar="5" Cut="4.4874730706214905e-01" cType="1" res="9.8500056192278862e-03" rms="4.6873468160629272e-01" purity="5.0942373275756836e-01" nType="0">
          <Node pos="l" depth="2" NCoef="0" IVar="4" Cut="8.5098391771316528e-01" cType="1" res="5.2220495417714119e-03" rms="4.7409874200820923e-01" purity="4.6933868527412415e-01" nType="0">
            <Node pos="l" depth="3" NCoef="0" IVar="-1" Cut="0.0000000000000000e+00" cType="1" res="5.7342037558555603e-02" rms="4.7147896885871887e-01" purity="4.4316095113754272e-01" nType="-99"/>
            <Node pos="r" depth="3" NCoef="0" IVar="-1" Cut="0.0000000000000000e+00" cType="1" res="-3.9134710095822811e-04" rms="4.7428122162818909e-01" purity="4.7356370091438293e-01" nType="-99"/>
          </Node>
          <Node pos="r" depth="2" NCoef="0" IVar="3" Cut="5.3535027503967285e+00" cType="1" res="2.6542119681835175e-02" rms="4.4845879077911377e-01" purity="6.5400260686874390e-01" nType="0">
            <Node pos="l" depth="3" NCoef="0" IVar="-1" Cut="0.0000000000000000e+00" cType="1" res="1.1924198828637600e-02" rms="4.6023532748222351e-01" purity="6.0888546705245972e-01" nType="-99"/>
            <Node pos="r" depth="3" NCoef="0" IVar="-1" Cut="0.0000000000000000e+00" cType="1" res="5.5977370589971542e-02" rms="4.3069818615913391e-01" purity="7.1690452098846436e-01" nType="-99"/>
          </Node>
        </Node>
        <Node pos="r" depth="1" NCoef="0" IVar="5" Cut="1.9441357851028442e+00" cType="1" res="0.0000000000000000e+00" rms="0.0000000000000000e+00" purity="4.9344080686569214e-01" nType="0">
          <Node pos="l" depth="2" NCoef="0" IVar="5" Cut="1.2173901796340942e+00" cType="1" res="-1.9956814125180244e-02" rms="4.5358568429946899e-01" purity="4.9602657556533813e-01" nType="0">
            <Node pos="l" depth="3" NCoef="0" IVar="-1" Cut="0.0000000000000000e+00" cType="1" res="-6.0958615504205227e-03" rms="4.5436555147171021e-01" purity="5.4506444931030273e-01" nType="-99"/>
            <Node pos="r" depth="3" NCoef="0" IVar="-1" Cut="0.0000000000000000e+00" cType="1" res="-1.8027010373771191e-03" rms="4.5058250427246094e-01" purity="3.7208619713783264e-01" nType="-99"/>
          </Node>
          <Node pos="r" depth="2" NCoef="0" IVar="8" Cut="9.0351156250000000e+04" cType="1" res="0.0000000000000000e+00" rms="0.0000000000000000e+00" purity="4.8954114317893982e-01" nType="0">
            <Node pos="l" depth="3" NCoef="0" IVar="-1" Cut="0.0000000000000000e+00" cType="1" res="8.8835200294852257e-03" rms="4.7105532884597778e-01" purity="4.5836442708969116e-01" nType="-99"/>
            <Node pos="r" depth="3" NCoef="0" IVar="-1" Cut="0.0000000000000000e+00" cType="1" res="-2.8679061681032181e-02" rms="4.6869659423828125e-01" purity="5.9791904687881470e-01" nType="-99"/>
          </Node>
        </Node>
      </Node>
    </BinaryTree>
    <BinaryTree type="DecisionTree" boostWeight="1.0000000000000000e+00" itree="121">
      <Node pos="s" depth="0" NCoef="0" IVar="9" Cut="4.5680769531250000e+04" cType="1" res="6.3797022448852658e-04" rms="4.6657142043113708e-01" purity="5.0596570968627930e-01" nType="0">
        <Node pos="l" depth="1" NCoef="0" IVar="9" Cut="4.2725648437500000e+04" cType="1" res="7.8896069899201393e-03" rms="4.7288638353347778e-01" purity="4.2811077833175659e-01" nType="0">
          <Node pos="l" depth="2" NCoef="0" IVar="8" Cut="6.4845898437500000e+04" cType="1" res="4.8269662074744701e-03" rms="4.7212207317352295e-01" purity="4.1450420022010803e-01" nType="0">
            <Node pos="l" depth="3" NCoef="0" IVar="-1" Cut="0.0000000000000000e+00" cType="1" res="1.0889453813433647e-02" rms="4.6987995505332947e-01" purity="3.9517065882682800e-01" nType="-99"/>
            <Node pos="r" depth="3" NCoef="0" IVar="-1" Cut="0.0000000000000000e+00" cType="1" res="-2.0631523802876472e-02" rms="4.8077487945556641e-01" purity="4.9659159779548645e-01" nType="-99"/>
          </Node>
          <Node pos="r" depth="2" NCoef="0" IVar="-1" Cut="0.0000000000000000e+00" cType="1" res="4.6385053545236588e-02" rms="4.7955599427223206e-01" purity="5.6837779283523560e-01" nType="-99"/>
        </Node>
        <Node pos="r" depth="1" NCoef="0" IVar="6" Cut="-1.9446365833282471e+00" cType="1" res="-9.3769319355487823e-03" rms="4.5751789212226868e-01" purity="6.1348754167556763e-01" nType="0">
          <Node pos="l" depth="2" NCoef="0" IVar="4" Cut="2.2725770473480225e+00" cType="1" res="-3.1513646245002747e-02" rms="4.7926566004753113e-01" purity="5.5619841814041138e-01" nType="0">
            <Node pos="l" depth="3" NCoef="0" IVar="-1" Cut="0.0000000000000000e+00" cType="1" res="-1.5492510981857777e-02" rms="4.8261597752571106e-01" purity="5.6839877367019653e-01" nType="-99"/>
            <Node pos="r" depth="3" NCoef="0" IVar="-1" Cut="0.0000000000000000e+00" cType="1" res="-4.3679859489202499e-02" rms="4.7426107525825500e-01" purity="5.4085743427276611e-01" nType="-99"/>
          </Node>
          <Node pos="r" depth="2" NCoef="0" IVar="8" Cut="8.2663312500000000e+04" cType="1" res="-2.2304567974060774e-03" rms="4.5004034042358398e-01" purity="6.3198244571685791e-01" nType="0">
            <Node pos="l" depth="3" NCoef="0" IVar="-1" Cut="0.0000000000000000e+00" cType="1" res="-1.1756025487557054e-03" rms="4.5882353186607361e-01" purity="5.5585384368896484e-01" nType="-99"/>
            <Node pos="r" depth="3" NCoef="0" IVar="-1" Cut="0.0000000000000000e+00" cType="1" res="1.2578364461660385e-02" rms="4.4198799133300781e-01" purity="6.9677203893661499e-01" nType="-99"/>
          </Node>
        </Node>
      </Node>
    </BinaryTree>
    <BinaryTree type="DecisionTree" boostWeight="1.0000000000000000e+00" itree="122">
      <Node pos="s" depth="0" NCoef="0" IVar="5" Cut="-2.8422691822052002e+00" cType="1" res="-8.6644552648067474e-03" rms="4.6679845452308655e-01" purity="4.9942407011985779e-01" nType="0">
        <Node pos="l" depth="1" NCoef="0" IVar="-1" Cut="0.0000000000000000e+00" cType="1" res="-4.9385516904294491e-03" rms="4.6279263496398926e-01" purity="5.0741744041442871e-01" nType="-99"/>
        <Node pos="r" depth="1" NCoef="0" IVar="5" Cut="2.9188197851181030e-01" cType="1" res="0.0000000000000000e+00" rms="0.0000000000000000e+00" purity="4.9871629476547241e-01" nType="0">
          <Node pos="l" depth="2" NCoef="0" IVar="6" Cut="-1.0470992326736450e+00" cType="1" res="0.0000000000000000e+00" rms="0.0000000000000000e+00" purity="5.0737160444259644e-01" nType="0">
            <Node pos="l" depth="3" NCoef="0" IVar="-1" Cut="0.0000000000000000e+00" cType="1" res="-1.0140483500435948e-03" rms="4.7855919599533081e-01" purity="4.5524632930755615e-01" nType="-99"/>
            <Node pos="r" depth="3" NCoef="0" IVar="-1" Cut="0.0000000000000000e+00" cType="1" res="2.5000320747494698e-02" rms="4.5414036512374878e-01" purity="5.9902393817901611e-01" nType="-99"/>
          </Node>
          <Node pos="r" depth="2" NCoef="0" IVar="2" Cut="2.0100646972656250e+02" cType="1" res="-1.2241429649293423e-02" rms="4.6356844902038574e-01" purity="4.9070796370506287e-01" nType="0">
            <Node pos="l" depth="3" NCoef="0" IVar="-1" Cut="0.0000000000000000e+00" cType="1" res="2.8793043456971645e-03" rms="4.6525108814239502e-01" purity="5.2278882265090942e-01" nType="-99"/>
            <Node pos="r" depth="3" NCoef="0" IVar="-1" Cut="0.0000000000000000e+00" cType="1" res="-2.9234006069600582e-03" rms="4.6059250831604004e-01" purity="4.4849646091461182e-01" nType="-99"/>
          </Node>
        </Node>
      </Node>
    </BinaryTree>
    <BinaryTree type="DecisionTree" boostWeight="1.0000000000000000e+00" itree="123">
      <Node pos="s" depth="0" NCoef="0" IVar="2" Cut="2.1066612243652344e+02" cType="1" res="-4.3197888880968094e-03" rms="4.6650779247283936e-01" purity="5.0596040487289429e-01" nType="0">
        <Node pos="l" depth="1" NCoef="0" IVar="5" Cut="-1.4960637688636780e-01" cType="1" res="-1.0567332617938519e-02" rms="4.6381789445877075e-01" purity="5.1349753141403198e-01" nType="0">
          <Node pos="l" depth="2" NCoef="0" IVar="9" Cut="4.9730097656250000e+04" cType="1" res="-2.2266207262873650e-02" rms="4.6042877435684204e-01" purity="5.0768470764160156e-01" nType="0">
            <Node pos="l" depth="3" NCoef="0" IVar="-1" Cut="0.0000000000000000e+00" cType="1" res="-1.7724420875310898e-02" rms="4.6889820694923401e-01" purity="4.1952490806579590e-01" nType="-99"/>
            <Node pos="r" depth="3" NCoef="0" IVar="-1" Cut="0.0000000000000000e+00" cType="1" res="-5.7896482758224010e-04" rms="4.4273746013641357e-01" purity="6.7861384153366089e-01" nType="-99"/>
          </Node>
          <Node pos="r" depth="2" NCoef="0" IVar="3" Cut="5.4627218246459961e+00" cType="1" res="3.8323775515891612e-04" rms="4.6670231223106384e-01" purity="5.1893848180770874e-01" nType="0">
            <Node pos="l" depth="3" NCoef="0" IVar="-1" Cut="0.0000000000000000e+00" cType="1" res="1.1960574425756931e-02" rms="4.7561544179916382e-01" purity="5.2241301536560059e-01" nType="-99"/>
            <Node pos="r" depth="3" NCoef="0" IVar="-1" Cut="0.0000000000000000e+00" cType="1" res="-1.7260493710637093e-02" rms="4.5172345638275146e-01" purity="5.1349985599517822e-01" nType="-99"/>
          </Node>
        </Node>
        <Node pos="r" depth="1" NCoef="0" IVar="6" Cut="-1.4961549639701843e-01" cType="1" res="5.9563298709690571e-03" rms="4.7071841359138489e-01" purity="4.9356323480606079e-01" nType="0">
          <Node pos="l" depth="2" NCoef="0" IVar="3" Cut="3.6714377403259277e+00" cType="1" res="1.6853239387273788e-02" rms="4.7048163414001465e-01" purity="4.9550396203994751e-01" nType="0">
            <Node pos="l" depth="3" NCoef="0" IVar="-1" Cut="0.0000000000000000e+00" cType="1" res="-5.6561115197837353e-03" rms="4.7300922870635986e-01" purity="4.2725676298141479e-01" nType="-99"/>
            <Node pos="r" depth="3" NCoef="0" IVar="-1" Cut="0.0000000000000000e+00" cType="1" res="3.7851303815841675e-02" rms="4.6842554211616516e-01" purity="5.3642618656158447e-01" nType="-99"/>
          </Node>
          <Node pos="r" depth="2" NCoef="0" IVar="2" Cut="3.5737756347656250e+02" cType="1" res="-4.7725215554237366e-03" rms="4.7070506215095520e-01" purity="4.9165242910385132e-01" nType="0">
            <Node pos="l" depth="3" NCoef="0" IVar="-1" Cut="0.0000000000000000e+00" cType="1" res="8.5158776491880417e-03" rms="4.6931725740432739e-01" purity="4.7767218947410583e-01" nType="-99"/>
            <Node pos="r" depth="3" NCoef="0" IVar="-1" Cut="0.0000000000000000e+00" cType="1" res="-3.6169808357954025e-02" rms="4.7256600856781006e-01" purity="5.2174299955368042e-01" nType="-99"/>
          </Node>
        </Node>
      </Node>
    </BinaryTree>
    <BinaryTree type="DecisionTree" boostWeight="1.0000000000000000e+00" itree="124">
      <Node pos="s" depth="0" NCoef="0" IVar="5" Cut="1.6456493139266968e+00" cType="1" res="-6.8844147026538849e-03" rms="4.6501863002777100e-01" purity="5.0085037946701050e-01" nType="0">
        <Node pos="l" depth="1" NCoef="0" IVar="5" Cut="1.1892951726913452e+00" cType="1" res="-1.1232741177082062e-02" rms="4.6474415063858032e-01" purity="4.8687237501144409e-01" nType="0">
          <Node pos="l" depth="2" NCoef="0" IVar="5" Cut="-4.6042495965957642e-01" cType="1" res="-6.1220889911055565e-03" rms="4.6690851449966431e-01" purity="4.9765262007713318e-01" nType="0">
            <Node pos="l" depth="3" NCoef="0" IVar="-1" Cut="0.0000000000000000e+00" cType="1" res="-9.8743382841348648e-03" rms="4.6518522500991821e-01" purity="5.0573104619979858e-01" nType="-99"/>
            <Node pos="r" depth="3" NCoef="0" IVar="-1" Cut="0.0000000000000000e+00" cType="1" res="9.0525122359395027e-03" rms="4.7164869308471680e-01" purity="4.7396716475486755e-01" nType="-99"/>
          </Node>
          <Node pos="r" depth="2" NCoef="0" IVar="-1" Cut="0.0000000000000000e+00" cType="1" res="-1.7961747944355011e-03" rms="4.4212099909782410e-01" purity="3.8977468013763428e-01" nType="-99"/>
        </Node>
        <Node pos="r" depth="1" NCoef="0" IVar="6" Cut="1.0469430685043335e+00" cType="1" res="0.0000000000000000e+00" rms="0.0000000000000000e+00" purity="5.2956348657608032e-01" nType="0">
          <Node pos="l" depth="2" NCoef="0" IVar="5" Cut="2.5004761219024658e+00" cType="1" res="-1.8258254975080490e-02" rms="4.5029109716415405e-01" purity="5.8758783340454102e-01" nType="0">
            <Node pos="l" depth="3" NCoef="0" IVar="-1" Cut="0.0000000000000000e+00" cType="1" res="-2.9799395706504583e-03" rms="4.4023296236991882e-01" purity="6.5341138839721680e-01" nType="-99"/>
            <Node pos="r" depth="3" NCoef="0" IVar="-1" Cut="0.0000000000000000e+00" cType="1" res="-3.4164149314165115e-02" rms="4.5659103989601135e-01" purity="5.4357790946960449e-01" nType="-99"/>
          </Node>
          <Node pos="r" depth="2" NCoef="0" IVar="5" Cut="2.3576433658599854e+00" cType="1" res="0.0000000000000000e+00" rms="0.0000000000000000e+00" purity="4.9464347958564758e-01" nType="0">
            <Node pos="l" depth="3" NCoef="0" IVar="-1" Cut="0.0000000000000000e+00" cType="1" res="2.1575357764959335e-02" rms="4.7701817750930786e-01" purity="4.7440654039382935e-01" nType="-99"/>
            <Node pos="r" depth="3" NCoef="0" IVar="-1" Cut="0.0000000000000000e+00" cType="1" res="4.2971442453563213e-03" rms="4.7080200910568237e-01" purity="5.1366281509399414e-01" nType="-99"/>
          </Node>
        </Node>
      </Node>
    </BinaryTree>
    <BinaryTree type="DecisionTree" boostWeight="1.0000000000000000e+00" itree="125">
      <Node pos="s" depth="0" NCoef="0" IVar="5" Cut="-2.8422904014587402e+00" cType="1" res="-5.0004292279481888e-03" rms="4.6669352054595947e-01" purity="5.0306892395019531e-01" nType="0">
        <Node pos="l" depth="1" NCoef="0" IVar="-1" Cut="0.0000000000000000e+00" cType="1" res="-4.7998987138271332e-03" rms="4.6163892745971680e-01" purity="5.3381842374801636e-01" nType="-99"/>
        <Node pos="r" depth="1" NCoef="0" IVar="2" Cut="3.1831362915039062e+02" cType="1" res="0.0000000000000000e+00" rms="0.0000000000000000e+00" purity="5.0053715705871582e-01" nType="0">
          <Node pos="l" depth="2" NCoef="0" IVar="4" Cut="2.9881145954132080e+00" cType="1" res="-4.0799961425364017e-03" rms="4.6668419241905212e-01" purity="4.9519687891006470e-01" nType="0">
            <Node pos="l" depth="3" NCoef="0" IVar="-1" Cut="0.0000000000000000e+00" cType="1" res="-5.7716988958418369e-03" rms="4.6615585684776306e-01" purity="4.9591624736785889e-01" nType="-99"/>
            <Node pos="r" depth="3" NCoef="0" IVar="-1" Cut="0.0000000000000000e+00" cType="1" res="1.0796426795423031e-02" rms="4.6952515840530396e-01" purity="4.9080204963684082e-01" nType="-99"/>
          </Node>
          <Node pos="r" depth="2" NCoef="0" IVar="4" Cut="2.4194324016571045e+00" cType="1" res="0.0000000000000000e+00" rms="0.0000000000000000e+00" purity="5.2803397178649902e-01" nType="0">
            <Node pos="l" depth="3" NCoef="0" IVar="-1" Cut="0.0000000000000000e+00" cType="1" res="-6.6828383132815361e-03" rms="4.6963238716125488e-01" purity="5.0227320194244385e-01" nType="-99"/>
            <Node pos="r" depth="3" NCoef="0" IVar="-1" Cut="0.0000000000000000e+00" cType="1" res="3.1141279265284538e-02" rms="4.6500840783119202e-01" purity="5.7638710737228394e-01" nType="-99"/>
          </Node>
        </Node>
      </Node>
    </BinaryTree>
    <BinaryTree type="DecisionTree" boostWeight="1.0000000000000000e+00" itree="126">
      <Node pos="s" depth="0" NCoef="0" IVar="7" Cut="6.0000000000000000e+00" cType="1" res="0.0000000000000000e+00" rms="0.0000000000000000e+00" purity="4.9516916275024414e-01" nType="0">
        <Node pos="l" depth="1" NCoef="0" IVar="4" Cut="2.7333118915557861e+00" cType="1" res="-3.2887218985706568e-03" rms="4.6804681420326233e-01" purity="4.6634510159492493e-01" nType="0">
          <Node pos="l" depth="2" NCoef="0" IVar="3" Cut="-2.8260320425033569e-01" cType="1" res="0.0000000000000000e+00" rms="0.0000000000000000e+00" purity="4.6417811512947083e-01" nType="0">
            <Node pos="l" depth="3" NCoef="0" IVar="-1" Cut="0.0000000000000000e+00" cType="1" res="2.4839205667376518e-02" rms="4.7791752219200134e-01" purity="4.3078345060348511e-01" nType="-99"/>
            <Node pos="r" depth="3" NCoef="0" IVar="-1" Cut="0.0000000000000000e+00" cType="1" res="-2.1294392645359039e-03" rms="4.6559768915176392e-01" purity="4.6803873777389526e-01" nType="-99"/>
          </Node>
          <Node pos="r" depth="2" NCoef="0" IVar="6" Cut="-2.5430691242218018e+00" cType="1" res="-1.4025107957422733e-02" rms="4.7151249647140503e-01" purity="4.7367820143699646e-01" nType="0">
            <Node pos="l" depth="3" NCoef="0" IVar="-1" Cut="0.0000000000000000e+00" cType="1" res="1.8974246457219124e-02" rms="4.7781893610954285e-01" purity="4.9102240800857544e-01" nType="-99"/>
            <Node pos="r" depth="3" NCoef="0" IVar="-1" Cut="0.0000000000000000e+00" cType="1" res="-2.3292064666748047e-02" rms="4.6888634562492371e-01" purity="4.6790403127670288e-01" nType="-99"/>
          </Node>
        </Node>
        <Node pos="r" depth="1" NCoef="0" IVar="9" Cut="4.3150035156250000e+04" cType="1" res="-2.6845095679163933e-02" rms="4.5994648337364197e-01" purity="5.7434016466140747e-01" nType="0">
          <Node pos="l" depth="2" NCoef="0" IVar="-1" Cut="0.0000000000000000e+00" cType="1" res="-5.4158405400812626e-03" rms="4.7312906384468079e-01" purity="3.9580839872360229e-01" nType="-99"/>
          <Node pos="r" depth="2" NCoef="0" IVar="3" Cut="5.9016408920288086e+00" cType="1" res="-1.4638222754001617e-02" rms="4.5506024360656738e-01" purity="6.3015234470367432e-01" nType="0">
            <Node pos="l" depth="3" NCoef="0" IVar="-1" Cut="0.0000000000000000e+00" cType="1" res="-2.4035494774580002e-02" rms="4.6555197238922119e-01" purity="5.9904229640960693e-01" nType="-99"/>
            <Node pos="r" depth="3" NCoef="0" IVar="-1" Cut="0.0000000000000000e+00" cType="1" res="2.8452174738049507e-03" rms="4.3541371822357178e-01" purity="6.8491607904434204e-01" nType="-99"/>
          </Node>
        </Node>
      </Node>
    </BinaryTree>
    <BinaryTree type="DecisionTree" boostWeight="1.0000000000000000e+00" itree="127">
      <Node pos="s" depth="0" NCoef="0" IVar="6" Cut="2.5431952476501465e+00" cType="1" res="-1.2641311623156071e-02" rms="4.6403303742408752e-01" purity="4.9134045839309692e-01" nType="0">
        <Node pos="l" depth="1" NCoef="0" IVar="9" Cut="4.6279792968750000e+04" cType="1" res="-4.3693827465176582e-03" rms="4.6134716272354126e-01" purity="5.0623810291290283e-01" nType="0">
          <Node pos="l" depth="2" NCoef="0" IVar="6" Cut="-9.7595965862274170e-01" cType="1" res="-1.4049806632101536e-02" rms="4.6605566143989563e-01" purity="4.0577441453933716e-01" nType="0">
            <Node pos="l" depth="3" NCoef="0" IVar="-1" Cut="0.0000000000000000e+00" cType="1" res="-2.5861013680696487e-02" rms="4.7043627500534058e-01" purity="3.9881142973899841e-01" nType="-99"/>
            <Node pos="r" depth="3" NCoef="0" IVar="-1" Cut="0.0000000000000000e+00" cType="1" res="4.8359468928538263e-04" rms="4.6032145619392395e-01" purity="4.1404291987419128e-01" nType="-99"/>
          </Node>
          <Node pos="r" depth="2" NCoef="0" IVar="5" Cut="-1.6455464363098145e+00" cType="1" res="8.7350914254784584e-03" rms="4.5456728339195251e-01" purity="6.4223676919937134e-01" nType="0">
            <Node pos="l" depth="3" NCoef="0" IVar="-1" Cut="0.0000000000000000e+00" cType="1" res="-8.2321604713797569e-03" rms="4.5535260438919067e-01" purity="6.3320720195770264e-01" nType="-99"/>
            <Node pos="r" depth="3" NCoef="0" IVar="-1" Cut="0.0000000000000000e+00" cType="1" res="1.9992075860500336e-02" rms="4.5377957820892334e-01" purity="6.4795559644699097e-01" nType="-99"/>
          </Node>
        </Node>
        <Node pos="r" depth="1" NCoef="0" IVar="9" Cut="4.0036726562500000e+04" cType="1" res="-4.6203210949897766e-02" rms="4.7329375147819519e-01" purity="4.3089574575424194e-01" nType="0">
          <Node pos="l" depth="2" NCoef="0" IVar="4" Cut="1.7746632099151611e+00" cType="1" res="-9.4739207997918129e-03" rms="4.7323846817016602e-01" purity="3.9687392115592957e-01" nType="0">
            <Node pos="l" depth="3" NCoef="0" IVar="-1" Cut="0.0000000000000000e+00" cType="1" res="-3.4246303141117096e-02" rms="4.5731183886528015e-01" purity="3.3054962754249573e-01" nType="-99"/>
            <Node pos="r" depth="3" NCoef="0" IVar="-1" Cut="0.0000000000000000e+00" cType="1" res="5.0135287456214428e-03" rms="4.8287627100944519e-01" purity="4.4086620211601257e-01" nType="-99"/>
          </Node>
          <Node pos="r" depth="2" NCoef="0" IVar="4" Cut="2.1070265769958496e+00" cType="1" res="-9.0180344879627228e-02" rms="4.6959596872329712e-01" purity="4.7163116931915283e-01" nType="0">
            <Node pos="l" depth="3" NCoef="0" IVar="-1" Cut="0.0000000000000000e+00" cType="1" res="-1.3866460882127285e-02" rms="4.7385737299919128e-01" purity="5.3963309526443481e-01" nType="-99"/>
            <Node pos="r" depth="3" NCoef="0" IVar="-1" Cut="0.0000000000000000e+00" cType="1" res="-5.3698313422501087e-03" rms="4.5980733633041382e-01" purity="4.1701018810272217e-01" nType="-99"/>
          </Node>
        </Node>
      </Node>
    </BinaryTree>
    <BinaryTree type="DecisionTree" boostWeight="1.0000000000000000e+00" itree="128">
      <Node pos="s" depth="0" NCoef="0" IVar="6" Cut="2.2439978122711182e+00" cType="1" res="0.0000000000000000e+00" rms="0.0000000000000000e+00" purity="4.9703174829483032e-01" nType="0">
        <Node pos="l" depth="1" NCoef="0" IVar="9" Cut="4.6280371093750000e+04" cType="1" res="9.0133666526526213e-04" rms="4.6191775798797607e-01" purity="5.1443022489547729e-01" nType="0">
          <Node pos="l" depth="2" NCoef="0" IVar="0" Cut="2.1133765625000000e+05" cType="1" res="7.3068034835159779e-03" rms="4.6817907691001892e-01" purity="4.2479714751243591e-01" nType="0">
            <Node pos="l" depth="3" NCoef="0" IVar="-1" Cut="0.0000000000000000e+00" cType="1" res="6.8472819402813911e-03" rms="4.6997857093811035e-01" purity="4.2035821080207825e-01" nType="-99"/>
            <Node pos="r" depth="3" NCoef="0" IVar="-1" Cut="0.0000000000000000e+00" cType="1" res="-3.2441060990095139e-02" rms="4.5155280828475952e-01" purity="4.6300923824310303e-01" nType="-99"/>
          </Node>
          <Node pos="r" depth="2" NCoef="0" IVar="4" Cut="8.8182860612869263e-01" cType="1" res="-7.6254745945334435e-03" rms="4.5330831408500671e-01" purity="6.3374763727188110e-01" nType="0">
            <Node pos="l" depth="3" NCoef="0" IVar="-1" Cut="0.0000000000000000e+00" cType="1" res="-3.5921134054660797e-02" rms="4.6785959601402283e-01" purity="5.7883423566818237e-01" nType="-99"/>
            <Node pos="r" depth="3" NCoef="0" IVar="-1" Cut="0.0000000000000000e+00" cType="1" res="-3.0291746370494366e-03" rms="4.4983655214309692e-01" purity="6.4611613750457764e-01" nType="-99"/>
          </Node>
        </Node>
        <Node pos="r" depth="1" NCoef="0" IVar="6" Cut="2.5432021617889404e+00" cType="1" res="-2.0287252962589264e-02" rms="4.6800693869590759e-01" purity="4.4713109731674194e-01" nType="0">
          <Node pos="l" depth="2" NCoef="0" IVar="-1" Cut="0.0000000000000000e+00" cType="1" res="-1.9697730895131826e-03" rms="4.4583606719970703e-01" purity="3.8690882921218872e-01" nType="-99"/>
          <Node pos="r" depth="2" NCoef="0" IVar="7" Cut="5.0000000000000000e+00" cType="1" res="0.0000000000000000e+00" rms="0.0000000000000000e+00" purity="4.7060272097587585e-01" nType="0">
            <Node pos="l" depth="3" NCoef="0" IVar="-1" Cut="0.0000000000000000e+00" cType="1" res="-1.2377885170280933e-02" rms="4.7189536690711975e-01" purity="4.3207761645317078e-01" nType="-99"/>
            <Node pos="r" depth="3" NCoef="0" IVar="-1" Cut="0.0000000000000000e+00" cType="1" res="1.7947591841220856e-02" rms="4.7987371683120728e-01" purity="5.2461218833923340e-01" nType="-99"/>
          </Node>
        </Node>
      </Node>
    </BinaryTree>
    <BinaryTree type="DecisionTree" boostWeight="1.0000000000000000e+00" itree="129">
      <Node pos="s" depth="0" NCoef="0" IVar="4" Cut="1.6792461872100830e+00" cType="1" res="-2.5752193760126829e-03" rms="4.6663302183151245e-01" purity="4.9753674864768982e-01" nType="0">
        <Node pos="l" depth="1" NCoef="0" IVar="2" Cut="3.2519851684570312e+02" cType="1" res="8.9176315814256668e-03" rms="4.6505948901176453e-01" purity="4.7728854417800903e-01" nType="0">
          <Node pos="l" depth="2" NCoef="0" IVar="7" Cut="5.0000000000000000e+00" cType="1" res="4.3793939985334873e-03" rms="4.6463468670845032e-01" purity="4.6924695372581482e-01" nType="0">
            <Node pos="l" depth="3" NCoef="0" IVar="-1" Cut="0.0000000000000000e+00" cType="1" res="1.4550650492310524e-02" rms="4.6444886922836304e-01" purity="3.7522330880165100e-01" nType="-99"/>
            <Node pos="r" depth="3" NCoef="0" IVar="-1" Cut="0.0000000000000000e+00" cType="1" res="-3.5892613232135773e-03" rms="4.6464940905570984e-01" purity="5.3659349679946899e-01" nType="-99"/>
          </Node>
          <Node pos="r" depth="2" NCoef="0" IVar="-1" Cut="0.0000000000000000e+00" cType="1" res="3.5312145948410034e-02" rms="4.6652331948280334e-01" purity="5.2227389812469482e-01" nType="-99"/>
        </Node>
        <Node pos="r" depth="1" NCoef="0" IVar="5" Cut="-2.8419759273529053e+00" cType="1" res="-1.1342043988406658e-02" rms="4.6763992309570312e-01" purity="5.1298230886459351e-01" nType="0">
          <Node pos="l" depth="2" NCoef="0" IVar="-1" Cut="0.0000000000000000e+00" cType="1" res="3.9787255227565765e-02" rms="4.6128913760185242e-01" purity="6.1706209182739258e-01" nType="-99"/>
          <Node pos="r" depth="2" NCoef="0" IVar="7" Cut="6.0000000000000000e+00" cType="1" res="-1.5266627073287964e-02" rms="4.6794441342353821e-01" purity="5.0438183546066284e-01" nType="0">
            <Node pos="l" depth="3" NCoef="0" IVar="-1" Cut="0.0000000000000000e+00" cType="1" res="-8.3502596244215965e-03" rms="4.7192573547363281e-01" purity="4.8013448715209961e-01" nType="-99"/>
            <Node pos="r" depth="3" NCoef="0" IVar="-1" Cut="0.0000000000000000e+00" cType="1" res="-1.5548111870884895e-02" rms="4.5676058530807495e-01" purity="5.6923335790634155e-01" nType="-99"/>
          </Node>
        </Node>
      </Node>
    </BinaryTree>
    <BinaryTree type="DecisionTree" boostWeight="1.0000000000000000e+00" itree="130">
      <Node pos="s" depth="0" NCoef="0" IVar="4" Cut="8.5848534107208252e-01" cType="1" res="3.8339935708791018e-03" rms="4.6669220924377441e-01" purity="5.0512188673019409e-01" nType="0">
        <Node pos="l" depth="1" NCoef="0" IVar="3" Cut="5.4217152595520020e+00" cType="1" res="1.6976898536086082e-02" rms="4.6523672342300415e-01" purity="4.8016330599784851e-01" nType="0">
          <Node pos="l" depth="2" NCoef="0" IVar="-1" Cut="0.0000000000000000e+00" cType="1" res="3.4506727010011673e-02" rms="4.7332710027694702e-01" purity="5.0561314821243286e-01" nType="-99"/>
          <Node pos="r" depth="2" NCoef="0" IVar="-1" Cut="0.0000000000000000e+00" cType="1" res="-5.6663592113181949e-04" rms="4.5486545562744141e-01" purity="4.5004901289939880e-01" nType="-99"/>
        </Node>
        <Node pos="r" depth="1" NCoef="0" IVar="4" Cut="3.2987015247344971e+00" cType="1" res="0.0000000000000000e+00" rms="0.0000000000000000e+00" purity="5.0953882932662964e-01" nType="0">
          <Node pos="l" depth="2" NCoef="0" IVar="4" Cut="3.0658600330352783e+00" cType="1" res="0.0000000000000000e+00" rms="0.0000000000000000e+00" purity="5.1917308568954468e-01" nType="0">
            <Node pos="l" depth="3" NCoef="0" IVar="-1" Cut="0.0000000000000000e+00" cType="1" res="1.1912391055375338e-03" rms="4.6761393547058105e-01" purity="5.1518321037292480e-01" nType="-99"/>
            <Node pos="r" depth="3" NCoef="0" IVar="-1" Cut="0.0000000000000000e+00" cType="1" res="3.1675718724727631e-02" rms="4.7045603394508362e-01" purity="5.6674689054489136e-01" nType="-99"/>
          </Node>
          <Node pos="r" depth="2" NCoef="0" IVar="-1" Cut="0.0000000000000000e+00" cType="1" res="-8.3540864288806915e-03" rms="4.5085412263870239e-01" purity="3.6417329311370850e-01" nType="-99"/>
        </Node>
      </Node>
    </BinaryTree>
    <BinaryTree type="DecisionTree" boostWeight="1.0000000000000000e+00" itree="131">
      <Node pos="s" depth="0" NCoef="0" IVar="4" Cut="2.9919884204864502e+00" cType="1" res="4.1675247484818101e-04" rms="4.6730002760887146e-01" purity="5.0546079874038696e-01" nType="0">
        <Node pos="l" depth="1" NCoef="0" IVar="6" Cut="-1.0471708774566650e+00" cType="1" res="3.8379635661840439e-03" rms="4.6703049540519714e-01" purity="5.1151829957962036e-01" nType="0">
          <Node pos="l" depth="2" NCoef="0" IVar="7" Cut="5.0000000000000000e+00" cType="1" res="1.3303820043802261e-02" rms="4.7281381487846375e-01" purity="5.0051832199096680e-01" nType="0">
            <Node pos="l" depth="3" NCoef="0" IVar="-1" Cut="0.0000000000000000e+00" cType="1" res="-6.8968506529927254e-03" rms="4.7343808412551880e-01" purity="4.2714089155197144e-01" nType="-99"/>
            <Node pos="r" depth="3" NCoef="0" IVar="-1" Cut="0.0000000000000000e+00" cType="1" res="3.6026071757078171e-02" rms="4.7153109312057495e-01" purity="5.7022821903228760e-01" nType="-99"/>
          </Node>
          <Node pos="r" depth="2" NCoef="0" IVar="4" Cut="2.1639859676361084e+00" cType="1" res="-2.5577326305210590e-03" rms="4.6297225356101990e-01" purity="5.1893335580825806e-01" nType="0">
            <Node pos="l" depth="3" NCoef="0" IVar="-1" Cut="0.0000000000000000e+00" cType="1" res="-9.2922495678067207e-03" rms="4.6266150474548340e-01" purity="4.9074843525886536e-01" nType="-99"/>
            <Node pos="r" depth="3" NCoef="0" IVar="-1" Cut="0.0000000000000000e+00" cType="1" res="1.1738493107259274e-02" rms="4.6331954002380371e-01" purity="5.7965940237045288e-01" nType="-99"/>
          </Node>
        </Node>
        <Node pos="r" depth="1" NCoef="0" IVar="6" Cut="1.9447573423385620e+00" cType="1" res="0.0000000000000000e+00" rms="0.0000000000000000e+00" purity="4.6823146939277649e-01" nType="0">
          <Node pos="l" depth="2" NCoef="0" IVar="5" Cut="-1.6459388732910156e+00" cType="1" res="-3.6270988639444113e-03" rms="4.6850734949111938e-01" purity="4.9332082271575928e-01" nType="0">
            <Node pos="l" depth="3" NCoef="0" IVar="-1" Cut="0.0000000000000000e+00" cType="1" res="1.8015712499618530e-02" rms="4.7023320198059082e-01" purity="5.1184833049774170e-01" nType="-99"/>
            <Node pos="r" depth="3" NCoef="0" IVar="-1" Cut="0.0000000000000000e+00" cType="1" res="-1.7225980758666992e-02" rms="4.6603590250015259e-01" purity="4.7780716419219971e-01" nType="-99"/>
          </Node>
          <Node pos="r" depth="2" NCoef="0" IVar="-1" Cut="0.0000000000000000e+00" cType="1" res="-3.9140179753303528e-02" rms="4.6622797846794128e-01" purity="4.1625615954399109e-01" nType="-99"/>
        </Node>
      </Node>
    </BinaryTree>
    <BinaryTree type="DecisionTree" boostWeight="1.0000000000000000e+00" itree="132">
      <Node pos="s" depth="0" NCoef="0" IVar="5" Cut="-2.8422944545745850e+00" cType="1" res="-1.2812761124223471e-03" rms="4.6616372466087341e-01" purity="5.0323975086212158e-01" nType="0">
        <Node pos="l" depth="1" NCoef="0" IVar="-1" Cut="0.0000000000000000e+00" cType="1" res="-2.3862697184085846e-02" rms="4.5390379428863525e-01" purity="5.6096655130386353e-01" nType="-99"/>
        <Node pos="r" depth="1" NCoef="0" IVar="4" Cut="8.6521548032760620e-01" cType="1" res="1.2192489521112293e-04" rms="4.6703210473060608e-01" purity="4.9894702434539795e-01" nType="0">
          <Node pos="l" depth="2" NCoef="0" IVar="8" Cut="8.3843835937500000e+04" cType="1" res="-1.2998578138649464e-02" rms="4.5788446068763733e-01" purity="4.4102299213409424e-01" nType="0">
            <Node pos="l" depth="3" NCoef="0" IVar="-1" Cut="0.0000000000000000e+00" cType="1" res="-7.4461558833718300e-03" rms="4.5406943559646606e-01" purity="3.4686094522476196e-01" nType="-99"/>
            <Node pos="r" depth="3" NCoef="0" IVar="-1" Cut="0.0000000000000000e+00" cType="1" res="1.4687620103359222e-02" rms="4.6380642056465149e-01" purity="6.1314469575881958e-01" nType="-99"/>
          </Node>
          <Node pos="r" depth="2" NCoef="0" IVar="8" Cut="1.0472943750000000e+05" cType="1" res="2.3655942641198635e-03" rms="4.6854174137115479e-01" purity="5.0885230302810669e-01" nType="0">
            <Node pos="l" depth="3" NCoef="0" IVar="-1" Cut="0.0000000000000000e+00" cType="1" res="5.3208377212285995e-03" rms="4.7140491008758545e-01" purity="4.8604005575180054e-01" nType="-99"/>
            <Node pos="r" depth="3" NCoef="0" IVar="-1" Cut="0.0000000000000000e+00" cType="1" res="-1.7819393426179886e-02" rms="4.4879502058029175e-01" purity="6.5866672992706299e-01" nType="-99"/>
          </Node>
        </Node>
      </Node>
    </BinaryTree>
    <BinaryTree type="DecisionTree" boostWeight="1.0000000000000000e+00" itree="133">
      <Node pos="s" depth="0" NCoef="0" IVar="5" Cut="-2.8423001766204834e+00" cType="1" res="-1.2753088958561420e-02" rms="4.6313297748565674e-01" purity="4.9068659543991089e-01" nType="0">
        <Node pos="l" depth="1" NCoef="0" IVar="-1" Cut="0.0000000000000000e+00" cType="1" res="-3.6096856929361820e-03" rms="4.5946916937828064e-01" purity="5.2112513780593872e-01" nType="-99"/>
        <Node pos="r" depth="1" NCoef="0" IVar="5" Cut="-1.9874109029769897e+00" cType="1" res="-9.2628858983516693e-03" rms="4.6327760815620422e-01" purity="4.8808625340461731e-01" nType="0">
          <Node pos="l" depth="2" NCoef="0" IVar="4" Cut="2.6074748039245605e+00" cType="1" res="7.4960286729037762e-03" rms="4.6644783020019531e-01" purity="5.3003752231597900e-01" nType="0">
            <Node pos="l" depth="3" NCoef="0" IVar="-1" Cut="0.0000000000000000e+00" cType="1" res="1.5331684611737728e-02" rms="4.6406143903732300e-01" purity="5.3690475225448608e-01" nType="-99"/>
            <Node pos="r" depth="3" NCoef="0" IVar="-1" Cut="0.0000000000000000e+00" cType="1" res="-1.9404651597142220e-02" rms="4.7167623043060303e-01" purity="5.1215249300003052e-01" nType="-99"/>
          </Node>
          <Node pos="r" depth="2" NCoef="0" IVar="2" Cut="2.2296136474609375e+02" cType="1" res="-1.3695712201297283e-02" rms="4.6233385801315308e-01" purity="4.7698986530303955e-01" nType="0">
            <Node pos="l" depth="3" NCoef="0" IVar="-1" Cut="0.0000000000000000e+00" cType="1" res="-3.4261124674230814e-03" rms="4.6394816040992737e-01" purity="4.9046793580055237e-01" nType="-99"/>
            <Node pos="r" depth="3" NCoef="0" IVar="-1" Cut="0.0000000000000000e+00" cType="1" res="-2.8753809165209532e-03" rms="4.5849391818046570e-01" purity="4.4802257418632507e-01" nType="-99"/>
          </Node>
        </Node>
      </Node>
    </BinaryTree>
    <BinaryTree type="DecisionTree" boostWeight="1.0000000000000000e+00" itree="134">
      <Node pos="s" depth="0" NCoef="0" IVar="5" Cut="-1.0469096899032593e+00" cType="1" res="-4.7034216113388538e-03" rms="4.6483156085014343e-01" purity="5.0009673833847046e-01" nType="0">
        <Node pos="l" depth="1" NCoef="0" IVar="3" Cut="5.6175179481506348e+00" cType="1" res="-1.5496415086090565e-02" rms="4.6253061294555664e-01" purity="5.0608611106872559e-01" nType="0">
          <Node pos="l" depth="2" NCoef="0" IVar="4" Cut="1.8560669422149658e+00" cType="1" res="-2.5005133822560310e-02" rms="4.6842643618583679e-01" purity="4.8489493131637573e-01" nType="0">
            <Node pos="l" depth="3" NCoef="0" IVar="-1" Cut="0.0000000000000000e+00" cType="1" res="-3.4732124768197536e-03" rms="4.6914711594581604e-01" purity="5.0263434648513794e-01" nType="-99"/>
            <Node pos="r" depth="3" NCoef="0" IVar="-1" Cut="0.0000000000000000e+00" cType="1" res="-7.7108899131417274e-03" rms="4.6706998348236084e-01" purity="4.7044011950492859e-01" nType="-99"/>
          </Node>
          <Node pos="r" depth="2" NCoef="0" IVar="4" Cut="1.4047535657882690e+00" cType="1" res="0.0000000000000000e+00" rms="0.0000000000000000e+00" purity="5.4446840286254883e-01" nType="0">
            <Node pos="l" depth="3" NCoef="0" IVar="-1" Cut="0.0000000000000000e+00" cType="1" res="-2.0845204591751099e-02" rms="4.4243362545967102e-01" purity="4.6271419525146484e-01" nType="-99"/>
            <Node pos="r" depth="3" NCoef="0" IVar="-1" Cut="0.0000000000000000e+00" cType="1" res="2.0789492875337601e-02" rms="4.5620375871658325e-01" purity="5.9757274389266968e-01" nType="-99"/>
          </Node>
        </Node>
        <Node pos="r" depth="1" NCoef="0" IVar="9" Cut="6.3571253906250000e+04" cType="1" res="2.6446855627000332e-03" rms="4.6624866127967834e-01" purity="4.9601900577545166e-01" nType="0">
          <Node pos="l" depth="2" NCoef="0" IVar="2" Cut="2.2296136474609375e+02" cType="1" res="-1.7320871120318770e-03" rms="4.7163388133049011e-01" purity="4.4870969653129578e-01" nType="0">
            <Node pos="l" depth="3" NCoef="0" IVar="-1" Cut="0.0000000000000000e+00" cType="1" res="4.4491291046142578e-03" rms="4.7308331727981567e-01" purity="4.6186298131942749e-01" nType="-99"/>
            <Node pos="r" depth="3" NCoef="0" IVar="-1" Cut="0.0000000000000000e+00" cType="1" res="-2.0811330527067184e-02" rms="4.6779489517211914e-01" purity="4.1734686493873596e-01" nType="-99"/>
          </Node>
          <Node pos="r" depth="2" NCoef="0" IVar="6" Cut="-4.4773358106613159e-01" cType="1" res="2.0723899826407433e-02" rms="4.4285300374031067e-01" purity="6.9144052267074585e-01" nType="0">
            <Node pos="l" depth="3" NCoef="0" IVar="-1" Cut="0.0000000000000000e+00" cType="1" res="-2.3585164453834295e-03" rms="4.2462015151977539e-01" purity="7.1149843931198120e-01" nType="-99"/>
            <Node pos="r" depth="3" NCoef="0" IVar="-1" Cut="0.0000000000000000e+00" cType="1" res="3.4701500087976456e-02" rms="4.5305609703063965e-01" purity="6.7922979593276978e-01" nType="-99"/>
          </Node>
        </Node>
      </Node>
    </BinaryTree>
    <BinaryTree type="DecisionTree" boostWeight="1.0000000000000000e+00" itree="135">
      <Node pos="s" depth="0" NCoef="0" IVar="6" Cut="1.4963832497596741e-01" cType="1" res="-2.7197823510505259e-04" rms="4.6468710899353027e-01" purity="5.0403934717178345e-01" nType="0">
        <Node pos="l" depth="1" NCoef="0" IVar="4" Cut="8.2772606611251831e-01" cType="1" res="6.6148512996733189e-03" rms="4.6455997228622437e-01" purity="5.1170718669891357e-01" nType="0">
          <Node pos="l" depth="2" NCoef="0" IVar="-1" Cut="0.0000000000000000e+00" cType="1" res="-9.4009647145867348e-03" rms="4.6745970845222473e-01" purity="4.4933700561523438e-01" nType="-99"/>
          <Node pos="r" depth="2" NCoef="0" IVar="1" Cut="1.9681335937500000e+05" cType="1" res="9.9827609956264496e-03" rms="4.6398928761482239e-01" purity="5.2210474014282227e-01" nType="0">
            <Node pos="l" depth="3" NCoef="0" IVar="-1" Cut="0.0000000000000000e+00" cType="1" res="1.5059231780469418e-02" rms="4.6712589263916016e-01" purity="5.5066776275634766e-01" nType="-99"/>
            <Node pos="r" depth="3" NCoef="0" IVar="-1" Cut="0.0000000000000000e+00" cType="1" res="-2.2419536486268044e-02" rms="4.4920569658279419e-01" purity="3.9659094810485840e-01" nType="-99"/>
          </Node>
        </Node>
        <Node pos="r" depth="1" NCoef="0" IVar="9" Cut="4.0035656250000000e+04" cType="1" res="-7.3816678486764431e-03" rms="4.6471124887466431e-01" purity="4.9612331390380859e-01" nType="0">
          <Node pos="l" depth="2" NCoef="0" IVar="5" Cut="2.2435939311981201e+00" cType="1" res="0.0000000000000000e+00" rms="0.0000000000000000e+00" purity="3.7221470475196838e-01" nType="0">
            <Node pos="l" depth="3" NCoef="0" IVar="-1" Cut="0.0000000000000000e+00" cType="1" res="-9.1175297275185585e-03" rms="4.6243178844451904e-01" purity="3.5969877243041992e-01" nType="-99"/>
            <Node pos="r" depth="3" NCoef="0" IVar="-1" Cut="0.0000000000000000e+00" cType="1" res="8.0985380336642265e-03" rms="4.6799182891845703e-01" purity="4.0092316269874573e-01" nType="-99"/>
          </Node>
          <Node pos="r" depth="2" NCoef="0" IVar="3" Cut="2.7375819683074951e+00" cType="1" res="4.0523335337638855e-03" rms="4.6467354893684387e-01" purity="6.1408734321594238e-01" nType="0">
            <Node pos="l" depth="3" NCoef="0" IVar="-1" Cut="0.0000000000000000e+00" cType="1" res="2.4229031056165695e-02" rms="4.7720056772232056e-01" purity="5.8181703090667725e-01" nType="-99"/>
            <Node pos="r" depth="3" NCoef="0" IVar="-1" Cut="0.0000000000000000e+00" cType="1" res="-6.5060481429100037e-03" rms="4.5877900719642639e-01" purity="6.2817376852035522e-01" nType="-99"/>
          </Node>
        </Node>
      </Node>
    </BinaryTree>
    <BinaryTree type="DecisionTree" boostWeight="1.0000000000000000e+00" itree="136">
      <Node pos="s" depth="0" NCoef="0" IVar="3" Cut="1.3069732189178467e+00" cType="1" res="0.0000000000000000e+00" rms="0.0000000000000000e+00" purity="5.0445598363876343e-01" nType="0">
        <Node pos="l" depth="1" NCoef="0" IVar="1" Cut="1.6915334375000000e+05" cType="1" res="-1.5852514654397964e-02" rms="4.7564762830734253e-01" purity="4.2090559005737305e-01" nType="0">
          <Node pos="l" depth="2" NCoef="0" IVar="1" Cut="1.3171171875000000e+05" cType="1" res="0.0000000000000000e+00" rms="0.0000000000000000e+00" purity="4.1545900702476501e-01" nType="0">
            <Node pos="l" depth="3" NCoef="0" IVar="-1" Cut="0.0000000000000000e+00" cType="1" res="-2.5107190012931824e-02" rms="4.6533954143524170e-01" purity="3.6132782697677612e-01" nType="-99"/>
            <Node pos="r" depth="3" NCoef="0" IVar="-1" Cut="0.0000000000000000e+00" cType="1" res="-1.2215521186590195e-02" rms="4.8552551865577698e-01" purity="4.5603448152542114e-01" nType="-99"/>
          </Node>
          <Node pos="r" depth="2" NCoef="0" IVar="-1" Cut="0.0000000000000000e+00" cType="1" res="4.0901344269514084e-02" rms="4.6674251556396484e-01" purity="4.3820449709892273e-01" nType="-99"/>
        </Node>
        <Node pos="r" depth="1" NCoef="0" IVar="4" Cut="3.1075787544250488e+00" cType="1" res="0.0000000000000000e+00" rms="0.0000000000000000e+00" purity="5.2392566204071045e-01" nType="0">
          <Node pos="l" depth="2" NCoef="0" IVar="4" Cut="2.1058235168457031e+00" cType="1" res="4.0245694108307362e-03" rms="4.6235471963882446e-01" purity="5.2974218130111694e-01" nType="0">
            <Node pos="l" depth="3" NCoef="0" IVar="-1" Cut="0.0000000000000000e+00" cType="1" res="-1.0204579448327422e-03" rms="4.6296337246894836e-01" purity="4.9570074677467346e-01" nType="-99"/>
            <Node pos="r" depth="3" NCoef="0" IVar="-1" Cut="0.0000000000000000e+00" cType="1" res="1.5325576998293400e-02" rms="4.6115782856941223e-01" purity="5.8841484785079956e-01" nType="-99"/>
          </Node>
          <Node pos="r" depth="2" NCoef="0" IVar="-1" Cut="0.0000000000000000e+00" cType="1" res="-9.4771096482872963e-03" rms="4.6409684419631958e-01" purity="4.6610087156295776e-01" nType="-99"/>
        </Node>
      </Node>
    </BinaryTree>
    <BinaryTree type="DecisionTree" boostWeight="1.0000000000000000e+00" itree="137">
      <Node pos="s" depth="0" NCoef="0" IVar="7" Cut="7.0000000000000000e+00" cType="1" res="-5.3186767036095262e-04" rms="4.6446776390075684e-01" purity="5.0501072406768799e-01" nType="0">
        <Node pos="l" depth="1" NCoef="0" IVar="7" Cut="5.0000000000000000e+00" cType="1" res="2.9729977250099182e-03" rms="4.6633958816528320e-01" purity="4.9814563989639282e-01" nType="0">
          <Node pos="l" depth="2" NCoef="0" IVar="4" Cut="1.3842895030975342e+00" cType="1" res="1.0442640632390976e-02" rms="4.7207462787628174e-01" purity="4.3787240982055664e-01" nType="0">
            <Node pos="l" depth="3" NCoef="0" IVar="-1" Cut="0.0000000000000000e+00" cType="1" res="-7.2702951729297638e-03" rms="4.6206036210060120e-01" purity="3.7948247790336609e-01" nType="-99"/>
            <Node pos="r" depth="3" NCoef="0" IVar="-1" Cut="0.0000000000000000e+00" cType="1" res="2.0278077572584152e-02" rms="4.7717499732971191e-01" purity="4.6941724419593811e-01" nType="-99"/>
          </Node>
          <Node pos="r" depth="2" NCoef="0" IVar="5" Cut="2.5431542396545410e+00" cType="1" res="-3.7682731635868549e-03" rms="4.6198496222496033e-01" purity="5.5530005693435669e-01" nType="0">
            <Node pos="l" depth="3" NCoef="0" IVar="-1" Cut="0.0000000000000000e+00" cType="1" res="7.5355422450229526e-04" rms="4.5992246270179749e-01" purity="5.5658030509948730e-01" nType="-99"/>
            <Node pos="r" depth="3" NCoef="0" IVar="-1" Cut="0.0000000000000000e+00" cType="1" res="-2.3091020062565804e-02" rms="4.7173905372619629e-01" purity="5.4871702194213867e-01" nType="-99"/>
          </Node>
        </Node>
        <Node pos="r" depth="1" NCoef="0" IVar="2" Cut="1.7327644348144531e+02" cType="1" res="-2.8318587690591812e-02" rms="4.4409805536270142e-01" purity="5.5682313442230225e-01" nType="0">
          <Node pos="l" depth="2" NCoef="0" IVar="-1" Cut="0.0000000000000000e+00" cType="1" res="4.8096925020217896e-03" rms="4.5808038115501404e-01" purity="6.4414399862289429e-01" nType="-99"/>
          <Node pos="r" depth="2" NCoef="0" IVar="-1" Cut="0.0000000000000000e+00" cType="1" res="-1.6367906937375665e-03" rms="4.3022838234901428e-01" purity="4.8389649391174316e-01" nType="-99"/>
        </Node>
      </Node>
    </BinaryTree>
    <BinaryTree type="DecisionTree" boostWeight="1.0000000000000000e+00" itree="138">
      <Node pos="s" depth="0" NCoef="0" IVar="4" Cut="1.1468667984008789e+00" cType="1" res="-3.5898224450647831e-03" rms="4.6612265706062317e-01" purity="5.0595158338546753e-01" nType="0">
        <Node pos="l" depth="1" NCoef="0" IVar="4" Cut="6.9358366727828979e-01" cType="1" res="1.3179431669414043e-02" rms="4.6254146099090576e-01" purity="4.8103225231170654e-01" nType="0">
          <Node pos="l" depth="2" NCoef="0" IVar="8" Cut="7.3174484375000000e+04" cType="1" res="-2.1492240950465202e-02" rms="4.6270364522933960e-01" purity="4.5228090882301331e-01" nType="0">
            <Node pos="l" depth="3" NCoef="0" IVar="-1" Cut="0.0000000000000000e+00" cType="1" res="2.8336981777101755e-03" rms="4.5483899116516113e-01" purity="3.5148805379867554e-01" nType="-99"/>
            <Node pos="r" depth="3" NCoef="0" IVar="-1" Cut="0.0000000000000000e+00" cType="1" res="-5.0419636070728302e-02" rms="4.6899420022964478e-01" purity="5.4884904623031616e-01" nType="-99"/>
          </Node>
          <Node pos="r" depth="2" NCoef="0" IVar="1" Cut="1.6253756250000000e+05" cType="1" res="3.2837614417076111e-02" rms="4.6129328012466431e-01" purity="4.9733376502990723e-01" nType="0">
            <Node pos="l" depth="3" NCoef="0" IVar="-1" Cut="0.0000000000000000e+00" cType="1" res="5.9788405895233154e-02" rms="4.6470296382904053e-01" purity="5.7638126611709595e-01" nType="-99"/>
            <Node pos="r" depth="3" NCoef="0" IVar="-1" Cut="0.0000000000000000e+00" cType="1" res="1.5230325050652027e-02" rms="4.5629066228866577e-01" purity="4.0670356154441833e-01" nType="-99"/>
          </Node>
        </Node>
        <Node pos="r" depth="1" NCoef="0" IVar="7" Cut="6.0000000000000000e+00" cType="1" res="-9.2770131304860115e-03" rms="4.6719142794609070e-01" purity="5.1441276073455811e-01" nType="0">
          <Node pos="l" depth="2" NCoef="0" IVar="4" Cut="3.0732672214508057e+00" cType="1" res="-1.3684476725757122e-02" rms="4.7018823027610779e-01" purity="4.7730106115341187e-01" nType="0">
            <Node pos="l" depth="3" NCoef="0" IVar="-1" Cut="0.0000000000000000e+00" cType="1" res="-1.1263188906013966e-02" rms="4.7242438793182373e-01" purity="4.9019730091094971e-01" nType="-99"/>
            <Node pos="r" depth="3" NCoef="0" IVar="-1" Cut="0.0000000000000000e+00" cType="1" res="-1.3506561517715454e-02" rms="4.5608633756637573e-01" purity="4.0009903907775879e-01" nType="-99"/>
          </Node>
          <Node pos="r" depth="2" NCoef="0" IVar="8" Cut="5.9904714843750000e+04" cType="1" res="3.1252000480890274e-03" rms="4.5842432975769043e-01" purity="6.1905854940414429e-01" nType="0">
            <Node pos="l" depth="3" NCoef="0" IVar="-1" Cut="0.0000000000000000e+00" cType="1" res="3.2169640064239502e-02" rms="4.7416532039642334e-01" purity="5.2884167432785034e-01" nType="-99"/>
            <Node pos="r" depth="3" NCoef="0" IVar="-1" Cut="0.0000000000000000e+00" cType="1" res="-8.0545172095298767e-03" rms="4.5187246799468994e-01" purity="6.5380346775054932e-01" nType="-99"/>
          </Node>
        </Node>
      </Node>
    </BinaryTree>
    <BinaryTree type="DecisionTree" boostWeight="1.0000000000000000e+00" itree="139">
      <Node pos="s" depth="0" NCoef="0" IVar="7" Cut="7.0000000000000000e+00" cType="1" res="-6.3785924576222897e-03" rms="4.6177619695663452e-01" purity="4.9865230917930603e-01" nType="0">
        <Node pos="l" depth="1" NCoef="0" IVar="9" Cut="4.5680500000000000e+04" cType="1" res="-1.7308591632172465e-03" rms="4.6557903289794922e-01" purity="4.9423328042030334e-01" nType="0">
          <Node pos="l" depth="2" NCoef="0" IVar="9" Cut="3.1893242187500000e+04" cType="1" res="-1.0178039781749249e-02" rms="4.6941614151000977e-01" purity="4.1026219725608826e-01" nType="0">
            <Node pos="l" depth="3" NCoef="0" IVar="-1" Cut="0.0000000000000000e+00" cType="1" res="4.4011144200339913e-04" rms="4.5792320370674133e-01" purity="3.4928396344184875e-01" nType="-99"/>
            <Node pos="r" depth="3" NCoef="0" IVar="-1" Cut="0.0000000000000000e+00" cType="1" res="-1.6204820945858955e-02" rms="4.7943159937858582e-01" purity="4.6575480699539185e-01" nType="-99"/>
          </Node>
          <Node pos="r" depth="2" NCoef="0" IVar="9" Cut="6.5376746093750000e+04" cType="1" res="0.0000000000000000e+00" rms="0.0000000000000000e+00" purity="6.4066940546035767e-01" nType="0">
            <Node pos="l" depth="3" NCoef="0" IVar="-1" Cut="0.0000000000000000e+00" cType="1" res="2.1514415740966797e-02" rms="4.6888092160224915e-01" purity="6.0518240928649902e-01" nType="-99"/>
            <Node pos="r" depth="3" NCoef="0" IVar="-1" Cut="0.0000000000000000e+00" cType="1" res="1.4422421809285879e-03" rms="4.4214802980422974e-01" purity="6.9358378648757935e-01" nType="-99"/>
          </Node>
        </Node>
        <Node pos="r" depth="1" NCoef="0" IVar="9" Cut="6.9385343750000000e+04" cType="1" res="-3.9251849055290222e-02" rms="4.3262442946434021e-01" purity="5.2983891963958740e-01" nType="0">
          <Node pos="l" depth="2" NCoef="0" IVar="-1" Cut="0.0000000000000000e+00" cType="1" res="-1.3360746670514345e-03" rms="4.2481935024261475e-01" purity="4.1401338577270508e-01" nType="-99"/>
          <Node pos="r" depth="2" NCoef="0" IVar="-1" Cut="0.0000000000000000e+00" cType="1" res="7.4140289798378944e-03" rms="4.3797776103019714e-01" purity="6.8368351459503174e-01" nType="-99"/>
        </Node>
      </Node>
    </BinaryTree>
    <BinaryTree type="DecisionTree" boostWeight="1.0000000000000000e+00" itree="140">
      <Node pos="s" depth="0" NCoef="0" IVar="5" Cut="1.6455228328704834e+00" cType="1" res="-4.2452728375792503e-03" rms="4.6626487374305725e-01" purity="5.0366020202636719e-01" nType="0">
        <Node pos="l" depth="1" NCoef="0" IVar="5" Cut="-2.9135446548461914e+00" cType="1" res="-1.2378321960568428e-02" rms="4.6552455425262451e-01" purity="4.8516786098480225e-01" nType="0">
          <Node pos="l" depth="2" NCoef="0" IVar="-1" Cut="0.0000000000000000e+00" cType="1" res="-4.4370330870151520e-03" rms="4.5701676607131958e-01" purity="5.2677297592163086e-01" nType="-99"/>
          <Node pos="r" depth="2" NCoef="0" IVar="9" Cut="4.5680769531250000e+04" cType="1" res="-9.0990439057350159e-03" rms="4.6617645025253296e-01" purity="4.8128116130828857e-01" nType="0">
            <Node pos="l" depth="3" NCoef="0" IVar="-1" Cut="0.0000000000000000e+00" cType="1" res="1.4309085672721267e-03" rms="4.6743437647819519e-01" purity="4.0995970368385315e-01" nType="-99"/>
            <Node pos="r" depth="3" NCoef="0" IVar="-1" Cut="0.0000000000000000e+00" cType="1" res="-3.1581327319145203e-02" rms="4.6351388096809387e-01" purity="6.0119974613189697e-01" nType="-99"/>
          </Node>
        </Node>
        <Node pos="r" depth="1" NCoef="0" IVar="6" Cut="2.5429556369781494e+00" cType="1" res="1.2267555110156536e-02" rms="4.6732917428016663e-01" purity="5.4120588302612305e-01" nType="0">
          <Node pos="l" depth="2" NCoef="0" IVar="6" Cut="3.7730032205581665e-01" cType="1" res="6.4582242630422115e-03" rms="4.6286547183990479e-01" purity="5.3454315662384033e-01" nType="0">
            <Node pos="l" depth="3" NCoef="0" IVar="-1" Cut="0.0000000000000000e+00" cType="1" res="2.6952486485242844e-02" rms="4.4314581155776978e-01" purity="6.5767067670822144e-01" nType="-99"/>
            <Node pos="r" depth="3" NCoef="0" IVar="-1" Cut="0.0000000000000000e+00" cType="1" res="-2.9272448737174273e-03" rms="4.7399216890335083e-01" purity="4.6107858419418335e-01" nType="-99"/>
          </Node>
          <Node pos="r" depth="2" NCoef="0" IVar="-1" Cut="0.0000000000000000e+00" cType="1" res="3.5442728549242020e-02" rms="4.8101854324340820e-01" purity="5.6278139352798462e-01" nType="-99"/>
        </Node>
      </Node>
    </BinaryTree>
    <BinaryTree type="DecisionTree" boostWeight="1.0000000000000000e+00" itree="141">
      <Node pos="s" depth="0" NCoef="0" IVar="5" Cut="-2.8422744274139404e+00" cType="1" res="-6.2709185294806957e-03" rms="4.6560865640640259e-01" purity="5.0258022546768188e-01" nType="0">
        <Node pos="l" depth="1" NCoef="0" IVar="-1" Cut="0.0000000000000000e+00" cType="1" res="-5.6208050809800625e-03" rms="4.6247836947441101e-01" purity="5.2124971151351929e-01" nType="-99"/>
        <Node pos="r" depth="1" NCoef="0" IVar="6" Cut="-4.4877654314041138e-01" cType="1" res="-2.9984558932483196e-03" rms="4.6570786833763123e-01" purity="5.0106805562973022e-01" nType="0">
          <Node pos="l" depth="2" NCoef="0" IVar="4" Cut="3.0070903301239014e+00" cType="1" res="-1.2760732322931290e-02" rms="4.6558308601379395e-01" purity="4.8570314049720764e-01" nType="0">
            <Node pos="l" depth="3" NCoef="0" IVar="-1" Cut="0.0000000000000000e+00" cType="1" res="-7.3214056901633739e-03" rms="4.6594792604446411e-01" purity="4.9847966432571411e-01" nType="-99"/>
            <Node pos="r" depth="3" NCoef="0" IVar="-1" Cut="0.0000000000000000e+00" cType="1" res="-2.2633582353591919e-02" rms="4.6163898706436157e-01" purity="4.0733420848846436e-01" nType="-99"/>
          </Node>
          <Node pos="r" depth="2" NCoef="0" IVar="9" Cut="5.9436113281250000e+04" cType="1" res="5.1472093909978867e-03" rms="4.6565535664558411e-01" purity="5.1388865709304810e-01" nType="0">
            <Node pos="l" depth="3" NCoef="0" IVar="-1" Cut="0.0000000000000000e+00" cType="1" res="-7.1566889528185129e-04" rms="4.7175043821334839e-01" purity="4.5390975475311279e-01" nType="-99"/>
            <Node pos="r" depth="3" NCoef="0" IVar="-1" Cut="0.0000000000000000e+00" cType="1" res="2.4961037561297417e-02" rms="4.4618901610374451e-01" purity="6.9564425945281982e-01" nType="-99"/>
          </Node>
        </Node>
      </Node>
    </BinaryTree>
    <BinaryTree type="DecisionTree" boostWeight="1.0000000000000000e+00" itree="142">
      <Node pos="s" depth="0" NCoef="0" IVar="5" Cut="-1.4972718060016632e-01" cType="1" res="-2.3052920587360859e-03" rms="4.6303376555442810e-01" purity="5.0021082162857056e-01" nType="0">
        <Node pos="l" depth="1" NCoef="0" IVar="3" Cut="5.6175179481506348e+00" cType="1" res="1.0076145641505718e-02" rms="4.6396660804748535e-01" purity="5.1579457521438599e-01" nType="0">
          <Node pos="l" depth="2" NCoef="0" IVar="5" Cut="-2.4292054176330566e+00" cType="1" res="0.0000000000000000e+00" rms="0.0000000000000000e+00" purity="4.9455496668815613e-01" nType="0">
            <Node pos="l" depth="3" NCoef="0" IVar="-1" Cut="0.0000000000000000e+00" cType="1" res="1.2582971714437008e-02" rms="4.6054700016975403e-01" purity="5.3581672906875610e-01" nType="-99"/>
            <Node pos="r" depth="3" NCoef="0" IVar="-1" Cut="0.0000000000000000e+00" cType="1" res="-7.5914096087217331e-03" rms="4.7664895653724670e-01" purity="4.6534147858619690e-01" nType="-99"/>
          </Node>
          <Node pos="r" depth="2" NCoef="0" IVar="5" Cut="-2.0018584728240967e+00" cType="1" res="0.0000000000000000e+00" rms="0.0000000000000000e+00" purity="5.5076134204864502e-01" nType="0">
            <Node pos="l" depth="3" NCoef="0" IVar="-1" Cut="0.0000000000000000e+00" cType="1" res="1.7157580703496933e-02" rms="4.5223826169967651e-01" purity="5.8712506294250488e-01" nType="-99"/>
            <Node pos="r" depth="3" NCoef="0" IVar="-1" Cut="0.0000000000000000e+00" cType="1" res="4.5703556388616562e-02" rms="4.5344665646553040e-01" purity="5.1842713356018066e-01" nType="-99"/>
          </Node>
        </Node>
        <Node pos="r" depth="1" NCoef="0" IVar="9" Cut="4.4286902343750000e+04" cType="1" res="0.0000000000000000e+00" rms="0.0000000000000000e+00" purity="4.8581129312515259e-01" nType="0">
          <Node pos="l" depth="2" NCoef="0" IVar="5" Cut="2.0442488193511963e+00" cType="1" res="-4.0034400299191475e-03" rms="4.6838486194610596e-01" purity="4.0456581115722656e-01" nType="0">
            <Node pos="l" depth="3" NCoef="0" IVar="-1" Cut="0.0000000000000000e+00" cType="1" res="-8.4213726222515106e-03" rms="4.6345382928848267e-01" purity="3.6859980225563049e-01" nType="-99"/>
            <Node pos="r" depth="3" NCoef="0" IVar="-1" Cut="0.0000000000000000e+00" cType="1" res="1.7251215875148773e-02" rms="4.7362202405929565e-01" purity="4.4868084788322449e-01" nType="-99"/>
          </Node>
          <Node pos="r" depth="2" NCoef="0" IVar="5" Cut="2.5145795345306396e+00" cType="1" res="-2.5937056168913841e-02" rms="4.5330289006233215e-01" purity="5.8747845888137817e-01" nType="0">
            <Node pos="l" depth="3" NCoef="0" IVar="-1" Cut="0.0000000000000000e+00" cType="1" res="-2.7133673429489136e-03" rms="4.5058259367942810e-01" purity="5.5532771348953247e-01" nType="-99"/>
            <Node pos="r" depth="3" NCoef="0" IVar="-1" Cut="0.0000000000000000e+00" cType="1" res="-8.7466486729681492e-04" rms="4.5720282196998596e-01" purity="6.4668709039688110e-01" nType="-99"/>
          </Node>
        </Node>
      </Node>
    </BinaryTree>
    <BinaryTree type="DecisionTree" boostWeight="1.0000000000000000e+00" itree="143">
      <Node pos="s" depth="0" NCoef="0" IVar="3" Cut="-4.1771543025970459e-01" cType="1" res="-9.1230310499668121e-03" rms="4.6790280938148499e-01" purity="5.0040602684020996e-01" nType="0">
        <Node pos="l" depth="1" NCoef="0" IVar="-1" Cut="0.0000000000000000e+00" cType="1" res="-4.3725864961743355e-03" rms="4.7281318902969360e-01" purity="3.7801846861839294e-01" nType="-99"/>
        <Node pos="r" depth="1" NCoef="0" IVar="5" Cut="1.9448095560073853e+00" cType="1" res="-4.1779871098697186e-03" rms="4.6708071231842041e-01" purity="5.1449614763259888e-01" nType="0">
          <Node pos="l" depth="2" NCoef="0" IVar="4" Cut="6.0844749212265015e-01" cType="1" res="5.0502666272222996e-04" rms="4.6765968203544617e-01" purity="5.0465106964111328e-01" nType="0">
            <Node pos="l" depth="3" NCoef="0" IVar="-1" Cut="0.0000000000000000e+00" cType="1" res="3.4238629043102264e-02" rms="4.7520363330841064e-01" purity="4.7246801853179932e-01" nType="-99"/>
            <Node pos="r" depth="3" NCoef="0" IVar="-1" Cut="0.0000000000000000e+00" cType="1" res="-8.8229193352162838e-04" rms="4.6710738539695740e-01" purity="5.0676774978637695e-01" nType="-99"/>
          </Node>
          <Node pos="r" depth="2" NCoef="0" IVar="8" Cut="9.9401000000000000e+04" cType="1" res="-1.6530098393559456e-02" rms="4.6532407402992249e-01" purity="5.4046410322189331e-01" nType="0">
            <Node pos="l" depth="3" NCoef="0" IVar="-1" Cut="0.0000000000000000e+00" cType="1" res="-2.5138707831501961e-02" rms="4.7014227509498596e-01" purity="4.9467936158180237e-01" nType="-99"/>
            <Node pos="r" depth="3" NCoef="0" IVar="-1" Cut="0.0000000000000000e+00" cType="1" res="1.6894724220037460e-02" rms="4.4680950045585632e-01" purity="6.9817852973937988e-01" nType="-99"/>
          </Node>
        </Node>
      </Node>
    </BinaryTree>
    <BinaryTree type="DecisionTree" boostWeight="1.0000000000000000e+00" itree="144">
      <Node pos="s" depth="0" NCoef="0" IVar="7" Cut="6.0000000000000000e+00" cType="1" res="0.0000000000000000e+00" rms="0.0000000000000000e+00" purity="4.9714136123657227e-01" nType="0">
        <Node pos="l" depth="1" NCoef="0" IVar="6" Cut="-2.2439334392547607e+00" cType="1" res="-1.6424695495516062e-03" rms="4.6698760986328125e-01" purity="4.6929666399955750e-01" nType="0">
          <Node pos="l" depth="2" NCoef="0" IVar="2" Cut="1.9281744384765625e+02" cType="1" res="1.1267606168985367e-02" rms="4.7561228275299072e-01" purity="4.8468551039695740e-01" nType="0">
            <Node pos="l" depth="3" NCoef="0" IVar="-1" Cut="0.0000000000000000e+00" cType="1" res="-4.4905738905072212e-03" rms="4.7523459792137146e-01" purity="4.4744011759757996e-01" nType="-99"/>
            <Node pos="r" depth="3" NCoef="0" IVar="-1" Cut="0.0000000000000000e+00" cType="1" res="2.5825329124927521e-02" rms="4.7558525204658508e-01" purity="5.1303237676620483e-01" nType="-99"/>
          </Node>
          <Node pos="r" depth="2" NCoef="0" IVar="2" Cut="3.1831362915039062e+02" cType="1" res="-6.6340365447103977e-03" rms="4.6351358294487000e-01" purity="4.6334666013717651e-01" nType="0">
            <Node pos="l" depth="3" NCoef="0" IVar="-1" Cut="0.0000000000000000e+00" cType="1" res="-1.1449282756075263e-03" rms="4.6305194497108459e-01" purity="4.6041473746299744e-01" nType="-99"/>
            <Node pos="r" depth="3" NCoef="0" IVar="-1" Cut="0.0000000000000000e+00" cType="1" res="-2.2681951522827148e-02" rms="4.6490433812141418e-01" purity="4.7577917575836182e-01" nType="-99"/>
          </Node>
        </Node>
        <Node pos="r" depth="1" NCoef="0" IVar="6" Cut="2.2438778877258301e+00" cType="1" res="-2.4092437699437141e-02" rms="4.5197570323944092e-01" purity="5.7076859474182129e-01" nType="0">
          <Node pos="l" depth="2" NCoef="0" IVar="6" Cut="9.6127033233642578e-01" cType="1" res="-8.2468595355749130e-03" rms="4.5100671052932739e-01" purity="6.1380684375762939e-01" nType="0">
            <Node pos="l" depth="3" NCoef="0" IVar="-1" Cut="0.0000000000000000e+00" cType="1" res="-2.3507571313530207e-03" rms="4.5012271404266357e-01" purity="6.2256491184234619e-01" nType="-99"/>
            <Node pos="r" depth="3" NCoef="0" IVar="-1" Cut="0.0000000000000000e+00" cType="1" res="-3.2405573874711990e-02" rms="4.5346739888191223e-01" purity="5.8319294452667236e-01" nType="-99"/>
          </Node>
          <Node pos="r" depth="2" NCoef="0" IVar="-1" Cut="0.0000000000000000e+00" cType="1" res="-1.9133517052978277e-03" rms="4.5069801807403564e-01" purity="4.1067871451377869e-01" nType="-99"/>
        </Node>
      </Node>
    </BinaryTree>
    <BinaryTree type="DecisionTree" boostWeight="1.0000000000000000e+00" itree="145">
      <Node pos="s" depth="0" NCoef="0" IVar="7" Cut="6.0000000000000000e+00" cType="1" res="-1.0804347693920135e-02" rms="4.6562942862510681e-01" purity="4.9243035912513733e-01" nType="0">
        <Node pos="l" depth="1" NCoef="0" IVar="5" Cut="-2.8423094749450684e+00" cType="1" res="0.0000000000000000e+00" rms="0.0000000000000000e+00" purity="4.6883788704872131e-01" nType="0">
          <Node pos="l" depth="2" NCoef="0" IVar="-1" Cut="0.0000000000000000e+00" cType="1" res="-2.5428388267755508e-02" rms="4.5508730411529541e-01" purity="5.2754056453704834e-01" nType="-99"/>
          <Node pos="r" depth="2" NCoef="0" IVar="4" Cut="5.9031403064727783e-01" cType="1" res="-1.5282724052667618e-03" rms="4.7055041790008545e-01" purity="4.6468666195869446e-01" nType="0">
            <Node pos="l" depth="3" NCoef="0" IVar="-1" Cut="0.0000000000000000e+00" cType="1" res="1.3826888054609299e-02" rms="4.6855583786964417e-01" purity="4.2714443802833557e-01" nType="-99"/>
            <Node pos="r" depth="3" NCoef="0" IVar="-1" Cut="0.0000000000000000e+00" cType="1" res="-2.2335879039019346e-03" rms="4.7064316272735596e-01" purity="4.6711459755897522e-01" nType="-99"/>
          </Node>
        </Node>
        <Node pos="r" depth="1" NCoef="0" IVar="6" Cut="2.2434113025665283e+00" cType="1" res="-3.2381288707256317e-02" rms="4.5440116524696350e-01" purity="5.5470156669616699e-01" nType="0">
          <Node pos="l" depth="2" NCoef="0" IVar="8" Cut="6.3833367187500000e+04" cType="1" res="-1.6542764380574226e-02" rms="4.5508193969726562e-01" purity="5.9620380401611328e-01" nType="0">
            <Node pos="l" depth="3" NCoef="0" IVar="-1" Cut="0.0000000000000000e+00" cType="1" res="-4.9169167876243591e-02" rms="4.7579663991928101e-01" purity="4.6711531281471252e-01" nType="-99"/>
            <Node pos="r" depth="3" NCoef="0" IVar="-1" Cut="0.0000000000000000e+00" cType="1" res="-6.8081971257925034e-03" rms="4.4700801372528076e-01" purity="6.4271700382232666e-01" nType="-99"/>
          </Node>
          <Node pos="r" depth="2" NCoef="0" IVar="-1" Cut="0.0000000000000000e+00" cType="1" res="-2.0884191617369652e-03" rms="4.4674953818321228e-01" purity="3.9748880267143250e-01" nType="-99"/>
        </Node>
      </Node>
    </BinaryTree>
    <BinaryTree type="DecisionTree" boostWeight="1.0000000000000000e+00" itree="146">
      <Node pos="s" depth="0" NCoef="0" IVar="6" Cut="2.2439978122711182e+00" cType="1" res="-2.1861859131604433e-03" rms="4.6329581737518311e-01" purity="4.9963891506195068e-01" nType="0">
        <Node pos="l" depth="1" NCoef="0" IVar="6" Cut="-2.3722050189971924e+00" cType="1" res="2.0618613343685865e-03" rms="4.6103736758232117e-01" purity="5.1687991619110107e-01" nType="0">
          <Node pos="l" depth="2" NCoef="0" IVar="6" Cut="-2.9950737953186035e+00" cType="1" res="-1.2503738515079021e-02" rms="4.7612294554710388e-01" purity="4.7283625602722168e-01" nType="0">
            <Node pos="l" depth="3" NCoef="0" IVar="-1" Cut="0.0000000000000000e+00" cType="1" res="-4.5330923050642014e-02" rms="4.7228255867958069e-01" purity="4.5581349730491638e-01" nType="-99"/>
            <Node pos="r" depth="3" NCoef="0" IVar="-1" Cut="0.0000000000000000e+00" cType="1" res="-6.6838464699685574e-03" rms="4.7691500186920166e-01" purity="4.7727558016777039e-01" nType="-99"/>
          </Node>
          <Node pos="r" depth="2" NCoef="0" IVar="5" Cut="4.4881224632263184e-01" cType="1" res="8.3252592012286186e-03" rms="4.5425283908843994e-01" purity="5.3581929206848145e-01" nType="0">
            <Node pos="l" depth="3" NCoef="0" IVar="-1" Cut="0.0000000000000000e+00" cType="1" res="1.6328677535057068e-02" rms="4.5335727930068970e-01" purity="5.4279994964599609e-01" nType="-99"/>
            <Node pos="r" depth="3" NCoef="0" IVar="-1" Cut="0.0000000000000000e+00" cType="1" res="-2.4496756959706545e-03" rms="4.5505055785179138e-01" purity="5.2779811620712280e-01" nType="-99"/>
          </Node>
        </Node>
        <Node pos="r" depth="1" NCoef="0" IVar="9" Cut="5.4610527343750000e+04" cType="1" res="-1.4271607622504234e-02" rms="4.6945133805274963e-01" purity="4.5058938860893250e-01" nType="0">
          <Node pos="l" depth="2" NCoef="0" IVar="5" Cut="4.4730785489082336e-01" cType="1" res="-2.6771253906190395e-03" rms="4.7655591368675232e-01" purity="4.3073022365570068e-01" nType="0">
            <Node pos="l" depth="3" NCoef="0" IVar="-1" Cut="0.0000000000000000e+00" cType="1" res="-2.5338569656014442e-02" rms="4.6712520718574524e-01" purity="4.1273808479309082e-01" nType="-99"/>
            <Node pos="r" depth="3" NCoef="0" IVar="-1" Cut="0.0000000000000000e+00" cType="1" res="4.5523596927523613e-03" rms="4.7956180572509766e-01" purity="4.3705230951309204e-01" nType="-99"/>
          </Node>
          <Node pos="r" depth="2" NCoef="0" IVar="-1" Cut="0.0000000000000000e+00" cType="1" res="-1.5795507933944464e-03" rms="4.4320774078369141e-01" purity="5.1577740907669067e-01" nType="-99"/>
        </Node>
      </Node>
    </BinaryTree>
    <BinaryTree type="DecisionTree" boostWeight="1.0000000000000000e+00" itree="147">
      <Node pos="s" depth="0" NCoef="0" IVar="5" Cut="-2.8422944545745850e+00" cType="1" res="-5.0406181253492832e-03" rms="4.6385192871093750e-01" purity="4.9754568934440613e-01" nType="0">
        <Node pos="l" depth="1" NCoef="0" IVar="-1" Cut="0.0000000000000000e+00" cType="1" res="-3.5154889337718487e-03" rms="4.6358171105384827e-01" purity="5.0957494974136353e-01" nType="-99"/>
        <Node pos="r" depth="1" NCoef="0" IVar="9" Cut="8.3217992187500000e+04" cType="1" res="0.0000000000000000e+00" rms="0.0000000000000000e+00" purity="4.9654310941696167e-01" nType="0">
          <Node pos="l" depth="2" NCoef="0" IVar="7" Cut="5.0000000000000000e+00" cType="1" res="-3.5721424501389265e-03" rms="4.6741050481796265e-01" purity="4.7307226061820984e-01" nType="0">
            <Node pos="l" depth="3" NCoef="0" IVar="-1" Cut="0.0000000000000000e+00" cType="1" res="-6.9748396053910255e-03" rms="4.6566402912139893e-01" purity="4.0240815281867981e-01" nType="-99"/>
            <Node pos="r" depth="3" NCoef="0" IVar="-1" Cut="0.0000000000000000e+00" cType="1" res="5.8239754289388657e-03" rms="4.6893653273582458e-01" purity="5.4227632284164429e-01" nType="-99"/>
          </Node>
          <Node pos="r" depth="2" NCoef="0" IVar="6" Cut="1.4953154325485229e-01" cType="1" res="2.4546129629015923e-02" rms="4.2305493354797363e-01" purity="7.3282551765441895e-01" nType="0">
            <Node pos="l" depth="3" NCoef="0" IVar="-1" Cut="0.0000000000000000e+00" cType="1" res="3.8002401590347290e-02" rms="4.1749209165573120e-01" purity="7.3782420158386230e-01" nType="-99"/>
            <Node pos="r" depth="3" NCoef="0" IVar="-1" Cut="0.0000000000000000e+00" cType="1" res="2.4861160665750504e-02" rms="4.2879036068916321e-01" purity="7.2758781909942627e-01" nType="-99"/>
          </Node>
        </Node>
      </Node>
    </BinaryTree>
    <BinaryTree type="DecisionTree" boostWeight="1.0000000000000000e+00" itree="148">
      <Node pos="s" depth="0" NCoef="0" IVar="3" Cut="-5.0363677740097046e-01" cType="1" res="0.0000000000000000e+00" rms="0.0000000000000000e+00" purity="4.9430018663406372e-01" nType="0">
        <Node pos="l" depth="1" NCoef="0" IVar="-1" Cut="0.0000000000000000e+00" cType="1" res="-4.9162791110575199e-03" rms="4.7348019480705261e-01" purity="3.8741073012351990e-01" nType="-99"/>
        <Node pos="r" depth="1" NCoef="0" IVar="4" Cut="3.2530410289764404e+00" cType="1" res="0.0000000000000000e+00" rms="0.0000000000000000e+00" purity="5.0545352697372437e-01" nType="0">
          <Node pos="l" depth="2" NCoef="0" IVar="7" Cut="7.0000000000000000e+00" cType="1" res="-8.0673377960920334e-03" rms="4.6367117762565613e-01" purity="5.1020967960357666e-01" nType="0">
            <Node pos="l" depth="3" NCoef="0" IVar="-1" Cut="0.0000000000000000e+00" cType="1" res="-3.6082558799535036e-03" rms="4.6630531549453735e-01" purity="5.0249850749969482e-01" nType="-99"/>
            <Node pos="r" depth="3" NCoef="0" IVar="-1" Cut="0.0000000000000000e+00" cType="1" res="-1.6339782159775496e-03" rms="4.4195550680160522e-01" purity="5.6980758905410767e-01" nType="-99"/>
          </Node>
          <Node pos="r" depth="2" NCoef="0" IVar="-1" Cut="0.0000000000000000e+00" cType="1" res="2.0817169919610023e-02" rms="4.5868799090385437e-01" purity="4.2684653401374817e-01" nType="-99"/>
        </Node>
      </Node>
    </BinaryTree>
    <BinaryTree type="DecisionTree" boostWeight="1.0000000000000000e+00" itree="149">
      <Node pos="s" depth="0" NCoef="0" IVar="5" Cut="-2.5431108474731445e+00" cType="1" res="1.8354727653786540e-03" rms="4.6241775155067444e-01" purity="5.0249975919723511e-01" nType="0">
        <Node pos="l" depth="1" NCoef="0" IVar="0" Cut="1.7294456250000000e+05" cType="1" res="1.7953731119632721e-02" rms="4.5442405343055725e-01" purity="5.6795477867126465e-01" nType="0">
          <Node pos="l" depth="2" NCoef="0" IVar="4" Cut="2.0484285354614258e+00" cType="1" res="8.0675901845097542e-03" rms="4.6100386977195740e-01" purity="5.2676218748092651e-01" nType="0">
            <Node pos="l" depth="3" NCoef="0" IVar="-1" Cut="0.0000000000000000e+00" cType="1" res="8.0171059817075729e-03" rms="4.5614671707153320e-01" purity="5.2151083946228027e-01" nType="-99"/>
            <Node pos="r" depth="3" NCoef="0" IVar="-1" Cut="0.0000000000000000e+00" cType="1" res="8.5795363411307335e-03" rms="4.6620953083038330e-01" purity="5.3245276212692261e-01" nType="-99"/>
          </Node>
          <Node pos="r" depth="2" NCoef="0" IVar="-1" Cut="0.0000000000000000e+00" cType="1" res="5.6594807654619217e-02" rms="4.3944367766380310e-01" purity="6.5512269735336304e-01" nType="-99"/>
        </Node>
        <Node pos="r" depth="1" NCoef="0" IVar="5" Cut="2.6000838279724121e+00" cType="1" res="-1.0106498375535011e-03" rms="4.6375674009323120e-01" purity="4.9094188213348389e-01" nType="0">
          <Node pos="l" depth="2" NCoef="0" IVar="4" Cut="8.6933261156082153e-01" cType="1" res="-4.5679202303290367e-03" rms="4.6371233463287354e-01" purity="4.7745764255523682e-01" nType="0">
            <Node pos="l" depth="3" NCoef="0" IVar="-1" Cut="0.0000000000000000e+00" cType="1" res="-5.4263700731098652e-03" rms="4.5281466841697693e-01" purity="4.0458506345748901e-01" nType="-99"/>
            <Node pos="r" depth="3" NCoef="0" IVar="-1" Cut="0.0000000000000000e+00" cType="1" res="-5.7591625954955816e-04" rms="4.6544867753982544e-01" purity="4.8999309539794922e-01" nType="-99"/>
          </Node>
          <Node pos="r" depth="2" NCoef="0" IVar="5" Cut="2.8063588142395020e+00" cType="1" res="1.7828598618507385e-02" rms="4.6353691816329956e-01" purity="5.6235420703887939e-01" nType="0">
            <Node pos="l" depth="3" NCoef="0" IVar="-1" Cut="0.0000000000000000e+00" cType="1" res="4.0217917412519455e-02" rms="4.6487620472908020e-01" purity="5.4812240600585938e-01" nType="-99"/>
            <Node pos="r" depth="3" NCoef="0" IVar="-1" Cut="0.0000000000000000e+00" cType="1" res="7.3413583450019360e-03" rms="4.6225258708000183e-01" purity="5.7200050354003906e-01" nType="-99"/>
          </Node>
        </Node>
      </Node>
    </BinaryTree>
    <BinaryTree type="DecisionTree" boostWeight="1.0000000000000000e+00" itree="150">
      <Node pos="s" depth="0" NCoef="0" IVar="5" Cut="1.3464180231094360e+00" cType="1" res="-1.0619360953569412e-02" rms="4.6159958839416504e-01" purity="4.9210447072982788e-01" nType="0">
        <Node pos="l" depth="1" NCoef="0" IVar="5" Cut="4.9147236347198486e-01" cType="1" res="-3.0811794567853212e-03" rms="4.6421352028846741e-01" purity="4.9455502629280090e-01" nType="0">
          <Node pos="l" depth="2" NCoef="0" IVar="6" Cut="2.2439980506896973e+00" cType="1" res="-7.6994639821350574e-03" rms="4.6236729621887207e-01" purity="4.9777925014495850e-01" nType="0">
            <Node pos="l" depth="3" NCoef="0" IVar="-1" Cut="0.0000000000000000e+00" cType="1" res="-4.7665382735431194e-03" rms="4.6146723628044128e-01" purity="5.0744342803955078e-01" nType="-99"/>
            <Node pos="r" depth="3" NCoef="0" IVar="-1" Cut="0.0000000000000000e+00" cType="1" res="-9.9864574149250984e-03" rms="4.6741965413093567e-01" purity="4.3651491403579712e-01" nType="-99"/>
          </Node>
          <Node pos="r" depth="2" NCoef="0" IVar="5" Cut="9.8011457920074463e-01" cType="1" res="2.4026514962315559e-02" rms="4.7399917244911194e-01" purity="4.7563034296035767e-01" nType="0">
            <Node pos="l" depth="3" NCoef="0" IVar="-1" Cut="0.0000000000000000e+00" cType="1" res="1.2633739970624447e-03" rms="4.7297731041908264e-01" purity="4.5332947373390198e-01" nType="-99"/>
            <Node pos="r" depth="3" NCoef="0" IVar="-1" Cut="0.0000000000000000e+00" cType="1" res="4.1740711778402328e-02" rms="4.7380980849266052e-01" purity="5.0235587358474731e-01" nType="-99"/>
          </Node>
        </Node>
        <Node pos="r" depth="1" NCoef="0" IVar="3" Cut="9.7115497589111328e+00" cType="1" res="-2.2523870691657066e-02" rms="4.5718809962272644e-01" purity="4.8823437094688416e-01" nType="0">
          <Node pos="l" depth="2" NCoef="0" IVar="6" Cut="2.2439329624176025e+00" cType="1" res="-2.7988664805889130e-02" rms="4.5839133858680725e-01" purity="4.7996461391448975e-01" nType="0">
            <Node pos="l" depth="3" NCoef="0" IVar="-1" Cut="0.0000000000000000e+00" cType="1" res="-7.1237003430724144e-03" rms="4.5448806881904602e-01" purity="5.1081109046936035e-01" nType="-99"/>
            <Node pos="r" depth="3" NCoef="0" IVar="-1" Cut="0.0000000000000000e+00" cType="1" res="-2.9592555947601795e-03" rms="4.6428102254867554e-01" purity="4.2564123868942261e-01" nType="-99"/>
          </Node>
          <Node pos="r" depth="2" NCoef="0" IVar="-1" Cut="0.0000000000000000e+00" cType="1" res="1.0181207209825516e-02" rms="4.4558450579643250e-01" purity="5.5187004804611206e-01" nType="-99"/>
        </Node>
      </Node>
    </BinaryTree>
    <BinaryTree type="DecisionTree" boostWeight="1.0000000000000000e+00" itree="151">
      <Node pos="s" depth="0" NCoef="0" IVar="9" Cut="6.5248886718750000e+04" cType="1" res="-6.6310842521488667e-03" rms="4.6636149287223816e-01" purity="4.9692848324775696e-01" nType="0">
        <Node pos="l" depth="1" NCoef="0" IVar="5" Cut="-2.8419759273529053e+00" cType="1" res="-1.7268294468522072e-03" rms="4.6994200348854065e-01" purity="4.5867970585823059e-01" nType="0">
          <Node pos="l" depth="2" NCoef="0" IVar="-1" Cut="0.0000000000000000e+00" cType="1" res="-3.8667754270136356e-03" rms="4.6761950850486755e-01" purity="4.7586065530776978e-01" nType="-99"/>
          <Node pos="r" depth="2" NCoef="0" IVar="3" Cut="1.2877890586853027e+01" cType="1" res="1.2089185183867812e-03" rms="4.6997171640396118e-01" purity="4.5744502544403076e-01" nType="0">
            <Node pos="l" depth="3" NCoef="0" IVar="-1" Cut="0.0000000000000000e+00" cType="1" res="2.1010846830904484e-03" rms="4.7148928046226501e-01" purity="4.6202355623245239e-01" nType="-99"/>
            <Node pos="r" depth="3" NCoef="0" IVar="-1" Cut="0.0000000000000000e+00" cType="1" res="-1.2575997970998287e-02" rms="4.4288921356201172e-01" purity="3.8049718737602234e-01" nType="-99"/>
          </Node>
        </Node>
        <Node pos="r" depth="1" NCoef="0" IVar="6" Cut="1.0466859340667725e+00" cType="1" res="-2.7884319424629211e-02" rms="4.4989863038063049e-01" purity="6.6268473863601685e-01" nType="0">
          <Node pos="l" depth="2" NCoef="0" IVar="3" Cut="6.3926625251770020e+00" cType="1" res="-4.0898613631725311e-02" rms="4.4922333955764771e-01" purity="6.5614652633666992e-01" nType="0">
            <Node pos="l" depth="3" NCoef="0" IVar="-1" Cut="0.0000000000000000e+00" cType="1" res="-1.4992143958806992e-02" rms="4.5195639133453369e-01" purity="6.4166676998138428e-01" nType="-99"/>
            <Node pos="r" depth="3" NCoef="0" IVar="-1" Cut="0.0000000000000000e+00" cType="1" res="-1.1769633740186691e-01" rms="4.4226235151290894e-01" purity="6.8437176942825317e-01" nType="-99"/>
          </Node>
          <Node pos="r" depth="2" NCoef="0" IVar="-1" Cut="0.0000000000000000e+00" cType="1" res="-4.1384310461580753e-03" rms="4.5015788078308105e-01" purity="6.7467135190963745e-01" nType="-99"/>
        </Node>
      </Node>
    </BinaryTree>
    <BinaryTree type="DecisionTree" boostWeight="1.0000000000000000e+00" itree="152">
      <Node pos="s" depth="0" NCoef="0" IVar="6" Cut="2.5431435108184814e+00" cType="1" res="5.4686516523361206e-03" rms="4.6530801057815552e-01" purity="5.0915360450744629e-01" nType="0">
        <Node pos="l" depth="1" NCoef="0" IVar="2" Cut="4.7092681884765625e+02" cType="1" res="8.2428697496652603e-03" rms="4.6320080757141113e-01" purity="5.1821559667587280e-01" nType="0">
          <Node pos="l" depth="2" NCoef="0" IVar="6" Cut="2.0017275810241699e+00" cType="1" res="1.0323669761419296e-02" rms="4.6249657869338989e-01" purity="5.1833283901214600e-01" nType="0">
            <Node pos="l" depth="3" NCoef="0" IVar="-1" Cut="0.0000000000000000e+00" cType="1" res="7.7272560447454453e-03" rms="4.6027168631553650e-01" purity="5.2317851781845093e-01" nType="-99"/>
            <Node pos="r" depth="3" NCoef="0" IVar="-1" Cut="0.0000000000000000e+00" cType="1" res="1.6120240092277527e-02" rms="4.7613862156867981e-01" purity="4.8711764812469482e-01" nType="-99"/>
          </Node>
          <Node pos="r" depth="2" NCoef="0" IVar="-1" Cut="0.0000000000000000e+00" cType="1" res="-2.1385081112384796e-02" rms="4.7360900044441223e-01" purity="5.1622259616851807e-01" nType="-99"/>
        </Node>
        <Node pos="r" depth="1" NCoef="0" IVar="5" Cut="2.2429111003875732e+00" cType="1" res="-6.7713977769017220e-03" rms="4.7429963946342468e-01" purity="4.6917173266410828e-01" nType="0">
          <Node pos="l" depth="2" NCoef="0" IVar="7" Cut="5.0000000000000000e+00" cType="1" res="7.2334711439907551e-03" rms="4.7380778193473816e-01" purity="4.4570723176002502e-01" nType="0">
            <Node pos="l" depth="3" NCoef="0" IVar="-1" Cut="0.0000000000000000e+00" cType="1" res="1.6913581639528275e-02" rms="4.7055578231811523e-01" purity="4.2243006825447083e-01" nType="-99"/>
            <Node pos="r" depth="3" NCoef="0" IVar="-1" Cut="0.0000000000000000e+00" cType="1" res="-1.1808468028903008e-02" rms="4.7803509235382080e-01" purity="4.7802758216857910e-01" nType="-99"/>
          </Node>
          <Node pos="r" depth="2" NCoef="0" IVar="-1" Cut="0.0000000000000000e+00" cType="1" res="-3.2241538166999817e-02" rms="4.7349473834037781e-01" purity="5.2623158693313599e-01" nType="-99"/>
        </Node>
      </Node>
    </BinaryTree>
    <BinaryTree type="DecisionTree" boostWeight="1.0000000000000000e+00" itree="153">
      <Node pos="s" depth="0" NCoef="0" IVar="2" Cut="2.4033009338378906e+02" cType="1" res="-2.9379401821643114e-03" rms="4.6417245268821716e-01" purity="4.9916785955429077e-01" nType="0">
        <Node pos="l" depth="1" NCoef="0" IVar="2" Cut="2.2280085754394531e+02" cType="1" res="-1.0479581542313099e-02" rms="4.6145570278167725e-01" purity="4.9641701579093933e-01" nType="0">
          <Node pos="l" depth="2" NCoef="0" IVar="2" Cut="1.9905831909179688e+02" cType="1" res="-5.0387089140713215e-03" rms="4.6270760893821716e-01" purity="5.0742948055267334e-01" nType="0">
            <Node pos="l" depth="3" NCoef="0" IVar="-1" Cut="0.0000000000000000e+00" cType="1" res="-4.5131571823731065e-04" rms="4.6127939224243164e-01" purity="5.1925373077392578e-01" nType="-99"/>
            <Node pos="r" depth="3" NCoef="0" IVar="-1" Cut="0.0000000000000000e+00" cType="1" res="-2.6755377650260925e-02" rms="4.7014415264129639e-01" purity="4.3788814544677734e-01" nType="-99"/>
          </Node>
          <Node pos="r" depth="2" NCoef="0" IVar="-1" Cut="0.0000000000000000e+00" cType="1" res="-2.1052970550954342e-03" rms="4.4104856252670288e-01" purity="3.6475527286529541e-01" nType="-99"/>
        </Node>
        <Node pos="r" depth="1" NCoef="0" IVar="6" Cut="1.3464525938034058e+00" cType="1" res="1.6849124804139137e-02" rms="4.7065180540084839e-01" purity="5.0638526678085327e-01" nType="0">
          <Node pos="l" depth="2" NCoef="0" IVar="4" Cut="1.2979509830474854e+00" cType="1" res="3.2814268488436937e-03" rms="4.6822586655616760e-01" purity="4.9641469120979309e-01" nType="0">
            <Node pos="l" depth="3" NCoef="0" IVar="-1" Cut="0.0000000000000000e+00" cType="1" res="-2.2818310186266899e-02" rms="4.6478918194770813e-01" purity="4.1938090324401855e-01" nType="-99"/>
            <Node pos="r" depth="3" NCoef="0" IVar="-1" Cut="0.0000000000000000e+00" cType="1" res="1.3095382601022720e-02" rms="4.6954447031021118e-01" purity="5.3439450263977051e-01" nType="-99"/>
          </Node>
          <Node pos="r" depth="2" NCoef="0" IVar="8" Cut="6.5357382812500000e+04" cType="1" res="3.6610305309295654e-02" rms="4.7346794605255127e-01" purity="5.2090734243392944e-01" nType="0">
            <Node pos="l" depth="3" NCoef="0" IVar="-1" Cut="0.0000000000000000e+00" cType="1" res="5.1414180546998978e-02" rms="4.7628685832023621e-01" purity="4.2462819814682007e-01" nType="-99"/>
            <Node pos="r" depth="3" NCoef="0" IVar="-1" Cut="0.0000000000000000e+00" cType="1" res="3.5391226410865784e-02" rms="4.7085863351821899e-01" purity="6.0629010200500488e-01" nType="-99"/>
          </Node>
        </Node>
      </Node>
    </BinaryTree>
    <BinaryTree type="DecisionTree" boostWeight="1.0000000000000000e+00" itree="154">
      <Node pos="s" depth="0" NCoef="0" IVar="5" Cut="-2.5431461334228516e+00" cType="1" res="-1.3065574457868934e-03" rms="4.6564936637878418e-01" purity="5.0361937284469604e-01" nType="0">
        <Node pos="l" depth="1" NCoef="0" IVar="8" Cut="5.6136464843750000e+04" cType="1" res="0.0000000000000000e+00" rms="0.0000000000000000e+00" purity="5.3539532423019409e-01" nType="0">
          <Node pos="l" depth="2" NCoef="0" IVar="-1" Cut="0.0000000000000000e+00" cType="1" res="-4.8327939584851265e-03" rms="4.6623656153678894e-01" purity="3.7349635362625122e-01" nType="-99"/>
          <Node pos="r" depth="2" NCoef="0" IVar="6" Cut="-1.6450003385543823e+00" cType="1" res="-7.8617129474878311e-04" rms="4.5586121082305908e-01" purity="6.0760605335235596e-01" nType="0">
            <Node pos="l" depth="3" NCoef="0" IVar="-1" Cut="0.0000000000000000e+00" cType="1" res="-2.6844345033168793e-02" rms="4.7359180450439453e-01" purity="5.5057168006896973e-01" nType="-99"/>
            <Node pos="r" depth="3" NCoef="0" IVar="-1" Cut="0.0000000000000000e+00" cType="1" res="1.6212781891226768e-02" rms="4.4187283515930176e-01" purity="6.4915955066680908e-01" nType="-99"/>
          </Node>
        </Node>
        <Node pos="r" depth="1" NCoef="0" IVar="7" Cut="7.0000000000000000e+00" cType="1" res="1.9530417630448937e-03" rms="4.6657472848892212e-01" purity="4.9798017740249634e-01" nType="0">
          <Node pos="l" depth="2" NCoef="0" IVar="1" Cut="2.4686828125000000e+05" cType="1" res="-1.0979023500112817e-04" rms="4.6830347180366516e-01" purity="4.8235622048377991e-01" nType="0">
            <Node pos="l" depth="3" NCoef="0" IVar="-1" Cut="0.0000000000000000e+00" cType="1" res="-1.7827581614255905e-03" rms="4.6945896744728088e-01" purity="4.9517193436622620e-01" nType="-99"/>
            <Node pos="r" depth="3" NCoef="0" IVar="-1" Cut="0.0000000000000000e+00" cType="1" res="2.6969740167260170e-02" rms="4.5685964822769165e-01" purity="3.6126294732093811e-01" nType="-99"/>
          </Node>
          <Node pos="r" depth="2" NCoef="0" IVar="6" Cut="1.4919422566890717e-01" cType="1" res="1.8935738131403923e-02" rms="4.5172899961471558e-01" purity="6.2686038017272949e-01" nType="0">
            <Node pos="l" depth="3" NCoef="0" IVar="-1" Cut="0.0000000000000000e+00" cType="1" res="2.5896387174725533e-02" rms="4.4359263777732849e-01" purity="6.5196537971496582e-01" nType="-99"/>
            <Node pos="r" depth="3" NCoef="0" IVar="-1" Cut="0.0000000000000000e+00" cType="1" res="4.7138128429651260e-03" rms="4.6012589335441589e-01" purity="5.9908211231231689e-01" nType="-99"/>
          </Node>
        </Node>
      </Node>
    </BinaryTree>
    <BinaryTree type="DecisionTree" boostWeight="1.0000000000000000e+00" itree="155">
      <Node pos="s" depth="0" NCoef="0" IVar="7" Cut="5.0000000000000000e+00" cType="1" res="2.7596109430305660e-04" rms="4.6722891926765442e-01" purity="5.0706392526626587e-01" nType="0">
        <Node pos="l" depth="1" NCoef="0" IVar="1" Cut="1.9916050000000000e+05" cType="1" res="1.1384853161871433e-02" rms="4.7203630208969116e-01" purity="4.3892884254455566e-01" nType="0">
          <Node pos="l" depth="2" NCoef="0" IVar="5" Cut="1.9441454410552979e+00" cType="1" res="4.5543187297880650e-03" rms="4.7797316312789917e-01" purity="4.6899783611297607e-01" nType="0">
            <Node pos="l" depth="3" NCoef="0" IVar="-1" Cut="0.0000000000000000e+00" cType="1" res="1.1280037462711334e-02" rms="4.7909969091415405e-01" purity="4.6392038464546204e-01" nType="-99"/>
            <Node pos="r" depth="3" NCoef="0" IVar="-1" Cut="0.0000000000000000e+00" cType="1" res="-1.4660973101854324e-02" rms="4.7443097829818726e-01" purity="4.8251301050186157e-01" nType="-99"/>
          </Node>
          <Node pos="r" depth="2" NCoef="0" IVar="8" Cut="4.7325375000000000e+04" cType="1" res="0.0000000000000000e+00" rms="0.0000000000000000e+00" purity="3.3811697363853455e-01" nType="0">
            <Node pos="l" depth="3" NCoef="0" IVar="-1" Cut="0.0000000000000000e+00" cType="1" res="6.8099647760391235e-02" rms="4.3110370635986328e-01" purity="2.7508440613746643e-01" nType="-99"/>
            <Node pos="r" depth="3" NCoef="0" IVar="-1" Cut="0.0000000000000000e+00" cType="1" res="1.9027635455131531e-02" rms="4.6811157464981079e-01" purity="3.9935344457626343e-01" nType="-99"/>
          </Node>
        </Node>
        <Node pos="r" depth="1" NCoef="0" IVar="8" Cut="5.9286343750000000e+04" cType="1" res="-8.4001114591956139e-03" rms="4.6328753232955933e-01" purity="5.6011784076690674e-01" nType="0">
          <Node pos="l" depth="2" NCoef="0" IVar="1" Cut="1.8269654687500000e+05" cType="1" res="0.0000000000000000e+00" rms="0.0000000000000000e+00" purity="4.6261730790138245e-01" nType="0">
            <Node pos="l" depth="3" NCoef="0" IVar="-1" Cut="0.0000000000000000e+00" cType="1" res="1.0449879802763462e-02" rms="4.7727707028388977e-01" purity="5.0508469343185425e-01" nType="-99"/>
            <Node pos="r" depth="3" NCoef="0" IVar="-1" Cut="0.0000000000000000e+00" cType="1" res="-3.9988745003938675e-02" rms="4.5829835534095764e-01" purity="3.2750347256660461e-01" nType="-99"/>
          </Node>
          <Node pos="r" depth="2" NCoef="0" IVar="5" Cut="-2.5428168773651123e+00" cType="1" res="-1.5283270739018917e-02" rms="4.5766541361808777e-01" purity="6.1287438869476318e-01" nType="0">
            <Node pos="l" depth="3" NCoef="0" IVar="-1" Cut="0.0000000000000000e+00" cType="1" res="7.4395630508661270e-03" rms="4.4128262996673584e-01" purity="6.6808867454528809e-01" nType="-99"/>
            <Node pos="r" depth="3" NCoef="0" IVar="-1" Cut="0.0000000000000000e+00" cType="1" res="-2.0215736702084541e-02" rms="4.6112892031669617e-01" purity="6.0048383474349976e-01" nType="-99"/>
          </Node>
        </Node>
      </Node>
    </BinaryTree>
    <BinaryTree type="DecisionTree" boostWeight="1.0000000000000000e+00" itree="156">
      <Node pos="s" depth="0" NCoef="0" IVar="8" Cut="7.6069132812500000e+04" cType="1" res="-5.3673852235078812e-03" rms="4.6286198496818542e-01" purity="4.9754226207733154e-01" nType="0">
        <Node pos="l" depth="1" NCoef="0" IVar="8" Cut="6.8772882812500000e+04" cType="1" res="-1.0482994839549065e-02" rms="4.6632605791091919e-01" purity="4.3320804834365845e-01" nType="0">
          <Node pos="l" depth="2" NCoef="0" IVar="9" Cut="4.5785453125000000e+04" cType="1" res="0.0000000000000000e+00" rms="0.0000000000000000e+00" purity="4.1562417149543762e-01" nType="0">
            <Node pos="l" depth="3" NCoef="0" IVar="-1" Cut="0.0000000000000000e+00" cType="1" res="-8.5822883993387222e-03" rms="4.6630215644836426e-01" purity="3.9298194646835327e-01" nType="-99"/>
            <Node pos="r" depth="3" NCoef="0" IVar="-1" Cut="0.0000000000000000e+00" cType="1" res="-1.8806984880939126e-03" rms="4.6223518252372742e-01" purity="5.0727593898773193e-01" nType="-99"/>
          </Node>
          <Node pos="r" depth="2" NCoef="0" IVar="-1" Cut="0.0000000000000000e+00" cType="1" res="1.6877654939889908e-02" rms="4.7134858369827271e-01" purity="5.7339715957641602e-01" nType="-99"/>
        </Node>
        <Node pos="r" depth="1" NCoef="0" IVar="5" Cut="-7.4810659885406494e-01" cType="1" res="0.0000000000000000e+00" rms="0.0000000000000000e+00" purity="6.3217318058013916e-01" nType="0">
          <Node pos="l" depth="2" NCoef="0" IVar="5" Cut="-2.4580225944519043e+00" cType="1" res="1.8085099756717682e-02" rms="4.5102930068969727e-01" purity="6.4698582887649536e-01" nType="0">
            <Node pos="l" depth="3" NCoef="0" IVar="-1" Cut="0.0000000000000000e+00" cType="1" res="7.8516788780689240e-03" rms="4.4778564572334290e-01" purity="6.4893490076065063e-01" nType="-99"/>
            <Node pos="r" depth="3" NCoef="0" IVar="-1" Cut="0.0000000000000000e+00" cType="1" res="3.0308073386549950e-02" rms="4.5407393574714661e-01" purity="6.4496582746505737e-01" nType="-99"/>
          </Node>
          <Node pos="r" depth="2" NCoef="0" IVar="6" Cut="1.9445481300354004e+00" cType="1" res="-4.8102596774697304e-03" rms="4.5849245786666870e-01" purity="6.2038046121597290e-01" nType="0">
            <Node pos="l" depth="3" NCoef="0" IVar="-1" Cut="0.0000000000000000e+00" cType="1" res="4.0612285956740379e-03" rms="4.4842872023582458e-01" purity="6.4922714233398438e-01" nType="-99"/>
            <Node pos="r" depth="3" NCoef="0" IVar="-1" Cut="0.0000000000000000e+00" cType="1" res="-1.8212119117379189e-02" rms="4.7700917720794678e-01" purity="5.6442737579345703e-01" nType="-99"/>
          </Node>
        </Node>
      </Node>
    </BinaryTree>
    <BinaryTree type="DecisionTree" boostWeight="1.0000000000000000e+00" itree="157">
      <Node pos="s" depth="0" NCoef="0" IVar="6" Cut="1.3464145660400391e+00" cType="1" res="-5.7086357846856117e-03" rms="4.6278309822082520e-01" purity="4.9514687061309814e-01" nType="0">
        <Node pos="l" depth="1" NCoef="0" IVar="9" Cut="8.8840070312500000e+04" cType="1" res="4.1814059950411320e-03" rms="4.6126300096511841e-01" purity="5.2121353149414062e-01" nType="0">
          <Node pos="l" depth="2" NCoef="0" IVar="9" Cut="7.0600273437500000e+04" cType="1" res="2.1059422288089991e-03" rms="4.6541926264762878e-01" purity="4.9936097860336304e-01" nType="0">
            <Node pos="l" depth="3" NCoef="0" IVar="-1" Cut="0.0000000000000000e+00" cType="1" res="5.7872650213539600e-03" rms="4.6616697311401367e-01" purity="4.8552834987640381e-01" nType="-99"/>
            <Node pos="r" depth="3" NCoef="0" IVar="-1" Cut="0.0000000000000000e+00" cType="1" res="-2.0786261186003685e-02" rms="4.5682322978973389e-01" purity="6.3595646619796753e-01" nType="-99"/>
          </Node>
          <Node pos="r" depth="2" NCoef="0" IVar="-1" Cut="0.0000000000000000e+00" cType="1" res="3.2314576208591461e-02" rms="4.1681721806526184e-01" purity="7.3994815349578857e-01" nType="-99"/>
        </Node>
        <Node pos="r" depth="1" NCoef="0" IVar="5" Cut="1.9444295167922974e+00" cType="1" res="-2.1480118855834007e-02" rms="4.6476173400878906e-01" purity="4.5357879996299744e-01" nType="0">
          <Node pos="l" depth="2" NCoef="0" IVar="7" Cut="6.0000000000000000e+00" cType="1" res="0.0000000000000000e+00" rms="0.0000000000000000e+00" purity="4.2477789521217346e-01" nType="0">
            <Node pos="l" depth="3" NCoef="0" IVar="-1" Cut="0.0000000000000000e+00" cType="1" res="-9.2922691255807877e-03" rms="4.6571382880210876e-01" purity="4.2243364453315735e-01" nType="-99"/>
            <Node pos="r" depth="3" NCoef="0" IVar="-1" Cut="0.0000000000000000e+00" cType="1" res="-2.0649696234613657e-03" rms="4.3724778294563293e-01" purity="4.3086516857147217e-01" nType="-99"/>
          </Node>
          <Node pos="r" depth="2" NCoef="0" IVar="6" Cut="2.7140455245971680e+00" cType="1" res="5.8565763756632805e-03" rms="4.7328037023544312e-01" purity="5.0108867883682251e-01" nType="0">
            <Node pos="l" depth="3" NCoef="0" IVar="-1" Cut="0.0000000000000000e+00" cType="1" res="1.4754950068891048e-02" rms="4.6846672892570496e-01" purity="4.8794087767601013e-01" nType="-99"/>
            <Node pos="r" depth="3" NCoef="0" IVar="-1" Cut="0.0000000000000000e+00" cType="1" res="-1.8577318638563156e-02" rms="4.8339256644248962e-01" purity="5.3203099966049194e-01" nType="-99"/>
          </Node>
        </Node>
      </Node>
    </BinaryTree>
    <BinaryTree type="DecisionTree" boostWeight="1.0000000000000000e+00" itree="158">
      <Node pos="s" depth="0" NCoef="0" IVar="6" Cut="1.6455459594726562e+00" cType="1" res="-8.5456995293498039e-03" rms="4.6353468298912048e-01" purity="4.9606838822364807e-01" nType="0">
        <Node pos="l" depth="1" NCoef="0" IVar="3" Cut="6.4684076309204102e+00" cType="1" res="-1.4961905544623733e-03" rms="4.6115019917488098e-01" purity="5.2068376541137695e-01" nType="0">
          <Node pos="l" depth="2" NCoef="0" IVar="2" Cut="1.9946893310546875e+02" cType="1" res="4.5925849117338657e-03" rms="4.6619606018066406e-01" purity="5.2148705720901489e-01" nType="0">
            <Node pos="l" depth="3" NCoef="0" IVar="-1" Cut="0.0000000000000000e+00" cType="1" res="1.6840843483805656e-02" rms="4.6280860900878906e-01" purity="5.5475801229476929e-01" nType="-99"/>
            <Node pos="r" depth="3" NCoef="0" IVar="-1" Cut="0.0000000000000000e+00" cType="1" res="-1.0455171577632427e-02" rms="4.7085443139076233e-01" purity="4.7007927298545837e-01" nType="-99"/>
          </Node>
          <Node pos="r" depth="2" NCoef="0" IVar="5" Cut="4.4963479042053223e-01" cType="1" res="-1.5747657045722008e-02" rms="4.4879537820816040e-01" purity="5.1880359649658203e-01" nType="0">
            <Node pos="l" depth="3" NCoef="0" IVar="-1" Cut="0.0000000000000000e+00" cType="1" res="-3.7708256393671036e-02" rms="4.5256045460700989e-01" purity="4.8482692241668701e-01" nType="-99"/>
            <Node pos="r" depth="3" NCoef="0" IVar="-1" Cut="0.0000000000000000e+00" cType="1" res="1.5172095969319344e-02" rms="4.3906772136688232e-01" purity="5.9436446428298950e-01" nType="-99"/>
          </Node>
        </Node>
        <Node pos="r" depth="1" NCoef="0" IVar="7" Cut="6.0000000000000000e+00" cType="1" res="-2.1274328231811523e-02" rms="4.6753585338592529e-01" purity="4.5158821344375610e-01" nType="0">
          <Node pos="l" depth="2" NCoef="0" IVar="4" Cut="2.2204632759094238e+00" cType="1" res="-1.3338933931663632e-03" rms="4.7345241904258728e-01" purity="4.6187642216682434e-01" nType="0">
            <Node pos="l" depth="3" NCoef="0" IVar="-1" Cut="0.0000000000000000e+00" cType="1" res="9.5944320783019066e-03" rms="4.7645369172096252e-01" purity="4.5875054597854614e-01" nType="-99"/>
            <Node pos="r" depth="3" NCoef="0" IVar="-1" Cut="0.0000000000000000e+00" cType="1" res="-8.9337322860956192e-03" rms="4.6914905309677124e-01" purity="4.6598130464553833e-01" nType="-99"/>
          </Node>
          <Node pos="r" depth="2" NCoef="0" IVar="-1" Cut="0.0000000000000000e+00" cType="1" res="-2.6774969883263111e-03" rms="4.4177550077438354e-01" purity="4.1831833124160767e-01" nType="-99"/>
        </Node>
      </Node>
    </BinaryTree>
    <BinaryTree type="DecisionTree" boostWeight="1.0000000000000000e+00" itree="159">
      <Node pos="s" depth="0" NCoef="0" IVar="7" Cut="7.0000000000000000e+00" cType="1" res="-6.8440483883023262e-03" rms="4.6013495326042175e-01" purity="4.9273350834846497e-01" nType="0">
        <Node pos="l" depth="1" NCoef="0" IVar="5" Cut="-2.2438950538635254e+00" cType="1" res="-2.3966573644429445e-03" rms="4.6505698561668396e-01" purity="4.8855260014533997e-01" nType="0">
          <Node pos="l" depth="2" NCoef="0" IVar="5" Cut="-2.9277751445770264e+00" cType="1" res="-1.7535408958792686e-02" rms="4.6242731809616089e-01" purity="5.0565463304519653e-01" nType="0">
            <Node pos="l" depth="3" NCoef="0" IVar="-1" Cut="0.0000000000000000e+00" cType="1" res="-4.5411661267280579e-03" rms="4.5970723032951355e-01" purity="5.0665795803070068e-01" nType="-99"/>
            <Node pos="r" depth="3" NCoef="0" IVar="-1" Cut="0.0000000000000000e+00" cType="1" res="-4.3730558827519417e-03" rms="4.6252903342247009e-01" purity="5.0536024570465088e-01" nType="-99"/>
          </Node>
          <Node pos="r" depth="2" NCoef="0" IVar="7" Cut="5.0000000000000000e+00" cType="1" res="1.9534802995622158e-03" rms="4.6535292267799377e-01" purity="4.8354846239089966e-01" nType="0">
            <Node pos="l" depth="3" NCoef="0" IVar="-1" Cut="0.0000000000000000e+00" cType="1" res="-2.7577381115406752e-03" rms="4.6543139219284058e-01" purity="4.1487923264503479e-01" nType="-99"/>
            <Node pos="r" depth="3" NCoef="0" IVar="-1" Cut="0.0000000000000000e+00" cType="1" res="1.3107662089169025e-02" rms="4.6585518121719360e-01" purity="5.5453187227249146e-01" nType="-99"/>
          </Node>
        </Node>
        <Node pos="r" depth="1" NCoef="0" IVar="5" Cut="1.0451267957687378e+00" cType="1" res="-3.8128852844238281e-02" rms="4.2263701558113098e-01" purity="5.2211737632751465e-01" nType="0">
          <Node pos="l" depth="2" NCoef="0" IVar="-1" Cut="0.0000000000000000e+00" cType="1" res="9.4209739472717047e-04" rms="4.4349500536918640e-01" purity="6.1202692985534668e-01" nType="-99"/>
          <Node pos="r" depth="2" NCoef="0" IVar="-1" Cut="0.0000000000000000e+00" cType="1" res="-1.2719763908535242e-03" rms="3.9322927594184875e-01" purity="4.2159304022789001e-01" nType="-99"/>
        </Node>
      </Node>
    </BinaryTree>
    <BinaryTree type="DecisionTree" boostWeight="1.0000000000000000e+00" itree="160">
      <Node pos="s" depth="0" NCoef="0" IVar="3" Cut="-3.7233623862266541e-01" cType="1" res="-1.1516055092215538e-02" rms="4.6092140674591064e-01" purity="4.9328139424324036e-01" nType="0">
        <Node pos="l" depth="1" NCoef="0" IVar="-1" Cut="0.0000000000000000e+00" cType="1" res="-4.9386224709451199e-03" rms="4.7147142887115479e-01" purity="3.9301016926765442e-01" nType="-99"/>
        <Node pos="r" depth="1" NCoef="0" IVar="5" Cut="1.0471960306167603e+00" cType="1" res="-9.0452795848250389e-03" rms="4.5967793464660645e-01" purity="5.0432306528091431e-01" nType="0">
          <Node pos="l" depth="2" NCoef="0" IVar="7" Cut="5.0000000000000000e+00" cType="1" res="-1.2518501607701182e-03" rms="4.6278038620948792e-01" purity="5.0717401504516602e-01" nType="0">
            <Node pos="l" depth="3" NCoef="0" IVar="-1" Cut="0.0000000000000000e+00" cType="1" res="-1.2459932826459408e-02" rms="4.6608960628509521e-01" purity="4.1394603252410889e-01" nType="-99"/>
            <Node pos="r" depth="3" NCoef="0" IVar="-1" Cut="0.0000000000000000e+00" cType="1" res="6.0871439054608345e-03" rms="4.6006977558135986e-01" purity="5.7845038175582886e-01" nType="-99"/>
          </Node>
          <Node pos="r" depth="2" NCoef="0" IVar="9" Cut="6.7561937500000000e+04" cType="1" res="0.0000000000000000e+00" rms="0.0000000000000000e+00" purity="5.0015121698379517e-01" nType="0">
            <Node pos="l" depth="3" NCoef="0" IVar="-1" Cut="0.0000000000000000e+00" cType="1" res="-3.2327980734407902e-03" rms="4.6003270149230957e-01" purity="4.5203742384910583e-01" nType="-99"/>
            <Node pos="r" depth="3" NCoef="0" IVar="-1" Cut="0.0000000000000000e+00" cType="1" res="6.9840783253312111e-03" rms="4.3059635162353516e-01" purity="7.0934146642684937e-01" nType="-99"/>
          </Node>
        </Node>
      </Node>
    </BinaryTree>
    <BinaryTree type="DecisionTree" boostWeight="1.0000000000000000e+00" itree="161">
      <Node pos="s" depth="0" NCoef="0" IVar="5" Cut="-1.3463380336761475e+00" cType="1" res="-4.3445639312267303e-03" rms="4.6431687474250793e-01" purity="5.0255954265594482e-01" nType="0">
        <Node pos="l" depth="1" NCoef="0" IVar="3" Cut="9.7226581573486328e+00" cType="1" res="4.0002819150686264e-03" rms="4.6073490381240845e-01" purity="5.3079515695571899e-01" nType="0">
          <Node pos="l" depth="2" NCoef="0" IVar="4" Cut="8.6810290813446045e-01" cType="1" res="-9.5679651712998748e-04" rms="4.6375694870948792e-01" purity="5.2372068166732788e-01" nType="0">
            <Node pos="l" depth="3" NCoef="0" IVar="-1" Cut="0.0000000000000000e+00" cType="1" res="2.6871319860219955e-02" rms="4.5885977149009705e-01" purity="5.3521978855133057e-01" nType="-99"/>
            <Node pos="r" depth="3" NCoef="0" IVar="-1" Cut="0.0000000000000000e+00" cType="1" res="-7.4079870246350765e-03" rms="4.6427720785140991e-01" purity="5.2172422409057617e-01" nType="-99"/>
          </Node>
          <Node pos="r" depth="2" NCoef="0" IVar="-1" Cut="0.0000000000000000e+00" cType="1" res="4.8251692205667496e-02" rms="4.3711075186729431e-01" purity="5.8093756437301636e-01" nType="-99"/>
        </Node>
        <Node pos="r" depth="1" NCoef="0" IVar="1" Cut="2.4686829687500000e+05" cType="1" res="-9.2172445729374886e-03" rms="4.6632665395736694e-01" purity="4.8607239127159119e-01" nType="0">
          <Node pos="l" depth="2" NCoef="0" IVar="6" Cut="-1.3463208675384521e+00" cType="1" res="-6.3604875467717648e-03" rms="4.6825987100601196e-01" purity="5.0214982032775879e-01" nType="0">
            <Node pos="l" depth="3" NCoef="0" IVar="-1" Cut="0.0000000000000000e+00" cType="1" res="-3.1366683542728424e-02" rms="4.7239843010902405e-01" purity="4.7493171691894531e-01" nType="-99"/>
            <Node pos="r" depth="3" NCoef="0" IVar="-1" Cut="0.0000000000000000e+00" cType="1" res="9.2098256573081017e-04" rms="4.6657440066337585e-01" purity="5.1174551248550415e-01" nType="-99"/>
          </Node>
          <Node pos="r" depth="2" NCoef="0" IVar="-1" Cut="0.0000000000000000e+00" cType="1" res="-6.0478594154119492e-02" rms="4.4608873128890991e-01" purity="3.2936576008796692e-01" nType="-99"/>
        </Node>
      </Node>
    </BinaryTree>
    <BinaryTree type="DecisionTree" boostWeight="1.0000000000000000e+00" itree="162">
      <Node pos="s" depth="0" NCoef="0" IVar="7" Cut="7.0000000000000000e+00" cType="1" res="-8.3869295194745064e-03" rms="4.6244323253631592e-01" purity="4.8840379714965820e-01" nType="0">
        <Node pos="l" depth="1" NCoef="0" IVar="5" Cut="-1.9447132349014282e+00" cType="1" res="-2.9979804530739784e-03" rms="4.6681198477745056e-01" purity="4.8480421304702759e-01" nType="0">
          <Node pos="l" depth="2" NCoef="0" IVar="5" Cut="-2.8565537929534912e+00" cType="1" res="-1.1490986682474613e-02" rms="4.6738645434379578e-01" purity="5.1028424501419067e-01" nType="0">
            <Node pos="l" depth="3" NCoef="0" IVar="-1" Cut="0.0000000000000000e+00" cType="1" res="1.2030503712594509e-02" rms="4.5441454648971558e-01" purity="5.7045954465866089e-01" nType="-99"/>
            <Node pos="r" depth="3" NCoef="0" IVar="-1" Cut="0.0000000000000000e+00" cType="1" res="-2.1746464073657990e-02" rms="4.7138148546218872e-01" purity="4.9042487144470215e-01" nType="-99"/>
          </Node>
          <Node pos="r" depth="2" NCoef="0" IVar="6" Cut="-7.4792009592056274e-01" cType="1" res="2.4596464936621487e-04" rms="4.6655160188674927e-01" purity="4.7507196664810181e-01" nType="0">
            <Node pos="l" depth="3" NCoef="0" IVar="-1" Cut="0.0000000000000000e+00" cType="1" res="1.0989927686750889e-02" rms="4.6606102585792542e-01" purity="4.7995820641517639e-01" nType="-99"/>
            <Node pos="r" depth="3" NCoef="0" IVar="-1" Cut="0.0000000000000000e+00" cType="1" res="-5.5384919978678226e-03" rms="4.6672758460044861e-01" purity="4.7237300872802734e-01" nType="-99"/>
          </Node>
        </Node>
        <Node pos="r" depth="1" NCoef="0" IVar="6" Cut="7.4830293655395508e-01" cType="1" res="0.0000000000000000e+00" rms="0.0000000000000000e+00" purity="5.1455897092819214e-01" nType="0">
          <Node pos="l" depth="2" NCoef="0" IVar="-1" Cut="0.0000000000000000e+00" cType="1" res="-7.8556425869464874e-03" rms="4.5024400949478149e-01" purity="6.3416576385498047e-01" nType="-99"/>
          <Node pos="r" depth="2" NCoef="0" IVar="-1" Cut="0.0000000000000000e+00" cType="1" res="-1.3347644126042724e-03" rms="3.9562121033668518e-01" purity="3.8049030303955078e-01" nType="-99"/>
        </Node>
      </Node>
    </BinaryTree>
    <BinaryTree type="DecisionTree" boostWeight="1.0000000000000000e+00" itree="163">
      <Node pos="s" depth="0" NCoef="0" IVar="6" Cut="2.8423922061920166e+00" cType="1" res="-3.5203841980546713e-03" rms="4.6220436692237854e-01" purity="4.9596622586250305e-01" nType="0">
        <Node pos="l" depth="1" NCoef="0" IVar="6" Cut="-1.1469157934188843e+00" cType="1" res="-6.4017330296337605e-03" rms="4.6002534031867981e-01" purity="4.9540928006172180e-01" nType="0">
          <Node pos="l" depth="2" NCoef="0" IVar="6" Cut="-2.9515933990478516e+00" cType="1" res="5.3535304032266140e-03" rms="4.7068992257118225e-01" purity="4.8852527141571045e-01" nType="0">
            <Node pos="l" depth="3" NCoef="0" IVar="-1" Cut="0.0000000000000000e+00" cType="1" res="1.9168036058545113e-02" rms="4.7766095399856567e-01" purity="4.8970940709114075e-01" nType="-99"/>
            <Node pos="r" depth="3" NCoef="0" IVar="-1" Cut="0.0000000000000000e+00" cType="1" res="2.7044613379985094e-03" rms="4.6930867433547974e-01" purity="4.8830190300941467e-01" nType="-99"/>
          </Node>
          <Node pos="r" depth="2" NCoef="0" IVar="4" Cut="2.5295317173004150e+00" cType="1" res="-1.5135633759200573e-02" rms="4.5174086093902588e-01" purity="5.0052398443222046e-01" nType="0">
            <Node pos="l" depth="3" NCoef="0" IVar="-1" Cut="0.0000000000000000e+00" cType="1" res="-3.3507903572171926e-03" rms="4.4918134808540344e-01" purity="4.7993010282516479e-01" nType="-99"/>
            <Node pos="r" depth="3" NCoef="0" IVar="-1" Cut="0.0000000000000000e+00" cType="1" res="4.2888480238616467e-03" rms="4.5720523595809937e-01" purity="5.5142968893051147e-01" nType="-99"/>
          </Node>
        </Node>
        <Node pos="r" depth="1" NCoef="0" IVar="8" Cut="5.2457796875000000e+04" cType="1" res="0.0000000000000000e+00" rms="0.0000000000000000e+00" purity="5.0122249126434326e-01" nType="0">
          <Node pos="l" depth="2" NCoef="0" IVar="-1" Cut="0.0000000000000000e+00" cType="1" res="7.4607647955417633e-02" rms="4.8586097359657288e-01" purity="4.5700061321258545e-01" nType="-99"/>
          <Node pos="r" depth="2" NCoef="0" IVar="-1" Cut="0.0000000000000000e+00" cType="1" res="-9.1291656717658043e-03" rms="4.7459191083908081e-01" purity="5.3989261388778687e-01" nType="-99"/>
        </Node>
      </Node>
    </BinaryTree>
    <BinaryTree type="DecisionTree" boostWeight="1.0000000000000000e+00" itree="164">
      <Node pos="s" depth="0" NCoef="0" IVar="5" Cut="-2.8422935009002686e+00" cType="1" res="-1.5511050587520003e-03" rms="4.6504041552543640e-01" purity="5.0084334611892700e-01" nType="0">
        <Node pos="l" depth="1" NCoef="0" IVar="-1" Cut="0.0000000000000000e+00" cType="1" res="-3.8180581759661436e-03" rms="4.5509228110313416e-01" purity="5.4588568210601807e-01" nType="-99"/>
        <Node pos="r" depth="1" NCoef="0" IVar="4" Cut="1.9284082651138306e+00" cType="1" res="8.8413874618709087e-04" rms="4.6578091382980347e-01" purity="4.9707385897636414e-01" nType="0">
          <Node pos="l" depth="2" NCoef="0" IVar="4" Cut="6.9206887483596802e-01" cType="1" res="6.1306483112275600e-03" rms="4.6556174755096436e-01" purity="4.8240536451339722e-01" nType="0">
            <Node pos="l" depth="3" NCoef="0" IVar="-1" Cut="0.0000000000000000e+00" cType="1" res="3.1298104673624039e-02" rms="4.6219065785408020e-01" purity="4.8923787474632263e-01" nType="-99"/>
            <Node pos="r" depth="3" NCoef="0" IVar="-1" Cut="0.0000000000000000e+00" cType="1" res="1.2855168897658587e-03" rms="4.6615847945213318e-01" purity="4.8095729947090149e-01" nType="-99"/>
          </Node>
          <Node pos="r" depth="2" NCoef="0" IVar="2" Cut="1.9653382873535156e+02" cType="1" res="-4.5353528112173080e-03" rms="4.6594515442848206e-01" purity="5.1222598552703857e-01" nType="0">
            <Node pos="l" depth="3" NCoef="0" IVar="-1" Cut="0.0000000000000000e+00" cType="1" res="6.5188780426979065e-03" rms="4.6415749192237854e-01" purity="5.4291749000549316e-01" nType="-99"/>
            <Node pos="r" depth="3" NCoef="0" IVar="-1" Cut="0.0000000000000000e+00" cType="1" res="-1.2295833788812160e-02" rms="4.6783307194709778e-01" purity="4.7364002466201782e-01" nType="-99"/>
          </Node>
        </Node>
      </Node>
    </BinaryTree>
    <BinaryTree type="DecisionTree" boostWeight="1.0000000000000000e+00" itree="165">
      <Node pos="s" depth="0" NCoef="0" IVar="6" Cut="4.4882720708847046e-01" cType="1" res="-3.1990732531994581e-03" rms="4.6676713228225708e-01" purity="5.0107991695404053e-01" nType="0">
        <Node pos="l" depth="1" NCoef="0" IVar="6" Cut="-2.9705550670623779e+00" cType="1" res="7.7907904051244259e-03" rms="4.6612361073493958e-01" purity="5.1779407262802124e-01" nType="0">
          <Node pos="l" depth="2" NCoef="0" IVar="-1" Cut="0.0000000000000000e+00" cType="1" res="4.7235224395990372e-02" rms="4.7675725817680359e-01" purity="5.2443015575408936e-01" nType="-99"/>
          <Node pos="r" depth="2" NCoef="0" IVar="4" Cut="2.7315621376037598e+00" cType="1" res="2.5156878400593996e-03" rms="4.6448138356208801e-01" purity="5.1694488525390625e-01" nType="0">
            <Node pos="l" depth="3" NCoef="0" IVar="-1" Cut="0.0000000000000000e+00" cType="1" res="1.0068519040942192e-02" rms="4.6481943130493164e-01" purity="5.2522468566894531e-01" nType="-99"/>
            <Node pos="r" depth="3" NCoef="0" IVar="-1" Cut="0.0000000000000000e+00" cType="1" res="-1.4358936809003353e-02" rms="4.6270003914833069e-01" purity="4.8822617530822754e-01" nType="-99"/>
          </Node>
        </Node>
        <Node pos="r" depth="1" NCoef="0" IVar="3" Cut="5.1801962852478027e+00" cType="1" res="-1.5377392061054707e-02" rms="4.6717733144760132e-01" purity="4.8255825042724609e-01" nType="0">
          <Node pos="l" depth="2" NCoef="0" IVar="0" Cut="1.3944156250000000e+05" cType="1" res="-2.9050178825855255e-02" rms="4.7233501076698303e-01" purity="4.6229866147041321e-01" nType="0">
            <Node pos="l" depth="3" NCoef="0" IVar="-1" Cut="0.0000000000000000e+00" cType="1" res="-8.2058226689696312e-03" rms="4.7169551253318787e-01" purity="4.0546911954879761e-01" nType="-99"/>
            <Node pos="r" depth="3" NCoef="0" IVar="-1" Cut="0.0000000000000000e+00" cType="1" res="1.6610503662377596e-03" rms="4.7131845355033875e-01" purity="5.3202569484710693e-01" nType="-99"/>
          </Node>
          <Node pos="r" depth="2" NCoef="0" IVar="5" Cut="1.3460838794708252e+00" cType="1" res="3.5632671788334846e-03" rms="4.5926490426063538e-01" purity="5.1062351465225220e-01" nType="0">
            <Node pos="l" depth="3" NCoef="0" IVar="-1" Cut="0.0000000000000000e+00" cType="1" res="-1.6933163627982140e-02" rms="4.4855374097824097e-01" purity="5.1426202058792114e-01" nType="-99"/>
            <Node pos="r" depth="3" NCoef="0" IVar="-1" Cut="0.0000000000000000e+00" cType="1" res="2.2768881171941757e-02" rms="4.6854570508003235e-01" purity="5.0717830657958984e-01" nType="-99"/>
          </Node>
        </Node>
      </Node>
    </BinaryTree>
    <BinaryTree type="DecisionTree" boostWeight="1.0000000000000000e+00" itree="166">
      <Node pos="s" depth="0" NCoef="0" IVar="4" Cut="8.7630581855773926e-01" cType="1" res="0.0000000000000000e+00" rms="0.0000000000000000e+00" purity="5.0322812795639038e-01" nType="0">
        <Node pos="l" depth="1" NCoef="0" IVar="1" Cut="2.0619993750000000e+05" cType="1" res="-1.9149100407958031e-02" rms="4.5476937294006348e-01" purity="4.5372492074966431e-01" nType="0">
          <Node pos="l" depth="2" NCoef="0" IVar="4" Cut="6.1154234409332275e-01" cType="1" res="-3.0858514830470085e-02" rms="4.5559573173522949e-01" purity="4.8225328326225281e-01" nType="0">
            <Node pos="l" depth="3" NCoef="0" IVar="-1" Cut="0.0000000000000000e+00" cType="1" res="-8.9905364438891411e-03" rms="4.5883911848068237e-01" purity="5.1964253187179565e-01" nType="-99"/>
            <Node pos="r" depth="3" NCoef="0" IVar="-1" Cut="0.0000000000000000e+00" cType="1" res="-1.1786879040300846e-02" rms="4.5256853103637695e-01" purity="4.5569396018981934e-01" nType="-99"/>
          </Node>
          <Node pos="r" depth="2" NCoef="0" IVar="-1" Cut="0.0000000000000000e+00" cType="1" res="1.2609243392944336e-02" rms="4.5147374272346497e-01" purity="3.8411188125610352e-01" nType="-99"/>
        </Node>
        <Node pos="r" depth="1" NCoef="0" IVar="4" Cut="3.3725197315216064e+00" cType="1" res="2.6052375324070454e-03" rms="4.6661999821662903e-01" purity="5.1214033365249634e-01" nType="0">
          <Node pos="l" depth="2" NCoef="0" IVar="4" Cut="2.6584944725036621e+00" cType="1" res="0.0000000000000000e+00" rms="0.0000000000000000e+00" purity="5.2226549386978149e-01" nType="0">
            <Node pos="l" depth="3" NCoef="0" IVar="-1" Cut="0.0000000000000000e+00" cType="1" res="2.5658492813818157e-04" rms="4.6770894527435303e-01" purity="5.1179587841033936e-01" nType="-99"/>
            <Node pos="r" depth="3" NCoef="0" IVar="-1" Cut="0.0000000000000000e+00" cType="1" res="1.6195589676499367e-02" rms="4.6860083937644958e-01" purity="5.4982042312622070e-01" nType="-99"/>
          </Node>
          <Node pos="r" depth="2" NCoef="0" IVar="-1" Cut="0.0000000000000000e+00" cType="1" res="-7.2001754306256771e-03" rms="4.3941882252693176e-01" purity="3.2933160662651062e-01" nType="-99"/>
        </Node>
      </Node>
    </BinaryTree>
    <BinaryTree type="DecisionTree" boostWeight="1.0000000000000000e+00" itree="167">
      <Node pos="s" depth="0" NCoef="0" IVar="4" Cut="1.1040786504745483e+00" cType="1" res="-4.1226451285183430e-03" rms="4.6270051598548889e-01" purity="5.0430047512054443e-01" nType="0">
        <Node pos="l" depth="1" NCoef="0" IVar="9" Cut="4.4285562500000000e+04" cType="1" res="0.0000000000000000e+00" rms="0.0000000000000000e+00" purity="4.4802802801132202e-01" nType="0">
          <Node pos="l" depth="2" NCoef="0" IVar="8" Cut="4.0580937500000000e+04" cType="1" res="-4.1260994970798492e-02" rms="4.3905791640281677e-01" purity="3.0797719955444336e-01" nType="0">
            <Node pos="l" depth="3" NCoef="0" IVar="-1" Cut="0.0000000000000000e+00" cType="1" res="-5.6998254731297493e-03" rms="3.8805803656578064e-01" purity="1.9092985987663269e-01" nType="-99"/>
            <Node pos="r" depth="3" NCoef="0" IVar="-1" Cut="0.0000000000000000e+00" cType="1" res="-2.8753312304615974e-02" rms="4.6592018008232117e-01" purity="3.7872359156608582e-01" nType="-99"/>
          </Node>
          <Node pos="r" depth="2" NCoef="0" IVar="5" Cut="-1.0470277070999146e+00" cType="1" res="-3.5809448454529047e-03" rms="4.5616921782493591e-01" purity="6.1104458570480347e-01" nType="0">
            <Node pos="l" depth="3" NCoef="0" IVar="-1" Cut="0.0000000000000000e+00" cType="1" res="2.2050578147172928e-02" rms="4.4451692700386047e-01" purity="6.4182281494140625e-01" nType="-99"/>
            <Node pos="r" depth="3" NCoef="0" IVar="-1" Cut="0.0000000000000000e+00" cType="1" res="-2.9534643515944481e-02" rms="4.6428680419921875e-01" purity="5.8649134635925293e-01" nType="-99"/>
          </Node>
        </Node>
        <Node pos="r" depth="1" NCoef="0" IVar="9" Cut="8.8839875000000000e+04" cType="1" res="2.2363155148923397e-03" rms="4.6733599901199341e-01" purity="5.2244079113006592e-01" nType="0">
          <Node pos="l" depth="2" NCoef="0" IVar="6" Cut="2.8423943519592285e+00" cType="1" res="4.6690539456903934e-03" rms="4.6919509768486023e-01" purity="5.1052320003509521e-01" nType="0">
            <Node pos="l" depth="3" NCoef="0" IVar="-1" Cut="0.0000000000000000e+00" cType="1" res="1.6777123091742396e-03" rms="4.6794566512107849e-01" purity="5.0764352083206177e-01" nType="-99"/>
            <Node pos="r" depth="3" NCoef="0" IVar="-1" Cut="0.0000000000000000e+00" cType="1" res="2.9254106804728508e-02" rms="4.7876319289207458e-01" purity="5.3426182270050049e-01" nType="-99"/>
          </Node>
          <Node pos="r" depth="2" NCoef="0" IVar="-1" Cut="0.0000000000000000e+00" cType="1" res="-3.9770655333995819e-02" rms="4.3823832273483276e-01" purity="6.9384217262268066e-01" nType="-99"/>
        </Node>
      </Node>
    </BinaryTree>
    <BinaryTree type="DecisionTree" boostWeight="1.0000000000000000e+00" itree="168">
      <Node pos="s" depth="0" NCoef="0" IVar="5" Cut="-2.8422954082489014e+00" cType="1" res="0.0000000000000000e+00" rms="0.0000000000000000e+00" purity="4.9820128083229065e-01" nType="0">
        <Node pos="l" depth="1" NCoef="0" IVar="-1" Cut="0.0000000000000000e+00" cType="1" res="-4.0027559734880924e-03" rms="4.5455840229988098e-01" purity="5.4146379232406616e-01" nType="-99"/>
        <Node pos="r" depth="1" NCoef="0" IVar="4" Cut="2.7333118915557861e+00" cType="1" res="-4.6634408645331860e-03" rms="4.6562528610229492e-01" purity="4.9466452002525330e-01" nType="0">
          <Node pos="l" depth="2" NCoef="0" IVar="6" Cut="4.4878238439559937e-01" cType="1" res="-6.3571229111403227e-04" rms="4.6566751599311829e-01" purity="4.9987542629241943e-01" nType="0">
            <Node pos="l" depth="3" NCoef="0" IVar="-1" Cut="0.0000000000000000e+00" cType="1" res="-8.8652530685067177e-03" rms="4.6426275372505188e-01" purity="5.0571966171264648e-01" nType="-99"/>
            <Node pos="r" depth="3" NCoef="0" IVar="-1" Cut="0.0000000000000000e+00" cType="1" res="4.7703469172120094e-03" rms="4.6699476242065430e-01" purity="4.9357798695564270e-01" nType="-99"/>
          </Node>
          <Node pos="r" depth="2" NCoef="0" IVar="6" Cut="2.2439670562744141e+00" cType="1" res="-1.8360210582613945e-02" rms="4.6522077918052673e-01" purity="4.7694447636604309e-01" nType="0">
            <Node pos="l" depth="3" NCoef="0" IVar="-1" Cut="0.0000000000000000e+00" cType="1" res="-6.8269525654613972e-03" rms="4.6417716145515442e-01" purity="4.9930348992347717e-01" nType="-99"/>
            <Node pos="r" depth="3" NCoef="0" IVar="-1" Cut="0.0000000000000000e+00" cType="1" res="-2.2088218480348587e-02" rms="4.6654394268989563e-01" purity="4.2211082577705383e-01" nType="-99"/>
          </Node>
        </Node>
      </Node>
    </BinaryTree>
    <BinaryTree type="DecisionTree" boostWeight="1.0000000000000000e+00" itree="169">
      <Node pos="s" depth="0" NCoef="0" IVar="5" Cut="-2.8422484397888184e+00" cType="1" res="-5.7167275808751583e-03" rms="4.6237245202064514e-01" purity="4.9463716149330139e-01" nType="0">
        <Node pos="l" depth="1" NCoef="0" IVar="-1" Cut="0.0000000000000000e+00" cType="1" res="-7.3247784748673439e-03" rms="4.5715713500976562e-01" purity="5.1030033826828003e-01" nType="-99"/>
        <Node pos="r" depth="1" NCoef="0" IVar="1" Cut="2.4644434375000000e+05" cType="1" res="-1.4142525615170598e-03" rms="4.6248382329940796e-01" purity="4.9344554543495178e-01" nType="0">
          <Node pos="l" depth="2" NCoef="0" IVar="1" Cut="1.2602210937500000e+05" cType="1" res="-3.5655039828270674e-03" rms="4.6331852674484253e-01" purity="5.0559747219085693e-01" nType="0">
            <Node pos="l" depth="3" NCoef="0" IVar="-1" Cut="0.0000000000000000e+00" cType="1" res="-2.0864030811935663e-03" rms="4.6241793036460876e-01" purity="4.3591320514678955e-01" nType="-99"/>
            <Node pos="r" depth="3" NCoef="0" IVar="-1" Cut="0.0000000000000000e+00" cType="1" res="1.1910066241398454e-03" rms="4.6329092979431152e-01" purity="5.1853442192077637e-01" nType="-99"/>
          </Node>
          <Node pos="r" depth="2" NCoef="0" IVar="4" Cut="1.3616176843643188e+00" cType="1" res="1.9035514444112778e-02" rms="4.5396375656127930e-01" purity="3.7792977690696716e-01" nType="0">
            <Node pos="l" depth="3" NCoef="0" IVar="-1" Cut="0.0000000000000000e+00" cType="1" res="6.0584750026464462e-02" rms="4.5713162422180176e-01" purity="3.8631427288055420e-01" nType="-99"/>
            <Node pos="r" depth="3" NCoef="0" IVar="-1" Cut="0.0000000000000000e+00" cType="1" res="-4.7431257553398609e-03" rms="4.4988974928855896e-01" purity="3.7067213654518127e-01" nType="-99"/>
          </Node>
        </Node>
      </Node>
    </BinaryTree>
    <BinaryTree type="DecisionTree" boostWeight="1.0000000000000000e+00" itree="170">
      <Node pos="s" depth="0" NCoef="0" IVar="5" Cut="2.2440066337585449e+00" cType="1" res="1.6527965199202299e-03" rms="4.6640872955322266e-01" purity="5.0454437732696533e-01" nType="0">
        <Node pos="l" depth="1" NCoef="0" IVar="3" Cut="4.6276650428771973e+00" cType="1" res="-4.1587129235267639e-03" rms="4.6597507596015930e-01" purity="4.8945370316505432e-01" nType="0">
          <Node pos="l" depth="2" NCoef="0" IVar="6" Cut="2.2440359592437744e+00" cType="1" res="-1.3499904423952103e-02" rms="4.7153231501579285e-01" purity="4.6487277746200562e-01" nType="0">
            <Node pos="l" depth="3" NCoef="0" IVar="-1" Cut="0.0000000000000000e+00" cType="1" res="4.6262986143119633e-04" rms="4.7332498431205750e-01" purity="4.9325385689735413e-01" nType="-99"/>
            <Node pos="r" depth="3" NCoef="0" IVar="-1" Cut="0.0000000000000000e+00" cType="1" res="-2.1973438560962677e-03" rms="4.6187734603881836e-01" purity="3.6565652489662170e-01" nType="-99"/>
          </Node>
          <Node pos="r" depth="2" NCoef="0" IVar="2" Cut="3.3781900024414062e+02" cType="1" res="5.3805266506969929e-03" rms="4.6003508567810059e-01" purity="5.1455581188201904e-01" nType="0">
            <Node pos="l" depth="3" NCoef="0" IVar="-1" Cut="0.0000000000000000e+00" cType="1" res="2.2488669492304325e-03" rms="4.5894643664360046e-01" purity="5.0402319431304932e-01" nType="-99"/>
            <Node pos="r" depth="3" NCoef="0" IVar="-1" Cut="0.0000000000000000e+00" cType="1" res="2.3068774491548538e-02" rms="4.6531489491462708e-01" purity="5.7014727592468262e-01" nType="-99"/>
          </Node>
        </Node>
        <Node pos="r" depth="1" NCoef="0" IVar="5" Cut="2.4577586650848389e+00" cType="1" res="2.2747490555047989e-02" rms="4.6737256646156311e-01" purity="5.5932056903839111e-01" nType="0">
          <Node pos="l" depth="2" NCoef="0" IVar="-1" Cut="0.0000000000000000e+00" cType="1" res="6.4749836921691895e-02" rms="4.7586941719055176e-01" purity="5.7291150093078613e-01" nType="-99"/>
          <Node pos="r" depth="2" NCoef="0" IVar="5" Cut="2.7509248256683350e+00" cType="1" res="1.3416615314781666e-02" rms="4.6451818943023682e-01" purity="5.5547994375228882e-01" nType="0">
            <Node pos="l" depth="3" NCoef="0" IVar="-1" Cut="0.0000000000000000e+00" cType="1" res="9.6587155712768435e-04" rms="4.6084591746330261e-01" purity="5.2398538589477539e-01" nType="-99"/>
            <Node pos="r" depth="3" NCoef="0" IVar="-1" Cut="0.0000000000000000e+00" cType="1" res="2.5454174727201462e-02" rms="4.6698424220085144e-01" purity="5.7865166664123535e-01" nType="-99"/>
          </Node>
        </Node>
      </Node>
    </BinaryTree>
    <BinaryTree type="DecisionTree" boostWeight="1.0000000000000000e+00" itree="171">
      <Node pos="s" depth="0" NCoef="0" IVar="4" Cut="2.1933348178863525e+00" cType="1" res="-9.1251078993082047e-03" rms="4.6323525905609131e-01" purity="4.9609407782554626e-01" nType="0">
        <Node pos="l" depth="1" NCoef="0" IVar="6" Cut="-4.4889569282531738e-01" cType="1" res="-1.6168657690286636e-02" rms="4.6213421225547791e-01" purity="4.7092509269714355e-01" nType="0">
          <Node pos="l" depth="2" NCoef="0" IVar="7" Cut="6.0000000000000000e+00" cType="1" res="-3.0347411520779133e-03" rms="4.6994996070861816e-01" purity="4.8285862803459167e-01" nType="0">
            <Node pos="l" depth="3" NCoef="0" IVar="-1" Cut="0.0000000000000000e+00" cType="1" res="9.8178943153470755e-04" rms="4.7074988484382629e-01" purity="4.5508486032485962e-01" nType="-99"/>
            <Node pos="r" depth="3" NCoef="0" IVar="-1" Cut="0.0000000000000000e+00" cType="1" res="-2.0245682448148727e-02" rms="4.6714311838150024e-01" purity="5.7306116819381714e-01" nType="-99"/>
          </Node>
          <Node pos="r" depth="2" NCoef="0" IVar="4" Cut="1.4936118125915527e+00" cType="1" res="-2.6814367622137070e-02" rms="4.5541283488273621e-01" purity="4.6124452352523804e-01" nType="0">
            <Node pos="l" depth="3" NCoef="0" IVar="-1" Cut="0.0000000000000000e+00" cType="1" res="-5.1533905789256096e-03" rms="4.5810750126838684e-01" purity="4.6558332443237305e-01" nType="-99"/>
            <Node pos="r" depth="3" NCoef="0" IVar="-1" Cut="0.0000000000000000e+00" cType="1" res="-2.8391974046826363e-03" rms="4.5010569691658020e-01" purity="4.5396861433982849e-01" nType="-99"/>
          </Node>
        </Node>
        <Node pos="r" depth="1" NCoef="0" IVar="2" Cut="3.4417791748046875e+02" cType="1" res="9.9809188395738602e-04" rms="4.6462619304656982e-01" purity="5.3226768970489502e-01" nType="0">
          <Node pos="l" depth="2" NCoef="0" IVar="7" Cut="6.0000000000000000e+00" cType="1" res="4.3471599929034710e-03" rms="4.6451923251152039e-01" purity="5.3191906213760376e-01" nType="0">
            <Node pos="l" depth="3" NCoef="0" IVar="-1" Cut="0.0000000000000000e+00" cType="1" res="-3.4954202419612557e-05" rms="4.6977093815803528e-01" purity="4.8711344599723816e-01" nType="-99"/>
            <Node pos="r" depth="3" NCoef="0" IVar="-1" Cut="0.0000000000000000e+00" cType="1" res="1.4791016466915607e-02" rms="4.5265242457389832e-01" purity="6.3008344173431396e-01" nType="-99"/>
          </Node>
          <Node pos="r" depth="2" NCoef="0" IVar="-1" Cut="0.0000000000000000e+00" cType="1" res="-1.6928968951106071e-02" rms="4.6475142240524292e-01" purity="5.3442060947418213e-01" nType="-99"/>
        </Node>
      </Node>
    </BinaryTree>
    <BinaryTree type="DecisionTree" boostWeight="1.0000000000000000e+00" itree="172">
      <Node pos="s" depth="0" NCoef="0" IVar="6" Cut="2.2439422607421875e+00" cType="1" res="0.0000000000000000e+00" rms="0.0000000000000000e+00" purity="4.9599400162696838e-01" nType="0">
        <Node pos="l" depth="1" NCoef="0" IVar="4" Cut="1.6400408744812012e+00" cType="1" res="-5.7566990144550800e-03" rms="4.6433734893798828e-01" purity="5.1349622011184692e-01" nType="0">
          <Node pos="l" depth="2" NCoef="0" IVar="3" Cut="1.3169778585433960e+00" cType="1" res="-1.6363902017474174e-02" rms="4.6462070941925049e-01" purity="4.7236984968185425e-01" nType="0">
            <Node pos="l" depth="3" NCoef="0" IVar="-1" Cut="0.0000000000000000e+00" cType="1" res="1.2729288078844547e-02" rms="4.8064994812011719e-01" purity="4.6733438968658447e-01" nType="-99"/>
            <Node pos="r" depth="3" NCoef="0" IVar="-1" Cut="0.0000000000000000e+00" cType="1" res="-2.9526077210903168e-02" rms="4.6076714992523193e-01" purity="4.7346460819244385e-01" nType="-99"/>
          </Node>
          <Node pos="r" depth="2" NCoef="0" IVar="5" Cut="1.3461767435073853e+00" cType="1" res="0.0000000000000000e+00" rms="0.0000000000000000e+00" purity="5.4608553647994995e-01" nType="0">
            <Node pos="l" depth="3" NCoef="0" IVar="-1" Cut="0.0000000000000000e+00" cType="1" res="1.0647568851709366e-02" rms="4.6654677391052246e-01" purity="5.4493433237075806e-01" nType="-99"/>
            <Node pos="r" depth="3" NCoef="0" IVar="-1" Cut="0.0000000000000000e+00" cType="1" res="-1.2735987082123756e-02" rms="4.5759010314941406e-01" purity="5.4872149229049683e-01" nType="-99"/>
          </Node>
        </Node>
        <Node pos="r" depth="1" NCoef="0" IVar="7" Cut="6.0000000000000000e+00" cType="1" res="-2.4408796802163124e-02" rms="4.6627172827720642e-01" purity="4.4788560271263123e-01" nType="0">
          <Node pos="l" depth="2" NCoef="0" IVar="4" Cut="2.5492930412292480e+00" cType="1" res="-3.2280257437378168e-03" rms="4.7197437286376953e-01" purity="4.6418234705924988e-01" nType="0">
            <Node pos="l" depth="3" NCoef="0" IVar="-1" Cut="0.0000000000000000e+00" cType="1" res="1.2135929428040981e-02" rms="4.7355896234512329e-01" purity="4.7678202390670776e-01" nType="-99"/>
            <Node pos="r" depth="3" NCoef="0" IVar="-1" Cut="0.0000000000000000e+00" cType="1" res="-1.2411882169544697e-02" rms="4.6730729937553406e-01" purity="4.3927079439163208e-01" nType="-99"/>
          </Node>
          <Node pos="r" depth="2" NCoef="0" IVar="-1" Cut="0.0000000000000000e+00" cType="1" res="-2.3235336411744356e-03" rms="4.3573877215385437e-01" purity="3.8765540719032288e-01" nType="-99"/>
        </Node>
      </Node>
    </BinaryTree>
    <BinaryTree type="DecisionTree" boostWeight="1.0000000000000000e+00" itree="173">
      <Node pos="s" depth="0" NCoef="0" IVar="6" Cut="2.2439990043640137e+00" cType="1" res="-4.9244822002947330e-03" rms="4.6329611539840698e-01" purity="4.9954932928085327e-01" nType="0">
        <Node pos="l" depth="1" NCoef="0" IVar="2" Cut="1.9402496337890625e+02" cType="1" res="8.6448836373165250e-04" rms="4.6195000410079956e-01" purity="5.1681506633758545e-01" nType="0">
          <Node pos="l" depth="2" NCoef="0" IVar="2" Cut="1.3937840270996094e+02" cType="1" res="-7.6568028889596462e-03" rms="4.5650160312652588e-01" purity="5.3836029767990112e-01" nType="0">
            <Node pos="l" depth="3" NCoef="0" IVar="-1" Cut="0.0000000000000000e+00" cType="1" res="-6.6675916314125061e-02" rms="4.4766783714294434e-01" purity="4.1301876306533813e-01" nType="-99"/>
            <Node pos="r" depth="3" NCoef="0" IVar="-1" Cut="0.0000000000000000e+00" cType="1" res="-3.1160023063421249e-03" rms="4.5729285478591919e-01" purity="5.5344170331954956e-01" nType="-99"/>
          </Node>
          <Node pos="r" depth="2" NCoef="0" IVar="1" Cut="2.0775965625000000e+05" cType="1" res="1.1693406850099564e-02" rms="4.6855899691581726e-01" purity="4.8943522572517395e-01" nType="0">
            <Node pos="l" depth="3" NCoef="0" IVar="-1" Cut="0.0000000000000000e+00" cType="1" res="6.0733780264854431e-03" rms="4.7001916170120239e-01" purity="5.1327526569366455e-01" nType="-99"/>
            <Node pos="r" depth="3" NCoef="0" IVar="-1" Cut="0.0000000000000000e+00" cType="1" res="4.1983965784311295e-02" rms="4.6282523870468140e-01" purity="4.0553176403045654e-01" nType="-99"/>
          </Node>
        </Node>
        <Node pos="r" depth="1" NCoef="0" IVar="3" Cut="5.2446951866149902e+00" cType="1" res="-2.1164759993553162e-02" rms="4.6666857600212097e-01" purity="4.5111224055290222e-01" nType="0">
          <Node pos="l" depth="2" NCoef="0" IVar="1" Cut="1.4283965625000000e+05" cType="1" res="-4.4137999415397644e-02" rms="4.6550306677818298e-01" purity="4.1151067614555359e-01" nType="0">
            <Node pos="l" depth="3" NCoef="0" IVar="-1" Cut="0.0000000000000000e+00" cType="1" res="-2.7439836412668228e-03" rms="4.5334511995315552e-01" purity="3.7883010506629944e-01" nType="-99"/>
            <Node pos="r" depth="3" NCoef="0" IVar="-1" Cut="0.0000000000000000e+00" cType="1" res="-1.2101178057491779e-02" rms="4.7902202606201172e-01" purity="4.5482128858566284e-01" nType="-99"/>
          </Node>
          <Node pos="r" depth="2" NCoef="0" IVar="4" Cut="2.4080369472503662e+00" cType="1" res="4.4944314286112785e-03" rms="4.6663174033164978e-01" purity="4.9534392356872559e-01" nType="0">
            <Node pos="l" depth="3" NCoef="0" IVar="-1" Cut="0.0000000000000000e+00" cType="1" res="1.9836854189634323e-02" rms="4.7012591361999512e-01" purity="4.9763813614845276e-01" nType="-99"/>
            <Node pos="r" depth="3" NCoef="0" IVar="-1" Cut="0.0000000000000000e+00" cType="1" res="-1.5632988885045052e-02" rms="4.5758169889450073e-01" purity="4.9086639285087585e-01" nType="-99"/>
          </Node>
        </Node>
      </Node>
    </BinaryTree>
    <BinaryTree type="DecisionTree" boostWeight="1.0000000000000000e+00" itree="174">
      <Node pos="s" depth="0" NCoef="0" IVar="4" Cut="3.1678779125213623e+00" cType="1" res="-8.0151259899139404e-03" rms="4.6385973691940308e-01" purity="4.9358010292053223e-01" nType="0">
        <Node pos="l" depth="1" NCoef="0" IVar="6" Cut="-1.6455651521682739e+00" cType="1" res="-1.0728837922215462e-02" rms="4.6352574229240417e-01" purity="4.9797314405441284e-01" nType="0">
          <Node pos="l" depth="2" NCoef="0" IVar="4" Cut="1.5514770746231079e+00" cType="1" res="1.6119097126647830e-03" rms="4.7893330454826355e-01" purity="4.7975328564643860e-01" nType="0">
            <Node pos="l" depth="3" NCoef="0" IVar="-1" Cut="0.0000000000000000e+00" cType="1" res="2.0027218386530876e-02" rms="4.7876492142677307e-01" purity="4.5041492581367493e-01" nType="-99"/>
            <Node pos="r" depth="3" NCoef="0" IVar="-1" Cut="0.0000000000000000e+00" cType="1" res="-1.0512334294617176e-02" rms="4.7875878214836121e-01" purity="4.9951905012130737e-01" nType="-99"/>
          </Node>
          <Node pos="r" depth="2" NCoef="0" IVar="4" Cut="1.5578478574752808e+00" cType="1" res="-1.6801496967673302e-02" rms="4.5563006401062012e-01" purity="5.0693875551223755e-01" nType="0">
            <Node pos="l" depth="3" NCoef="0" IVar="-1" Cut="0.0000000000000000e+00" cType="1" res="-3.0920435674488544e-03" rms="4.4957047700881958e-01" purity="4.5055738091468811e-01" nType="-99"/>
            <Node pos="r" depth="3" NCoef="0" IVar="-1" Cut="0.0000000000000000e+00" cType="1" res="-9.4695640727877617e-03" rms="4.6033415198326111e-01" purity="5.5265706777572632e-01" nType="-99"/>
          </Node>
        </Node>
        <Node pos="r" depth="1" NCoef="0" IVar="-1" Cut="0.0000000000000000e+00" cType="1" res="1.9131153821945190e-02" rms="4.6664252877235413e-01" purity="4.4010952115058899e-01" nType="-99"/>
      </Node>
    </BinaryTree>
    <BinaryTree type="DecisionTree" boostWeight="1.0000000000000000e+00" itree="175">
      <Node pos="s" depth="0" NCoef="0" IVar="6" Cut="2.2439949512481689e+00" cType="1" res="-6.5006054937839508e-03" rms="4.6221822500228882e-01" purity="4.9447670578956604e-01" nType="0">
        <Node pos="l" depth="1" NCoef="0" IVar="4" Cut="2.9881145954132080e+00" cType="1" res="-8.4978021914139390e-04" rms="4.6062910556793213e-01" purity="5.1229935884475708e-01" nType="0">
          <Node pos="l" depth="2" NCoef="0" IVar="4" Cut="1.1840331554412842e+00" cType="1" res="2.0657198037952185e-03" rms="4.6035304665565491e-01" purity="5.1722896099090576e-01" nType="0">
            <Node pos="l" depth="3" NCoef="0" IVar="-1" Cut="0.0000000000000000e+00" cType="1" res="-5.0203129649162292e-03" rms="4.5783597230911255e-01" purity="4.6346575021743774e-01" nType="-99"/>
            <Node pos="r" depth="3" NCoef="0" IVar="-1" Cut="0.0000000000000000e+00" cType="1" res="7.7210208401083946e-03" rms="4.6151465177536011e-01" purity="5.4403424263000488e-01" nType="-99"/>
          </Node>
          <Node pos="r" depth="2" NCoef="0" IVar="5" Cut="-1.6458297967910767e+00" cType="1" res="-1.9030895084142685e-02" rms="4.6193191409111023e-01" purity="4.8155808448791504e-01" nType="0">
            <Node pos="l" depth="3" NCoef="0" IVar="-1" Cut="0.0000000000000000e+00" cType="1" res="-5.2793759852647781e-02" rms="4.5819672942161560e-01" purity="4.5837900042533875e-01" nType="-99"/>
            <Node pos="r" depth="3" NCoef="0" IVar="-1" Cut="0.0000000000000000e+00" cType="1" res="5.9085180982947350e-03" rms="4.6318629384040833e-01" purity="4.9876356124877930e-01" nType="-99"/>
          </Node>
        </Node>
        <Node pos="r" depth="1" NCoef="0" IVar="9" Cut="5.5070902343750000e+04" cType="1" res="-2.2214727476239204e-02" rms="4.6624892950057983e-01" purity="4.4491443037986755e-01" nType="0">
          <Node pos="l" depth="2" NCoef="0" IVar="9" Cut="3.0725546875000000e+04" cType="1" res="-9.2976195737719536e-03" rms="4.7521907091140747e-01" purity="4.2840838432312012e-01" nType="0">
            <Node pos="l" depth="3" NCoef="0" IVar="-1" Cut="0.0000000000000000e+00" cType="1" res="5.4990928620100021e-03" rms="4.6475535631179810e-01" purity="3.6306792497634888e-01" nType="-99"/>
            <Node pos="r" depth="3" NCoef="0" IVar="-1" Cut="0.0000000000000000e+00" cType="1" res="-1.2196426279842854e-02" rms="4.8135119676589966e-01" purity="4.6908622980117798e-01" nType="-99"/>
          </Node>
          <Node pos="r" depth="2" NCoef="0" IVar="-1" Cut="0.0000000000000000e+00" cType="1" res="-1.9912049174308777e-03" rms="4.3243688344955444e-01" purity="4.9963927268981934e-01" nType="-99"/>
        </Node>
      </Node>
    </BinaryTree>
    <BinaryTree type="DecisionTree" boostWeight="1.0000000000000000e+00" itree="176">
      <Node pos="s" depth="0" NCoef="0" IVar="6" Cut="1.3464038372039795e+00" cType="1" res="-4.5765270479023457e-03" rms="4.6275690197944641e-01" purity="4.9712961912155151e-01" nType="0">
        <Node pos="l" depth="1" NCoef="0" IVar="4" Cut="5.9092277288436890e-01" cType="1" res="3.7123803049325943e-03" rms="4.6061688661575317e-01" purity="5.2251094579696655e-01" nType="0">
          <Node pos="l" depth="2" NCoef="0" IVar="-1" Cut="0.0000000000000000e+00" cType="1" res="-1.9935810938477516e-02" rms="4.6093723177909851e-01" purity="4.3932360410690308e-01" nType="-99"/>
          <Node pos="r" depth="2" NCoef="0" IVar="4" Cut="8.1772786378860474e-01" cType="1" res="5.9969667345285416e-03" rms="4.6051034331321716e-01" purity="5.2859961986541748e-01" nType="0">
            <Node pos="l" depth="3" NCoef="0" IVar="-1" Cut="0.0000000000000000e+00" cType="1" res="5.2184458822011948e-02" rms="4.6781912446022034e-01" purity="5.1072448492050171e-01" nType="-99"/>
            <Node pos="r" depth="3" NCoef="0" IVar="-1" Cut="0.0000000000000000e+00" cType="1" res="2.8680674731731415e-03" rms="4.5967832207679749e-01" purity="5.3025579452514648e-01" nType="-99"/>
          </Node>
        </Node>
        <Node pos="r" depth="1" NCoef="0" IVar="7" Cut="6.0000000000000000e+00" cType="1" res="-1.8105102702975273e-02" rms="4.6590229868888855e-01" purity="4.5564162731170654e-01" nType="0">
          <Node pos="l" depth="2" NCoef="0" IVar="9" Cut="5.6469863281250000e+04" cType="1" res="-5.8064088225364685e-03" rms="4.6966725587844849e-01" purity="4.5533278584480286e-01" nType="0">
            <Node pos="l" depth="3" NCoef="0" IVar="-1" Cut="0.0000000000000000e+00" cType="1" res="-4.3876469135284424e-04" rms="4.7146609425544739e-01" purity="4.2668497562408447e-01" nType="-99"/>
            <Node pos="r" depth="3" NCoef="0" IVar="-1" Cut="0.0000000000000000e+00" cType="1" res="-1.6834845766425133e-02" rms="4.5845270156860352e-01" purity="6.1569601297378540e-01" nType="-99"/>
          </Node>
          <Node pos="r" depth="2" NCoef="0" IVar="-1" Cut="0.0000000000000000e+00" cType="1" res="-2.0370860584080219e-03" rms="4.5186722278594971e-01" purity="4.5660483837127686e-01" nType="-99"/>
        </Node>
      </Node>
    </BinaryTree>
    <BinaryTree type="DecisionTree" boostWeight="1.0000000000000000e+00" itree="177">
      <Node pos="s" depth="0" NCoef="0" IVar="5" Cut="1.9448388814926147e+00" cType="1" res="-3.3490147907286882e-03" rms="4.6508195996284485e-01" purity="5.0376486778259277e-01" nType="0">
        <Node pos="l" depth="1" NCoef="0" IVar="6" Cut="-1.9447095394134521e+00" cType="1" res="0.0000000000000000e+00" rms="0.0000000000000000e+00" purity="4.9782478809356689e-01" nType="0">
          <Node pos="l" depth="2" NCoef="0" IVar="3" Cut="2.1063923835754395e+00" cType="1" res="0.0000000000000000e+00" rms="0.0000000000000000e+00" purity="4.7466707229614258e-01" nType="0">
            <Node pos="l" depth="3" NCoef="0" IVar="-1" Cut="0.0000000000000000e+00" cType="1" res="3.2865311950445175e-02" rms="4.8194295167922974e-01" purity="4.3952184915542603e-01" nType="-99"/>
            <Node pos="r" depth="3" NCoef="0" IVar="-1" Cut="0.0000000000000000e+00" cType="1" res="2.3045954294502735e-03" rms="4.7862720489501953e-01" purity="4.8456481099128723e-01" nType="-99"/>
          </Node>
          <Node pos="r" depth="2" NCoef="0" IVar="6" Cut="2.4149723052978516e+00" cType="1" res="-3.5718614235520363e-03" rms="4.5809468626976013e-01" purity="5.1174277067184448e-01" nType="0">
            <Node pos="l" depth="3" NCoef="0" IVar="-1" Cut="0.0000000000000000e+00" cType="1" res="-1.0236823000013828e-02" rms="4.5076999068260193e-01" purity="5.3359961509704590e-01" nType="-99"/>
            <Node pos="r" depth="3" NCoef="0" IVar="-1" Cut="0.0000000000000000e+00" cType="1" res="1.3618885539472103e-02" rms="4.7327202558517456e-01" purity="4.6398931741714478e-01" nType="-99"/>
          </Node>
        </Node>
        <Node pos="r" depth="1" NCoef="0" IVar="6" Cut="1.4948295056819916e-01" cType="1" res="-1.5344258397817612e-02" rms="4.6172165870666504e-01" purity="5.1879006624221802e-01" nType="0">
          <Node pos="l" depth="2" NCoef="0" IVar="-1" Cut="0.0000000000000000e+00" cType="1" res="-4.0015637874603271e-02" rms="4.4735765457153320e-01" purity="6.2354528903961182e-01" nType="-99"/>
          <Node pos="r" depth="2" NCoef="0" IVar="6" Cut="2.5713896751403809e+00" cType="1" res="-8.1843715161085129e-03" rms="4.6673852205276489e-01" purity="4.7990337014198303e-01" nType="0">
            <Node pos="l" depth="3" NCoef="0" IVar="-1" Cut="0.0000000000000000e+00" cType="1" res="1.8902177689597011e-03" rms="4.6446681022644043e-01" purity="4.6658846735954285e-01" nType="-99"/>
            <Node pos="r" depth="3" NCoef="0" IVar="-1" Cut="0.0000000000000000e+00" cType="1" res="-1.7098395153880119e-02" rms="4.7102963924407959e-01" purity="5.1009470224380493e-01" nType="-99"/>
          </Node>
        </Node>
      </Node>
    </BinaryTree>
    <BinaryTree type="DecisionTree" boostWeight="1.0000000000000000e+00" itree="178">
      <Node pos="s" depth="0" NCoef="0" IVar="9" Cut="4.5680500000000000e+04" cType="1" res="-6.2180566601455212e-03" rms="4.6117979288101196e-01" purity="4.9396505951881409e-01" nType="0">
        <Node pos="l" depth="1" NCoef="0" IVar="3" Cut="5.1558032035827637e+00" cType="1" res="3.9322469383478165e-03" rms="4.6881818771362305e-01" purity="4.2376038432121277e-01" nType="0">
          <Node pos="l" depth="2" NCoef="0" IVar="8" Cut="4.4325089843750000e+04" cType="1" res="1.0911704972386360e-02" rms="4.7149434685707092e-01" purity="4.3122619390487671e-01" nType="0">
            <Node pos="l" depth="3" NCoef="0" IVar="-1" Cut="0.0000000000000000e+00" cType="1" res="-3.6117754643782973e-04" rms="4.5823085308074951e-01" purity="3.5515844821929932e-01" nType="-99"/>
            <Node pos="r" depth="3" NCoef="0" IVar="-1" Cut="0.0000000000000000e+00" cType="1" res="2.0583210512995720e-02" rms="4.8157268762588501e-01" purity="4.9170705676078796e-01" nType="-99"/>
          </Node>
          <Node pos="r" depth="2" NCoef="0" IVar="9" Cut="3.4846332031250000e+04" cType="1" res="-6.1492007225751877e-03" rms="4.6474042534828186e-01" purity="4.1297641396522522e-01" nType="0">
            <Node pos="l" depth="3" NCoef="0" IVar="-1" Cut="0.0000000000000000e+00" cType="1" res="1.0176328942179680e-02" rms="4.5684400200843811e-01" purity="3.7871423363685608e-01" nType="-99"/>
            <Node pos="r" depth="3" NCoef="0" IVar="-1" Cut="0.0000000000000000e+00" cType="1" res="-3.9577960968017578e-02" rms="4.7694483399391174e-01" purity="4.7136294841766357e-01" nType="-99"/>
          </Node>
        </Node>
        <Node pos="r" depth="1" NCoef="0" IVar="6" Cut="1.9449170827865601e+00" cType="1" res="-1.9657185301184654e-02" rms="4.5051565766334534e-01" purity="5.8691698312759399e-01" nType="0">
          <Node pos="l" depth="2" NCoef="0" IVar="7" Cut="6.0000000000000000e+00" cType="1" res="-1.1027379659935832e-03" rms="4.5391854643821716e-01" purity="6.3630920648574829e-01" nType="0">
            <Node pos="l" depth="3" NCoef="0" IVar="-1" Cut="0.0000000000000000e+00" cType="1" res="-1.2764477171003819e-02" rms="4.6270537376403809e-01" purity="5.9932631254196167e-01" nType="-99"/>
            <Node pos="r" depth="3" NCoef="0" IVar="-1" Cut="0.0000000000000000e+00" cType="1" res="1.3720038346946239e-02" rms="4.4485157728195190e-01" purity="6.7235642671585083e-01" nType="-99"/>
          </Node>
          <Node pos="r" depth="2" NCoef="0" IVar="4" Cut="1.8667832612991333e+00" cType="1" res="0.0000000000000000e+00" rms="0.0000000000000000e+00" purity="4.6534082293510437e-01" nType="0">
            <Node pos="l" depth="3" NCoef="0" IVar="-1" Cut="0.0000000000000000e+00" cType="1" res="-1.7593472730368376e-03" rms="4.1506281495094299e-01" purity="3.9753159880638123e-01" nType="-99"/>
            <Node pos="r" depth="3" NCoef="0" IVar="-1" Cut="0.0000000000000000e+00" cType="1" res="-6.9159897975623608e-03" rms="4.6220940351486206e-01" purity="5.4661577939987183e-01" nType="-99"/>
          </Node>
        </Node>
      </Node>
    </BinaryTree>
    <BinaryTree type="DecisionTree" boostWeight="1.0000000000000000e+00" itree="179">
      <Node pos="s" depth="0" NCoef="0" IVar="3" Cut="1.3169778585433960e+00" cType="1" res="-5.5545102804899216e-03" rms="4.6654123067855835e-01" purity="4.9993360042572021e-01" nType="0">
        <Node pos="l" depth="1" NCoef="0" IVar="1" Cut="1.5600425000000000e+05" cType="1" res="-2.6631385087966919e-02" rms="4.7525963187217712e-01" purity="4.0819901227951050e-01" nType="0">
          <Node pos="l" depth="2" NCoef="0" IVar="3" Cut="-3.1991314888000488e-01" cType="1" res="-3.3824019134044647e-02" rms="4.7273916006088257e-01" purity="3.9772707223892212e-01" nType="0">
            <Node pos="l" depth="3" NCoef="0" IVar="-1" Cut="0.0000000000000000e+00" cType="1" res="-3.7571035325527191e-02" rms="4.6570232510566711e-01" purity="3.6774471402168274e-01" nType="-99"/>
            <Node pos="r" depth="3" NCoef="0" IVar="-1" Cut="0.0000000000000000e+00" cType="1" res="-1.9022559747099876e-02" rms="4.8045682907104492e-01" purity="4.3276518583297729e-01" nType="-99"/>
          </Node>
          <Node pos="r" depth="2" NCoef="0" IVar="-1" Cut="0.0000000000000000e+00" cType="1" res="-1.5502606518566608e-02" rms="4.7974547743797302e-01" purity="4.2823874950408936e-01" nType="-99"/>
        </Node>
        <Node pos="r" depth="1" NCoef="0" IVar="3" Cut="8.2798290252685547e+00" cType="1" res="0.0000000000000000e+00" rms="0.0000000000000000e+00" purity="5.2138298749923706e-01" nType="0">
          <Node pos="l" depth="2" NCoef="0" IVar="4" Cut="2.5437150001525879e+00" cType="1" res="2.0900324452668428e-03" rms="4.6862706542015076e-01" purity="5.2793896198272705e-01" nType="0">
            <Node pos="l" depth="3" NCoef="0" IVar="-1" Cut="0.0000000000000000e+00" cType="1" res="-3.4623364917933941e-03" rms="4.6824771165847778e-01" purity="5.1490682363510132e-01" nType="-99"/>
            <Node pos="r" depth="3" NCoef="0" IVar="-1" Cut="0.0000000000000000e+00" cType="1" res="1.9601851701736450e-02" rms="4.6918258070945740e-01" purity="5.5889683961868286e-01" nType="-99"/>
          </Node>
          <Node pos="r" depth="2" NCoef="0" IVar="1" Cut="2.4550284375000000e+05" cType="1" res="0.0000000000000000e+00" rms="0.0000000000000000e+00" purity="5.0124013423919678e-01" nType="0">
            <Node pos="l" depth="3" NCoef="0" IVar="-1" Cut="0.0000000000000000e+00" cType="1" res="-4.9930713139474392e-03" rms="4.5386338233947754e-01" purity="5.5681073665618896e-01" nType="-99"/>
            <Node pos="r" depth="3" NCoef="0" IVar="-1" Cut="0.0000000000000000e+00" cType="1" res="-4.0281280875205994e-02" rms="4.4032311439514160e-01" purity="3.2083070278167725e-01" nType="-99"/>
          </Node>
        </Node>
      </Node>
    </BinaryTree>
    <BinaryTree type="DecisionTree" boostWeight="1.0000000000000000e+00" itree="180">
      <Node pos="s" depth="0" NCoef="0" IVar="4" Cut="5.9231549501419067e-01" cType="1" res="-3.2977855880744755e-04" rms="4.6280997991561890e-01" purity="5.0044363737106323e-01" nType="0">
        <Node pos="l" depth="1" NCoef="0" IVar="-1" Cut="0.0000000000000000e+00" cType="1" res="3.4841738641262054e-02" rms="4.6233898401260376e-01" purity="5.0178444385528564e-01" nType="-99"/>
        <Node pos="r" depth="1" NCoef="0" IVar="6" Cut="1.6456104516983032e+00" cType="1" res="0.0000000000000000e+00" rms="0.0000000000000000e+00" purity="5.0035691261291504e-01" nType="0">
          <Node pos="l" depth="2" NCoef="0" IVar="6" Cut="-2.4576668739318848e+00" cType="1" res="3.5198358818888664e-03" rms="4.6099472045898438e-01" purity="5.2345341444015503e-01" nType="0">
            <Node pos="l" depth="3" NCoef="0" IVar="-1" Cut="0.0000000000000000e+00" cType="1" res="-1.2171631678938866e-02" rms="4.7627407312393188e-01" purity="4.7121310234069824e-01" nType="-99"/>
            <Node pos="r" depth="3" NCoef="0" IVar="-1" Cut="0.0000000000000000e+00" cType="1" res="7.1121789515018463e-03" rms="4.5374733209609985e-01" purity="5.4719644784927368e-01" nType="-99"/>
          </Node>
          <Node pos="r" depth="2" NCoef="0" IVar="5" Cut="1.6447508335113525e+00" cType="1" res="-1.2800930067896843e-02" rms="4.6573877334594727e-01" purity="4.5908400416374207e-01" nType="0">
            <Node pos="l" depth="3" NCoef="0" IVar="-1" Cut="0.0000000000000000e+00" cType="1" res="-2.4371852632611990e-03" rms="4.5553016662597656e-01" purity="4.2170956730842590e-01" nType="-99"/>
            <Node pos="r" depth="3" NCoef="0" IVar="-1" Cut="0.0000000000000000e+00" cType="1" res="5.1272702403366566e-03" rms="4.7634875774383545e-01" purity="5.0164115428924561e-01" nType="-99"/>
          </Node>
        </Node>
      </Node>
    </BinaryTree>
    <BinaryTree type="DecisionTree" boostWeight="1.0000000000000000e+00" itree="181">
      <Node pos="s" depth="0" NCoef="0" IVar="8" Cut="7.6069132812500000e+04" cType="1" res="-5.4366430267691612e-03" rms="4.6116369962692261e-01" purity="4.9630293250083923e-01" nType="0">
        <Node pos="l" depth="1" NCoef="0" IVar="5" Cut="-1.6455287933349609e+00" cType="1" res="-1.1447368189692497e-02" rms="4.6551433205604553e-01" purity="4.3131372332572937e-01" nType="0">
          <Node pos="l" depth="2" NCoef="0" IVar="5" Cut="-2.5716111660003662e+00" cType="1" res="-8.9724484132602811e-04" rms="4.6757596731185913e-01" purity="4.6245509386062622e-01" nType="0">
            <Node pos="l" depth="3" NCoef="0" IVar="-1" Cut="0.0000000000000000e+00" cType="1" res="-2.4923190474510193e-02" rms="4.5909431576728821e-01" purity="4.5498776435852051e-01" nType="-99"/>
            <Node pos="r" depth="3" NCoef="0" IVar="-1" Cut="0.0000000000000000e+00" cType="1" res="1.3136268593370914e-02" rms="4.7213408350944519e-01" purity="4.6695622801780701e-01" nType="-99"/>
          </Node>
          <Node pos="r" depth="2" NCoef="0" IVar="8" Cut="4.9342894531250000e+04" cType="1" res="0.0000000000000000e+00" rms="0.0000000000000000e+00" purity="4.1797921061515808e-01" nType="0">
            <Node pos="l" depth="3" NCoef="0" IVar="-1" Cut="0.0000000000000000e+00" cType="1" res="-2.2357925772666931e-02" rms="4.5862415432929993e-01" purity="3.4302350878715515e-01" nType="-99"/>
            <Node pos="r" depth="3" NCoef="0" IVar="-1" Cut="0.0000000000000000e+00" cType="1" res="-7.2654138784855604e-04" rms="4.7045353055000305e-01" purity="4.9582424759864807e-01" nType="-99"/>
          </Node>
        </Node>
        <Node pos="r" depth="1" NCoef="0" IVar="4" Cut="2.9165210723876953e+00" cType="1" res="6.9026574492454529e-03" rms="4.5185071229934692e-01" purity="6.2971788644790649e-01" nType="0">
          <Node pos="l" depth="2" NCoef="0" IVar="7" Cut="5.0000000000000000e+00" cType="1" res="1.4223834499716759e-02" rms="4.5178920030593872e-01" purity="6.5061920881271362e-01" nType="0">
            <Node pos="l" depth="3" NCoef="0" IVar="-1" Cut="0.0000000000000000e+00" cType="1" res="5.0561815500259399e-02" rms="4.7123825550079346e-01" purity="6.0400235652923584e-01" nType="-99"/>
            <Node pos="r" depth="3" NCoef="0" IVar="-1" Cut="0.0000000000000000e+00" cType="1" res="6.4949570223689079e-03" rms="4.4519659876823425e-01" purity="6.6531145572662354e-01" nType="-99"/>
          </Node>
          <Node pos="r" depth="2" NCoef="0" IVar="-1" Cut="0.0000000000000000e+00" cType="1" res="-6.6014202311635017e-03" rms="4.5064848661422729e-01" purity="5.3672260046005249e-01" nType="-99"/>
        </Node>
      </Node>
    </BinaryTree>
    <BinaryTree type="DecisionTree" boostWeight="1.0000000000000000e+00" itree="182">
      <Node pos="s" depth="0" NCoef="0" IVar="7" Cut="7.0000000000000000e+00" cType="1" res="-4.1545815765857697e-03" rms="4.6148240566253662e-01" purity="4.9643322825431824e-01" nType="0">
        <Node pos="l" depth="1" NCoef="0" IVar="4" Cut="6.1763131618499756e-01" cType="1" res="3.4341576974838972e-04" rms="4.6550181508064270e-01" purity="4.9200305342674255e-01" nType="0">
          <Node pos="l" depth="2" NCoef="0" IVar="-1" Cut="0.0000000000000000e+00" cType="1" res="-2.3413268849253654e-02" rms="4.5348817110061646e-01" purity="4.3568900227546692e-01" nType="-99"/>
          <Node pos="r" depth="2" NCoef="0" IVar="4" Cut="3.0080015659332275e+00" cType="1" res="2.4873889051377773e-03" rms="4.6633669734001160e-01" purity="4.9630185961723328e-01" nType="0">
            <Node pos="l" depth="3" NCoef="0" IVar="-1" Cut="0.0000000000000000e+00" cType="1" res="-4.7920117503963411e-04" rms="4.6662375330924988e-01" purity="5.0000727176666260e-01" nType="-99"/>
            <Node pos="r" depth="3" NCoef="0" IVar="-1" Cut="0.0000000000000000e+00" cType="1" res="1.1554131284356117e-02" rms="4.6430251002311707e-01" purity="4.7476175427436829e-01" nType="-99"/>
          </Node>
        </Node>
        <Node pos="r" depth="1" NCoef="0" IVar="6" Cut="7.4796861410140991e-01" cType="1" res="-3.6590155214071274e-02" rms="4.3000027537345886e-01" purity="5.2837926149368286e-01" nType="0">
          <Node pos="l" depth="2" NCoef="0" IVar="-1" Cut="0.0000000000000000e+00" cType="1" res="4.1264135506935418e-04" rms="4.5569688081741333e-01" purity="6.5243542194366455e-01" nType="-99"/>
          <Node pos="r" depth="2" NCoef="0" IVar="-1" Cut="0.0000000000000000e+00" cType="1" res="-1.1783405207097530e-03" rms="3.9601421356201172e-01" purity="3.9242312312126160e-01" nType="-99"/>
        </Node>
      </Node>
    </BinaryTree>
    <BinaryTree type="DecisionTree" boostWeight="1.0000000000000000e+00" itree="183">
      <Node pos="s" depth="0" NCoef="0" IVar="7" Cut="7.0000000000000000e+00" cType="1" res="-3.0228293035179377e-03" rms="4.6347689628601074e-01" purity="4.9824747443199158e-01" nType="0">
        <Node pos="l" depth="1" NCoef="0" IVar="4" Cut="6.2436825037002563e-01" cType="1" res="6.3574896194040775e-04" rms="4.6647533774375916e-01" purity="4.9060153961181641e-01" nType="0">
          <Node pos="l" depth="2" NCoef="0" IVar="-1" Cut="0.0000000000000000e+00" cType="1" res="-4.4123202562332153e-02" rms="4.5734238624572754e-01" purity="4.2264652252197266e-01" nType="-99"/>
          <Node pos="r" depth="2" NCoef="0" IVar="3" Cut="1.2183589935302734e+01" cType="1" res="3.3235081937164068e-03" rms="4.6704635024070740e-01" purity="4.9572494626045227e-01" nType="0">
            <Node pos="l" depth="3" NCoef="0" IVar="-1" Cut="0.0000000000000000e+00" cType="1" res="1.0128801222890615e-03" rms="4.6790364384651184e-01" purity="4.9397113919258118e-01" nType="-99"/>
            <Node pos="r" depth="3" NCoef="0" IVar="-1" Cut="0.0000000000000000e+00" cType="1" res="4.1128236800432205e-02" rms="4.5387759804725647e-01" purity="5.1999241113662720e-01" nType="-99"/>
          </Node>
        </Node>
        <Node pos="r" depth="1" NCoef="0" IVar="2" Cut="1.7522909545898438e+02" cType="1" res="-3.1689517199993134e-02" rms="4.3840232491493225e-01" purity="5.5792135000228882e-01" nType="0">
          <Node pos="l" depth="2" NCoef="0" IVar="-1" Cut="0.0000000000000000e+00" cType="1" res="-5.5228159762918949e-03" rms="4.4359505176544189e-01" purity="6.4103174209594727e-01" nType="-99"/>
          <Node pos="r" depth="2" NCoef="0" IVar="-1" Cut="0.0000000000000000e+00" cType="1" res="-1.6909728292375803e-03" rms="4.3128150701522827e-01" purity="4.7319114208221436e-01" nType="-99"/>
        </Node>
      </Node>
    </BinaryTree>
    <BinaryTree type="DecisionTree" boostWeight="1.0000000000000000e+00" itree="184">
      <Node pos="s" depth="0" NCoef="0" IVar="7" Cut="6.0000000000000000e+00" cType="1" res="-7.2525213472545147e-03" rms="4.6108543872833252e-01" purity="4.9180233478546143e-01" nType="0">
        <Node pos="l" depth="1" NCoef="0" IVar="4" Cut="1.7840456962585449e+00" cType="1" res="-1.1260914616286755e-03" rms="4.6693083643913269e-01" purity="4.6952310204505920e-01" nType="0">
          <Node pos="l" depth="2" NCoef="0" IVar="5" Cut="1.3458865880966187e+00" cType="1" res="-9.4805536791682243e-03" rms="4.6257036924362183e-01" purity="4.3323114514350891e-01" nType="0">
            <Node pos="l" depth="3" NCoef="0" IVar="-1" Cut="0.0000000000000000e+00" cType="1" res="-1.7870144918560982e-02" rms="4.6082293987274170e-01" purity="4.1305255889892578e-01" nType="-99"/>
            <Node pos="r" depth="3" NCoef="0" IVar="-1" Cut="0.0000000000000000e+00" cType="1" res="2.6104771532118320e-03" rms="4.6538737416267395e-01" purity="4.6871408820152283e-01" nType="-99"/>
          </Node>
          <Node pos="r" depth="2" NCoef="0" IVar="5" Cut="2.2433328628540039e+00" cType="1" res="6.0446397401392460e-03" rms="4.7052296996116638e-01" purity="5.0067293643951416e-01" nType="0">
            <Node pos="l" depth="3" NCoef="0" IVar="-1" Cut="0.0000000000000000e+00" cType="1" res="1.0206640698015690e-02" rms="4.7232538461685181e-01" purity="5.0101411342620850e-01" nType="-99"/>
            <Node pos="r" depth="3" NCoef="0" IVar="-1" Cut="0.0000000000000000e+00" cType="1" res="-9.0691242367029190e-03" rms="4.6354731917381287e-01" purity="4.9949049949645996e-01" nType="-99"/>
          </Node>
        </Node>
        <Node pos="r" depth="1" NCoef="0" IVar="6" Cut="2.2438778877258301e+00" cType="1" res="-2.2912651300430298e-02" rms="4.4541412591934204e-01" purity="5.4874801635742188e-01" nType="0">
          <Node pos="l" depth="2" NCoef="0" IVar="4" Cut="1.7459987401962280e+00" cType="1" res="-1.7839843640103936e-03" rms="4.5254909992218018e-01" purity="6.1074995994567871e-01" nType="0">
            <Node pos="l" depth="3" NCoef="0" IVar="-1" Cut="0.0000000000000000e+00" cType="1" res="1.3608720153570175e-02" rms="4.5732143521308899e-01" purity="6.0089725255966187e-01" nType="-99"/>
            <Node pos="r" depth="3" NCoef="0" IVar="-1" Cut="0.0000000000000000e+00" cType="1" res="-1.1289814487099648e-02" rms="4.4865545630455017e-01" purity="6.1817008256912231e-01" nType="-99"/>
          </Node>
          <Node pos="r" depth="2" NCoef="0" IVar="-1" Cut="0.0000000000000000e+00" cType="1" res="-1.4154325472190976e-03" rms="4.1542184352874756e-01" purity="3.5472092032432556e-01" nType="-99"/>
        </Node>
      </Node>
    </BinaryTree>
    <BinaryTree type="DecisionTree" boostWeight="1.0000000000000000e+00" itree="185">
      <Node pos="s" depth="0" NCoef="0" IVar="4" Cut="6.0419583320617676e-01" cType="1" res="7.0514128310605884e-04" rms="4.6553578972816467e-01" purity="5.0387340784072876e-01" nType="0">
        <Node pos="l" depth="1" NCoef="0" IVar="-1" Cut="0.0000000000000000e+00" cType="1" res="1.4638630673289299e-02" rms="4.6132364869117737e-01" purity="4.7612076997756958e-01" nType="-99"/>
        <Node pos="r" depth="1" NCoef="0" IVar="4" Cut="8.4409391880035400e-01" cType="1" res="-1.3095540925860405e-03" rms="4.6578574180603027e-01" purity="5.0594377517700195e-01" nType="0">
          <Node pos="l" depth="2" NCoef="0" IVar="-1" Cut="0.0000000000000000e+00" cType="1" res="-3.8271725177764893e-02" rms="4.6204549074172974e-01" purity="4.3788525462150574e-01" nType="-99"/>
          <Node pos="r" depth="2" NCoef="0" IVar="4" Cut="3.1287744045257568e+00" cType="1" res="1.0364733170717955e-03" rms="4.6604993939399719e-01" purity="5.1207768917083740e-01" nType="0">
            <Node pos="l" depth="3" NCoef="0" IVar="-1" Cut="0.0000000000000000e+00" cType="1" res="4.5138285495340824e-03" rms="4.6777769923210144e-01" purity="5.2451074123382568e-01" nType="-99"/>
            <Node pos="r" depth="3" NCoef="0" IVar="-1" Cut="0.0000000000000000e+00" cType="1" res="-1.0412518866360188e-02" rms="4.5054700970649719e-01" purity="4.0813302993774414e-01" nType="-99"/>
          </Node>
        </Node>
      </Node>
    </BinaryTree>
    <BinaryTree type="DecisionTree" boostWeight="1.0000000000000000e+00" itree="186">
      <Node pos="s" depth="0" NCoef="0" IVar="4" Cut="1.3868926763534546e+00" cType="1" res="0.0000000000000000e+00" rms="0.0000000000000000e+00" purity="5.1003783941268921e-01" nType="0">
        <Node pos="l" depth="1" NCoef="0" IVar="1" Cut="1.7492465625000000e+05" cType="1" res="1.7017854377627373e-02" rms="4.5691457390785217e-01" purity="4.8221388459205627e-01" nType="0">
          <Node pos="l" depth="2" NCoef="0" IVar="1" Cut="1.4353757812500000e+05" cType="1" res="0.0000000000000000e+00" rms="0.0000000000000000e+00" purity="5.4062581062316895e-01" nType="0">
            <Node pos="l" depth="3" NCoef="0" IVar="-1" Cut="0.0000000000000000e+00" cType="1" res="4.1288703680038452e-02" rms="4.6971198916435242e-01" purity="5.5188041925430298e-01" nType="-99"/>
            <Node pos="r" depth="3" NCoef="0" IVar="-1" Cut="0.0000000000000000e+00" cType="1" res="8.9089097455143929e-03" rms="4.5956790447235107e-01" purity="5.2395206689834595e-01" nType="-99"/>
          </Node>
          <Node pos="r" depth="2" NCoef="0" IVar="4" Cut="9.5645236968994141e-01" cType="1" res="0.0000000000000000e+00" rms="0.0000000000000000e+00" purity="3.9260384440422058e-01" nType="0">
            <Node pos="l" depth="3" NCoef="0" IVar="-1" Cut="0.0000000000000000e+00" cType="1" res="2.3123972117900848e-02" rms="4.4709673523902893e-01" purity="4.1276559233665466e-01" nType="-99"/>
            <Node pos="r" depth="3" NCoef="0" IVar="-1" Cut="0.0000000000000000e+00" cType="1" res="-2.2836592048406601e-02" rms="4.3429759144783020e-01" purity="3.6191695928573608e-01" nType="-99"/>
          </Node>
        </Node>
        <Node pos="r" depth="1" NCoef="0" IVar="4" Cut="3.1570782661437988e+00" cType="1" res="-3.3733686432242393e-03" rms="4.6829330921173096e-01" purity="5.2453726530075073e-01" nType="0">
          <Node pos="l" depth="2" NCoef="0" IVar="4" Cut="1.5556646585464478e+00" cType="1" res="-8.3707096055150032e-03" rms="4.6817034482955933e-01" purity="5.3117477893829346e-01" nType="0">
            <Node pos="l" depth="3" NCoef="0" IVar="-1" Cut="0.0000000000000000e+00" cType="1" res="-2.0805533975362778e-02" rms="4.6864870190620422e-01" purity="4.6328082680702209e-01" nType="-99"/>
            <Node pos="r" depth="3" NCoef="0" IVar="-1" Cut="0.0000000000000000e+00" cType="1" res="-6.4624468795955181e-03" rms="4.6805340051651001e-01" purity="5.3812998533248901e-01" nType="-99"/>
          </Node>
          <Node pos="r" depth="2" NCoef="0" IVar="-1" Cut="0.0000000000000000e+00" cType="1" res="3.1783014535903931e-02" rms="4.6760275959968567e-01" purity="4.7672247886657715e-01" nType="-99"/>
        </Node>
      </Node>
    </BinaryTree>
    <BinaryTree type="DecisionTree" boostWeight="1.0000000000000000e+00" itree="187">
      <Node pos="s" depth="0" NCoef="0" IVar="7" Cut="7.0000000000000000e+00" cType="1" res="-1.1811318108811975e-03" rms="4.6075448393821716e-01" purity="4.9969360232353210e-01" nType="0">
        <Node pos="l" depth="1" NCoef="0" IVar="6" Cut="-2.2439594268798828e+00" cType="1" res="3.3489160705357790e-03" rms="4.6534797549247742e-01" purity="4.9580925703048706e-01" nType="0">
          <Node pos="l" depth="2" NCoef="0" IVar="6" Cut="-2.6714453697204590e+00" cType="1" res="-1.8143843859434128e-02" rms="4.7464951872825623e-01" purity="4.5737218856811523e-01" nType="0">
            <Node pos="l" depth="3" NCoef="0" IVar="-1" Cut="0.0000000000000000e+00" cType="1" res="-3.2265756279230118e-02" rms="4.7253474593162537e-01" purity="4.5033153891563416e-01" nType="-99"/>
            <Node pos="r" depth="3" NCoef="0" IVar="-1" Cut="0.0000000000000000e+00" cType="1" res="-4.0826997719705105e-03" rms="4.7735834121704102e-01" purity="4.6763008832931519e-01" nType="-99"/>
          </Node>
          <Node pos="r" depth="2" NCoef="0" IVar="6" Cut="2.8851459026336670e+00" cType="1" res="1.0910495184361935e-02" rms="4.6179315447807312e-01" purity="5.0933223962783813e-01" nType="0">
            <Node pos="l" depth="3" NCoef="0" IVar="-1" Cut="0.0000000000000000e+00" cType="1" res="1.3687969185411930e-02" rms="4.5966663956642151e-01" purity="5.1556545495986938e-01" nType="-99"/>
            <Node pos="r" depth="3" NCoef="0" IVar="-1" Cut="0.0000000000000000e+00" cType="1" res="-2.2844430059194565e-02" rms="4.7433155775070190e-01" purity="4.6487653255462646e-01" nType="-99"/>
          </Node>
        </Node>
        <Node pos="r" depth="1" NCoef="0" IVar="3" Cut="4.1443743705749512e+00" cType="1" res="-3.3681049942970276e-02" rms="4.2498701810836792e-01" purity="5.2753883600234985e-01" nType="0">
          <Node pos="l" depth="2" NCoef="0" IVar="-1" Cut="0.0000000000000000e+00" cType="1" res="-1.3431872939690948e-03" rms="4.1472861170768738e-01" purity="3.8921341300010681e-01" nType="-99"/>
          <Node pos="r" depth="2" NCoef="0" IVar="-1" Cut="0.0000000000000000e+00" cType="1" res="1.8667941913008690e-02" rms="4.3097427487373352e-01" purity="6.8208432197570801e-01" nType="-99"/>
        </Node>
      </Node>
    </BinaryTree>
    <BinaryTree type="DecisionTree" boostWeight="1.0000000000000000e+00" itree="188">
      <Node pos="s" depth="0" NCoef="0" IVar="7" Cut="6.0000000000000000e+00" cType="1" res="-8.6863273754715919e-03" rms="4.6281069517135620e-01" purity="4.9401870369911194e-01" nType="0">
        <Node pos="l" depth="1" NCoef="0" IVar="2" Cut="2.1755102539062500e+02" cType="1" res="1.6974662430584431e-03" rms="4.6677407622337341e-01" purity="4.7320872545242310e-01" nType="0">
          <Node pos="l" depth="2" NCoef="0" IVar="4" Cut="2.7436120510101318e+00" cType="1" res="0.0000000000000000e+00" rms="0.0000000000000000e+00" purity="4.7442203760147095e-01" nType="0">
            <Node pos="l" depth="3" NCoef="0" IVar="-1" Cut="0.0000000000000000e+00" cType="1" res="1.1549708433449268e-02" rms="4.6771067380905151e-01" purity="4.7671377658843994e-01" nType="-99"/>
            <Node pos="r" depth="3" NCoef="0" IVar="-1" Cut="0.0000000000000000e+00" cType="1" res="-1.0347379371523857e-02" rms="4.6418488025665283e-01" purity="4.6569868922233582e-01" nType="-99"/>
          </Node>
          <Node pos="r" depth="2" NCoef="0" IVar="9" Cut="4.5126128906250000e+04" cType="1" res="-1.1995485052466393e-02" rms="4.6597400307655334e-01" purity="4.7150200605392456e-01" nType="0">
            <Node pos="l" depth="3" NCoef="0" IVar="-1" Cut="0.0000000000000000e+00" cType="1" res="-2.8568783774971962e-02" rms="4.6313220262527466e-01" purity="3.8317975401878357e-01" nType="-99"/>
            <Node pos="r" depth="3" NCoef="0" IVar="-1" Cut="0.0000000000000000e+00" cType="1" res="1.2869446538388729e-02" rms="4.6920487284660339e-01" purity="6.0358256101608276e-01" nType="-99"/>
          </Node>
        </Node>
        <Node pos="r" depth="1" NCoef="0" IVar="8" Cut="6.0799410156250000e+04" cType="1" res="-3.5170525312423706e-02" rms="4.5146551728248596e-01" purity="5.4709374904632568e-01" nType="0">
          <Node pos="l" depth="2" NCoef="0" IVar="-1" Cut="0.0000000000000000e+00" cType="1" res="-4.3499977327883244e-03" rms="4.6651041507720947e-01" purity="4.1029044985771179e-01" nType="-99"/>
          <Node pos="r" depth="2" NCoef="0" IVar="4" Cut="1.7779613733291626e+00" cType="1" res="-2.1853866055607796e-02" rms="4.4472861289978027e-01" purity="6.0065549612045288e-01" nType="0">
            <Node pos="l" depth="3" NCoef="0" IVar="-1" Cut="0.0000000000000000e+00" cType="1" res="-2.5973997544497252e-03" rms="4.4091206789016724e-01" purity="5.3611350059509277e-01" nType="-99"/>
            <Node pos="r" depth="3" NCoef="0" IVar="-1" Cut="0.0000000000000000e+00" cType="1" res="6.9464421831071377e-03" rms="4.4662556052207947e-01" purity="6.6243219375610352e-01" nType="-99"/>
          </Node>
        </Node>
      </Node>
    </BinaryTree>
    <BinaryTree type="DecisionTree" boostWeight="1.0000000000000000e+00" itree="189">
      <Node pos="s" depth="0" NCoef="0" IVar="9" Cut="4.4406082031250000e+04" cType="1" res="-1.7817397601902485e-03" rms="4.6457549929618835e-01" purity="5.0160419940948486e-01" nType="0">
        <Node pos="l" depth="1" NCoef="0" IVar="9" Cut="3.2392865234375000e+04" cType="1" res="0.0000000000000000e+00" rms="0.0000000000000000e+00" purity="4.2231044173240662e-01" nType="0">
          <Node pos="l" depth="2" NCoef="0" IVar="3" Cut="8.4265098571777344e+00" cType="1" res="9.9440023768693209e-04" rms="4.5711278915405273e-01" purity="3.5307642817497253e-01" nType="0">
            <Node pos="l" depth="3" NCoef="0" IVar="-1" Cut="0.0000000000000000e+00" cType="1" res="-6.7190863192081451e-03" rms="4.5672917366027832e-01" purity="3.4900698065757751e-01" nType="-99"/>
            <Node pos="r" depth="3" NCoef="0" IVar="-1" Cut="0.0000000000000000e+00" cType="1" res="5.6475955992937088e-02" rms="4.5650655031204224e-01" purity="3.6941945552825928e-01" nType="-99"/>
          </Node>
          <Node pos="r" depth="2" NCoef="0" IVar="5" Cut="-1.3460047245025635e+00" cType="1" res="1.8292805179953575e-02" rms="4.8181098699569702e-01" purity="4.9553301930427551e-01" nType="0">
            <Node pos="l" depth="3" NCoef="0" IVar="-1" Cut="0.0000000000000000e+00" cType="1" res="-2.0391291473060846e-03" rms="4.8008877038955688e-01" purity="4.9154379963874817e-01" nType="-99"/>
            <Node pos="r" depth="3" NCoef="0" IVar="-1" Cut="0.0000000000000000e+00" cType="1" res="3.2856408506631851e-02" rms="4.8240640759468079e-01" purity="4.9775862693786621e-01" nType="-99"/>
          </Node>
        </Node>
        <Node pos="r" depth="1" NCoef="0" IVar="5" Cut="-1.9447767734527588e+00" cType="1" res="-1.6064541414380074e-02" rms="4.5799779891967773e-01" purity="6.0287559032440186e-01" nType="0">
          <Node pos="l" depth="2" NCoef="0" IVar="9" Cut="7.1433687500000000e+04" cType="1" res="1.9259675173088908e-03" rms="4.5786270499229431e-01" purity="6.4059090614318848e-01" nType="0">
            <Node pos="l" depth="3" NCoef="0" IVar="-1" Cut="0.0000000000000000e+00" cType="1" res="1.6121748834848404e-02" rms="4.6464079618453979e-01" purity="6.1490458250045776e-01" nType="-99"/>
            <Node pos="r" depth="3" NCoef="0" IVar="-1" Cut="0.0000000000000000e+00" cType="1" res="-4.0285479277372360e-02" rms="4.4342672824859619e-01" purity="6.8909996747970581e-01" nType="-99"/>
          </Node>
          <Node pos="r" depth="2" NCoef="0" IVar="5" Cut="1.6883149147033691e+00" cType="1" res="-2.3779928684234619e-02" rms="4.5783919095993042e-01" purity="5.8670103549957275e-01" nType="0">
            <Node pos="l" depth="3" NCoef="0" IVar="-1" Cut="0.0000000000000000e+00" cType="1" res="-3.0104164034128189e-03" rms="4.5864990353584290e-01" purity="5.3811454772949219e-01" nType="-99"/>
            <Node pos="r" depth="3" NCoef="0" IVar="-1" Cut="0.0000000000000000e+00" cType="1" res="-6.6327792592346668e-03" rms="4.5655408501625061e-01" purity="6.3392984867095947e-01" nType="-99"/>
          </Node>
        </Node>
      </Node>
    </BinaryTree>
    <BinaryTree type="DecisionTree" boostWeight="1.0000000000000000e+00" itree="190">
      <Node pos="s" depth="0" NCoef="0" IVar="3" Cut="1.3069732189178467e+00" cType="1" res="-7.9295495525002480e-03" rms="4.6438327431678772e-01" purity="5.0095808506011963e-01" nType="0">
        <Node pos="l" depth="1" NCoef="0" IVar="1" Cut="1.5313517187500000e+05" cType="1" res="0.0000000000000000e+00" rms="0.0000000000000000e+00" purity="4.0512567758560181e-01" nType="0">
          <Node pos="l" depth="2" NCoef="0" IVar="6" Cut="4.4830951094627380e-01" cType="1" res="-5.3903754800558090e-02" rms="4.7211095690727234e-01" purity="3.7616074085235596e-01" nType="0">
            <Node pos="l" depth="3" NCoef="0" IVar="-1" Cut="0.0000000000000000e+00" cType="1" res="-5.4893800988793373e-03" rms="4.7528472542762756e-01" purity="4.2067626118659973e-01" nType="-99"/>
            <Node pos="r" depth="3" NCoef="0" IVar="-1" Cut="0.0000000000000000e+00" cType="1" res="-5.2639748901128769e-03" rms="4.6404102444648743e-01" purity="3.3231645822525024e-01" nType="-99"/>
          </Node>
          <Node pos="r" depth="2" NCoef="0" IVar="-1" Cut="0.0000000000000000e+00" cType="1" res="1.5072068199515343e-02" rms="4.7155818343162537e-01" purity="4.5509967207908630e-01" nType="-99"/>
        </Node>
        <Node pos="r" depth="1" NCoef="0" IVar="4" Cut="2.1933348178863525e+00" cType="1" res="-3.4138562623411417e-03" rms="4.6215343475341797e-01" purity="5.2360564470291138e-01" nType="0">
          <Node pos="l" depth="2" NCoef="0" IVar="7" Cut="5.0000000000000000e+00" cType="1" res="3.0294514726847410e-03" rms="4.6102866530418396e-01" purity="5.0667071342468262e-01" nType="0">
            <Node pos="l" depth="3" NCoef="0" IVar="-1" Cut="0.0000000000000000e+00" cType="1" res="-5.3302692249417305e-03" rms="4.6216613054275513e-01" purity="4.1036719083786011e-01" nType="-99"/>
            <Node pos="r" depth="3" NCoef="0" IVar="-1" Cut="0.0000000000000000e+00" cType="1" res="9.9056782200932503e-03" rms="4.6005555987358093e-01" purity="5.8283925056457520e-01" nType="-99"/>
          </Node>
          <Node pos="r" depth="2" NCoef="0" IVar="5" Cut="-2.2439544200897217e+00" cType="1" res="-1.2820605188608170e-02" rms="4.6362036466598511e-01" purity="5.4838156700134277e-01" nType="0">
            <Node pos="l" depth="3" NCoef="0" IVar="-1" Cut="0.0000000000000000e+00" cType="1" res="1.2317213229835033e-02" rms="4.6055638790130615e-01" purity="6.0097146034240723e-01" nType="-99"/>
            <Node pos="r" depth="3" NCoef="0" IVar="-1" Cut="0.0000000000000000e+00" cType="1" res="-1.5573215670883656e-02" rms="4.6427607536315918e-01" purity="5.3394705057144165e-01" nType="-99"/>
          </Node>
        </Node>
      </Node>
    </BinaryTree>
    <BinaryTree type="DecisionTree" boostWeight="1.0000000000000000e+00" itree="191">
      <Node pos="s" depth="0" NCoef="0" IVar="6" Cut="-2.5431571006774902e+00" cType="1" res="0.0000000000000000e+00" rms="0.0000000000000000e+00" purity="4.9961870908737183e-01" nType="0">
        <Node pos="l" depth="1" NCoef="0" IVar="5" Cut="-2.2439060211181641e+00" cType="1" res="1.9406674429774284e-02" rms="4.7660872340202332e-01" purity="4.8520091176033020e-01" nType="0">
          <Node pos="l" depth="2" NCoef="0" IVar="-1" Cut="0.0000000000000000e+00" cType="1" res="1.1146044562337920e-04" rms="4.7492945194244385e-01" purity="5.2231562137603760e-01" nType="-99"/>
          <Node pos="r" depth="2" NCoef="0" IVar="3" Cut="5.1214923858642578e+00" cType="1" res="2.6324491947889328e-02" rms="4.7701847553253174e-01" purity="4.7190961241722107e-01" nType="0">
            <Node pos="l" depth="3" NCoef="0" IVar="-1" Cut="0.0000000000000000e+00" cType="1" res="3.2350517809391022e-02" rms="4.8443463444709778e-01" purity="4.7074392437934875e-01" nType="-99"/>
            <Node pos="r" depth="3" NCoef="0" IVar="-1" Cut="0.0000000000000000e+00" cType="1" res="1.9490906968712807e-02" rms="4.7040241956710815e-01" purity="4.7291216254234314e-01" nType="-99"/>
          </Node>
        </Node>
        <Node pos="r" depth="1" NCoef="0" IVar="6" Cut="1.5174059867858887e+00" cType="1" res="-1.1197289451956749e-02" rms="4.5945459604263306e-01" purity="5.0290596485137939e-01" nType="0">
          <Node pos="l" depth="2" NCoef="0" IVar="2" Cut="3.0355285644531250e+02" cType="1" res="-3.1623772811144590e-03" rms="4.5567518472671509e-01" purity="5.3915435075759888e-01" nType="0">
            <Node pos="l" depth="3" NCoef="0" IVar="-1" Cut="0.0000000000000000e+00" cType="1" res="1.6295278910547495e-03" rms="4.5369696617126465e-01" purity="5.5347490310668945e-01" nType="-99"/>
            <Node pos="r" depth="3" NCoef="0" IVar="-1" Cut="0.0000000000000000e+00" cType="1" res="-2.5774748995900154e-02" rms="4.6724179387092590e-01" purity="4.4586265087127686e-01" nType="-99"/>
          </Node>
          <Node pos="r" depth="2" NCoef="0" IVar="5" Cut="1.4953382313251495e-01" cType="1" res="-2.1210158243775368e-02" rms="4.6392661333084106e-01" purity="4.5773425698280334e-01" nType="0">
            <Node pos="l" depth="3" NCoef="0" IVar="-1" Cut="0.0000000000000000e+00" cType="1" res="3.2375622540712357e-03" rms="4.5900011062622070e-01" purity="5.7038229703903198e-01" nType="-99"/>
            <Node pos="r" depth="3" NCoef="0" IVar="-1" Cut="0.0000000000000000e+00" cType="1" res="-3.4167976118624210e-03" rms="4.6505618095397949e-01" purity="4.2666482925415039e-01" nType="-99"/>
          </Node>
        </Node>
      </Node>
    </BinaryTree>
    <BinaryTree type="DecisionTree" boostWeight="1.0000000000000000e+00" itree="192">
      <Node pos="s" depth="0" NCoef="0" IVar="6" Cut="2.2439949512481689e+00" cType="1" res="-1.1713185347616673e-02" rms="4.6289291977882385e-01" purity="4.9443444609642029e-01" nType="0">
        <Node pos="l" depth="1" NCoef="0" IVar="5" Cut="-1.9445713758468628e+00" cType="1" res="-4.7113955952227116e-03" rms="4.6136370301246643e-01" purity="5.1650458574295044e-01" nType="0">
          <Node pos="l" depth="2" NCoef="0" IVar="8" Cut="5.8840191406250000e+04" cType="1" res="1.2776026502251625e-02" rms="4.6320006251335144e-01" purity="5.4878860712051392e-01" nType="0">
            <Node pos="l" depth="3" NCoef="0" IVar="-1" Cut="0.0000000000000000e+00" cType="1" res="3.7858385592699051e-02" rms="4.7152876853942871e-01" purity="4.5834442973136902e-01" nType="-99"/>
            <Node pos="r" depth="3" NCoef="0" IVar="-1" Cut="0.0000000000000000e+00" cType="1" res="-4.8475165385752916e-04" rms="4.5716637372970581e-01" purity="6.0822248458862305e-01" nType="-99"/>
          </Node>
          <Node pos="r" depth="2" NCoef="0" IVar="3" Cut="4.4895386695861816e+00" cType="1" res="0.0000000000000000e+00" rms="0.0000000000000000e+00" purity="4.9987569451332092e-01" nType="0">
            <Node pos="l" depth="3" NCoef="0" IVar="-1" Cut="0.0000000000000000e+00" cType="1" res="-1.3650218956172466e-02" rms="4.6743640303611755e-01" purity="4.7121775150299072e-01" nType="-99"/>
            <Node pos="r" depth="3" NCoef="0" IVar="-1" Cut="0.0000000000000000e+00" cType="1" res="-1.1090181214967743e-04" rms="4.5214813947677612e-01" purity="5.2931863069534302e-01" nType="-99"/>
          </Node>
        </Node>
        <Node pos="r" depth="1" NCoef="0" IVar="3" Cut="3.1599407196044922e+00" cType="1" res="-3.1160971149802208e-02" rms="4.6656325459480286e-01" purity="4.3313369154930115e-01" nType="0">
          <Node pos="l" depth="2" NCoef="0" IVar="-1" Cut="0.0000000000000000e+00" cType="1" res="-2.4644315708428621e-03" rms="4.4514843821525574e-01" purity="3.3845409750938416e-01" nType="-99"/>
          <Node pos="r" depth="2" NCoef="0" IVar="6" Cut="2.5432384014129639e+00" cType="1" res="-5.0315684638917446e-03" rms="4.7551968693733215e-01" purity="4.8357644677162170e-01" nType="0">
            <Node pos="l" depth="3" NCoef="0" IVar="-1" Cut="0.0000000000000000e+00" cType="1" res="2.5330940261483192e-02" rms="4.7429269552230835e-01" purity="5.2103525400161743e-01" nType="-99"/>
            <Node pos="r" depth="3" NCoef="0" IVar="-1" Cut="0.0000000000000000e+00" cType="1" res="-1.2448373250663280e-02" rms="4.7536075115203857e-01" purity="4.7126778960227966e-01" nType="-99"/>
          </Node>
        </Node>
      </Node>
    </BinaryTree>
    <BinaryTree type="DecisionTree" boostWeight="1.0000000000000000e+00" itree="193">
      <Node pos="s" depth="0" NCoef="0" IVar="4" Cut="2.9881145954132080e+00" cType="1" res="-8.7922047823667526e-03" rms="4.6526467800140381e-01" purity="4.9640804529190063e-01" nType="0">
        <Node pos="l" depth="1" NCoef="0" IVar="5" Cut="1.9445316791534424e+00" cType="1" res="-1.4741197228431702e-02" rms="4.6436455845832825e-01" purity="4.9435901641845703e-01" nType="0">
          <Node pos="l" depth="2" NCoef="0" IVar="7" Cut="6.0000000000000000e+00" cType="1" res="-2.1416874602437019e-02" rms="4.6311324834823608e-01" purity="4.7572323679924011e-01" nType="0">
            <Node pos="l" depth="3" NCoef="0" IVar="-1" Cut="0.0000000000000000e+00" cType="1" res="-1.0442590340971947e-02" rms="4.6696546673774719e-01" purity="4.5231717824935913e-01" nType="-99"/>
            <Node pos="r" depth="3" NCoef="0" IVar="-1" Cut="0.0000000000000000e+00" cType="1" res="-2.7604151982814074e-03" rms="4.5244958996772766e-01" purity="5.3607881069183350e-01" nType="-99"/>
          </Node>
          <Node pos="r" depth="2" NCoef="0" IVar="4" Cut="9.0637439489364624e-01" cType="1" res="2.7416823431849480e-03" rms="4.6717306971549988e-01" purity="5.4315990209579468e-01" nType="0">
            <Node pos="l" depth="3" NCoef="0" IVar="-1" Cut="0.0000000000000000e+00" cType="1" res="2.2770572453737259e-02" rms="4.6396937966346741e-01" purity="5.2905082702636719e-01" nType="-99"/>
            <Node pos="r" depth="3" NCoef="0" IVar="-1" Cut="0.0000000000000000e+00" cType="1" res="-1.9833883270621300e-03" rms="4.6792927384376526e-01" purity="5.4702883958816528e-01" nType="-99"/>
          </Node>
        </Node>
        <Node pos="r" depth="1" NCoef="0" IVar="9" Cut="4.5688000000000000e+04" cType="1" res="2.8668032959103584e-02" rms="4.6916338801383972e-01" purity="5.0931042432785034e-01" nType="0">
          <Node pos="l" depth="2" NCoef="0" IVar="5" Cut="-1.5110120177268982e-01" cType="1" res="4.2440004646778107e-02" rms="4.7052291035652161e-01" purity="4.4620466232299805e-01" nType="0">
            <Node pos="l" depth="3" NCoef="0" IVar="-1" Cut="0.0000000000000000e+00" cType="1" res="2.9805963858962059e-02" rms="4.7227150201797485e-01" purity="4.3483677506446838e-01" nType="-99"/>
            <Node pos="r" depth="3" NCoef="0" IVar="-1" Cut="0.0000000000000000e+00" cType="1" res="5.5291265249252319e-02" rms="4.6865236759185791e-01" purity="4.5772367715835571e-01" nType="-99"/>
          </Node>
          <Node pos="r" depth="2" NCoef="0" IVar="-1" Cut="0.0000000000000000e+00" cType="1" res="1.0734722949564457e-02" rms="4.6651026606559753e-01" purity="5.9944194555282593e-01" nType="-99"/>
        </Node>
      </Node>
    </BinaryTree>
    <BinaryTree type="DecisionTree" boostWeight="1.0000000000000000e+00" itree="194">
      <Node pos="s" depth="0" NCoef="0" IVar="6" Cut="2.8423943519592285e+00" cType="1" res="-6.6316029988229275e-03" rms="4.6307364106178284e-01" purity="4.9917191267013550e-01" nType="0">
        <Node pos="l" depth="1" NCoef="0" IVar="3" Cut="4.6276650428771973e+00" cType="1" res="-8.9288894087076187e-03" rms="4.6115374565124512e-01" purity="4.9826002120971680e-01" nType="0">
          <Node pos="l" depth="2" NCoef="0" IVar="6" Cut="2.2718520164489746e+00" cType="1" res="-1.4832568354904652e-02" rms="4.6685203909873962e-01" purity="4.7303444147109985e-01" nType="0">
            <Node pos="l" depth="3" NCoef="0" IVar="-1" Cut="0.0000000000000000e+00" cType="1" res="-6.0968389734625816e-03" rms="4.6800851821899414e-01" purity="4.9426716566085815e-01" nType="-99"/>
            <Node pos="r" depth="3" NCoef="0" IVar="-1" Cut="0.0000000000000000e+00" cType="1" res="-2.2476392332464457e-03" rms="4.5967254042625427e-01" purity="3.7312105298042297e-01" nType="-99"/>
          </Node>
          <Node pos="r" depth="2" NCoef="0" IVar="8" Cut="9.1920101562500000e+04" cType="1" res="-1.9170780433341861e-03" rms="4.5419335365295410e-01" purity="5.2822041511535645e-01" nType="0">
            <Node pos="l" depth="3" NCoef="0" IVar="-1" Cut="0.0000000000000000e+00" cType="1" res="-8.2611897960305214e-03" rms="4.6308773756027222e-01" purity="4.6841540932655334e-01" nType="-99"/>
            <Node pos="r" depth="3" NCoef="0" IVar="-1" Cut="0.0000000000000000e+00" cType="1" res="1.5453895553946495e-02" rms="4.2514497041702271e-01" purity="7.1345567703247070e-01" nType="-99"/>
          </Node>
        </Node>
        <Node pos="r" depth="1" NCoef="0" IVar="5" Cut="1.0466938018798828e+00" cType="1" res="1.4411645941436291e-02" rms="4.7979125380516052e-01" purity="5.0752520561218262e-01" nType="0">
          <Node pos="l" depth="2" NCoef="0" IVar="-1" Cut="0.0000000000000000e+00" cType="1" res="5.2459468133747578e-03" rms="4.7623789310455322e-01" purity="4.5489826798439026e-01" nType="-99"/>
          <Node pos="r" depth="2" NCoef="0" IVar="-1" Cut="0.0000000000000000e+00" cType="1" res="2.6391008868813515e-02" rms="4.8390987515449524e-01" purity="5.7299250364303589e-01" nType="-99"/>
        </Node>
      </Node>
    </BinaryTree>
    <BinaryTree type="DecisionTree" boostWeight="1.0000000000000000e+00" itree="195">
      <Node pos="s" depth="0" NCoef="0" IVar="5" Cut="-1.9446723461151123e+00" cType="1" res="-6.0103684663772583e-03" rms="4.6297007799148560e-01" purity="4.9712008237838745e-01" nType="0">
        <Node pos="l" depth="1" NCoef="0" IVar="4" Cut="1.7954026460647583e+00" cType="1" res="0.0000000000000000e+00" rms="0.0000000000000000e+00" purity="5.1522082090377808e-01" nType="0">
          <Node pos="l" depth="2" NCoef="0" IVar="3" Cut="3.3043951988220215e+00" cType="1" res="9.2158373445272446e-04" rms="4.6148246526718140e-01" purity="5.1853090524673462e-01" nType="0">
            <Node pos="l" depth="3" NCoef="0" IVar="-1" Cut="0.0000000000000000e+00" cType="1" res="2.6156440377235413e-02" rms="4.7228458523750305e-01" purity="5.1249212026596069e-01" nType="-99"/>
            <Node pos="r" depth="3" NCoef="0" IVar="-1" Cut="0.0000000000000000e+00" cType="1" res="-1.8598508089780807e-02" rms="4.5317095518112183e-01" purity="5.2276891469955444e-01" nType="-99"/>
          </Node>
          <Node pos="r" depth="2" NCoef="0" IVar="9" Cut="3.9925976562500000e+04" cType="1" res="0.0000000000000000e+00" rms="0.0000000000000000e+00" purity="5.1251852512359619e-01" nType="0">
            <Node pos="l" depth="3" NCoef="0" IVar="-1" Cut="0.0000000000000000e+00" cType="1" res="-1.7024777829647064e-02" rms="4.7779718041419983e-01" purity="4.3830606341362000e-01" nType="-99"/>
            <Node pos="r" depth="3" NCoef="0" IVar="-1" Cut="0.0000000000000000e+00" cType="1" res="-7.7520264312624931e-03" rms="4.5734363794326782e-01" purity="5.6323385238647461e-01" nType="-99"/>
          </Node>
        </Node>
        <Node pos="r" depth="1" NCoef="0" IVar="6" Cut="1.9448007345199585e+00" cType="1" res="-2.0602661606972106e-05" rms="4.6223190426826477e-01" purity="4.9027675390243530e-01" nType="0">
          <Node pos="l" depth="2" NCoef="0" IVar="5" Cut="-1.4602155685424805e+00" cType="1" res="6.7457850091159344e-03" rms="4.5892754197120667e-01" purity="5.1943403482437134e-01" nType="0">
            <Node pos="l" depth="3" NCoef="0" IVar="-1" Cut="0.0000000000000000e+00" cType="1" res="-1.0148998349905014e-02" rms="4.5982694625854492e-01" purity="4.7980701923370361e-01" nType="-99"/>
            <Node pos="r" depth="3" NCoef="0" IVar="-1" Cut="0.0000000000000000e+00" cType="1" res="7.8435121104121208e-03" rms="4.5866900682449341e-01" purity="5.2639323472976685e-01" nType="-99"/>
          </Node>
          <Node pos="r" depth="2" NCoef="0" IVar="4" Cut="1.6394854784011841e+00" cType="1" res="-1.0646728798747063e-02" rms="4.6717628836631775e-01" purity="4.4448724389076233e-01" nType="0">
            <Node pos="l" depth="3" NCoef="0" IVar="-1" Cut="0.0000000000000000e+00" cType="1" res="-1.8968308577314019e-03" rms="4.5521152019500732e-01" purity="3.9667922258377075e-01" nType="-99"/>
            <Node pos="r" depth="3" NCoef="0" IVar="-1" Cut="0.0000000000000000e+00" cType="1" res="2.0720758475363255e-03" rms="4.7483482956886292e-01" purity="4.7789248824119568e-01" nType="-99"/>
          </Node>
        </Node>
      </Node>
    </BinaryTree>
    <BinaryTree type="DecisionTree" boostWeight="1.0000000000000000e+00" itree="196">
      <Node pos="s" depth="0" NCoef="0" IVar="4" Cut="1.3996062278747559e+00" cType="1" res="-5.8127217926084995e-03" rms="4.6370556950569153e-01" purity="5.0403642654418945e-01" nType="0">
        <Node pos="l" depth="1" NCoef="0" IVar="4" Cut="1.0839281082153320e+00" cType="1" res="0.0000000000000000e+00" rms="0.0000000000000000e+00" purity="4.6191161870956421e-01" nType="0">
          <Node pos="l" depth="2" NCoef="0" IVar="9" Cut="5.4970441406250000e+04" cType="1" res="-9.9429581314325333e-03" rms="4.6052110195159912e-01" purity="4.6477535367012024e-01" nType="0">
            <Node pos="l" depth="3" NCoef="0" IVar="-1" Cut="0.0000000000000000e+00" cType="1" res="-3.9535234682261944e-03" rms="4.6226388216018677e-01" purity="3.8506412506103516e-01" nType="-99"/>
            <Node pos="r" depth="3" NCoef="0" IVar="-1" Cut="0.0000000000000000e+00" cType="1" res="-2.8531597927212715e-02" rms="4.5664590597152710e-01" purity="6.2614953517913818e-01" nType="-99"/>
          </Node>
          <Node pos="r" depth="2" NCoef="0" IVar="7" Cut="5.0000000000000000e+00" cType="1" res="-2.5753039866685867e-02" rms="4.5736968517303467e-01" purity="4.5612290501594543e-01" nType="0">
            <Node pos="l" depth="3" NCoef="0" IVar="-1" Cut="0.0000000000000000e+00" cType="1" res="-1.8251359462738037e-02" rms="4.5549631118774414e-01" purity="3.8400247693061829e-01" nType="-99"/>
            <Node pos="r" depth="3" NCoef="0" IVar="-1" Cut="0.0000000000000000e+00" cType="1" res="-4.6631056815385818e-02" rms="4.5911154150962830e-01" purity="5.2381438016891479e-01" nType="-99"/>
          </Node>
        </Node>
        <Node pos="r" depth="1" NCoef="0" IVar="4" Cut="3.2177467346191406e+00" cType="1" res="-1.0790252126753330e-03" rms="4.6571189165115356e-01" purity="5.2542495727539062e-01" nType="0">
          <Node pos="l" depth="2" NCoef="0" IVar="6" Cut="-1.9447978734970093e+00" cType="1" res="2.2597161587327719e-03" rms="4.6770623326301575e-01" purity="5.4058408737182617e-01" nType="0">
            <Node pos="l" depth="3" NCoef="0" IVar="-1" Cut="0.0000000000000000e+00" cType="1" res="1.7336126416921616e-02" rms="4.8144233226776123e-01" purity="5.2147042751312256e-01" nType="-99"/>
            <Node pos="r" depth="3" NCoef="0" IVar="-1" Cut="0.0000000000000000e+00" cType="1" res="-3.7836218252778053e-03" rms="4.6101954579353333e-01" purity="5.4947859048843384e-01" nType="-99"/>
          </Node>
          <Node pos="r" depth="2" NCoef="0" IVar="-1" Cut="0.0000000000000000e+00" cType="1" res="-1.1531867086887360e-02" rms="4.4616413116455078e-01" purity="3.8849717378616333e-01" nType="-99"/>
        </Node>
      </Node>
    </BinaryTree>
    <BinaryTree type="DecisionTree" boostWeight="1.0000000000000000e+00" itree="197">
      <Node pos="s" depth="0" NCoef="0" IVar="7" Cut="6.0000000000000000e+00" cType="1" res="-1.1310489848256111e-02" rms="4.6214559674263000e-01" purity="4.9225464463233948e-01" nType="0">
        <Node pos="l" depth="1" NCoef="0" IVar="5" Cut="-2.8421516418457031e+00" cType="1" res="-4.7191055491566658e-03" rms="4.6559253334999084e-01" purity="4.6643313765525818e-01" nType="0">
          <Node pos="l" depth="2" NCoef="0" IVar="-1" Cut="0.0000000000000000e+00" cType="1" res="3.6831133067607880e-02" rms="4.6073099970817566e-01" purity="5.4873716831207275e-01" nType="-99"/>
          <Node pos="r" depth="2" NCoef="0" IVar="6" Cut="2.8423380851745605e+00" cType="1" res="-6.9737113080918789e-03" rms="4.6584695577621460e-01" purity="4.6067997813224792e-01" nType="0">
            <Node pos="l" depth="3" NCoef="0" IVar="-1" Cut="0.0000000000000000e+00" cType="1" res="-3.8954133633524179e-03" rms="4.6571704745292664e-01" purity="4.5982283353805542e-01" nType="-99"/>
            <Node pos="r" depth="3" NCoef="0" IVar="-1" Cut="0.0000000000000000e+00" cType="1" res="-2.2647660225629807e-02" rms="4.6652528643608093e-01" purity="4.6716338396072388e-01" nType="-99"/>
          </Node>
        </Node>
        <Node pos="r" depth="1" NCoef="0" IVar="6" Cut="2.2438778877258301e+00" cType="1" res="-2.8662689030170441e-02" rms="4.5251336693763733e-01" purity="5.6013786792755127e-01" nType="0">
          <Node pos="l" depth="2" NCoef="0" IVar="9" Cut="6.8274171875000000e+04" cType="1" res="-7.1688103489577770e-03" rms="4.5536345243453979e-01" purity="6.1383885145187378e-01" nType="0">
            <Node pos="l" depth="3" NCoef="0" IVar="-1" Cut="0.0000000000000000e+00" cType="1" res="-1.9333964213728905e-02" rms="4.7221070528030396e-01" purity="5.5085712671279907e-01" nType="-99"/>
            <Node pos="r" depth="3" NCoef="0" IVar="-1" Cut="0.0000000000000000e+00" cType="1" res="8.9538246393203735e-03" rms="4.2872604727745056e-01" purity="7.0744973421096802e-01" nType="-99"/>
          </Node>
          <Node pos="r" depth="2" NCoef="0" IVar="-1" Cut="0.0000000000000000e+00" cType="1" res="-2.1530261728912592e-03" rms="4.3424496054649353e-01" purity="3.7332266569137573e-01" nType="-99"/>
        </Node>
      </Node>
    </BinaryTree>
    <BinaryTree type="DecisionTree" boostWeight="1.0000000000000000e+00" itree="198">
      <Node pos="s" depth="0" NCoef="0" IVar="6" Cut="-1.3463690280914307e+00" cType="1" res="-4.6920237946324050e-04" rms="4.6353852748870850e-01" purity="5.0584590435028076e-01" nType="0">
        <Node pos="l" depth="1" NCoef="0" IVar="2" Cut="3.1502703857421875e+02" cType="1" res="0.0000000000000000e+00" rms="0.0000000000000000e+00" purity="4.7676345705986023e-01" nType="0">
          <Node pos="l" depth="2" NCoef="0" IVar="8" Cut="7.8923382812500000e+04" cType="1" res="-1.1423425748944283e-02" rms="4.7123977541923523e-01" purity="4.6231657266616821e-01" nType="0">
            <Node pos="l" depth="3" NCoef="0" IVar="-1" Cut="0.0000000000000000e+00" cType="1" res="-4.1666706092655659e-03" rms="4.7445893287658691e-01" purity="4.3573671579360962e-01" nType="-99"/>
            <Node pos="r" depth="3" NCoef="0" IVar="-1" Cut="0.0000000000000000e+00" cType="1" res="-2.1810362115502357e-02" rms="4.5890566706657410e-01" purity="5.5412930250167847e-01" nType="-99"/>
          </Node>
          <Node pos="r" depth="2" NCoef="0" IVar="-1" Cut="0.0000000000000000e+00" cType="1" res="9.4592468813061714e-03" rms="4.6502524614334106e-01" purity="5.3966957330703735e-01" nType="-99"/>
        </Node>
        <Node pos="r" depth="1" NCoef="0" IVar="6" Cut="1.8593415021896362e+00" cType="1" res="3.5360839683562517e-03" rms="4.5958119630813599e-01" purity="5.2281796932220459e-01" nType="0">
          <Node pos="l" depth="2" NCoef="0" IVar="5" Cut="2.2439906597137451e+00" cType="1" res="1.0106602683663368e-02" rms="4.4395583868026733e-01" purity="5.7530003786087036e-01" nType="0">
            <Node pos="l" depth="3" NCoef="0" IVar="-1" Cut="0.0000000000000000e+00" cType="1" res="1.9402610138058662e-02" rms="4.4064515829086304e-01" purity="6.0135763883590698e-01" nType="-99"/>
            <Node pos="r" depth="3" NCoef="0" IVar="-1" Cut="0.0000000000000000e+00" cType="1" res="-5.6535876356065273e-03" rms="4.5094716548919678e-01" purity="5.1668715476989746e-01" nType="-99"/>
          </Node>
          <Node pos="r" depth="2" NCoef="0" IVar="2" Cut="2.1755102539062500e+02" cType="1" res="-3.1028036028146744e-03" rms="4.7475484013557434e-01" purity="4.6978986263275146e-01" nType="0">
            <Node pos="l" depth="3" NCoef="0" IVar="-1" Cut="0.0000000000000000e+00" cType="1" res="-1.7227824777364731e-02" rms="4.7679355740547180e-01" purity="4.4676044583320618e-01" nType="-99"/>
            <Node pos="r" depth="3" NCoef="0" IVar="-1" Cut="0.0000000000000000e+00" cType="1" res="2.1112740039825439e-02" rms="4.7074449062347412e-01" purity="5.0561064481735229e-01" nType="-99"/>
          </Node>
        </Node>
      </Node>
    </BinaryTree>
    <BinaryTree type="DecisionTree" boostWeight="1.0000000000000000e+00" itree="199">
      <Node pos="s" depth="0" NCoef="0" IVar="5" Cut="-2.8422966003417969e+00" cType="1" res="-3.6623079795390368e-03" rms="4.6477547287940979e-01" purity="4.9837705492973328e-01" nType="0">
        <Node pos="l" depth="1" NCoef="0" IVar="-1" Cut="0.0000000000000000e+00" cType="1" res="-5.0084386020898819e-03" rms="4.5739850401878357e-01" purity="5.3580385446548462e-01" nType="-99"/>
        <Node pos="r" depth="1" NCoef="0" IVar="4" Cut="1.1460258960723877e+00" cType="1" res="-6.6871591843664646e-04" rms="4.6523243188858032e-01" purity="4.9537500739097595e-01" nType="0">
          <Node pos="l" depth="2" NCoef="0" IVar="8" Cut="8.3554078125000000e+04" cType="1" res="-1.4177423901855946e-02" rms="4.5363095402717590e-01" purity="4.4460824131965637e-01" nType="0">
            <Node pos="l" depth="3" NCoef="0" IVar="-1" Cut="0.0000000000000000e+00" cType="1" res="-1.2139747850596905e-02" rms="4.5334741473197937e-01" purity="3.5223874449729919e-01" nType="-99"/>
            <Node pos="r" depth="3" NCoef="0" IVar="-1" Cut="0.0000000000000000e+00" cType="1" res="1.6924917697906494e-02" rms="4.5286372303962708e-01" purity="6.4042162895202637e-01" nType="-99"/>
          </Node>
          <Node pos="r" depth="2" NCoef="0" IVar="6" Cut="1.9447672367095947e+00" cType="1" res="3.6994386464357376e-03" rms="4.6883919835090637e-01" purity="5.1179081201553345e-01" nType="0">
            <Node pos="l" depth="3" NCoef="0" IVar="-1" Cut="0.0000000000000000e+00" cType="1" res="-2.2655401844531298e-03" rms="4.6225196123123169e-01" purity="5.2637535333633423e-01" nType="-99"/>
            <Node pos="r" depth="3" NCoef="0" IVar="-1" Cut="0.0000000000000000e+00" cType="1" res="8.8717332109808922e-03" rms="4.8134568333625793e-01" purity="4.8299363255500793e-01" nType="-99"/>
          </Node>
        </Node>
      </Node>
    </BinaryTree>
    <BinaryTree type="DecisionTree" boostWeight="1.0000000000000000e+00" itree="200">
      <Node pos="s" depth="0" NCoef="0" IVar="2" Cut="2.1066612243652344e+02" cType="1" res="-4.9611479043960571e-03" rms="4.6097385883331299e-01" purity="4.9411633610725403e-01" nType="0">
        <Node pos="l" depth="1" NCoef="0" IVar="2" Cut="1.5197674560546875e+02" cType="1" res="9.4286189414560795e-04" rms="4.6007040143013000e-01" purity="5.1030904054641724e-01" nType="0">
          <Node pos="l" depth="2" NCoef="0" IVar="4" Cut="1.2884334325790405e+00" cType="1" res="-2.0454458892345428e-02" rms="4.4551187753677368e-01" purity="4.1973873972892761e-01" nType="0">
            <Node pos="l" depth="3" NCoef="0" IVar="-1" Cut="0.0000000000000000e+00" cType="1" res="-3.7915301509201527e-03" rms="4.0725862979888916e-01" purity="3.2189035415649414e-01" nType="-99"/>
            <Node pos="r" depth="3" NCoef="0" IVar="-1" Cut="0.0000000000000000e+00" cType="1" res="5.8266254200134426e-05" rms="4.6468326449394226e-01" purity="4.7555401921272278e-01" nType="-99"/>
          </Node>
          <Node pos="r" depth="2" NCoef="0" IVar="5" Cut="-2.2439055442810059e+00" cType="1" res="7.1260249242186546e-03" rms="4.6400859951972961e-01" purity="5.3648108243942261e-01" nType="0">
            <Node pos="l" depth="3" NCoef="0" IVar="-1" Cut="0.0000000000000000e+00" cType="1" res="-1.2033021077513695e-02" rms="4.5665910840034485e-01" purity="5.6351321935653687e-01" nType="-99"/>
            <Node pos="r" depth="3" NCoef="0" IVar="-1" Cut="0.0000000000000000e+00" cType="1" res="1.2907808646559715e-02" rms="4.6579447388648987e-01" purity="5.2936351299285889e-01" nType="-99"/>
          </Node>
        </Node>
        <Node pos="r" depth="1" NCoef="0" IVar="7" Cut="5.0000000000000000e+00" cType="1" res="-1.4703758992254734e-02" rms="4.6228215098381042e-01" purity="4.6732774376869202e-01" nType="0">
          <Node pos="l" depth="2" NCoef="0" IVar="2" Cut="3.5741146850585938e+02" cType="1" res="1.3090547872707248e-03" rms="4.6771419048309326e-01" purity="4.5451521873474121e-01" nType="0">
            <Node pos="l" depth="3" NCoef="0" IVar="-1" Cut="0.0000000000000000e+00" cType="1" res="-1.0069729760289192e-02" rms="4.6412685513496399e-01" purity="3.9885187149047852e-01" nType="-99"/>
            <Node pos="r" depth="3" NCoef="0" IVar="-1" Cut="0.0000000000000000e+00" cType="1" res="1.1922098696231842e-02" rms="4.7265079617500305e-01" purity="5.3837895393371582e-01" nType="-99"/>
          </Node>
          <Node pos="r" depth="2" NCoef="0" IVar="4" Cut="1.4293141365051270e+00" cType="1" res="-3.8764581084251404e-02" rms="4.5300063490867615e-01" purity="4.8653033375740051e-01" nType="0">
            <Node pos="l" depth="3" NCoef="0" IVar="-1" Cut="0.0000000000000000e+00" cType="1" res="-5.0413813441991806e-03" rms="4.6409747004508972e-01" purity="5.1793903112411499e-01" nType="-99"/>
            <Node pos="r" depth="3" NCoef="0" IVar="-1" Cut="0.0000000000000000e+00" cType="1" res="-2.7945158071815968e-03" rms="4.4636085629463196e-01" purity="4.7071951627731323e-01" nType="-99"/>
          </Node>
        </Node>
      </Node>
    </BinaryTree>
    <BinaryTree type="DecisionTree" boostWeight="1.0000000000000000e+00" itree="201">
      <Node pos="s" depth="0" NCoef="0" IVar="3" Cut="1.3182637214660645e+01" cType="1" res="-5.7343030348420143e-03" rms="4.6388724446296692e-01" purity="4.9980598688125610e-01" nType="0">
        <Node pos="l" depth="1" NCoef="0" IVar="4" Cut="8.2295221090316772e-01" cType="1" res="-3.8112306501716375e-03" rms="4.6523344516754150e-01" purity="5.0174075365066528e-01" nType="0">
          <Node pos="l" depth="2" NCoef="0" IVar="5" Cut="1.0471464395523071e+00" cType="1" res="-2.1187420934438705e-02" rms="4.5925474166870117e-01" purity="4.5230621099472046e-01" nType="0">
            <Node pos="l" depth="3" NCoef="0" IVar="-1" Cut="0.0000000000000000e+00" cType="1" res="-5.3039886988699436e-03" rms="4.6852454543113708e-01" purity="4.6153423190116882e-01" nType="-99"/>
            <Node pos="r" depth="3" NCoef="0" IVar="-1" Cut="0.0000000000000000e+00" cType="1" res="-1.0472868569195271e-02" rms="4.4622468948364258e-01" purity="4.4057524204254150e-01" nType="-99"/>
          </Node>
          <Node pos="r" depth="2" NCoef="0" IVar="4" Cut="1.6790802478790283e+00" cType="1" res="-1.1973918881267309e-03" rms="4.6607008576393127e-01" purity="5.0917696952819824e-01" nType="0">
            <Node pos="l" depth="3" NCoef="0" IVar="-1" Cut="0.0000000000000000e+00" cType="1" res="7.5543499551713467e-03" rms="4.6022015810012817e-01" purity="4.8697176575660706e-01" nType="-99"/>
            <Node pos="r" depth="3" NCoef="0" IVar="-1" Cut="0.0000000000000000e+00" cType="1" res="-5.1637655124068260e-03" rms="4.6901881694793701e-01" purity="5.2072060108184814e-01" nType="-99"/>
          </Node>
        </Node>
        <Node pos="r" depth="1" NCoef="0" IVar="-1" Cut="0.0000000000000000e+00" cType="1" res="-5.9643827378749847e-02" rms="4.3751576542854309e-01" purity="4.6498969197273254e-01" nType="-99"/>
      </Node>
    </BinaryTree>
    <BinaryTree type="DecisionTree" boostWeight="1.0000000000000000e+00" itree="202">
      <Node pos="s" depth="0" NCoef="0" IVar="5" Cut="2.2439625263214111e+00" cType="1" res="-3.9241113699972630e-03" rms="4.6460866928100586e-01" purity="4.9821686744689941e-01" nType="0">
        <Node pos="l" depth="1" NCoef="0" IVar="7" Cut="5.0000000000000000e+00" cType="1" res="7.5775495497509837e-04" rms="4.6458992362022400e-01" purity="4.9179607629776001e-01" nType="0">
          <Node pos="l" depth="2" NCoef="0" IVar="4" Cut="2.2891643047332764e+00" cType="1" res="0.0000000000000000e+00" rms="0.0000000000000000e+00" purity="4.1870054602622986e-01" nType="0">
            <Node pos="l" depth="3" NCoef="0" IVar="-1" Cut="0.0000000000000000e+00" cType="1" res="1.9425369799137115e-02" rms="4.6700701117515564e-01" purity="4.0900728106498718e-01" nType="-99"/>
            <Node pos="r" depth="3" NCoef="0" IVar="-1" Cut="0.0000000000000000e+00" cType="1" res="-5.4620252922177315e-03" rms="4.7068879008293152e-01" purity="4.3604752421379089e-01" nType="-99"/>
          </Node>
          <Node pos="r" depth="2" NCoef="0" IVar="2" Cut="2.8173696899414062e+02" cType="1" res="-6.2647936865687370e-03" rms="4.6126118302345276e-01" purity="5.5186986923217773e-01" nType="0">
            <Node pos="l" depth="3" NCoef="0" IVar="-1" Cut="0.0000000000000000e+00" cType="1" res="-1.0739588178694248e-02" rms="4.6035718917846680e-01" purity="5.4610967636108398e-01" nType="-99"/>
            <Node pos="r" depth="3" NCoef="0" IVar="-1" Cut="0.0000000000000000e+00" cType="1" res="4.4439729303121567e-02" rms="4.6702033281326294e-01" purity="6.0510993003845215e-01" nType="-99"/>
          </Node>
        </Node>
        <Node pos="r" depth="1" NCoef="0" IVar="6" Cut="-7.4712073802947998e-01" cType="1" res="-2.0114777609705925e-02" rms="4.6429988741874695e-01" purity="5.2043879032135010e-01" nType="0">
          <Node pos="l" depth="2" NCoef="0" IVar="-1" Cut="0.0000000000000000e+00" cType="1" res="2.5416649878025055e-02" rms="4.4082832336425781e-01" purity="6.7542684078216553e-01" nType="-99"/>
          <Node pos="r" depth="2" NCoef="0" IVar="8" Cut="8.8740765625000000e+04" cType="1" res="-3.1978674232959747e-02" rms="4.6939226984977722e-01" purity="4.8071801662445068e-01" nType="0">
            <Node pos="l" depth="3" NCoef="0" IVar="-1" Cut="0.0000000000000000e+00" cType="1" res="-1.5757489949464798e-02" rms="4.7009518742561340e-01" purity="4.5845723152160645e-01" nType="-99"/>
            <Node pos="r" depth="3" NCoef="0" IVar="-1" Cut="0.0000000000000000e+00" cType="1" res="-2.6949353516101837e-02" rms="4.6441799402236938e-01" purity="5.3600913286209106e-01" nType="-99"/>
          </Node>
        </Node>
      </Node>
    </BinaryTree>
    <BinaryTree type="DecisionTree" boostWeight="1.0000000000000000e+00" itree="203">
      <Node pos="s" depth="0" NCoef="0" IVar="4" Cut="3.1877682209014893e+00" cType="1" res="-1.9713046494871378e-03" rms="4.6376028656959534e-01" purity="5.0025540590286255e-01" nType="0">
        <Node pos="l" depth="1" NCoef="0" IVar="9" Cut="4.6279792968750000e+04" cType="1" res="-4.2148149805143476e-04" rms="4.6461689472198486e-01" purity="5.0935131311416626e-01" nType="0">
          <Node pos="l" depth="2" NCoef="0" IVar="6" Cut="2.8423380851745605e+00" cType="1" res="-5.4919472895562649e-03" rms="4.6780133247375488e-01" purity="4.1869354248046875e-01" nType="0">
            <Node pos="l" depth="3" NCoef="0" IVar="-1" Cut="0.0000000000000000e+00" cType="1" res="-1.4710123650729656e-03" rms="4.6692699193954468e-01" purity="4.1969904303550720e-01" nType="-99"/>
            <Node pos="r" depth="3" NCoef="0" IVar="-1" Cut="0.0000000000000000e+00" cType="1" res="-3.0919000506401062e-02" rms="4.7346076369285583e-01" purity="4.1110065579414368e-01" nType="-99"/>
          </Node>
          <Node pos="r" depth="2" NCoef="0" IVar="5" Cut="1.9447109699249268e+00" cType="1" res="7.0840902626514435e-03" rms="4.5975998044013977e-01" purity="6.4354777336120605e-01" nType="0">
            <Node pos="l" depth="3" NCoef="0" IVar="-1" Cut="0.0000000000000000e+00" cType="1" res="-1.7733908316586167e-04" rms="4.6278730034828186e-01" purity="6.3003206253051758e-01" nType="-99"/>
            <Node pos="r" depth="3" NCoef="0" IVar="-1" Cut="0.0000000000000000e+00" cType="1" res="2.7292914688587189e-02" rms="4.5290529727935791e-01" purity="6.7214995622634888e-01" nType="-99"/>
          </Node>
        </Node>
        <Node pos="r" depth="1" NCoef="0" IVar="-1" Cut="0.0000000000000000e+00" cType="1" res="-5.6843580678105354e-03" rms="4.5299777388572693e-01" purity="3.9164540171623230e-01" nType="-99"/>
      </Node>
    </BinaryTree>
    <BinaryTree type="DecisionTree" boostWeight="1.0000000000000000e+00" itree="204">
      <Node pos="s" depth="0" NCoef="0" IVar="8" Cut="7.6056023437500000e+04" cType="1" res="-2.1181602496653795e-03" rms="4.6386265754699707e-01" purity="4.9823513627052307e-01" nType="0">
        <Node pos="l" depth="1" NCoef="0" IVar="8" Cut="3.4752433593750000e+04" cType="1" res="3.5400339402258396e-03" rms="4.6920123696327209e-01" purity="4.3962115049362183e-01" nType="0">
          <Node pos="l" depth="2" NCoef="0" IVar="6" Cut="-4.4914612174034119e-01" cType="1" res="-2.6520641520619392e-02" rms="4.2409852147102356e-01" purity="2.4808019399642944e-01" nType="0">
            <Node pos="l" depth="3" NCoef="0" IVar="-1" Cut="0.0000000000000000e+00" cType="1" res="5.4891132749617100e-03" rms="4.4348952174186707e-01" purity="2.8567203879356384e-01" nType="-99"/>
            <Node pos="r" depth="3" NCoef="0" IVar="-1" Cut="0.0000000000000000e+00" cType="1" res="-7.1415719576179981e-03" rms="4.0730971097946167e-01" purity="2.1967291831970215e-01" nType="-99"/>
          </Node>
          <Node pos="r" depth="2" NCoef="0" IVar="9" Cut="3.9532691406250000e+04" cType="1" res="9.3711158260703087e-03" rms="4.7723776102066040e-01" purity="4.7677570581436157e-01" nType="0">
            <Node pos="l" depth="3" NCoef="0" IVar="-1" Cut="0.0000000000000000e+00" cType="1" res="2.6212705299258232e-02" rms="4.7480192780494690e-01" purity="4.2996656894683838e-01" nType="-99"/>
            <Node pos="r" depth="3" NCoef="0" IVar="-1" Cut="0.0000000000000000e+00" cType="1" res="-6.9868792779743671e-03" rms="4.7989442944526672e-01" purity="5.3744620084762573e-01" nType="-99"/>
          </Node>
        </Node>
        <Node pos="r" depth="1" NCoef="0" IVar="5" Cut="-7.4797093868255615e-01" cType="1" res="-1.3881923630833626e-02" rms="4.5233544707298279e-01" purity="6.2009757757186890e-01" nType="0">
          <Node pos="l" depth="2" NCoef="0" IVar="6" Cut="-1.4960724115371704e-01" cType="1" res="0.0000000000000000e+00" rms="0.0000000000000000e+00" purity="6.3950586318969727e-01" nType="0">
            <Node pos="l" depth="3" NCoef="0" IVar="-1" Cut="0.0000000000000000e+00" cType="1" res="-1.6392415389418602e-02" rms="4.7444486618041992e-01" purity="5.5576413869857788e-01" nType="-99"/>
            <Node pos="r" depth="3" NCoef="0" IVar="-1" Cut="0.0000000000000000e+00" cType="1" res="3.7131257355213165e-02" rms="4.0613213181495667e-01" purity="7.5435435771942139e-01" nType="-99"/>
          </Node>
          <Node pos="r" depth="2" NCoef="0" IVar="5" Cut="2.7710433006286621e+00" cType="1" res="-2.8262663632631302e-02" rms="4.5562198758125305e-01" purity="6.0459661483764648e-01" nType="0">
            <Node pos="l" depth="3" NCoef="0" IVar="-1" Cut="0.0000000000000000e+00" cType="1" res="-2.6341648772358894e-02" rms="4.5433962345123291e-01" purity="5.9199184179306030e-01" nType="-99"/>
            <Node pos="r" depth="3" NCoef="0" IVar="-1" Cut="0.0000000000000000e+00" cType="1" res="-3.8306170608848333e-03" rms="4.5884400606155396e-01" purity="6.4543646574020386e-01" nType="-99"/>
          </Node>
        </Node>
      </Node>
    </BinaryTree>
    <BinaryTree type="DecisionTree" boostWeight="1.0000000000000000e+00" itree="205">
      <Node pos="s" depth="0" NCoef="0" IVar="4" Cut="2.2000527381896973e+00" cType="1" res="-9.5374565571546555e-03" rms="4.6179640293121338e-01" purity="4.9375799298286438e-01" nType="0">
        <Node pos="l" depth="1" NCoef="0" IVar="6" Cut="2.2439978122711182e+00" cType="1" res="0.0000000000000000e+00" rms="0.0000000000000000e+00" purity="4.6449822187423706e-01" nType="0">
          <Node pos="l" depth="2" NCoef="0" IVar="9" Cut="4.0735707031250000e+04" cType="1" res="-7.0071318186819553e-03" rms="4.6038588881492615e-01" purity="4.9273934960365295e-01" nType="0">
            <Node pos="l" depth="3" NCoef="0" IVar="-1" Cut="0.0000000000000000e+00" cType="1" res="-3.0102396383881569e-02" rms="4.5706200599670410e-01" purity="3.6111429333686829e-01" nType="-99"/>
            <Node pos="r" depth="3" NCoef="0" IVar="-1" Cut="0.0000000000000000e+00" cType="1" res="9.7009660676121712e-03" rms="4.6283215284347534e-01" purity="6.1169713735580444e-01" nType="-99"/>
          </Node>
          <Node pos="r" depth="2" NCoef="0" IVar="7" Cut="5.0000000000000000e+00" cType="1" res="-5.4682649672031403e-02" rms="4.5765706896781921e-01" purity="3.8547074794769287e-01" nType="0">
            <Node pos="l" depth="3" NCoef="0" IVar="-1" Cut="0.0000000000000000e+00" cType="1" res="-6.2562222592532635e-03" rms="4.7033363580703735e-01" purity="4.1989186406135559e-01" nType="-99"/>
            <Node pos="r" depth="3" NCoef="0" IVar="-1" Cut="0.0000000000000000e+00" cType="1" res="-2.6541720144450665e-03" rms="4.4002678990364075e-01" purity="3.5195213556289673e-01" nType="-99"/>
          </Node>
        </Node>
        <Node pos="r" depth="1" NCoef="0" IVar="6" Cut="2.8423092365264893e+00" cType="1" res="5.1827146671712399e-03" rms="4.6379876136779785e-01" purity="5.3668606281280518e-01" nType="0">
          <Node pos="l" depth="2" NCoef="0" IVar="3" Cut="8.5967559814453125e+00" cType="1" res="7.4326200410723686e-04" rms="4.6201342344284058e-01" purity="5.3551429510116577e-01" nType="0">
            <Node pos="l" depth="3" NCoef="0" IVar="-1" Cut="0.0000000000000000e+00" cType="1" res="-4.2125107720494270e-03" rms="4.6468502283096313e-01" purity="5.2155643701553345e-01" nType="-99"/>
            <Node pos="r" depth="3" NCoef="0" IVar="-1" Cut="0.0000000000000000e+00" cType="1" res="3.5949848592281342e-02" rms="4.4640243053436279e-01" purity="6.1061042547225952e-01" nType="-99"/>
          </Node>
          <Node pos="r" depth="2" NCoef="0" IVar="-1" Cut="0.0000000000000000e+00" cType="1" res="2.6883864775300026e-02" rms="4.7552803158760071e-01" purity="5.4536730051040649e-01" nType="-99"/>
        </Node>
      </Node>
    </BinaryTree>
    <BinaryTree type="DecisionTree" boostWeight="1.0000000000000000e+00" itree="206">
      <Node pos="s" depth="0" NCoef="0" IVar="7" Cut="7.0000000000000000e+00" cType="1" res="-8.5910214111208916e-03" rms="4.5824900269508362e-01" purity="4.8589083552360535e-01" nType="0">
        <Node pos="l" depth="1" NCoef="0" IVar="3" Cut="1.2463452339172363e+01" cType="1" res="-8.3864189218729734e-04" rms="4.6434170007705688e-01" purity="4.8707419633865356e-01" nType="0">
          <Node pos="l" depth="2" NCoef="0" IVar="7" Cut="5.0000000000000000e+00" cType="1" res="-3.8264188915491104e-03" rms="4.2779147624969482e-01" purity="4.8670813441276550e-01" nType="0">
            <Node pos="l" depth="3" NCoef="0" IVar="-1" Cut="0.0000000000000000e+00" cType="1" res="4.0138671174645424e-03" rms="4.6831279993057251e-01" purity="4.3184393644332886e-01" nType="-99"/>
            <Node pos="r" depth="3" NCoef="0" IVar="-1" Cut="0.0000000000000000e+00" cType="1" res="-1.0167228989303112e-02" rms="4.6156445145606995e-01" purity="5.4108136892318726e-01" nType="-99"/>
          </Node>
          <Node pos="r" depth="2" NCoef="0" IVar="-1" Cut="0.0000000000000000e+00" cType="1" res="4.3316893279552460e-02" rms="4.5330682396888733e-01" purity="4.9244409799575806e-01" nType="-99"/>
        </Node>
        <Node pos="r" depth="1" NCoef="0" IVar="2" Cut="1.7736805725097656e+02" cType="1" res="-6.1793830245733261e-02" rms="4.1013762354850769e-01" purity="4.7777429223060608e-01" nType="0">
          <Node pos="l" depth="2" NCoef="0" IVar="-1" Cut="0.0000000000000000e+00" cType="1" res="1.1160386726260185e-02" rms="4.4856253266334534e-01" purity="6.4644968509674072e-01" nType="-99"/>
          <Node pos="r" depth="2" NCoef="0" IVar="-1" Cut="0.0000000000000000e+00" cType="1" res="-1.5689819119870663e-03" rms="3.6461654305458069e-01" purity="3.3843722939491272e-01" nType="-99"/>
        </Node>
      </Node>
    </BinaryTree>
    <BinaryTree type="DecisionTree" boostWeight="1.0000000000000000e+00" itree="207">
      <Node pos="s" depth="0" NCoef="0" IVar="6" Cut="2.5431950092315674e+00" cType="1" res="1.0709767229855061e-03" rms="4.6313703060150146e-01" purity="5.0568711757659912e-01" nType="0">
        <Node pos="l" depth="1" NCoef="0" IVar="8" Cut="6.2729375000000000e+04" cType="1" res="5.9548197314143181e-03" rms="4.6148407459259033e-01" purity="5.1867127418518066e-01" nType="0">
          <Node pos="l" depth="2" NCoef="0" IVar="7" Cut="6.0000000000000000e+00" cType="1" res="-1.3494809390977025e-03" rms="4.6566882729530334e-01" purity="4.1391107439994812e-01" nType="0">
            <Node pos="l" depth="3" NCoef="0" IVar="-1" Cut="0.0000000000000000e+00" cType="1" res="-6.6599287092685699e-03" rms="4.6402341127395630e-01" purity="3.9553678035736084e-01" nType="-99"/>
            <Node pos="r" depth="3" NCoef="0" IVar="-1" Cut="0.0000000000000000e+00" cType="1" res="3.1596779823303223e-02" rms="4.7359311580657959e-01" purity="5.1464581489562988e-01" nType="-99"/>
          </Node>
          <Node pos="r" depth="2" NCoef="0" IVar="9" Cut="6.5266679687500000e+04" cType="1" res="1.3326641172170639e-02" rms="4.5710453391075134e-01" purity="6.2431365251541138e-01" nType="0">
            <Node pos="l" depth="3" NCoef="0" IVar="-1" Cut="0.0000000000000000e+00" cType="1" res="2.3876633495092392e-02" rms="4.6835303306579590e-01" purity="5.7809913158416748e-01" nType="-99"/>
            <Node pos="r" depth="3" NCoef="0" IVar="-1" Cut="0.0000000000000000e+00" cType="1" res="2.8655538335442543e-03" rms="4.4082587957382202e-01" purity="6.8833416700363159e-01" nType="-99"/>
          </Node>
        </Node>
        <Node pos="r" depth="1" NCoef="0" IVar="3" Cut="3.3527383804321289e+00" cType="1" res="-1.9313272088766098e-02" rms="4.6942502260208130e-01" purity="4.5149356126785278e-01" nType="0">
          <Node pos="l" depth="2" NCoef="0" IVar="-1" Cut="0.0000000000000000e+00" cType="1" res="-5.0286827608942986e-03" rms="4.7091287374496460e-01" purity="3.9157998561859131e-01" nType="-99"/>
          <Node pos="r" depth="2" NCoef="0" IVar="3" Cut="8.3805961608886719e+00" cType="1" res="-4.2162388563156128e-03" rms="4.6796518564224243e-01" purity="4.7931745648384094e-01" nType="0">
            <Node pos="l" depth="3" NCoef="0" IVar="-1" Cut="0.0000000000000000e+00" cType="1" res="8.2692932337522507e-03" rms="4.7312822937965393e-01" purity="4.8825597763061523e-01" nType="-99"/>
            <Node pos="r" depth="3" NCoef="0" IVar="-1" Cut="0.0000000000000000e+00" cType="1" res="-3.6529537290334702e-02" rms="4.5757648348808289e-01" purity="4.6317309141159058e-01" nType="-99"/>
          </Node>
        </Node>
      </Node>
    </BinaryTree>
    <BinaryTree type="DecisionTree" boostWeight="1.0000000000000000e+00" itree="208">
      <Node pos="s" depth="0" NCoef="0" IVar="9" Cut="6.7560250000000000e+04" cType="1" res="-3.7178909406065941e-03" rms="4.6279755234718323e-01" purity="5.0306564569473267e-01" nType="0">
        <Node pos="l" depth="1" NCoef="0" IVar="2" Cut="3.1257504272460938e+02" cType="1" res="0.0000000000000000e+00" rms="0.0000000000000000e+00" purity="4.5949426293373108e-01" nType="0">
          <Node pos="l" depth="2" NCoef="0" IVar="6" Cut="2.8423943519592285e+00" cType="1" res="-3.3861701376736164e-03" rms="4.6903824806213379e-01" purity="4.6170520782470703e-01" nType="0">
            <Node pos="l" depth="3" NCoef="0" IVar="-1" Cut="0.0000000000000000e+00" cType="1" res="-2.6745154173113406e-04" rms="4.6868428587913513e-01" purity="4.6723532676696777e-01" nType="-99"/>
            <Node pos="r" depth="3" NCoef="0" IVar="-1" Cut="0.0000000000000000e+00" cType="1" res="-1.3614079914987087e-02" rms="4.7118490934371948e-01" purity="4.1520413756370544e-01" nType="-99"/>
          </Node>
          <Node pos="r" depth="2" NCoef="0" IVar="9" Cut="4.1210675781250000e+04" cType="1" res="-3.1522229313850403e-02" rms="4.6733349561691284e-01" purity="4.4743108749389648e-01" nType="0">
            <Node pos="l" depth="3" NCoef="0" IVar="-1" Cut="0.0000000000000000e+00" cType="1" res="7.0148136001080275e-04" rms="4.7373199462890625e-01" purity="4.3268358707427979e-01" nType="-99"/>
            <Node pos="r" depth="3" NCoef="0" IVar="-1" Cut="0.0000000000000000e+00" cType="1" res="-2.2754216566681862e-02" rms="4.5503687858581543e-01" purity="4.6723949909210205e-01" nType="-99"/>
          </Node>
        </Node>
        <Node pos="r" depth="1" NCoef="0" IVar="3" Cut="2.9481074810028076e+00" cType="1" res="1.4947494491934776e-02" rms="4.3297210335731506e-01" purity="7.0505636930465698e-01" nType="0">
          <Node pos="l" depth="2" NCoef="0" IVar="-1" Cut="0.0000000000000000e+00" cType="1" res="3.0283596366643906e-02" rms="4.5011407136917114e-01" purity="6.5315032005310059e-01" nType="-99"/>
          <Node pos="r" depth="2" NCoef="0" IVar="4" Cut="1.3400771617889404e+00" cType="1" res="5.2487949142232537e-04" rms="4.2441847920417786e-01" purity="7.2786694765090942e-01" nType="0">
            <Node pos="l" depth="3" NCoef="0" IVar="-1" Cut="0.0000000000000000e+00" cType="1" res="2.1447738632559776e-02" rms="4.3496814370155334e-01" purity="7.2211521863937378e-01" nType="-99"/>
            <Node pos="r" depth="3" NCoef="0" IVar="-1" Cut="0.0000000000000000e+00" cType="1" res="-1.3319539837539196e-02" rms="4.1735109686851501e-01" purity="7.3144501447677612e-01" nType="-99"/>
          </Node>
        </Node>
      </Node>
    </BinaryTree>
    <BinaryTree type="DecisionTree" boostWeight="1.0000000000000000e+00" itree="209">
      <Node pos="s" depth="0" NCoef="0" IVar="6" Cut="2.5431952476501465e+00" cType="1" res="-3.3253971196245402e-05" rms="4.6460911631584167e-01" purity="5.0242155790328979e-01" nType="0">
        <Node pos="l" depth="1" NCoef="0" IVar="2" Cut="3.2203463745117188e+02" cType="1" res="-4.7694197855889797e-03" rms="4.6248814463615417e-01" purity="5.0596433877944946e-01" nType="0">
          <Node pos="l" depth="2" NCoef="0" IVar="2" Cut="1.3861610412597656e+02" cType="1" res="-1.4851081650704145e-03" rms="4.6158754825592041e-01" purity="5.0717085599899292e-01" nType="0">
            <Node pos="l" depth="3" NCoef="0" IVar="-1" Cut="0.0000000000000000e+00" cType="1" res="3.3152557909488678e-02" rms="4.7455909848213196e-01" purity="4.5457214117050171e-01" nType="-99"/>
            <Node pos="r" depth="3" NCoef="0" IVar="-1" Cut="0.0000000000000000e+00" cType="1" res="-3.4702061675488949e-03" rms="4.6054288744926453e-01" purity="5.1091039180755615e-01" nType="-99"/>
          </Node>
          <Node pos="r" depth="2" NCoef="0" IVar="5" Cut="-1.9442665576934814e+00" cType="1" res="-2.4925509467720985e-02" rms="4.6747219562530518e-01" purity="4.9855962395668030e-01" nType="0">
            <Node pos="l" depth="3" NCoef="0" IVar="-1" Cut="0.0000000000000000e+00" cType="1" res="-5.8626215904951096e-03" rms="4.6508893370628357e-01" purity="5.1816201210021973e-01" nType="-99"/>
            <Node pos="r" depth="3" NCoef="0" IVar="-1" Cut="0.0000000000000000e+00" cType="1" res="-4.2547412216663361e-02" rms="4.6875190734863281e-01" purity="4.8490163683891296e-01" nType="-99"/>
          </Node>
        </Node>
        <Node pos="r" depth="1" NCoef="0" IVar="2" Cut="1.8207786560058594e+02" cType="1" res="2.0150857046246529e-02" rms="4.7301018238067627e-01" purity="4.8732349276542664e-01" nType="0">
          <Node pos="l" depth="2" NCoef="0" IVar="-1" Cut="0.0000000000000000e+00" cType="1" res="-1.0397797450423241e-02" rms="4.7597017884254456e-01" purity="4.3144828081130981e-01" nType="-99"/>
          <Node pos="r" depth="2" NCoef="0" IVar="8" Cut="5.3145179687500000e+04" cType="1" res="4.2332235723733902e-02" rms="4.6976655721664429e-01" purity="5.2306544780731201e-01" nType="0">
            <Node pos="l" depth="3" NCoef="0" IVar="-1" Cut="0.0000000000000000e+00" cType="1" res="1.9323643296957016e-02" rms="4.6495580673217773e-01" purity="3.9549052715301514e-01" nType="-99"/>
            <Node pos="r" depth="3" NCoef="0" IVar="-1" Cut="0.0000000000000000e+00" cType="1" res="5.3455021232366562e-02" rms="4.7213274240493774e-01" purity="6.0348910093307495e-01" nType="-99"/>
          </Node>
        </Node>
      </Node>
    </BinaryTree>
    <BinaryTree type="DecisionTree" boostWeight="1.0000000000000000e+00" itree="210">
      <Node pos="s" depth="0" NCoef="0" IVar="4" Cut="1.8821195363998413e+00" cType="1" res="-7.6519250869750977e-03" rms="4.6470221877098083e-01" purity="4.9696612358093262e-01" nType="0">
        <Node pos="l" depth="1" NCoef="0" IVar="2" Cut="3.7140600585937500e+02" cType="1" res="5.4329978302121162e-03" rms="4.6437820792198181e-01" purity="4.8643931746482849e-01" nType="0">
          <Node pos="l" depth="2" NCoef="0" IVar="5" Cut="-1.9445616006851196e+00" cType="1" res="2.8819746803492308e-03" rms="4.6405118703842163e-01" purity="4.7927996516227722e-01" nType="0">
            <Node pos="l" depth="3" NCoef="0" IVar="-1" Cut="0.0000000000000000e+00" cType="1" res="-9.6501698717474937e-03" rms="4.6047639846801758e-01" purity="5.0928688049316406e-01" nType="-99"/>
            <Node pos="r" depth="3" NCoef="0" IVar="-1" Cut="0.0000000000000000e+00" cType="1" res="8.9696738868951797e-03" rms="4.6528202295303345e-01" purity="4.6815344691276550e-01" nType="-99"/>
          </Node>
          <Node pos="r" depth="2" NCoef="0" IVar="-1" Cut="0.0000000000000000e+00" cType="1" res="3.4687936305999756e-02" rms="4.6656826138496399e-01" purity="5.4666262865066528e-01" nType="-99"/>
        </Node>
        <Node pos="r" depth="1" NCoef="0" IVar="7" Cut="6.0000000000000000e+00" cType="1" res="-2.0230980589985847e-02" rms="4.6466597914695740e-01" purity="5.0708621740341187e-01" nType="0">
          <Node pos="l" depth="2" NCoef="0" IVar="5" Cut="-2.2437264919281006e+00" cType="1" res="-1.0856973007321358e-02" rms="4.6975022554397583e-01" purity="4.8552507162094116e-01" nType="0">
            <Node pos="l" depth="3" NCoef="0" IVar="-1" Cut="0.0000000000000000e+00" cType="1" res="-3.3798106014728546e-02" rms="4.6582740545272827e-01" purity="4.9266591668128967e-01" nType="-99"/>
            <Node pos="r" depth="3" NCoef="0" IVar="-1" Cut="0.0000000000000000e+00" cType="1" res="-4.1123870760202408e-03" rms="4.7065147757530212e-01" purity="4.8356297612190247e-01" nType="-99"/>
          </Node>
          <Node pos="r" depth="2" NCoef="0" IVar="7" Cut="7.0000000000000000e+00" cType="1" res="-4.3584566563367844e-02" rms="4.5086327195167542e-01" purity="5.6088125705718994e-01" nType="0">
            <Node pos="l" depth="3" NCoef="0" IVar="-1" Cut="0.0000000000000000e+00" cType="1" res="-8.1471772864460945e-03" rms="4.5219361782073975e-01" purity="5.1280391216278076e-01" nType="-99"/>
            <Node pos="r" depth="3" NCoef="0" IVar="-1" Cut="0.0000000000000000e+00" cType="1" res="1.1532803764566779e-03" rms="4.4509363174438477e-01" purity="6.3785380125045776e-01" nType="-99"/>
          </Node>
        </Node>
      </Node>
    </BinaryTree>
    <BinaryTree type="DecisionTree" boostWeight="1.0000000000000000e+00" itree="211">
      <Node pos="s" depth="0" NCoef="0" IVar="7" Cut="7.0000000000000000e+00" cType="1" res="4.9085472710430622e-03" rms="4.6167299151420593e-01" purity="5.0602924823760986e-01" nType="0">
        <Node pos="l" depth="1" NCoef="0" IVar="6" Cut="-1.6455651521682739e+00" cType="1" res="8.4474645555019379e-03" rms="4.6411409974098206e-01" purity="4.9705836176872253e-01" nType="0">
          <Node pos="l" depth="2" NCoef="0" IVar="1" Cut="1.6737226562500000e+05" cType="1" res="1.9061576575040817e-02" rms="4.7299030423164368e-01" purity="4.8598620295524597e-01" nType="0">
            <Node pos="l" depth="3" NCoef="0" IVar="-1" Cut="0.0000000000000000e+00" cType="1" res="3.2222874462604523e-02" rms="4.7752878069877625e-01" purity="5.2271783351898193e-01" nType="-99"/>
            <Node pos="r" depth="3" NCoef="0" IVar="-1" Cut="0.0000000000000000e+00" cType="1" res="-4.5724110677838326e-03" rms="4.6247547864913940e-01" purity="4.0880659222602844e-01" nType="-99"/>
          </Node>
          <Node pos="r" depth="2" NCoef="0" IVar="4" Cut="2.9165210723876953e+00" cType="1" res="2.6518600061535835e-03" rms="4.5909145474433899e-01" purity="5.0310409069061279e-01" nType="0">
            <Node pos="l" depth="3" NCoef="0" IVar="-1" Cut="0.0000000000000000e+00" cType="1" res="5.7354117743670940e-03" rms="4.5953425765037537e-01" purity="5.0740075111389160e-01" nType="-99"/>
            <Node pos="r" depth="3" NCoef="0" IVar="-1" Cut="0.0000000000000000e+00" cType="1" res="-1.7174659296870232e-02" rms="4.5601767301559448e-01" purity="4.8104032874107361e-01" nType="-99"/>
          </Node>
        </Node>
        <Node pos="r" depth="1" NCoef="0" IVar="9" Cut="6.9673609375000000e+04" cType="1" res="-2.2687178105115891e-02" rms="4.4124886393547058e-01" purity="5.7590454816818237e-01" nType="0">
          <Node pos="l" depth="2" NCoef="0" IVar="-1" Cut="0.0000000000000000e+00" cType="1" res="-1.6761830775067210e-03" rms="4.4353827834129333e-01" purity="4.6827888488769531e-01" nType="-99"/>
          <Node pos="r" depth="2" NCoef="0" IVar="-1" Cut="0.0000000000000000e+00" cType="1" res="1.6662981361150742e-02" rms="4.3589141964912415e-01" purity="7.0035493373870850e-01" nType="-99"/>
        </Node>
      </Node>
    </BinaryTree>
    <BinaryTree type="DecisionTree" boostWeight="1.0000000000000000e+00" itree="212">
      <Node pos="s" depth="0" NCoef="0" IVar="5" Cut="-2.8422944545745850e+00" cType="1" res="0.0000000000000000e+00" rms="0.0000000000000000e+00" purity="5.0346702337265015e-01" nType="0">
        <Node pos="l" depth="1" NCoef="0" IVar="-1" Cut="0.0000000000000000e+00" cType="1" res="-3.5103170666843653e-03" rms="4.4958466291427612e-01" purity="5.0653529167175293e-01" nType="-99"/>
        <Node pos="r" depth="1" NCoef="0" IVar="8" Cut="1.2709000000000000e+05" cType="1" res="-1.0625388240441680e-03" rms="4.6627989411354065e-01" purity="5.0320619344711304e-01" nType="0">
          <Node pos="l" depth="2" NCoef="0" IVar="7" Cut="7.0000000000000000e+00" cType="1" res="8.4800331387668848e-04" rms="4.6755218505859375e-01" purity="4.8956644535064697e-01" nType="0">
            <Node pos="l" depth="3" NCoef="0" IVar="-1" Cut="0.0000000000000000e+00" cType="1" res="-1.4734623255208135e-03" rms="4.6836599707603455e-01" purity="4.7526490688323975e-01" nType="-99"/>
            <Node pos="r" depth="3" NCoef="0" IVar="-1" Cut="0.0000000000000000e+00" cType="1" res="3.1590092927217484e-02" rms="4.5809912681579590e-01" purity="6.4184898138046265e-01" nType="-99"/>
          </Node>
          <Node pos="r" depth="2" NCoef="0" IVar="-1" Cut="0.0000000000000000e+00" cType="1" res="-2.9855303466320038e-02" rms="4.5081630349159241e-01" purity="6.5970289707183838e-01" nType="-99"/>
        </Node>
      </Node>
    </BinaryTree>
    <BinaryTree type="DecisionTree" boostWeight="1.0000000000000000e+00" itree="213">
      <Node pos="s" depth="0" NCoef="0" IVar="6" Cut="-2.5431566238403320e+00" cType="1" res="-5.0535365007817745e-03" rms="4.6278575062751770e-01" purity="5.0071978569030762e-01" nType="0">
        <Node pos="l" depth="1" NCoef="0" IVar="5" Cut="-1.6458297967910767e+00" cType="1" res="-2.1937273442745209e-02" rms="4.7308614850044250e-01" purity="4.5553007721900940e-01" nType="0">
          <Node pos="l" depth="2" NCoef="0" IVar="-1" Cut="0.0000000000000000e+00" cType="1" res="2.0409841090440750e-03" rms="4.7314217686653137e-01" purity="5.2106422185897827e-01" nType="-99"/>
          <Node pos="r" depth="2" NCoef="0" IVar="5" Cut="-5.0619477033615112e-01" cType="1" res="-3.9436057209968567e-02" rms="4.7227811813354492e-01" purity="4.0762358903884888e-01" nType="0">
            <Node pos="l" depth="3" NCoef="0" IVar="-1" Cut="0.0000000000000000e+00" cType="1" res="-7.1603320538997650e-02" rms="4.6039903163909912e-01" purity="3.5910496115684509e-01" nType="-99"/>
            <Node pos="r" depth="3" NCoef="0" IVar="-1" Cut="0.0000000000000000e+00" cType="1" res="-3.1503565609455109e-02" rms="4.8055094480514526e-01" purity="4.4396114349365234e-01" nType="-99"/>
          </Node>
        </Node>
        <Node pos="r" depth="1" NCoef="0" IVar="4" Cut="1.9405379295349121e+00" cType="1" res="-1.3917245669290423e-03" rms="4.6043968200683594e-01" purity="5.1052069664001465e-01" nType="0">
          <Node pos="l" depth="2" NCoef="0" IVar="6" Cut="-9.1882151365280151e-01" cType="1" res="5.9117041528224945e-03" rms="4.6203622221946716e-01" purity="4.9872463941574097e-01" nType="0">
            <Node pos="l" depth="3" NCoef="0" IVar="-1" Cut="0.0000000000000000e+00" cType="1" res="3.0544009059667587e-02" rms="4.6444454789161682e-01" purity="5.1094365119934082e-01" nType="-99"/>
            <Node pos="r" depth="3" NCoef="0" IVar="-1" Cut="0.0000000000000000e+00" cType="1" res="-1.0850781109184027e-03" rms="4.6084499359130859e-01" purity="4.9382516741752625e-01" nType="-99"/>
          </Node>
          <Node pos="r" depth="2" NCoef="0" IVar="3" Cut="3.6073651313781738e+00" cType="1" res="-9.1895470395684242e-03" rms="4.5860055088996887e-01" purity="5.2311527729034424e-01" nType="0">
            <Node pos="l" depth="3" NCoef="0" IVar="-1" Cut="0.0000000000000000e+00" cType="1" res="-4.9623306840658188e-03" rms="4.6400907635688782e-01" purity="4.5426237583160400e-01" nType="-99"/>
            <Node pos="r" depth="3" NCoef="0" IVar="-1" Cut="0.0000000000000000e+00" cType="1" res="3.0401013791561127e-03" rms="4.5339509844779968e-01" purity="5.8456462621688843e-01" nType="-99"/>
          </Node>
        </Node>
      </Node>
    </BinaryTree>
    <BinaryTree type="DecisionTree" boostWeight="1.0000000000000000e+00" itree="214">
      <Node pos="s" depth="0" NCoef="0" IVar="7" Cut="7.0000000000000000e+00" cType="1" res="-4.6931011602282524e-03" rms="4.6218106150627136e-01" purity="4.9921566247940063e-01" nType="0">
        <Node pos="l" depth="1" NCoef="0" IVar="2" Cut="3.2089465332031250e+02" cType="1" res="1.6501653590239584e-04" rms="4.6409404277801514e-01" purity="4.9094501137733459e-01" nType="0">
          <Node pos="l" depth="2" NCoef="0" IVar="2" Cut="2.7106558227539062e+02" cType="1" res="3.7001841701567173e-03" rms="4.6393197774887085e-01" purity="4.8808342218399048e-01" nType="0">
            <Node pos="l" depth="3" NCoef="0" IVar="-1" Cut="0.0000000000000000e+00" cType="1" res="3.4284484572708607e-03" rms="4.6371579170227051e-01" purity="4.9309730529785156e-01" nType="-99"/>
            <Node pos="r" depth="3" NCoef="0" IVar="-1" Cut="0.0000000000000000e+00" cType="1" res="-2.0822528749704361e-02" rms="4.6551921963691711e-01" purity="4.3504673242568970e-01" nType="-99"/>
          </Node>
          <Node pos="r" depth="2" NCoef="0" IVar="9" Cut="5.8194128906250000e+04" cType="1" res="-1.6637902706861496e-02" rms="4.6449592709541321e-01" purity="5.0454640388488770e-01" nType="0">
            <Node pos="l" depth="3" NCoef="0" IVar="-1" Cut="0.0000000000000000e+00" cType="1" res="-1.8254084512591362e-02" rms="4.6482470631599426e-01" purity="4.3441459536552429e-01" nType="-99"/>
            <Node pos="r" depth="3" NCoef="0" IVar="-1" Cut="0.0000000000000000e+00" cType="1" res="2.6173310354351997e-02" rms="4.6150386333465576e-01" purity="6.6380137205123901e-01" nType="-99"/>
          </Node>
        </Node>
        <Node pos="r" depth="1" NCoef="0" IVar="8" Cut="1.0426560156250000e+05" cType="1" res="-4.1632689535617828e-02" rms="4.4567081332206726e-01" purity="5.6205481290817261e-01" nType="0">
          <Node pos="l" depth="2" NCoef="0" IVar="-1" Cut="0.0000000000000000e+00" cType="1" res="-2.3562724236398935e-03" rms="4.4497287273406982e-01" purity="4.8542505502700806e-01" nType="-99"/>
          <Node pos="r" depth="2" NCoef="0" IVar="-1" Cut="0.0000000000000000e+00" cType="1" res="-1.9230212783440948e-03" rms="4.4392868876457214e-01" purity="6.8782192468643188e-01" nType="-99"/>
        </Node>
      </Node>
    </BinaryTree>
    <BinaryTree type="DecisionTree" boostWeight="1.0000000000000000e+00" itree="215">
      <Node pos="s" depth="0" NCoef="0" IVar="7" Cut="7.0000000000000000e+00" cType="1" res="-2.9648670461028814e-03" rms="4.6206957101821899e-01" purity="5.0436204671859741e-01" nType="0">
        <Node pos="l" depth="1" NCoef="0" IVar="5" Cut="1.6455790996551514e+00" cType="1" res="-8.0964376684278250e-04" rms="4.6297600865364075e-01" purity="4.9178186058998108e-01" nType="0">
          <Node pos="l" depth="2" NCoef="0" IVar="2" Cut="3.2825650024414062e+02" cType="1" res="3.5379815381020308e-03" rms="4.6373236179351807e-01" purity="4.8450061678886414e-01" nType="0">
            <Node pos="l" depth="3" NCoef="0" IVar="-1" Cut="0.0000000000000000e+00" cType="1" res="6.7571727558970451e-03" rms="4.6381276845932007e-01" purity="4.8137465119361877e-01" nType="-99"/>
            <Node pos="r" depth="3" NCoef="0" IVar="-1" Cut="0.0000000000000000e+00" cType="1" res="-1.4780783094465733e-02" rms="4.6278500556945801e-01" purity="5.0174832344055176e-01" nType="-99"/>
          </Node>
          <Node pos="r" depth="2" NCoef="0" IVar="4" Cut="2.5414087772369385e+00" cType="1" res="-9.3407500535249710e-03" rms="4.6136918663978577e-01" purity="5.0606948137283325e-01" nType="0">
            <Node pos="l" depth="3" NCoef="0" IVar="-1" Cut="0.0000000000000000e+00" cType="1" res="-1.0913528501987457e-02" rms="4.5834535360336304e-01" purity="4.9143803119659424e-01" nType="-99"/>
            <Node pos="r" depth="3" NCoef="0" IVar="-1" Cut="0.0000000000000000e+00" cType="1" res="2.0404979586601257e-02" rms="4.6715033054351807e-01" purity="5.3980726003646851e-01" nType="-99"/>
          </Node>
        </Node>
        <Node pos="r" depth="1" NCoef="0" IVar="4" Cut="2.2679283618927002e+00" cType="1" res="-2.0979836583137512e-02" rms="4.5409363508224487e-01" purity="6.0917997360229492e-01" nType="0">
          <Node pos="l" depth="2" NCoef="0" IVar="-1" Cut="0.0000000000000000e+00" cType="1" res="-3.2977124210447073e-03" rms="4.5316433906555176e-01" purity="6.2601774930953979e-01" nType="-99"/>
          <Node pos="r" depth="2" NCoef="0" IVar="-1" Cut="0.0000000000000000e+00" cType="1" res="-2.2013353183865547e-02" rms="4.5431908965110779e-01" purity="5.8643335103988647e-01" nType="-99"/>
        </Node>
      </Node>
    </BinaryTree>
    <BinaryTree type="DecisionTree" boostWeight="1.0000000000000000e+00" itree="216">
      <Node pos="s" depth="0" NCoef="0" IVar="7" Cut="6.0000000000000000e+00" cType="1" res="0.0000000000000000e+00" rms="0.0000000000000000e+00" purity="5.0359630584716797e-01" nType="0">
        <Node pos="l" depth="1" NCoef="0" IVar="4" Cut="3.0370628833770752e+00" cType="1" res="-1.1199665023013949e-03" rms="4.6762269735336304e-01" purity="4.7163745760917664e-01" nType="0">
          <Node pos="l" depth="2" NCoef="0" IVar="4" Cut="2.6175780296325684e+00" cType="1" res="2.4881614372134209e-03" rms="4.6831789612770081e-01" purity="4.7949981689453125e-01" nType="0">
            <Node pos="l" depth="3" NCoef="0" IVar="-1" Cut="0.0000000000000000e+00" cType="1" res="-7.6371670002117753e-04" rms="4.6938776969909668e-01" purity="4.6861675381660461e-01" nType="-99"/>
            <Node pos="r" depth="3" NCoef="0" IVar="-1" Cut="0.0000000000000000e+00" cType="1" res="1.8363324925303459e-02" rms="4.6284642815589905e-01" purity="5.3173822164535522e-01" nType="-99"/>
          </Node>
          <Node pos="r" depth="2" NCoef="0" IVar="4" Cut="3.2468075752258301e+00" cType="1" res="-2.7261894196271896e-02" rms="4.6171328425407410e-01" purity="4.1467201709747314e-01" nType="0">
            <Node pos="l" depth="3" NCoef="0" IVar="-1" Cut="0.0000000000000000e+00" cType="1" res="-2.2610029205679893e-02" rms="4.6733200550079346e-01" purity="4.7976535558700562e-01" nType="-99"/>
            <Node pos="r" depth="3" NCoef="0" IVar="-1" Cut="0.0000000000000000e+00" cType="1" res="-1.6451640054583549e-02" rms="4.5492357015609741e-01" purity="3.3811339735984802e-01" nType="-99"/>
          </Node>
        </Node>
        <Node pos="r" depth="1" NCoef="0" IVar="5" Cut="-2.5428102016448975e+00" cType="1" res="-1.6208907589316368e-02" rms="4.5815253257751465e-01" purity="5.9081393480300903e-01" nType="0">
          <Node pos="l" depth="2" NCoef="0" IVar="-1" Cut="0.0000000000000000e+00" cType="1" res="-4.9470607191324234e-03" rms="4.4329655170440674e-01" purity="5.7991975545883179e-01" nType="-99"/>
          <Node pos="r" depth="2" NCoef="0" IVar="6" Cut="4.4774982333183289e-01" cType="1" res="-6.5569221042096615e-03" rms="4.6070703864097595e-01" purity="5.9315228462219238e-01" nType="0">
            <Node pos="l" depth="3" NCoef="0" IVar="-1" Cut="0.0000000000000000e+00" cType="1" res="-2.8317291289567947e-02" rms="4.5638298988342285e-01" purity="5.9735774993896484e-01" nType="-99"/>
            <Node pos="r" depth="3" NCoef="0" IVar="-1" Cut="0.0000000000000000e+00" cType="1" res="1.4581265859305859e-02" rms="4.6492540836334229e-01" purity="5.8804333209991455e-01" nType="-99"/>
          </Node>
        </Node>
      </Node>
    </BinaryTree>
    <BinaryTree type="DecisionTree" boostWeight="1.0000000000000000e+00" itree="217">
      <Node pos="s" depth="0" NCoef="0" IVar="6" Cut="-2.5431640148162842e+00" cType="1" res="-6.3710799440741539e-03" rms="4.6076324582099915e-01" purity="4.9562647938728333e-01" nType="0">
        <Node pos="l" depth="1" NCoef="0" IVar="2" Cut="1.9281744384765625e+02" cType="1" res="0.0000000000000000e+00" rms="0.0000000000000000e+00" purity="4.8448020219802856e-01" nType="0">
          <Node pos="l" depth="2" NCoef="0" IVar="5" Cut="-1.0469359159469604e+00" cType="1" res="0.0000000000000000e+00" rms="0.0000000000000000e+00" purity="4.5527216792106628e-01" nType="0">
            <Node pos="l" depth="3" NCoef="0" IVar="-1" Cut="0.0000000000000000e+00" cType="1" res="-2.5355000048875809e-02" rms="4.8112139105796814e-01" purity="4.6351993083953857e-01" nType="-99"/>
            <Node pos="r" depth="3" NCoef="0" IVar="-1" Cut="0.0000000000000000e+00" cType="1" res="1.8851390108466148e-02" rms="4.7674292325973511e-01" purity="4.4775661826133728e-01" nType="-99"/>
          </Node>
          <Node pos="r" depth="2" NCoef="0" IVar="5" Cut="-1.3457134962081909e+00" cType="1" res="3.2538663595914841e-02" rms="4.7425085306167603e-01" purity="5.1116746664047241e-01" nType="0">
            <Node pos="l" depth="3" NCoef="0" IVar="-1" Cut="0.0000000000000000e+00" cType="1" res="4.9880817532539368e-02" rms="4.7440120577812195e-01" purity="5.6601637601852417e-01" nType="-99"/>
            <Node pos="r" depth="3" NCoef="0" IVar="-1" Cut="0.0000000000000000e+00" cType="1" res="1.4714631251990795e-02" rms="4.7336384654045105e-01" purity="4.4789120554924011e-01" nType="-99"/>
          </Node>
        </Node>
        <Node pos="r" depth="1" NCoef="0" IVar="5" Cut="-2.2439317703247070e+00" cType="1" res="-1.1475288309156895e-02" rms="4.5689851045608521e-01" purity="4.9813041090965271e-01" nType="0">
          <Node pos="l" depth="2" NCoef="0" IVar="4" Cut="1.1142617464065552e+00" cType="1" res="0.0000000000000000e+00" rms="0.0000000000000000e+00" purity="5.5863374471664429e-01" nType="0">
            <Node pos="l" depth="3" NCoef="0" IVar="-1" Cut="0.0000000000000000e+00" cType="1" res="-3.2277447171509266e-03" rms="4.4350394606590271e-01" purity="5.1514422893524170e-01" nType="-99"/>
            <Node pos="r" depth="3" NCoef="0" IVar="-1" Cut="0.0000000000000000e+00" cType="1" res="1.8418712541460991e-02" rms="4.5662096142768860e-01" purity="5.7886493206024170e-01" nType="-99"/>
          </Node>
          <Node pos="r" depth="2" NCoef="0" IVar="5" Cut="2.1154737472534180e+00" cType="1" res="0.0000000000000000e+00" rms="0.0000000000000000e+00" purity="4.8258936405181885e-01" nType="0">
            <Node pos="l" depth="3" NCoef="0" IVar="-1" Cut="0.0000000000000000e+00" cType="1" res="-4.0290094912052155e-03" rms="4.5452988147735596e-01" purity="4.5230901241302490e-01" nType="-99"/>
            <Node pos="r" depth="3" NCoef="0" IVar="-1" Cut="0.0000000000000000e+00" cType="1" res="1.2080052401870489e-03" rms="4.6336618065834045e-01" purity="5.3848922252655029e-01" nType="-99"/>
          </Node>
        </Node>
      </Node>
    </BinaryTree>
    <BinaryTree type="DecisionTree" boostWeight="1.0000000000000000e+00" itree="218">
      <Node pos="s" depth="0" NCoef="0" IVar="5" Cut="-1.6455194950103760e+00" cType="1" res="-4.4537629000842571e-03" rms="4.6490794420242310e-01" purity="5.0398546457290649e-01" nType="0">
        <Node pos="l" depth="1" NCoef="0" IVar="2" Cut="3.4344400024414062e+02" cType="1" res="-1.2588372454047203e-02" rms="4.6366897225379944e-01" purity="5.2715873718261719e-01" nType="0">
          <Node pos="l" depth="2" NCoef="0" IVar="6" Cut="4.4880086183547974e-01" cType="1" res="-6.8077505566179752e-03" rms="4.6263241767883301e-01" purity="5.3101634979248047e-01" nType="0">
            <Node pos="l" depth="3" NCoef="0" IVar="-1" Cut="0.0000000000000000e+00" cType="1" res="-1.3352035544812679e-02" rms="4.7284814715385437e-01" purity="4.7901666164398193e-01" nType="-99"/>
            <Node pos="r" depth="3" NCoef="0" IVar="-1" Cut="0.0000000000000000e+00" cType="1" res="1.7255786806344986e-02" rms="4.2508709430694580e-01" purity="7.0911532640457153e-01" nType="-99"/>
          </Node>
          <Node pos="r" depth="2" NCoef="0" IVar="-1" Cut="0.0000000000000000e+00" cType="1" res="-4.2232517153024673e-02" rms="4.6809977293014526e-01" purity="5.0564891099929810e-01" nType="-99"/>
        </Node>
        <Node pos="r" depth="1" NCoef="0" IVar="1" Cut="2.4356243750000000e+05" cType="1" res="-6.0001702513545752e-04" rms="4.6544411778450012e-01" purity="4.9300721287727356e-01" nType="0">
          <Node pos="l" depth="2" NCoef="0" IVar="1" Cut="2.0825176562500000e+05" cType="1" res="-2.7793573681265116e-03" rms="4.6578437089920044e-01" purity="5.0671213865280151e-01" nType="0">
            <Node pos="l" depth="3" NCoef="0" IVar="-1" Cut="0.0000000000000000e+00" cType="1" res="-6.4334139460697770e-04" rms="4.6823072433471680e-01" purity="5.1899254322052002e-01" nType="-99"/>
            <Node pos="r" depth="3" NCoef="0" IVar="-1" Cut="0.0000000000000000e+00" cType="1" res="-3.1136328354477882e-02" rms="4.3797215819358826e-01" purity="3.7452074885368347e-01" nType="-99"/>
          </Node>
          <Node pos="r" depth="2" NCoef="0" IVar="-1" Cut="0.0000000000000000e+00" cType="1" res="2.5670019909739494e-02" rms="4.6200355887413025e-01" purity="3.7263655662536621e-01" nType="-99"/>
        </Node>
      </Node>
    </BinaryTree>
    <BinaryTree type="DecisionTree" boostWeight="1.0000000000000000e+00" itree="219">
      <Node pos="s" depth="0" NCoef="0" IVar="9" Cut="5.8191691406250000e+04" cType="1" res="3.0954934190958738e-03" rms="4.6667388081550598e-01" purity="5.0871759653091431e-01" nType="0">
        <Node pos="l" depth="1" NCoef="0" IVar="5" Cut="-1.6455297470092773e+00" cType="1" res="0.0000000000000000e+00" rms="0.0000000000000000e+00" purity="4.5899456739425659e-01" nType="0">
          <Node pos="l" depth="2" NCoef="0" IVar="3" Cut="3.3043951988220215e+00" cType="1" res="-1.5551114454865456e-02" rms="4.6623259782791138e-01" purity="4.5662274956703186e-01" nType="0">
            <Node pos="l" depth="3" NCoef="0" IVar="-1" Cut="0.0000000000000000e+00" cType="1" res="-4.5245825313031673e-03" rms="4.6700018644332886e-01" purity="4.1883015632629395e-01" nType="-99"/>
            <Node pos="r" depth="3" NCoef="0" IVar="-1" Cut="0.0000000000000000e+00" cType="1" res="-4.4925687834620476e-03" rms="4.6521377563476562e-01" purity="4.9013757705688477e-01" nType="-99"/>
          </Node>
          <Node pos="r" depth="2" NCoef="0" IVar="5" Cut="1.7829062044620514e-01" cType="1" res="1.8182002007961273e-02" rms="4.7224330902099609e-01" purity="4.6010825037956238e-01" nType="0">
            <Node pos="l" depth="3" NCoef="0" IVar="-1" Cut="0.0000000000000000e+00" cType="1" res="4.3301232159137726e-02" rms="4.7262835502624512e-01" purity="4.5115688443183899e-01" nType="-99"/>
            <Node pos="r" depth="3" NCoef="0" IVar="-1" Cut="0.0000000000000000e+00" cType="1" res="1.1268362402915955e-02" rms="4.7193735837936401e-01" purity="4.6369117498397827e-01" nType="-99"/>
          </Node>
        </Node>
        <Node pos="r" depth="1" NCoef="0" IVar="7" Cut="6.0000000000000000e+00" cType="1" res="-9.8639121279120445e-03" rms="4.5440748333930969e-01" purity="6.5845054388046265e-01" nType="0">
          <Node pos="l" depth="2" NCoef="0" IVar="3" Cut="5.6748728752136230e+00" cType="1" res="-2.2373843938112259e-02" rms="4.6694698929786682e-01" purity="6.3350605964660645e-01" nType="0">
            <Node pos="l" depth="3" NCoef="0" IVar="-1" Cut="0.0000000000000000e+00" cType="1" res="-7.6041598804295063e-03" rms="4.6717530488967896e-01" purity="6.2391251325607300e-01" nType="-99"/>
            <Node pos="r" depth="3" NCoef="0" IVar="-1" Cut="0.0000000000000000e+00" cType="1" res="-5.2281785756349564e-02" rms="4.6580132842063904e-01" purity="6.4704322814941406e-01" nType="-99"/>
          </Node>
          <Node pos="r" depth="2" NCoef="0" IVar="2" Cut="1.9094248962402344e+02" cType="1" res="7.8620453132316470e-04" rms="4.4316875934600830e-01" purity="6.7973637580871582e-01" nType="0">
            <Node pos="l" depth="3" NCoef="0" IVar="-1" Cut="0.0000000000000000e+00" cType="1" res="-3.2899584621191025e-02" rms="4.3242281675338745e-01" purity="6.9008356332778931e-01" nType="-99"/>
            <Node pos="r" depth="3" NCoef="0" IVar="-1" Cut="0.0000000000000000e+00" cType="1" res="4.5448690652847290e-02" rms="4.5792567729949951e-01" purity="6.6188383102416992e-01" nType="-99"/>
          </Node>
        </Node>
      </Node>
    </BinaryTree>
    <BinaryTree type="DecisionTree" boostWeight="1.0000000000000000e+00" itree="220">
      <Node pos="s" depth="0" NCoef="0" IVar="6" Cut="-7.4797326326370239e-01" cType="1" res="-9.1695459559559822e-03" rms="4.6574854850769043e-01" purity="4.9929958581924438e-01" nType="0">
        <Node pos="l" depth="1" NCoef="0" IVar="9" Cut="6.6360875000000000e+04" cType="1" res="-1.2929326621815562e-03" rms="4.7072520852088928e-01" purity="4.9435076117515564e-01" nType="0">
          <Node pos="l" depth="2" NCoef="0" IVar="9" Cut="3.4845128906250000e+04" cType="1" res="-6.7299497313797474e-03" rms="4.7463405132293701e-01" purity="4.6060761809349060e-01" nType="0">
            <Node pos="l" depth="3" NCoef="0" IVar="-1" Cut="0.0000000000000000e+00" cType="1" res="5.6113428436219692e-03" rms="4.6650242805480957e-01" purity="3.8660177588462830e-01" nType="-99"/>
            <Node pos="r" depth="3" NCoef="0" IVar="-1" Cut="0.0000000000000000e+00" cType="1" res="-1.8845060840249062e-02" rms="4.8131853342056274e-01" purity="5.2461010217666626e-01" nType="-99"/>
          </Node>
          <Node pos="r" depth="2" NCoef="0" IVar="-1" Cut="0.0000000000000000e+00" cType="1" res="3.3190548419952393e-02" rms="4.4804877042770386e-01" purity="6.7538255453109741e-01" nType="-99"/>
        </Node>
        <Node pos="r" depth="1" NCoef="0" IVar="5" Cut="1.4940485358238220e-01" cType="1" res="-1.4982514083385468e-02" rms="4.6195524930953979e-01" purity="5.0295186042785645e-01" nType="0">
          <Node pos="l" depth="2" NCoef="0" IVar="5" Cut="-9.4767338037490845e-01" cType="1" res="-2.8731409460306168e-02" rms="4.4630193710327148e-01" purity="5.6872302293777466e-01" nType="0">
            <Node pos="l" depth="3" NCoef="0" IVar="-1" Cut="0.0000000000000000e+00" cType="1" res="-1.3434958644211292e-02" rms="4.4084954261779785e-01" purity="6.1402374505996704e-01" nType="-99"/>
            <Node pos="r" depth="3" NCoef="0" IVar="-1" Cut="0.0000000000000000e+00" cType="1" res="-1.6146233305335045e-02" rms="4.5910367369651794e-01" purity="4.3283715844154358e-01" nType="-99"/>
          </Node>
          <Node pos="r" depth="2" NCoef="0" IVar="5" Cut="1.1467034816741943e+00" cType="1" res="-8.7086800485849380e-03" rms="4.6879056096076965e-01" purity="4.7293946146965027e-01" nType="0">
            <Node pos="l" depth="3" NCoef="0" IVar="-1" Cut="0.0000000000000000e+00" cType="1" res="1.8667496740818024e-02" rms="4.6897014975547791e-01" purity="4.6107053756713867e-01" nType="-99"/>
            <Node pos="r" depth="3" NCoef="0" IVar="-1" Cut="0.0000000000000000e+00" cType="1" res="-1.1647966690361500e-02" rms="4.6856194734573364e-01" purity="4.7571411728858948e-01" nType="-99"/>
          </Node>
        </Node>
      </Node>
    </BinaryTree>
    <BinaryTree type="DecisionTree" boostWeight="1.0000000000000000e+00" itree="221">
      <Node pos="s" depth="0" NCoef="0" IVar="6" Cut="1.6455458402633667e+00" cType="1" res="-2.1402279380708933e-03" rms="4.6314445137977600e-01" purity="5.0366896390914917e-01" nType="0">
        <Node pos="l" depth="1" NCoef="0" IVar="3" Cut="3.4833588600158691e+00" cType="1" res="6.6714519634842873e-03" rms="4.6031439304351807e-01" purity="5.2909153699874878e-01" nType="0">
          <Node pos="l" depth="2" NCoef="0" IVar="5" Cut="1.9448083639144897e+00" cType="1" res="1.6851130872964859e-02" rms="4.6932858228683472e-01" purity="5.1295030117034912e-01" nType="0">
            <Node pos="l" depth="3" NCoef="0" IVar="-1" Cut="0.0000000000000000e+00" cType="1" res="8.8153751567006111e-03" rms="4.7168073058128357e-01" purity="4.9701410531997681e-01" nType="-99"/>
            <Node pos="r" depth="3" NCoef="0" IVar="-1" Cut="0.0000000000000000e+00" cType="1" res="4.2449269443750381e-02" rms="4.6164858341217041e-01" purity="5.6019115447998047e-01" nType="-99"/>
          </Node>
          <Node pos="r" depth="2" NCoef="0" IVar="5" Cut="-1.9443697929382324e+00" cType="1" res="-5.5176654132083058e-04" rms="4.5367109775543213e-01" purity="5.4054492712020874e-01" nType="0">
            <Node pos="l" depth="3" NCoef="0" IVar="-1" Cut="0.0000000000000000e+00" cType="1" res="1.6952041536569595e-02" rms="4.5803359150886536e-01" purity="5.5562990903854370e-01" nType="-99"/>
            <Node pos="r" depth="3" NCoef="0" IVar="-1" Cut="0.0000000000000000e+00" cType="1" res="-9.2455958947539330e-03" rms="4.5123973488807678e-01" purity="5.3272402286529541e-01" nType="-99"/>
          </Node>
        </Node>
        <Node pos="r" depth="1" NCoef="0" IVar="7" Cut="6.0000000000000000e+00" cType="1" res="-1.8858421593904495e-02" rms="4.6801096200942993e-01" purity="4.5543345808982849e-01" nType="0">
          <Node pos="l" depth="2" NCoef="0" IVar="9" Cut="3.6469273437500000e+04" cType="1" res="-9.4943577423691750e-03" rms="4.7175776958465576e-01" purity="4.5383015275001526e-01" nType="0">
            <Node pos="l" depth="3" NCoef="0" IVar="-1" Cut="0.0000000000000000e+00" cType="1" res="-1.6557291150093079e-02" rms="4.6698513627052307e-01" purity="3.5712772607803345e-01" nType="-99"/>
            <Node pos="r" depth="3" NCoef="0" IVar="-1" Cut="0.0000000000000000e+00" cType="1" res="3.1069749966263771e-03" rms="4.7687834501266479e-01" purity="5.6501281261444092e-01" nType="-99"/>
          </Node>
          <Node pos="r" depth="2" NCoef="0" IVar="-1" Cut="0.0000000000000000e+00" cType="1" res="-1.9435787107795477e-03" rms="4.5267176628112793e-01" purity="4.6120381355285645e-01" nType="-99"/>
        </Node>
      </Node>
    </BinaryTree>
    <BinaryTree type="DecisionTree" boostWeight="1.0000000000000000e+00" itree="222">
      <Node pos="s" depth="0" NCoef="0" IVar="4" Cut="2.9323775768280029e+00" cType="1" res="-2.7300715446472168e-03" rms="4.6360421180725098e-01" purity="5.0358182191848755e-01" nType="0">
        <Node pos="l" depth="1" NCoef="0" IVar="4" Cut="1.5784217119216919e+00" cType="1" res="-6.7173633724451065e-03" rms="4.6341037750244141e-01" purity="5.0229167938232422e-01" nType="0">
          <Node pos="l" depth="2" NCoef="0" IVar="9" Cut="4.4285562500000000e+04" cType="1" res="-1.4434372074902058e-02" rms="4.6009430289268494e-01" purity="4.5800161361694336e-01" nType="0">
            <Node pos="l" depth="3" NCoef="0" IVar="-1" Cut="0.0000000000000000e+00" cType="1" res="2.8765965253114700e-03" rms="4.6369770169258118e-01" purity="3.7483727931976318e-01" nType="-99"/>
            <Node pos="r" depth="3" NCoef="0" IVar="-1" Cut="0.0000000000000000e+00" cType="1" res="-3.2332066912204027e-03" rms="4.5467880368232727e-01" purity="5.5804336071014404e-01" nType="-99"/>
          </Node>
          <Node pos="r" depth="2" NCoef="0" IVar="8" Cut="6.4988039062500000e+04" cType="1" res="4.6693283366039395e-04" rms="4.6636158227920532e-01" purity="5.4352432489395142e-01" nType="0">
            <Node pos="l" depth="3" NCoef="0" IVar="-1" Cut="0.0000000000000000e+00" cType="1" res="-6.9292094558477402e-03" rms="4.7766488790512085e-01" purity="4.5506995916366577e-01" nType="-99"/>
            <Node pos="r" depth="3" NCoef="0" IVar="-1" Cut="0.0000000000000000e+00" cType="1" res="1.7226831987500191e-02" rms="4.5009592175483704e-01" purity="6.6416531801223755e-01" nType="-99"/>
          </Node>
        </Node>
        <Node pos="r" depth="1" NCoef="0" IVar="7" Cut="6.0000000000000000e+00" cType="1" res="1.8487161025404930e-02" rms="4.6404695510864258e-01" purity="5.1044183969497681e-01" nType="0">
          <Node pos="l" depth="2" NCoef="0" IVar="6" Cut="1.0471664667129517e+00" cType="1" res="2.8979357331991196e-02" rms="4.6635040640830994e-01" purity="4.8943647742271423e-01" nType="0">
            <Node pos="l" depth="3" NCoef="0" IVar="-1" Cut="0.0000000000000000e+00" cType="1" res="5.4979808628559113e-02" rms="4.6801173686981201e-01" purity="5.0874799489974976e-01" nType="-99"/>
            <Node pos="r" depth="3" NCoef="0" IVar="-1" Cut="0.0000000000000000e+00" cType="1" res="4.9536796286702156e-03" rms="4.6296021342277527e-01" purity="4.6377331018447876e-01" nType="-99"/>
          </Node>
          <Node pos="r" depth="2" NCoef="0" IVar="-1" Cut="0.0000000000000000e+00" cType="1" res="-4.8933555372059345e-03" rms="4.5709002017974854e-01" purity="5.6386852264404297e-01" nType="-99"/>
        </Node>
      </Node>
    </BinaryTree>
    <BinaryTree type="DecisionTree" boostWeight="1.0000000000000000e+00" itree="223">
      <Node pos="s" depth="0" NCoef="0" IVar="9" Cut="4.6279792968750000e+04" cType="1" res="-9.5830606296658516e-03" rms="4.6291786432266235e-01" purity="4.9996921420097351e-01" nType="0">
        <Node pos="l" depth="1" NCoef="0" IVar="7" Cut="6.0000000000000000e+00" cType="1" res="-1.5281864441931248e-02" rms="4.6671107411384583e-01" purity="4.0955838561058044e-01" nType="0">
          <Node pos="l" depth="2" NCoef="0" IVar="9" Cut="3.7159746093750000e+04" cType="1" res="-1.0375509038567543e-02" rms="4.6633112430572510e-01" purity="4.0702697634696960e-01" nType="0">
            <Node pos="l" depth="3" NCoef="0" IVar="-1" Cut="0.0000000000000000e+00" cType="1" res="-1.1888638138771057e-02" rms="4.6044880151748657e-01" purity="3.6773821711540222e-01" nType="-99"/>
            <Node pos="r" depth="3" NCoef="0" IVar="-1" Cut="0.0000000000000000e+00" cType="1" res="1.1747960932552814e-02" rms="4.8226508498191833e-01" purity="5.2002298831939697e-01" nType="-99"/>
          </Node>
          <Node pos="r" depth="2" NCoef="0" IVar="-1" Cut="0.0000000000000000e+00" cType="1" res="-5.4688067175447941e-03" rms="4.6795815229415894e-01" purity="4.2737051844596863e-01" nType="-99"/>
        </Node>
        <Node pos="r" depth="1" NCoef="0" IVar="9" Cut="8.6812859375000000e+04" cType="1" res="-1.0235130321234465e-03" rms="4.5703047513961792e-01" purity="6.3552004098892212e-01" nType="0">
          <Node pos="l" depth="2" NCoef="0" IVar="9" Cut="5.0140078125000000e+04" cType="1" res="4.6806293539702892e-03" rms="4.6198943257331848e-01" purity="6.1984324455261230e-01" nType="0">
            <Node pos="l" depth="3" NCoef="0" IVar="-1" Cut="0.0000000000000000e+00" cType="1" res="-2.9930396005511284e-02" rms="4.6528941392898560e-01" purity="5.3846174478530884e-01" nType="-99"/>
            <Node pos="r" depth="3" NCoef="0" IVar="-1" Cut="0.0000000000000000e+00" cType="1" res="1.2049622833728790e-02" rms="4.6096292138099670e-01" purity="6.3770115375518799e-01" nType="-99"/>
          </Node>
          <Node pos="r" depth="2" NCoef="0" IVar="5" Cut="-1.5044531226158142e-01" cType="1" res="-2.3413848131895065e-02" rms="4.3630132079124451e-01" purity="6.9705569744110107e-01" nType="0">
            <Node pos="l" depth="3" NCoef="0" IVar="-1" Cut="0.0000000000000000e+00" cType="1" res="-1.4663334935903549e-02" rms="4.3413287401199341e-01" purity="7.1145349740982056e-01" nType="-99"/>
            <Node pos="r" depth="3" NCoef="0" IVar="-1" Cut="0.0000000000000000e+00" cType="1" res="-4.4680785387754440e-02" rms="4.3811833858489990e-01" purity="6.8260985612869263e-01" nType="-99"/>
          </Node>
        </Node>
      </Node>
    </BinaryTree>
    <BinaryTree type="DecisionTree" boostWeight="1.0000000000000000e+00" itree="224">
      <Node pos="s" depth="0" NCoef="0" IVar="7" Cut="7.0000000000000000e+00" cType="1" res="0.0000000000000000e+00" rms="0.0000000000000000e+00" purity="4.9268874526023865e-01" nType="0">
        <Node pos="l" depth="1" NCoef="0" IVar="8" Cut="6.1605917968750000e+04" cType="1" res="7.3616066947579384e-04" rms="4.6601283550262451e-01" purity="4.9510481953620911e-01" nType="0">
          <Node pos="l" depth="2" NCoef="0" IVar="9" Cut="3.3513816406250000e+04" cType="1" res="7.7747832983732224e-03" rms="4.6846392750740051e-01" purity="4.1721019148826599e-01" nType="0">
            <Node pos="l" depth="3" NCoef="0" IVar="-1" Cut="0.0000000000000000e+00" cType="1" res="1.7238667234778404e-02" rms="4.5907747745513916e-01" purity="3.5419529676437378e-01" nType="-99"/>
            <Node pos="r" depth="3" NCoef="0" IVar="-1" Cut="0.0000000000000000e+00" cType="1" res="-3.7734652869403362e-03" rms="4.7930407524108887e-01" purity="4.9330168962478638e-01" nType="-99"/>
          </Node>
          <Node pos="r" depth="2" NCoef="0" IVar="4" Cut="2.7375893592834473e+00" cType="1" res="-7.6695713214576244e-03" rms="4.6292847394943237e-01" purity="5.8812886476516724e-01" nType="0">
            <Node pos="l" depth="3" NCoef="0" IVar="-1" Cut="0.0000000000000000e+00" cType="1" res="-5.0482968799769878e-04" rms="4.6271607279777527e-01" purity="6.0236269235610962e-01" nType="-99"/>
            <Node pos="r" depth="3" NCoef="0" IVar="-1" Cut="0.0000000000000000e+00" cType="1" res="-1.8639024347066879e-02" rms="4.6287688612937927e-01" purity="5.4457873106002808e-01" nType="-99"/>
          </Node>
        </Node>
        <Node pos="r" depth="1" NCoef="0" IVar="0" Cut="1.7004506250000000e+05" cType="1" res="-7.0446349680423737e-02" rms="4.1284793615341187e-01" purity="4.7658327221870422e-01" nType="0">
          <Node pos="l" depth="2" NCoef="0" IVar="-1" Cut="0.0000000000000000e+00" cType="1" res="-1.6499841585755348e-03" rms="4.0015864372253418e-01" purity="3.6299353837966919e-01" nType="-99"/>
          <Node pos="r" depth="2" NCoef="0" IVar="-1" Cut="0.0000000000000000e+00" cType="1" res="2.0730998367071152e-02" rms="4.2502874135971069e-01" purity="7.0338732004165649e-01" nType="-99"/>
        </Node>
      </Node>
    </BinaryTree>
    <BinaryTree type="DecisionTree" boostWeight="1.0000000000000000e+00" itree="225">
      <Node pos="s" depth="0" NCoef="0" IVar="6" Cut="1.9448008537292480e+00" cType="1" res="-8.4087345749139786e-03" rms="4.6414530277252197e-01" purity="4.9964892864227295e-01" nType="0">
        <Node pos="l" depth="1" NCoef="0" IVar="4" Cut="1.8327977657318115e+00" cType="1" res="-3.4460395108908415e-03" rms="4.6093302965164185e-01" purity="5.2130877971649170e-01" nType="0">
          <Node pos="l" depth="2" NCoef="0" IVar="3" Cut="4.4375247955322266e+00" cType="1" res="5.5646076798439026e-03" rms="4.5768937468528748e-01" purity="5.0124299526214600e-01" nType="0">
            <Node pos="l" depth="3" NCoef="0" IVar="-1" Cut="0.0000000000000000e+00" cType="1" res="2.0081633701920509e-02" rms="4.6884167194366455e-01" purity="5.2112668752670288e-01" nType="-99"/>
            <Node pos="r" depth="3" NCoef="0" IVar="-1" Cut="0.0000000000000000e+00" cType="1" res="-6.7762895487248898e-03" rms="4.4667413830757141e-01" purity="4.8253759741783142e-01" nType="-99"/>
          </Node>
          <Node pos="r" depth="2" NCoef="0" IVar="4" Cut="3.1730380058288574e+00" cType="1" res="-1.2366640381515026e-02" rms="4.6394956111907959e-01" purity="5.4117399454116821e-01" nType="0">
            <Node pos="l" depth="3" NCoef="0" IVar="-1" Cut="0.0000000000000000e+00" cType="1" res="-2.3516241461038589e-02" rms="4.6417221426963806e-01" purity="5.5080336332321167e-01" nType="-99"/>
            <Node pos="r" depth="3" NCoef="0" IVar="-1" Cut="0.0000000000000000e+00" cType="1" res="3.2556716352701187e-02" rms="4.6043959259986877e-01" purity="4.8361802101135254e-01" nType="-99"/>
          </Node>
        </Node>
        <Node pos="r" depth="1" NCoef="0" IVar="7" Cut="6.0000000000000000e+00" cType="1" res="-1.9456187263131142e-02" rms="4.7102826833724976e-01" purity="4.5137825608253479e-01" nType="0">
          <Node pos="l" depth="2" NCoef="0" IVar="3" Cut="2.1857006549835205e+00" cType="1" res="-6.5560736693441868e-03" rms="4.7075957059860229e-01" purity="4.5160663127899170e-01" nType="0">
            <Node pos="l" depth="3" NCoef="0" IVar="-1" Cut="0.0000000000000000e+00" cType="1" res="-2.0801834762096405e-02" rms="4.7290512919425964e-01" purity="3.8756832480430603e-01" nType="-99"/>
            <Node pos="r" depth="3" NCoef="0" IVar="-1" Cut="0.0000000000000000e+00" cType="1" res="-4.2737787589430809e-04" rms="4.6995601058006287e-01" purity="4.7048541903495789e-01" nType="-99"/>
          </Node>
          <Node pos="r" depth="2" NCoef="0" IVar="-1" Cut="0.0000000000000000e+00" cType="1" res="-6.1573041602969170e-03" rms="4.6891349554061890e-01" purity="4.5052054524421692e-01" nType="-99"/>
        </Node>
      </Node>
    </BinaryTree>
    <BinaryTree type="DecisionTree" boostWeight="1.0000000000000000e+00" itree="226">
      <Node pos="s" depth="0" NCoef="0" IVar="7" Cut="7.0000000000000000e+00" cType="1" res="-9.1568091884255409e-03" rms="4.6102792024612427e-01" purity="4.9035337567329407e-01" nType="0">
        <Node pos="l" depth="1" NCoef="0" IVar="2" Cut="3.8413339233398438e+02" cType="1" res="-2.1472452208399773e-03" rms="4.6465396881103516e-01" purity="4.8811808228492737e-01" nType="0">
          <Node pos="l" depth="2" NCoef="0" IVar="8" Cut="1.0664628906250000e+05" cType="1" res="-2.4482540902681649e-04" rms="4.6463024616241455e-01" purity="4.8498240113258362e-01" nType="0">
            <Node pos="l" depth="3" NCoef="0" IVar="-1" Cut="0.0000000000000000e+00" cType="1" res="-1.8077343702316284e-03" rms="4.6768766641616821e-01" purity="4.6261453628540039e-01" nType="-99"/>
            <Node pos="r" depth="3" NCoef="0" IVar="-1" Cut="0.0000000000000000e+00" cType="1" res="2.6185560971498489e-02" rms="4.3279129266738892e-01" purity="7.0449852943420410e-01" nType="-99"/>
          </Node>
          <Node pos="r" depth="2" NCoef="0" IVar="9" Cut="4.5683066406250000e+04" cType="1" res="-1.6630422323942184e-02" rms="4.6457931399345398e-01" purity="5.1199001073837280e-01" nType="0">
            <Node pos="l" depth="3" NCoef="0" IVar="-1" Cut="0.0000000000000000e+00" cType="1" res="5.7271784171462059e-03" rms="4.7147959470748901e-01" purity="4.5877593755722046e-01" nType="-99"/>
            <Node pos="r" depth="3" NCoef="0" IVar="-1" Cut="0.0000000000000000e+00" cType="1" res="-1.1753292754292488e-02" rms="4.5725297927856445e-01" purity="5.6089532375335693e-01" nType="-99"/>
          </Node>
        </Node>
        <Node pos="r" depth="1" NCoef="0" IVar="6" Cut="1.4914233982563019e-01" cType="1" res="-6.1369501054286957e-02" rms="4.2954462766647339e-01" purity="5.0698769092559814e-01" nType="0">
          <Node pos="l" depth="2" NCoef="0" IVar="-1" Cut="0.0000000000000000e+00" cType="1" res="-1.4817886054515839e-02" rms="4.5844280719757080e-01" purity="6.2061715126037598e-01" nType="-99"/>
          <Node pos="r" depth="2" NCoef="0" IVar="-1" Cut="0.0000000000000000e+00" cType="1" res="-1.7091121990233660e-03" rms="4.0316686034202576e-01" purity="4.2422065138816833e-01" nType="-99"/>
        </Node>
      </Node>
    </BinaryTree>
    <BinaryTree type="DecisionTree" boostWeight="1.0000000000000000e+00" itree="227">
      <Node pos="s" depth="0" NCoef="0" IVar="7" Cut="6.0000000000000000e+00" cType="1" res="-3.5471902228891850e-03" rms="4.6261522173881531e-01" purity="5.0068962574005127e-01" nType="0">
        <Node pos="l" depth="1" NCoef="0" IVar="3" Cut="7.8193693161010742e+00" cType="1" res="4.9983751960098743e-03" rms="4.6720671653747559e-01" purity="4.7713160514831543e-01" nType="0">
          <Node pos="l" depth="2" NCoef="0" IVar="4" Cut="1.8463340997695923e+00" cType="1" res="1.2637641048058867e-03" rms="4.6969363093376160e-01" purity="4.7511306405067444e-01" nType="0">
            <Node pos="l" depth="3" NCoef="0" IVar="-1" Cut="0.0000000000000000e+00" cType="1" res="-1.0312807746231556e-02" rms="4.6610009670257568e-01" purity="4.5402526855468750e-01" nType="-99"/>
            <Node pos="r" depth="3" NCoef="0" IVar="-1" Cut="0.0000000000000000e+00" cType="1" res="1.0645059868693352e-02" rms="4.7272452712059021e-01" purity="4.9418249726295471e-01" nType="-99"/>
          </Node>
          <Node pos="r" depth="2" NCoef="0" IVar="5" Cut="-1.3458365201950073e+00" cType="1" res="1.7291845753788948e-02" rms="4.5871049165725708e-01" purity="4.8377630114555359e-01" nType="0">
            <Node pos="l" depth="3" NCoef="0" IVar="-1" Cut="0.0000000000000000e+00" cType="1" res="-7.1509662084281445e-03" rms="4.5214053988456726e-01" purity="5.0376689434051514e-01" nType="-99"/>
            <Node pos="r" depth="3" NCoef="0" IVar="-1" Cut="0.0000000000000000e+00" cType="1" res="3.4870777279138565e-02" rms="4.6120867133140564e-01" purity="4.7503277659416199e-01" nType="-99"/>
          </Node>
        </Node>
        <Node pos="r" depth="1" NCoef="0" IVar="6" Cut="2.2435402870178223e+00" cType="1" res="-2.6030698791146278e-02" rms="4.4956225156784058e-01" purity="5.6261187791824341e-01" nType="0">
          <Node pos="l" depth="2" NCoef="0" IVar="5" Cut="-1.4936347305774689e-01" cType="1" res="0.0000000000000000e+00" rms="0.0000000000000000e+00" purity="6.0792213678359985e-01" nType="0">
            <Node pos="l" depth="3" NCoef="0" IVar="-1" Cut="0.0000000000000000e+00" cType="1" res="-2.2489136084914207e-02" rms="4.5233535766601562e-01" purity="5.9615170955657959e-01" nType="-99"/>
            <Node pos="r" depth="3" NCoef="0" IVar="-1" Cut="0.0000000000000000e+00" cType="1" res="3.8188747130334377e-03" rms="4.5187145471572876e-01" purity="6.1959737539291382e-01" nType="-99"/>
          </Node>
          <Node pos="r" depth="2" NCoef="0" IVar="-1" Cut="0.0000000000000000e+00" cType="1" res="-1.9964368548244238e-03" rms="4.3343296647071838e-01" purity="3.9094954729080200e-01" nType="-99"/>
        </Node>
      </Node>
    </BinaryTree>
    <BinaryTree type="DecisionTree" boostWeight="1.0000000000000000e+00" itree="228">
      <Node pos="s" depth="0" NCoef="0" IVar="7" Cut="7.0000000000000000e+00" cType="1" res="-6.5898043103516102e-03" rms="4.6225637197494507e-01" purity="4.9743190407752991e-01" nType="0">
        <Node pos="l" depth="1" NCoef="0" IVar="1" Cut="2.4686829687500000e+05" cType="1" res="-2.1499532740563154e-03" rms="4.6456393599510193e-01" purity="4.9119856953620911e-01" nType="0">
          <Node pos="l" depth="2" NCoef="0" IVar="1" Cut="1.5624764062500000e+05" cType="1" res="0.0000000000000000e+00" rms="0.0000000000000000e+00" purity="5.0619900226593018e-01" nType="0">
            <Node pos="l" depth="3" NCoef="0" IVar="-1" Cut="0.0000000000000000e+00" cType="1" res="4.3968777172267437e-03" rms="4.7124990820884705e-01" purity="5.3356736898422241e-01" nType="-99"/>
            <Node pos="r" depth="3" NCoef="0" IVar="-1" Cut="0.0000000000000000e+00" cType="1" res="-6.4205857925117016e-03" rms="4.5729991793632507e-01" purity="4.6395745873451233e-01" nType="-99"/>
          </Node>
          <Node pos="r" depth="2" NCoef="0" IVar="5" Cut="-1.4970442652702332e-01" cType="1" res="-1.9192710518836975e-02" rms="4.5109182596206665e-01" purity="3.4300953149795532e-01" nType="0">
            <Node pos="l" depth="3" NCoef="0" IVar="-1" Cut="0.0000000000000000e+00" cType="1" res="1.0118605569005013e-02" rms="4.6287602186203003e-01" purity="3.6837309598922729e-01" nType="-99"/>
            <Node pos="r" depth="3" NCoef="0" IVar="-1" Cut="0.0000000000000000e+00" cType="1" res="-7.9047940671443939e-02" rms="4.3776413798332214e-01" purity="3.1862744688987732e-01" nType="-99"/>
          </Node>
        </Node>
        <Node pos="r" depth="1" NCoef="0" IVar="9" Cut="6.3186367187500000e+04" cType="1" res="-4.0995750576257706e-02" rms="4.4255989789962769e-01" purity="5.4562467336654663e-01" nType="0">
          <Node pos="l" depth="2" NCoef="0" IVar="-1" Cut="0.0000000000000000e+00" cType="1" res="-1.9334458047524095e-03" rms="4.4085285067558289e-01" purity="4.2442464828491211e-01" nType="-99"/>
          <Node pos="r" depth="2" NCoef="0" IVar="-1" Cut="0.0000000000000000e+00" cType="1" res="-8.4810424596071243e-03" rms="4.4233402609825134e-01" purity="6.5039128065109253e-01" nType="-99"/>
        </Node>
      </Node>
    </BinaryTree>
    <BinaryTree type="DecisionTree" boostWeight="1.0000000000000000e+00" itree="229">
      <Node pos="s" depth="0" NCoef="0" IVar="7" Cut="7.0000000000000000e+00" cType="1" res="-6.0327057726681232e-03" rms="4.6227884292602539e-01" purity="4.9388486146926880e-01" nType="0">
        <Node pos="l" depth="1" NCoef="0" IVar="5" Cut="2.8420646190643311e+00" cType="1" res="-1.1983746662735939e-03" rms="4.6717596054077148e-01" purity="4.9057340621948242e-01" nType="0">
          <Node pos="l" depth="2" NCoef="0" IVar="2" Cut="4.7026690673828125e+02" cType="1" res="7.7646522549912333e-04" rms="4.6757459640502930e-01" purity="4.8682603240013123e-01" nType="0">
            <Node pos="l" depth="3" NCoef="0" IVar="-1" Cut="0.0000000000000000e+00" cType="1" res="-7.2212039958685637e-04" rms="4.6756479144096375e-01" purity="4.8049354553222656e-01" nType="-99"/>
            <Node pos="r" depth="3" NCoef="0" IVar="-1" Cut="0.0000000000000000e+00" cType="1" res="2.3768402636051178e-02" rms="4.6711575984954834e-01" purity="5.7781827449798584e-01" nType="-99"/>
          </Node>
          <Node pos="r" depth="2" NCoef="0" IVar="-1" Cut="0.0000000000000000e+00" cType="1" res="-2.7562461793422699e-02" rms="4.6149474382400513e-01" purity="5.3710192441940308e-01" nType="-99"/>
        </Node>
        <Node pos="r" depth="1" NCoef="0" IVar="4" Cut="1.5991191864013672e+00" cType="1" res="-4.0908105671405792e-02" rms="4.2366519570350647e-01" purity="5.1776862144470215e-01" nType="0">
          <Node pos="l" depth="2" NCoef="0" IVar="-1" Cut="0.0000000000000000e+00" cType="1" res="-1.2891751248389482e-03" rms="3.9585849642753601e-01" purity="4.0351587533950806e-01" nType="-99"/>
          <Node pos="r" depth="2" NCoef="0" IVar="-1" Cut="0.0000000000000000e+00" cType="1" res="6.2734819948673248e-04" rms="4.4287714362144470e-01" purity="6.1994951963424683e-01" nType="-99"/>
        </Node>
      </Node>
    </BinaryTree>
    <BinaryTree type="DecisionTree" boostWeight="1.0000000000000000e+00" itree="230">
      <Node pos="s" depth="0" NCoef="0" IVar="5" Cut="-2.8422944545745850e+00" cType="1" res="-1.3175604399293661e-03" rms="4.6372321248054504e-01" purity="5.0186449289321899e-01" nType="0">
        <Node pos="l" depth="1" NCoef="0" IVar="-1" Cut="0.0000000000000000e+00" cType="1" res="-4.7175385989248753e-03" rms="4.5032092928886414e-01" purity="5.2700555324554443e-01" nType="-99"/>
        <Node pos="r" depth="1" NCoef="0" IVar="4" Cut="2.9977195262908936e+00" cType="1" res="1.6382440226152539e-03" rms="4.6466559171676636e-01" purity="4.9982953071594238e-01" nType="0">
          <Node pos="l" depth="2" NCoef="0" IVar="8" Cut="1.0042424218750000e+05" cType="1" res="5.2208206616342068e-03" rms="4.6528559923171997e-01" purity="5.0829017162322998e-01" nType="0">
            <Node pos="l" depth="3" NCoef="0" IVar="-1" Cut="0.0000000000000000e+00" cType="1" res="8.3496719598770142e-03" rms="4.6863943338394165e-01" purity="4.7777590155601501e-01" nType="-99"/>
            <Node pos="r" depth="3" NCoef="0" IVar="-1" Cut="0.0000000000000000e+00" cType="1" res="-1.3529033400118351e-02" rms="4.4684645533561707e-01" purity="6.6906148195266724e-01" nType="-99"/>
          </Node>
          <Node pos="r" depth="2" NCoef="0" IVar="4" Cut="3.1236808300018311e+00" cType="1" res="-1.9973525777459145e-02" rms="4.6031662821769714e-01" purity="4.4879111647605896e-01" nType="0">
            <Node pos="l" depth="3" NCoef="0" IVar="-1" Cut="0.0000000000000000e+00" cType="1" res="2.4504827335476875e-02" rms="4.7023877501487732e-01" purity="5.5645233392715454e-01" nType="-99"/>
            <Node pos="r" depth="3" NCoef="0" IVar="-1" Cut="0.0000000000000000e+00" cType="1" res="-1.4990676194429398e-02" rms="4.5439711213111877e-01" purity="3.9832016825675964e-01" nType="-99"/>
          </Node>
        </Node>
      </Node>
    </BinaryTree>
    <BinaryTree type="DecisionTree" boostWeight="1.0000000000000000e+00" itree="231">
      <Node pos="s" depth="0" NCoef="0" IVar="7" Cut="7.0000000000000000e+00" cType="1" res="-6.8038091994822025e-03" rms="4.6190696954727173e-01" purity="4.9737760424613953e-01" nType="0">
        <Node pos="l" depth="1" NCoef="0" IVar="7" Cut="5.0000000000000000e+00" cType="1" res="-3.4642452374100685e-03" rms="4.6310767531394958e-01" purity="4.9025344848632812e-01" nType="0">
          <Node pos="l" depth="2" NCoef="0" IVar="5" Cut="1.6456819772720337e+00" cType="1" res="-1.2711351737380028e-02" rms="4.6600955724716187e-01" purity="4.1915693879127502e-01" nType="0">
            <Node pos="l" depth="3" NCoef="0" IVar="-1" Cut="0.0000000000000000e+00" cType="1" res="-1.6415582969784737e-02" rms="4.6316382288932800e-01" purity="3.9971315860748291e-01" nType="-99"/>
            <Node pos="r" depth="3" NCoef="0" IVar="-1" Cut="0.0000000000000000e+00" cType="1" res="4.1953404434025288e-03" rms="4.7156828641891479e-01" purity="4.6046590805053711e-01" nType="-99"/>
          </Node>
          <Node pos="r" depth="2" NCoef="0" IVar="5" Cut="-2.2435162067413330e+00" cType="1" res="6.0585271567106247e-03" rms="4.6123877167701721e-01" purity="5.5927687883377075e-01" nType="0">
            <Node pos="l" depth="3" NCoef="0" IVar="-1" Cut="0.0000000000000000e+00" cType="1" res="-1.2519284151494503e-02" rms="4.5901694893836975e-01" purity="5.6994408369064331e-01" nType="-99"/>
            <Node pos="r" depth="3" NCoef="0" IVar="-1" Cut="0.0000000000000000e+00" cType="1" res="1.1211753822863102e-02" rms="4.6179488301277161e-01" purity="5.5608177185058594e-01" nType="-99"/>
          </Node>
        </Node>
        <Node pos="r" depth="1" NCoef="0" IVar="4" Cut="1.6047276258468628e+00" cType="1" res="-3.5384539514780045e-02" rms="4.4659820199012756e-01" purity="5.5358499288558960e-01" nType="0">
          <Node pos="l" depth="2" NCoef="0" IVar="-1" Cut="0.0000000000000000e+00" cType="1" res="-2.1564813796430826e-03" rms="4.2709502577781677e-01" purity="4.6451818943023682e-01" nType="-99"/>
          <Node pos="r" depth="2" NCoef="0" IVar="-1" Cut="0.0000000000000000e+00" cType="1" res="7.2737061418592930e-03" rms="4.5837834477424622e-01" purity="6.2890803813934326e-01" nType="-99"/>
        </Node>
      </Node>
    </BinaryTree>
    <BinaryTree type="DecisionTree" boostWeight="1.0000000000000000e+00" itree="232">
      <Node pos="s" depth="0" NCoef="0" IVar="2" Cut="3.1831362915039062e+02" cType="1" res="2.0430968143045902e-03" rms="4.6404793858528137e-01" purity="5.0861632823944092e-01" nType="0">
        <Node pos="l" depth="1" NCoef="0" IVar="4" Cut="1.5991551876068115e+00" cType="1" res="0.0000000000000000e+00" rms="0.0000000000000000e+00" purity="4.9919283390045166e-01" nType="0">
          <Node pos="l" depth="2" NCoef="0" IVar="6" Cut="1.6455312967300415e+00" cType="1" res="7.1252863854169846e-03" rms="4.6235561370849609e-01" purity="4.7919172048568726e-01" nType="0">
            <Node pos="l" depth="3" NCoef="0" IVar="-1" Cut="0.0000000000000000e+00" cType="1" res="-6.2094717286527157e-03" rms="4.5558086037635803e-01" purity="4.8439744114875793e-01" nType="-99"/>
            <Node pos="r" depth="3" NCoef="0" IVar="-1" Cut="0.0000000000000000e+00" cType="1" res="3.1163107603788376e-02" rms="4.7584235668182373e-01" purity="4.6769216656684875e-01" nType="-99"/>
          </Node>
          <Node pos="r" depth="2" NCoef="0" IVar="2" Cut="2.1860076904296875e+02" cType="1" res="-1.1592482216656208e-02" rms="4.6386536955833435e-01" purity="5.1293891668319702e-01" nType="0">
            <Node pos="l" depth="3" NCoef="0" IVar="-1" Cut="0.0000000000000000e+00" cType="1" res="-1.4785422943532467e-02" rms="4.6144917607307434e-01" purity="5.1722592115402222e-01" nType="-99"/>
            <Node pos="r" depth="3" NCoef="0" IVar="-1" Cut="0.0000000000000000e+00" cType="1" res="1.2520553544163704e-02" rms="4.7188505530357361e-01" purity="4.9730452895164490e-01" nType="-99"/>
          </Node>
        </Node>
        <Node pos="r" depth="1" NCoef="0" IVar="9" Cut="6.5250773437500000e+04" cType="1" res="3.3582989126443863e-02" rms="4.6646514534950256e-01" purity="5.5805850028991699e-01" nType="0">
          <Node pos="l" depth="2" NCoef="0" IVar="6" Cut="-1.3463690280914307e+00" cType="1" res="0.0000000000000000e+00" rms="0.0000000000000000e+00" purity="4.9812480807304382e-01" nType="0">
            <Node pos="l" depth="3" NCoef="0" IVar="-1" Cut="0.0000000000000000e+00" cType="1" res="4.7894287854433060e-02" rms="4.7823143005371094e-01" purity="5.3410619497299194e-01" nType="-99"/>
            <Node pos="r" depth="3" NCoef="0" IVar="-1" Cut="0.0000000000000000e+00" cType="1" res="9.2123327776789665e-03" rms="4.6941944956779480e-01" purity="4.7004210948944092e-01" nType="-99"/>
          </Node>
          <Node pos="r" depth="2" NCoef="0" IVar="-1" Cut="0.0000000000000000e+00" cType="1" res="5.0012264400720596e-02" rms="4.4528242945671082e-01" purity="7.2322207689285278e-01" nType="-99"/>
        </Node>
      </Node>
    </BinaryTree>
    <BinaryTree type="DecisionTree" boostWeight="1.0000000000000000e+00" itree="233">
      <Node pos="s" depth="0" NCoef="0" IVar="6" Cut="2.5431945323944092e+00" cType="1" res="-5.4776356555521488e-03" rms="4.6473851799964905e-01" purity="5.0287348031997681e-01" nType="0">
        <Node pos="l" depth="1" NCoef="0" IVar="7" Cut="5.0000000000000000e+00" cType="1" res="-6.2259251717478037e-04" rms="4.6286001801490784e-01" purity="5.1503121852874756e-01" nType="0">
          <Node pos="l" depth="2" NCoef="0" IVar="4" Cut="2.8520393371582031e+00" cType="1" res="0.0000000000000000e+00" rms="0.0000000000000000e+00" purity="4.1306707262992859e-01" nType="0">
            <Node pos="l" depth="3" NCoef="0" IVar="-1" Cut="0.0000000000000000e+00" cType="1" res="-6.0236724093556404e-03" rms="4.6862429380416870e-01" purity="4.1568633913993835e-01" nType="-99"/>
            <Node pos="r" depth="3" NCoef="0" IVar="-1" Cut="0.0000000000000000e+00" cType="1" res="-2.9863450676202774e-02" rms="4.5956611633300781e-01" purity="3.9968353509902954e-01" nType="-99"/>
          </Node>
          <Node pos="r" depth="2" NCoef="0" IVar="1" Cut="2.4644589062500000e+05" cType="1" res="6.3792476430535316e-03" rms="4.5960640907287598e-01" purity="5.8599174022674561e-01" nType="0">
            <Node pos="l" depth="3" NCoef="0" IVar="-1" Cut="0.0000000000000000e+00" cType="1" res="1.0504404082894325e-02" rms="4.5946052670478821e-01" purity="6.0105860233306885e-01" nType="-99"/>
            <Node pos="r" depth="3" NCoef="0" IVar="-1" Cut="0.0000000000000000e+00" cType="1" res="-3.5156339406967163e-02" rms="4.5994263887405396e-01" purity="4.2441016435623169e-01" nType="-99"/>
          </Node>
        </Node>
        <Node pos="r" depth="1" NCoef="0" IVar="1" Cut="1.7833078125000000e+05" cType="1" res="-2.5290541350841522e-02" rms="4.7180449962615967e-01" purity="4.5322045683860779e-01" nType="0">
          <Node pos="l" depth="2" NCoef="0" IVar="6" Cut="2.8851823806762695e+00" cType="1" res="-3.6561474204063416e-02" rms="4.7241383790969849e-01" purity="4.7089987993240356e-01" nType="0">
            <Node pos="l" depth="3" NCoef="0" IVar="-1" Cut="0.0000000000000000e+00" cType="1" res="-6.8326778709888458e-03" rms="4.6919623017311096e-01" purity="4.3850523233413696e-01" nType="-99"/>
            <Node pos="r" depth="3" NCoef="0" IVar="-1" Cut="0.0000000000000000e+00" cType="1" res="-1.0623513720929623e-02" rms="4.7566652297973633e-01" purity="5.1324039697647095e-01" nType="-99"/>
          </Node>
          <Node pos="r" depth="2" NCoef="0" IVar="-1" Cut="0.0000000000000000e+00" cType="1" res="1.0479444637894630e-02" rms="4.6827599406242371e-01" purity="3.9938107132911682e-01" nType="-99"/>
        </Node>
      </Node>
    </BinaryTree>
    <BinaryTree type="DecisionTree" boostWeight="1.0000000000000000e+00" itree="234">
      <Node pos="s" depth="0" NCoef="0" IVar="6" Cut="7.4800986051559448e-01" cType="1" res="0.0000000000000000e+00" rms="0.0000000000000000e+00" purity="4.9359965324401855e-01" nType="0">
        <Node pos="l" depth="1" NCoef="0" IVar="4" Cut="8.7567520141601562e-01" cType="1" res="-9.3695399118587375e-04" rms="4.6450757980346680e-01" purity="5.1853334903717041e-01" nType="0">
          <Node pos="l" depth="2" NCoef="0" IVar="1" Cut="1.7208979687500000e+05" cType="1" res="-2.4226846173405647e-02" rms="4.5609191060066223e-01" purity="4.5118051767349243e-01" nType="0">
            <Node pos="l" depth="3" NCoef="0" IVar="-1" Cut="0.0000000000000000e+00" cType="1" res="-5.1092926412820816e-02" rms="4.6628323197364807e-01" purity="4.9079087376594543e-01" nType="-99"/>
            <Node pos="r" depth="3" NCoef="0" IVar="-1" Cut="0.0000000000000000e+00" cType="1" res="-7.6083792373538017e-03" rms="4.4413819909095764e-01" purity="4.0867239236831665e-01" nType="-99"/>
          </Node>
          <Node pos="r" depth="2" NCoef="0" IVar="5" Cut="2.5431931018829346e+00" cType="1" res="3.3785654231905937e-03" rms="4.6592244505882263e-01" purity="5.3101354837417603e-01" nType="0">
            <Node pos="l" depth="3" NCoef="0" IVar="-1" Cut="0.0000000000000000e+00" cType="1" res="8.6975060403347015e-03" rms="4.6715980768203735e-01" purity="5.2700024843215942e-01" nType="-99"/>
            <Node pos="r" depth="3" NCoef="0" IVar="-1" Cut="0.0000000000000000e+00" cType="1" res="-2.9373720288276672e-02" rms="4.5445618033409119e-01" purity="5.6379628181457520e-01" nType="-99"/>
          </Node>
        </Node>
        <Node pos="r" depth="1" NCoef="0" IVar="7" Cut="6.0000000000000000e+00" cType="1" res="-2.3414978757500648e-02" rms="4.5858362317085266e-01" purity="4.6263027191162109e-01" nType="0">
          <Node pos="l" depth="2" NCoef="0" IVar="5" Cut="-1.5000264346599579e-01" cType="1" res="-1.2181319296360016e-02" rms="4.6249553561210632e-01" purity="4.5245569944381714e-01" nType="0">
            <Node pos="l" depth="3" NCoef="0" IVar="-1" Cut="0.0000000000000000e+00" cType="1" res="1.5105950646102428e-02" rms="4.5267254114151001e-01" purity="5.9834456443786621e-01" nType="-99"/>
            <Node pos="r" depth="3" NCoef="0" IVar="-1" Cut="0.0000000000000000e+00" cType="1" res="-1.0914002545177937e-02" rms="4.6407049894332886e-01" purity="4.2620179057121277e-01" nType="-99"/>
          </Node>
          <Node pos="r" depth="2" NCoef="0" IVar="6" Cut="2.3431739807128906e+00" cType="1" res="0.0000000000000000e+00" rms="0.0000000000000000e+00" purity="4.9227374792098999e-01" nType="0">
            <Node pos="l" depth="3" NCoef="0" IVar="-1" Cut="0.0000000000000000e+00" cType="1" res="-1.5181543305516243e-02" rms="4.5048725605010986e-01" purity="6.0347908735275269e-01" nType="-99"/>
            <Node pos="r" depth="3" NCoef="0" IVar="-1" Cut="0.0000000000000000e+00" cType="1" res="-2.1141055040061474e-03" rms="4.3439313769340515e-01" purity="3.6793661117553711e-01" nType="-99"/>
          </Node>
        </Node>
      </Node>
    </BinaryTree>
    <BinaryTree type="DecisionTree" boostWeight="1.0000000000000000e+00" itree="235">
      <Node pos="s" depth="0" NCoef="0" IVar="6" Cut="-1.0471898317337036e+00" cType="1" res="-7.1561066433787346e-03" rms="4.6200788021087646e-01" purity="4.9682652950286865e-01" nType="0">
        <Node pos="l" depth="1" NCoef="0" IVar="5" Cut="-1.6453859806060791e+00" cType="1" res="1.1554354568943381e-04" rms="4.6722429990768433e-01" purity="4.9032905697822571e-01" nType="0">
          <Node pos="l" depth="2" NCoef="0" IVar="5" Cut="-2.0729370117187500e+00" cType="1" res="1.2256489135324955e-02" rms="4.6877744793891907e-01" purity="4.9989774823188782e-01" nType="0">
            <Node pos="l" depth="3" NCoef="0" IVar="-1" Cut="0.0000000000000000e+00" cType="1" res="2.4926563724875450e-02" rms="4.6927264332771301e-01" purity="5.2243405580520630e-01" nType="-99"/>
            <Node pos="r" depth="3" NCoef="0" IVar="-1" Cut="0.0000000000000000e+00" cType="1" res="-5.7417768985033035e-03" rms="4.6678781509399414e-01" purity="4.3845337629318237e-01" nType="-99"/>
          </Node>
          <Node pos="r" depth="2" NCoef="0" IVar="4" Cut="2.6901013851165771e+00" cType="1" res="0.0000000000000000e+00" rms="0.0000000000000000e+00" purity="4.8109900951385498e-01" nType="0">
            <Node pos="l" depth="3" NCoef="0" IVar="-1" Cut="0.0000000000000000e+00" cType="1" res="-4.3944790959358215e-03" rms="4.6873506903648376e-01" purity="4.8598715662956238e-01" nType="-99"/>
            <Node pos="r" depth="3" NCoef="0" IVar="-1" Cut="0.0000000000000000e+00" cType="1" res="-1.7992850393056870e-02" rms="4.5535579323768616e-01" purity="4.6755078434944153e-01" nType="-99"/>
          </Node>
        </Node>
        <Node pos="r" depth="1" NCoef="0" IVar="4" Cut="3.0039792060852051e+00" cType="1" res="-1.1979995295405388e-02" rms="4.5845103263854980e-01" purity="5.0113683938980103e-01" nType="0">
          <Node pos="l" depth="2" NCoef="0" IVar="5" Cut="-2.2439131736755371e+00" cType="1" res="-1.4865121804177761e-02" rms="4.5813578367233276e-01" purity="5.0007033348083496e-01" nType="0">
            <Node pos="l" depth="3" NCoef="0" IVar="-1" Cut="0.0000000000000000e+00" cType="1" res="-6.3455770723521709e-03" rms="4.3670853972434998e-01" purity="5.2361214160919189e-01" nType="-99"/>
            <Node pos="r" depth="3" NCoef="0" IVar="-1" Cut="0.0000000000000000e+00" cType="1" res="-5.5650300346314907e-03" rms="4.6209499239921570e-01" purity="4.9532377719879150e-01" nType="-99"/>
          </Node>
          <Node pos="r" depth="2" NCoef="0" IVar="-1" Cut="0.0000000000000000e+00" cType="1" res="4.1711633093655109e-03" rms="4.6010378003120422e-01" purity="5.0835573673248291e-01" nType="-99"/>
        </Node>
      </Node>
    </BinaryTree>
    <BinaryTree type="DecisionTree" boostWeight="1.0000000000000000e+00" itree="236">
      <Node pos="s" depth="0" NCoef="0" IVar="5" Cut="2.8423950672149658e+00" cType="1" res="-1.9342064624652267e-03" rms="4.6140435338020325e-01" purity="5.0412696599960327e-01" nType="0">
        <Node pos="l" depth="1" NCoef="0" IVar="8" Cut="1.2233736718750000e+05" cType="1" res="-4.1986317373812199e-03" rms="4.6136856079101562e-01" purity="4.9763616919517517e-01" nType="0">
          <Node pos="l" depth="2" NCoef="0" IVar="8" Cut="8.5263828125000000e+04" cType="1" res="-6.6435397602617741e-03" rms="4.6391296386718750e-01" purity="4.7758510708808899e-01" nType="0">
            <Node pos="l" depth="3" NCoef="0" IVar="-1" Cut="0.0000000000000000e+00" cType="1" res="-1.9615942146629095e-03" rms="4.6649616956710815e-01" purity="4.5072218775749207e-01" nType="-99"/>
            <Node pos="r" depth="3" NCoef="0" IVar="-1" Cut="0.0000000000000000e+00" cType="1" res="-2.4560207501053810e-02" rms="4.5016151666641235e-01" purity="6.1472564935684204e-01" nType="-99"/>
          </Node>
          <Node pos="r" depth="2" NCoef="0" IVar="2" Cut="2.2181340026855469e+02" cType="1" res="2.0237598568201065e-02" rms="4.3436574935913086e-01" purity="6.9804155826568604e-01" nType="0">
            <Node pos="l" depth="3" NCoef="0" IVar="-1" Cut="0.0000000000000000e+00" cType="1" res="3.7066988646984100e-02" rms="4.1336059570312500e-01" purity="7.2216945886611938e-01" nType="-99"/>
            <Node pos="r" depth="3" NCoef="0" IVar="-1" Cut="0.0000000000000000e+00" cType="1" res="1.5737937763333321e-02" rms="4.5403257012367249e-01" purity="6.7415708303451538e-01" nType="-99"/>
          </Node>
        </Node>
        <Node pos="r" depth="1" NCoef="0" IVar="-1" Cut="0.0000000000000000e+00" cType="1" res="2.7771037071943283e-02" rms="4.6090254187583923e-01" purity="5.8592605590820312e-01" nType="-99"/>
      </Node>
    </BinaryTree>
    <BinaryTree type="DecisionTree" boostWeight="1.0000000000000000e+00" itree="237">
      <Node pos="s" depth="0" NCoef="0" IVar="2" Cut="2.2743400573730469e+02" cType="1" res="1.3553804019466043e-03" rms="4.6267059445381165e-01" purity="5.0192999839782715e-01" nType="0">
        <Node pos="l" depth="1" NCoef="0" IVar="2" Cut="1.6518620300292969e+02" cType="1" res="6.6658640280365944e-03" rms="4.6249958872795105e-01" purity="5.1273941993713379e-01" nType="0">
          <Node pos="l" depth="2" NCoef="0" IVar="8" Cut="5.2216253906250000e+04" cType="1" res="1.7692863941192627e-02" rms="4.6411755681037903e-01" purity="5.1853400468826294e-01" nType="0">
            <Node pos="l" depth="3" NCoef="0" IVar="-1" Cut="0.0000000000000000e+00" cType="1" res="3.8552306592464447e-02" rms="4.7505185008049011e-01" purity="4.1724762320518494e-01" nType="-99"/>
            <Node pos="r" depth="3" NCoef="0" IVar="-1" Cut="0.0000000000000000e+00" cType="1" res="1.5807825839146972e-03" rms="4.5253440737724304e-01" purity="6.1801588535308838e-01" nType="-99"/>
          </Node>
          <Node pos="r" depth="2" NCoef="0" IVar="9" Cut="4.3180304687500000e+04" cType="1" res="-3.8347361260093749e-04" rms="4.6132418513298035e-01" purity="5.0903517007827759e-01" nType="0">
            <Node pos="l" depth="3" NCoef="0" IVar="-1" Cut="0.0000000000000000e+00" cType="1" res="-9.2461835592985153e-03" rms="4.6309560537338257e-01" purity="3.9907458424568176e-01" nType="-99"/>
            <Node pos="r" depth="3" NCoef="0" IVar="-1" Cut="0.0000000000000000e+00" cType="1" res="1.3517349027097225e-02" rms="4.5900535583496094e-01" purity="6.3389098644256592e-01" nType="-99"/>
          </Node>
        </Node>
        <Node pos="r" depth="1" NCoef="0" IVar="6" Cut="2.2439205646514893e+00" cType="1" res="-9.6571352332830429e-03" rms="4.6283084154129028e-01" purity="4.7951409220695496e-01" nType="0">
          <Node pos="l" depth="2" NCoef="0" IVar="4" Cut="8.6463880538940430e-01" cType="1" res="5.1290881820023060e-03" rms="4.6857604384422302e-01" purity="4.9574789404869080e-01" nType="0">
            <Node pos="l" depth="3" NCoef="0" IVar="-1" Cut="0.0000000000000000e+00" cType="1" res="4.9655325710773468e-02" rms="4.6531307697296143e-01" purity="4.8882126808166504e-01" nType="-99"/>
            <Node pos="r" depth="3" NCoef="0" IVar="-1" Cut="0.0000000000000000e+00" cType="1" res="-3.8446127437055111e-03" rms="4.6891137957572937e-01" purity="4.9742364883422852e-01" nType="-99"/>
          </Node>
          <Node pos="r" depth="2" NCoef="0" IVar="6" Cut="2.7142779827117920e+00" cType="1" res="-4.2837385088205338e-02" rms="4.4789832830429077e-01" purity="4.4308546185493469e-01" nType="0">
            <Node pos="l" depth="3" NCoef="0" IVar="-1" Cut="0.0000000000000000e+00" cType="1" res="-1.9838553853332996e-03" rms="4.1726261377334595e-01" purity="3.5089176893234253e-01" nType="-99"/>
            <Node pos="r" depth="3" NCoef="0" IVar="-1" Cut="0.0000000000000000e+00" cType="1" res="-5.7129743508994579e-03" rms="4.7089555859565735e-01" purity="5.2721643447875977e-01" nType="-99"/>
          </Node>
        </Node>
      </Node>
    </BinaryTree>
    <BinaryTree type="DecisionTree" boostWeight="1.0000000000000000e+00" itree="238">
      <Node pos="s" depth="0" NCoef="0" IVar="0" Cut="2.2094915625000000e+05" cType="1" res="-3.6386775318533182e-03" rms="4.6294087171554565e-01" purity="5.0154292583465576e-01" nType="0">
        <Node pos="l" depth="1" NCoef="0" IVar="4" Cut="1.6349129676818848e+00" cType="1" res="-1.5398288378491998e-03" rms="4.6635022759437561e-01" purity="4.8678782582283020e-01" nType="0">
          <Node pos="l" depth="2" NCoef="0" IVar="5" Cut="-2.5431439876556396e+00" cType="1" res="-1.5590968541800976e-02" rms="4.5989859104156494e-01" purity="4.4721308350563049e-01" nType="0">
            <Node pos="l" depth="3" NCoef="0" IVar="-1" Cut="0.0000000000000000e+00" cType="1" res="3.0493061989545822e-02" rms="4.5011007785797119e-01" purity="5.4984015226364136e-01" nType="-99"/>
            <Node pos="r" depth="3" NCoef="0" IVar="-1" Cut="0.0000000000000000e+00" cType="1" res="-2.9996747616678476e-03" rms="4.6126097440719604e-01" purity="4.2829477787017822e-01" nType="-99"/>
          </Node>
          <Node pos="r" depth="2" NCoef="0" IVar="0" Cut="1.6806467187500000e+05" cType="1" res="8.8439434766769409e-03" rms="4.7079181671142578e-01" purity="5.1603353023529053e-01" nType="0">
            <Node pos="l" depth="3" NCoef="0" IVar="-1" Cut="0.0000000000000000e+00" cType="1" res="2.0821334328502417e-03" rms="4.7436290979385376e-01" purity="4.8866760730743408e-01" nType="-99"/>
            <Node pos="r" depth="3" NCoef="0" IVar="-1" Cut="0.0000000000000000e+00" cType="1" res="3.1671687960624695e-02" rms="4.5987844467163086e-01" purity="5.9469139575958252e-01" nType="-99"/>
          </Node>
        </Node>
        <Node pos="r" depth="1" NCoef="0" IVar="9" Cut="6.3576500000000000e+04" cType="1" res="-1.8440643325448036e-02" rms="4.3785840272903442e-01" purity="6.0560226440429688e-01" nType="0">
          <Node pos="l" depth="2" NCoef="0" IVar="-1" Cut="0.0000000000000000e+00" cType="1" res="-5.0183486193418503e-02" rms="4.5604157447814941e-01" purity="5.1467162370681763e-01" nType="-99"/>
          <Node pos="r" depth="2" NCoef="0" IVar="-1" Cut="0.0000000000000000e+00" cType="1" res="2.7328759897500277e-03" rms="4.0396979451179504e-01" purity="7.6166790723800659e-01" nType="-99"/>
        </Node>
      </Node>
    </BinaryTree>
    <BinaryTree type="DecisionTree" boostWeight="1.0000000000000000e+00" itree="239">
      <Node pos="s" depth="0" NCoef="0" IVar="5" Cut="-2.5429263114929199e+00" cType="1" res="-5.1892916671931744e-03" rms="4.6423682570457458e-01" purity="5.0152170658111572e-01" nType="0">
        <Node pos="l" depth="1" NCoef="0" IVar="3" Cut="3.3043951988220215e+00" cType="1" res="0.0000000000000000e+00" rms="0.0000000000000000e+00" purity="5.2069044113159180e-01" nType="0">
          <Node pos="l" depth="2" NCoef="0" IVar="-1" Cut="0.0000000000000000e+00" cType="1" res="-4.5456551015377045e-03" rms="4.5088076591491699e-01" purity="4.4253978133201599e-01" nType="-99"/>
          <Node pos="r" depth="2" NCoef="0" IVar="-1" Cut="0.0000000000000000e+00" cType="1" res="-4.5917741954326630e-03" rms="4.4480329751968384e-01" purity="5.9918594360351562e-01" nType="-99"/>
        </Node>
        <Node pos="r" depth="1" NCoef="0" IVar="1" Cut="2.4550198437500000e+05" cType="1" res="2.7023296570405364e-04" rms="4.6676278114318848e-01" purity="4.9801674485206604e-01" nType="0">
          <Node pos="l" depth="2" NCoef="0" IVar="1" Cut="1.6182273437500000e+05" cType="1" res="-2.2055096924304962e-03" rms="4.6802225708961487e-01" purity="5.1126772165298462e-01" nType="0">
            <Node pos="l" depth="3" NCoef="0" IVar="-1" Cut="0.0000000000000000e+00" cType="1" res="-5.4302117787301540e-03" rms="4.7273868322372437e-01" purity="5.2642703056335449e-01" nType="-99"/>
            <Node pos="r" depth="3" NCoef="0" IVar="-1" Cut="0.0000000000000000e+00" cType="1" res="7.5899572111666203e-03" rms="4.5863258838653564e-01" purity="4.8194819688796997e-01" nType="-99"/>
          </Node>
          <Node pos="r" depth="2" NCoef="0" IVar="-1" Cut="0.0000000000000000e+00" cType="1" res="3.1389754265546799e-02" rms="4.5376747846603394e-01" purity="3.7043628096580505e-01" nType="-99"/>
        </Node>
      </Node>
    </BinaryTree>
    <BinaryTree type="DecisionTree" boostWeight="1.0000000000000000e+00" itree="240">
      <Node pos="s" depth="0" NCoef="0" IVar="7" Cut="7.0000000000000000e+00" cType="1" res="-1.4973557554185390e-02" rms="4.5995542407035828e-01" purity="4.8740610480308533e-01" nType="0">
        <Node pos="l" depth="1" NCoef="0" IVar="4" Cut="3.1730933189392090e+00" cType="1" res="-5.9400564059615135e-03" rms="4.6617636084556580e-01" purity="4.8882356286048889e-01" nType="0">
          <Node pos="l" depth="2" NCoef="0" IVar="0" Cut="2.5418218750000000e+05" cType="1" res="-2.9318106826394796e-03" rms="4.6710550785064697e-01" purity="4.9873352050781250e-01" nType="0">
            <Node pos="l" depth="3" NCoef="0" IVar="-1" Cut="0.0000000000000000e+00" cType="1" res="-4.6652616001665592e-03" rms="4.6963298320770264e-01" purity="4.8800444602966309e-01" nType="-99"/>
            <Node pos="r" depth="3" NCoef="0" IVar="-1" Cut="0.0000000000000000e+00" cType="1" res="3.9776124060153961e-02" rms="4.2998087406158447e-01" purity="6.4581549167633057e-01" nType="-99"/>
          </Node>
          <Node pos="r" depth="2" NCoef="0" IVar="-1" Cut="0.0000000000000000e+00" cType="1" res="-1.6474081203341484e-02" rms="4.5343428850173950e-01" purity="3.7081134319305420e-01" nType="-99"/>
        </Node>
        <Node pos="r" depth="1" NCoef="0" IVar="2" Cut="1.7522909545898438e+02" cType="1" res="-7.3872894048690796e-02" rms="4.1233649849891663e-01" purity="4.7816765308380127e-01" nType="0">
          <Node pos="l" depth="2" NCoef="0" IVar="-1" Cut="0.0000000000000000e+00" cType="1" res="4.1233226656913757e-03" rms="4.4341552257537842e-01" purity="6.5233081579208374e-01" nType="-99"/>
          <Node pos="r" depth="2" NCoef="0" IVar="-1" Cut="0.0000000000000000e+00" cType="1" res="-1.6954342136159539e-03" rms="3.7739980220794678e-01" purity="3.4878107905387878e-01" nType="-99"/>
        </Node>
      </Node>
    </BinaryTree>
    <BinaryTree type="DecisionTree" boostWeight="1.0000000000000000e+00" itree="241">
      <Node pos="s" depth="0" NCoef="0" IVar="6" Cut="-1.0471708774566650e+00" cType="1" res="-4.8387735150754452e-03" rms="4.6313115954399109e-01" purity="5.0302648544311523e-01" nType="0">
        <Node pos="l" depth="1" NCoef="0" IVar="4" Cut="2.1983709335327148e+00" cType="1" res="-1.3024694286286831e-02" rms="4.6898859739303589e-01" purity="4.8340988159179688e-01" nType="0">
          <Node pos="l" depth="2" NCoef="0" IVar="4" Cut="7.8744006156921387e-01" cType="1" res="-4.4538704678416252e-03" rms="4.6784928441047668e-01" purity="4.8215043544769287e-01" nType="0">
            <Node pos="l" depth="3" NCoef="0" IVar="-1" Cut="0.0000000000000000e+00" cType="1" res="2.8033902868628502e-02" rms="4.6700266003608704e-01" purity="4.9268236756324768e-01" nType="-99"/>
            <Node pos="r" depth="3" NCoef="0" IVar="-1" Cut="0.0000000000000000e+00" cType="1" res="-1.2634830549359322e-02" rms="4.6780270338058472e-01" purity="4.7967904806137085e-01" nType="-99"/>
          </Node>
          <Node pos="r" depth="2" NCoef="0" IVar="2" Cut="2.5855316162109375e+02" cType="1" res="-2.4724535644054413e-02" rms="4.7028732299804688e-01" purity="4.8512899875640869e-01" nType="0">
            <Node pos="l" depth="3" NCoef="0" IVar="-1" Cut="0.0000000000000000e+00" cType="1" res="-1.2729248031973839e-02" rms="4.7341290116310120e-01" purity="4.8469245433807373e-01" nType="-99"/>
            <Node pos="r" depth="3" NCoef="0" IVar="-1" Cut="0.0000000000000000e+00" cType="1" res="-4.1652314364910126e-02" rms="4.6072280406951904e-01" purity="4.8626756668090820e-01" nType="-99"/>
          </Node>
        </Node>
        <Node pos="r" depth="1" NCoef="0" IVar="6" Cut="1.7454239130020142e+00" cType="1" res="0.0000000000000000e+00" rms="0.0000000000000000e+00" purity="5.1616793870925903e-01" nType="0">
          <Node pos="l" depth="2" NCoef="0" IVar="6" Cut="-2.4910095334053040e-01" cType="1" res="1.3856657780706882e-02" rms="4.4266265630722046e-01" purity="5.8184498548507690e-01" nType="0">
            <Node pos="l" depth="3" NCoef="0" IVar="-1" Cut="0.0000000000000000e+00" cType="1" res="3.2710976898670197e-02" rms="4.3813374638557434e-01" purity="5.9588336944580078e-01" nType="-99"/>
            <Node pos="r" depth="3" NCoef="0" IVar="-1" Cut="0.0000000000000000e+00" cType="1" res="9.7513450309634209e-03" rms="4.4436195492744446e-01" purity="5.7610040903091431e-01" nType="-99"/>
          </Node>
          <Node pos="r" depth="2" NCoef="0" IVar="7" Cut="6.0000000000000000e+00" cType="1" res="-9.9010393023490906e-03" rms="4.7151872515678406e-01" purity="4.6371522545814514e-01" nType="0">
            <Node pos="l" depth="3" NCoef="0" IVar="-1" Cut="0.0000000000000000e+00" cType="1" res="-4.4922772212885320e-04" rms="4.7289246320724487e-01" purity="4.5684647560119629e-01" nType="-99"/>
            <Node pos="r" depth="3" NCoef="0" IVar="-1" Cut="0.0000000000000000e+00" cType="1" res="-4.7525013796985149e-03" rms="4.6433177590370178e-01" purity="4.9046492576599121e-01" nType="-99"/>
          </Node>
        </Node>
      </Node>
    </BinaryTree>
    <BinaryTree type="DecisionTree" boostWeight="1.0000000000000000e+00" itree="242">
      <Node pos="s" depth="0" NCoef="0" IVar="5" Cut="-2.8422799110412598e+00" cType="1" res="-9.4506330788135529e-03" rms="4.6319082379341125e-01" purity="4.9643701314926147e-01" nType="0">
        <Node pos="l" depth="1" NCoef="0" IVar="-1" Cut="0.0000000000000000e+00" cType="1" res="-3.2581738196313381e-03" rms="4.5190441608428955e-01" purity="5.0777906179428101e-01" nType="-99"/>
        <Node pos="r" depth="1" NCoef="0" IVar="5" Cut="-1.9873484373092651e+00" cType="1" res="-6.2783681787550449e-03" rms="4.6402001380920410e-01" purity="4.9545410275459290e-01" nType="0">
          <Node pos="l" depth="2" NCoef="0" IVar="0" Cut="1.9316368750000000e+05" cType="1" res="5.5005117319524288e-03" rms="4.6696823835372925e-01" purity="5.3423184156417847e-01" nType="0">
            <Node pos="l" depth="3" NCoef="0" IVar="-1" Cut="0.0000000000000000e+00" cType="1" res="-5.4120356217026711e-03" rms="4.7473683953285217e-01" purity="4.9688625335693359e-01" nType="-99"/>
            <Node pos="r" depth="3" NCoef="0" IVar="-1" Cut="0.0000000000000000e+00" cType="1" res="5.0999082624912262e-02" rms="4.3661782145500183e-01" purity="6.6555845737457275e-01" nType="-99"/>
          </Node>
          <Node pos="r" depth="2" NCoef="0" IVar="5" Cut="4.5497229695320129e-01" cType="1" res="-9.5571633428335190e-03" rms="4.6314269304275513e-01" purity="4.8465982079505920e-01" nType="0">
            <Node pos="l" depth="3" NCoef="0" IVar="-1" Cut="0.0000000000000000e+00" cType="1" res="-1.4589711092412472e-02" rms="4.6331122517585754e-01" purity="4.4741454720497131e-01" nType="-99"/>
            <Node pos="r" depth="3" NCoef="0" IVar="-1" Cut="0.0000000000000000e+00" cType="1" res="-2.3608286865055561e-03" rms="4.6289482712745667e-01" purity="5.0630146265029907e-01" nType="-99"/>
          </Node>
        </Node>
      </Node>
    </BinaryTree>
    <BinaryTree type="DecisionTree" boostWeight="1.0000000000000000e+00" itree="243">
      <Node pos="s" depth="0" NCoef="0" IVar="5" Cut="-2.8422944545745850e+00" cType="1" res="-5.6763947941362858e-03" rms="4.6306830644607544e-01" purity="4.9795559048652649e-01" nType="0">
        <Node pos="l" depth="1" NCoef="0" IVar="-1" Cut="0.0000000000000000e+00" cType="1" res="-5.2183507941663265e-03" rms="4.4872069358825684e-01" purity="5.2955472469329834e-01" nType="-99"/>
        <Node pos="r" depth="1" NCoef="0" IVar="6" Cut="-2.5431563854217529e+00" cType="1" res="-2.8235982172191143e-03" rms="4.6410873532295227e-01" purity="4.9536600708961487e-01" nType="0">
          <Node pos="l" depth="2" NCoef="0" IVar="5" Cut="7.2436560876667500e-03" cType="1" res="1.1445453390479088e-02" rms="4.7486051917076111e-01" purity="4.7519409656524658e-01" nType="0">
            <Node pos="l" depth="3" NCoef="0" IVar="-1" Cut="0.0000000000000000e+00" cType="1" res="2.3399174213409424e-02" rms="4.7346308827400208e-01" purity="4.6989765763282776e-01" nType="-99"/>
            <Node pos="r" depth="3" NCoef="0" IVar="-1" Cut="0.0000000000000000e+00" cType="1" res="-1.7779134213924408e-02" rms="4.7818878293037415e-01" purity="4.9200609326362610e-01" nType="-99"/>
          </Node>
          <Node pos="r" depth="2" NCoef="0" IVar="6" Cut="2.8708860874176025e+00" cType="1" res="-6.0942741110920906e-03" rms="4.6154683828353882e-01" purity="4.9998965859413147e-01" nType="0">
            <Node pos="l" depth="3" NCoef="0" IVar="-1" Cut="0.0000000000000000e+00" cType="1" res="-6.7996261641383171e-03" rms="4.6034950017929077e-01" purity="5.0176894664764404e-01" nType="-99"/>
            <Node pos="r" depth="3" NCoef="0" IVar="-1" Cut="0.0000000000000000e+00" cType="1" res="1.2502342462539673e-02" rms="4.6963599324226379e-01" purity="4.8698285222053528e-01" nType="-99"/>
          </Node>
        </Node>
      </Node>
    </BinaryTree>
    <BinaryTree type="DecisionTree" boostWeight="1.0000000000000000e+00" itree="244">
      <Node pos="s" depth="0" NCoef="0" IVar="1" Cut="2.6783131250000000e+05" cType="1" res="-4.1469852440059185e-03" rms="4.6115672588348389e-01" purity="5.0144797563552856e-01" nType="0">
        <Node pos="l" depth="1" NCoef="0" IVar="1" Cut="1.2704037500000000e+05" cType="1" res="-2.4703440722078085e-03" rms="4.6250864863395691e-01" purity="5.1296663284301758e-01" nType="0">
          <Node pos="l" depth="2" NCoef="0" IVar="9" Cut="5.2843371093750000e+04" cType="1" res="-2.7197400107979774e-02" rms="4.6617829799652100e-01" purity="4.5215833187103271e-01" nType="0">
            <Node pos="l" depth="3" NCoef="0" IVar="-1" Cut="0.0000000000000000e+00" cType="1" res="3.6006558220833540e-03" rms="4.7785219550132751e-01" purity="4.4978651404380798e-01" nType="-99"/>
            <Node pos="r" depth="3" NCoef="0" IVar="-1" Cut="0.0000000000000000e+00" cType="1" res="-2.3554973304271698e-03" rms="4.3568721413612366e-01" purity="4.5684096217155457e-01" nType="-99"/>
          </Node>
          <Node pos="r" depth="2" NCoef="0" IVar="4" Cut="1.8602018356323242e+00" cType="1" res="2.6185605674982071e-03" rms="4.6158546209335327e-01" purity="5.2548116445541382e-01" nType="0">
            <Node pos="l" depth="3" NCoef="0" IVar="-1" Cut="0.0000000000000000e+00" cType="1" res="-1.0832225903868675e-02" rms="4.6329903602600098e-01" purity="4.9023246765136719e-01" nType="-99"/>
            <Node pos="r" depth="3" NCoef="0" IVar="-1" Cut="0.0000000000000000e+00" cType="1" res="1.5601746737957001e-02" rms="4.5960783958435059e-01" purity="5.5946892499923706e-01" nType="-99"/>
          </Node>
        </Node>
        <Node pos="r" depth="1" NCoef="0" IVar="-1" Cut="0.0000000000000000e+00" cType="1" res="-3.5309463739395142e-02" rms="4.4073984026908875e-01" purity="3.3723056316375732e-01" nType="-99"/>
      </Node>
    </BinaryTree>
    <BinaryTree type="DecisionTree" boostWeight="1.0000000000000000e+00" itree="245">
      <Node pos="s" depth="0" NCoef="0" IVar="4" Cut="8.8182860612869263e-01" cType="1" res="-2.4347570724785328e-03" rms="4.6282213926315308e-01" purity="5.0165647268295288e-01" nType="0">
        <Node pos="l" depth="1" NCoef="0" IVar="3" Cut="4.9682626724243164e+00" cType="1" res="-2.0691322162747383e-02" rms="4.5138588547706604e-01" purity="4.3389886617660522e-01" nType="0">
          <Node pos="l" depth="2" NCoef="0" IVar="-1" Cut="0.0000000000000000e+00" cType="1" res="-6.8608080036938190e-03" rms="4.4997599720954895e-01" purity="4.1193795204162598e-01" nType="-99"/>
          <Node pos="r" depth="2" NCoef="0" IVar="-1" Cut="0.0000000000000000e+00" cType="1" res="1.6930509358644485e-02" rms="4.5075157284736633e-01" purity="4.5880842208862305e-01" nType="-99"/>
        </Node>
        <Node pos="r" depth="1" NCoef="0" IVar="2" Cut="4.6860388183593750e+02" cType="1" res="1.1399142676964402e-03" rms="4.6494454145431519e-01" purity="5.1492351293563843e-01" nType="0">
          <Node pos="l" depth="2" NCoef="0" IVar="6" Cut="-2.2439029216766357e+00" cType="1" res="-2.3394500021822751e-04" rms="4.6492356061935425e-01" purity="5.0981521606445312e-01" nType="0">
            <Node pos="l" depth="3" NCoef="0" IVar="-1" Cut="0.0000000000000000e+00" cType="1" res="-1.3100867159664631e-02" rms="4.7691401839256287e-01" purity="4.6030157804489136e-01" nType="-99"/>
            <Node pos="r" depth="3" NCoef="0" IVar="-1" Cut="0.0000000000000000e+00" cType="1" res="4.1771912947297096e-03" rms="4.6058702468872070e-01" purity="5.2712547779083252e-01" nType="-99"/>
          </Node>
          <Node pos="r" depth="2" NCoef="0" IVar="-1" Cut="0.0000000000000000e+00" cType="1" res="2.4564284831285477e-02" rms="4.6473735570907593e-01" purity="5.9556823968887329e-01" nType="-99"/>
        </Node>
      </Node>
    </BinaryTree>
    <BinaryTree type="DecisionTree" boostWeight="1.0000000000000000e+00" itree="246">
      <Node pos="s" depth="0" NCoef="0" IVar="7" Cut="7.0000000000000000e+00" cType="1" res="-8.2408711314201355e-03" rms="4.6164971590042114e-01" purity="4.9415272474288940e-01" nType="0">
        <Node pos="l" depth="1" NCoef="0" IVar="5" Cut="2.8423869609832764e+00" cType="1" res="-5.2834488451480865e-03" rms="4.6469637751579285e-01" purity="4.8533660173416138e-01" nType="0">
          <Node pos="l" depth="2" NCoef="0" IVar="3" Cut="1.2173584938049316e+01" cType="1" res="-2.9338425956666470e-03" rms="4.6444416046142578e-01" purity="4.8231205344200134e-01" nType="0">
            <Node pos="l" depth="3" NCoef="0" IVar="-1" Cut="0.0000000000000000e+00" cType="1" res="-5.3479860071092844e-04" rms="4.6622505784034729e-01" purity="4.8474702239036560e-01" nType="-99"/>
            <Node pos="r" depth="3" NCoef="0" IVar="-1" Cut="0.0000000000000000e+00" cType="1" res="-5.7274136692285538e-02" rms="4.3910133838653564e-01" purity="4.5026069879531860e-01" nType="-99"/>
          </Node>
          <Node pos="r" depth="2" NCoef="0" IVar="-1" Cut="0.0000000000000000e+00" cType="1" res="-4.1630961000919342e-02" rms="4.6686607599258423e-01" purity="5.2394545078277588e-01" nType="-99"/>
        </Node>
        <Node pos="r" depth="1" NCoef="0" IVar="4" Cut="1.5569216012954712e+00" cType="1" res="-2.9519053176045418e-02" rms="4.3875437974929810e-01" purity="5.5753058195114136e-01" nType="0">
          <Node pos="l" depth="2" NCoef="0" IVar="-1" Cut="0.0000000000000000e+00" cType="1" res="-1.4352257130667567e-03" rms="4.2878580093383789e-01" purity="4.9246045947074890e-01" nType="-99"/>
          <Node pos="r" depth="2" NCoef="0" IVar="-1" Cut="0.0000000000000000e+00" cType="1" res="-4.2917076498270035e-03" rms="4.4473719596862793e-01" purity="6.0409229993820190e-01" nType="-99"/>
        </Node>
      </Node>
    </BinaryTree>
    <BinaryTree type="DecisionTree" boostWeight="1.0000000000000000e+00" itree="247">
      <Node pos="s" depth="0" NCoef="0" IVar="6" Cut="-4.4877615571022034e-01" cType="1" res="-1.2155398726463318e-03" rms="4.5913743972778320e-01" purity="4.9979880452156067e-01" nType="0">
        <Node pos="l" depth="1" NCoef="0" IVar="3" Cut="1.3069732189178467e+00" cType="1" res="8.9973891153931618e-03" rms="4.6361216902732849e-01" purity="5.0495105981826782e-01" nType="0">
          <Node pos="l" depth="2" NCoef="0" IVar="-1" Cut="0.0000000000000000e+00" cType="1" res="-1.1754078790545464e-02" rms="4.6148589253425598e-01" purity="4.0503072738647461e-01" nType="-99"/>
          <Node pos="r" depth="2" NCoef="0" IVar="4" Cut="2.3210122585296631e+00" cType="1" res="1.5540779568254948e-02" rms="4.6388161182403564e-01" purity="5.2889645099639893e-01" nType="0">
            <Node pos="l" depth="3" NCoef="0" IVar="-1" Cut="0.0000000000000000e+00" cType="1" res="3.2631665468215942e-02" rms="4.6464055776596069e-01" purity="5.2148503065109253e-01" nType="-99"/>
            <Node pos="r" depth="3" NCoef="0" IVar="-1" Cut="0.0000000000000000e+00" cType="1" res="-1.6842249315232038e-03" rms="4.6204516291618347e-01" purity="5.4209673404693604e-01" nType="-99"/>
          </Node>
        </Node>
        <Node pos="r" depth="1" NCoef="0" IVar="3" Cut="3.5063967704772949e+00" cType="1" res="-9.8001193255186081e-03" rms="4.5516490936279297e-01" purity="4.9546802043914795e-01" nType="0">
          <Node pos="l" depth="2" NCoef="0" IVar="5" Cut="1.6442035436630249e+00" cType="1" res="-2.3229822516441345e-02" rms="4.5772501826286316e-01" purity="4.5095703005790710e-01" nType="0">
            <Node pos="l" depth="3" NCoef="0" IVar="-1" Cut="0.0000000000000000e+00" cType="1" res="-2.3403777740895748e-03" rms="4.4597980380058289e-01" purity="4.5246189832687378e-01" nType="-99"/>
            <Node pos="r" depth="3" NCoef="0" IVar="-1" Cut="0.0000000000000000e+00" cType="1" res="-2.3591704666614532e-03" rms="4.6721518039703369e-01" purity="4.4958782196044922e-01" nType="-99"/>
          </Node>
          <Node pos="r" depth="2" NCoef="0" IVar="3" Cut="7.4281244277954102e+00" cType="1" res="-3.7438160507008433e-04" rms="4.5312181115150452e-01" purity="5.2670836448669434e-01" nType="0">
            <Node pos="l" depth="3" NCoef="0" IVar="-1" Cut="0.0000000000000000e+00" cType="1" res="-8.5057793185114861e-03" rms="4.5850950479507446e-01" purity="5.2285963296890259e-01" nType="-99"/>
            <Node pos="r" depth="3" NCoef="0" IVar="-1" Cut="0.0000000000000000e+00" cType="1" res="1.8190726637840271e-02" rms="4.4525489211082458e-01" purity="5.3197401762008667e-01" nType="-99"/>
          </Node>
        </Node>
      </Node>
    </BinaryTree>
    <BinaryTree type="DecisionTree" boostWeight="1.0000000000000000e+00" itree="248">
      <Node pos="s" depth="0" NCoef="0" IVar="5" Cut="2.8419537544250488e+00" cType="1" res="-4.6807308681309223e-03" rms="4.6439296007156372e-01" purity="4.9852946400642395e-01" nType="0">
        <Node pos="l" depth="1" NCoef="0" IVar="4" Cut="1.6744205951690674e+00" cType="1" res="-6.0891779139637947e-03" rms="4.6388846635818481e-01" purity="4.9364620447158813e-01" nType="0">
          <Node pos="l" depth="2" NCoef="0" IVar="6" Cut="-1.0468744039535522e+00" cType="1" res="5.6151568423956633e-04" rms="4.6155729889869690e-01" purity="4.7481885552406311e-01" nType="0">
            <Node pos="l" depth="3" NCoef="0" IVar="-1" Cut="0.0000000000000000e+00" cType="1" res="-1.4244733378291130e-02" rms="4.6896761655807495e-01" purity="4.5112577080726624e-01" nType="-99"/>
            <Node pos="r" depth="3" NCoef="0" IVar="-1" Cut="0.0000000000000000e+00" cType="1" res="6.1191380955278873e-03" rms="4.5622214674949646e-01" purity="4.9095585942268372e-01" nType="-99"/>
          </Node>
          <Node pos="r" depth="2" NCoef="0" IVar="6" Cut="-7.4789255857467651e-01" cType="1" res="0.0000000000000000e+00" rms="0.0000000000000000e+00" purity="5.0799995660781860e-01" nType="0">
            <Node pos="l" depth="3" NCoef="0" IVar="-1" Cut="0.0000000000000000e+00" cType="1" res="2.2542700171470642e-03" rms="4.7186818718910217e-01" purity="5.0728076696395874e-01" nType="-99"/>
            <Node pos="r" depth="3" NCoef="0" IVar="-1" Cut="0.0000000000000000e+00" cType="1" res="-1.1984219774603844e-02" rms="4.6031546592712402e-01" purity="5.0856751203536987e-01" nType="-99"/>
          </Node>
        </Node>
        <Node pos="r" depth="1" NCoef="0" IVar="-1" Cut="0.0000000000000000e+00" cType="1" res="1.4261658303439617e-02" rms="4.7043946385383606e-01" purity="5.6113487482070923e-01" nType="-99"/>
      </Node>
    </BinaryTree>
    <BinaryTree type="DecisionTree" boostWeight="1.0000000000000000e+00" itree="249">
      <Node pos="s" depth="0" NCoef="0" IVar="2" Cut="2.2726524353027344e+02" cType="1" res="5.8268713764846325e-03" rms="4.6328625082969666e-01" purity="5.0831830501556396e-01" nType="0">
        <Node pos="l" depth="1" NCoef="0" IVar="6" Cut="2.2439980506896973e+00" cType="1" res="1.1447967030107975e-02" rms="4.6234148740768433e-01" purity="5.2117025852203369e-01" nType="0">
          <Node pos="l" depth="2" NCoef="0" IVar="9" Cut="5.0487742187500000e+04" cType="1" res="7.7429180964827538e-03" rms="4.5571124553680420e-01" purity="5.3759568929672241e-01" nType="0">
            <Node pos="l" depth="3" NCoef="0" IVar="-1" Cut="0.0000000000000000e+00" cType="1" res="-2.9175353120081127e-04" rms="4.6523472666740417e-01" purity="4.4618523120880127e-01" nType="-99"/>
            <Node pos="r" depth="3" NCoef="0" IVar="-1" Cut="0.0000000000000000e+00" cType="1" res="2.5694604963064194e-02" rms="4.3782293796539307e-01" purity="7.0086526870727539e-01" nType="-99"/>
          </Node>
          <Node pos="r" depth="2" NCoef="0" IVar="3" Cut="3.9992060661315918e+00" cType="1" res="0.0000000000000000e+00" rms="0.0000000000000000e+00" purity="4.6721538901329041e-01" nType="0">
            <Node pos="l" depth="3" NCoef="0" IVar="-1" Cut="0.0000000000000000e+00" cType="1" res="2.5998975615948439e-03" rms="4.8673245310783386e-01" purity="4.2727807164192200e-01" nType="-99"/>
            <Node pos="r" depth="3" NCoef="0" IVar="-1" Cut="0.0000000000000000e+00" cType="1" res="4.1710555553436279e-02" rms="4.8012205958366394e-01" purity="4.9758273363113403e-01" nType="-99"/>
          </Node>
        </Node>
        <Node pos="r" depth="1" NCoef="0" IVar="4" Cut="1.6756818294525146e+00" cType="1" res="-6.0285287909209728e-03" rms="4.6504986286163330e-01" purity="4.8121228814125061e-01" nType="0">
          <Node pos="l" depth="2" NCoef="0" IVar="6" Cut="1.6442201137542725e+00" cType="1" res="-2.3089492693543434e-02" rms="4.5774218440055847e-01" purity="4.3224337697029114e-01" nType="0">
            <Node pos="l" depth="3" NCoef="0" IVar="-1" Cut="0.0000000000000000e+00" cType="1" res="3.0489654745906591e-03" rms="4.6651464700698853e-01" purity="4.5959773659706116e-01" nType="-99"/>
            <Node pos="r" depth="3" NCoef="0" IVar="-1" Cut="0.0000000000000000e+00" cType="1" res="-1.7802127404138446e-03" rms="4.4063147902488708e-01" purity="3.8920167088508606e-01" nType="-99"/>
          </Node>
          <Node pos="r" depth="2" NCoef="0" IVar="6" Cut="-4.4860956072807312e-01" cType="1" res="8.1299524754285812e-03" rms="4.7055882215499878e-01" purity="5.2185040712356567e-01" nType="0">
            <Node pos="l" depth="3" NCoef="0" IVar="-1" Cut="0.0000000000000000e+00" cType="1" res="-7.7710556797683239e-03" rms="4.7038692235946655e-01" purity="5.0221562385559082e-01" nType="-99"/>
            <Node pos="r" depth="3" NCoef="0" IVar="-1" Cut="0.0000000000000000e+00" cType="1" res="3.0936624854803085e-02" rms="4.7000414133071899e-01" purity="5.4163497686386108e-01" nType="-99"/>
          </Node>
        </Node>
      </Node>
    </BinaryTree>
    <BinaryTree type="DecisionTree" boostWeight="1.0000000000000000e+00" itree="250">
      <Node pos="s" depth="0" NCoef="0" IVar="7" Cut="7.0000000000000000e+00" cType="1" res="-9.0909237042069435e-03" rms="4.6116313338279724e-01" purity="4.9551114439964294e-01" nType="0">
        <Node pos="l" depth="1" NCoef="0" IVar="3" Cut="1.2173584938049316e+01" cType="1" res="-3.0182995833456516e-03" rms="4.6498376131057739e-01" purity="4.9202463030815125e-01" nType="0">
          <Node pos="l" depth="2" NCoef="0" IVar="5" Cut="-1.6456395387649536e+00" cType="1" res="0.0000000000000000e+00" rms="0.0000000000000000e+00" purity="4.9005070328712463e-01" nType="0">
            <Node pos="l" depth="3" NCoef="0" IVar="-1" Cut="0.0000000000000000e+00" cType="1" res="-2.0361362025141716e-02" rms="4.6340397000312805e-01" purity="4.9798619747161865e-01" nType="-99"/>
            <Node pos="r" depth="3" NCoef="0" IVar="-1" Cut="0.0000000000000000e+00" cType="1" res="8.4088847506791353e-04" rms="4.6749070286750793e-01" purity="4.8620823025703430e-01" nType="-99"/>
          </Node>
          <Node pos="r" depth="2" NCoef="0" IVar="-1" Cut="0.0000000000000000e+00" cType="1" res="4.1448101401329041e-02" rms="4.4715464115142822e-01" purity="5.1681351661682129e-01" nType="-99"/>
        </Node>
        <Node pos="r" depth="1" NCoef="0" IVar="1" Cut="1.6211818750000000e+05" cType="1" res="-5.2383452653884888e-02" rms="4.3054297566413879e-01" purity="5.2034091949462891e-01" nType="0">
          <Node pos="l" depth="2" NCoef="0" IVar="-1" Cut="0.0000000000000000e+00" cType="1" res="-1.6279701376333833e-03" rms="4.1530239582061768e-01" purity="4.6852833032608032e-01" nType="-99"/>
          <Node pos="r" depth="2" NCoef="0" IVar="-1" Cut="0.0000000000000000e+00" cType="1" res="3.6317983176559210e-04" rms="4.5507159829139709e-01" purity="6.2434011697769165e-01" nType="-99"/>
        </Node>
      </Node>
    </BinaryTree>
    <BinaryTree type="DecisionTree" boostWeight="1.0000000000000000e+00" itree="251">
      <Node pos="s" depth="0" NCoef="0" IVar="6" Cut="-4.4880905747413635e-01" cType="1" res="0.0000000000000000e+00" rms="0.0000000000000000e+00" purity="5.0296407938003540e-01" nType="0">
        <Node pos="l" depth="1" NCoef="0" IVar="1" Cut="2.4550182812500000e+05" cType="1" res="4.6478840522468090e-03" rms="4.6735164523124695e-01" purity="5.0312715768814087e-01" nType="0">
          <Node pos="l" depth="2" NCoef="0" IVar="1" Cut="1.4986760937500000e+05" cType="1" res="1.3688302133232355e-03" rms="4.6809080243110657e-01" purity="5.1510202884674072e-01" nType="0">
            <Node pos="l" depth="3" NCoef="0" IVar="-1" Cut="0.0000000000000000e+00" cType="1" res="1.3623030856251717e-02" rms="4.7172591090202332e-01" purity="5.4164272546768188e-01" nType="-99"/>
            <Node pos="r" depth="3" NCoef="0" IVar="-1" Cut="0.0000000000000000e+00" cType="1" res="-1.3613354414701462e-02" rms="4.6323227882385254e-01" purity="4.8278418183326721e-01" nType="-99"/>
          </Node>
          <Node pos="r" depth="2" NCoef="0" IVar="-1" Cut="0.0000000000000000e+00" cType="1" res="4.1012629866600037e-02" rms="4.5889657735824585e-01" purity="3.8685888051986694e-01" nType="-99"/>
        </Node>
        <Node pos="r" depth="1" NCoef="0" IVar="7" Cut="7.0000000000000000e+00" cType="1" res="-1.2153588235378265e-02" rms="4.6060261130332947e-01" purity="5.0282573699951172e-01" nType="0">
          <Node pos="l" depth="2" NCoef="0" IVar="4" Cut="1.9447436332702637e+00" cType="1" res="-6.2861926853656769e-03" rms="4.5997560024261475e-01" purity="4.9286991357803345e-01" nType="0">
            <Node pos="l" depth="3" NCoef="0" IVar="-1" Cut="0.0000000000000000e+00" cType="1" res="2.3182886652648449e-03" rms="4.6117463707923889e-01" purity="4.8329207301139832e-01" nType="-99"/>
            <Node pos="r" depth="3" NCoef="0" IVar="-1" Cut="0.0000000000000000e+00" cType="1" res="-7.5754434801638126e-03" rms="4.5853540301322937e-01" purity="5.0302904844284058e-01" nType="-99"/>
          </Node>
          <Node pos="r" depth="2" NCoef="0" IVar="-1" Cut="0.0000000000000000e+00" cType="1" res="-3.4268990159034729e-02" rms="4.6291750669479370e-01" purity="5.7845687866210938e-01" nType="-99"/>
        </Node>
      </Node>
    </BinaryTree>
    <BinaryTree type="DecisionTree" boostWeight="1.0000000000000000e+00" itree="252">
      <Node pos="s" depth="0" NCoef="0" IVar="3" Cut="5.1663966178894043e+00" cType="1" res="-4.8958989791572094e-03" rms="4.6284708380699158e-01" purity="5.0145614147186279e-01" nType="0">
        <Node pos="l" depth="1" NCoef="0" IVar="1" Cut="2.0977814062500000e+05" cType="1" res="8.9971208944916725e-04" rms="4.7008720040321350e-01" purity="4.9341371655464172e-01" nType="0">
          <Node pos="l" depth="2" NCoef="0" IVar="1" Cut="1.3281856250000000e+05" cType="1" res="-4.3977680616080761e-03" rms="4.7173017263412476e-01" purity="4.9872475862503052e-01" nType="0">
            <Node pos="l" depth="3" NCoef="0" IVar="-1" Cut="0.0000000000000000e+00" cType="1" res="-1.2904045172035694e-02" rms="4.7733694314956665e-01" purity="4.4793677330017090e-01" nType="-99"/>
            <Node pos="r" depth="3" NCoef="0" IVar="-1" Cut="0.0000000000000000e+00" cType="1" res="9.2245582491159439e-03" rms="4.6809014678001404e-01" purity="5.2564507722854614e-01" nType="-99"/>
          </Node>
          <Node pos="r" depth="2" NCoef="0" IVar="-1" Cut="0.0000000000000000e+00" cType="1" res="5.0558742135763168e-02" rms="4.5573961734771729e-01" purity="4.5387709140777588e-01" nType="-99"/>
        </Node>
        <Node pos="r" depth="1" NCoef="0" IVar="6" Cut="2.5431513786315918e+00" cType="1" res="-1.2577687390148640e-02" rms="4.5295816659927368e-01" purity="5.1211595535278320e-01" nType="0">
          <Node pos="l" depth="2" NCoef="0" IVar="5" Cut="1.3464636802673340e+00" cType="1" res="-6.3067586161196232e-03" rms="4.4961988925933838e-01" purity="5.2398997545242310e-01" nType="0">
            <Node pos="l" depth="3" NCoef="0" IVar="-1" Cut="0.0000000000000000e+00" cType="1" res="-1.7149696126580238e-02" rms="4.5043814182281494e-01" purity="5.0565141439437866e-01" nType="-99"/>
            <Node pos="r" depth="3" NCoef="0" IVar="-1" Cut="0.0000000000000000e+00" cType="1" res="1.5150007791817188e-02" rms="4.4729456305503845e-01" purity="5.6466150283813477e-01" nType="-99"/>
          </Node>
          <Node pos="r" depth="2" NCoef="0" IVar="6" Cut="2.8852434158325195e+00" cType="1" res="-3.5268649458885193e-02" rms="4.6412977576255798e-01" purity="4.6915060281753540e-01" nType="0">
            <Node pos="l" depth="3" NCoef="0" IVar="-1" Cut="0.0000000000000000e+00" cType="1" res="-4.9378536641597748e-02" rms="4.5872569084167480e-01" purity="4.3404465913772583e-01" nType="-99"/>
            <Node pos="r" depth="3" NCoef="0" IVar="-1" Cut="0.0000000000000000e+00" cType="1" res="-2.3570159450173378e-02" rms="4.6868234872817993e-01" purity="5.0290817022323608e-01" nType="-99"/>
          </Node>
        </Node>
      </Node>
    </BinaryTree>
    <BinaryTree type="DecisionTree" boostWeight="1.0000000000000000e+00" itree="253">
      <Node pos="s" depth="0" NCoef="0" IVar="6" Cut="-2.2439594268798828e+00" cType="1" res="0.0000000000000000e+00" rms="0.0000000000000000e+00" purity="5.0544267892837524e-01" nType="0">
        <Node pos="l" depth="1" NCoef="0" IVar="5" Cut="4.4891187548637390e-01" cType="1" res="1.8321054056286812e-02" rms="4.7913578152656555e-01" purity="4.9228253960609436e-01" nType="0">
          <Node pos="l" depth="2" NCoef="0" IVar="6" Cut="-2.6712894439697266e+00" cType="1" res="2.4708019569516182e-02" rms="4.7863563895225525e-01" purity="4.8530548810958862e-01" nType="0">
            <Node pos="l" depth="3" NCoef="0" IVar="-1" Cut="0.0000000000000000e+00" cType="1" res="4.7555387020111084e-02" rms="4.7768250107765198e-01" purity="5.0149857997894287e-01" nType="-99"/>
            <Node pos="r" depth="3" NCoef="0" IVar="-1" Cut="0.0000000000000000e+00" cType="1" res="5.9265755116939545e-03" rms="4.7931697964668274e-01" purity="4.6214881539344788e-01" nType="-99"/>
          </Node>
          <Node pos="r" depth="2" NCoef="0" IVar="-1" Cut="0.0000000000000000e+00" cType="1" res="-1.5143464319407940e-02" rms="4.8035892844200134e-01" purity="5.2776968479156494e-01" nType="-99"/>
        </Node>
        <Node pos="r" depth="1" NCoef="0" IVar="2" Cut="2.2038032531738281e+02" cType="1" res="-4.9098203890025616e-03" rms="4.5865857601165771e-01" purity="5.0972372293472290e-01" nType="0">
          <Node pos="l" depth="2" NCoef="0" IVar="6" Cut="2.6286823749542236e+00" cType="1" res="3.2123359851539135e-03" rms="4.5739927887916565e-01" purity="5.3106415271759033e-01" nType="0">
            <Node pos="l" depth="3" NCoef="0" IVar="-1" Cut="0.0000000000000000e+00" cType="1" res="1.0423383675515652e-02" rms="4.5333015918731689e-01" purity="5.5979466438293457e-01" nType="-99"/>
            <Node pos="r" depth="3" NCoef="0" IVar="-1" Cut="0.0000000000000000e+00" cType="1" res="-3.5055442713201046e-03" rms="4.7168800234794617e-01" purity="4.2213937640190125e-01" nType="-99"/>
          </Node>
          <Node pos="r" depth="2" NCoef="0" IVar="7" Cut="5.0000000000000000e+00" cType="1" res="0.0000000000000000e+00" rms="0.0000000000000000e+00" purity="4.6505856513977051e-01" nType="0">
            <Node pos="l" depth="3" NCoef="0" IVar="-1" Cut="0.0000000000000000e+00" cType="1" res="-4.6983882784843445e-03" rms="4.5724269747734070e-01" purity="4.2698138952255249e-01" nType="-99"/>
            <Node pos="r" depth="3" NCoef="0" IVar="-1" Cut="0.0000000000000000e+00" cType="1" res="-4.5020088553428650e-02" rms="4.6490871906280518e-01" purity="5.2164936065673828e-01" nType="-99"/>
          </Node>
        </Node>
      </Node>
    </BinaryTree>
    <BinaryTree type="DecisionTree" boostWeight="1.0000000000000000e+00" itree="254">
      <Node pos="s" depth="0" NCoef="0" IVar="6" Cut="2.2438421249389648e+00" cType="1" res="-2.2909953258931637e-03" rms="4.6258288621902466e-01" purity="5.0415927171707153e-01" nType="0">
        <Node pos="l" depth="1" NCoef="0" IVar="6" Cut="1.9873726367950439e+00" cType="1" res="0.0000000000000000e+00" rms="0.0000000000000000e+00" purity="5.2259868383407593e-01" nType="0">
          <Node pos="l" depth="2" NCoef="0" IVar="1" Cut="2.4356643750000000e+05" cType="1" res="8.3958049071952701e-04" rms="4.6026611328125000e-01" purity="5.2490401268005371e-01" nType="0">
            <Node pos="l" depth="3" NCoef="0" IVar="-1" Cut="0.0000000000000000e+00" cType="1" res="4.0334677323698997e-03" rms="4.6224290132522583e-01" purity="5.4492819309234619e-01" nType="-99"/>
            <Node pos="r" depth="3" NCoef="0" IVar="-1" Cut="0.0000000000000000e+00" cType="1" res="-2.6645347476005554e-02" rms="4.4364452362060547e-01" purity="3.6593091487884521e-01" nType="-99"/>
          </Node>
          <Node pos="r" depth="2" NCoef="0" IVar="-1" Cut="0.0000000000000000e+00" cType="1" res="1.8467070534825325e-02" rms="4.7057288885116577e-01" purity="4.8738047480583191e-01" nType="-99"/>
        </Node>
        <Node pos="r" depth="1" NCoef="0" IVar="5" Cut="4.4826933741569519e-01" cType="1" res="-1.5626095235347748e-02" rms="4.6684750914573669e-01" purity="4.5270824432373047e-01" nType="0">
          <Node pos="l" depth="2" NCoef="0" IVar="-1" Cut="0.0000000000000000e+00" cType="1" res="-4.5273187570273876e-03" rms="4.4194212555885315e-01" purity="3.9352977275848389e-01" nType="-99"/>
          <Node pos="r" depth="2" NCoef="0" IVar="2" Cut="1.8542820739746094e+02" cType="1" res="6.6007655113935471e-03" rms="4.7582492232322693e-01" purity="4.7903078794479370e-01" nType="0">
            <Node pos="l" depth="3" NCoef="0" IVar="-1" Cut="0.0000000000000000e+00" cType="1" res="2.2655421867966652e-02" rms="4.8691385984420776e-01" purity="4.8059976100921631e-01" nType="-99"/>
            <Node pos="r" depth="3" NCoef="0" IVar="-1" Cut="0.0000000000000000e+00" cType="1" res="-5.3752753883600235e-03" rms="4.6739533543586731e-01" purity="4.7791126370429993e-01" nType="-99"/>
          </Node>
        </Node>
      </Node>
    </BinaryTree>
    <BinaryTree type="DecisionTree" boostWeight="1.0000000000000000e+00" itree="255">
      <Node pos="s" depth="0" NCoef="0" IVar="7" Cut="6.0000000000000000e+00" cType="1" res="-8.1567950546741486e-03" rms="4.5984253287315369e-01" purity="4.9897384643554688e-01" nType="0">
        <Node pos="l" depth="1" NCoef="0" IVar="5" Cut="2.2439992427825928e+00" cType="1" res="-1.7355614108964801e-03" rms="4.6342018246650696e-01" purity="4.7347694635391235e-01" nType="0">
          <Node pos="l" depth="2" NCoef="0" IVar="4" Cut="8.9259046316146851e-01" cType="1" res="-5.6338282302021980e-03" rms="4.6299913525581360e-01" purity="4.5840537548065186e-01" nType="0">
            <Node pos="l" depth="3" NCoef="0" IVar="-1" Cut="0.0000000000000000e+00" cType="1" res="-7.7412482351064682e-03" rms="4.4813600182533264e-01" purity="3.8285675644874573e-01" nType="-99"/>
            <Node pos="r" depth="3" NCoef="0" IVar="-1" Cut="0.0000000000000000e+00" cType="1" res="-2.5628157891333103e-03" rms="4.6541690826416016e-01" purity="4.7124269604682922e-01" nType="-99"/>
          </Node>
          <Node pos="r" depth="2" NCoef="0" IVar="8" Cut="5.5252839843750000e+04" cType="1" res="1.2451497837901115e-02" rms="4.6467325091362000e-01" purity="5.2832740545272827e-01" nType="0">
            <Node pos="l" depth="3" NCoef="0" IVar="-1" Cut="0.0000000000000000e+00" cType="1" res="-1.5065297484397888e-02" rms="4.6852293610572815e-01" purity="3.8855648040771484e-01" nType="-99"/>
            <Node pos="r" depth="3" NCoef="0" IVar="-1" Cut="0.0000000000000000e+00" cType="1" res="3.1641487032175064e-02" rms="4.6180254220962524e-01" purity="6.0929459333419800e-01" nType="-99"/>
          </Node>
        </Node>
        <Node pos="r" depth="1" NCoef="0" IVar="6" Cut="1.3460475206375122e+00" cType="1" res="0.0000000000000000e+00" rms="0.0000000000000000e+00" purity="5.6731832027435303e-01" nType="0">
          <Node pos="l" depth="2" NCoef="0" IVar="6" Cut="-1.2190105915069580e+00" cType="1" res="0.0000000000000000e+00" rms="0.0000000000000000e+00" purity="6.2158310413360596e-01" nType="0">
            <Node pos="l" depth="3" NCoef="0" IVar="-1" Cut="0.0000000000000000e+00" cType="1" res="-2.2443166002631187e-02" rms="4.7437727451324463e-01" purity="5.3862351179122925e-01" nType="-99"/>
            <Node pos="r" depth="3" NCoef="0" IVar="-1" Cut="0.0000000000000000e+00" cType="1" res="1.0520154610276222e-03" rms="4.3166682124137878e-01" purity="6.8950110673904419e-01" nType="-99"/>
          </Node>
          <Node pos="r" depth="2" NCoef="0" IVar="-1" Cut="0.0000000000000000e+00" cType="1" res="-2.6776806917041540e-03" rms="4.4383180141448975e-01" purity="4.5676410198211670e-01" nType="-99"/>
        </Node>
      </Node>
    </BinaryTree>
    <BinaryTree type="DecisionTree" boostWeight="1.0000000000000000e+00" itree="256">
      <Node pos="s" depth="0" NCoef="0" IVar="6" Cut="-2.8423583507537842e+00" cType="1" res="-7.7642146497964859e-03" rms="4.6337118744850159e-01" purity="5.0011622905731201e-01" nType="0">
        <Node pos="l" depth="1" NCoef="0" IVar="3" Cut="5.8269104957580566e+00" cType="1" res="0.0000000000000000e+00" rms="0.0000000000000000e+00" purity="4.6806004643440247e-01" nType="0">
          <Node pos="l" depth="2" NCoef="0" IVar="-1" Cut="0.0000000000000000e+00" cType="1" res="-2.2226085886359215e-02" rms="4.7570592164993286e-01" purity="4.6485987305641174e-01" nType="-99"/>
          <Node pos="r" depth="2" NCoef="0" IVar="-1" Cut="0.0000000000000000e+00" cType="1" res="-4.2198549956083298e-02" rms="4.6678709983825684e-01" purity="4.7180515527725220e-01" nType="-99"/>
        </Node>
        <Node pos="r" depth="1" NCoef="0" IVar="6" Cut="-2.2724628448486328e+00" cType="1" res="-5.6871939450502396e-03" rms="4.6244657039642334e-01" purity="5.0345295667648315e-01" nType="0">
          <Node pos="l" depth="2" NCoef="0" IVar="5" Cut="-1.9449768066406250e+00" cType="1" res="1.1836404912173748e-02" rms="4.7918742895126343e-01" purity="4.8920124769210815e-01" nType="0">
            <Node pos="l" depth="3" NCoef="0" IVar="-1" Cut="0.0000000000000000e+00" cType="1" res="-3.3876191824674606e-02" rms="4.8023465275764465e-01" purity="4.8729923367500305e-01" nType="-99"/>
            <Node pos="r" depth="3" NCoef="0" IVar="-1" Cut="0.0000000000000000e+00" cType="1" res="4.4336229562759399e-02" rms="4.7657239437103271e-01" purity="4.9048590660095215e-01" nType="-99"/>
          </Node>
          <Node pos="r" depth="2" NCoef="0" IVar="7" Cut="6.0000000000000000e+00" cType="1" res="-9.1673946008086205e-03" rms="4.5896181464195251e-01" purity="5.0628733634948730e-01" nType="0">
            <Node pos="l" depth="3" NCoef="0" IVar="-1" Cut="0.0000000000000000e+00" cType="1" res="-3.3034526277333498e-03" rms="4.6286481618881226e-01" purity="4.7029060125350952e-01" nType="-99"/>
            <Node pos="r" depth="3" NCoef="0" IVar="-1" Cut="0.0000000000000000e+00" cType="1" res="-6.4526218920946121e-03" rms="4.4922548532485962e-01" purity="5.9198874235153198e-01" nType="-99"/>
          </Node>
        </Node>
      </Node>
    </BinaryTree>
    <BinaryTree type="DecisionTree" boostWeight="1.0000000000000000e+00" itree="257">
      <Node pos="s" depth="0" NCoef="0" IVar="3" Cut="9.9092311859130859e+00" cType="1" res="1.0376989375799894e-03" rms="4.6204888820648193e-01" purity="5.0833690166473389e-01" nType="0">
        <Node pos="l" depth="1" NCoef="0" IVar="4" Cut="5.7645809650421143e-01" cType="1" res="0.0000000000000000e+00" rms="0.0000000000000000e+00" purity="5.1051390171051025e-01" nType="0">
          <Node pos="l" depth="2" NCoef="0" IVar="-1" Cut="0.0000000000000000e+00" cType="1" res="3.9760511368513107e-02" rms="4.6311703324317932e-01" purity="5.2802330255508423e-01" nType="-99"/>
          <Node pos="r" depth="2" NCoef="0" IVar="6" Cut="2.5431919097900391e+00" cType="1" res="2.5685634464025497e-03" rms="4.6545049548149109e-01" purity="5.0953859090805054e-01" nType="0">
            <Node pos="l" depth="3" NCoef="0" IVar="-1" Cut="0.0000000000000000e+00" cType="1" res="-1.2325295247137547e-03" rms="4.6337971091270447e-01" purity="5.1269900798797607e-01" nType="-99"/>
            <Node pos="r" depth="3" NCoef="0" IVar="-1" Cut="0.0000000000000000e+00" cType="1" res="2.0197726786136627e-02" rms="4.7426688671112061e-01" purity="4.9520221352577209e-01" nType="-99"/>
          </Node>
        </Node>
        <Node pos="r" depth="1" NCoef="0" IVar="0" Cut="2.1609989062500000e+05" cType="1" res="-2.0436776801943779e-02" rms="4.3861413002014160e-01" purity="4.9385103583335876e-01" nType="0">
          <Node pos="l" depth="2" NCoef="0" IVar="-1" Cut="0.0000000000000000e+00" cType="1" res="-1.3889757916331291e-02" rms="4.4540888071060181e-01" purity="3.5397529602050781e-01" nType="-99"/>
          <Node pos="r" depth="2" NCoef="0" IVar="6" Cut="-1.4940011501312256e-01" cType="1" res="-9.4289891421794891e-03" rms="4.3433833122253418e-01" purity="5.7295852899551392e-01" nType="0">
            <Node pos="l" depth="3" NCoef="0" IVar="-1" Cut="0.0000000000000000e+00" cType="1" res="-9.8995007574558258e-03" rms="4.3201076984405518e-01" purity="5.6597864627838135e-01" nType="-99"/>
            <Node pos="r" depth="3" NCoef="0" IVar="-1" Cut="0.0000000000000000e+00" cType="1" res="-2.0186737179756165e-02" rms="4.3650650978088379e-01" purity="5.7955008745193481e-01" nType="-99"/>
          </Node>
        </Node>
      </Node>
    </BinaryTree>
    <BinaryTree type="DecisionTree" boostWeight="1.0000000000000000e+00" itree="258">
      <Node pos="s" depth="0" NCoef="0" IVar="4" Cut="1.9338318109512329e+00" cType="1" res="0.0000000000000000e+00" rms="0.0000000000000000e+00" purity="5.0204890966415405e-01" nType="0">
        <Node pos="l" depth="1" NCoef="0" IVar="9" Cut="4.3037636718750000e+04" cType="1" res="-1.2205085717141628e-02" rms="4.5859235525131226e-01" purity="4.7256228327751160e-01" nType="0">
          <Node pos="l" depth="2" NCoef="0" IVar="5" Cut="-2.2439417839050293e+00" cType="1" res="2.1798822563141584e-03" rms="4.6304452419281006e-01" purity="3.8417655229568481e-01" nType="0">
            <Node pos="l" depth="3" NCoef="0" IVar="-1" Cut="0.0000000000000000e+00" cType="1" res="-2.2657616063952446e-02" rms="4.4757074117660522e-01" purity="3.6092677712440491e-01" nType="-99"/>
            <Node pos="r" depth="3" NCoef="0" IVar="-1" Cut="0.0000000000000000e+00" cType="1" res="1.4298548921942711e-02" rms="4.6612343192100525e-01" purity="3.8956454396247864e-01" nType="-99"/>
          </Node>
          <Node pos="r" depth="2" NCoef="0" IVar="3" Cut="5.7026934623718262e+00" cType="1" res="-2.9236225411295891e-02" rms="4.5267406105995178e-01" purity="5.7720690965652466e-01" nType="0">
            <Node pos="l" depth="3" NCoef="0" IVar="-1" Cut="0.0000000000000000e+00" cType="1" res="-3.5369812976568937e-03" rms="4.5394226908683777e-01" purity="5.4170948266983032e-01" nType="-99"/>
            <Node pos="r" depth="3" NCoef="0" IVar="-1" Cut="0.0000000000000000e+00" cType="1" res="-1.8961251480504870e-03" rms="4.4921326637268066e-01" purity="6.3622790575027466e-01" nType="-99"/>
          </Node>
        </Node>
        <Node pos="r" depth="1" NCoef="0" IVar="4" Cut="2.4629478454589844e+00" cType="1" res="5.1808455027639866e-03" rms="4.6375882625579834e-01" purity="5.3271168470382690e-01" nType="0">
          <Node pos="l" depth="2" NCoef="0" IVar="4" Cut="2.1102302074432373e+00" cType="1" res="2.1381061524152756e-02" rms="4.6648719906806946e-01" purity="5.6643295288085938e-01" nType="0">
            <Node pos="l" depth="3" NCoef="0" IVar="-1" Cut="0.0000000000000000e+00" cType="1" res="-1.3473940081894398e-02" rms="4.7481995820999146e-01" purity="5.0327742099761963e-01" nType="-99"/>
            <Node pos="r" depth="3" NCoef="0" IVar="-1" Cut="0.0000000000000000e+00" cType="1" res="4.3161943554878235e-02" rms="4.6158412098884583e-01" purity="5.9603953361511230e-01" nType="-99"/>
          </Node>
          <Node pos="r" depth="2" NCoef="0" IVar="5" Cut="-1.3467181921005249e+00" cType="1" res="-2.8819392900913954e-03" rms="4.6218332648277283e-01" purity="5.1592868566513062e-01" nType="0">
            <Node pos="l" depth="3" NCoef="0" IVar="-1" Cut="0.0000000000000000e+00" cType="1" res="1.0394376702606678e-02" rms="4.6333885192871094e-01" purity="5.3345954418182373e-01" nType="-99"/>
            <Node pos="r" depth="3" NCoef="0" IVar="-1" Cut="0.0000000000000000e+00" cType="1" res="-9.1436831280589104e-03" rms="4.6127393841743469e-01" purity="5.0521212816238403e-01" nType="-99"/>
          </Node>
        </Node>
      </Node>
    </BinaryTree>
    <BinaryTree type="DecisionTree" boostWeight="1.0000000000000000e+00" itree="259">
      <Node pos="s" depth="0" NCoef="0" IVar="6" Cut="2.2439978122711182e+00" cType="1" res="-1.2014730833470821e-02" rms="4.5882397890090942e-01" purity="4.9380141496658325e-01" nType="0">
        <Node pos="l" depth="1" NCoef="0" IVar="7" Cut="7.0000000000000000e+00" cType="1" res="-2.7523061726242304e-03" rms="4.5990779995918274e-01" purity="5.2072525024414062e-01" nType="0">
          <Node pos="l" depth="2" NCoef="0" IVar="6" Cut="9.6135514974594116e-01" cType="1" res="3.7652812898159027e-04" rms="4.6080079674720764e-01" purity="5.0760537385940552e-01" nType="0">
            <Node pos="l" depth="3" NCoef="0" IVar="-1" Cut="0.0000000000000000e+00" cType="1" res="-3.7496162112802267e-03" rms="4.6113803982734680e-01" purity="5.0546473264694214e-01" nType="-99"/>
            <Node pos="r" depth="3" NCoef="0" IVar="-1" Cut="0.0000000000000000e+00" cType="1" res="1.5432572923600674e-02" rms="4.5932734012603760e-01" purity="5.1540642976760864e-01" nType="-99"/>
          </Node>
          <Node pos="r" depth="2" NCoef="0" IVar="9" Cut="6.9192195312500000e+04" cType="1" res="0.0000000000000000e+00" rms="0.0000000000000000e+00" purity="6.1479353904724121e-01" nType="0">
            <Node pos="l" depth="3" NCoef="0" IVar="-1" Cut="0.0000000000000000e+00" cType="1" res="-1.8034158274531364e-03" rms="4.6646285057067871e-01" purity="5.8121871948242188e-01" nType="-99"/>
            <Node pos="r" depth="3" NCoef="0" IVar="-1" Cut="0.0000000000000000e+00" cType="1" res="-2.4208893999457359e-02" rms="4.3925622105598450e-01" purity="6.4468359947204590e-01" nType="-99"/>
          </Node>
        </Node>
        <Node pos="r" depth="1" NCoef="0" IVar="7" Cut="6.0000000000000000e+00" cType="1" res="-3.6466587334871292e-02" rms="4.5504140853881836e-01" purity="4.2270904779434204e-01" nType="0">
          <Node pos="l" depth="2" NCoef="0" IVar="4" Cut="1.3185622692108154e+00" cType="1" res="0.0000000000000000e+00" rms="0.0000000000000000e+00" purity="4.4807106256484985e-01" nType="0">
            <Node pos="l" depth="3" NCoef="0" IVar="-1" Cut="0.0000000000000000e+00" cType="1" res="-4.5559179037809372e-02" rms="4.6005046367645264e-01" purity="3.9580130577087402e-01" nType="-99"/>
            <Node pos="r" depth="3" NCoef="0" IVar="-1" Cut="0.0000000000000000e+00" cType="1" res="-8.9344773441553116e-03" rms="4.7205156087875366e-01" purity="4.6660664677619934e-01" nType="-99"/>
          </Node>
          <Node pos="r" depth="2" NCoef="0" IVar="-1" Cut="0.0000000000000000e+00" cType="1" res="-1.5268292045220733e-03" rms="4.0688836574554443e-01" purity="3.4929841756820679e-01" nType="-99"/>
        </Node>
      </Node>
    </BinaryTree>
    <BinaryTree type="DecisionTree" boostWeight="1.0000000000000000e+00" itree="260">
      <Node pos="s" depth="0" NCoef="0" IVar="7" Cut="7.0000000000000000e+00" cType="1" res="0.0000000000000000e+00" rms="0.0000000000000000e+00" purity="5.0028800964355469e-01" nType="0">
        <Node pos="l" depth="1" NCoef="0" IVar="5" Cut="-1.9447122812271118e+00" cType="1" res="1.4949826436350122e-05" rms="4.6641159057617188e-01" purity="4.9619862437248230e-01" nType="0">
          <Node pos="l" depth="2" NCoef="0" IVar="8" Cut="9.2453945312500000e+04" cType="1" res="1.3784442096948624e-02" rms="4.6837294101715088e-01" purity="5.3534799814224243e-01" nType="0">
            <Node pos="l" depth="3" NCoef="0" IVar="-1" Cut="0.0000000000000000e+00" cType="1" res="3.1196894124150276e-02" rms="4.7054985165596008e-01" purity="5.0695604085922241e-01" nType="-99"/>
            <Node pos="r" depth="3" NCoef="0" IVar="-1" Cut="0.0000000000000000e+00" cType="1" res="-4.5047514140605927e-02" rms="4.5745503902435303e-01" purity="6.3909828662872314e-01" nType="-99"/>
          </Node>
          <Node pos="r" depth="2" NCoef="0" IVar="7" Cut="6.0000000000000000e+00" cType="1" res="-5.5634868331253529e-03" rms="4.6470573544502258e-01" purity="4.8138797283172607e-01" nType="0">
            <Node pos="l" depth="3" NCoef="0" IVar="-1" Cut="0.0000000000000000e+00" cType="1" res="-1.0017937980592251e-02" rms="4.6609225869178772e-01" purity="4.5725664496421814e-01" nType="-99"/>
            <Node pos="r" depth="3" NCoef="0" IVar="-1" Cut="0.0000000000000000e+00" cType="1" res="2.2949254140257835e-02" rms="4.6236684918403625e-01" purity="5.9677368402481079e-01" nType="-99"/>
          </Node>
        </Node>
        <Node pos="r" depth="1" NCoef="0" IVar="3" Cut="4.1443743705749512e+00" cType="1" res="-2.6497015729546547e-02" rms="4.2461371421813965e-01" purity="5.2844423055648804e-01" nType="0">
          <Node pos="l" depth="2" NCoef="0" IVar="-1" Cut="0.0000000000000000e+00" cType="1" res="-1.1326849926263094e-03" rms="4.1428014636039734e-01" purity="4.0411964058876038e-01" nType="-99"/>
          <Node pos="r" depth="2" NCoef="0" IVar="-1" Cut="0.0000000000000000e+00" cType="1" res="1.5883862972259521e-02" rms="4.3366828560829163e-01" purity="6.7941224575042725e-01" nType="-99"/>
        </Node>
      </Node>
    </BinaryTree>
    <BinaryTree type="DecisionTree" boostWeight="1.0000000000000000e+00" itree="261">
      <Node pos="s" depth="0" NCoef="0" IVar="5" Cut="7.4803054332733154e-01" cType="1" res="-2.2980063222348690e-03" rms="4.6322980523109436e-01" purity="5.0501960515975952e-01" nType="0">
        <Node pos="l" depth="1" NCoef="0" IVar="5" Cut="-1.7874246835708618e-01" cType="1" res="5.6278998963534832e-03" rms="4.6547582745552063e-01" purity="5.0980979204177856e-01" nType="0">
          <Node pos="l" depth="2" NCoef="0" IVar="3" Cut="1.3169778585433960e+00" cType="1" res="1.1878614168381318e-04" rms="4.6454966068267822e-01" purity="5.1456695795059204e-01" nType="0">
            <Node pos="l" depth="3" NCoef="0" IVar="-1" Cut="0.0000000000000000e+00" cType="1" res="1.0115781798958778e-02" rms="4.6995860338211060e-01" purity="4.4504678249359131e-01" nType="-99"/>
            <Node pos="r" depth="3" NCoef="0" IVar="-1" Cut="0.0000000000000000e+00" cType="1" res="-4.8993001691997051e-03" rms="4.6310067176818848e-01" purity="5.3198534250259399e-01" nType="-99"/>
          </Node>
          <Node pos="r" depth="2" NCoef="0" IVar="6" Cut="1.9449114799499512e+00" cType="1" res="3.5792272537946701e-02" rms="4.6936959028244019e-01" purity="4.8376286029815674e-01" nType="0">
            <Node pos="l" depth="3" NCoef="0" IVar="-1" Cut="0.0000000000000000e+00" cType="1" res="9.4304392114281654e-03" rms="4.6764549612998962e-01" purity="5.2217113971710205e-01" nType="-99"/>
            <Node pos="r" depth="3" NCoef="0" IVar="-1" Cut="0.0000000000000000e+00" cType="1" res="6.4574100077152252e-02" rms="4.6973299980163574e-01" purity="4.4729110598564148e-01" nType="-99"/>
          </Node>
        </Node>
        <Node pos="r" depth="1" NCoef="0" IVar="1" Cut="1.8269607812500000e+05" cType="1" res="-1.2653736397624016e-02" rms="4.6007302403450012e-01" purity="4.9876093864440918e-01" nType="0">
          <Node pos="l" depth="2" NCoef="0" IVar="1" Cut="1.3790484375000000e+05" cType="1" res="-1.9005786627531052e-02" rms="4.6137821674346924e-01" purity="5.2050215005874634e-01" nType="0">
            <Node pos="l" depth="3" NCoef="0" IVar="-1" Cut="0.0000000000000000e+00" cType="1" res="-2.5849908590316772e-02" rms="4.7181716561317444e-01" purity="4.9898311495780945e-01" nType="-99"/>
            <Node pos="r" depth="3" NCoef="0" IVar="-1" Cut="0.0000000000000000e+00" cType="1" res="-2.4913938250392675e-03" rms="4.5202809572219849e-01" purity="5.3878587484359741e-01" nType="-99"/>
          </Node>
          <Node pos="r" depth="2" NCoef="0" IVar="4" Cut="2.0997700691223145e+00" cType="1" res="4.3879710137844086e-03" rms="4.5611613988876343e-01" purity="4.4043213129043579e-01" nType="0">
            <Node pos="l" depth="3" NCoef="0" IVar="-1" Cut="0.0000000000000000e+00" cType="1" res="-1.9874108955264091e-02" rms="4.4618758559226990e-01" purity="3.9548316597938538e-01" nType="-99"/>
            <Node pos="r" depth="3" NCoef="0" IVar="-1" Cut="0.0000000000000000e+00" cType="1" res="3.9867635816335678e-02" rms="4.6923071146011353e-01" purity="5.0741213560104370e-01" nType="-99"/>
          </Node>
        </Node>
      </Node>
    </BinaryTree>
    <BinaryTree type="DecisionTree" boostWeight="1.0000000000000000e+00" itree="262">
      <Node pos="s" depth="0" NCoef="0" IVar="4" Cut="2.6104934215545654e+00" cType="1" res="-5.3615546785295010e-03" rms="4.6424758434295654e-01" purity="4.9853825569152832e-01" nType="0">
        <Node pos="l" depth="1" NCoef="0" IVar="3" Cut="9.9092311859130859e+00" cType="1" res="-9.4752265140414238e-03" rms="4.6449467539787292e-01" purity="4.9128168821334839e-01" nType="0">
          <Node pos="l" depth="2" NCoef="0" IVar="5" Cut="2.5427982807159424e+00" cType="1" res="-1.2257761321961880e-02" rms="4.6631863713264465e-01" purity="4.9066933989524841e-01" nType="0">
            <Node pos="l" depth="3" NCoef="0" IVar="-1" Cut="0.0000000000000000e+00" cType="1" res="-9.3576516956090927e-03" rms="4.6699622273445129e-01" purity="4.8050752282142639e-01" nType="-99"/>
            <Node pos="r" depth="3" NCoef="0" IVar="-1" Cut="0.0000000000000000e+00" cType="1" res="9.8319090902805328e-03" rms="4.6179562807083130e-01" purity="5.5015397071838379e-01" nType="-99"/>
          </Node>
          <Node pos="r" depth="2" NCoef="0" IVar="4" Cut="1.4099427461624146e+00" cType="1" res="8.1485407426953316e-03" rms="4.5237430930137634e-01" purity="4.9516054987907410e-01" nType="0">
            <Node pos="l" depth="3" NCoef="0" IVar="-1" Cut="0.0000000000000000e+00" cType="1" res="4.2320776730775833e-02" rms="4.5300766825675964e-01" purity="4.4154560565948486e-01" nType="-99"/>
            <Node pos="r" depth="3" NCoef="0" IVar="-1" Cut="0.0000000000000000e+00" cType="1" res="-1.9247114658355713e-02" rms="4.5057705044746399e-01" purity="5.6153917312622070e-01" nType="-99"/>
          </Node>
        </Node>
        <Node pos="r" depth="1" NCoef="0" IVar="4" Cut="3.1402642726898193e+00" cType="1" res="5.9126429259777069e-03" rms="4.6338254213333130e-01" purity="5.1842606067657471e-01" nType="0">
          <Node pos="l" depth="2" NCoef="0" IVar="5" Cut="2.2429833412170410e+00" cType="1" res="1.5860838815569878e-02" rms="4.6633988618850708e-01" purity="5.6208741664886475e-01" nType="0">
            <Node pos="l" depth="3" NCoef="0" IVar="-1" Cut="0.0000000000000000e+00" cType="1" res="3.0264103785157204e-02" rms="4.6730250120162964e-01" purity="5.6212276220321655e-01" nType="-99"/>
            <Node pos="r" depth="3" NCoef="0" IVar="-1" Cut="0.0000000000000000e+00" cType="1" res="-1.6000831499695778e-02" rms="4.6222445368766785e-01" purity="5.6197917461395264e-01" nType="-99"/>
          </Node>
          <Node pos="r" depth="2" NCoef="0" IVar="4" Cut="3.3547394275665283e+00" cType="1" res="-1.5546328388154507e-02" rms="4.5620009303092957e-01" purity="4.2424544692039490e-01" nType="0">
            <Node pos="l" depth="3" NCoef="0" IVar="-1" Cut="0.0000000000000000e+00" cType="1" res="-1.3055907329544425e-03" rms="4.6748313307762146e-01" purity="5.0148683786392212e-01" nType="-99"/>
            <Node pos="r" depth="3" NCoef="0" IVar="-1" Cut="0.0000000000000000e+00" cType="1" res="-1.6078323125839233e-02" rms="4.4368979334831238e-01" purity="3.4385910630226135e-01" nType="-99"/>
          </Node>
        </Node>
      </Node>
    </BinaryTree>
    <BinaryTree type="DecisionTree" boostWeight="1.0000000000000000e+00" itree="263">
      <Node pos="s" depth="0" NCoef="0" IVar="2" Cut="2.4033009338378906e+02" cType="1" res="-6.4586619846522808e-03" rms="4.6025872230529785e-01" purity="4.9914544820785522e-01" nType="0">
        <Node pos="l" depth="1" NCoef="0" IVar="2" Cut="2.2282322692871094e+02" cType="1" res="-1.2048915959894657e-02" rms="4.5924496650695801e-01" purity="4.9825188517570496e-01" nType="0">
          <Node pos="l" depth="2" NCoef="0" IVar="4" Cut="2.9881145954132080e+00" cType="1" res="-8.3021437749266624e-03" rms="4.6094188094139099e-01" purity="5.0932645797729492e-01" nType="0">
            <Node pos="l" depth="3" NCoef="0" IVar="-1" Cut="0.0000000000000000e+00" cType="1" res="-9.3711437657475471e-03" rms="4.6103313565254211e-01" purity="5.0777822732925415e-01" nType="-99"/>
            <Node pos="r" depth="3" NCoef="0" IVar="-1" Cut="0.0000000000000000e+00" cType="1" res="1.4439935795962811e-02" rms="4.5973920822143555e-01" purity="5.1899415254592896e-01" nType="-99"/>
          </Node>
          <Node pos="r" depth="2" NCoef="0" IVar="-1" Cut="0.0000000000000000e+00" cType="1" res="-1.8320248927921057e-03" rms="4.3599423766136169e-01" purity="3.6600968241691589e-01" nType="-99"/>
        </Node>
        <Node pos="r" depth="1" NCoef="0" IVar="5" Cut="2.5431978702545166e+00" cType="1" res="7.6473499648272991e-03" rms="4.6250659227371216e-01" purity="5.0140023231506348e-01" nType="0">
          <Node pos="l" depth="2" NCoef="0" IVar="5" Cut="1.4603004455566406e+00" cType="1" res="1.6977622872218490e-03" rms="4.6427246928215027e-01" purity="4.8932459950447083e-01" nType="0">
            <Node pos="l" depth="3" NCoef="0" IVar="-1" Cut="0.0000000000000000e+00" cType="1" res="1.2153198942542076e-02" rms="4.6380433440208435e-01" purity="4.9887388944625854e-01" nType="-99"/>
            <Node pos="r" depth="3" NCoef="0" IVar="-1" Cut="0.0000000000000000e+00" cType="1" res="-3.7154439836740494e-02" rms="4.6420195698738098e-01" purity="4.6030959486961365e-01" nType="-99"/>
          </Node>
          <Node pos="r" depth="2" NCoef="0" IVar="-1" Cut="0.0000000000000000e+00" cType="1" res="4.5662283897399902e-02" rms="4.5233392715454102e-01" purity="5.6214457750320435e-01" nType="-99"/>
        </Node>
      </Node>
    </BinaryTree>
    <BinaryTree type="DecisionTree" boostWeight="1.0000000000000000e+00" itree="264">
      <Node pos="s" depth="0" NCoef="0" IVar="5" Cut="-7.4812954664230347e-01" cType="1" res="-7.1442439220845699e-03" rms="4.6403807401657104e-01" purity="5.0111448764801025e-01" nType="0">
        <Node pos="l" depth="1" NCoef="0" IVar="7" Cut="5.0000000000000000e+00" cType="1" res="-1.8640041351318359e-02" rms="4.6234685182571411e-01" purity="5.0562900304794312e-01" nType="0">
          <Node pos="l" depth="2" NCoef="0" IVar="5" Cut="-2.6853170394897461e+00" cType="1" res="-8.1920139491558075e-03" rms="4.6864262223243713e-01" purity="4.3788710236549377e-01" nType="0">
            <Node pos="l" depth="3" NCoef="0" IVar="-1" Cut="0.0000000000000000e+00" cType="1" res="-2.2258436307311058e-02" rms="4.5506218075752258e-01" purity="4.5235344767570496e-01" nType="-99"/>
            <Node pos="r" depth="3" NCoef="0" IVar="-1" Cut="0.0000000000000000e+00" cType="1" res="-4.1141575202345848e-03" rms="4.7268602252006531e-01" purity="4.3338373303413391e-01" nType="-99"/>
          </Node>
          <Node pos="r" depth="2" NCoef="0" IVar="5" Cut="-2.1162047386169434e+00" cType="1" res="-2.6661342009902000e-02" rms="4.5740741491317749e-01" purity="5.5713683366775513e-01" nType="0">
            <Node pos="l" depth="3" NCoef="0" IVar="-1" Cut="0.0000000000000000e+00" cType="1" res="-1.2414305470883846e-02" rms="4.5896866917610168e-01" purity="5.9689217805862427e-01" nType="-99"/>
            <Node pos="r" depth="3" NCoef="0" IVar="-1" Cut="0.0000000000000000e+00" cType="1" res="-1.7895858734846115e-02" rms="4.5419362187385559e-01" purity="5.0218713283538818e-01" nType="-99"/>
          </Node>
        </Node>
        <Node pos="r" depth="1" NCoef="0" IVar="6" Cut="-2.8423538208007812e+00" cType="1" res="1.4003483811393380e-03" rms="4.6507439017295837e-01" purity="4.9777162075042725e-01" nType="0">
          <Node pos="l" depth="2" NCoef="0" IVar="-1" Cut="0.0000000000000000e+00" cType="1" res="5.1537621766328812e-02" rms="4.8429432511329651e-01" purity="4.8279577493667603e-01" nType="-99"/>
          <Node pos="r" depth="2" NCoef="0" IVar="6" Cut="2.8566420078277588e+00" cType="1" res="-2.2815498523414135e-03" rms="4.6300122141838074e-01" purity="4.9922499060630798e-01" nType="0">
            <Node pos="l" depth="3" NCoef="0" IVar="-1" Cut="0.0000000000000000e+00" cType="1" res="1.3540124054998159e-03" rms="4.6180027723312378e-01" purity="5.0685304403305054e-01" nType="-99"/>
            <Node pos="r" depth="3" NCoef="0" IVar="-1" Cut="0.0000000000000000e+00" cType="1" res="-2.4028707295656204e-02" rms="4.6924340724945068e-01" purity="4.5462518930435181e-01" nType="-99"/>
          </Node>
        </Node>
      </Node>
    </BinaryTree>
    <BinaryTree type="DecisionTree" boostWeight="1.0000000000000000e+00" itree="265">
      <Node pos="s" depth="0" NCoef="0" IVar="6" Cut="1.9448008537292480e+00" cType="1" res="-3.6991925444453955e-03" rms="4.6206006407737732e-01" purity="5.0096619129180908e-01" nType="0">
        <Node pos="l" depth="1" NCoef="0" IVar="4" Cut="8.6870193481445312e-01" cType="1" res="-7.0429942570626736e-03" rms="4.5933473110198975e-01" purity="5.1497763395309448e-01" nType="0">
          <Node pos="l" depth="2" NCoef="0" IVar="4" Cut="6.7944949865341187e-01" cType="1" res="-2.8791682794690132e-02" rms="4.5163741707801819e-01" purity="4.4764384627342224e-01" nType="0">
            <Node pos="l" depth="3" NCoef="0" IVar="-1" Cut="0.0000000000000000e+00" cType="1" res="-2.2099914029240608e-02" rms="4.5384201407432556e-01" purity="4.7502923011779785e-01" nType="-99"/>
            <Node pos="r" depth="3" NCoef="0" IVar="-1" Cut="0.0000000000000000e+00" cType="1" res="-1.0124520398676395e-02" rms="4.4822183251380920e-01" purity="4.1113844513893127e-01" nType="-99"/>
          </Node>
          <Node pos="r" depth="2" NCoef="0" IVar="5" Cut="1.4964358508586884e-01" cType="1" res="0.0000000000000000e+00" rms="0.0000000000000000e+00" purity="5.2874696254730225e-01" nType="0">
            <Node pos="l" depth="3" NCoef="0" IVar="-1" Cut="0.0000000000000000e+00" cType="1" res="-7.9899486154317856e-03" rms="4.6511194109916687e-01" purity="5.0684046745300293e-01" nType="-99"/>
            <Node pos="r" depth="3" NCoef="0" IVar="-1" Cut="0.0000000000000000e+00" cType="1" res="6.0404473915696144e-03" rms="4.5271250605583191e-01" purity="5.6830608844757080e-01" nType="-99"/>
          </Node>
        </Node>
        <Node pos="r" depth="1" NCoef="0" IVar="7" Cut="6.0000000000000000e+00" cType="1" res="3.7994380109012127e-03" rms="4.6800854802131653e-01" purity="4.6960246562957764e-01" nType="0">
          <Node pos="l" depth="2" NCoef="0" IVar="6" Cut="2.9706580638885498e+00" cType="1" res="8.8431248441338539e-03" rms="4.6835649013519287e-01" purity="4.5876267552375793e-01" nType="0">
            <Node pos="l" depth="3" NCoef="0" IVar="-1" Cut="0.0000000000000000e+00" cType="1" res="9.4547066837549210e-03" rms="4.6788588166236877e-01" purity="4.5496520400047302e-01" nType="-99"/>
            <Node pos="r" depth="3" NCoef="0" IVar="-1" Cut="0.0000000000000000e+00" cType="1" res="-1.3619783334434032e-02" rms="4.6956169605255127e-01" purity="4.7399535775184631e-01" nType="-99"/>
          </Node>
          <Node pos="r" depth="2" NCoef="0" IVar="-1" Cut="0.0000000000000000e+00" cType="1" res="-7.7356626279652119e-03" rms="4.6593159437179565e-01" purity="5.1612001657485962e-01" nType="-99"/>
        </Node>
      </Node>
    </BinaryTree>
    <BinaryTree type="DecisionTree" boostWeight="1.0000000000000000e+00" itree="266">
      <Node pos="s" depth="0" NCoef="0" IVar="7" Cut="8.0000000000000000e+00" cType="1" res="0.0000000000000000e+00" rms="0.0000000000000000e+00" purity="5.0482261180877686e-01" nType="0">
        <Node pos="l" depth="1" NCoef="0" IVar="6" Cut="2.8423962593078613e+00" cType="1" res="2.7974057011306286e-03" rms="4.6257406473159790e-01" purity="5.0216251611709595e-01" nType="0">
          <Node pos="l" depth="2" NCoef="0" IVar="6" Cut="1.1326912641525269e+00" cType="1" res="-3.2309829839505255e-04" rms="4.6041342616081238e-01" purity="5.0092649459838867e-01" nType="0">
            <Node pos="l" depth="3" NCoef="0" IVar="-1" Cut="0.0000000000000000e+00" cType="1" res="7.0486795157194138e-03" rms="4.6089079976081848e-01" purity="5.2293282747268677e-01" nType="-99"/>
            <Node pos="r" depth="3" NCoef="0" IVar="-1" Cut="0.0000000000000000e+00" cType="1" res="-1.6043921932578087e-03" rms="4.5920002460479736e-01" purity="4.5835265517234802e-01" nType="-99"/>
          </Node>
          <Node pos="r" depth="2" NCoef="0" IVar="6" Cut="2.9849026203155518e+00" cType="1" res="3.0698729678988457e-02" rms="4.8056262731552124e-01" purity="5.1321393251419067e-01" nType="0">
            <Node pos="l" depth="3" NCoef="0" IVar="-1" Cut="0.0000000000000000e+00" cType="1" res="6.4214933663606644e-03" rms="4.7842070460319519e-01" purity="4.8779776692390442e-01" nType="-99"/>
            <Node pos="r" depth="3" NCoef="0" IVar="-1" Cut="0.0000000000000000e+00" cType="1" res="4.8742927610874176e-02" rms="4.8133954405784607e-01" purity="5.3355878591537476e-01" nType="-99"/>
          </Node>
        </Node>
        <Node pos="r" depth="1" NCoef="0" IVar="-1" Cut="0.0000000000000000e+00" cType="1" res="-2.0645802840590477e-02" rms="4.6328428387641907e-01" purity="5.6882876157760620e-01" nType="-99"/>
      </Node>
    </BinaryTree>
    <BinaryTree type="DecisionTree" boostWeight="1.0000000000000000e+00" itree="267">
      <Node pos="s" depth="0" NCoef="0" IVar="6" Cut="-2.8423266410827637e+00" cType="1" res="-1.4830733416602015e-03" rms="4.6249154210090637e-01" purity="5.0337553024291992e-01" nType="0">
        <Node pos="l" depth="1" NCoef="0" IVar="6" Cut="-3.0133635997772217e+00" cType="1" res="-2.0263247191905975e-02" rms="4.7771561145782471e-01" purity="4.6604368090629578e-01" nType="0">
          <Node pos="l" depth="2" NCoef="0" IVar="-1" Cut="0.0000000000000000e+00" cType="1" res="5.7685060892254114e-04" rms="4.8338797688484192e-01" purity="4.8804467916488647e-01" nType="-99"/>
          <Node pos="r" depth="2" NCoef="0" IVar="-1" Cut="0.0000000000000000e+00" cType="1" res="-3.5031411796808243e-02" rms="4.7277188301086426e-01" purity="4.4940182566642761e-01" nType="-99"/>
        </Node>
        <Node pos="r" depth="1" NCoef="0" IVar="7" Cut="7.0000000000000000e+00" cType="1" res="5.1269878167659044e-04" rms="4.6079999208450317e-01" purity="5.0733530521392822e-01" nType="0">
          <Node pos="l" depth="2" NCoef="0" IVar="5" Cut="2.8419332504272461e+00" cType="1" res="-1.9999665673822165e-03" rms="4.6207988262176514e-01" purity="4.9074289202690125e-01" nType="0">
            <Node pos="l" depth="3" NCoef="0" IVar="-1" Cut="0.0000000000000000e+00" cType="1" res="-4.3946052755927667e-05" rms="4.6174648404121399e-01" purity="4.8673951625823975e-01" nType="-99"/>
            <Node pos="r" depth="3" NCoef="0" IVar="-1" Cut="0.0000000000000000e+00" cType="1" res="-3.4610465168952942e-02" rms="4.6556362509727478e-01" purity="5.4097414016723633e-01" nType="-99"/>
          </Node>
          <Node pos="r" depth="2" NCoef="0" IVar="4" Cut="1.8571972846984863e+00" cType="1" res="1.9976496696472168e-02" rms="4.5029130578041077e-01" purity="6.3608217239379883e-01" nType="0">
            <Node pos="l" depth="3" NCoef="0" IVar="-1" Cut="0.0000000000000000e+00" cType="1" res="2.2259093821048737e-02" rms="4.5016822218894958e-01" purity="6.3316434621810913e-01" nType="-99"/>
            <Node pos="r" depth="3" NCoef="0" IVar="-1" Cut="0.0000000000000000e+00" cType="1" res="8.7639885023236275e-03" rms="4.5021665096282959e-01" purity="6.3868588209152222e-01" nType="-99"/>
          </Node>
        </Node>
      </Node>
    </BinaryTree>
    <BinaryTree type="DecisionTree" boostWeight="1.0000000000000000e+00" itree="268">
      <Node pos="s" depth="0" NCoef="0" IVar="5" Cut="-2.8422799110412598e+00" cType="1" res="-1.1883216910064220e-02" rms="4.5551723241806030e-01" purity="4.8434311151504517e-01" nType="0">
        <Node pos="l" depth="1" NCoef="0" IVar="-1" Cut="0.0000000000000000e+00" cType="1" res="-3.1385198235511780e-03" rms="4.3617156147956848e-01" purity="4.7411596775054932e-01" nType="-99"/>
        <Node pos="r" depth="1" NCoef="0" IVar="9" Cut="6.7559453125000000e+04" cType="1" res="-7.4979914352297783e-03" rms="4.5689505338668823e-01" purity="4.8523113131523132e-01" nType="0">
          <Node pos="l" depth="2" NCoef="0" IVar="9" Cut="5.5397285156250000e+04" cType="1" res="-1.0768812149763107e-02" rms="4.6043363213539124e-01" purity="4.4469109177589417e-01" nType="0">
            <Node pos="l" depth="3" NCoef="0" IVar="-1" Cut="0.0000000000000000e+00" cType="1" res="-3.7347634788602591e-03" rms="4.6503919363021851e-01" purity="4.3510749936103821e-01" nType="-99"/>
            <Node pos="r" depth="3" NCoef="0" IVar="-1" Cut="0.0000000000000000e+00" cType="1" res="-1.3498801272362471e-03" rms="4.3075758218765259e-01" purity="5.0169998407363892e-01" nType="-99"/>
          </Node>
          <Node pos="r" depth="2" NCoef="0" IVar="8" Cut="1.2699665625000000e+05" cType="1" res="9.4104772433638573e-03" rms="4.3775737285614014e-01" purity="6.9480240345001221e-01" nType="0">
            <Node pos="l" depth="3" NCoef="0" IVar="-1" Cut="0.0000000000000000e+00" cType="1" res="2.1729636937379837e-02" rms="4.3727782368659973e-01" purity="6.9945085048675537e-01" nType="-99"/>
            <Node pos="r" depth="3" NCoef="0" IVar="-1" Cut="0.0000000000000000e+00" cType="1" res="-1.1469200253486633e-02" rms="4.3807500600814819e-01" purity="6.8600291013717651e-01" nType="-99"/>
          </Node>
        </Node>
      </Node>
    </BinaryTree>
    <BinaryTree type="DecisionTree" boostWeight="1.0000000000000000e+00" itree="269">
      <Node pos="s" depth="0" NCoef="0" IVar="6" Cut="1.9448008537292480e+00" cType="1" res="-3.8335542194545269e-03" rms="4.6066862344741821e-01" purity="4.9776557087898254e-01" nType="0">
        <Node pos="l" depth="1" NCoef="0" IVar="5" Cut="-7.4765855073928833e-01" cType="1" res="4.7868327237665653e-03" rms="4.5805090665817261e-01" purity="5.2551686763763428e-01" nType="0">
          <Node pos="l" depth="2" NCoef="0" IVar="6" Cut="6.9515137001872063e-03" cType="1" res="1.3521856628358364e-02" rms="4.6115246415138245e-01" purity="5.2484065294265747e-01" nType="0">
            <Node pos="l" depth="3" NCoef="0" IVar="-1" Cut="0.0000000000000000e+00" cType="1" res="9.3835201114416122e-03" rms="4.7024950385093689e-01" purity="4.8190772533416748e-01" nType="-99"/>
            <Node pos="r" depth="3" NCoef="0" IVar="-1" Cut="0.0000000000000000e+00" cType="1" res="4.8692125827074051e-02" rms="4.0857940912246704e-01" purity="7.5321555137634277e-01" nType="-99"/>
          </Node>
          <Node pos="r" depth="2" NCoef="0" IVar="2" Cut="2.9977368164062500e+02" cType="1" res="0.0000000000000000e+00" rms="0.0000000000000000e+00" purity="5.2636051177978516e-01" nType="0">
            <Node pos="l" depth="3" NCoef="0" IVar="-1" Cut="0.0000000000000000e+00" cType="1" res="3.7724676076322794e-03" rms="4.5400008559226990e-01" purity="5.4107445478439331e-01" nType="-99"/>
            <Node pos="r" depth="3" NCoef="0" IVar="-1" Cut="0.0000000000000000e+00" cType="1" res="-6.0993172228336334e-02" rms="4.4878315925598145e-01" purity="4.3107873201370239e-01" nType="-99"/>
          </Node>
        </Node>
        <Node pos="r" depth="1" NCoef="0" IVar="7" Cut="6.0000000000000000e+00" cType="1" res="-2.2076293826103210e-02" rms="4.6562916040420532e-01" purity="4.3900549411773682e-01" nType="0">
          <Node pos="l" depth="2" NCoef="0" IVar="6" Cut="2.9137413501739502e+00" cType="1" res="-3.6274134181439877e-03" rms="4.7460567951202393e-01" purity="4.5357063412666321e-01" nType="0">
            <Node pos="l" depth="3" NCoef="0" IVar="-1" Cut="0.0000000000000000e+00" cType="1" res="6.7816637456417084e-03" rms="4.7666421532630920e-01" purity="4.5507481694221497e-01" nType="-99"/>
            <Node pos="r" depth="3" NCoef="0" IVar="-1" Cut="0.0000000000000000e+00" cType="1" res="-2.0886568352580070e-02" rms="4.6742329001426697e-01" purity="4.4936895370483398e-01" nType="-99"/>
          </Node>
          <Node pos="r" depth="2" NCoef="0" IVar="-1" Cut="0.0000000000000000e+00" cType="1" res="-2.1596413571387529e-03" rms="4.2961615324020386e-01" purity="3.9149278402328491e-01" nType="-99"/>
        </Node>
      </Node>
    </BinaryTree>
    <BinaryTree type="DecisionTree" boostWeight="1.0000000000000000e+00" itree="270">
      <Node pos="s" depth="0" NCoef="0" IVar="4" Cut="2.0997700691223145e+00" cType="1" res="-3.9338935166597366e-03" rms="4.6138802170753479e-01" purity="5.0210130214691162e-01" nType="0">
        <Node pos="l" depth="1" NCoef="0" IVar="2" Cut="2.4721499633789062e+02" cType="1" res="0.0000000000000000e+00" rms="0.0000000000000000e+00" purity="4.9060341715812683e-01" nType="0">
          <Node pos="l" depth="2" NCoef="0" IVar="7" Cut="7.0000000000000000e+00" cType="1" res="4.6433202805928886e-04" rms="4.6302586793899536e-01" purity="4.8972231149673462e-01" nType="0">
            <Node pos="l" depth="3" NCoef="0" IVar="-1" Cut="0.0000000000000000e+00" cType="1" res="-1.4100162079557776e-03" rms="4.6294021606445312e-01" purity="4.6856597065925598e-01" nType="-99"/>
            <Node pos="r" depth="3" NCoef="0" IVar="-1" Cut="0.0000000000000000e+00" cType="1" res="2.9723446816205978e-02" rms="4.6309062838554382e-01" purity="6.4032018184661865e-01" nType="-99"/>
          </Node>
          <Node pos="r" depth="2" NCoef="0" IVar="5" Cut="-1.3455929756164551e+00" cType="1" res="1.7775837332010269e-02" rms="4.6238204836845398e-01" purity="4.9300956726074219e-01" nType="0">
            <Node pos="l" depth="3" NCoef="0" IVar="-1" Cut="0.0000000000000000e+00" cType="1" res="-6.3937650993466377e-03" rms="4.6280136704444885e-01" purity="4.8761841654777527e-01" nType="-99"/>
            <Node pos="r" depth="3" NCoef="0" IVar="-1" Cut="0.0000000000000000e+00" cType="1" res="3.6263253539800644e-02" rms="4.6143457293510437e-01" purity="4.9649903178215027e-01" nType="-99"/>
          </Node>
        </Node>
        <Node pos="r" depth="1" NCoef="0" IVar="4" Cut="2.2566680908203125e+00" cType="1" res="-1.5267248265445232e-02" rms="4.5920959115028381e-01" purity="5.1651889085769653e-01" nType="0">
          <Node pos="l" depth="2" NCoef="0" IVar="-1" Cut="0.0000000000000000e+00" cType="1" res="-4.3059526942670345e-03" rms="4.4818630814552307e-01" purity="4.7001928091049194e-01" nType="-99"/>
          <Node pos="r" depth="2" NCoef="0" IVar="5" Cut="-1.0471311807632446e+00" cType="1" res="-9.2877540737390518e-03" rms="4.6043425798416138e-01" purity="5.2309596538543701e-01" nType="0">
            <Node pos="l" depth="3" NCoef="0" IVar="-1" Cut="0.0000000000000000e+00" cType="1" res="-2.2309262305498123e-02" rms="4.6143075823783875e-01" purity="5.2551811933517456e-01" nType="-99"/>
            <Node pos="r" depth="3" NCoef="0" IVar="-1" Cut="0.0000000000000000e+00" cType="1" res="-1.1263003107160330e-03" rms="4.5959290862083435e-01" purity="5.2144420146942139e-01" nType="-99"/>
          </Node>
        </Node>
      </Node>
    </BinaryTree>
    <BinaryTree type="DecisionTree" boostWeight="1.0000000000000000e+00" itree="271">
      <Node pos="s" depth="0" NCoef="0" IVar="9" Cut="6.1075144531250000e+04" cType="1" res="0.0000000000000000e+00" rms="0.0000000000000000e+00" purity="5.0572484731674194e-01" nType="0">
        <Node pos="l" depth="1" NCoef="0" IVar="2" Cut="1.9395278930664062e+02" cType="1" res="0.0000000000000000e+00" rms="0.0000000000000000e+00" purity="4.5999631285667419e-01" nType="0">
          <Node pos="l" depth="2" NCoef="0" IVar="9" Cut="4.2178425781250000e+04" cType="1" res="-2.2465479560196400e-03" rms="4.7051781415939331e-01" purity="4.7441631555557251e-01" nType="0">
            <Node pos="l" depth="3" NCoef="0" IVar="-1" Cut="0.0000000000000000e+00" cType="1" res="7.8102215193212032e-03" rms="4.7141352295875549e-01" purity="4.2581990361213684e-01" nType="-99"/>
            <Node pos="r" depth="3" NCoef="0" IVar="-1" Cut="0.0000000000000000e+00" cType="1" res="-4.6617835760116577e-03" rms="4.6813723444938660e-01" purity="5.7263571023941040e-01" nType="-99"/>
          </Node>
          <Node pos="r" depth="2" NCoef="0" IVar="2" Cut="4.5552713012695312e+02" cType="1" res="1.1622884310781956e-02" rms="4.6961241960525513e-01" purity="4.4188746809959412e-01" nType="0">
            <Node pos="l" depth="3" NCoef="0" IVar="-1" Cut="0.0000000000000000e+00" cType="1" res="1.6742773354053497e-02" rms="4.7073894739151001e-01" purity="4.3499147891998291e-01" nType="-99"/>
            <Node pos="r" depth="3" NCoef="0" IVar="-1" Cut="0.0000000000000000e+00" cType="1" res="-6.1899730935692787e-03" rms="4.6164596080780029e-01" purity="4.8598793148994446e-01" nType="-99"/>
          </Node>
        </Node>
        <Node pos="r" depth="1" NCoef="0" IVar="5" Cut="-2.5426816940307617e+00" cType="1" res="-1.3879603706300259e-02" rms="4.4310495257377625e-01" purity="6.6552734375000000e-01" nType="0">
          <Node pos="l" depth="2" NCoef="0" IVar="-1" Cut="0.0000000000000000e+00" cType="1" res="2.4852531030774117e-02" rms="4.2992457747459412e-01" purity="7.0905673503875732e-01" nType="-99"/>
          <Node pos="r" depth="2" NCoef="0" IVar="7" Cut="7.0000000000000000e+00" cType="1" res="-2.1907437592744827e-02" rms="4.4599378108978271e-01" purity="6.5446901321411133e-01" nType="0">
            <Node pos="l" depth="3" NCoef="0" IVar="-1" Cut="0.0000000000000000e+00" cType="1" res="-3.4821491688489914e-02" rms="4.5026838779449463e-01" purity="6.4105427265167236e-01" nType="-99"/>
            <Node pos="r" depth="3" NCoef="0" IVar="-1" Cut="0.0000000000000000e+00" cType="1" res="1.3019755482673645e-02" rms="4.3402647972106934e-01" purity="6.8663829565048218e-01" nType="-99"/>
          </Node>
        </Node>
      </Node>
    </BinaryTree>
    <BinaryTree type="DecisionTree" boostWeight="1.0000000000000000e+00" itree="272">
      <Node pos="s" depth="0" NCoef="0" IVar="8" Cut="1.2709000000000000e+05" cType="1" res="0.0000000000000000e+00" rms="0.0000000000000000e+00" purity="5.0037282705307007e-01" nType="0">
        <Node pos="l" depth="1" NCoef="0" IVar="5" Cut="-2.8423001766204834e+00" cType="1" res="-9.3056242913007736e-03" rms="4.6722498536109924e-01" purity="4.8160228133201599e-01" nType="0">
          <Node pos="l" depth="2" NCoef="0" IVar="-1" Cut="0.0000000000000000e+00" cType="1" res="2.3753967136144638e-02" rms="4.6219494938850403e-01" purity="5.6129246950149536e-01" nType="-99"/>
          <Node pos="r" depth="2" NCoef="0" IVar="4" Cut="1.1621602773666382e+00" cType="1" res="-1.1208501644432545e-02" rms="4.6750903129577637e-01" purity="4.7611826658248901e-01" nType="0">
            <Node pos="l" depth="3" NCoef="0" IVar="-1" Cut="0.0000000000000000e+00" cType="1" res="1.9731886277440935e-04" rms="4.6631646156311035e-01" purity="4.3670091032981873e-01" nType="-99"/>
            <Node pos="r" depth="3" NCoef="0" IVar="-1" Cut="0.0000000000000000e+00" cType="1" res="-1.1802472174167633e-02" rms="4.6783688664436340e-01" purity="4.8894637823104858e-01" nType="-99"/>
          </Node>
        </Node>
        <Node pos="r" depth="1" NCoef="0" IVar="5" Cut="7.4814277887344360e-01" cType="1" res="2.3739311844110489e-02" rms="4.3765786290168762e-01" purity="6.9721400737762451e-01" nType="0">
          <Node pos="l" depth="2" NCoef="0" IVar="-1" Cut="0.0000000000000000e+00" cType="1" res="1.7695773392915726e-02" rms="4.4239112734794617e-01" purity="6.8947404623031616e-01" nType="-99"/>
          <Node pos="r" depth="2" NCoef="0" IVar="-1" Cut="0.0000000000000000e+00" cType="1" res="3.5229284316301346e-02" rms="4.3191522359848022e-01" purity="7.0597368478775024e-01" nType="-99"/>
        </Node>
      </Node>
    </BinaryTree>
    <BinaryTree type="DecisionTree" boostWeight="1.0000000000000000e+00" itree="273">
      <Node pos="s" depth="0" NCoef="0" IVar="7" Cut="7.0000000000000000e+00" cType="1" res="1.8523603212088346e-03" rms="4.6281671524047852e-01" purity="5.0625926256179810e-01" nType="0">
        <Node pos="l" depth="1" NCoef="0" IVar="6" Cut="1.0471712350845337e+00" cType="1" res="6.0951947234570980e-03" rms="4.6561458706855774e-01" purity="4.9887278676033020e-01" nType="0">
          <Node pos="l" depth="2" NCoef="0" IVar="6" Cut="-2.9421045780181885e+00" cType="1" res="-1.9923618528991938e-03" rms="4.6424233913421631e-01" purity="4.9914020299911499e-01" nType="0">
            <Node pos="l" depth="3" NCoef="0" IVar="-1" Cut="0.0000000000000000e+00" cType="1" res="2.0689871162176132e-02" rms="4.8145624995231628e-01" purity="5.0195854902267456e-01" nType="-99"/>
            <Node pos="r" depth="3" NCoef="0" IVar="-1" Cut="0.0000000000000000e+00" cType="1" res="-5.4720067419111729e-03" rms="4.6177259087562561e-01" purity="4.9875643849372864e-01" nType="-99"/>
          </Node>
          <Node pos="r" depth="2" NCoef="0" IVar="0" Cut="2.1692926562500000e+05" cType="1" res="1.7334084957838058e-02" rms="4.6728250384330750e-01" purity="4.9850121140480042e-01" nType="0">
            <Node pos="l" depth="3" NCoef="0" IVar="-1" Cut="0.0000000000000000e+00" cType="1" res="2.0338550209999084e-02" rms="4.6940287947654724e-01" purity="4.8591163754463196e-01" nType="-99"/>
            <Node pos="r" depth="3" NCoef="0" IVar="-1" Cut="0.0000000000000000e+00" cType="1" res="-1.3304825872182846e-02" rms="4.5125553011894226e-01" purity="5.8673429489135742e-01" nType="-99"/>
          </Node>
        </Node>
        <Node pos="r" depth="1" NCoef="0" IVar="4" Cut="2.0092148780822754e+00" cType="1" res="-3.0580759048461914e-02" rms="4.3956539034843445e-01" purity="5.6263118982315063e-01" nType="0">
          <Node pos="l" depth="2" NCoef="0" IVar="-1" Cut="0.0000000000000000e+00" cType="1" res="-1.7564973095431924e-03" rms="4.3273323774337769e-01" purity="5.1726722717285156e-01" nType="-99"/>
          <Node pos="r" depth="2" NCoef="0" IVar="-1" Cut="0.0000000000000000e+00" cType="1" res="-3.7781456485390663e-03" rms="4.4593161344528198e-01" purity="6.1339092254638672e-01" nType="-99"/>
        </Node>
      </Node>
    </BinaryTree>
    <BinaryTree type="DecisionTree" boostWeight="1.0000000000000000e+00" itree="274">
      <Node pos="s" depth="0" NCoef="0" IVar="6" Cut="1.9448266029357910e+00" cType="1" res="-1.2974632903933525e-02" rms="4.6003931760787964e-01" purity="4.8795670270919800e-01" nType="0">
        <Node pos="l" depth="1" NCoef="0" IVar="2" Cut="3.3622680664062500e+02" cType="1" res="-1.7662306781858206e-03" rms="4.6070995926856995e-01" purity="5.1984912157058716e-01" nType="0">
          <Node pos="l" depth="2" NCoef="0" IVar="4" Cut="1.0662941932678223e+00" cType="1" res="-4.0436536073684692e-03" rms="4.5988902449607849e-01" purity="5.1817047595977783e-01" nType="0">
            <Node pos="l" depth="3" NCoef="0" IVar="-1" Cut="0.0000000000000000e+00" cType="1" res="-2.2138128057122231e-02" rms="4.5822554826736450e-01" purity="4.6653997898101807e-01" nType="-99"/>
            <Node pos="r" depth="3" NCoef="0" IVar="-1" Cut="0.0000000000000000e+00" cType="1" res="6.5607295255176723e-05" rms="4.6032691001892090e-01" purity="5.3419858217239380e-01" nType="-99"/>
          </Node>
          <Node pos="r" depth="2" NCoef="0" IVar="5" Cut="-1.9432059526443481e+00" cType="1" res="1.4321872964501381e-02" rms="4.6615123748779297e-01" purity="5.3170734643936157e-01" nType="0">
            <Node pos="l" depth="3" NCoef="0" IVar="-1" Cut="0.0000000000000000e+00" cType="1" res="-5.5712894536554813e-03" rms="4.7135791182518005e-01" purity="5.2557253837585449e-01" nType="-99"/>
            <Node pos="r" depth="3" NCoef="0" IVar="-1" Cut="0.0000000000000000e+00" cType="1" res="4.2147826403379440e-02" rms="4.6038511395454407e-01" purity="5.3756654262542725e-01" nType="-99"/>
          </Node>
        </Node>
        <Node pos="r" depth="1" NCoef="0" IVar="3" Cut="2.1261050701141357e+00" cType="1" res="-3.6251768469810486e-02" rms="4.5776745676994324e-01" purity="4.2172390222549438e-01" nType="0">
          <Node pos="l" depth="2" NCoef="0" IVar="-1" Cut="0.0000000000000000e+00" cType="1" res="-2.0440220832824707e-03" rms="4.1469243168830872e-01" purity="2.7632725238800049e-01" nType="-99"/>
          <Node pos="r" depth="2" NCoef="0" IVar="5" Cut="1.0465538501739502e+00" cType="1" res="-1.0499591939151287e-02" rms="4.7199225425720215e-01" purity="4.8167991638183594e-01" nType="0">
            <Node pos="l" depth="3" NCoef="0" IVar="-1" Cut="0.0000000000000000e+00" cType="1" res="-1.9093818962574005e-02" rms="4.6269121766090393e-01" purity="4.4589841365814209e-01" nType="-99"/>
            <Node pos="r" depth="3" NCoef="0" IVar="-1" Cut="0.0000000000000000e+00" cType="1" res="5.4542017169296741e-03" rms="4.7771209478378296e-01" purity="5.0651782751083374e-01" nType="-99"/>
          </Node>
        </Node>
      </Node>
    </BinaryTree>
    <BinaryTree type="DecisionTree" boostWeight="1.0000000000000000e+00" itree="275">
      <Node pos="s" depth="0" NCoef="0" IVar="7" Cut="6.0000000000000000e+00" cType="1" res="-1.1806249618530273e-02" rms="4.6120840311050415e-01" purity="4.8934099078178406e-01" nType="0">
        <Node pos="l" depth="1" NCoef="0" IVar="7" Cut="5.0000000000000000e+00" cType="1" res="-4.1231741197407246e-03" rms="4.6315869688987732e-01" purity="4.6636527776718140e-01" nType="0">
          <Node pos="l" depth="2" NCoef="0" IVar="4" Cut="2.9213123321533203e+00" cType="1" res="-1.0956624522805214e-02" rms="4.6347269415855408e-01" purity="4.1594991087913513e-01" nType="0">
            <Node pos="l" depth="3" NCoef="0" IVar="-1" Cut="0.0000000000000000e+00" cType="1" res="-4.0263570845127106e-03" rms="4.6714723110198975e-01" purity="4.2220324277877808e-01" nType="-99"/>
            <Node pos="r" depth="3" NCoef="0" IVar="-1" Cut="0.0000000000000000e+00" cType="1" res="-1.5922740101814270e-02" rms="4.4465622305870056e-01" purity="3.8607788085937500e-01" nType="-99"/>
          </Node>
          <Node pos="r" depth="2" NCoef="0" IVar="8" Cut="9.0804015625000000e+04" cType="1" res="6.0448860749602318e-03" rms="4.6671658754348755e-01" purity="5.4323583841323853e-01" nType="0">
            <Node pos="l" depth="3" NCoef="0" IVar="-1" Cut="0.0000000000000000e+00" cType="1" res="1.2827903032302856e-02" rms="4.6921545267105103e-01" purity="5.1561737060546875e-01" nType="-99"/>
            <Node pos="r" depth="3" NCoef="0" IVar="-1" Cut="0.0000000000000000e+00" cType="1" res="-2.0171113312244415e-02" rms="4.5688185095787048e-01" purity="6.4333617687225342e-01" nType="-99"/>
          </Node>
        </Node>
        <Node pos="r" depth="1" NCoef="0" IVar="6" Cut="2.2434113025665283e+00" cType="1" res="-3.1920395791530609e-02" rms="4.5084711909294128e-01" purity="5.5024397373199463e-01" nType="0">
          <Node pos="l" depth="2" NCoef="0" IVar="3" Cut="2.6273806095123291e+00" cType="1" res="-9.9569559097290039e-03" rms="4.5479151606559753e-01" purity="6.0716080665588379e-01" nType="0">
            <Node pos="l" depth="3" NCoef="0" IVar="-1" Cut="0.0000000000000000e+00" cType="1" res="-2.5156524032354355e-02" rms="4.7811323404312134e-01" purity="5.1720374822616577e-01" nType="-99"/>
            <Node pos="r" depth="3" NCoef="0" IVar="-1" Cut="0.0000000000000000e+00" cType="1" res="1.0833357227966189e-03" rms="4.4398924708366394e-01" purity="6.4571458101272583e-01" nType="-99"/>
          </Node>
          <Node pos="r" depth="2" NCoef="0" IVar="-1" Cut="0.0000000000000000e+00" cType="1" res="-2.6500758249312639e-03" rms="4.2970359325408936e-01" purity="3.6253982782363892e-01" nType="-99"/>
        </Node>
      </Node>
    </BinaryTree>
    <BinaryTree type="DecisionTree" boostWeight="1.0000000000000000e+00" itree="276">
      <Node pos="s" depth="0" NCoef="0" IVar="6" Cut="2.2439980506896973e+00" cType="1" res="0.0000000000000000e+00" rms="0.0000000000000000e+00" purity="4.8601517081260681e-01" nType="0">
        <Node pos="l" depth="1" NCoef="0" IVar="7" Cut="6.0000000000000000e+00" cType="1" res="0.0000000000000000e+00" rms="0.0000000000000000e+00" purity="5.1441568136215210e-01" nType="0">
          <Node pos="l" depth="2" NCoef="0" IVar="0" Cut="2.1181187500000000e+05" cType="1" res="-6.3992105424404144e-03" rms="4.6059584617614746e-01" purity="4.6866148710250854e-01" nType="0">
            <Node pos="l" depth="3" NCoef="0" IVar="-1" Cut="0.0000000000000000e+00" cType="1" res="-7.8462492674589157e-03" rms="4.6256303787231445e-01" purity="4.5312079787254333e-01" nType="-99"/>
            <Node pos="r" depth="3" NCoef="0" IVar="-1" Cut="0.0000000000000000e+00" cType="1" res="1.9067345187067986e-02" rms="4.4632193446159363e-01" purity="5.7642287015914917e-01" nType="-99"/>
          </Node>
          <Node pos="r" depth="2" NCoef="0" IVar="6" Cut="1.9146384298801422e-01" cType="1" res="0.0000000000000000e+00" rms="0.0000000000000000e+00" purity="6.2236243486404419e-01" nType="0">
            <Node pos="l" depth="3" NCoef="0" IVar="-1" Cut="0.0000000000000000e+00" cType="1" res="3.3885233104228973e-02" rms="4.5673632621765137e-01" purity="6.2269598245620728e-01" nType="-99"/>
            <Node pos="r" depth="3" NCoef="0" IVar="-1" Cut="0.0000000000000000e+00" cType="1" res="-1.7691623419523239e-02" rms="4.5665919780731201e-01" purity="6.2181001901626587e-01" nType="-99"/>
          </Node>
        </Node>
        <Node pos="r" depth="1" NCoef="0" IVar="7" Cut="6.0000000000000000e+00" cType="1" res="-4.1017953306436539e-02" rms="4.5509588718414307e-01" purity="4.1215938329696655e-01" nType="0">
          <Node pos="l" depth="2" NCoef="0" IVar="4" Cut="2.7989077568054199e+00" cType="1" res="-1.5364388935267925e-02" rms="4.7176143527030945e-01" purity="4.4499722123146057e-01" nType="0">
            <Node pos="l" depth="3" NCoef="0" IVar="-1" Cut="0.0000000000000000e+00" cType="1" res="-5.6169279851019382e-03" rms="4.7157943248748779e-01" purity="4.5863285660743713e-01" nType="-99"/>
            <Node pos="r" depth="3" NCoef="0" IVar="-1" Cut="0.0000000000000000e+00" cType="1" res="-2.3365333676338196e-02" rms="4.7100546956062317e-01" purity="3.9622491598129272e-01" nType="-99"/>
          </Node>
          <Node pos="r" depth="2" NCoef="0" IVar="-1" Cut="0.0000000000000000e+00" cType="1" res="-1.7927153967320919e-03" rms="3.9518254995346069e-01" purity="3.1903615593910217e-01" nType="-99"/>
        </Node>
      </Node>
    </BinaryTree>
    <BinaryTree type="DecisionTree" boostWeight="1.0000000000000000e+00" itree="277">
      <Node pos="s" depth="0" NCoef="0" IVar="5" Cut="-2.8422944545745850e+00" cType="1" res="0.0000000000000000e+00" rms="0.0000000000000000e+00" purity="5.0729411840438843e-01" nType="0">
        <Node pos="l" depth="1" NCoef="0" IVar="-1" Cut="0.0000000000000000e+00" cType="1" res="-3.8766823709011078e-03" rms="4.5451378822326660e-01" purity="5.2783888578414917e-01" nType="-99"/>
        <Node pos="r" depth="1" NCoef="0" IVar="4" Cut="2.9881145954132080e+00" cType="1" res="1.7824277747422457e-03" rms="4.6288949251174927e-01" purity="5.0565862655639648e-01" nType="0">
          <Node pos="l" depth="2" NCoef="0" IVar="6" Cut="2.5431435108184814e+00" cType="1" res="-2.0947225857526064e-03" rms="4.6273323893547058e-01" purity="5.0581389665603638e-01" nType="0">
            <Node pos="l" depth="3" NCoef="0" IVar="-1" Cut="0.0000000000000000e+00" cType="1" res="-5.8858087286353111e-03" rms="4.5959612727165222e-01" purity="5.0736469030380249e-01" nType="-99"/>
            <Node pos="r" depth="3" NCoef="0" IVar="-1" Cut="0.0000000000000000e+00" cType="1" res="2.1315891295671463e-02" rms="4.7549197077751160e-01" purity="4.9912264943122864e-01" nType="-99"/>
          </Node>
          <Node pos="r" depth="2" NCoef="0" IVar="4" Cut="3.1143202781677246e+00" cType="1" res="2.6144605129957199e-02" rms="4.6312797069549561e-01" purity="5.0468301773071289e-01" nType="0">
            <Node pos="l" depth="3" NCoef="0" IVar="-1" Cut="0.0000000000000000e+00" cType="1" res="8.8381078094244003e-03" rms="4.6891471743583679e-01" purity="5.5232530832290649e-01" nType="-99"/>
            <Node pos="r" depth="3" NCoef="0" IVar="-1" Cut="0.0000000000000000e+00" cType="1" res="3.9956957101821899e-02" rms="4.5985621213912964e-01" purity="4.8033317923545837e-01" nType="-99"/>
          </Node>
        </Node>
      </Node>
    </BinaryTree>
    <BinaryTree type="DecisionTree" boostWeight="1.0000000000000000e+00" itree="278">
      <Node pos="s" depth="0" NCoef="0" IVar="6" Cut="2.2439949512481689e+00" cType="1" res="-1.1487331241369247e-02" rms="4.5624083280563354e-01" purity="4.8886203765869141e-01" nType="0">
        <Node pos="l" depth="1" NCoef="0" IVar="5" Cut="-1.9447828531265259e+00" cType="1" res="-2.2229205351322889e-03" rms="4.5668715238571167e-01" purity="5.1496529579162598e-01" nType="0">
          <Node pos="l" depth="2" NCoef="0" IVar="7" Cut="6.0000000000000000e+00" cType="1" res="9.5503851771354675e-03" rms="4.5682591199874878e-01" purity="5.3996944427490234e-01" nType="0">
            <Node pos="l" depth="3" NCoef="0" IVar="-1" Cut="0.0000000000000000e+00" cType="1" res="1.5533528057858348e-03" rms="4.6372357010841370e-01" purity="4.9407947063446045e-01" nType="-99"/>
            <Node pos="r" depth="3" NCoef="0" IVar="-1" Cut="0.0000000000000000e+00" cType="1" res="3.5823166370391846e-02" rms="4.3672868609428406e-01" purity="6.6495376825332642e-01" nType="-99"/>
          </Node>
          <Node pos="r" depth="2" NCoef="0" IVar="4" Cut="2.6062319278717041e+00" cType="1" res="0.0000000000000000e+00" rms="0.0000000000000000e+00" purity="5.0211161375045776e-01" nType="0">
            <Node pos="l" depth="3" NCoef="0" IVar="-1" Cut="0.0000000000000000e+00" cType="1" res="-8.6452215909957886e-03" rms="4.5677223801612854e-01" purity="4.8380705714225769e-01" nType="-99"/>
            <Node pos="r" depth="3" NCoef="0" IVar="-1" Cut="0.0000000000000000e+00" cType="1" res="1.2096026912331581e-02" rms="4.5501425862312317e-01" purity="5.5480235815048218e-01" nType="-99"/>
          </Node>
        </Node>
        <Node pos="r" depth="1" NCoef="0" IVar="7" Cut="6.0000000000000000e+00" cType="1" res="-3.5922665148973465e-02" rms="4.5412740111351013e-01" purity="4.2017108201980591e-01" nType="0">
          <Node pos="l" depth="2" NCoef="0" IVar="5" Cut="1.0463713407516479e+00" cType="1" res="-1.0587855242192745e-02" rms="4.6939533948898315e-01" purity="4.5250979065895081e-01" nType="0">
            <Node pos="l" depth="3" NCoef="0" IVar="-1" Cut="0.0000000000000000e+00" cType="1" res="-3.6043055355548859e-02" rms="4.6518290042877197e-01" purity="4.0659359097480774e-01" nType="-99"/>
            <Node pos="r" depth="3" NCoef="0" IVar="-1" Cut="0.0000000000000000e+00" cType="1" res="1.6201026737689972e-03" rms="4.7160777449607849e-01" purity="4.8140943050384521e-01" nType="-99"/>
          </Node>
          <Node pos="r" depth="2" NCoef="0" IVar="-1" Cut="0.0000000000000000e+00" cType="1" res="-1.7116892850026488e-03" rms="3.9807665348052979e-01" purity="3.2679009437561035e-01" nType="-99"/>
        </Node>
      </Node>
    </BinaryTree>
    <BinaryTree type="DecisionTree" boostWeight="1.0000000000000000e+00" itree="279">
      <Node pos="s" depth="0" NCoef="0" IVar="7" Cut="7.0000000000000000e+00" cType="1" res="3.9894971996545792e-03" rms="4.6450057625770569e-01" purity="5.0662696361541748e-01" nType="0">
        <Node pos="l" depth="1" NCoef="0" IVar="3" Cut="-1.8619784116744995e+00" cType="1" res="8.4531605243682861e-03" rms="4.6712279319763184e-01" purity="4.9921551346778870e-01" nType="0">
          <Node pos="l" depth="2" NCoef="0" IVar="-1" Cut="0.0000000000000000e+00" cType="1" res="4.5829743146896362e-02" rms="4.8065990209579468e-01" purity="4.5288753509521484e-01" nType="-99"/>
          <Node pos="r" depth="2" NCoef="0" IVar="6" Cut="1.9448033571243286e+00" cType="1" res="6.5163066610693932e-03" rms="4.6620482206344604e-01" purity="5.0207626819610596e-01" nType="0">
            <Node pos="l" depth="3" NCoef="0" IVar="-1" Cut="0.0000000000000000e+00" cType="1" res="1.2035467661917210e-02" rms="4.6237704157829285e-01" purity="5.1701658964157104e-01" nType="-99"/>
            <Node pos="r" depth="3" NCoef="0" IVar="-1" Cut="0.0000000000000000e+00" cType="1" res="-1.7904443666338921e-03" rms="4.7402539849281311e-01" purity="4.7072982788085938e-01" nType="-99"/>
          </Node>
        </Node>
        <Node pos="r" depth="1" NCoef="0" IVar="2" Cut="1.6935212707519531e+02" cType="1" res="-3.1292639672756195e-02" rms="4.4168326258659363e-01" purity="5.6516242027282715e-01" nType="0">
          <Node pos="l" depth="2" NCoef="0" IVar="-1" Cut="0.0000000000000000e+00" cType="1" res="5.3707435727119446e-03" rms="4.5521935820579529e-01" purity="6.5457558631896973e-01" nType="-99"/>
          <Node pos="r" depth="2" NCoef="0" IVar="-1" Cut="0.0000000000000000e+00" cType="1" res="-2.0234391558915377e-03" rms="4.3191611766815186e-01" purity="5.1108729839324951e-01" nType="-99"/>
        </Node>
      </Node>
    </BinaryTree>
    <BinaryTree type="DecisionTree" boostWeight="1.0000000000000000e+00" itree="280">
      <Node pos="s" depth="0" NCoef="0" IVar="4" Cut="2.1950166225433350e+00" cType="1" res="0.0000000000000000e+00" rms="0.0000000000000000e+00" purity="5.0115710496902466e-01" nType="0">
        <Node pos="l" depth="1" NCoef="0" IVar="5" Cut="2.5428135395050049e+00" cType="1" res="5.7013559853658080e-04" rms="4.6644824743270874e-01" purity="4.8883363604545593e-01" nType="0">
          <Node pos="l" depth="2" NCoef="0" IVar="5" Cut="3.7693378329277039e-01" cType="1" res="4.0686628781259060e-03" rms="4.6752947568893433e-01" purity="4.8406693339347839e-01" nType="0">
            <Node pos="l" depth="3" NCoef="0" IVar="-1" Cut="0.0000000000000000e+00" cType="1" res="-5.1149451173841953e-03" rms="4.6472245454788208e-01" purity="4.8056495189666748e-01" nType="-99"/>
            <Node pos="r" depth="3" NCoef="0" IVar="-1" Cut="0.0000000000000000e+00" cType="1" res="2.3614538833498955e-02" rms="4.7149911522865295e-01" purity="4.8975703120231628e-01" nType="-99"/>
          </Node>
          <Node pos="r" depth="2" NCoef="0" IVar="-1" Cut="0.0000000000000000e+00" cType="1" res="-2.2871367633342743e-02" rms="4.5914009213447571e-01" purity="5.1821160316467285e-01" nType="-99"/>
        </Node>
        <Node pos="r" depth="1" NCoef="0" IVar="6" Cut="2.8422586917877197e+00" cType="1" res="-1.7060352489352226e-02" rms="4.6446064114570618e-01" purity="5.1855230331420898e-01" nType="0">
          <Node pos="l" depth="2" NCoef="0" IVar="7" Cut="6.0000000000000000e+00" cType="1" res="-2.1082535386085510e-02" rms="4.6250489354133606e-01" purity="5.1650565862655640e-01" nType="0">
            <Node pos="l" depth="3" NCoef="0" IVar="-1" Cut="0.0000000000000000e+00" cType="1" res="-2.7578124776482582e-02" rms="4.6806228160858154e-01" purity="4.6756955981254578e-01" nType="-99"/>
            <Node pos="r" depth="3" NCoef="0" IVar="-1" Cut="0.0000000000000000e+00" cType="1" res="1.3538850471377373e-03" rms="4.4847017526626587e-01" purity="6.3082569837570190e-01" nType="-99"/>
          </Node>
          <Node pos="r" depth="2" NCoef="0" IVar="-1" Cut="0.0000000000000000e+00" cType="1" res="1.4985701069235802e-02" rms="4.7859573364257812e-01" purity="5.3491771221160889e-01" nType="-99"/>
        </Node>
      </Node>
    </BinaryTree>
    <BinaryTree type="DecisionTree" boostWeight="1.0000000000000000e+00" itree="281">
      <Node pos="s" depth="0" NCoef="0" IVar="7" Cut="6.0000000000000000e+00" cType="1" res="0.0000000000000000e+00" rms="0.0000000000000000e+00" purity="5.0473433732986450e-01" nType="0">
        <Node pos="l" depth="1" NCoef="0" IVar="1" Cut="1.9916162500000000e+05" cType="1" res="2.5554934982210398e-03" rms="4.6448513865470886e-01" purity="4.7177359461784363e-01" nType="0">
          <Node pos="l" depth="2" NCoef="0" IVar="1" Cut="1.4638189062500000e+05" cType="1" res="-1.2211722787469625e-03" rms="4.6812120079994202e-01" purity="4.9830821156501770e-01" nType="0">
            <Node pos="l" depth="3" NCoef="0" IVar="-1" Cut="0.0000000000000000e+00" cType="1" res="1.0002537630498409e-02" rms="4.7143951058387756e-01" purity="5.1308280229568481e-01" nType="-99"/>
            <Node pos="r" depth="3" NCoef="0" IVar="-1" Cut="0.0000000000000000e+00" cType="1" res="-8.5007073357701302e-03" rms="4.6347656846046448e-01" purity="4.7949936985969543e-01" nType="-99"/>
          </Node>
          <Node pos="r" depth="2" NCoef="0" IVar="3" Cut="5.1005768775939941e+00" cType="1" res="1.6603235155344009e-02" rms="4.5042508840560913e-01" purity="3.7307512760162354e-01" nType="0">
            <Node pos="l" depth="3" NCoef="0" IVar="-1" Cut="0.0000000000000000e+00" cType="1" res="5.4569724947214127e-02" rms="4.6248537302017212e-01" purity="4.3687465786933899e-01" nType="-99"/>
            <Node pos="r" depth="3" NCoef="0" IVar="-1" Cut="0.0000000000000000e+00" cType="1" res="2.9351790435612202e-03" rms="4.4241183996200562e-01" purity="3.3488690853118896e-01" nType="-99"/>
          </Node>
        </Node>
        <Node pos="r" depth="1" NCoef="0" IVar="0" Cut="1.9923442187500000e+05" cType="1" res="-1.3576023280620575e-02" rms="4.5688813924789429e-01" purity="5.9595263004302979e-01" nType="0">
          <Node pos="l" depth="2" NCoef="0" IVar="4" Cut="2.4246547222137451e+00" cType="1" res="-2.2481909021735191e-02" rms="4.7017705440521240e-01" purity="5.5794227123260498e-01" nType="0">
            <Node pos="l" depth="3" NCoef="0" IVar="-1" Cut="0.0000000000000000e+00" cType="1" res="-1.6035802662372589e-02" rms="4.6926307678222656e-01" purity="5.4442691802978516e-01" nType="-99"/>
            <Node pos="r" depth="3" NCoef="0" IVar="-1" Cut="0.0000000000000000e+00" cType="1" res="-3.7328565958887339e-03" rms="4.7115823626518250e-01" purity="5.8063310384750366e-01" nType="-99"/>
          </Node>
          <Node pos="r" depth="2" NCoef="0" IVar="-1" Cut="0.0000000000000000e+00" cType="1" res="1.8642989918589592e-02" rms="4.1466897726058960e-01" purity="7.0669162273406982e-01" nType="-99"/>
        </Node>
      </Node>
    </BinaryTree>
    <BinaryTree type="DecisionTree" boostWeight="1.0000000000000000e+00" itree="282">
      <Node pos="s" depth="0" NCoef="0" IVar="3" Cut="3.0759871006011963e+00" cType="1" res="-5.3518265485763550e-03" rms="4.6271902322769165e-01" purity="5.0115537643432617e-01" nType="0">
        <Node pos="l" depth="1" NCoef="0" IVar="6" Cut="2.5432205200195312e+00" cType="1" res="-1.6798976808786392e-02" rms="4.7150498628616333e-01" purity="4.5709899067878723e-01" nType="0">
          <Node pos="l" depth="2" NCoef="0" IVar="8" Cut="7.9574617187500000e+04" cType="1" res="-8.5433423519134521e-03" rms="4.7286638617515564e-01" purity="4.7442740201950073e-01" nType="0">
            <Node pos="l" depth="3" NCoef="0" IVar="-1" Cut="0.0000000000000000e+00" cType="1" res="3.5513031762093306e-03" rms="4.7134980559349060e-01" purity="4.4551104307174683e-01" nType="-99"/>
            <Node pos="r" depth="3" NCoef="0" IVar="-1" Cut="0.0000000000000000e+00" cType="1" res="-3.7859968841075897e-02" rms="4.7517630457878113e-01" purity="5.4841333627700806e-01" nType="-99"/>
          </Node>
          <Node pos="r" depth="2" NCoef="0" IVar="-1" Cut="0.0000000000000000e+00" cType="1" res="-5.1669362001121044e-03" rms="4.6235531568527222e-01" purity="3.6984813213348389e-01" nType="-99"/>
        </Node>
        <Node pos="r" depth="1" NCoef="0" IVar="5" Cut="-2.5431330204010010e+00" cType="1" res="1.0514061432331800e-03" rms="4.5760595798492432e-01" purity="5.2579933404922485e-01" nType="0">
          <Node pos="l" depth="2" NCoef="0" IVar="6" Cut="-1.0458606481552124e+00" cType="1" res="2.8463367372751236e-02" rms="4.4765526056289673e-01" purity="6.2482488155364990e-01" nType="0">
            <Node pos="l" depth="3" NCoef="0" IVar="-1" Cut="0.0000000000000000e+00" cType="1" res="6.4042553305625916e-02" rms="4.6354231238365173e-01" purity="6.3265556097030640e-01" nType="-99"/>
            <Node pos="r" depth="3" NCoef="0" IVar="-1" Cut="0.0000000000000000e+00" cType="1" res="1.3966958969831467e-02" rms="4.3132776021957397e-01" purity="6.1745059490203857e-01" nType="-99"/>
          </Node>
          <Node pos="r" depth="2" NCoef="0" IVar="6" Cut="-7.4798488616943359e-01" cType="1" res="-3.0813501216471195e-03" rms="4.5894545316696167e-01" purity="5.1086980104446411e-01" nType="0">
            <Node pos="l" depth="3" NCoef="0" IVar="-1" Cut="0.0000000000000000e+00" cType="1" res="-1.3882485218346119e-02" rms="4.6285560727119446e-01" purity="4.9105274677276611e-01" nType="-99"/>
            <Node pos="r" depth="3" NCoef="0" IVar="-1" Cut="0.0000000000000000e+00" cType="1" res="3.2121336553245783e-03" rms="4.5601829886436462e-01" purity="5.2505564689636230e-01" nType="-99"/>
          </Node>
        </Node>
      </Node>
    </BinaryTree>
    <BinaryTree type="DecisionTree" boostWeight="1.0000000000000000e+00" itree="283">
      <Node pos="s" depth="0" NCoef="0" IVar="4" Cut="2.9977195262908936e+00" cType="1" res="-2.3136860691010952e-03" rms="4.6275511384010315e-01" purity="5.0743627548217773e-01" nType="0">
        <Node pos="l" depth="1" NCoef="0" IVar="5" Cut="2.8420364856719971e+00" cType="1" res="9.1674766736105084e-04" rms="4.6378397941589355e-01" purity="5.1469218730926514e-01" nType="0">
          <Node pos="l" depth="2" NCoef="0" IVar="2" Cut="4.4054895019531250e+02" cType="1" res="-1.1125492164865136e-03" rms="4.6385064721107483e-01" purity="5.0855326652526855e-01" nType="0">
            <Node pos="l" depth="3" NCoef="0" IVar="-1" Cut="0.0000000000000000e+00" cType="1" res="1.1493612546473742e-03" rms="4.6371951699256897e-01" purity="5.0601011514663696e-01" nType="-99"/>
            <Node pos="r" depth="3" NCoef="0" IVar="-1" Cut="0.0000000000000000e+00" cType="1" res="-2.7566006407141685e-02" rms="4.6469628810882568e-01" purity="5.4271477460861206e-01" nType="-99"/>
          </Node>
          <Node pos="r" depth="2" NCoef="0" IVar="-1" Cut="0.0000000000000000e+00" cType="1" res="3.1232044100761414e-02" rms="4.6215099096298218e-01" purity="5.9302169084548950e-01" nType="-99"/>
        </Node>
        <Node pos="r" depth="1" NCoef="0" IVar="2" Cut="1.9743754577636719e+02" cType="1" res="0.0000000000000000e+00" rms="0.0000000000000000e+00" purity="4.6275171637535095e-01" nType="0">
          <Node pos="l" depth="2" NCoef="0" IVar="-1" Cut="0.0000000000000000e+00" cType="1" res="-2.3070916533470154e-02" rms="4.5744502544403076e-01" purity="4.9739369750022888e-01" nType="-99"/>
          <Node pos="r" depth="2" NCoef="0" IVar="-1" Cut="0.0000000000000000e+00" cType="1" res="-6.6802198998630047e-03" rms="4.5409545302391052e-01" purity="4.2486822605133057e-01" nType="-99"/>
        </Node>
      </Node>
    </BinaryTree>
    <BinaryTree type="DecisionTree" boostWeight="1.0000000000000000e+00" itree="284">
      <Node pos="s" depth="0" NCoef="0" IVar="5" Cut="-2.8423120975494385e+00" cType="1" res="0.0000000000000000e+00" rms="0.0000000000000000e+00" purity="4.9533373117446899e-01" nType="0">
        <Node pos="l" depth="1" NCoef="0" IVar="-1" Cut="0.0000000000000000e+00" cType="1" res="-3.8917111232876778e-03" rms="4.4703093171119690e-01" purity="5.0918573141098022e-01" nType="-99"/>
        <Node pos="r" depth="1" NCoef="0" IVar="6" Cut="2.8423888683319092e+00" cType="1" res="-4.6169869601726532e-03" rms="4.6035841107368469e-01" purity="4.9417480826377869e-01" nType="0">
          <Node pos="l" depth="2" NCoef="0" IVar="4" Cut="1.9390664100646973e+00" cType="1" res="0.0000000000000000e+00" rms="0.0000000000000000e+00" purity="4.9209675192832947e-01" nType="0">
            <Node pos="l" depth="3" NCoef="0" IVar="-1" Cut="0.0000000000000000e+00" cType="1" res="-2.7760721277445555e-03" rms="4.5704209804534912e-01" purity="4.6387147903442383e-01" nType="-99"/>
            <Node pos="r" depth="3" NCoef="0" IVar="-1" Cut="0.0000000000000000e+00" cType="1" res="1.2174396542832255e-03" rms="4.6160358190536499e-01" purity="5.2280336618423462e-01" nType="-99"/>
          </Node>
          <Node pos="r" depth="2" NCoef="0" IVar="7" Cut="5.0000000000000000e+00" cType="1" res="1.3781724497675896e-02" rms="4.6896070241928101e-01" purity="5.1234364509582520e-01" nType="0">
            <Node pos="l" depth="3" NCoef="0" IVar="-1" Cut="0.0000000000000000e+00" cType="1" res="1.8144451081752777e-02" rms="4.6360832452774048e-01" purity="5.0200611352920532e-01" nType="-99"/>
            <Node pos="r" depth="3" NCoef="0" IVar="-1" Cut="0.0000000000000000e+00" cType="1" res="5.7177194394171238e-03" rms="4.7653231024742126e-01" purity="5.2674865722656250e-01" nType="-99"/>
          </Node>
        </Node>
      </Node>
    </BinaryTree>
    <BinaryTree type="DecisionTree" boostWeight="1.0000000000000000e+00" itree="285">
      <Node pos="s" depth="0" NCoef="0" IVar="3" Cut="-5.0363677740097046e-01" cType="1" res="-1.2926157563924789e-02" rms="4.5960944890975952e-01" purity="4.9003785848617554e-01" nType="0">
        <Node pos="l" depth="1" NCoef="0" IVar="-1" Cut="0.0000000000000000e+00" cType="1" res="-5.2878032438457012e-03" rms="4.5009672641754150e-01" purity="3.4844264388084412e-01" nType="-99"/>
        <Node pos="r" depth="1" NCoef="0" IVar="2" Cut="2.4291113281250000e+02" cType="1" res="-7.5058434158563614e-03" rms="4.6033379435539246e-01" purity="5.0575286149978638e-01" nType="0">
          <Node pos="l" depth="2" NCoef="0" IVar="5" Cut="1.3463349342346191e+00" cType="1" res="-1.2365683913230896e-02" rms="4.5715165138244629e-01" purity="5.0479894876480103e-01" nType="0">
            <Node pos="l" depth="3" NCoef="0" IVar="-1" Cut="0.0000000000000000e+00" cType="1" res="-3.3456273376941681e-03" rms="4.6015310287475586e-01" purity="5.0511801242828369e-01" nType="-99"/>
            <Node pos="r" depth="3" NCoef="0" IVar="-1" Cut="0.0000000000000000e+00" cType="1" res="-2.9479791410267353e-03" rms="4.5157921314239502e-01" purity="5.0424695014953613e-01" nType="-99"/>
          </Node>
          <Node pos="r" depth="2" NCoef="0" IVar="6" Cut="-1.9447978734970093e+00" cType="1" res="5.0757997669279575e-03" rms="4.6823731064796448e-01" purity="5.0822228193283081e-01" nType="0">
            <Node pos="l" depth="3" NCoef="0" IVar="-1" Cut="0.0000000000000000e+00" cType="1" res="-1.4423745684325695e-02" rms="4.7170245647430420e-01" purity="4.9699935317039490e-01" nType="-99"/>
            <Node pos="r" depth="3" NCoef="0" IVar="-1" Cut="0.0000000000000000e+00" cType="1" res="1.3476734980940819e-02" rms="4.6615019440650940e-01" purity="5.1391035318374634e-01" nType="-99"/>
          </Node>
        </Node>
      </Node>
    </BinaryTree>
    <BinaryTree type="DecisionTree" boostWeight="1.0000000000000000e+00" itree="286">
      <Node pos="s" depth="0" NCoef="0" IVar="6" Cut="2.2439949512481689e+00" cType="1" res="-8.1741698086261749e-03" rms="4.5847511291503906e-01" purity="4.9400833249092102e-01" nType="0">
        <Node pos="l" depth="1" NCoef="0" IVar="5" Cut="1.6456117630004883e+00" cType="1" res="1.5061650192365050e-03" rms="4.5939102768898010e-01" purity="5.2041399478912354e-01" nType="0">
          <Node pos="l" depth="2" NCoef="0" IVar="2" Cut="2.7308108520507812e+02" cType="1" res="5.6297094561159611e-03" rms="4.6064612269401550e-01" purity="5.1651960611343384e-01" nType="0">
            <Node pos="l" depth="3" NCoef="0" IVar="-1" Cut="0.0000000000000000e+00" cType="1" res="1.1517582461237907e-03" rms="4.5802894234657288e-01" purity="5.1637965440750122e-01" nType="-99"/>
            <Node pos="r" depth="3" NCoef="0" IVar="-1" Cut="0.0000000000000000e+00" cType="1" res="2.7357993647456169e-02" rms="4.7008734941482544e-01" purity="5.1705360412597656e-01" nType="-99"/>
          </Node>
          <Node pos="r" depth="2" NCoef="0" IVar="6" Cut="-8.3342409133911133e-01" cType="1" res="-8.5989218205213547e-03" rms="4.5614308118820190e-01" purity="5.2995753288269043e-01" nType="0">
            <Node pos="l" depth="3" NCoef="0" IVar="-1" Cut="0.0000000000000000e+00" cType="1" res="-3.6765061318874359e-02" rms="4.5260664820671082e-01" purity="6.3252037763595581e-01" nType="-99"/>
            <Node pos="r" depth="3" NCoef="0" IVar="-1" Cut="0.0000000000000000e+00" cType="1" res="1.4200609875842929e-03" rms="4.5712405443191528e-01" purity="4.8984715342521667e-01" nType="-99"/>
          </Node>
        </Node>
        <Node pos="r" depth="1" NCoef="0" IVar="7" Cut="6.0000000000000000e+00" cType="1" res="-3.3660668879747391e-02" rms="4.5506498217582703e-01" purity="4.2446216940879822e-01" nType="0">
          <Node pos="l" depth="2" NCoef="0" IVar="3" Cut="5.6975927352905273e+00" cType="1" res="-4.8933289945125580e-03" rms="4.7136372327804565e-01" purity="4.6367850899696350e-01" nType="0">
            <Node pos="l" depth="3" NCoef="0" IVar="-1" Cut="0.0000000000000000e+00" cType="1" res="4.0892101824283600e-03" rms="4.7960302233695984e-01" purity="4.6722021698951721e-01" nType="-99"/>
            <Node pos="r" depth="3" NCoef="0" IVar="-1" Cut="0.0000000000000000e+00" cType="1" res="-9.1996267437934875e-03" rms="4.6047231554985046e-01" purity="4.5920038223266602e-01" nType="-99"/>
          </Node>
          <Node pos="r" depth="2" NCoef="0" IVar="-1" Cut="0.0000000000000000e+00" cType="1" res="-1.8273086752742529e-03" rms="3.9044848084449768e-01" purity="3.0791154503822327e-01" nType="-99"/>
        </Node>
      </Node>
    </BinaryTree>
    <BinaryTree type="DecisionTree" boostWeight="1.0000000000000000e+00" itree="287">
      <Node pos="s" depth="0" NCoef="0" IVar="8" Cut="1.0049639062500000e+05" cType="1" res="-1.4533756766468287e-03" rms="4.6284964680671692e-01" purity="5.0524741411209106e-01" nType="0">
        <Node pos="l" depth="1" NCoef="0" IVar="8" Cut="3.2293343750000000e+04" cType="1" res="-4.4801793992519379e-03" rms="4.6728309988975525e-01" purity="4.6828597784042358e-01" nType="0">
          <Node pos="l" depth="2" NCoef="0" IVar="-1" Cut="0.0000000000000000e+00" cType="1" res="-9.5703145489096642e-03" rms="4.0755259990692139e-01" purity="2.2530163824558258e-01" nType="-99"/>
          <Node pos="r" depth="2" NCoef="0" IVar="4" Cut="2.6060180664062500e+00" cType="1" res="-1.4520793920382857e-03" rms="4.7210606932640076e-01" purity="4.8987615108489990e-01" nType="0">
            <Node pos="l" depth="3" NCoef="0" IVar="-1" Cut="0.0000000000000000e+00" cType="1" res="4.6445820480585098e-03" rms="4.7322273254394531e-01" purity="4.9147787690162659e-01" nType="-99"/>
            <Node pos="r" depth="3" NCoef="0" IVar="-1" Cut="0.0000000000000000e+00" cType="1" res="-1.3468137010931969e-02" rms="4.6901687979698181e-01" purity="4.8586344718933105e-01" nType="-99"/>
          </Node>
        </Node>
        <Node pos="r" depth="1" NCoef="0" IVar="4" Cut="1.0934319496154785e+00" cType="1" res="1.3358585536479950e-02" rms="4.4021108746528625e-01" purity="6.8612188100814819e-01" nType="0">
          <Node pos="l" depth="2" NCoef="0" IVar="-1" Cut="0.0000000000000000e+00" cType="1" res="-2.2150720469653606e-03" rms="4.4889381527900696e-01" purity="6.6669505834579468e-01" nType="-99"/>
          <Node pos="r" depth="2" NCoef="0" IVar="9" Cut="6.6388515625000000e+04" cType="1" res="2.0840685814619064e-02" rms="4.3570193648338318e-01" purity="6.9563227891921997e-01" nType="0">
            <Node pos="l" depth="3" NCoef="0" IVar="-1" Cut="0.0000000000000000e+00" cType="1" res="3.5075552761554718e-02" rms="4.4890817999839783e-01" purity="6.4931547641754150e-01" nType="-99"/>
            <Node pos="r" depth="3" NCoef="0" IVar="-1" Cut="0.0000000000000000e+00" cType="1" res="1.7655162140727043e-02" rms="4.2780417203903198e-01" purity="7.2186541557312012e-01" nType="-99"/>
          </Node>
        </Node>
      </Node>
    </BinaryTree>
    <BinaryTree type="DecisionTree" boostWeight="1.0000000000000000e+00" itree="288">
      <Node pos="s" depth="0" NCoef="0" IVar="7" Cut="7.0000000000000000e+00" cType="1" res="-6.4699462382122874e-04" rms="4.6247103810310364e-01" purity="5.0811946392059326e-01" nType="0">
        <Node pos="l" depth="1" NCoef="0" IVar="4" Cut="3.2651190757751465e+00" cType="1" res="0.0000000000000000e+00" rms="0.0000000000000000e+00" purity="4.9658998847007751e-01" nType="0">
          <Node pos="l" depth="2" NCoef="0" IVar="5" Cut="-1.6455991268157959e+00" cType="1" res="7.8253564424812794e-04" rms="4.6409478783607483e-01" purity="5.0201320648193359e-01" nType="0">
            <Node pos="l" depth="3" NCoef="0" IVar="-1" Cut="0.0000000000000000e+00" cType="1" res="1.2378927320241928e-02" rms="4.6081268787384033e-01" purity="5.3274309635162354e-01" nType="-99"/>
            <Node pos="r" depth="3" NCoef="0" IVar="-1" Cut="0.0000000000000000e+00" cType="1" res="-2.6178872212767601e-03" rms="4.6556335687637329e-01" purity="4.8748213052749634e-01" nType="-99"/>
          </Node>
          <Node pos="r" depth="2" NCoef="0" IVar="-1" Cut="0.0000000000000000e+00" cType="1" res="1.5586157329380512e-02" rms="4.5198869705200195e-01" purity="4.0424814820289612e-01" nType="-99"/>
        </Node>
        <Node pos="r" depth="1" NCoef="0" IVar="5" Cut="7.4759244918823242e-01" cType="1" res="-2.6155758649110794e-02" rms="4.5327860116958618e-01" purity="6.0373824834823608e-01" nType="0">
          <Node pos="l" depth="2" NCoef="0" IVar="-1" Cut="0.0000000000000000e+00" cType="1" res="-3.4111283719539642e-02" rms="4.5598855614662170e-01" purity="5.7931679487228394e-01" nType="-99"/>
          <Node pos="r" depth="2" NCoef="0" IVar="-1" Cut="0.0000000000000000e+00" cType="1" res="8.8079643319360912e-05" rms="4.4800588488578796e-01" purity="6.3932424783706665e-01" nType="-99"/>
        </Node>
      </Node>
    </BinaryTree>
    <BinaryTree type="DecisionTree" boostWeight="1.0000000000000000e+00" itree="289">
      <Node pos="s" depth="0" NCoef="0" IVar="6" Cut="-1.3463685512542725e+00" cType="1" res="0.0000000000000000e+00" rms="0.0000000000000000e+00" purity="5.0129044055938721e-01" nType="0">
        <Node pos="l" depth="1" NCoef="0" IVar="5" Cut="-2.5423192977905273e+00" cType="1" res="-2.1302959066815674e-04" rms="4.7029748558998108e-01" purity="4.8312041163444519e-01" nType="0">
          <Node pos="l" depth="2" NCoef="0" IVar="-1" Cut="0.0000000000000000e+00" cType="1" res="-2.7511516585946083e-02" rms="4.6660339832305908e-01" purity="5.3079795837402344e-01" nType="-99"/>
          <Node pos="r" depth="2" NCoef="0" IVar="6" Cut="-2.7996423244476318e+00" cType="1" res="4.7990679740905762e-03" rms="4.7096842527389526e-01" purity="4.7251862287521362e-01" nType="0">
            <Node pos="l" depth="3" NCoef="0" IVar="-1" Cut="0.0000000000000000e+00" cType="1" res="2.1639361977577209e-02" rms="4.7691076993942261e-01" purity="4.7829392552375793e-01" nType="-99"/>
            <Node pos="r" depth="3" NCoef="0" IVar="-1" Cut="0.0000000000000000e+00" cType="1" res="-2.3082373663783073e-03" rms="4.6813499927520752e-01" purity="4.6994110941886902e-01" nType="-99"/>
          </Node>
        </Node>
        <Node pos="r" depth="1" NCoef="0" IVar="6" Cut="2.0730488300323486e+00" cType="1" res="-1.0994841344654560e-02" rms="4.5747402310371399e-01" purity="5.1173573732376099e-01" nType="0">
          <Node pos="l" depth="2" NCoef="0" IVar="3" Cut="8.3285846710205078e+00" cType="1" res="-1.7078137025237083e-02" rms="4.4511350989341736e-01" purity="5.4239457845687866e-01" nType="0">
            <Node pos="l" depth="3" NCoef="0" IVar="-1" Cut="0.0000000000000000e+00" cType="1" res="-8.6160665377974510e-03" rms="4.4879963994026184e-01" purity="5.4206013679504395e-01" nType="-99"/>
            <Node pos="r" depth="3" NCoef="0" IVar="-1" Cut="0.0000000000000000e+00" cType="1" res="-5.9992760419845581e-02" rms="4.2472243309020996e-01" purity="5.4415935277938843e-01" nType="-99"/>
          </Node>
          <Node pos="r" depth="2" NCoef="0" IVar="5" Cut="1.4927729964256287e-01" cType="1" res="-3.5778074525296688e-03" rms="4.7200083732604980e-01" purity="4.7435510158538818e-01" nType="0">
            <Node pos="l" depth="3" NCoef="0" IVar="-1" Cut="0.0000000000000000e+00" cType="1" res="1.2922293506562710e-02" rms="4.6543112397193909e-01" purity="5.3929358720779419e-01" nType="-99"/>
            <Node pos="r" depth="3" NCoef="0" IVar="-1" Cut="0.0000000000000000e+00" cType="1" res="-8.7359352037310600e-03" rms="4.7347483038902283e-01" purity="4.5618328452110291e-01" nType="-99"/>
          </Node>
        </Node>
      </Node>
    </BinaryTree>
    <BinaryTree type="DecisionTree" boostWeight="1.0000000000000000e+00" itree="290">
      <Node pos="s" depth="0" NCoef="0" IVar="9" Cut="4.6279792968750000e+04" cType="1" res="-5.9301126748323441e-04" rms="4.6319770812988281e-01" purity="5.0350028276443481e-01" nType="0">
        <Node pos="l" depth="1" NCoef="0" IVar="6" Cut="-2.8423194885253906e+00" cType="1" res="0.0000000000000000e+00" rms="0.0000000000000000e+00" purity="4.2973026633262634e-01" nType="0">
          <Node pos="l" depth="2" NCoef="0" IVar="-1" Cut="0.0000000000000000e+00" cType="1" res="-2.4200487881898880e-02" rms="4.7372499108314514e-01" purity="4.2997375130653381e-01" nType="-99"/>
          <Node pos="r" depth="2" NCoef="0" IVar="6" Cut="-5.6278628110885620e-01" cType="1" res="9.7611136734485626e-03" rms="4.6884998679161072e-01" purity="4.2969703674316406e-01" nType="0">
            <Node pos="l" depth="3" NCoef="0" IVar="-1" Cut="0.0000000000000000e+00" cType="1" res="2.6279188692569733e-02" rms="4.7045716643333435e-01" purity="4.3790745735168457e-01" nType="-99"/>
            <Node pos="r" depth="3" NCoef="0" IVar="-1" Cut="0.0000000000000000e+00" cType="1" res="2.8578173369169235e-03" rms="4.6767187118530273e-01" purity="4.2439225316047668e-01" nType="-99"/>
          </Node>
        </Node>
        <Node pos="r" depth="1" NCoef="0" IVar="5" Cut="1.3463959693908691e+00" cType="1" res="0.0000000000000000e+00" rms="0.0000000000000000e+00" purity="6.0984164476394653e-01" nType="0">
          <Node pos="l" depth="2" NCoef="0" IVar="6" Cut="-1.3463219404220581e+00" cType="1" res="-4.5537739060819149e-03" rms="4.5938563346862793e-01" purity="6.1965906620025635e-01" nType="0">
            <Node pos="l" depth="3" NCoef="0" IVar="-1" Cut="0.0000000000000000e+00" cType="1" res="6.2348190695047379e-03" rms="4.7914856672286987e-01" purity="5.6725418567657471e-01" nType="-99"/>
            <Node pos="r" depth="3" NCoef="0" IVar="-1" Cut="0.0000000000000000e+00" cType="1" res="-1.4318942092359066e-02" rms="4.4539070129394531e-01" purity="6.5508466958999634e-01" nType="-99"/>
          </Node>
          <Node pos="r" depth="2" NCoef="0" IVar="5" Cut="2.1158835887908936e+00" cType="1" res="-1.7151797190308571e-02" rms="4.4531235098838806e-01" purity="5.9573155641555786e-01" nType="0">
            <Node pos="l" depth="3" NCoef="0" IVar="-1" Cut="0.0000000000000000e+00" cType="1" res="-1.2035556137561798e-03" rms="4.2648681998252869e-01" purity="5.0140762329101562e-01" nType="-99"/>
            <Node pos="r" depth="3" NCoef="0" IVar="-1" Cut="0.0000000000000000e+00" cType="1" res="-5.1696915179491043e-03" rms="4.5318698883056641e-01" purity="6.3851970434188843e-01" nType="-99"/>
          </Node>
        </Node>
      </Node>
    </BinaryTree>
    <BinaryTree type="DecisionTree" boostWeight="1.0000000000000000e+00" itree="291">
      <Node pos="s" depth="0" NCoef="0" IVar="5" Cut="-2.8422966003417969e+00" cType="1" res="-3.5591053310781717e-03" rms="4.6222010254859924e-01" purity="5.0540202856063843e-01" nType="0">
        <Node pos="l" depth="1" NCoef="0" IVar="-1" Cut="0.0000000000000000e+00" cType="1" res="-4.4897939078509808e-03" rms="4.4298708438873291e-01" purity="5.4387003183364868e-01" nType="-99"/>
        <Node pos="r" depth="1" NCoef="0" IVar="4" Cut="6.0419583320617676e-01" cType="1" res="-1.0035121813416481e-03" rms="4.6366885304450989e-01" purity="5.0224781036376953e-01" nType="0">
          <Node pos="l" depth="2" NCoef="0" IVar="-1" Cut="0.0000000000000000e+00" cType="1" res="3.0748864635825157e-02" rms="4.6984583139419556e-01" purity="5.0928312540054321e-01" nType="-99"/>
          <Node pos="r" depth="2" NCoef="0" IVar="4" Cut="2.2834429740905762e+00" cType="1" res="-2.7031174395233393e-03" rms="4.6319890022277832e-01" purity="5.0177198648452759e-01" nType="0">
            <Node pos="l" depth="3" NCoef="0" IVar="-1" Cut="0.0000000000000000e+00" cType="1" res="-9.5373829826712608e-03" rms="4.6408838033676147e-01" purity="4.8500472307205200e-01" nType="-99"/>
            <Node pos="r" depth="3" NCoef="0" IVar="-1" Cut="0.0000000000000000e+00" cType="1" res="7.6221688650548458e-03" rms="4.6164855360984802e-01" purity="5.2687752246856689e-01" nType="-99"/>
          </Node>
        </Node>
      </Node>
    </BinaryTree>
    <BinaryTree type="DecisionTree" boostWeight="1.0000000000000000e+00" itree="292">
      <Node pos="s" depth="0" NCoef="0" IVar="4" Cut="3.1877682209014893e+00" cType="1" res="-2.8021996840834618e-03" rms="4.6419510245323181e-01" purity="5.0529009103775024e-01" nType="0">
        <Node pos="l" depth="1" NCoef="0" IVar="5" Cut="-2.5431487560272217e+00" cType="1" res="2.7550870436243713e-04" rms="4.6574833989143372e-01" purity="5.1436299085617065e-01" nType="0">
          <Node pos="l" depth="2" NCoef="0" IVar="6" Cut="-2.2437334060668945e+00" cType="1" res="-1.3822851702570915e-02" rms="4.5746150612831116e-01" purity="5.5928385257720947e-01" nType="0">
            <Node pos="l" depth="3" NCoef="0" IVar="-1" Cut="0.0000000000000000e+00" cType="1" res="-4.8143107444047928e-02" rms="4.7640657424926758e-01" purity="5.3500467538833618e-01" nType="-99"/>
            <Node pos="r" depth="3" NCoef="0" IVar="-1" Cut="0.0000000000000000e+00" cType="1" res="-3.0619485769420862e-03" rms="4.4824364781379700e-01" purity="5.7017022371292114e-01" nType="-99"/>
          </Node>
          <Node pos="r" depth="2" NCoef="0" IVar="3" Cut="1.2877890586853027e+01" cType="1" res="2.7306580450385809e-03" rms="4.6713292598724365e-01" purity="5.0654023885726929e-01" nType="0">
            <Node pos="l" depth="3" NCoef="0" IVar="-1" Cut="0.0000000000000000e+00" cType="1" res="6.7758630029857159e-04" rms="4.6886295080184937e-01" purity="5.0529861450195312e-01" nType="-99"/>
            <Node pos="r" depth="3" NCoef="0" IVar="-1" Cut="0.0000000000000000e+00" cType="1" res="4.2953222990036011e-02" rms="4.3997740745544434e-01" purity="5.2476453781127930e-01" nType="-99"/>
          </Node>
        </Node>
        <Node pos="r" depth="1" NCoef="0" IVar="-1" Cut="0.0000000000000000e+00" cType="1" res="-2.6121621951460838e-02" rms="4.4093564152717590e-01" purity="3.8440680503845215e-01" nType="-99"/>
      </Node>
    </BinaryTree>
    <BinaryTree type="DecisionTree" boostWeight="1.0000000000000000e+00" itree="293">
      <Node pos="s" depth="0" NCoef="0" IVar="5" Cut="-2.8422954082489014e+00" cType="1" res="-3.9189873496070504e-04" rms="4.6161055564880371e-01" purity="5.0440871715545654e-01" nType="0">
        <Node pos="l" depth="1" NCoef="0" IVar="-1" Cut="0.0000000000000000e+00" cType="1" res="-3.1696639489382505e-03" rms="4.4155320525169373e-01" purity="5.0777542591094971e-01" nType="-99"/>
        <Node pos="r" depth="1" NCoef="0" IVar="4" Cut="6.0917288064956665e-01" cType="1" res="3.4345015883445740e-03" rms="4.6310845017433167e-01" purity="5.0411713123321533e-01" nType="0">
          <Node pos="l" depth="2" NCoef="0" IVar="-1" Cut="0.0000000000000000e+00" cType="1" res="-3.1953021883964539e-02" rms="4.6167513728141785e-01" purity="4.6882507205009460e-01" nType="-99"/>
          <Node pos="r" depth="2" NCoef="0" IVar="7" Cut="7.0000000000000000e+00" cType="1" res="5.4537327960133553e-03" rms="4.6312740445137024e-01" purity="5.0648128986358643e-01" nType="0">
            <Node pos="l" depth="3" NCoef="0" IVar="-1" Cut="0.0000000000000000e+00" cType="1" res="3.3857724629342556e-03" rms="4.6454137563705444e-01" purity="4.9161607027053833e-01" nType="-99"/>
            <Node pos="r" depth="3" NCoef="0" IVar="-1" Cut="0.0000000000000000e+00" cType="1" res="2.8191097080707550e-02" rms="4.4993817806243896e-01" purity="6.3801062107086182e-01" nType="-99"/>
          </Node>
        </Node>
      </Node>
    </BinaryTree>
    <BinaryTree type="DecisionTree" boostWeight="1.0000000000000000e+00" itree="294">
      <Node pos="s" depth="0" NCoef="0" IVar="9" Cut="8.8839359375000000e+04" cType="1" res="1.5179750043898821e-03" rms="4.6295788884162903e-01" purity="5.0894749164581299e-01" nType="0">
        <Node pos="l" depth="1" NCoef="0" IVar="5" Cut="2.2439656257629395e+00" cType="1" res="-9.6465833485126495e-04" rms="4.6679627895355225e-01" purity="4.8895397782325745e-01" nType="0">
          <Node pos="l" depth="2" NCoef="0" IVar="6" Cut="2.8423922061920166e+00" cType="1" res="-5.6914030574262142e-03" rms="4.6669062972068787e-01" purity="4.7474813461303711e-01" nType="0">
            <Node pos="l" depth="3" NCoef="0" IVar="-1" Cut="0.0000000000000000e+00" cType="1" res="-6.3922768458724022e-03" rms="4.6495193243026733e-01" purity="4.7396376729011536e-01" nType="-99"/>
            <Node pos="r" depth="3" NCoef="0" IVar="-1" Cut="0.0000000000000000e+00" cType="1" res="2.3398682475090027e-02" rms="4.8083433508872986e-01" purity="4.8164749145507812e-01" nType="-99"/>
          </Node>
          <Node pos="r" depth="2" NCoef="0" IVar="5" Cut="2.9278376102447510e+00" cType="1" res="1.5800345689058304e-02" rms="4.6678510308265686e-01" purity="5.3933978080749512e-01" nType="0">
            <Node pos="l" depth="3" NCoef="0" IVar="-1" Cut="0.0000000000000000e+00" cType="1" res="2.4412708356976509e-02" rms="4.6655911207199097e-01" purity="5.4286378622055054e-01" nType="-99"/>
            <Node pos="r" depth="3" NCoef="0" IVar="-1" Cut="0.0000000000000000e+00" cType="1" res="-1.3240453787147999e-02" rms="4.6620973944664001e-01" purity="5.2718251943588257e-01" nType="-99"/>
          </Node>
        </Node>
        <Node pos="r" depth="1" NCoef="0" IVar="-1" Cut="0.0000000000000000e+00" cType="1" res="4.1348826140165329e-02" rms="4.1361987590789795e-01" purity="7.4597769975662231e-01" nType="-99"/>
      </Node>
    </BinaryTree>
    <BinaryTree type="DecisionTree" boostWeight="1.0000000000000000e+00" itree="295">
      <Node pos="s" depth="0" NCoef="0" IVar="6" Cut="1.9447978734970093e+00" cType="1" res="-2.9782778583467007e-03" rms="4.6205940842628479e-01" purity="5.0429785251617432e-01" nType="0">
        <Node pos="l" depth="1" NCoef="0" IVar="4" Cut="3.0735287666320801e+00" cType="1" res="3.7382002919912338e-03" rms="4.5872834324836731e-01" purity="5.2420693635940552e-01" nType="0">
          <Node pos="l" depth="2" NCoef="0" IVar="1" Cut="2.0775912500000000e+05" cType="1" res="8.2674343138933182e-03" rms="4.5950344204902649e-01" purity="5.3256601095199585e-01" nType="0">
            <Node pos="l" depth="3" NCoef="0" IVar="-1" Cut="0.0000000000000000e+00" cType="1" res="1.4752149581909180e-02" rms="4.6126312017440796e-01" purity="5.6391578912734985e-01" nType="-99"/>
            <Node pos="r" depth="3" NCoef="0" IVar="-1" Cut="0.0000000000000000e+00" cType="1" res="-1.8174355849623680e-02" rms="4.5118838548660278e-01" purity="3.9589074254035950e-01" nType="-99"/>
          </Node>
          <Node pos="r" depth="2" NCoef="0" IVar="-1" Cut="0.0000000000000000e+00" cType="1" res="-2.0172057673335075e-02" rms="4.5046833157539368e-01" purity="4.5467859506607056e-01" nType="-99"/>
        </Node>
        <Node pos="r" depth="1" NCoef="0" IVar="7" Cut="6.0000000000000000e+00" cType="1" res="-1.8091572448611259e-02" rms="4.6911698579788208e-01" purity="4.5949858427047729e-01" nType="0">
          <Node pos="l" depth="2" NCoef="0" IVar="4" Cut="1.4227423667907715e+00" cType="1" res="-1.1153215542435646e-02" rms="4.6929877996444702e-01" purity="4.5415598154067993e-01" nType="0">
            <Node pos="l" depth="3" NCoef="0" IVar="-1" Cut="0.0000000000000000e+00" cType="1" res="-3.3302526921033859e-02" rms="4.6676370501518250e-01" purity="4.1556173563003540e-01" nType="-99"/>
            <Node pos="r" depth="3" NCoef="0" IVar="-1" Cut="0.0000000000000000e+00" cType="1" res="-2.2291233763098717e-03" rms="4.7015705704689026e-01" purity="4.7065693140029907e-01" nType="-99"/>
          </Node>
          <Node pos="r" depth="2" NCoef="0" IVar="-1" Cut="0.0000000000000000e+00" cType="1" res="-4.2840465903282166e-03" rms="4.6730121970176697e-01" purity="4.8135405778884888e-01" nType="-99"/>
        </Node>
      </Node>
    </BinaryTree>
    <BinaryTree type="DecisionTree" boostWeight="1.0000000000000000e+00" itree="296">
      <Node pos="s" depth="0" NCoef="0" IVar="7" Cut="6.0000000000000000e+00" cType="1" res="-4.4313631951808929e-03" rms="4.6146497130393982e-01" purity="5.0186103582382202e-01" nType="0">
        <Node pos="l" depth="1" NCoef="0" IVar="9" Cut="4.5681082031250000e+04" cType="1" res="3.4549259580671787e-03" rms="4.6672108769416809e-01" purity="4.7743046283721924e-01" nType="0">
          <Node pos="l" depth="2" NCoef="0" IVar="1" Cut="2.4036384375000000e+05" cType="1" res="-1.9570984877645969e-03" rms="4.6945536136627197e-01" purity="4.1338148713111877e-01" nType="0">
            <Node pos="l" depth="3" NCoef="0" IVar="-1" Cut="0.0000000000000000e+00" cType="1" res="-5.5858027189970016e-03" rms="4.7174027562141418e-01" purity="4.2790222167968750e-01" nType="-99"/>
            <Node pos="r" depth="3" NCoef="0" IVar="-1" Cut="0.0000000000000000e+00" cType="1" res="5.5777557194232941e-02" rms="4.4902700185775757e-01" purity="2.9508811235427856e-01" nType="-99"/>
          </Node>
          <Node pos="r" depth="2" NCoef="0" IVar="4" Cut="2.2826092243194580e+00" cType="1" res="1.6283340752124786e-02" rms="4.5992070436477661e-01" purity="6.2924921512603760e-01" nType="0">
            <Node pos="l" depth="3" NCoef="0" IVar="-1" Cut="0.0000000000000000e+00" cType="1" res="-4.8431563191115856e-03" rms="4.6687421202659607e-01" purity="6.0790401697158813e-01" nType="-99"/>
            <Node pos="r" depth="3" NCoef="0" IVar="-1" Cut="0.0000000000000000e+00" cType="1" res="5.3597416728734970e-02" rms="4.4736477732658386e-01" purity="6.6158413887023926e-01" nType="-99"/>
          </Node>
        </Node>
        <Node pos="r" depth="1" NCoef="0" IVar="6" Cut="2.2438635826110840e+00" cType="1" res="-2.5337461382150650e-02" rms="4.4661322236061096e-01" purity="5.6659573316574097e-01" nType="0">
          <Node pos="l" depth="2" NCoef="0" IVar="2" Cut="1.7032852172851562e+02" cType="1" res="-1.1630931869149208e-02" rms="4.4980931282043457e-01" purity="6.1137485504150391e-01" nType="0">
            <Node pos="l" depth="3" NCoef="0" IVar="-1" Cut="0.0000000000000000e+00" cType="1" res="-2.5871535763144493e-02" rms="4.4793528318405151e-01" purity="6.1672449111938477e-01" nType="-99"/>
            <Node pos="r" depth="3" NCoef="0" IVar="-1" Cut="0.0000000000000000e+00" cType="1" res="-3.1524668447673321e-03" rms="4.5100873708724976e-01" purity="6.0739415884017944e-01" nType="-99"/>
          </Node>
          <Node pos="r" depth="2" NCoef="0" IVar="-1" Cut="0.0000000000000000e+00" cType="1" res="-1.9122996600344777e-03" rms="4.3086937069892883e-01" purity="4.0144550800323486e-01" nType="-99"/>
        </Node>
      </Node>
    </BinaryTree>
    <BinaryTree type="DecisionTree" boostWeight="1.0000000000000000e+00" itree="297">
      <Node pos="s" depth="0" NCoef="0" IVar="4" Cut="3.2555637359619141e+00" cType="1" res="-8.3371335640549660e-03" rms="4.6213045716285706e-01" purity="4.9861231446266174e-01" nType="0">
        <Node pos="l" depth="1" NCoef="0" IVar="3" Cut="1.2183589935302734e+01" cType="1" res="-6.9259116426110268e-03" rms="4.6345877647399902e-01" purity="5.0745046138763428e-01" nType="0">
          <Node pos="l" depth="2" NCoef="0" IVar="8" Cut="6.2742484375000000e+04" cType="1" res="0.0000000000000000e+00" rms="0.0000000000000000e+00" purity="5.0868272781372070e-01" nType="0">
            <Node pos="l" depth="3" NCoef="0" IVar="-1" Cut="0.0000000000000000e+00" cType="1" res="7.7039765892550349e-04" rms="4.7069936990737915e-01" purity="4.2873448133468628e-01" nType="-99"/>
            <Node pos="r" depth="3" NCoef="0" IVar="-1" Cut="0.0000000000000000e+00" cType="1" res="-2.2176676429808140e-03" rms="4.5867702364921570e-01" purity="5.9636795520782471e-01" nType="-99"/>
          </Node>
          <Node pos="r" depth="2" NCoef="0" IVar="-1" Cut="0.0000000000000000e+00" cType="1" res="-4.4629111886024475e-02" rms="4.4106528162956238e-01" purity="4.9107342958450317e-01" nType="-99"/>
        </Node>
        <Node pos="r" depth="1" NCoef="0" IVar="-1" Cut="0.0000000000000000e+00" cType="1" res="-1.5577326528728008e-02" rms="4.3946450948715210e-01" purity="3.5568770766258240e-01" nType="-99"/>
      </Node>
    </BinaryTree>
    <BinaryTree type="DecisionTree" boostWeight="1.0000000000000000e+00" itree="298">
      <Node pos="s" depth="0" NCoef="0" IVar="7" Cut="7.0000000000000000e+00" cType="1" res="-7.8915460035204887e-03" rms="4.6004429459571838e-01" purity="4.9266225099563599e-01" nType="0">
        <Node pos="l" depth="1" NCoef="0" IVar="8" Cut="1.2709000000000000e+05" cType="1" res="-4.4487193226814270e-03" rms="4.6474701166152954e-01" purity="4.8828199505805969e-01" nType="0">
          <Node pos="l" depth="2" NCoef="0" IVar="1" Cut="2.7832025000000000e+05" cType="1" res="-2.5312730576843023e-03" rms="4.6603822708129883e-01" purity="4.7654372453689575e-01" nType="0">
            <Node pos="l" depth="3" NCoef="0" IVar="-1" Cut="0.0000000000000000e+00" cType="1" res="-5.5652024457231164e-04" rms="4.6815553307533264e-01" purity="4.8787668347358704e-01" nType="-99"/>
            <Node pos="r" depth="3" NCoef="0" IVar="-1" Cut="0.0000000000000000e+00" cType="1" res="-4.6252656728029251e-02" rms="4.2807641625404358e-01" purity="2.8745990991592407e-01" nType="-99"/>
          </Node>
          <Node pos="r" depth="2" NCoef="0" IVar="-1" Cut="0.0000000000000000e+00" cType="1" res="-5.2335254848003387e-02" rms="4.4405335187911987e-01" purity="6.6342961788177490e-01" nType="-99"/>
        </Node>
        <Node pos="r" depth="1" NCoef="0" IVar="2" Cut="1.6873402404785156e+02" cType="1" res="-3.2875016331672668e-02" rms="4.2352277040481567e-01" purity="5.2444791793823242e-01" nType="0">
          <Node pos="l" depth="2" NCoef="0" IVar="-1" Cut="0.0000000000000000e+00" cType="1" res="3.0777912586927414e-02" rms="4.4830599427223206e-01" purity="6.6055673360824585e-01" nType="-99"/>
          <Node pos="r" depth="2" NCoef="0" IVar="-1" Cut="0.0000000000000000e+00" cType="1" res="-1.3988012215122581e-03" rms="4.0652281045913696e-01" purity="4.5141279697418213e-01" nType="-99"/>
        </Node>
      </Node>
    </BinaryTree>
    <BinaryTree type="DecisionTree" boostWeight="1.0000000000000000e+00" itree="299">
      <Node pos="s" depth="0" NCoef="0" IVar="6" Cut="2.8423922061920166e+00" cType="1" res="-8.8590610539540648e-04" rms="4.6317130327224731e-01" purity="5.0450557470321655e-01" nType="0">
        <Node pos="l" depth="1" NCoef="0" IVar="6" Cut="-2.0017786026000977e+00" cType="1" res="1.0597571963444352e-03" rms="4.6175202727317810e-01" purity="5.0680840015411377e-01" nType="0">
          <Node pos="l" depth="2" NCoef="0" IVar="8" Cut="8.3807078125000000e+04" cType="1" res="-9.1243423521518707e-03" rms="4.7325557470321655e-01" purity="4.6829137206077576e-01" nType="0">
            <Node pos="l" depth="3" NCoef="0" IVar="-1" Cut="0.0000000000000000e+00" cType="1" res="-3.8256146945059299e-03" rms="4.7271469235420227e-01" purity="4.4353953003883362e-01" nType="-99"/>
            <Node pos="r" depth="3" NCoef="0" IVar="-1" Cut="0.0000000000000000e+00" cType="1" res="-3.3862516283988953e-02" rms="4.7485780715942383e-01" purity="5.6735235452651978e-01" nType="-99"/>
          </Node>
          <Node pos="r" depth="2" NCoef="0" IVar="6" Cut="-1.5403740406036377e+00" cType="1" res="5.8990954421460629e-03" rms="4.5610433816909790e-01" purity="5.2511119842529297e-01" nType="0">
            <Node pos="l" depth="3" NCoef="0" IVar="-1" Cut="0.0000000000000000e+00" cType="1" res="2.8590155765414238e-02" rms="4.6326953172683716e-01" purity="5.2358251810073853e-01" nType="-99"/>
            <Node pos="r" depth="3" NCoef="0" IVar="-1" Cut="0.0000000000000000e+00" cType="1" res="2.5472631677985191e-03" rms="4.5522370934486389e-01" purity="5.2527630329132080e-01" nType="-99"/>
          </Node>
        </Node>
        <Node pos="r" depth="1" NCoef="0" IVar="8" Cut="5.6914402343750000e+04" cType="1" res="-1.8626749515533447e-02" rms="4.7555029392242432e-01" purity="4.8350766301155090e-01" nType="0">
          <Node pos="l" depth="2" NCoef="0" IVar="-1" Cut="0.0000000000000000e+00" cType="1" res="-1.5591145493090153e-03" rms="4.7118622064590454e-01" purity="4.3032255768775940e-01" nType="-99"/>
          <Node pos="r" depth="2" NCoef="0" IVar="-1" Cut="0.0000000000000000e+00" cType="1" res="-4.3023847043514252e-02" rms="4.8011419177055359e-01" purity="5.4939776659011841e-01" nType="-99"/>
        </Node>
      </Node>
    </BinaryTree>
    <BinaryTree type="DecisionTree" boostWeight="1.0000000000000000e+00" itree="300">
      <Node pos="s" depth="0" NCoef="0" IVar="4" Cut="6.0419583320617676e-01" cType="1" res="-3.9885612204670906e-04" rms="4.6512874960899353e-01" purity="5.0507128238677979e-01" nType="0">
        <Node pos="l" depth="1" NCoef="0" IVar="-1" Cut="0.0000000000000000e+00" cType="1" res="3.2133352011442184e-02" rms="4.5730483531951904e-01" purity="5.0503385066986084e-01" nType="-99"/>
        <Node pos="r" depth="1" NCoef="0" IVar="5" Cut="-2.5431036949157715e+00" cType="1" res="-2.4620897602289915e-03" rms="4.6561610698699951e-01" purity="5.0507396459579468e-01" nType="0">
          <Node pos="l" depth="2" NCoef="0" IVar="6" Cut="-1.3463536500930786e+00" cType="1" res="1.3616815209388733e-02" rms="4.5748838782310486e-01" purity="5.7635796070098877e-01" nType="0">
            <Node pos="l" depth="3" NCoef="0" IVar="-1" Cut="0.0000000000000000e+00" cType="1" res="4.1486077010631561e-02" rms="4.7506043314933777e-01" purity="5.5961883068084717e-01" nType="-99"/>
            <Node pos="r" depth="3" NCoef="0" IVar="-1" Cut="0.0000000000000000e+00" cType="1" res="-2.9134612996131182e-03" rms="4.4134932756423950e-01" purity="5.9061753749847412e-01" nType="-99"/>
          </Node>
          <Node pos="r" depth="2" NCoef="0" IVar="4" Cut="8.4417045116424561e-01" cType="1" res="-5.1653892733156681e-03" rms="4.6691435575485229e-01" purity="4.9308919906616211e-01" nType="0">
            <Node pos="l" depth="3" NCoef="0" IVar="-1" Cut="0.0000000000000000e+00" cType="1" res="1.7470220103859901e-02" rms="4.6777167916297913e-01" purity="4.5271927118301392e-01" nType="-99"/>
            <Node pos="r" depth="3" NCoef="0" IVar="-1" Cut="0.0000000000000000e+00" cType="1" res="-6.8194377236068249e-03" rms="4.6680933237075806e-01" purity="4.9645474553108215e-01" nType="-99"/>
          </Node>
        </Node>
      </Node>
    </BinaryTree>
    <BinaryTree type="DecisionTree" boostWeight="1.0000000000000000e+00" itree="301">
      <Node pos="s" depth="0" NCoef="0" IVar="8" Cut="6.4845898437500000e+04" cType="1" res="-5.0086653791368008e-03" rms="4.5977914333343506e-01" purity="4.9829182028770447e-01" nType="0">
        <Node pos="l" depth="1" NCoef="0" IVar="9" Cut="4.1910738281250000e+04" cType="1" res="-1.2538952752947807e-02" rms="4.6139571070671082e-01" purity="4.0535488724708557e-01" nType="0">
          <Node pos="l" depth="2" NCoef="0" IVar="8" Cut="3.0721498046875000e+04" cType="1" res="-1.5808361349627376e-03" rms="4.6064957976341248e-01" purity="3.8256791234016418e-01" nType="0">
            <Node pos="l" depth="3" NCoef="0" IVar="-1" Cut="0.0000000000000000e+00" cType="1" res="-7.0244572125375271e-03" rms="3.9965844154357910e-01" purity="2.1423067152500153e-01" nType="-99"/>
            <Node pos="r" depth="3" NCoef="0" IVar="-1" Cut="0.0000000000000000e+00" cType="1" res="2.5512722786515951e-03" rms="4.6738702058792114e-01" purity="4.0313196182250977e-01" nType="-99"/>
          </Node>
          <Node pos="r" depth="2" NCoef="0" IVar="6" Cut="1.0469939708709717e+00" cType="1" res="-4.4573444873094559e-02" rms="4.6208217740058899e-01" purity="4.7196924686431885e-01" nType="0">
            <Node pos="l" depth="3" NCoef="0" IVar="-1" Cut="0.0000000000000000e+00" cType="1" res="-1.4929120428860188e-02" rms="4.7165364027023315e-01" purity="5.4292178153991699e-01" nType="-99"/>
            <Node pos="r" depth="3" NCoef="0" IVar="-1" Cut="0.0000000000000000e+00" cType="1" res="-2.2981811780482531e-03" rms="4.4723650813102722e-01" purity="3.8541525602340698e-01" nType="-99"/>
          </Node>
        </Node>
        <Node pos="r" depth="1" NCoef="0" IVar="4" Cut="8.7567520141601562e-01" cType="1" res="0.0000000000000000e+00" rms="0.0000000000000000e+00" purity="6.1400449275970459e-01" nType="0">
          <Node pos="l" depth="2" NCoef="0" IVar="5" Cut="1.4908228814601898e-01" cType="1" res="-2.5471884757280350e-02" rms="4.7040516138076782e-01" purity="5.5844718217849731e-01" nType="0">
            <Node pos="l" depth="3" NCoef="0" IVar="-1" Cut="0.0000000000000000e+00" cType="1" res="-4.5358324423432350e-03" rms="4.6682953834533691e-01" purity="5.7597076892852783e-01" nType="-99"/>
            <Node pos="r" depth="3" NCoef="0" IVar="-1" Cut="0.0000000000000000e+00" cType="1" res="-5.4930783808231354e-02" rms="4.7295278310775757e-01" purity="5.4100799560546875e-01" nType="-99"/>
          </Node>
          <Node pos="r" depth="2" NCoef="0" IVar="8" Cut="1.4067862500000000e+05" cType="1" res="1.1128267273306847e-02" rms="4.5435795187950134e-01" purity="6.2659329175949097e-01" nType="0">
            <Node pos="l" depth="3" NCoef="0" IVar="-1" Cut="0.0000000000000000e+00" cType="1" res="1.4626738615334034e-02" rms="4.5528504252433777e-01" purity="6.2240171432495117e-01" nType="-99"/>
            <Node pos="r" depth="3" NCoef="0" IVar="-1" Cut="0.0000000000000000e+00" cType="1" res="-2.1377891302108765e-02" rms="4.4610330462455750e-01" purity="6.5798932313919067e-01" nType="-99"/>
          </Node>
        </Node>
      </Node>
    </BinaryTree>
    <BinaryTree type="DecisionTree" boostWeight="1.0000000000000000e+00" itree="302">
      <Node pos="s" depth="0" NCoef="0" IVar="6" Cut="1.4961624145507812e-01" cType="1" res="-9.0482928499113768e-05" rms="4.6266844868659973e-01" purity="5.0605231523513794e-01" nType="0">
        <Node pos="l" depth="1" NCoef="0" IVar="8" Cut="9.8283359375000000e+04" cType="1" res="0.0000000000000000e+00" rms="0.0000000000000000e+00" purity="5.0139057636260986e-01" nType="0">
          <Node pos="l" depth="2" NCoef="0" IVar="2" Cut="3.2624813842773438e+02" cType="1" res="-1.0921469889581203e-02" rms="4.6578431129455566e-01" purity="4.6574652194976807e-01" nType="0">
            <Node pos="l" depth="3" NCoef="0" IVar="-1" Cut="0.0000000000000000e+00" cType="1" res="-7.1518816985189915e-03" rms="4.6627870202064514e-01" purity="4.6861010789871216e-01" nType="-99"/>
            <Node pos="r" depth="3" NCoef="0" IVar="-1" Cut="0.0000000000000000e+00" cType="1" res="-2.6553979143500328e-02" rms="4.6134117245674133e-01" purity="4.4595232605934143e-01" nType="-99"/>
          </Node>
          <Node pos="r" depth="2" NCoef="0" IVar="5" Cut="-7.4718600511550903e-01" cType="1" res="1.3298965990543365e-02" rms="4.4083026051521301e-01" purity="6.7022454738616943e-01" nType="0">
            <Node pos="l" depth="3" NCoef="0" IVar="-1" Cut="0.0000000000000000e+00" cType="1" res="3.4070175024680793e-04" rms="4.6531429886817932e-01" purity="6.0190820693969727e-01" nType="-99"/>
            <Node pos="r" depth="3" NCoef="0" IVar="-1" Cut="0.0000000000000000e+00" cType="1" res="3.2154466956853867e-02" rms="4.1780528426170349e-01" purity="7.3024272918701172e-01" nType="-99"/>
          </Node>
        </Node>
        <Node pos="r" depth="1" NCoef="0" IVar="4" Cut="2.2075860500335693e+00" cType="1" res="6.7426869645714760e-03" rms="4.6364784240722656e-01" purity="5.1087218523025513e-01" nType="0">
          <Node pos="l" depth="2" NCoef="0" IVar="6" Cut="2.5718989372253418e+00" cType="1" res="1.7233423888683319e-02" rms="4.6420082449913025e-01" purity="5.0015717744827271e-01" nType="0">
            <Node pos="l" depth="3" NCoef="0" IVar="-1" Cut="0.0000000000000000e+00" cType="1" res="2.8578329831361771e-02" rms="4.6079635620117188e-01" purity="5.2089768648147583e-01" nType="-99"/>
            <Node pos="r" depth="3" NCoef="0" IVar="-1" Cut="0.0000000000000000e+00" cType="1" res="3.4074303694069386e-03" rms="4.7032415866851807e-01" purity="4.6064996719360352e-01" nType="-99"/>
          </Node>
          <Node pos="r" depth="2" NCoef="0" IVar="6" Cut="2.8566224575042725e+00" cType="1" res="-7.8940689563751221e-03" rms="4.6247777342796326e-01" purity="5.2582192420959473e-01" nType="0">
            <Node pos="l" depth="3" NCoef="0" IVar="-1" Cut="0.0000000000000000e+00" cType="1" res="-9.7917718812823296e-04" rms="4.5991453528404236e-01" purity="5.3247171640396118e-01" nType="-99"/>
            <Node pos="r" depth="3" NCoef="0" IVar="-1" Cut="0.0000000000000000e+00" cType="1" res="-2.0021203905344009e-02" rms="4.7000506520271301e-01" purity="5.0419509410858154e-01" nType="-99"/>
          </Node>
        </Node>
      </Node>
    </BinaryTree>
    <BinaryTree type="DecisionTree" boostWeight="1.0000000000000000e+00" itree="303">
      <Node pos="s" depth="0" NCoef="0" IVar="7" Cut="5.0000000000000000e+00" cType="1" res="-7.0519936271011829e-03" rms="4.6041408181190491e-01" purity="4.9484193325042725e-01" nType="0">
        <Node pos="l" depth="1" NCoef="0" IVar="4" Cut="8.3042567968368530e-01" cType="1" res="4.7172713093459606e-03" rms="4.6557289361953735e-01" purity="4.2931780219078064e-01" nType="0">
          <Node pos="l" depth="2" NCoef="0" IVar="-1" Cut="0.0000000000000000e+00" cType="1" res="-5.1880115643143654e-03" rms="4.4507408142089844e-01" purity="3.5141986608505249e-01" nType="-99"/>
          <Node pos="r" depth="2" NCoef="0" IVar="6" Cut="2.5432112216949463e+00" cType="1" res="9.0236160904169083e-03" rms="4.6889197826385498e-01" purity="4.4278556108474731e-01" nType="0">
            <Node pos="l" depth="3" NCoef="0" IVar="-1" Cut="0.0000000000000000e+00" cType="1" res="1.5699043869972229e-02" rms="4.6890825033187866e-01" purity="4.4028973579406738e-01" nType="-99"/>
            <Node pos="r" depth="3" NCoef="0" IVar="-1" Cut="0.0000000000000000e+00" cType="1" res="-4.4313874095678329e-03" rms="4.6845048666000366e-01" purity="4.4967800378799438e-01" nType="-99"/>
          </Node>
        </Node>
        <Node pos="r" depth="1" NCoef="0" IVar="6" Cut="2.2436790466308594e+00" cType="1" res="-1.6195189207792282e-02" rms="4.5616987347602844e-01" purity="5.4568272829055786e-01" nType="0">
          <Node pos="l" depth="2" NCoef="0" IVar="7" Cut="6.0000000000000000e+00" cType="1" res="0.0000000000000000e+00" rms="0.0000000000000000e+00" purity="5.7309609651565552e-01" nType="0">
            <Node pos="l" depth="3" NCoef="0" IVar="-1" Cut="0.0000000000000000e+00" cType="1" res="-1.9949812442064285e-02" rms="4.6037203073501587e-01" purity="5.3614354133605957e-01" nType="-99"/>
            <Node pos="r" depth="3" NCoef="0" IVar="-1" Cut="0.0000000000000000e+00" cType="1" res="-2.7519806753844023e-03" rms="4.5203712582588196e-01" purity="6.1142313480377197e-01" nType="-99"/>
          </Node>
          <Node pos="r" depth="2" NCoef="0" IVar="4" Cut="2.2380468845367432e+00" cType="1" res="-3.6542423069477081e-02" rms="4.5487514138221741e-01" purity="4.4321611523628235e-01" nType="0">
            <Node pos="l" depth="3" NCoef="0" IVar="-1" Cut="0.0000000000000000e+00" cType="1" res="-2.1604977082461119e-03" rms="4.4106528162956238e-01" purity="3.9075550436973572e-01" nType="-99"/>
            <Node pos="r" depth="3" NCoef="0" IVar="-1" Cut="0.0000000000000000e+00" cType="1" res="1.6484070569276810e-02" rms="4.7276291251182556e-01" purity="5.3161847591400146e-01" nType="-99"/>
          </Node>
        </Node>
      </Node>
    </BinaryTree>
    <BinaryTree type="DecisionTree" boostWeight="1.0000000000000000e+00" itree="304">
      <Node pos="s" depth="0" NCoef="0" IVar="7" Cut="7.0000000000000000e+00" cType="1" res="-2.8774982783943415e-03" rms="4.6188414096832275e-01" purity="5.0083380937576294e-01" nType="0">
        <Node pos="l" depth="1" NCoef="0" IVar="4" Cut="1.4112743139266968e+00" cType="1" res="8.4334000712260604e-04" rms="4.6447104215621948e-01" purity="4.9235564470291138e-01" nType="0">
          <Node pos="l" depth="2" NCoef="0" IVar="8" Cut="9.8216007812500000e+04" cType="1" res="0.0000000000000000e+00" rms="0.0000000000000000e+00" purity="4.7024494409561157e-01" nType="0">
            <Node pos="l" depth="3" NCoef="0" IVar="-1" Cut="0.0000000000000000e+00" cType="1" res="8.9664170518517494e-03" rms="4.6222358942031860e-01" purity="4.2563858628273010e-01" nType="-99"/>
            <Node pos="r" depth="3" NCoef="0" IVar="-1" Cut="0.0000000000000000e+00" cType="1" res="4.7964140772819519e-02" rms="4.4123539328575134e-01" purity="6.8028664588928223e-01" nType="-99"/>
          </Node>
          <Node pos="r" depth="2" NCoef="0" IVar="4" Cut="1.6127654314041138e+00" cType="1" res="-5.8078384026885033e-03" rms="4.6736061573028564e-01" purity="5.0423038005828857e-01" nType="0">
            <Node pos="l" depth="3" NCoef="0" IVar="-1" Cut="0.0000000000000000e+00" cType="1" res="-3.7980008870363235e-02" rms="4.6853572130203247e-01" purity="4.5060586929321289e-01" nType="-99"/>
            <Node pos="r" depth="3" NCoef="0" IVar="-1" Cut="0.0000000000000000e+00" cType="1" res="-1.4369948767125607e-03" rms="4.6704536676406860e-01" purity="5.1052063703536987e-01" nType="-99"/>
          </Node>
        </Node>
        <Node pos="r" depth="1" NCoef="0" IVar="6" Cut="-1.4907665550708771e-01" cType="1" res="-3.2341104000806808e-02" rms="4.3985152244567871e-01" purity="5.6780254840850830e-01" nType="0">
          <Node pos="l" depth="2" NCoef="0" IVar="-1" Cut="0.0000000000000000e+00" cType="1" res="-9.0738525614142418e-04" rms="4.5535016059875488e-01" purity="6.3531816005706787e-01" nType="-99"/>
          <Node pos="r" depth="2" NCoef="0" IVar="-1" Cut="0.0000000000000000e+00" cType="1" res="-1.9724594894796610e-03" rms="4.2490541934967041e-01" purity="5.1222199201583862e-01" nType="-99"/>
        </Node>
      </Node>
    </BinaryTree>
    <BinaryTree type="DecisionTree" boostWeight="1.0000000000000000e+00" itree="305">
      <Node pos="s" depth="0" NCoef="0" IVar="5" Cut="-1.9447214603424072e+00" cType="1" res="-2.1414160437416285e-04" rms="4.6265882253646851e-01" purity="5.0734806060791016e-01" nType="0">
        <Node pos="l" depth="1" NCoef="0" IVar="2" Cut="1.8983338928222656e+02" cType="1" res="0.0000000000000000e+00" rms="0.0000000000000000e+00" purity="5.3078097105026245e-01" nType="0">
          <Node pos="l" depth="2" NCoef="0" IVar="6" Cut="-1.3463535308837891e+00" cType="1" res="-2.9664678499102592e-02" rms="4.5226934552192688e-01" purity="5.3980165719985962e-01" nType="0">
            <Node pos="l" depth="3" NCoef="0" IVar="-1" Cut="0.0000000000000000e+00" cType="1" res="-4.7190925106406212e-03" rms="4.7802412509918213e-01" purity="5.1134914159774780e-01" nType="-99"/>
            <Node pos="r" depth="3" NCoef="0" IVar="-1" Cut="0.0000000000000000e+00" cType="1" res="-6.5720449201762676e-03" rms="4.2911937832832336e-01" purity="5.6287568807601929e-01" nType="-99"/>
          </Node>
          <Node pos="r" depth="2" NCoef="0" IVar="4" Cut="1.8560669422149658e+00" cType="1" res="0.0000000000000000e+00" rms="0.0000000000000000e+00" purity="5.2183312177658081e-01" nType="0">
            <Node pos="l" depth="3" NCoef="0" IVar="-1" Cut="0.0000000000000000e+00" cType="1" res="2.1106654778122902e-02" rms="4.6167537569999695e-01" purity="5.1095062494277954e-01" nType="-99"/>
            <Node pos="r" depth="3" NCoef="0" IVar="-1" Cut="0.0000000000000000e+00" cType="1" res="-7.8790122643113136e-03" rms="4.7147035598754883e-01" purity="5.3281563520431519e-01" nType="-99"/>
          </Node>
        </Node>
        <Node pos="r" depth="1" NCoef="0" IVar="5" Cut="1.9305489063262939e+00" cType="1" res="4.1333329863846302e-03" rms="4.6361324191093445e-01" purity="4.9844229221343994e-01" nType="0">
          <Node pos="l" depth="2" NCoef="0" IVar="9" Cut="4.3180574218750000e+04" cType="1" res="1.0353298857808113e-02" rms="4.6553200483322144e-01" purity="4.7636601328849792e-01" nType="0">
            <Node pos="l" depth="3" NCoef="0" IVar="-1" Cut="0.0000000000000000e+00" cType="1" res="2.8269661124795675e-03" rms="4.6519449353218079e-01" purity="3.9628818631172180e-01" nType="-99"/>
            <Node pos="r" depth="3" NCoef="0" IVar="-1" Cut="0.0000000000000000e+00" cType="1" res="1.9478885456919670e-02" rms="4.6586421132087708e-01" purity="6.0545015335083008e-01" nType="-99"/>
          </Node>
          <Node pos="r" depth="2" NCoef="0" IVar="5" Cut="2.9108772277832031e+00" cType="1" res="-5.4349480196833611e-03" rms="4.6048200130462646e-01" purity="5.3240263462066650e-01" nType="0">
            <Node pos="l" depth="3" NCoef="0" IVar="-1" Cut="0.0000000000000000e+00" cType="1" res="-1.2078093364834785e-02" rms="4.6056893467903137e-01" purity="5.1968097686767578e-01" nType="-99"/>
            <Node pos="r" depth="3" NCoef="0" IVar="-1" Cut="0.0000000000000000e+00" cType="1" res="2.4299962446093559e-02" rms="4.5894616842269897e-01" purity="5.8473920822143555e-01" nType="-99"/>
          </Node>
        </Node>
      </Node>
    </BinaryTree>
    <BinaryTree type="DecisionTree" boostWeight="1.0000000000000000e+00" itree="306">
      <Node pos="s" depth="0" NCoef="0" IVar="5" Cut="-2.8423094749450684e+00" cType="1" res="-8.3432430401444435e-03" rms="4.6167790889739990e-01" purity="4.9622923135757446e-01" nType="0">
        <Node pos="l" depth="1" NCoef="0" IVar="-1" Cut="0.0000000000000000e+00" cType="1" res="-2.9159947298467159e-03" rms="4.3561369180679321e-01" purity="4.9651223421096802e-01" nType="-99"/>
        <Node pos="r" depth="1" NCoef="0" IVar="6" Cut="2.5432019233703613e+00" cType="1" res="-3.9540319703519344e-03" rms="4.6371853351593018e-01" purity="4.9620360136032104e-01" nType="0">
          <Node pos="l" depth="2" NCoef="0" IVar="6" Cut="9.1895568370819092e-01" cType="1" res="0.0000000000000000e+00" rms="0.0000000000000000e+00" purity="5.0148743391036987e-01" nType="0">
            <Node pos="l" depth="3" NCoef="0" IVar="-1" Cut="0.0000000000000000e+00" cType="1" res="-4.6277084038592875e-04" rms="4.6256086230278015e-01" purity="5.1608800888061523e-01" nType="-99"/>
            <Node pos="r" depth="3" NCoef="0" IVar="-1" Cut="0.0000000000000000e+00" cType="1" res="-1.0827832855284214e-02" rms="4.6149671077728271e-01" purity="4.6684122085571289e-01" nType="-99"/>
          </Node>
          <Node pos="r" depth="2" NCoef="0" IVar="8" Cut="7.7793773437500000e+04" cType="1" res="8.4709208458662033e-03" rms="4.6895712614059448e-01" purity="4.7492328286170959e-01" nType="0">
            <Node pos="l" depth="3" NCoef="0" IVar="-1" Cut="0.0000000000000000e+00" cType="1" res="1.7666613683104515e-02" rms="4.7290605306625366e-01" purity="4.4435051083564758e-01" nType="-99"/>
            <Node pos="r" depth="3" NCoef="0" IVar="-1" Cut="0.0000000000000000e+00" cType="1" res="-9.0975835919380188e-03" rms="4.5509430766105652e-01" purity="5.7245975732803345e-01" nType="-99"/>
          </Node>
        </Node>
      </Node>
    </BinaryTree>
    <BinaryTree type="DecisionTree" boostWeight="1.0000000000000000e+00" itree="307">
      <Node pos="s" depth="0" NCoef="0" IVar="7" Cut="7.0000000000000000e+00" cType="1" res="-7.9012438654899597e-03" rms="4.6147638559341431e-01" purity="4.9440461397171021e-01" nType="0">
        <Node pos="l" depth="1" NCoef="0" IVar="5" Cut="2.8418607711791992e+00" cType="1" res="0.0000000000000000e+00" rms="0.0000000000000000e+00" purity="4.9196660518646240e-01" nType="0">
          <Node pos="l" depth="2" NCoef="0" IVar="4" Cut="2.9323775768280029e+00" cType="1" res="2.7589852106757462e-04" rms="4.6604666113853455e-01" purity="4.8924005031585693e-01" nType="0">
            <Node pos="l" depth="3" NCoef="0" IVar="-1" Cut="0.0000000000000000e+00" cType="1" res="-2.0206498447805643e-03" rms="4.6629691123962402e-01" purity="4.8932597041130066e-01" nType="-99"/>
            <Node pos="r" depth="3" NCoef="0" IVar="-1" Cut="0.0000000000000000e+00" cType="1" res="1.4624601230025291e-02" rms="4.6443718671798706e-01" purity="4.8878782987594604e-01" nType="-99"/>
          </Node>
          <Node pos="r" depth="2" NCoef="0" IVar="-1" Cut="0.0000000000000000e+00" cType="1" res="-2.0774321630597115e-02" rms="4.6200609207153320e-01" purity="5.2631300687789917e-01" nType="-99"/>
        </Node>
        <Node pos="r" depth="1" NCoef="0" IVar="4" Cut="2.2679283618927002e+00" cType="1" res="-5.1923695951700211e-02" rms="4.2782074213027954e-01" purity="5.1130545139312744e-01" nType="0">
          <Node pos="l" depth="2" NCoef="0" IVar="-1" Cut="0.0000000000000000e+00" cType="1" res="-1.8353728810325265e-03" rms="4.1525506973266602e-01" purity="4.5697668194770813e-01" nType="-99"/>
          <Node pos="r" depth="2" NCoef="0" IVar="-1" Cut="0.0000000000000000e+00" cType="1" res="-6.7923065216746181e-05" rms="4.4493982195854187e-01" purity="6.0930931568145752e-01" nType="-99"/>
        </Node>
      </Node>
    </BinaryTree>
    <BinaryTree type="DecisionTree" boostWeight="1.0000000000000000e+00" itree="308">
      <Node pos="s" depth="0" NCoef="0" IVar="4" Cut="3.2555637359619141e+00" cType="1" res="-5.2421800792217255e-03" rms="4.5993691682815552e-01" purity="4.9891281127929688e-01" nType="0">
        <Node pos="l" depth="1" NCoef="0" IVar="5" Cut="2.8420646190643311e+00" cType="1" res="-7.0816027000546455e-03" rms="4.6044614911079407e-01" purity="5.0552070140838623e-01" nType="0">
          <Node pos="l" depth="2" NCoef="0" IVar="7" Cut="7.0000000000000000e+00" cType="1" res="-9.3092210590839386e-03" rms="4.6040579676628113e-01" purity="4.9868449568748474e-01" nType="0">
            <Node pos="l" depth="3" NCoef="0" IVar="-1" Cut="0.0000000000000000e+00" cType="1" res="-5.5777076631784439e-03" rms="4.6364274621009827e-01" purity="4.8954942822456360e-01" nType="-99"/>
            <Node pos="r" depth="3" NCoef="0" IVar="-1" Cut="0.0000000000000000e+00" cType="1" res="-1.6617769142612815e-03" rms="4.3480291962623596e-01" purity="5.6717032194137573e-01" nType="-99"/>
          </Node>
          <Node pos="r" depth="2" NCoef="0" IVar="-1" Cut="0.0000000000000000e+00" cType="1" res="2.7290148660540581e-02" rms="4.5997217297554016e-01" purity="5.9253412485122681e-01" nType="-99"/>
        </Node>
        <Node pos="r" depth="1" NCoef="0" IVar="-1" Cut="0.0000000000000000e+00" cType="1" res="1.1693174950778484e-02" rms="4.5115759968757629e-01" purity="3.9799362421035767e-01" nType="-99"/>
      </Node>
    </BinaryTree>
    <BinaryTree type="DecisionTree" boostWeight="1.0000000000000000e+00" itree="309">
      <Node pos="s" depth="0" NCoef="0" IVar="5" Cut="-2.8421292304992676e+00" cType="1" res="-6.2302784062922001e-03" rms="4.6221238374710083e-01" purity="4.9899506568908691e-01" nType="0">
        <Node pos="l" depth="1" NCoef="0" IVar="-1" Cut="0.0000000000000000e+00" cType="1" res="-3.3332922030240297e-03" rms="4.3819043040275574e-01" purity="5.1095825433731079e-01" nType="-99"/>
        <Node pos="r" depth="1" NCoef="0" IVar="1" Cut="2.4686828125000000e+05" cType="1" res="-2.7811443433165550e-03" rms="4.6409285068511963e-01" purity="4.9794974923133850e-01" nType="0">
          <Node pos="l" depth="2" NCoef="0" IVar="1" Cut="1.4416554687500000e+05" cType="1" res="-5.2187833935022354e-03" rms="4.6488714218139648e-01" purity="5.0997233390808105e-01" nType="0">
            <Node pos="l" depth="3" NCoef="0" IVar="-1" Cut="0.0000000000000000e+00" cType="1" res="-1.2315100058913231e-02" rms="4.7294038534164429e-01" purity="5.0846832990646362e-01" nType="-99"/>
            <Node pos="r" depth="3" NCoef="0" IVar="-1" Cut="0.0000000000000000e+00" cType="1" res="3.3982894383370876e-03" rms="4.5744663476943970e-01" purity="5.1129841804504395e-01" nType="-99"/>
          </Node>
          <Node pos="r" depth="2" NCoef="0" IVar="5" Cut="2.9086747765541077e-01" cType="1" res="2.0822079852223396e-02" rms="4.5565652847290039e-01" purity="3.8153699040412903e-01" nType="0">
            <Node pos="l" depth="3" NCoef="0" IVar="-1" Cut="0.0000000000000000e+00" cType="1" res="-5.8554805582389235e-04" rms="4.5530989766120911e-01" purity="3.5410591959953308e-01" nType="-99"/>
            <Node pos="r" depth="3" NCoef="0" IVar="-1" Cut="0.0000000000000000e+00" cType="1" res="5.3402233868837357e-02" rms="4.5511540770530701e-01" purity="4.0642452239990234e-01" nType="-99"/>
          </Node>
        </Node>
      </Node>
    </BinaryTree>
    <BinaryTree type="DecisionTree" boostWeight="1.0000000000000000e+00" itree="310">
      <Node pos="s" depth="0" NCoef="0" IVar="7" Cut="7.0000000000000000e+00" cType="1" res="-1.2186399661004543e-02" rms="4.5891588926315308e-01" purity="4.8477721214294434e-01" nType="0">
        <Node pos="l" depth="1" NCoef="0" IVar="6" Cut="7.4802297353744507e-01" cType="1" res="-6.3358820043504238e-03" rms="4.6299567818641663e-01" purity="4.8175534605979919e-01" nType="0">
          <Node pos="l" depth="2" NCoef="0" IVar="5" Cut="2.5431542396545410e+00" cType="1" res="3.5766989458352327e-03" rms="4.6402746438980103e-01" purity="5.0222378969192505e-01" nType="0">
            <Node pos="l" depth="3" NCoef="0" IVar="-1" Cut="0.0000000000000000e+00" cType="1" res="8.3410926163196564e-03" rms="4.6472901105880737e-01" purity="4.9902150034904480e-01" nType="-99"/>
            <Node pos="r" depth="3" NCoef="0" IVar="-1" Cut="0.0000000000000000e+00" cType="1" res="-2.5786031037569046e-02" rms="4.5779275894165039e-01" purity="5.2681553363800049e-01" nType="-99"/>
          </Node>
          <Node pos="r" depth="2" NCoef="0" IVar="4" Cut="2.7890021800994873e+00" cType="1" res="-1.8491528928279877e-02" rms="4.6143668889999390e-01" purity="4.5665523409843445e-01" nType="0">
            <Node pos="l" depth="3" NCoef="0" IVar="-1" Cut="0.0000000000000000e+00" cType="1" res="-6.1622639186680317e-03" rms="4.6109181642532349e-01" purity="4.4728407263755798e-01" nType="-99"/>
            <Node pos="r" depth="3" NCoef="0" IVar="-1" Cut="0.0000000000000000e+00" cType="1" res="1.2110435403883457e-02" rms="4.6148958802223206e-01" purity="4.9165654182434082e-01" nType="-99"/>
          </Node>
        </Node>
        <Node pos="r" depth="1" NCoef="0" IVar="5" Cut="1.0470317602157593e+00" cType="1" res="-5.4596666246652603e-02" rms="4.2587617039680481e-01" purity="5.0665253400802612e-01" nType="0">
          <Node pos="l" depth="2" NCoef="0" IVar="-1" Cut="0.0000000000000000e+00" cType="1" res="-9.3123009428381920e-03" rms="4.5215114951133728e-01" purity="6.0723406076431274e-01" nType="-99"/>
          <Node pos="r" depth="2" NCoef="0" IVar="-1" Cut="0.0000000000000000e+00" cType="1" res="-1.6911812126636505e-03" rms="3.9142870903015137e-01" purity="4.0182963013648987e-01" nType="-99"/>
        </Node>
      </Node>
    </BinaryTree>
    <BinaryTree type="DecisionTree" boostWeight="1.0000000000000000e+00" itree="311">
      <Node pos="s" depth="0" NCoef="0" IVar="6" Cut="-2.2439725399017334e+00" cType="1" res="0.0000000000000000e+00" rms="0.0000000000000000e+00" purity="5.0229007005691528e-01" nType="0">
        <Node pos="l" depth="1" NCoef="0" IVar="6" Cut="-2.9278578758239746e+00" cType="1" res="-1.4392163604497910e-02" rms="4.7556447982788086e-01" purity="4.6131941676139832e-01" nType="0">
          <Node pos="l" depth="2" NCoef="0" IVar="-1" Cut="0.0000000000000000e+00" cType="1" res="8.9134695008397102e-03" rms="4.8010534048080444e-01" purity="4.9678000807762146e-01" nType="-99"/>
          <Node pos="r" depth="2" NCoef="0" IVar="5" Cut="-1.0473190546035767e+00" cType="1" res="0.0000000000000000e+00" rms="0.0000000000000000e+00" purity="4.4773408770561218e-01" nType="0">
            <Node pos="l" depth="3" NCoef="0" IVar="-1" Cut="0.0000000000000000e+00" cType="1" res="-1.6446178779006004e-02" rms="4.7696009278297424e-01" purity="4.6343025565147400e-01" nType="-99"/>
            <Node pos="r" depth="3" NCoef="0" IVar="-1" Cut="0.0000000000000000e+00" cType="1" res="-4.4086042791604996e-02" rms="4.6646356582641602e-01" purity="4.1772773861885071e-01" nType="-99"/>
          </Node>
        </Node>
        <Node pos="r" depth="1" NCoef="0" IVar="1" Cut="2.4686828125000000e+05" cType="1" res="0.0000000000000000e+00" rms="0.0000000000000000e+00" purity="5.1618039608001709e-01" nType="0">
          <Node pos="l" depth="2" NCoef="0" IVar="6" Cut="-1.7308759689331055e+00" cType="1" res="0.0000000000000000e+00" rms="0.0000000000000000e+00" purity="5.3412777185440063e-01" nType="0">
            <Node pos="l" depth="3" NCoef="0" IVar="-1" Cut="0.0000000000000000e+00" cType="1" res="4.0731079876422882e-02" rms="4.6582335233688354e-01" purity="5.3367072343826294e-01" nType="-99"/>
            <Node pos="r" depth="3" NCoef="0" IVar="-1" Cut="0.0000000000000000e+00" cType="1" res="-2.0894207991659641e-03" rms="4.5942842960357666e-01" purity="5.3418117761611938e-01" nType="-99"/>
          </Node>
          <Node pos="r" depth="2" NCoef="0" IVar="-1" Cut="0.0000000000000000e+00" cType="1" res="-3.2900173217058182e-02" rms="4.5364359021186829e-01" purity="3.5792821645736694e-01" nType="-99"/>
        </Node>
      </Node>
    </BinaryTree>
    <BinaryTree type="DecisionTree" boostWeight="1.0000000000000000e+00" itree="312">
      <Node pos="s" depth="0" NCoef="0" IVar="7" Cut="7.0000000000000000e+00" cType="1" res="2.8627868741750717e-03" rms="4.6252939105033875e-01" purity="5.0771200656890869e-01" nType="0">
        <Node pos="l" depth="1" NCoef="0" IVar="4" Cut="1.4165934324264526e+00" cType="1" res="7.5992392376065254e-03" rms="4.6476548910140991e-01" purity="5.0059282779693604e-01" nType="0">
          <Node pos="l" depth="2" NCoef="0" IVar="6" Cut="2.2440021038055420e+00" cType="1" res="-3.4356876276433468e-03" rms="4.6092838048934937e-01" purity="4.5520517230033875e-01" nType="0">
            <Node pos="l" depth="3" NCoef="0" IVar="-1" Cut="0.0000000000000000e+00" cType="1" res="-1.1496094986796379e-02" rms="4.5778173208236694e-01" purity="4.5483985543251038e-01" nType="-99"/>
            <Node pos="r" depth="3" NCoef="0" IVar="-1" Cut="0.0000000000000000e+00" cType="1" res="1.5868084505200386e-02" rms="4.7048994898796082e-01" purity="4.5638984441757202e-01" nType="-99"/>
          </Node>
          <Node pos="r" depth="2" NCoef="0" IVar="5" Cut="-1.6455186605453491e+00" cType="1" res="1.3570556417107582e-02" rms="4.6671992540359497e-01" purity="5.2515333890914917e-01" nType="0">
            <Node pos="l" depth="3" NCoef="0" IVar="-1" Cut="0.0000000000000000e+00" cType="1" res="3.2360516488552094e-02" rms="4.6201574802398682e-01" purity="5.6811809539794922e-01" nType="-99"/>
            <Node pos="r" depth="3" NCoef="0" IVar="-1" Cut="0.0000000000000000e+00" cType="1" res="4.8105930909514427e-03" rms="4.6881848573684692e-01" purity="5.0409168004989624e-01" nType="-99"/>
          </Node>
        </Node>
        <Node pos="r" depth="1" NCoef="0" IVar="5" Cut="1.0473858118057251e+00" cType="1" res="-3.4548372030258179e-02" rms="4.4272476434707642e-01" purity="5.6390804052352905e-01" nType="0">
          <Node pos="l" depth="2" NCoef="0" IVar="-1" Cut="0.0000000000000000e+00" cType="1" res="-1.1700974777340889e-02" rms="4.6056377887725830e-01" purity="6.1399966478347778e-01" nType="-99"/>
          <Node pos="r" depth="2" NCoef="0" IVar="-1" Cut="0.0000000000000000e+00" cType="1" res="-1.8629701808094978e-03" rms="4.1729706525802612e-01" purity="5.0154531002044678e-01" nType="-99"/>
        </Node>
      </Node>
    </BinaryTree>
    <BinaryTree type="DecisionTree" boostWeight="1.0000000000000000e+00" itree="313">
      <Node pos="s" depth="0" NCoef="0" IVar="5" Cut="-1.6455297470092773e+00" cType="1" res="-3.1992320436984301e-03" rms="4.6218684315681458e-01" purity="5.0239759683609009e-01" nType="0">
        <Node pos="l" depth="1" NCoef="0" IVar="8" Cut="5.8870113281250000e+04" cType="1" res="-1.4650888741016388e-02" rms="4.6207410097122192e-01" purity="5.2156716585159302e-01" nType="0">
          <Node pos="l" depth="2" NCoef="0" IVar="4" Cut="1.8179732561111450e+00" cType="1" res="-2.9102982953190804e-02" rms="4.6056917309761047e-01" purity="4.0767097473144531e-01" nType="0">
            <Node pos="l" depth="3" NCoef="0" IVar="-1" Cut="0.0000000000000000e+00" cType="1" res="-7.5269946828484535e-03" rms="4.5725995302200317e-01" purity="3.9361193776130676e-01" nType="-99"/>
            <Node pos="r" depth="3" NCoef="0" IVar="-1" Cut="0.0000000000000000e+00" cType="1" res="-6.0629500076174736e-03" rms="4.6238392591476440e-01" purity="4.1869938373565674e-01" nType="-99"/>
          </Node>
          <Node pos="r" depth="2" NCoef="0" IVar="9" Cut="6.6361421875000000e+04" cType="1" res="-4.3950304388999939e-03" rms="4.6286547183990479e-01" purity="6.0239303112030029e-01" nType="0">
            <Node pos="l" depth="3" NCoef="0" IVar="-1" Cut="0.0000000000000000e+00" cType="1" res="5.7622431777417660e-03" rms="4.7321584820747375e-01" purity="5.5824774503707886e-01" nType="-99"/>
            <Node pos="r" depth="3" NCoef="0" IVar="-1" Cut="0.0000000000000000e+00" cType="1" res="-2.7945635840296745e-02" rms="4.4193813204765320e-01" purity="6.8639081716537476e-01" nType="-99"/>
          </Node>
        </Node>
        <Node pos="r" depth="1" NCoef="0" IVar="5" Cut="2.9135956764221191e+00" cType="1" res="2.2846236824989319e-03" rms="4.6214035153388977e-01" purity="4.9321788549423218e-01" nType="0">
          <Node pos="l" depth="2" NCoef="0" IVar="6" Cut="4.4881525635719299e-01" cType="1" res="5.7507110759615898e-03" rms="4.6152749657630920e-01" purity="4.9062666296958923e-01" nType="0">
            <Node pos="l" depth="3" NCoef="0" IVar="-1" Cut="0.0000000000000000e+00" cType="1" res="2.1451765671372414e-02" rms="4.5746996998786926e-01" purity="5.4482549428939819e-01" nType="-99"/>
            <Node pos="r" depth="3" NCoef="0" IVar="-1" Cut="0.0000000000000000e+00" cType="1" res="-3.7562751094810665e-04" rms="4.6401855349540710e-01" purity="4.5487403869628906e-01" nType="-99"/>
          </Node>
          <Node pos="r" depth="2" NCoef="0" IVar="-1" Cut="0.0000000000000000e+00" cType="1" res="-3.6663670092821121e-02" rms="4.6740904450416565e-01" purity="5.2410447597503662e-01" nType="-99"/>
        </Node>
      </Node>
    </BinaryTree>
    <BinaryTree type="DecisionTree" boostWeight="1.0000000000000000e+00" itree="314">
      <Node pos="s" depth="0" NCoef="0" IVar="5" Cut="1.6452538967132568e+00" cType="1" res="-3.6515118554234505e-03" rms="4.6214488148689270e-01" purity="5.0579816102981567e-01" nType="0">
        <Node pos="l" depth="1" NCoef="0" IVar="7" Cut="5.0000000000000000e+00" cType="1" res="-8.5650570690631866e-03" rms="4.6363693475723267e-01" purity="4.9245411157608032e-01" nType="0">
          <Node pos="l" depth="2" NCoef="0" IVar="9" Cut="3.5131964843750000e+04" cType="1" res="-1.7446381971240044e-02" rms="4.6347180008888245e-01" purity="4.0466323494911194e-01" nType="0">
            <Node pos="l" depth="3" NCoef="0" IVar="-1" Cut="0.0000000000000000e+00" cType="1" res="-3.0044404789805412e-02" rms="4.5165321230888367e-01" purity="3.3397051692008972e-01" nType="-99"/>
            <Node pos="r" depth="3" NCoef="0" IVar="-1" Cut="0.0000000000000000e+00" cType="1" res="-2.0531322807073593e-03" rms="4.8247939348220825e-01" purity="5.2473944425582886e-01" nType="-99"/>
          </Node>
          <Node pos="r" depth="2" NCoef="0" IVar="9" Cut="6.7640468750000000e+04" cType="1" res="0.0000000000000000e+00" rms="0.0000000000000000e+00" purity="5.6244045495986938e-01" nType="0">
            <Node pos="l" depth="3" NCoef="0" IVar="-1" Cut="0.0000000000000000e+00" cType="1" res="4.5077363029122353e-03" rms="4.7080594301223755e-01" purity="5.2325606346130371e-01" nType="-99"/>
            <Node pos="r" depth="3" NCoef="0" IVar="-1" Cut="0.0000000000000000e+00" cType="1" res="-1.9428787752985954e-02" rms="4.4276437163352966e-01" purity="6.7145740985870361e-01" nType="-99"/>
          </Node>
        </Node>
        <Node pos="r" depth="1" NCoef="0" IVar="3" Cut="9.4842255115509033e-01" cType="1" res="6.2115974724292755e-03" rms="4.5897644758224487e-01" purity="5.3258389234542847e-01" nType="0">
          <Node pos="l" depth="2" NCoef="0" IVar="-1" Cut="0.0000000000000000e+00" cType="1" res="-1.7518773674964905e-02" rms="4.5537945628166199e-01" purity="3.9694419503211975e-01" nType="-99"/>
          <Node pos="r" depth="2" NCoef="0" IVar="6" Cut="1.6455830335617065e+00" cType="1" res="1.4183272607624531e-02" rms="4.5945915579795837e-01" purity="5.6459307670593262e-01" nType="0">
            <Node pos="l" depth="3" NCoef="0" IVar="-1" Cut="0.0000000000000000e+00" cType="1" res="5.3874595323577523e-04" rms="4.4296845793724060e-01" purity="5.7527142763137817e-01" nType="-99"/>
            <Node pos="r" depth="3" NCoef="0" IVar="-1" Cut="0.0000000000000000e+00" cType="1" res="3.1080186367034912e-02" rms="4.7475528717041016e-01" purity="5.5407351255416870e-01" nType="-99"/>
          </Node>
        </Node>
      </Node>
    </BinaryTree>
    <BinaryTree type="DecisionTree" boostWeight="1.0000000000000000e+00" itree="315">
      <Node pos="s" depth="0" NCoef="0" IVar="6" Cut="1.3463466167449951e+00" cType="1" res="-5.5832550860941410e-03" rms="4.6114265918731689e-01" purity="4.9726074934005737e-01" nType="0">
        <Node pos="l" depth="1" NCoef="0" IVar="8" Cut="6.1592808593750000e+04" cType="1" res="3.4105044323951006e-03" rms="4.6122589707374573e-01" purity="5.2388721704483032e-01" nType="0">
          <Node pos="l" depth="2" NCoef="0" IVar="5" Cut="-4.4878339767456055e-01" cType="1" res="0.0000000000000000e+00" rms="0.0000000000000000e+00" purity="4.3508115410804749e-01" nType="0">
            <Node pos="l" depth="3" NCoef="0" IVar="-1" Cut="0.0000000000000000e+00" cType="1" res="3.5338299348950386e-03" rms="4.6431112289428711e-01" purity="4.2032983899116516e-01" nType="-99"/>
            <Node pos="r" depth="3" NCoef="0" IVar="-1" Cut="0.0000000000000000e+00" cType="1" res="4.2505390942096710e-02" rms="4.6908447146415710e-01" purity="4.6764370799064636e-01" nType="-99"/>
          </Node>
          <Node pos="r" depth="2" NCoef="0" IVar="8" Cut="1.3122882812500000e+05" cType="1" res="-6.7947050556540489e-03" rms="4.5639422535896301e-01" purity="6.0689651966094971e-01" nType="0">
            <Node pos="l" depth="3" NCoef="0" IVar="-1" Cut="0.0000000000000000e+00" cType="1" res="-1.2423720210790634e-02" rms="4.5987331867218018e-01" purity="5.8950781822204590e-01" nType="-99"/>
            <Node pos="r" depth="3" NCoef="0" IVar="-1" Cut="0.0000000000000000e+00" cType="1" res="2.4224227294325829e-02" rms="4.3769031763076782e-01" purity="6.9385838508605957e-01" nType="-99"/>
          </Node>
        </Node>
        <Node pos="r" depth="1" NCoef="0" IVar="7" Cut="6.0000000000000000e+00" cType="1" res="-1.9660506397485733e-02" rms="4.6065479516983032e-01" purity="4.5556303858757019e-01" nType="0">
          <Node pos="l" depth="2" NCoef="0" IVar="6" Cut="2.2868039608001709e+00" cType="1" res="-6.3960128463804722e-03" rms="4.6740153431892395e-01" purity="4.5734021067619324e-01" nType="0">
            <Node pos="l" depth="3" NCoef="0" IVar="-1" Cut="0.0000000000000000e+00" cType="1" res="-1.2527687475085258e-02" rms="4.5432958006858826e-01" purity="4.1692721843719482e-01" nType="-99"/>
            <Node pos="r" depth="3" NCoef="0" IVar="-1" Cut="0.0000000000000000e+00" cType="1" res="6.0008638538420200e-03" rms="4.7276183962821960e-01" purity="4.7626638412475586e-01" nType="-99"/>
          </Node>
          <Node pos="r" depth="2" NCoef="0" IVar="6" Cut="2.3721005916595459e+00" cType="1" res="-5.8589771389961243e-02" rms="4.3797942996025085e-01" purity="4.5035120844841003e-01" nType="0">
            <Node pos="l" depth="3" NCoef="0" IVar="-1" Cut="0.0000000000000000e+00" cType="1" res="5.8860457502305508e-03" rms="4.5833644270896912e-01" purity="5.8871251344680786e-01" nType="-99"/>
            <Node pos="r" depth="3" NCoef="0" IVar="-1" Cut="0.0000000000000000e+00" cType="1" res="-2.1064614411443472e-03" rms="4.1755047440528870e-01" purity="3.5418847203254700e-01" nType="-99"/>
          </Node>
        </Node>
      </Node>
    </BinaryTree>
    <BinaryTree type="DecisionTree" boostWeight="1.0000000000000000e+00" itree="316">
      <Node pos="s" depth="0" NCoef="0" IVar="6" Cut="2.2439978122711182e+00" cType="1" res="-9.2268520966172218e-03" rms="4.5959073305130005e-01" purity="4.9117115139961243e-01" nType="0">
        <Node pos="l" depth="1" NCoef="0" IVar="5" Cut="-1.0471311807632446e+00" cType="1" res="4.5678863534703851e-04" rms="4.6060258150100708e-01" purity="5.1772266626358032e-01" nType="0">
          <Node pos="l" depth="2" NCoef="0" IVar="3" Cut="9.9092311859130859e+00" cType="1" res="0.0000000000000000e+00" rms="0.0000000000000000e+00" purity="5.2587068080902100e-01" nType="0">
            <Node pos="l" depth="3" NCoef="0" IVar="-1" Cut="0.0000000000000000e+00" cType="1" res="2.7198228053748608e-03" rms="4.6351960301399231e-01" purity="5.1727420091629028e-01" nType="-99"/>
            <Node pos="r" depth="3" NCoef="0" IVar="-1" Cut="0.0000000000000000e+00" cType="1" res="4.5370381325483322e-02" rms="4.4211211800575256e-01" purity="5.8862626552581787e-01" nType="-99"/>
          </Node>
          <Node pos="r" depth="2" NCoef="0" IVar="8" Cut="9.8216007812500000e+04" cType="1" res="-7.5348359532654285e-03" rms="4.5981323719024658e-01" purity="5.0960284471511841e-01" nType="0">
            <Node pos="l" depth="3" NCoef="0" IVar="-1" Cut="0.0000000000000000e+00" cType="1" res="-2.9311391990631819e-03" rms="4.6269759535789490e-01" purity="4.7348281741142273e-01" nType="-99"/>
            <Node pos="r" depth="3" NCoef="0" IVar="-1" Cut="0.0000000000000000e+00" cType="1" res="-3.3436112105846405e-02" rms="4.4823998212814331e-01" purity="6.4577203989028931e-01" nType="-99"/>
          </Node>
        </Node>
        <Node pos="r" depth="1" NCoef="0" IVar="7" Cut="6.0000000000000000e+00" cType="1" res="-3.4917835146188736e-02" rms="4.5589864253997803e-01" purity="4.2072498798370361e-01" nType="0">
          <Node pos="l" depth="2" NCoef="0" IVar="9" Cut="4.5728214843750000e+04" cType="1" res="-9.8414346575737000e-03" rms="4.7179755568504333e-01" purity="4.5328953862190247e-01" nType="0">
            <Node pos="l" depth="3" NCoef="0" IVar="-1" Cut="0.0000000000000000e+00" cType="1" res="3.7291250191628933e-03" rms="4.7749394178390503e-01" purity="4.1934496164321899e-01" nType="-99"/>
            <Node pos="r" depth="3" NCoef="0" IVar="-1" Cut="0.0000000000000000e+00" cType="1" res="-1.3587430119514465e-02" rms="4.5397165417671204e-01" purity="5.4496669769287109e-01" nType="-99"/>
          </Node>
          <Node pos="r" depth="2" NCoef="0" IVar="-1" Cut="0.0000000000000000e+00" cType="1" res="-1.8278470961377025e-03" rms="3.9431157708168030e-01" purity="3.2206305861473083e-01" nType="-99"/>
        </Node>
      </Node>
    </BinaryTree>
    <BinaryTree type="DecisionTree" boostWeight="1.0000000000000000e+00" itree="317">
      <Node pos="s" depth="0" NCoef="0" IVar="3" Cut="-1.5360946655273438e+00" cType="1" res="-2.1744349505752325e-03" rms="4.6506044268608093e-01" purity="5.0574171543121338e-01" nType="0">
        <Node pos="l" depth="1" NCoef="0" IVar="-1" Cut="0.0000000000000000e+00" cType="1" res="-3.3280286937952042e-02" rms="4.6817085146903992e-01" purity="3.8001927733421326e-01" nType="-99"/>
        <Node pos="r" depth="1" NCoef="0" IVar="2" Cut="3.1831362915039062e+02" cType="1" res="1.3400102034211159e-04" rms="4.6476152539253235e-01" purity="5.1406288146972656e-01" nType="0">
          <Node pos="l" depth="2" NCoef="0" IVar="1" Cut="2.4686828125000000e+05" cType="1" res="2.8440456371754408e-03" rms="4.6384659409523010e-01" purity="5.1175284385681152e-01" nType="0">
            <Node pos="l" depth="3" NCoef="0" IVar="-1" Cut="0.0000000000000000e+00" cType="1" res="5.6847026571631432e-03" rms="4.6615007519721985e-01" purity="5.3044408559799194e-01" nType="-99"/>
            <Node pos="r" depth="3" NCoef="0" IVar="-1" Cut="0.0000000000000000e+00" cType="1" res="-3.0874934047460556e-02" rms="4.3966704607009888e-01" purity="3.2623678445816040e-01" nType="-99"/>
          </Node>
          <Node pos="r" depth="2" NCoef="0" IVar="4" Cut="1.9400893449783325e+00" cType="1" res="-1.4134325087070465e-02" rms="4.6929106116294861e-01" purity="5.2622503042221069e-01" nType="0">
            <Node pos="l" depth="3" NCoef="0" IVar="-1" Cut="0.0000000000000000e+00" cType="1" res="3.0952098313719034e-03" rms="4.6984067559242249e-01" purity="5.2132147550582886e-01" nType="-99"/>
            <Node pos="r" depth="3" NCoef="0" IVar="-1" Cut="0.0000000000000000e+00" cType="1" res="-2.8192190453410149e-02" rms="4.6813413500785828e-01" purity="5.3117305040359497e-01" nType="-99"/>
          </Node>
        </Node>
      </Node>
    </BinaryTree>
    <BinaryTree type="DecisionTree" boostWeight="1.0000000000000000e+00" itree="318">
      <Node pos="s" depth="0" NCoef="0" IVar="1" Cut="2.4686829687500000e+05" cType="1" res="0.0000000000000000e+00" rms="0.0000000000000000e+00" purity="5.0551229715347290e-01" nType="0">
        <Node pos="l" depth="1" NCoef="0" IVar="6" Cut="-4.4877767562866211e-01" cType="1" res="-1.3311470393091440e-03" rms="4.6308764815330505e-01" purity="5.1806312799453735e-01" nType="0">
          <Node pos="l" depth="2" NCoef="0" IVar="6" Cut="-2.3722498416900635e+00" cType="1" res="-9.4575006514787674e-03" rms="4.6769791841506958e-01" purity="5.0550836324691772e-01" nType="0">
            <Node pos="l" depth="3" NCoef="0" IVar="-1" Cut="0.0000000000000000e+00" cType="1" res="-1.5338744269683957e-03" rms="4.7485691308975220e-01" purity="4.8030811548233032e-01" nType="-99"/>
            <Node pos="r" depth="3" NCoef="0" IVar="-1" Cut="0.0000000000000000e+00" cType="1" res="-1.8516562879085541e-02" rms="4.6044537425041199e-01" purity="5.3017681837081909e-01" nType="-99"/>
          </Node>
          <Node pos="r" depth="2" NCoef="0" IVar="1" Cut="1.2604185937500000e+05" cType="1" res="5.5207093246281147e-03" rms="4.5905271172523499e-01" purity="5.2864885330200195e-01" nType="0">
            <Node pos="l" depth="3" NCoef="0" IVar="-1" Cut="0.0000000000000000e+00" cType="1" res="-7.3221395723521709e-03" rms="4.6420261263847351e-01" purity="4.4642916321754456e-01" nType="-99"/>
            <Node pos="r" depth="3" NCoef="0" IVar="-1" Cut="0.0000000000000000e+00" cType="1" res="7.7464389614760876e-03" rms="4.5785543322563171e-01" purity="5.4383653402328491e-01" nType="-99"/>
          </Node>
        </Node>
        <Node pos="r" depth="1" NCoef="0" IVar="5" Cut="-1.4930634200572968e-01" cType="1" res="2.8001269325613976e-02" rms="4.5523890852928162e-01" purity="3.8030958175659180e-01" nType="0">
          <Node pos="l" depth="2" NCoef="0" IVar="-1" Cut="0.0000000000000000e+00" cType="1" res="2.2563384845852852e-02" rms="4.5252251625061035e-01" purity="3.7311565876007080e-01" nType="-99"/>
          <Node pos="r" depth="2" NCoef="0" IVar="-1" Cut="0.0000000000000000e+00" cType="1" res="5.7578437030315399e-02" rms="4.5748659968376160e-01" purity="3.8711744546890259e-01" nType="-99"/>
        </Node>
      </Node>
    </BinaryTree>
    <BinaryTree type="DecisionTree" boostWeight="1.0000000000000000e+00" itree="319">
      <Node pos="s" depth="0" NCoef="0" IVar="9" Cut="4.6279792968750000e+04" cType="1" res="-9.6838707104325294e-03" rms="4.6228742599487305e-01" purity="4.9881899356842041e-01" nType="0">
        <Node pos="l" depth="1" NCoef="0" IVar="9" Cut="4.2226253906250000e+04" cType="1" res="-1.4515039511024952e-02" rms="4.6710625290870667e-01" purity="4.1179642081260681e-01" nType="0">
          <Node pos="l" depth="2" NCoef="0" IVar="2" Cut="3.7802883911132812e+02" cType="1" res="-9.4622941687703133e-03" rms="4.6568188071250916e-01" purity="4.0173581242561340e-01" nType="0">
            <Node pos="l" depth="3" NCoef="0" IVar="-1" Cut="0.0000000000000000e+00" cType="1" res="-1.1157085187733173e-02" rms="4.6530291438102722e-01" purity="3.9391040802001953e-01" nType="-99"/>
            <Node pos="r" depth="3" NCoef="0" IVar="-1" Cut="0.0000000000000000e+00" cType="1" res="2.0753296092152596e-02" rms="4.6868601441383362e-01" purity="4.8200929164886475e-01" nType="-99"/>
          </Node>
          <Node pos="r" depth="2" NCoef="0" IVar="-1" Cut="0.0000000000000000e+00" cType="1" res="-6.4157992601394653e-03" rms="4.7538974881172180e-01" purity="4.8154419660568237e-01" nType="-99"/>
        </Node>
        <Node pos="r" depth="1" NCoef="0" IVar="5" Cut="2.5432212352752686e+00" cType="1" res="-2.5605030823498964e-03" rms="4.5499563217163086e-01" purity="6.2713032960891724e-01" nType="0">
          <Node pos="l" depth="2" NCoef="0" IVar="6" Cut="-1.4915236830711365e-01" cType="1" res="-7.3823626153171062e-03" rms="4.5654934644699097e-01" purity="6.1967951059341431e-01" nType="0">
            <Node pos="l" depth="3" NCoef="0" IVar="-1" Cut="0.0000000000000000e+00" cType="1" res="4.9050184898078442e-03" rms="4.5578637719154358e-01" purity="6.1963158845901489e-01" nType="-99"/>
            <Node pos="r" depth="3" NCoef="0" IVar="-1" Cut="0.0000000000000000e+00" cType="1" res="-1.6403531655669212e-02" rms="4.5701730251312256e-01" purity="6.1973154544830322e-01" nType="-99"/>
          </Node>
          <Node pos="r" depth="2" NCoef="0" IVar="-1" Cut="0.0000000000000000e+00" cType="1" res="2.0208058878779411e-02" rms="4.4768711924552917e-01" purity="6.5906608104705811e-01" nType="-99"/>
        </Node>
      </Node>
    </BinaryTree>
    <BinaryTree type="DecisionTree" boostWeight="1.0000000000000000e+00" itree="320">
      <Node pos="s" depth="0" NCoef="0" IVar="5" Cut="-4.4888949394226074e-01" cType="1" res="2.8241323307156563e-03" rms="4.5904603600502014e-01" purity="5.0744980573654175e-01" nType="0">
        <Node pos="l" depth="1" NCoef="0" IVar="4" Cut="2.9919884204864502e+00" cType="1" res="9.1145299375057220e-03" rms="4.6231642365455627e-01" purity="5.2249634265899658e-01" nType="0">
          <Node pos="l" depth="2" NCoef="0" IVar="3" Cut="7.0428938865661621e+00" cType="1" res="4.8904460854828358e-03" rms="4.6255755424499512e-01" purity="5.2156305313110352e-01" nType="0">
            <Node pos="l" depth="3" NCoef="0" IVar="-1" Cut="0.0000000000000000e+00" cType="1" res="-7.5891794404014945e-04" rms="4.6875378489494324e-01" purity="5.1349931955337524e-01" nType="-99"/>
            <Node pos="r" depth="3" NCoef="0" IVar="-1" Cut="0.0000000000000000e+00" cType="1" res="2.6230225339531898e-02" rms="4.4501236081123352e-01" purity="5.4337233304977417e-01" nType="-99"/>
          </Node>
          <Node pos="r" depth="2" NCoef="0" IVar="-1" Cut="0.0000000000000000e+00" cType="1" res="3.9097972214221954e-02" rms="4.6009671688079834e-01" purity="5.2801382541656494e-01" nType="-99"/>
        </Node>
        <Node pos="r" depth="1" NCoef="0" IVar="5" Cut="1.9446134567260742e+00" cType="1" res="-2.3908347357064486e-03" rms="4.5625126361846924e-01" purity="4.9497571587562561e-01" nType="0">
          <Node pos="l" depth="2" NCoef="0" IVar="5" Cut="1.3745750188827515e+00" cType="1" res="-1.2579078786075115e-02" rms="4.5490616559982300e-01" purity="4.4287833571434021e-01" nType="0">
            <Node pos="l" depth="3" NCoef="0" IVar="-1" Cut="0.0000000000000000e+00" cType="1" res="-1.5295428456738591e-03" rms="4.6402257680892944e-01" purity="4.5827728509902954e-01" nType="-99"/>
            <Node pos="r" depth="3" NCoef="0" IVar="-1" Cut="0.0000000000000000e+00" cType="1" res="-1.6099327476695180e-03" rms="4.3731138110160828e-01" purity="4.1518253087997437e-01" nType="-99"/>
          </Node>
          <Node pos="r" depth="2" NCoef="0" IVar="6" Cut="2.5429275035858154e+00" cType="1" res="7.3608895763754845e-03" rms="4.5732247829437256e-01" purity="5.4484093189239502e-01" nType="0">
            <Node pos="l" depth="3" NCoef="0" IVar="-1" Cut="0.0000000000000000e+00" cType="1" res="1.6455415636301041e-02" rms="4.5151907205581665e-01" purity="5.4918855428695679e-01" nType="-99"/>
            <Node pos="r" depth="3" NCoef="0" IVar="-1" Cut="0.0000000000000000e+00" cType="1" res="-1.1536895297467709e-02" rms="4.7464001178741455e-01" purity="5.3081679344177246e-01" nType="-99"/>
          </Node>
        </Node>
      </Node>
    </BinaryTree>
    <BinaryTree type="DecisionTree" boostWeight="1.0000000000000000e+00" itree="321">
      <Node pos="s" depth="0" NCoef="0" IVar="4" Cut="2.1474952697753906e+00" cType="1" res="-1.0978640057146549e-02" rms="4.6347436308860779e-01" purity="4.9774712324142456e-01" nType="0">
        <Node pos="l" depth="1" NCoef="0" IVar="3" Cut="7.8193693161010742e+00" cType="1" res="-1.5304724220186472e-03" rms="4.6420189738273621e-01" purity="4.8923769593238831e-01" nType="0">
          <Node pos="l" depth="2" NCoef="0" IVar="1" Cut="1.7208626562500000e+05" cType="1" res="2.8099096380174160e-03" rms="4.6955877542495728e-01" purity="4.9510055780410767e-01" nType="0">
            <Node pos="l" depth="3" NCoef="0" IVar="-1" Cut="0.0000000000000000e+00" cType="1" res="1.0182684287428856e-02" rms="4.7322642803192139e-01" purity="5.2603614330291748e-01" nType="-99"/>
            <Node pos="r" depth="3" NCoef="0" IVar="-1" Cut="0.0000000000000000e+00" cType="1" res="-1.8563952296972275e-02" rms="4.6006622910499573e-01" purity="4.1999545693397522e-01" nType="-99"/>
          </Node>
          <Node pos="r" depth="2" NCoef="0" IVar="6" Cut="1.9442026615142822e+00" cType="1" res="-1.5852205455303192e-02" rms="4.4577026367187500e-01" purity="4.6989238262176514e-01" nType="0">
            <Node pos="l" depth="3" NCoef="0" IVar="-1" Cut="0.0000000000000000e+00" cType="1" res="-1.2717539444565773e-02" rms="4.3924936652183533e-01" purity="4.8856151103973389e-01" nType="-99"/>
            <Node pos="r" depth="3" NCoef="0" IVar="-1" Cut="0.0000000000000000e+00" cType="1" res="-4.7765132039785385e-02" rms="4.5810300111770630e-01" purity="4.3243953585624695e-01" nType="-99"/>
          </Node>
        </Node>
        <Node pos="r" depth="1" NCoef="0" IVar="3" Cut="1.2764858007431030e+00" cType="1" res="-2.3293700069189072e-02" rms="4.6223449707031250e-01" purity="5.0883859395980835e-01" nType="0">
          <Node pos="l" depth="2" NCoef="0" IVar="-1" Cut="0.0000000000000000e+00" cType="1" res="-5.8676186017692089e-04" rms="4.6514171361923218e-01" purity="4.2178177833557129e-01" nType="-99"/>
          <Node pos="r" depth="2" NCoef="0" IVar="9" Cut="4.4407945312500000e+04" cType="1" res="-2.9339531436562538e-02" rms="4.6126207709312439e-01" purity="5.3227150440216064e-01" nType="0">
            <Node pos="l" depth="3" NCoef="0" IVar="-1" Cut="0.0000000000000000e+00" cType="1" res="-1.0977493599057198e-02" rms="4.7191229462623596e-01" purity="4.5245471596717834e-01" nType="-99"/>
            <Node pos="r" depth="3" NCoef="0" IVar="-1" Cut="0.0000000000000000e+00" cType="1" res="-2.4858262389898300e-02" rms="4.4903942942619324e-01" purity="6.2005060911178589e-01" nType="-99"/>
          </Node>
        </Node>
      </Node>
    </BinaryTree>
    <BinaryTree type="DecisionTree" boostWeight="1.0000000000000000e+00" itree="322">
      <Node pos="s" depth="0" NCoef="0" IVar="3" Cut="5.2446951866149902e+00" cType="1" res="-9.8686702549457550e-03" rms="4.5452448725700378e-01" purity="4.8354840278625488e-01" nType="0">
        <Node pos="l" depth="1" NCoef="0" IVar="7" Cut="7.0000000000000000e+00" cType="1" res="-2.0569231361150742e-02" rms="4.5471438765525818e-01" purity="4.5593842864036560e-01" nType="0">
          <Node pos="l" depth="2" NCoef="0" IVar="9" Cut="6.3813308593750000e+04" cType="1" res="-7.0746648125350475e-03" rms="4.6664708852767944e-01" purity="4.7792002558708191e-01" nType="0">
            <Node pos="l" depth="3" NCoef="0" IVar="-1" Cut="0.0000000000000000e+00" cType="1" res="-5.2169607952237129e-03" rms="4.6956795454025269e-01" purity="4.4626191258430481e-01" nType="-99"/>
            <Node pos="r" depth="3" NCoef="0" IVar="-1" Cut="0.0000000000000000e+00" cType="1" res="2.5363542139530182e-02" rms="4.4762435555458069e-01" purity="6.6636282205581665e-01" nType="-99"/>
          </Node>
          <Node pos="r" depth="2" NCoef="0" IVar="-1" Cut="0.0000000000000000e+00" cType="1" res="-1.2798346579074860e-03" rms="3.8019022345542908e-01" purity="3.4268096089363098e-01" nType="-99"/>
        </Node>
        <Node pos="r" depth="1" NCoef="0" IVar="5" Cut="-2.2435727119445801e+00" cType="1" res="6.2937168404459953e-03" rms="4.5370635390281677e-01" purity="5.2526658773422241e-01" nType="0">
          <Node pos="l" depth="2" NCoef="0" IVar="-1" Cut="0.0000000000000000e+00" cType="1" res="-1.3474468141794205e-02" rms="4.4464105367660522e-01" purity="5.8165997266769409e-01" nType="-99"/>
          <Node pos="r" depth="2" NCoef="0" IVar="6" Cut="-2.8422951698303223e+00" cType="1" res="9.4557208940386772e-03" rms="4.5555293560028076e-01" purity="5.1324576139450073e-01" nType="0">
            <Node pos="l" depth="3" NCoef="0" IVar="-1" Cut="0.0000000000000000e+00" cType="1" res="3.2658468931913376e-02" rms="4.6935892105102539e-01" purity="4.9628379940986633e-01" nType="-99"/>
            <Node pos="r" depth="3" NCoef="0" IVar="-1" Cut="0.0000000000000000e+00" cType="1" res="8.1872930750250816e-03" rms="4.5348808169364929e-01" purity="5.1562577486038208e-01" nType="-99"/>
          </Node>
        </Node>
      </Node>
    </BinaryTree>
    <BinaryTree type="DecisionTree" boostWeight="1.0000000000000000e+00" itree="323">
      <Node pos="s" depth="0" NCoef="0" IVar="4" Cut="2.7231879234313965e+00" cType="1" res="1.3577764621004462e-03" rms="4.6172198653221130e-01" purity="5.0703251361846924e-01" nType="0">
        <Node pos="l" depth="1" NCoef="0" IVar="8" Cut="1.2720979687500000e+05" cType="1" res="0.0000000000000000e+00" rms="0.0000000000000000e+00" purity="5.1097750663757324e-01" nType="0">
          <Node pos="l" depth="2" NCoef="0" IVar="8" Cut="7.8622687500000000e+04" cType="1" res="6.4631272107362747e-03" rms="4.6427273750305176e-01" purity="4.9589860439300537e-01" nType="0">
            <Node pos="l" depth="3" NCoef="0" IVar="-1" Cut="0.0000000000000000e+00" cType="1" res="2.0521180704236031e-03" rms="4.6830782294273376e-01" purity="4.4825902581214905e-01" nType="-99"/>
            <Node pos="r" depth="3" NCoef="0" IVar="-1" Cut="0.0000000000000000e+00" cType="1" res="2.3887254297733307e-02" rms="4.5059612393379211e-01" purity="6.5082013607025146e-01" nType="-99"/>
          </Node>
          <Node pos="r" depth="2" NCoef="0" IVar="-1" Cut="0.0000000000000000e+00" cType="1" res="-1.7718246206641197e-02" rms="4.3678450584411621e-01" purity="6.7658549547195435e-01" nType="-99"/>
        </Node>
        <Node pos="r" depth="1" NCoef="0" IVar="6" Cut="-1.6455488204956055e+00" cType="1" res="-9.8874615505337715e-03" rms="4.6043607592582703e-01" purity="4.9452823400497437e-01" nType="0">
          <Node pos="l" depth="2" NCoef="0" IVar="6" Cut="-2.6431193351745605e+00" cType="1" res="-2.7762398123741150e-02" rms="4.6934112906455994e-01" purity="4.5303052663803101e-01" nType="0">
            <Node pos="l" depth="3" NCoef="0" IVar="-1" Cut="0.0000000000000000e+00" cType="1" res="-8.5218995809555054e-03" rms="4.7424858808517456e-01" purity="4.8108172416687012e-01" nType="-99"/>
            <Node pos="r" depth="3" NCoef="0" IVar="-1" Cut="0.0000000000000000e+00" cType="1" res="-3.3686596900224686e-02" rms="4.6359941363334656e-01" purity="4.2533284425735474e-01" nType="-99"/>
          </Node>
          <Node pos="r" depth="2" NCoef="0" IVar="2" Cut="1.7002693176269531e+02" cType="1" res="3.2584983273409307e-05" rms="4.5511609315872192e-01" purity="5.1755821704864502e-01" nType="0">
            <Node pos="l" depth="3" NCoef="0" IVar="-1" Cut="0.0000000000000000e+00" cType="1" res="2.1764645352959633e-02" rms="4.5602905750274658e-01" purity="5.7312524318695068e-01" nType="-99"/>
            <Node pos="r" depth="3" NCoef="0" IVar="-1" Cut="0.0000000000000000e+00" cType="1" res="-5.2647711709141731e-03" rms="4.5433330535888672e-01" purity="4.9361479282379150e-01" nType="-99"/>
          </Node>
        </Node>
      </Node>
    </BinaryTree>
    <BinaryTree type="DecisionTree" boostWeight="1.0000000000000000e+00" itree="324">
      <Node pos="s" depth="0" NCoef="0" IVar="5" Cut="-2.8422484397888184e+00" cType="1" res="0.0000000000000000e+00" rms="0.0000000000000000e+00" purity="5.0154370069503784e-01" nType="0">
        <Node pos="l" depth="1" NCoef="0" IVar="-1" Cut="0.0000000000000000e+00" cType="1" res="-3.4626568667590618e-03" rms="4.4295448064804077e-01" purity="5.0174063444137573e-01" nType="-99"/>
        <Node pos="r" depth="1" NCoef="0" IVar="0" Cut="2.5418218750000000e+05" cType="1" res="-6.5411441028118134e-04" rms="4.6313422918319702e-01" purity="5.0152724981307983e-01" nType="0">
          <Node pos="l" depth="2" NCoef="0" IVar="5" Cut="2.2867145538330078e+00" cType="1" res="-2.5112852454185486e-03" rms="4.6590408682823181e-01" purity="4.8799282312393188e-01" nType="0">
            <Node pos="l" depth="3" NCoef="0" IVar="-1" Cut="0.0000000000000000e+00" cType="1" res="4.8488436732441187e-04" rms="4.6629327535629272e-01" purity="4.7769668698310852e-01" nType="-99"/>
            <Node pos="r" depth="3" NCoef="0" IVar="-1" Cut="0.0000000000000000e+00" cType="1" res="-1.2762038968503475e-02" rms="4.6440064907073975e-01" purity="5.2344429492950439e-01" nType="-99"/>
          </Node>
          <Node pos="r" depth="2" NCoef="0" IVar="-1" Cut="0.0000000000000000e+00" cType="1" res="3.2673817127943039e-02" rms="4.2753726243972778e-01" purity="6.6540277004241943e-01" nType="-99"/>
        </Node>
      </Node>
    </BinaryTree>
    <BinaryTree type="DecisionTree" boostWeight="1.0000000000000000e+00" itree="325">
      <Node pos="s" depth="0" NCoef="0" IVar="6" Cut="2.2439949512481689e+00" cType="1" res="-2.2087106481194496e-03" rms="4.6080076694488525e-01" purity="4.9879196286201477e-01" nType="0">
        <Node pos="l" depth="1" NCoef="0" IVar="2" Cut="4.3187332153320312e+02" cType="1" res="5.7932394556701183e-03" rms="4.6008849143981934e-01" purity="5.2228659391403198e-01" nType="0">
          <Node pos="l" depth="2" NCoef="0" IVar="3" Cut="4.6276650428771973e+00" cType="1" res="7.8361546620726585e-03" rms="4.5992985367774963e-01" purity="5.2267271280288696e-01" nType="0">
            <Node pos="l" depth="3" NCoef="0" IVar="-1" Cut="0.0000000000000000e+00" cType="1" res="1.3814480043947697e-02" rms="4.6858742833137512e-01" purity="5.1368349790573120e-01" nType="-99"/>
            <Node pos="r" depth="3" NCoef="0" IVar="-1" Cut="0.0000000000000000e+00" cType="1" res="4.6605884563177824e-04" rms="4.4908487796783447e-01" purity="5.3358203172683716e-01" nType="-99"/>
          </Node>
          <Node pos="r" depth="2" NCoef="0" IVar="-1" Cut="0.0000000000000000e+00" cType="1" res="-2.0670503377914429e-02" rms="4.6135103702545166e-01" purity="5.1693356037139893e-01" nType="-99"/>
        </Node>
        <Node pos="r" depth="1" NCoef="0" IVar="7" Cut="6.0000000000000000e+00" cType="1" res="-2.3942904546856880e-02" rms="4.6202334761619568e-01" purity="4.3494328856468201e-01" nType="0">
          <Node pos="l" depth="2" NCoef="0" IVar="5" Cut="4.4839102029800415e-01" cType="1" res="4.2634745477698743e-04" rms="4.7160974144935608e-01" purity="4.5893529057502747e-01" nType="0">
            <Node pos="l" depth="3" NCoef="0" IVar="-1" Cut="0.0000000000000000e+00" cType="1" res="-3.6660198122262955e-02" rms="4.6537837386131287e-01" purity="4.1195791959762573e-01" nType="-99"/>
            <Node pos="r" depth="3" NCoef="0" IVar="-1" Cut="0.0000000000000000e+00" cType="1" res="7.9911267384886742e-03" rms="4.7296184301376343e-01" purity="4.7316795587539673e-01" nType="-99"/>
          </Node>
          <Node pos="r" depth="2" NCoef="0" IVar="-1" Cut="0.0000000000000000e+00" cType="1" res="-2.3343348875641823e-03" rms="4.1601055860519409e-01" purity="3.5141581296920776e-01" nType="-99"/>
        </Node>
      </Node>
    </BinaryTree>
    <BinaryTree type="DecisionTree" boostWeight="1.0000000000000000e+00" itree="326">
      <Node pos="s" depth="0" NCoef="0" IVar="4" Cut="1.6705539226531982e+00" cType="1" res="-1.0945655405521393e-02" rms="4.6240833401679993e-01" purity="4.9861583113670349e-01" nType="0">
        <Node pos="l" depth="1" NCoef="0" IVar="5" Cut="-1.3464405536651611e+00" cType="1" res="-4.0511900442652404e-04" rms="4.6171259880065918e-01" purity="4.8132088780403137e-01" nType="0">
          <Node pos="l" depth="2" NCoef="0" IVar="9" Cut="3.8700054687500000e+04" cType="1" res="1.5917409211397171e-02" rms="4.6191659569740295e-01" purity="5.2091687917709351e-01" nType="0">
            <Node pos="l" depth="3" NCoef="0" IVar="-1" Cut="0.0000000000000000e+00" cType="1" res="4.1008140891790390e-02" rms="4.6562674641609192e-01" purity="4.0183299779891968e-01" nType="-99"/>
            <Node pos="r" depth="3" NCoef="0" IVar="-1" Cut="0.0000000000000000e+00" cType="1" res="6.3114762306213379e-03" rms="4.5903703570365906e-01" purity="6.0322874784469604e-01" nType="-99"/>
          </Node>
          <Node pos="r" depth="2" NCoef="0" IVar="1" Cut="1.9917604687500000e+05" cType="1" res="-9.6992729231715202e-03" rms="4.6133843064308167e-01" purity="4.5877462625503540e-01" nType="0">
            <Node pos="l" depth="3" NCoef="0" IVar="-1" Cut="0.0000000000000000e+00" cType="1" res="-1.1257485486567020e-02" rms="4.6610227227210999e-01" purity="4.8545736074447632e-01" nType="-99"/>
            <Node pos="r" depth="3" NCoef="0" IVar="-1" Cut="0.0000000000000000e+00" cType="1" res="3.1892206519842148e-02" rms="4.4494643807411194e-01" purity="3.7698104977607727e-01" nType="-99"/>
          </Node>
        </Node>
        <Node pos="r" depth="1" NCoef="0" IVar="5" Cut="-2.8420300483703613e+00" cType="1" res="-1.8973695114254951e-02" rms="4.6277651190757751e-01" purity="5.1178830862045288e-01" nType="0">
          <Node pos="l" depth="2" NCoef="0" IVar="-1" Cut="0.0000000000000000e+00" cType="1" res="-4.8326435498893261e-03" rms="4.5140030980110168e-01" purity="5.2395784854888916e-01" nType="-99"/>
          <Node pos="r" depth="2" NCoef="0" IVar="9" Cut="7.9542335937500000e+04" cType="1" res="-1.5530165284872055e-02" rms="4.6365767717361450e-01" purity="5.1066833734512329e-01" nType="0">
            <Node pos="l" depth="3" NCoef="0" IVar="-1" Cut="0.0000000000000000e+00" cType="1" res="-1.9430600106716156e-02" rms="4.6798181533813477e-01" purity="4.8849463462829590e-01" nType="-99"/>
            <Node pos="r" depth="3" NCoef="0" IVar="-1" Cut="0.0000000000000000e+00" cType="1" res="8.0825258046388626e-03" rms="4.2241156101226807e-01" purity="7.0858532190322876e-01" nType="-99"/>
          </Node>
        </Node>
      </Node>
    </BinaryTree>
    <BinaryTree type="DecisionTree" boostWeight="1.0000000000000000e+00" itree="327">
      <Node pos="s" depth="0" NCoef="0" IVar="7" Cut="7.0000000000000000e+00" cType="1" res="-4.9010948278009892e-03" rms="4.6438035368919373e-01" purity="4.9680027365684509e-01" nType="0">
        <Node pos="l" depth="1" NCoef="0" IVar="3" Cut="-4.7924369573593140e-01" cType="1" res="-1.6820165910758078e-04" rms="4.6720036864280701e-01" purity="4.9123334884643555e-01" nType="0">
          <Node pos="l" depth="2" NCoef="0" IVar="-1" Cut="0.0000000000000000e+00" cType="1" res="2.4917958304286003e-02" rms="4.7282266616821289e-01" purity="4.2364546656608582e-01" nType="-99"/>
          <Node pos="r" depth="2" NCoef="0" IVar="4" Cut="8.8182860612869263e-01" cType="1" res="-2.9515933711081743e-03" rms="4.6651014685630798e-01" purity="4.9844786524772644e-01" nType="0">
            <Node pos="l" depth="3" NCoef="0" IVar="-1" Cut="0.0000000000000000e+00" cType="1" res="-2.6518715545535088e-02" rms="4.5762863755226135e-01" purity="4.3521094322204590e-01" nType="-99"/>
            <Node pos="r" depth="3" NCoef="0" IVar="-1" Cut="0.0000000000000000e+00" cType="1" res="9.2096306616440415e-05" rms="4.6806246042251587e-01" purity="5.1008248329162598e-01" nType="-99"/>
          </Node>
        </Node>
        <Node pos="r" depth="1" NCoef="0" IVar="2" Cut="1.7736805725097656e+02" cType="1" res="0.0000000000000000e+00" rms="0.0000000000000000e+00" purity="5.4124677181243896e-01" nType="0">
          <Node pos="l" depth="2" NCoef="0" IVar="-1" Cut="0.0000000000000000e+00" cType="1" res="-1.8022725358605385e-02" rms="4.5381414890289307e-01" purity="6.2454378604888916e-01" nType="-99"/>
          <Node pos="r" depth="2" NCoef="0" IVar="-1" Cut="0.0000000000000000e+00" cType="1" res="-2.1340588573366404e-03" rms="4.2135012149810791e-01" purity="4.5070195198059082e-01" nType="-99"/>
        </Node>
      </Node>
    </BinaryTree>
    <BinaryTree type="DecisionTree" boostWeight="1.0000000000000000e+00" itree="328">
      <Node pos="s" depth="0" NCoef="0" IVar="3" Cut="1.2173584938049316e+01" cType="1" res="-4.5499084517359734e-03" rms="4.6116036176681519e-01" purity="4.9883291125297546e-01" nType="0">
        <Node pos="l" depth="1" NCoef="0" IVar="8" Cut="6.1661121093750000e+04" cType="1" res="-2.2396771237254143e-03" rms="4.6256029605865479e-01" purity="5.0130307674407959e-01" nType="0">
          <Node pos="l" depth="2" NCoef="0" IVar="9" Cut="4.0499441406250000e+04" cType="1" res="0.0000000000000000e+00" rms="0.0000000000000000e+00" purity="4.0563914179801941e-01" nType="0">
            <Node pos="l" depth="3" NCoef="0" IVar="-1" Cut="0.0000000000000000e+00" cType="1" res="-7.9921679571270943e-04" rms="4.6018075942993164e-01" purity="3.7503147125244141e-01" nType="-99"/>
            <Node pos="r" depth="3" NCoef="0" IVar="-1" Cut="0.0000000000000000e+00" cType="1" res="-5.3541497327387333e-03" rms="4.7726380825042725e-01" purity="4.9788975715637207e-01" nType="-99"/>
          </Node>
          <Node pos="r" depth="2" NCoef="0" IVar="9" Cut="4.6287261718750000e+04" cType="1" res="4.0800296701490879e-03" rms="4.6019044518470764e-01" purity="6.0602241754531860e-01" nType="0">
            <Node pos="l" depth="3" NCoef="0" IVar="-1" Cut="0.0000000000000000e+00" cType="1" res="-7.0806499570608139e-03" rms="4.7748890519142151e-01" purity="5.0417524576187134e-01" nType="-99"/>
            <Node pos="r" depth="3" NCoef="0" IVar="-1" Cut="0.0000000000000000e+00" cType="1" res="9.5860809087753296e-03" rms="4.5226767659187317e-01" purity="6.5095108747482300e-01" nType="-99"/>
          </Node>
        </Node>
        <Node pos="r" depth="1" NCoef="0" IVar="-1" Cut="0.0000000000000000e+00" cType="1" res="-5.0928287208080292e-02" rms="4.4059142470359802e-01" purity="4.6540737152099609e-01" nType="-99"/>
      </Node>
    </BinaryTree>
    <BinaryTree type="DecisionTree" boostWeight="1.0000000000000000e+00" itree="329">
      <Node pos="s" depth="0" NCoef="0" IVar="3" Cut="4.6376695632934570e+00" cType="1" res="-1.3727697078138590e-03" rms="4.6172708272933960e-01" purity="4.9865895509719849e-01" nType="0">
        <Node pos="l" depth="1" NCoef="0" IVar="4" Cut="2.2746577262878418e+00" cType="1" res="-9.6707772463560104e-03" rms="4.6583557128906250e-01" purity="4.7558358311653137e-01" nType="0">
          <Node pos="l" depth="2" NCoef="0" IVar="3" Cut="-2.4880681931972504e-01" cType="1" res="0.0000000000000000e+00" rms="0.0000000000000000e+00" purity="4.6458336710929871e-01" nType="0">
            <Node pos="l" depth="3" NCoef="0" IVar="-1" Cut="0.0000000000000000e+00" cType="1" res="-6.3234665431082249e-03" rms="4.5300170779228210e-01" purity="3.5332110524177551e-01" nType="-99"/>
            <Node pos="r" depth="3" NCoef="0" IVar="-1" Cut="0.0000000000000000e+00" cType="1" res="-6.5692998468875885e-03" rms="4.6671500802040100e-01" purity="4.9036777019500732e-01" nType="-99"/>
          </Node>
          <Node pos="r" depth="2" NCoef="0" IVar="6" Cut="-2.2437646389007568e+00" cType="1" res="7.7125513926148415e-03" rms="4.6706643700599670e-01" purity="4.9177041649818420e-01" nType="0">
            <Node pos="l" depth="3" NCoef="0" IVar="-1" Cut="0.0000000000000000e+00" cType="1" res="3.9286434650421143e-02" rms="4.7917407751083374e-01" purity="4.8067262768745422e-01" nType="-99"/>
            <Node pos="r" depth="3" NCoef="0" IVar="-1" Cut="0.0000000000000000e+00" cType="1" res="-1.9778143614530563e-03" rms="4.6241685748100281e-01" purity="4.9553185701370239e-01" nType="-99"/>
          </Node>
        </Node>
        <Node pos="r" depth="1" NCoef="0" IVar="6" Cut="2.2440009117126465e+00" cType="1" res="7.9503571614623070e-03" rms="4.5688721537590027e-01" purity="5.2458500862121582e-01" nType="0">
          <Node pos="l" depth="2" NCoef="0" IVar="4" Cut="8.3361518383026123e-01" cType="1" res="-7.0160132599994540e-04" rms="4.5220729708671570e-01" purity="5.2921056747436523e-01" nType="0">
            <Node pos="l" depth="3" NCoef="0" IVar="-1" Cut="0.0000000000000000e+00" cType="1" res="-3.4439831972122192e-02" rms="4.5253869891166687e-01" purity="4.2478865385055542e-01" nType="-99"/>
            <Node pos="r" depth="3" NCoef="0" IVar="-1" Cut="0.0000000000000000e+00" cType="1" res="5.9641669504344463e-03" rms="4.5197016000747681e-01" purity="5.5038881301879883e-01" nType="-99"/>
          </Node>
          <Node pos="r" depth="2" NCoef="0" IVar="1" Cut="1.7887150000000000e+05" cType="1" res="2.9308374971151352e-02" rms="4.6755480766296387e-01" purity="5.1316654682159424e-01" nType="0">
            <Node pos="l" depth="3" NCoef="0" IVar="-1" Cut="0.0000000000000000e+00" cType="1" res="4.1677460074424744e-02" rms="4.6744400262832642e-01" purity="5.7424181699752808e-01" nType="-99"/>
            <Node pos="r" depth="3" NCoef="0" IVar="-1" Cut="0.0000000000000000e+00" cType="1" res="-3.2140025869011879e-03" rms="4.6628913283348083e-01" purity="3.7363913655281067e-01" nType="-99"/>
          </Node>
        </Node>
      </Node>
    </BinaryTree>
    <BinaryTree type="DecisionTree" boostWeight="1.0000000000000000e+00" itree="330">
      <Node pos="s" depth="0" NCoef="0" IVar="4" Cut="2.3703532218933105e+00" cType="1" res="4.3026640196330845e-04" rms="4.5987734198570251e-01" purity="5.0052255392074585e-01" nType="0">
        <Node pos="l" depth="1" NCoef="0" IVar="4" Cut="1.5070301294326782e+00" cType="1" res="-5.2376040257513523e-03" rms="4.5896399021148682e-01" purity="4.8218882083892822e-01" nType="0">
          <Node pos="l" depth="2" NCoef="0" IVar="5" Cut="1.0473018884658813e+00" cType="1" res="4.4845696538686752e-03" rms="4.6017155051231384e-01" purity="4.7233739495277405e-01" nType="0">
            <Node pos="l" depth="3" NCoef="0" IVar="-1" Cut="0.0000000000000000e+00" cType="1" res="1.7562463879585266e-02" rms="4.6333387494087219e-01" purity="4.7222328186035156e-01" nType="-99"/>
            <Node pos="r" depth="3" NCoef="0" IVar="-1" Cut="0.0000000000000000e+00" cType="1" res="-3.0320603400468826e-03" rms="4.5517775416374207e-01" purity="4.7250387072563171e-01" nType="-99"/>
          </Node>
          <Node pos="r" depth="2" NCoef="0" IVar="6" Cut="1.0472157001495361e+00" cType="1" res="-1.8644727766513824e-02" rms="4.5695433020591736e-01" purity="4.9577412009239197e-01" nType="0">
            <Node pos="l" depth="3" NCoef="0" IVar="-1" Cut="0.0000000000000000e+00" cType="1" res="-7.8767328523099422e-04" rms="4.6173006296157837e-01" purity="5.5199915170669556e-01" nType="-99"/>
            <Node pos="r" depth="3" NCoef="0" IVar="-1" Cut="0.0000000000000000e+00" cType="1" res="-2.1312851458787918e-03" rms="4.4965896010398865e-01" purity="4.2312562465667725e-01" nType="-99"/>
          </Node>
        </Node>
        <Node pos="r" depth="1" NCoef="0" IVar="6" Cut="1.3463845252990723e+00" cType="1" res="0.0000000000000000e+00" rms="0.0000000000000000e+00" purity="5.3388130664825439e-01" nType="0">
          <Node pos="l" depth="2" NCoef="0" IVar="5" Cut="-4.4840908050537109e-01" cType="1" res="4.0191826410591602e-03" rms="4.5643407106399536e-01" purity="5.4522901773452759e-01" nType="0">
            <Node pos="l" depth="3" NCoef="0" IVar="-1" Cut="0.0000000000000000e+00" cType="1" res="-7.0720501244068146e-03" rms="4.6426594257354736e-01" purity="5.0376093387603760e-01" nType="-99"/>
            <Node pos="r" depth="3" NCoef="0" IVar="-1" Cut="0.0000000000000000e+00" cType="1" res="2.5108335539698601e-02" rms="4.4245460629463196e-01" purity="6.1378079652786255e-01" nType="-99"/>
          </Node>
          <Node pos="r" depth="2" NCoef="0" IVar="6" Cut="2.6286940574645996e+00" cType="1" res="2.1475082263350487e-02" rms="4.6890518069267273e-01" purity="5.1576936244964600e-01" nType="0">
            <Node pos="l" depth="3" NCoef="0" IVar="-1" Cut="0.0000000000000000e+00" cType="1" res="4.6484176069498062e-02" rms="4.6114987134933472e-01" purity="5.4220491647720337e-01" nType="-99"/>
            <Node pos="r" depth="3" NCoef="0" IVar="-1" Cut="0.0000000000000000e+00" cType="1" res="-2.5769667699933052e-03" rms="4.7618314623832703e-01" purity="4.8650956153869629e-01" nType="-99"/>
          </Node>
        </Node>
      </Node>
    </BinaryTree>
    <BinaryTree type="DecisionTree" boostWeight="1.0000000000000000e+00" itree="331">
      <Node pos="s" depth="0" NCoef="0" IVar="7" Cut="6.0000000000000000e+00" cType="1" res="-8.1231417134404182e-03" rms="4.5628380775451660e-01" purity="4.9078494310379028e-01" nType="0">
        <Node pos="l" depth="1" NCoef="0" IVar="3" Cut="1.2183589935302734e+01" cType="1" res="3.9993636310100555e-03" rms="4.6506500244140625e-01" purity="4.7798326611518860e-01" nType="0">
          <Node pos="l" depth="2" NCoef="0" IVar="1" Cut="2.4601270312500000e+05" cType="1" res="1.8254246097058058e-03" rms="4.6587073802947998e-01" purity="4.7801861166954041e-01" nType="0">
            <Node pos="l" depth="3" NCoef="0" IVar="-1" Cut="0.0000000000000000e+00" cType="1" res="2.9386186506599188e-03" rms="4.6800023317337036e-01" purity="4.9043118953704834e-01" nType="-99"/>
            <Node pos="r" depth="3" NCoef="0" IVar="-1" Cut="0.0000000000000000e+00" cType="1" res="-2.8354374691843987e-02" rms="4.3987184762954712e-01" purity="3.3425408601760864e-01" nType="-99"/>
          </Node>
          <Node pos="r" depth="2" NCoef="0" IVar="-1" Cut="0.0000000000000000e+00" cType="1" res="3.7872698158025742e-02" rms="4.5411530137062073e-01" purity="4.7754660248756409e-01" nType="-99"/>
        </Node>
        <Node pos="r" depth="1" NCoef="0" IVar="6" Cut="2.2438635826110840e+00" cType="1" res="-3.7652011960744858e-02" rms="4.3277826905250549e-01" purity="5.2193731069564819e-01" nType="0">
          <Node pos="l" depth="2" NCoef="0" IVar="3" Cut="3.0891137123107910e+00" cType="1" res="-1.3617012882605195e-03" rms="4.4905668497085571e-01" purity="6.1703234910964966e-01" nType="0">
            <Node pos="l" depth="3" NCoef="0" IVar="-1" Cut="0.0000000000000000e+00" cType="1" res="1.6714738681912422e-02" rms="4.6754273772239685e-01" purity="5.6800115108489990e-01" nType="-99"/>
            <Node pos="r" depth="3" NCoef="0" IVar="-1" Cut="0.0000000000000000e+00" cType="1" res="-1.3851493597030640e-02" rms="4.3850633502006531e-01" purity="6.4338082075119019e-01" nType="-99"/>
          </Node>
          <Node pos="r" depth="2" NCoef="0" IVar="-1" Cut="0.0000000000000000e+00" cType="1" res="-1.7647647764533758e-03" rms="3.7082192301750183e-01" purity="2.7410545945167542e-01" nType="-99"/>
        </Node>
      </Node>
    </BinaryTree>
    <BinaryTree type="DecisionTree" boostWeight="1.0000000000000000e+00" itree="332">
      <Node pos="s" depth="0" NCoef="0" IVar="5" Cut="-2.8422944545745850e+00" cType="1" res="-6.7566046491265297e-03" rms="4.6038851141929626e-01" purity="5.0195336341857910e-01" nType="0">
        <Node pos="l" depth="1" NCoef="0" IVar="-1" Cut="0.0000000000000000e+00" cType="1" res="-2.9744368512183428e-03" rms="4.3988376855850220e-01" purity="5.1796996593475342e-01" nType="-99"/>
        <Node pos="r" depth="1" NCoef="0" IVar="6" Cut="-1.6455651521682739e+00" cType="1" res="-3.8603106513619423e-03" rms="4.6198439598083496e-01" purity="5.0058376789093018e-01" nType="0">
          <Node pos="l" depth="2" NCoef="0" IVar="7" Cut="6.0000000000000000e+00" cType="1" res="-1.6293143853545189e-02" rms="4.7476920485496521e-01" purity="4.6176928281784058e-01" nType="0">
            <Node pos="l" depth="3" NCoef="0" IVar="-1" Cut="0.0000000000000000e+00" cType="1" res="-2.7173677459359169e-02" rms="4.7373458743095398e-01" purity="4.4262382388114929e-01" nType="-99"/>
            <Node pos="r" depth="3" NCoef="0" IVar="-1" Cut="0.0000000000000000e+00" cType="1" res="1.3806020841002464e-02" rms="4.7766417264938354e-01" purity="5.3585457801818848e-01" nType="-99"/>
          </Node>
          <Node pos="r" depth="2" NCoef="0" IVar="5" Cut="1.1468820571899414e+00" cType="1" res="2.1659547928720713e-03" rms="4.5553869009017944e-01" purity="5.1938557624816895e-01" nType="0">
            <Node pos="l" depth="3" NCoef="0" IVar="-1" Cut="0.0000000000000000e+00" cType="1" res="1.2595769949257374e-02" rms="4.5443469285964966e-01" purity="5.4694694280624390e-01" nType="-99"/>
            <Node pos="r" depth="3" NCoef="0" IVar="-1" Cut="0.0000000000000000e+00" cType="1" res="-1.2057020794600248e-03" rms="4.5613795518875122e-01" purity="4.9899345636367798e-01" nType="-99"/>
          </Node>
        </Node>
      </Node>
    </BinaryTree>
    <BinaryTree type="DecisionTree" boostWeight="1.0000000000000000e+00" itree="333">
      <Node pos="s" depth="0" NCoef="0" IVar="6" Cut="1.0471807718276978e+00" cType="1" res="-2.4978443980216980e-03" rms="4.6055558323860168e-01" purity="5.0282388925552368e-01" nType="0">
        <Node pos="l" depth="1" NCoef="0" IVar="6" Cut="-9.4768506288528442e-01" cType="1" res="0.0000000000000000e+00" rms="0.0000000000000000e+00" purity="5.2132886648178101e-01" nType="0">
          <Node pos="l" depth="2" NCoef="0" IVar="5" Cut="1.9449020624160767e+00" cType="1" res="-3.5237465053796768e-03" rms="4.6753025054931641e-01" purity="4.8445513844490051e-01" nType="0">
            <Node pos="l" depth="3" NCoef="0" IVar="-1" Cut="0.0000000000000000e+00" cType="1" res="-6.5995138138532639e-03" rms="4.7111931443214417e-01" purity="4.5873767137527466e-01" nType="-99"/>
            <Node pos="r" depth="3" NCoef="0" IVar="-1" Cut="0.0000000000000000e+00" cType="1" res="2.0532123744487762e-02" rms="4.4142800569534302e-01" purity="6.5993684530258179e-01" nType="-99"/>
          </Node>
          <Node pos="r" depth="2" NCoef="0" IVar="3" Cut="6.0180726051330566e+00" cType="1" res="1.6978232190012932e-02" rms="4.3921852111816406e-01" purity="6.0585039854049683e-01" nType="0">
            <Node pos="l" depth="3" NCoef="0" IVar="-1" Cut="0.0000000000000000e+00" cType="1" res="2.9553188011050224e-02" rms="4.4336652755737305e-01" purity="6.1125117540359497e-01" nType="-99"/>
            <Node pos="r" depth="3" NCoef="0" IVar="-1" Cut="0.0000000000000000e+00" cType="1" res="-5.8039752766489983e-03" rms="4.2879363894462585e-01" purity="5.9336972236633301e-01" nType="-99"/>
          </Node>
        </Node>
        <Node pos="r" depth="1" NCoef="0" IVar="4" Cut="2.7401976585388184e+00" cType="1" res="-9.8632946610450745e-03" rms="4.6235129237174988e-01" purity="4.7662070393562317e-01" nType="0">
          <Node pos="l" depth="2" NCoef="0" IVar="5" Cut="-7.4808841943740845e-01" cType="1" res="-1.5868173912167549e-02" rms="4.6297484636306763e-01" purity="4.6740350127220154e-01" nType="0">
            <Node pos="l" depth="3" NCoef="0" IVar="-1" Cut="0.0000000000000000e+00" cType="1" res="-4.2852992191910744e-03" rms="4.2296838760375977e-01" purity="5.4577046632766724e-01" nType="-99"/>
            <Node pos="r" depth="3" NCoef="0" IVar="-1" Cut="0.0000000000000000e+00" cType="1" res="-6.8082190118730068e-03" rms="4.7042521834373474e-01" purity="4.5110085606575012e-01" nType="-99"/>
          </Node>
          <Node pos="r" depth="2" NCoef="0" IVar="3" Cut="4.7033429145812988e+00" cType="1" res="9.1143939644098282e-03" rms="4.5985990762710571e-01" purity="5.0575023889541626e-01" nType="0">
            <Node pos="l" depth="3" NCoef="0" IVar="-1" Cut="0.0000000000000000e+00" cType="1" res="2.2086514160037041e-02" rms="4.6929547190666199e-01" purity="4.8089468479156494e-01" nType="-99"/>
            <Node pos="r" depth="3" NCoef="0" IVar="-1" Cut="0.0000000000000000e+00" cType="1" res="-4.8036756925284863e-03" rms="4.4777604937553406e-01" purity="5.3520524501800537e-01" nType="-99"/>
          </Node>
        </Node>
      </Node>
    </BinaryTree>
    <BinaryTree type="DecisionTree" boostWeight="1.0000000000000000e+00" itree="334">
      <Node pos="s" depth="0" NCoef="0" IVar="6" Cut="-2.8423566818237305e+00" cType="1" res="1.6536148905288428e-05" rms="4.6167236566543579e-01" purity="5.0747871398925781e-01" nType="0">
        <Node pos="l" depth="1" NCoef="0" IVar="7" Cut="5.0000000000000000e+00" cType="1" res="1.5207945369184017e-02" rms="4.7342967987060547e-01" purity="4.9610128998756409e-01" nType="0">
          <Node pos="l" depth="2" NCoef="0" IVar="-1" Cut="0.0000000000000000e+00" cType="1" res="5.2812267094850540e-03" rms="4.7403699159622192e-01" purity="4.6855214238166809e-01" nType="-99"/>
          <Node pos="r" depth="2" NCoef="0" IVar="-1" Cut="0.0000000000000000e+00" cType="1" res="2.9433256015181541e-02" rms="4.7223141789436340e-01" purity="5.3416103124618530e-01" nType="-99"/>
        </Node>
        <Node pos="r" depth="1" NCoef="0" IVar="4" Cut="1.3985550403594971e+00" cType="1" res="-1.6063094371929765e-03" rms="4.6036899089813232e-01" purity="5.0869411230087280e-01" nType="0">
          <Node pos="l" depth="2" NCoef="0" IVar="6" Cut="2.2866883277893066e+00" cType="1" res="-1.0321571491658688e-02" rms="4.5734098553657532e-01" purity="4.6412175893783569e-01" nType="0">
            <Node pos="l" depth="3" NCoef="0" IVar="-1" Cut="0.0000000000000000e+00" cType="1" res="-7.9336278140544891e-03" rms="4.5055618882179260e-01" purity="4.6208345890045166e-01" nType="-99"/>
            <Node pos="r" depth="3" NCoef="0" IVar="-1" Cut="0.0000000000000000e+00" cType="1" res="1.6357550397515297e-02" rms="4.7900700569152832e-01" purity="4.7108650207519531e-01" nType="-99"/>
          </Node>
          <Node pos="r" depth="2" NCoef="0" IVar="5" Cut="-1.3465685844421387e+00" cType="1" res="3.0172406695783138e-03" rms="4.6190056204795837e-01" purity="5.3234028816223145e-01" nType="0">
            <Node pos="l" depth="3" NCoef="0" IVar="-1" Cut="0.0000000000000000e+00" cType="1" res="1.2710918672382832e-02" rms="4.5658516883850098e-01" purity="5.5318576097488403e-01" nType="-99"/>
            <Node pos="r" depth="3" NCoef="0" IVar="-1" Cut="0.0000000000000000e+00" cType="1" res="-2.5939936749637127e-03" rms="4.6479469537734985e-01" purity="5.2047234773635864e-01" nType="-99"/>
          </Node>
        </Node>
      </Node>
    </BinaryTree>
    <BinaryTree type="DecisionTree" boostWeight="1.0000000000000000e+00" itree="335">
      <Node pos="s" depth="0" NCoef="0" IVar="5" Cut="-2.8420920372009277e+00" cType="1" res="-3.4265129361301661e-03" rms="4.6200916171073914e-01" purity="5.0367289781570435e-01" nType="0">
        <Node pos="l" depth="1" NCoef="0" IVar="-1" Cut="0.0000000000000000e+00" cType="1" res="-3.0658389441668987e-03" rms="4.4113987684249878e-01" purity="5.1622223854064941e-01" nType="-99"/>
        <Node pos="r" depth="1" NCoef="0" IVar="6" Cut="-2.2439589500427246e+00" cType="1" res="-7.9958153946790844e-05" rms="4.6363013982772827e-01" purity="5.0258076190948486e-01" nType="0">
          <Node pos="l" depth="2" NCoef="0" IVar="6" Cut="-2.4577188491821289e+00" cType="1" res="0.0000000000000000e+00" rms="0.0000000000000000e+00" purity="4.7552880644798279e-01" nType="0">
            <Node pos="l" depth="3" NCoef="0" IVar="-1" Cut="0.0000000000000000e+00" cType="1" res="6.5658539533615112e-03" rms="4.7609362006187439e-01" purity="4.6824696660041809e-01" nType="-99"/>
            <Node pos="r" depth="3" NCoef="0" IVar="-1" Cut="0.0000000000000000e+00" cType="1" res="6.4790286123752594e-02" rms="4.7502678632736206e-01" purity="5.0865513086318970e-01" nType="-99"/>
          </Node>
          <Node pos="r" depth="2" NCoef="0" IVar="4" Cut="2.7401976585388184e+00" cType="1" res="-4.8166178166866302e-03" rms="4.5931777358055115e-01" purity="5.1144564151763916e-01" nType="0">
            <Node pos="l" depth="3" NCoef="0" IVar="-1" Cut="0.0000000000000000e+00" cType="1" res="3.8115549250505865e-04" rms="4.5980376005172729e-01" purity="5.1274663209915161e-01" nType="-99"/>
            <Node pos="r" depth="3" NCoef="0" IVar="-1" Cut="0.0000000000000000e+00" cType="1" res="-2.1362680941820145e-02" rms="4.5715326070785522e-01" purity="5.0693428516387939e-01" nType="-99"/>
          </Node>
        </Node>
      </Node>
    </BinaryTree>
    <BinaryTree type="DecisionTree" boostWeight="1.0000000000000000e+00" itree="336">
      <Node pos="s" depth="0" NCoef="0" IVar="9" Cut="4.5680769531250000e+04" cType="1" res="-7.0494082756340504e-03" rms="4.6226188540458679e-01" purity="4.9952220916748047e-01" nType="0">
        <Node pos="l" depth="1" NCoef="0" IVar="5" Cut="1.0470356941223145e+00" cType="1" res="1.7672873218543828e-04" rms="4.6923619508743286e-01" purity="4.2164403200149536e-01" nType="0">
          <Node pos="l" depth="2" NCoef="0" IVar="4" Cut="2.1050257682800293e+00" cType="1" res="-7.3538008145987988e-03" rms="4.6801775693893433e-01" purity="4.1026139259338379e-01" nType="0">
            <Node pos="l" depth="3" NCoef="0" IVar="-1" Cut="0.0000000000000000e+00" cType="1" res="-1.8633751198649406e-02" rms="4.6339696645736694e-01" purity="3.7627395987510681e-01" nType="-99"/>
            <Node pos="r" depth="3" NCoef="0" IVar="-1" Cut="0.0000000000000000e+00" cType="1" res="6.2345298938453197e-03" rms="4.7381532192230225e-01" purity="4.5574155449867249e-01" nType="-99"/>
          </Node>
          <Node pos="r" depth="2" NCoef="0" IVar="5" Cut="2.5429358482360840e+00" cType="1" res="1.1928661726415157e-02" rms="4.7089079022407532e-01" purity="4.3940746784210205e-01" nType="0">
            <Node pos="l" depth="3" NCoef="0" IVar="-1" Cut="0.0000000000000000e+00" cType="1" res="2.2702496498823166e-02" rms="4.7330129146575928e-01" purity="4.4711190462112427e-01" nType="-99"/>
            <Node pos="r" depth="3" NCoef="0" IVar="-1" Cut="0.0000000000000000e+00" cType="1" res="-1.6641624271869659e-02" rms="4.6447455883026123e-01" purity="4.2242923378944397e-01" nType="-99"/>
          </Node>
        </Node>
        <Node pos="r" depth="1" NCoef="0" IVar="4" Cut="8.8610589504241943e-01" cType="1" res="-1.7024042084813118e-02" rms="4.5226863026618958e-01" purity="6.0702168941497803e-01" nType="0">
          <Node pos="l" depth="2" NCoef="0" IVar="-1" Cut="0.0000000000000000e+00" cType="1" res="2.3045556154102087e-03" rms="4.6923211216926575e-01" purity="6.0044980049133301e-01" nType="-99"/>
          <Node pos="r" depth="2" NCoef="0" IVar="4" Cut="1.5649330615997314e+00" cType="1" res="-2.1144336089491844e-02" rms="4.4840654730796814e-01" purity="6.0844397544860840e-01" nType="0">
            <Node pos="l" depth="3" NCoef="0" IVar="-1" Cut="0.0000000000000000e+00" cType="1" res="-2.6454515755176544e-03" rms="4.3468478322029114e-01" purity="5.4760462045669556e-01" nType="-99"/>
            <Node pos="r" depth="3" NCoef="0" IVar="-1" Cut="0.0000000000000000e+00" cType="1" res="-9.1493539512157440e-03" rms="4.5336976647377014e-01" purity="6.3288933038711548e-01" nType="-99"/>
          </Node>
        </Node>
      </Node>
    </BinaryTree>
    <BinaryTree type="DecisionTree" boostWeight="1.0000000000000000e+00" itree="337">
      <Node pos="s" depth="0" NCoef="0" IVar="6" Cut="2.2439978122711182e+00" cType="1" res="0.0000000000000000e+00" rms="0.0000000000000000e+00" purity="5.0082480907440186e-01" nType="0">
        <Node pos="l" depth="1" NCoef="0" IVar="5" Cut="2.5430874824523926e+00" cType="1" res="6.4064265461638570e-04" rms="4.5607963204383850e-01" purity="5.1538658142089844e-01" nType="0">
          <Node pos="l" depth="2" NCoef="0" IVar="8" Cut="1.3470940625000000e+05" cType="1" res="-3.4302410203963518e-03" rms="4.5555001497268677e-01" purity="5.0829237699508667e-01" nType="0">
            <Node pos="l" depth="3" NCoef="0" IVar="-1" Cut="0.0000000000000000e+00" cType="1" res="-3.6648376844823360e-03" rms="4.5831027626991272e-01" purity="4.9168249964714050e-01" nType="-99"/>
            <Node pos="r" depth="3" NCoef="0" IVar="-1" Cut="0.0000000000000000e+00" cType="1" res="3.7240464240312576e-02" rms="4.1908457875251770e-01" purity="7.1241331100463867e-01" nType="-99"/>
          </Node>
          <Node pos="r" depth="2" NCoef="0" IVar="6" Cut="1.9183547794818878e-01" cType="1" res="2.5303177535533905e-02" rms="4.5850300788879395e-01" purity="5.5836552381515503e-01" nType="0">
            <Node pos="l" depth="3" NCoef="0" IVar="-1" Cut="0.0000000000000000e+00" cType="1" res="2.2289264015853405e-03" rms="4.4678062200546265e-01" purity="6.0147738456726074e-01" nType="-99"/>
            <Node pos="r" depth="3" NCoef="0" IVar="-1" Cut="0.0000000000000000e+00" cType="1" res="5.0902627408504486e-02" rms="4.6742472052574158e-01" purity="5.2135026454925537e-01" nType="-99"/>
          </Node>
        </Node>
        <Node pos="r" depth="1" NCoef="0" IVar="6" Cut="2.6715474128723145e+00" cType="1" res="-1.8749060109257698e-02" rms="4.6860414743423462e-01" purity="4.5785343647003174e-01" nType="0">
          <Node pos="l" depth="2" NCoef="0" IVar="6" Cut="2.4883692264556885e+00" cType="1" res="-3.6238189786672592e-02" rms="4.6270674467086792e-01" purity="4.3042042851448059e-01" nType="0">
            <Node pos="l" depth="3" NCoef="0" IVar="-1" Cut="0.0000000000000000e+00" cType="1" res="-6.4874980598688126e-03" rms="4.7097447514533997e-01" purity="4.6627384424209595e-01" nType="-99"/>
            <Node pos="r" depth="3" NCoef="0" IVar="-1" Cut="0.0000000000000000e+00" cType="1" res="-1.5977846458554268e-02" rms="4.5244404673576355e-01" purity="3.9100825786590576e-01" nType="-99"/>
          </Node>
          <Node pos="r" depth="2" NCoef="0" IVar="6" Cut="2.9401791095733643e+00" cType="1" res="-6.4109615050256252e-03" rms="4.7233092784881592e-01" purity="4.7720661759376526e-01" nType="0">
            <Node pos="l" depth="3" NCoef="0" IVar="-1" Cut="0.0000000000000000e+00" cType="1" res="3.7837182171642780e-03" rms="4.7357010841369629e-01" purity="4.7683617472648621e-01" nType="-99"/>
            <Node pos="r" depth="3" NCoef="0" IVar="-1" Cut="0.0000000000000000e+00" cType="1" res="-1.5268528833985329e-02" rms="4.7054359316825867e-01" purity="4.7765606641769409e-01" nType="-99"/>
          </Node>
        </Node>
      </Node>
    </BinaryTree>
    <BinaryTree type="DecisionTree" boostWeight="1.0000000000000000e+00" itree="338">
      <Node pos="s" depth="0" NCoef="0" IVar="6" Cut="2.8423902988433838e+00" cType="1" res="-1.0423986241221428e-03" rms="4.6326735615730286e-01" purity="5.0741666555404663e-01" nType="0">
        <Node pos="l" depth="1" NCoef="0" IVar="9" Cut="4.6279792968750000e+04" cType="1" res="-3.9884028956294060e-03" rms="4.6195855736732483e-01" purity="5.0712603330612183e-01" nType="0">
          <Node pos="l" depth="2" NCoef="0" IVar="8" Cut="4.8210371093750000e+04" cType="1" res="2.7722348459064960e-03" rms="4.6786326169967651e-01" purity="4.2237272858619690e-01" nType="0">
            <Node pos="l" depth="3" NCoef="0" IVar="-1" Cut="0.0000000000000000e+00" cType="1" res="9.6712326630949974e-03" rms="4.6009963750839233e-01" purity="3.6554762721061707e-01" nType="-99"/>
            <Node pos="r" depth="3" NCoef="0" IVar="-1" Cut="0.0000000000000000e+00" cType="1" res="-6.0588698834180832e-03" rms="4.7598347067832947e-01" purity="4.8379454016685486e-01" nType="-99"/>
          </Node>
          <Node pos="r" depth="2" NCoef="0" IVar="3" Cut="6.2383723258972168e+00" cType="1" res="-1.3476862572133541e-02" rms="4.5337173342704773e-01" purity="6.2607604265213013e-01" nType="0">
            <Node pos="l" depth="3" NCoef="0" IVar="-1" Cut="0.0000000000000000e+00" cType="1" res="-2.5227414444088936e-02" rms="4.6356123685836792e-01" purity="6.0417181253433228e-01" nType="-99"/>
            <Node pos="r" depth="3" NCoef="0" IVar="-1" Cut="0.0000000000000000e+00" cType="1" res="5.0212698988616467e-03" rms="4.3218317627906799e-01" purity="6.6852140426635742e-01" nType="-99"/>
          </Node>
        </Node>
        <Node pos="r" depth="1" NCoef="0" IVar="4" Cut="1.8330103158950806e+00" cType="1" res="2.5497516617178917e-02" rms="4.7407102584838867e-01" purity="5.1003557443618774e-01" nType="0">
          <Node pos="l" depth="2" NCoef="0" IVar="-1" Cut="0.0000000000000000e+00" cType="1" res="1.6351649537682533e-02" rms="4.7267204523086548e-01" purity="4.6430292725563049e-01" nType="-99"/>
          <Node pos="r" depth="2" NCoef="0" IVar="-1" Cut="0.0000000000000000e+00" cType="1" res="3.5298772156238556e-02" rms="4.7494626045227051e-01" purity="5.4369592666625977e-01" nType="-99"/>
        </Node>
      </Node>
    </BinaryTree>
    <BinaryTree type="DecisionTree" boostWeight="1.0000000000000000e+00" itree="339">
      <Node pos="s" depth="0" NCoef="0" IVar="7" Cut="6.0000000000000000e+00" cType="1" res="-1.6850949032232165e-03" rms="4.6036005020141602e-01" purity="5.0068348646163940e-01" nType="0">
        <Node pos="l" depth="1" NCoef="0" IVar="6" Cut="-2.2439432144165039e+00" cType="1" res="4.9180691130459309e-03" rms="4.6454527974128723e-01" purity="4.7388556599617004e-01" nType="0">
          <Node pos="l" depth="2" NCoef="0" IVar="8" Cut="5.8678101562500000e+04" cType="1" res="1.4735170640051365e-02" rms="4.7455760836601257e-01" purity="4.7997400164604187e-01" nType="0">
            <Node pos="l" depth="3" NCoef="0" IVar="-1" Cut="0.0000000000000000e+00" cType="1" res="1.7892738105729222e-03" rms="4.7086209058761597e-01" purity="4.0777248144149780e-01" nType="-99"/>
            <Node pos="r" depth="3" NCoef="0" IVar="-1" Cut="0.0000000000000000e+00" cType="1" res="4.3387770652770996e-02" rms="4.7934484481811523e-01" purity="5.8817976713180542e-01" nType="-99"/>
          </Node>
          <Node pos="r" depth="2" NCoef="0" IVar="3" Cut="7.8287854194641113e+00" cType="1" res="1.0869984980672598e-03" rms="4.6052220463752747e-01" purity="4.7150957584381104e-01" nType="0">
            <Node pos="l" depth="3" NCoef="0" IVar="-1" Cut="0.0000000000000000e+00" cType="1" res="-2.8576417826116085e-03" rms="4.6230712532997131e-01" purity="4.6806278824806213e-01" nType="-99"/>
            <Node pos="r" depth="3" NCoef="0" IVar="-1" Cut="0.0000000000000000e+00" cType="1" res="1.7466820776462555e-02" rms="4.5348060131072998e-01" purity="4.8399409651756287e-01" nType="-99"/>
          </Node>
        </Node>
        <Node pos="r" depth="1" NCoef="0" IVar="3" Cut="3.4856102466583252e+00" cType="1" res="-1.8803566694259644e-02" rms="4.4890078902244568e-01" purity="5.7007563114166260e-01" nType="0">
          <Node pos="l" depth="2" NCoef="0" IVar="6" Cut="1.4884889125823975e-01" cType="1" res="0.0000000000000000e+00" rms="0.0000000000000000e+00" purity="4.7905233502388000e-01" nType="0">
            <Node pos="l" depth="3" NCoef="0" IVar="-1" Cut="0.0000000000000000e+00" cType="1" res="5.4048653692007065e-03" rms="4.7224250435829163e-01" purity="5.6257528066635132e-01" nType="-99"/>
            <Node pos="r" depth="3" NCoef="0" IVar="-1" Cut="0.0000000000000000e+00" cType="1" res="-2.2453540004789829e-03" rms="4.2940077185630798e-01" purity="4.0989452600479126e-01" nType="-99"/>
          </Node>
          <Node pos="r" depth="2" NCoef="0" IVar="5" Cut="-1.9442183971405029e+00" cType="1" res="-4.5296163298189640e-03" rms="4.4667053222656250e-01" purity="6.3896727561950684e-01" nType="0">
            <Node pos="l" depth="3" NCoef="0" IVar="-1" Cut="0.0000000000000000e+00" cType="1" res="-3.9780076593160629e-02" rms="4.4040828943252563e-01" purity="6.5143018960952759e-01" nType="-99"/>
            <Node pos="r" depth="3" NCoef="0" IVar="-1" Cut="0.0000000000000000e+00" cType="1" res="5.8667198754847050e-03" rms="4.4845604896545410e-01" purity="6.3467174768447876e-01" nType="-99"/>
          </Node>
        </Node>
      </Node>
    </BinaryTree>
    <BinaryTree type="DecisionTree" boostWeight="1.0000000000000000e+00" itree="340">
      <Node pos="s" depth="0" NCoef="0" IVar="6" Cut="-2.2439589500427246e+00" cType="1" res="-8.4336781874299049e-03" rms="4.5984774827957153e-01" purity="4.9866917729377747e-01" nType="0">
        <Node pos="l" depth="1" NCoef="0" IVar="7" Cut="5.0000000000000000e+00" cType="1" res="8.3642611280083656e-03" rms="4.7266098856925964e-01" purity="4.9292188882827759e-01" nType="0">
          <Node pos="l" depth="2" NCoef="0" IVar="6" Cut="-2.7996969223022461e+00" cType="1" res="-4.3282597325742245e-03" rms="4.7055071592330933e-01" purity="4.5324486494064331e-01" nType="0">
            <Node pos="l" depth="3" NCoef="0" IVar="-1" Cut="0.0000000000000000e+00" cType="1" res="1.6784675419330597e-02" rms="4.7593697905540466e-01" purity="4.9105301499366760e-01" nType="-99"/>
            <Node pos="r" depth="3" NCoef="0" IVar="-1" Cut="0.0000000000000000e+00" cType="1" res="-2.7037598192691803e-02" rms="4.6496114134788513e-01" purity="4.1904386878013611e-01" nType="-99"/>
          </Node>
          <Node pos="r" depth="2" NCoef="0" IVar="6" Cut="-2.6286463737487793e+00" cType="1" res="2.4398019537329674e-02" rms="4.7485697269439697e-01" purity="5.4313844442367554e-01" nType="0">
            <Node pos="l" depth="3" NCoef="0" IVar="-1" Cut="0.0000000000000000e+00" cType="1" res="9.5297396183013916e-03" rms="4.7623133659362793e-01" purity="5.2004349231719971e-01" nType="-99"/>
            <Node pos="r" depth="3" NCoef="0" IVar="-1" Cut="0.0000000000000000e+00" cType="1" res="4.7114897519350052e-02" rms="4.7181007266044617e-01" purity="5.7696384191513062e-01" nType="-99"/>
          </Node>
        </Node>
        <Node pos="r" depth="1" NCoef="0" IVar="9" Cut="4.4285562500000000e+04" cType="1" res="-1.3966231606900692e-02" rms="4.5540609955787659e-01" purity="5.0056356191635132e-01" nType="0">
          <Node pos="l" depth="2" NCoef="0" IVar="7" Cut="6.0000000000000000e+00" cType="1" res="-2.3171039298176765e-02" rms="4.5630013942718506e-01" purity="3.8885912299156189e-01" nType="0">
            <Node pos="l" depth="3" NCoef="0" IVar="-1" Cut="0.0000000000000000e+00" cType="1" res="-7.2753168642520905e-03" rms="4.5558285713195801e-01" purity="3.8472515344619751e-01" nType="-99"/>
            <Node pos="r" depth="3" NCoef="0" IVar="-1" Cut="0.0000000000000000e+00" cType="1" res="-5.5872229859232903e-03" rms="4.5951974391937256e-01" purity="4.1828101873397827e-01" nType="-99"/>
          </Node>
          <Node pos="r" depth="2" NCoef="0" IVar="5" Cut="7.4808245897293091e-01" cType="1" res="-2.9063273686915636e-03" rms="4.5407977700233459e-01" purity="6.3468372821807861e-01" nType="0">
            <Node pos="l" depth="3" NCoef="0" IVar="-1" Cut="0.0000000000000000e+00" cType="1" res="1.0639870539307594e-02" rms="4.5211777091026306e-01" purity="6.4511382579803467e-01" nType="-99"/>
            <Node pos="r" depth="3" NCoef="0" IVar="-1" Cut="0.0000000000000000e+00" cType="1" res="-1.5578689053654671e-02" rms="4.5573520660400391e-01" purity="6.2430965900421143e-01" nType="-99"/>
          </Node>
        </Node>
      </Node>
    </BinaryTree>
    <BinaryTree type="DecisionTree" boostWeight="1.0000000000000000e+00" itree="341">
      <Node pos="s" depth="0" NCoef="0" IVar="4" Cut="8.8245928287506104e-01" cType="1" res="-5.2121300250291824e-03" rms="4.6275067329406738e-01" purity="5.0317406654357910e-01" nType="0">
        <Node pos="l" depth="1" NCoef="0" IVar="6" Cut="-1.3457837104797363e+00" cType="1" res="8.2447333261370659e-03" rms="4.5808246731758118e-01" purity="4.7008436918258667e-01" nType="0">
          <Node pos="l" depth="2" NCoef="0" IVar="-1" Cut="0.0000000000000000e+00" cType="1" res="-2.5521403178572655e-02" rms="4.6238228678703308e-01" purity="4.2988654971122742e-01" nType="-99"/>
          <Node pos="r" depth="2" NCoef="0" IVar="3" Cut="4.7857060432434082e+00" cType="1" res="0.0000000000000000e+00" rms="0.0000000000000000e+00" purity="4.8850587010383606e-01" nType="0">
            <Node pos="l" depth="3" NCoef="0" IVar="-1" Cut="0.0000000000000000e+00" cType="1" res="4.2301900684833527e-02" rms="4.6738392114639282e-01" purity="5.2325898408889771e-01" nType="-99"/>
            <Node pos="r" depth="3" NCoef="0" IVar="-1" Cut="0.0000000000000000e+00" cType="1" res="6.9529609754681587e-03" rms="4.4300016760826111e-01" purity="4.5401677489280701e-01" nType="-99"/>
          </Node>
        </Node>
        <Node pos="r" depth="1" NCoef="0" IVar="4" Cut="1.7890179157257080e+00" cType="1" res="-7.7151223085820675e-03" rms="4.6357068419456482e-01" purity="5.0932878255844116e-01" nType="0">
          <Node pos="l" depth="2" NCoef="0" IVar="9" Cut="5.2399617187500000e+04" cType="1" res="-1.9001794978976250e-02" rms="4.6129116415977478e-01" purity="4.7697633504867554e-01" nType="0">
            <Node pos="l" depth="3" NCoef="0" IVar="-1" Cut="0.0000000000000000e+00" cType="1" res="-2.9680320993065834e-02" rms="4.6594634652137756e-01" purity="4.0561825037002563e-01" nType="-99"/>
            <Node pos="r" depth="3" NCoef="0" IVar="-1" Cut="0.0000000000000000e+00" cType="1" res="6.1140483012422919e-04" rms="4.4833433628082275e-01" purity="6.6312187910079956e-01" nType="-99"/>
          </Node>
          <Node pos="r" depth="2" NCoef="0" IVar="5" Cut="-2.5430996417999268e+00" cType="1" res="0.0000000000000000e+00" rms="0.0000000000000000e+00" purity="5.2800244092941284e-01" nType="0">
            <Node pos="l" depth="3" NCoef="0" IVar="-1" Cut="0.0000000000000000e+00" cType="1" res="-2.4654127657413483e-02" rms="4.5856514573097229e-01" purity="5.6344532966613770e-01" nType="-99"/>
            <Node pos="r" depth="3" NCoef="0" IVar="-1" Cut="0.0000000000000000e+00" cType="1" res="2.0052690524607897e-03" rms="4.6580743789672852e-01" purity="5.2152454853057861e-01" nType="-99"/>
          </Node>
        </Node>
      </Node>
    </BinaryTree>
    <BinaryTree type="DecisionTree" boostWeight="1.0000000000000000e+00" itree="342">
      <Node pos="s" depth="0" NCoef="0" IVar="4" Cut="1.8937221765518188e+00" cType="1" res="0.0000000000000000e+00" rms="0.0000000000000000e+00" purity="5.0536638498306274e-01" nType="0">
        <Node pos="l" depth="1" NCoef="0" IVar="7" Cut="6.0000000000000000e+00" cType="1" res="8.0418596044182777e-03" rms="4.6422326564788818e-01" purity="4.8850101232528687e-01" nType="0">
          <Node pos="l" depth="2" NCoef="0" IVar="0" Cut="2.1133765625000000e+05" cType="1" res="1.3474062085151672e-02" rms="4.6451419591903687e-01" purity="4.5585188269615173e-01" nType="0">
            <Node pos="l" depth="3" NCoef="0" IVar="-1" Cut="0.0000000000000000e+00" cType="1" res="1.8008187413215637e-02" rms="4.6761283278465271e-01" purity="4.4674572348594666e-01" nType="-99"/>
            <Node pos="r" depth="3" NCoef="0" IVar="-1" Cut="0.0000000000000000e+00" cType="1" res="-5.9453430585563183e-03" rms="4.4481527805328369e-01" purity="5.1120245456695557e-01" nType="-99"/>
          </Node>
          <Node pos="r" depth="2" NCoef="0" IVar="6" Cut="4.4914293289184570e-01" cType="1" res="-7.8464290127158165e-03" rms="4.6304935216903687e-01" purity="5.8367025852203369e-01" nType="0">
            <Node pos="l" depth="3" NCoef="0" IVar="-1" Cut="0.0000000000000000e+00" cType="1" res="-2.8063181787729263e-02" rms="4.5957842469215393e-01" purity="5.8561456203460693e-01" nType="-99"/>
            <Node pos="r" depth="3" NCoef="0" IVar="-1" Cut="0.0000000000000000e+00" cType="1" res="1.4322686009109020e-02" rms="4.6667787432670593e-01" purity="5.8118134737014771e-01" nType="-99"/>
          </Node>
        </Node>
        <Node pos="r" depth="1" NCoef="0" IVar="5" Cut="1.4966708421707153e-01" cType="1" res="-1.0737433098256588e-02" rms="4.6222734451293945e-01" purity="5.2208608388900757e-01" nType="0">
          <Node pos="l" depth="2" NCoef="0" IVar="8" Cut="9.2504101562500000e+04" cType="1" res="-6.8222050322219729e-04" rms="4.6104159951210022e-01" purity="5.2944087982177734e-01" nType="0">
            <Node pos="l" depth="3" NCoef="0" IVar="-1" Cut="0.0000000000000000e+00" cType="1" res="5.4350313730537891e-03" rms="4.6521285176277161e-01" purity="5.0059115886688232e-01" nType="-99"/>
            <Node pos="r" depth="3" NCoef="0" IVar="-1" Cut="0.0000000000000000e+00" cType="1" res="-2.3198368027806282e-02" rms="4.4332358241081238e-01" purity="6.4437550306320190e-01" nType="-99"/>
          </Node>
          <Node pos="r" depth="2" NCoef="0" IVar="5" Cut="1.4319168329238892e+00" cType="1" res="-2.1265689283609390e-02" rms="4.6323177218437195e-01" purity="5.1438534259796143e-01" nType="0">
            <Node pos="l" depth="3" NCoef="0" IVar="-1" Cut="0.0000000000000000e+00" cType="1" res="-3.6872476339340210e-02" rms="4.5771288871765137e-01" purity="4.5656970143318176e-01" nType="-99"/>
            <Node pos="r" depth="3" NCoef="0" IVar="-1" Cut="0.0000000000000000e+00" cType="1" res="-1.0037068277597427e-02" rms="4.6464490890502930e-01" purity="5.3473329544067383e-01" nType="-99"/>
          </Node>
        </Node>
      </Node>
    </BinaryTree>
    <BinaryTree type="DecisionTree" boostWeight="1.0000000000000000e+00" itree="343">
      <Node pos="s" depth="0" NCoef="0" IVar="2" Cut="1.9802352905273438e+02" cType="1" res="-5.9653725475072861e-03" rms="4.6447965502738953e-01" purity="4.9992915987968445e-01" nType="0">
        <Node pos="l" depth="1" NCoef="0" IVar="4" Cut="8.6870193481445312e-01" cType="1" res="1.9236252410337329e-03" rms="4.6210995316505432e-01" purity="5.2212738990783691e-01" nType="0">
          <Node pos="l" depth="2" NCoef="0" IVar="-1" Cut="0.0000000000000000e+00" cType="1" res="2.0133132115006447e-02" rms="4.6078383922576904e-01" purity="5.0194448232650757e-01" nType="-99"/>
          <Node pos="r" depth="2" NCoef="0" IVar="5" Cut="2.5429179668426514e+00" cType="1" res="-2.4401145055890083e-03" rms="4.6219217777252197e-01" purity="5.2554786205291748e-01" nType="0">
            <Node pos="l" depth="3" NCoef="0" IVar="-1" Cut="0.0000000000000000e+00" cType="1" res="-6.5003763884305954e-03" rms="4.6252277493476868e-01" purity="5.1551997661590576e-01" nType="-99"/>
            <Node pos="r" depth="3" NCoef="0" IVar="-1" Cut="0.0000000000000000e+00" cType="1" res="3.1914498656988144e-02" rms="4.5915606617927551e-01" purity="5.8886170387268066e-01" nType="-99"/>
          </Node>
        </Node>
        <Node pos="r" depth="1" NCoef="0" IVar="6" Cut="-2.8422563076019287e+00" cType="1" res="-1.6171423718333244e-02" rms="4.6733000874519348e-01" purity="4.7121110558509827e-01" nType="0">
          <Node pos="l" depth="2" NCoef="0" IVar="-1" Cut="0.0000000000000000e+00" cType="1" res="-4.9225050956010818e-02" rms="4.7139647603034973e-01" purity="4.8498004674911499e-01" nType="-99"/>
          <Node pos="r" depth="2" NCoef="0" IVar="9" Cut="6.3571792968750000e+04" cType="1" res="-1.3174869120121002e-02" rms="4.6674042940139771e-01" purity="4.6952107548713684e-01" nType="0">
            <Node pos="l" depth="3" NCoef="0" IVar="-1" Cut="0.0000000000000000e+00" cType="1" res="-1.7953854054212570e-02" rms="4.6747073531150818e-01" purity="4.1056528687477112e-01" nType="-99"/>
            <Node pos="r" depth="3" NCoef="0" IVar="-1" Cut="0.0000000000000000e+00" cType="1" res="7.2425743564963341e-04" rms="4.6428558230400085e-01" purity="6.4454561471939087e-01" nType="-99"/>
          </Node>
        </Node>
      </Node>
    </BinaryTree>
    <BinaryTree type="DecisionTree" boostWeight="1.0000000000000000e+00" itree="344">
      <Node pos="s" depth="0" NCoef="0" IVar="4" Cut="1.3985550403594971e+00" cType="1" res="0.0000000000000000e+00" rms="0.0000000000000000e+00" purity="5.0042986869812012e-01" nType="0">
        <Node pos="l" depth="1" NCoef="0" IVar="0" Cut="1.7734792187500000e+05" cType="1" res="-1.3279588893055916e-02" rms="4.5316326618194580e-01" purity="4.5377212762832642e-01" nType="0">
          <Node pos="l" depth="2" NCoef="0" IVar="4" Cut="7.1301436424255371e-01" cType="1" res="-2.2034831345081329e-02" rms="4.5811888575553894e-01" purity="4.2729854583740234e-01" nType="0">
            <Node pos="l" depth="3" NCoef="0" IVar="-1" Cut="0.0000000000000000e+00" cType="1" res="7.8757721930742264e-03" rms="4.7051972150802612e-01" purity="4.7192248702049255e-01" nType="-99"/>
            <Node pos="r" depth="3" NCoef="0" IVar="-1" Cut="0.0000000000000000e+00" cType="1" res="-1.1074546724557877e-02" rms="4.5291480422019958e-01" purity="4.1093173623085022e-01" nType="-99"/>
          </Node>
          <Node pos="r" depth="2" NCoef="0" IVar="6" Cut="4.4845098257064819e-01" cType="1" res="5.5163539946079254e-03" rms="4.4175115227699280e-01" purity="5.1060628890991211e-01" nType="0">
            <Node pos="l" depth="3" NCoef="0" IVar="-1" Cut="0.0000000000000000e+00" cType="1" res="2.1833894774317741e-02" rms="4.3972244858741760e-01" purity="5.2529263496398926e-01" nType="-99"/>
            <Node pos="r" depth="3" NCoef="0" IVar="-1" Cut="0.0000000000000000e+00" cType="1" res="-1.6056174412369728e-02" rms="4.4393172860145569e-01" purity="4.9121886491775513e-01" nType="-99"/>
          </Node>
        </Node>
        <Node pos="r" depth="1" NCoef="0" IVar="3" Cut="-4.7924369573593140e-01" cType="1" res="4.6790791675448418e-03" rms="4.6473476290702820e-01" purity="5.2516341209411621e-01" nType="0">
          <Node pos="l" depth="2" NCoef="0" IVar="-1" Cut="0.0000000000000000e+00" cType="1" res="-1.6100017353892326e-02" rms="4.6734857559204102e-01" purity="3.7967625260353088e-01" nType="-99"/>
          <Node pos="r" depth="2" NCoef="0" IVar="9" Cut="6.5249605468750000e+04" cType="1" res="0.0000000000000000e+00" rms="0.0000000000000000e+00" purity="5.4183739423751831e-01" nType="0">
            <Node pos="l" depth="3" NCoef="0" IVar="-1" Cut="0.0000000000000000e+00" cType="1" res="1.1655610986053944e-02" rms="4.7121840715408325e-01" purity="5.0787150859832764e-01" nType="-99"/>
            <Node pos="r" depth="3" NCoef="0" IVar="-1" Cut="0.0000000000000000e+00" cType="1" res="-1.2252437882125378e-02" rms="4.3384149670600891e-01" purity="6.8496137857437134e-01" nType="-99"/>
          </Node>
        </Node>
      </Node>
    </BinaryTree>
    <BinaryTree type="DecisionTree" boostWeight="1.0000000000000000e+00" itree="345">
      <Node pos="s" depth="0" NCoef="0" IVar="6" Cut="2.2439978122711182e+00" cType="1" res="-6.6696894355118275e-03" rms="4.5688596367835999e-01" purity="4.8897951841354370e-01" nType="0">
        <Node pos="l" depth="1" NCoef="0" IVar="3" Cut="3.4933636188507080e+00" cType="1" res="-1.3247565366327763e-03" rms="4.5863223075866699e-01" purity="5.1150023937225342e-01" nType="0">
          <Node pos="l" depth="2" NCoef="0" IVar="6" Cut="1.4740606546401978e+00" cType="1" res="-1.0184498503804207e-02" rms="4.6485978364944458e-01" purity="4.7672310471534729e-01" nType="0">
            <Node pos="l" depth="3" NCoef="0" IVar="-1" Cut="0.0000000000000000e+00" cType="1" res="-1.1935137212276459e-02" rms="4.6632972359657288e-01" purity="4.7693297266960144e-01" nType="-99"/>
            <Node pos="r" depth="3" NCoef="0" IVar="-1" Cut="0.0000000000000000e+00" cType="1" res="1.1900667101144791e-02" rms="4.5594790577888489e-01" purity="4.7564706206321716e-01" nType="-99"/>
          </Node>
          <Node pos="r" depth="2" NCoef="0" IVar="7" Cut="5.0000000000000000e+00" cType="1" res="5.2975988946855068e-03" rms="4.5380982756614685e-01" purity="5.3747361898422241e-01" nType="0">
            <Node pos="l" depth="3" NCoef="0" IVar="-1" Cut="0.0000000000000000e+00" cType="1" res="2.6077380403876305e-02" rms="4.6471369266510010e-01" purity="4.3281832337379456e-01" nType="-99"/>
            <Node pos="r" depth="3" NCoef="0" IVar="-1" Cut="0.0000000000000000e+00" cType="1" res="-5.3461077623069286e-03" rms="4.4637829065322876e-01" purity="6.0511392354965210e-01" nType="-99"/>
          </Node>
        </Node>
        <Node pos="r" depth="1" NCoef="0" IVar="0" Cut="2.1094926562500000e+05" cType="1" res="-2.0921437069773674e-02" rms="4.5188781619071960e-01" purity="4.2893031239509583e-01" nType="0">
          <Node pos="l" depth="2" NCoef="0" IVar="0" Cut="1.5030750000000000e+05" cType="1" res="-3.2018452882766724e-02" rms="4.5143571496009827e-01" purity="3.9693811535835266e-01" nType="0">
            <Node pos="l" depth="3" NCoef="0" IVar="-1" Cut="0.0000000000000000e+00" cType="1" res="-2.0165203604847193e-03" rms="4.3734389543533325e-01" purity="3.4027817845344543e-01" nType="-99"/>
            <Node pos="r" depth="3" NCoef="0" IVar="-1" Cut="0.0000000000000000e+00" cType="1" res="5.9825752396136522e-04" rms="4.6919828653335571e-01" purity="4.7927793860435486e-01" nType="-99"/>
          </Node>
          <Node pos="r" depth="2" NCoef="0" IVar="-1" Cut="0.0000000000000000e+00" cType="1" res="5.5631417781114578e-02" rms="4.4913637638092041e-01" purity="6.1423343420028687e-01" nType="-99"/>
        </Node>
      </Node>
    </BinaryTree>
    <BinaryTree type="DecisionTree" boostWeight="1.0000000000000000e+00" itree="346">
      <Node pos="s" depth="0" NCoef="0" IVar="5" Cut="2.5432097911834717e+00" cType="1" res="-3.0292242299765348e-03" rms="4.6202534437179565e-01" purity="5.0164210796356201e-01" nType="0">
        <Node pos="l" depth="1" NCoef="0" IVar="4" Cut="2.7231879234313965e+00" cType="1" res="5.3739169379696250e-04" rms="4.6298357844352722e-01" purity="4.9686810374259949e-01" nType="0">
          <Node pos="l" depth="2" NCoef="0" IVar="4" Cut="2.0923779010772705e+00" cType="1" res="-2.3390292190015316e-03" rms="4.6332600712776184e-01" purity="4.9279996752738953e-01" nType="0">
            <Node pos="l" depth="3" NCoef="0" IVar="-1" Cut="0.0000000000000000e+00" cType="1" res="2.3252626415342093e-03" rms="4.6336266398429871e-01" purity="4.7937232255935669e-01" nType="-99"/>
            <Node pos="r" depth="3" NCoef="0" IVar="-1" Cut="0.0000000000000000e+00" cType="1" res="-3.4930589608848095e-03" rms="4.6300885081291199e-01" purity="5.2813953161239624e-01" nType="-99"/>
          </Node>
          <Node pos="r" depth="2" NCoef="0" IVar="5" Cut="-1.5173878669738770e+00" cType="1" res="1.0333150625228882e-02" rms="4.6168112754821777e-01" purity="5.1072239875793457e-01" nType="0">
            <Node pos="l" depth="3" NCoef="0" IVar="-1" Cut="0.0000000000000000e+00" cType="1" res="3.6959782242774963e-02" rms="4.6142816543579102e-01" purity="5.4576843976974487e-01" nType="-99"/>
            <Node pos="r" depth="3" NCoef="0" IVar="-1" Cut="0.0000000000000000e+00" cType="1" res="-4.7326739877462387e-03" rms="4.6119028329849243e-01" purity="4.8387202620506287e-01" nType="-99"/>
          </Node>
        </Node>
        <Node pos="r" depth="1" NCoef="0" IVar="3" Cut="3.9083747863769531e+00" cType="1" res="-2.3409234359860420e-02" rms="4.5597642660140991e-01" purity="5.2892118692398071e-01" nType="0">
          <Node pos="l" depth="2" NCoef="0" IVar="-1" Cut="0.0000000000000000e+00" cType="1" res="-3.1013678759336472e-02" rms="4.6243399381637573e-01" purity="4.7436258196830750e-01" nType="-99"/>
          <Node pos="r" depth="2" NCoef="0" IVar="-1" Cut="0.0000000000000000e+00" cType="1" res="-8.5633099079132080e-03" rms="4.4751325249671936e-01" purity="5.9424948692321777e-01" nType="-99"/>
        </Node>
      </Node>
    </BinaryTree>
    <BinaryTree type="DecisionTree" boostWeight="1.0000000000000000e+00" itree="347">
      <Node pos="s" depth="0" NCoef="0" IVar="6" Cut="2.8423888683319092e+00" cType="1" res="-2.6525852736085653e-03" rms="4.6162021160125732e-01" purity="4.9860548973083496e-01" nType="0">
        <Node pos="l" depth="1" NCoef="0" IVar="7" Cut="6.0000000000000000e+00" cType="1" res="-6.3984043663367629e-05" rms="4.6010184288024902e-01" purity="5.0230580568313599e-01" nType="0">
          <Node pos="l" depth="2" NCoef="0" IVar="6" Cut="1.9875110387802124e+00" cType="1" res="0.0000000000000000e+00" rms="0.0000000000000000e+00" purity="4.6779727935791016e-01" nType="0">
            <Node pos="l" depth="3" NCoef="0" IVar="-1" Cut="0.0000000000000000e+00" cType="1" res="-2.3289876990020275e-03" rms="4.6103742718696594e-01" purity="4.7085520625114441e-01" nType="-99"/>
            <Node pos="r" depth="3" NCoef="0" IVar="-1" Cut="0.0000000000000000e+00" cType="1" res="1.7576456069946289e-02" rms="4.7283759713172913e-01" purity="4.5810702443122864e-01" nType="-99"/>
          </Node>
          <Node pos="r" depth="2" NCoef="0" IVar="6" Cut="1.9875218868255615e+00" cType="1" res="-5.9634963981807232e-03" rms="4.4949615001678467e-01" purity="5.9438681602478027e-01" nType="0">
            <Node pos="l" depth="3" NCoef="0" IVar="-1" Cut="0.0000000000000000e+00" cType="1" res="8.9164758101105690e-03" rms="4.4849228858947754e-01" purity="6.2409299612045288e-01" nType="-99"/>
            <Node pos="r" depth="3" NCoef="0" IVar="-1" Cut="0.0000000000000000e+00" cType="1" res="-4.6096104197204113e-03" rms="4.4928130507469177e-01" purity="4.5478466153144836e-01" nType="-99"/>
          </Node>
        </Node>
        <Node pos="r" depth="1" NCoef="0" IVar="4" Cut="1.8974220752716064e+00" cType="1" res="-2.6111345738172531e-02" rms="4.7451713681221008e-01" purity="4.6505233645439148e-01" nType="0">
          <Node pos="l" depth="2" NCoef="0" IVar="-1" Cut="0.0000000000000000e+00" cType="1" res="-3.5773292183876038e-02" rms="4.7194749116897583e-01" purity="4.0726804733276367e-01" nType="-99"/>
          <Node pos="r" depth="2" NCoef="0" IVar="-1" Cut="0.0000000000000000e+00" cType="1" res="-6.3421139493584633e-03" rms="4.7563853859901428e-01" purity="5.0759291648864746e-01" nType="-99"/>
        </Node>
      </Node>
    </BinaryTree>
    <BinaryTree type="DecisionTree" boostWeight="1.0000000000000000e+00" itree="348">
      <Node pos="s" depth="0" NCoef="0" IVar="4" Cut="1.1107087135314941e+00" cType="1" res="-1.4681810280308127e-03" rms="4.6474733948707581e-01" purity="5.0158196687698364e-01" nType="0">
        <Node pos="l" depth="1" NCoef="0" IVar="5" Cut="-2.2439236640930176e+00" cType="1" res="-1.0972937569022179e-02" rms="4.6148017048835754e-01" purity="4.5526418089866638e-01" nType="0">
          <Node pos="l" depth="2" NCoef="0" IVar="-1" Cut="0.0000000000000000e+00" cType="1" res="2.3471871390938759e-02" rms="4.6730437874794006e-01" purity="5.2833151817321777e-01" nType="-99"/>
          <Node pos="r" depth="2" NCoef="0" IVar="4" Cut="7.6508218050003052e-01" cType="1" res="0.0000000000000000e+00" rms="0.0000000000000000e+00" purity="4.3194630742073059e-01" nType="0">
            <Node pos="l" depth="3" NCoef="0" IVar="-1" Cut="0.0000000000000000e+00" cType="1" res="-1.1312281712889671e-02" rms="4.5356574654579163e-01" purity="4.2155724763870239e-01" nType="-99"/>
            <Node pos="r" depth="3" NCoef="0" IVar="-1" Cut="0.0000000000000000e+00" cType="1" res="-9.8042944446206093e-03" rms="4.6403461694717407e-01" purity="4.4151279330253601e-01" nType="-99"/>
          </Node>
        </Node>
        <Node pos="r" depth="1" NCoef="0" IVar="3" Cut="4.6507029533386230e+00" cType="1" res="1.5169664984568954e-03" rms="4.6572870016098022e-01" purity="5.1612895727157593e-01" nType="0">
          <Node pos="l" depth="2" NCoef="0" IVar="7" Cut="6.0000000000000000e+00" cType="1" res="9.1096740216016769e-03" rms="4.7239464521408081e-01" purity="4.9582293629646301e-01" nType="0">
            <Node pos="l" depth="3" NCoef="0" IVar="-1" Cut="0.0000000000000000e+00" cType="1" res="9.5791619969531894e-04" rms="4.7259667515754700e-01" purity="4.6156552433967590e-01" nType="-99"/>
            <Node pos="r" depth="3" NCoef="0" IVar="-1" Cut="0.0000000000000000e+00" cType="1" res="3.3702421933412552e-02" rms="4.7277903556823730e-01" purity="5.9034621715545654e-01" nType="-99"/>
          </Node>
          <Node pos="r" depth="2" NCoef="0" IVar="7" Cut="6.0000000000000000e+00" cType="1" res="-6.7018000409007072e-03" rms="4.5755019783973694e-01" purity="5.3875851631164551e-01" nType="0">
            <Node pos="l" depth="3" NCoef="0" IVar="-1" Cut="0.0000000000000000e+00" cType="1" res="1.7550513148307800e-03" rms="4.6278786659240723e-01" purity="5.1366752386093140e-01" nType="-99"/>
            <Node pos="r" depth="3" NCoef="0" IVar="-1" Cut="0.0000000000000000e+00" cType="1" res="-1.2219104915857315e-02" rms="4.4219711422920227e-01" purity="6.0678535699844360e-01" nType="-99"/>
          </Node>
        </Node>
      </Node>
    </BinaryTree>
    <BinaryTree type="DecisionTree" boostWeight="1.0000000000000000e+00" itree="349">
      <Node pos="s" depth="0" NCoef="0" IVar="6" Cut="2.8423943519592285e+00" cType="1" res="-3.6108461208641529e-03" rms="4.6003562211990356e-01" purity="4.9840795993804932e-01" nType="0">
        <Node pos="l" depth="1" NCoef="0" IVar="5" Cut="-2.5430996417999268e+00" cType="1" res="-6.4367400482296944e-03" rms="4.5804402232170105e-01" purity="4.9696806073188782e-01" nType="0">
          <Node pos="l" depth="2" NCoef="0" IVar="8" Cut="5.6086542968750000e+04" cType="1" res="-2.2898547351360321e-02" rms="4.5023906230926514e-01" purity="5.3308445215225220e-01" nType="0">
            <Node pos="l" depth="3" NCoef="0" IVar="-1" Cut="0.0000000000000000e+00" cType="1" res="-4.8226374201476574e-03" rms="4.3914437294006348e-01" purity="3.6183154582977295e-01" nType="-99"/>
            <Node pos="r" depth="3" NCoef="0" IVar="-1" Cut="0.0000000000000000e+00" cType="1" res="-7.8651551157236099e-03" rms="4.5386925339698792e-01" purity="6.0507738590240479e-01" nType="-99"/>
          </Node>
          <Node pos="r" depth="2" NCoef="0" IVar="0" Cut="2.2095540625000000e+05" cType="1" res="-3.2878664787858725e-03" rms="4.5945468544960022e-01" purity="4.9005955457687378e-01" nType="0">
            <Node pos="l" depth="3" NCoef="0" IVar="-1" Cut="0.0000000000000000e+00" cType="1" res="-1.1003712279489264e-04" rms="4.6209955215454102e-01" purity="4.7582754492759705e-01" nType="-99"/>
            <Node pos="r" depth="3" NCoef="0" IVar="-1" Cut="0.0000000000000000e+00" cType="1" res="-3.7110701203346252e-02" rms="4.3880656361579895e-01" purity="5.9540450572967529e-01" nType="-99"/>
          </Node>
        </Node>
        <Node pos="r" depth="1" NCoef="0" IVar="5" Cut="1.0465873479843140e+00" cType="1" res="2.1225847303867340e-02" rms="4.7646176815032959e-01" purity="5.1106327772140503e-01" nType="0">
          <Node pos="l" depth="2" NCoef="0" IVar="-1" Cut="0.0000000000000000e+00" cType="1" res="3.9024882018566132e-02" rms="4.7585394978523254e-01" purity="4.7917544841766357e-01" nType="-99"/>
          <Node pos="r" depth="2" NCoef="0" IVar="-1" Cut="0.0000000000000000e+00" cType="1" res="-1.0999017395079136e-03" rms="4.7624981403350830e-01" purity="5.5114561319351196e-01" nType="-99"/>
        </Node>
      </Node>
    </BinaryTree>
    <BinaryTree type="DecisionTree" boostWeight="1.0000000000000000e+00" itree="350">
      <Node pos="s" depth="0" NCoef="0" IVar="6" Cut="7.4806064367294312e-01" cType="1" res="-8.5225543007254601e-03" rms="4.5907670259475708e-01" purity="4.8847454786300659e-01" nType="0">
        <Node pos="l" depth="1" NCoef="0" IVar="6" Cut="-2.2153763771057129e+00" cType="1" res="-3.9886258309707046e-04" rms="4.6022796630859375e-01" purity="5.1316684484481812e-01" nType="0">
          <Node pos="l" depth="2" NCoef="0" IVar="8" Cut="8.6965640625000000e+04" cType="1" res="-1.3240047730505466e-02" rms="4.7509607672691345e-01" purity="4.6389973163604736e-01" nType="0">
            <Node pos="l" depth="3" NCoef="0" IVar="-1" Cut="0.0000000000000000e+00" cType="1" res="-7.1029290556907654e-03" rms="4.7486773133277893e-01" purity="4.4703781604766846e-01" nType="-99"/>
            <Node pos="r" depth="3" NCoef="0" IVar="-1" Cut="0.0000000000000000e+00" cType="1" res="-6.0018163174390793e-02" rms="4.7491687536239624e-01" purity="5.5008608102798462e-01" nType="-99"/>
          </Node>
          <Node pos="r" depth="2" NCoef="0" IVar="5" Cut="-4.4879457354545593e-01" cType="1" res="1.0054622776806355e-02" rms="4.4748803973197937e-01" purity="5.5327314138412476e-01" nType="0">
            <Node pos="l" depth="3" NCoef="0" IVar="-1" Cut="0.0000000000000000e+00" cType="1" res="-2.7636075392365456e-03" rms="4.5433339476585388e-01" purity="4.9024254083633423e-01" nType="-99"/>
            <Node pos="r" depth="3" NCoef="0" IVar="-1" Cut="0.0000000000000000e+00" cType="1" res="3.2048154622316360e-02" rms="4.3564584851264954e-01" purity="6.5298038721084595e-01" nType="-99"/>
          </Node>
        </Node>
        <Node pos="r" depth="1" NCoef="0" IVar="7" Cut="6.0000000000000000e+00" cType="1" res="-1.8497364595532417e-02" rms="4.5745158195495605e-01" purity="4.5811665058135986e-01" nType="0">
          <Node pos="l" depth="2" NCoef="0" IVar="6" Cut="1.6603986024856567e+00" cType="1" res="-8.0173453316092491e-03" rms="4.6307241916656494e-01" purity="4.4901400804519653e-01" nType="0">
            <Node pos="l" depth="3" NCoef="0" IVar="-1" Cut="0.0000000000000000e+00" cType="1" res="-4.2373179458081722e-03" rms="4.2305290699005127e-01" purity="3.9609637856483459e-01" nType="-99"/>
            <Node pos="r" depth="3" NCoef="0" IVar="-1" Cut="0.0000000000000000e+00" cType="1" res="1.9482807256281376e-03" rms="4.7262752056121826e-01" purity="4.6312087774276733e-01" nType="-99"/>
          </Node>
          <Node pos="r" depth="2" NCoef="0" IVar="6" Cut="2.2294440269470215e+00" cType="1" res="-4.9944613128900528e-02" rms="4.3871745467185974e-01" purity="4.8538604378700256e-01" nType="0">
            <Node pos="l" depth="3" NCoef="0" IVar="-1" Cut="0.0000000000000000e+00" cType="1" res="-1.1317214928567410e-02" rms="4.5086121559143066e-01" purity="5.9284085035324097e-01" nType="-99"/>
            <Node pos="r" depth="3" NCoef="0" IVar="-1" Cut="0.0000000000000000e+00" cType="1" res="-2.1955845877528191e-03" rms="4.2380225658416748e-01" purity="3.8347452878952026e-01" nType="-99"/>
          </Node>
        </Node>
      </Node>
    </BinaryTree>
    <BinaryTree type="DecisionTree" boostWeight="1.0000000000000000e+00" itree="351">
      <Node pos="s" depth="0" NCoef="0" IVar="5" Cut="-2.8422944545745850e+00" cType="1" res="0.0000000000000000e+00" rms="0.0000000000000000e+00" purity="4.9415576457977295e-01" nType="0">
        <Node pos="l" depth="1" NCoef="0" IVar="-1" Cut="0.0000000000000000e+00" cType="1" res="-3.0815931968390942e-03" rms="4.2828023433685303e-01" purity="4.7480654716491699e-01" nType="-99"/>
        <Node pos="r" depth="1" NCoef="0" IVar="5" Cut="2.8566348552703857e+00" cType="1" res="-1.8793144263327122e-03" rms="4.6221497654914856e-01" purity="4.9594253301620483e-01" nType="0">
          <Node pos="l" depth="2" NCoef="0" IVar="7" Cut="7.0000000000000000e+00" cType="1" res="-4.0255240164697170e-03" rms="4.6206611394882202e-01" purity="4.8914092779159546e-01" nType="0">
            <Node pos="l" depth="3" NCoef="0" IVar="-1" Cut="0.0000000000000000e+00" cType="1" res="-5.8286692947149277e-03" rms="4.6319425106048584e-01" purity="4.7290080785751343e-01" nType="-99"/>
            <Node pos="r" depth="3" NCoef="0" IVar="-1" Cut="0.0000000000000000e+00" cType="1" res="2.3037424311041832e-02" rms="4.5124796032905579e-01" purity="6.3574624061584473e-01" nType="-99"/>
          </Node>
          <Node pos="r" depth="2" NCoef="0" IVar="-1" Cut="0.0000000000000000e+00" cType="1" res="2.7783576399087906e-02" rms="4.6319231390953064e-01" purity="5.8049404621124268e-01" nType="-99"/>
        </Node>
      </Node>
    </BinaryTree>
    <BinaryTree type="DecisionTree" boostWeight="1.0000000000000000e+00" itree="352">
      <Node pos="s" depth="0" NCoef="0" IVar="9" Cut="6.7559453125000000e+04" cType="1" res="1.9707158207893372e-03" rms="4.6523350477218628e-01" purity="5.0645250082015991e-01" nType="0">
        <Node pos="l" depth="1" NCoef="0" IVar="4" Cut="2.9380061626434326e+00" cType="1" res="5.1513318903744221e-03" rms="4.7015979886054993e-01" purity="4.7094014286994934e-01" nType="0">
          <Node pos="l" depth="2" NCoef="0" IVar="8" Cut="5.1924539062500000e+04" cType="1" res="8.3611663430929184e-03" rms="4.7108840942382812e-01" purity="4.7528278827667236e-01" nType="0">
            <Node pos="l" depth="3" NCoef="0" IVar="-1" Cut="0.0000000000000000e+00" cType="1" res="1.8599472241476178e-03" rms="4.6535265445709229e-01" purity="3.8025870919227600e-01" nType="-99"/>
            <Node pos="r" depth="3" NCoef="0" IVar="-1" Cut="0.0000000000000000e+00" cType="1" res="1.6040518879890442e-02" rms="4.7576975822448730e-01" purity="5.5487161874771118e-01" nType="-99"/>
          </Node>
          <Node pos="r" depth="2" NCoef="0" IVar="5" Cut="-1.0475667715072632e+00" cType="1" res="-1.2014671228826046e-02" rms="4.6478593349456787e-01" purity="4.4771617650985718e-01" nType="0">
            <Node pos="l" depth="3" NCoef="0" IVar="-1" Cut="0.0000000000000000e+00" cType="1" res="1.1604409664869308e-02" rms="4.6714064478874207e-01" purity="4.7726416587829590e-01" nType="-99"/>
            <Node pos="r" depth="3" NCoef="0" IVar="-1" Cut="0.0000000000000000e+00" cType="1" res="-1.7369171604514122e-02" rms="4.6235874295234680e-01" purity="4.2727336287498474e-01" nType="-99"/>
          </Node>
        </Node>
        <Node pos="r" depth="1" NCoef="0" IVar="5" Cut="-1.0471222400665283e+00" cType="1" res="-1.3183265924453735e-02" rms="4.4069215655326843e-01" purity="6.7565053701400757e-01" nType="0">
          <Node pos="l" depth="2" NCoef="0" IVar="-1" Cut="0.0000000000000000e+00" cType="1" res="2.5894537102431059e-03" rms="4.4016489386558533e-01" purity="6.9086885452270508e-01" nType="-99"/>
          <Node pos="r" depth="2" NCoef="0" IVar="5" Cut="1.9444278478622437e+00" cType="1" res="-2.4580201134085655e-02" rms="4.4072547554969788e-01" purity="6.6458070278167725e-01" nType="0">
            <Node pos="l" depth="3" NCoef="0" IVar="-1" Cut="0.0000000000000000e+00" cType="1" res="-4.7290090471506119e-02" rms="4.5570796728134155e-01" purity="5.9456640481948853e-01" nType="-99"/>
            <Node pos="r" depth="3" NCoef="0" IVar="-1" Cut="0.0000000000000000e+00" cType="1" res="-7.1820607408881187e-03" rms="4.2823761701583862e-01" purity="7.1681094169616699e-01" nType="-99"/>
          </Node>
        </Node>
      </Node>
    </BinaryTree>
    <BinaryTree type="DecisionTree" boostWeight="1.0000000000000000e+00" itree="353">
      <Node pos="s" depth="0" NCoef="0" IVar="6" Cut="-1.4951127767562866e-01" cType="1" res="-2.8399766888469458e-03" rms="4.6111139655113220e-01" purity="5.0042545795440674e-01" nType="0">
        <Node pos="l" depth="1" NCoef="0" IVar="4" Cut="2.3548800945281982e+00" cType="1" res="3.9431038312613964e-03" rms="4.6251559257507324e-01" purity="5.0358837842941284e-01" nType="0">
          <Node pos="l" depth="2" NCoef="0" IVar="5" Cut="-4.4865009188652039e-01" cType="1" res="1.0575463064014912e-02" rms="4.6262580156326294e-01" purity="4.9972537159919739e-01" nType="0">
            <Node pos="l" depth="3" NCoef="0" IVar="-1" Cut="0.0000000000000000e+00" cType="1" res="2.3201148957014084e-02" rms="4.6839061379432678e-01" purity="4.6950456500053406e-01" nType="-99"/>
            <Node pos="r" depth="3" NCoef="0" IVar="-1" Cut="0.0000000000000000e+00" cType="1" res="-1.1925132945179939e-02" rms="4.4797921180725098e-01" purity="5.7134890556335449e-01" nType="-99"/>
          </Node>
          <Node pos="r" depth="2" NCoef="0" IVar="2" Cut="2.5038127136230469e+02" cType="1" res="-7.8816125169396400e-03" rms="4.6208292245864868e-01" purity="5.1047575473785400e-01" nType="0">
            <Node pos="l" depth="3" NCoef="0" IVar="-1" Cut="0.0000000000000000e+00" cType="1" res="-1.4775464311242104e-02" rms="4.6165710687637329e-01" purity="5.0858062505722046e-01" nType="-99"/>
            <Node pos="r" depth="3" NCoef="0" IVar="-1" Cut="0.0000000000000000e+00" cType="1" res="1.4150841161608696e-02" rms="4.6245217323303223e-01" purity="5.1565986871719360e-01" nType="-99"/>
          </Node>
        </Node>
        <Node pos="r" depth="1" NCoef="0" IVar="7" Cut="6.0000000000000000e+00" cType="1" res="-8.9959753677248955e-03" rms="4.5973533391952515e-01" purity="4.9754917621612549e-01" nType="0">
          <Node pos="l" depth="2" NCoef="0" IVar="6" Cut="9.4765740633010864e-01" cType="1" res="-2.7771478053182364e-03" rms="4.6693950891494751e-01" purity="4.7263473272323608e-01" nType="0">
            <Node pos="l" depth="3" NCoef="0" IVar="-1" Cut="0.0000000000000000e+00" cType="1" res="-3.5447932779788971e-02" rms="4.5865571498870850e-01" purity="4.8947626352310181e-01" nType="-99"/>
            <Node pos="r" depth="3" NCoef="0" IVar="-1" Cut="0.0000000000000000e+00" cType="1" res="1.2423072475939989e-03" rms="4.6811476349830627e-01" purity="4.6991953253746033e-01" nType="-99"/>
          </Node>
          <Node pos="r" depth="2" NCoef="0" IVar="6" Cut="2.3578720092773438e+00" cType="1" res="-2.3943070322275162e-02" rms="4.4166308641433716e-01" purity="5.5726444721221924e-01" nType="0">
            <Node pos="l" depth="3" NCoef="0" IVar="-1" Cut="0.0000000000000000e+00" cType="1" res="-2.5839515728875995e-04" rms="4.4394502043724060e-01" purity="6.3726508617401123e-01" nType="-99"/>
            <Node pos="r" depth="3" NCoef="0" IVar="-1" Cut="0.0000000000000000e+00" cType="1" res="-1.9310223869979382e-03" rms="4.3346434831619263e-01" purity="4.0125617384910583e-01" nType="-99"/>
          </Node>
        </Node>
      </Node>
    </BinaryTree>
    <BinaryTree type="DecisionTree" boostWeight="1.0000000000000000e+00" itree="354">
      <Node pos="s" depth="0" NCoef="0" IVar="7" Cut="7.0000000000000000e+00" cType="1" res="-6.1928201466798782e-03" rms="4.5913833379745483e-01" purity="4.9986702203750610e-01" nType="0">
        <Node pos="l" depth="1" NCoef="0" IVar="5" Cut="7.4803054332733154e-01" cType="1" res="-2.2646065335720778e-03" rms="4.6145310997962952e-01" purity="4.9278950691223145e-01" nType="0">
          <Node pos="l" depth="2" NCoef="0" IVar="6" Cut="2.2439949512481689e+00" cType="1" res="0.0000000000000000e+00" rms="0.0000000000000000e+00" purity="4.8113781213760376e-01" nType="0">
            <Node pos="l" depth="3" NCoef="0" IVar="-1" Cut="0.0000000000000000e+00" cType="1" res="-4.2224209755659103e-03" rms="4.6238967776298523e-01" purity="4.9451780319213867e-01" nType="-99"/>
            <Node pos="r" depth="3" NCoef="0" IVar="-1" Cut="0.0000000000000000e+00" cType="1" res="-7.8189205378293991e-03" rms="4.5624446868896484e-01" purity="4.1600456833839417e-01" nType="-99"/>
          </Node>
          <Node pos="r" depth="2" NCoef="0" IVar="6" Cut="-4.4883754849433899e-01" cType="1" res="6.0451626777648926e-03" rms="4.6126136183738708e-01" purity="5.0755167007446289e-01" nType="0">
            <Node pos="l" depth="3" NCoef="0" IVar="-1" Cut="0.0000000000000000e+00" cType="1" res="4.2444355785846710e-02" rms="4.4416564702987671e-01" purity="6.6787832975387573e-01" nType="-99"/>
            <Node pos="r" depth="3" NCoef="0" IVar="-1" Cut="0.0000000000000000e+00" cType="1" res="-9.9001778289675713e-04" rms="4.6479335427284241e-01" purity="4.7080186009407043e-01" nType="-99"/>
          </Node>
        </Node>
        <Node pos="r" depth="1" NCoef="0" IVar="4" Cut="2.2557752132415771e+00" cType="1" res="-3.7275038659572601e-02" rms="4.3915838003158569e-01" purity="5.5586516857147217e-01" nType="0">
          <Node pos="l" depth="2" NCoef="0" IVar="-1" Cut="0.0000000000000000e+00" cType="1" res="-2.3296147119253874e-03" rms="4.3229526281356812e-01" purity="5.0993323326110840e-01" nType="-99"/>
          <Node pos="r" depth="2" NCoef="0" IVar="-1" Cut="0.0000000000000000e+00" cType="1" res="-2.5619305670261383e-03" rms="4.4762551784515381e-01" purity="6.2904936075210571e-01" nType="-99"/>
        </Node>
      </Node>
    </BinaryTree>
    <BinaryTree type="DecisionTree" boostWeight="1.0000000000000000e+00" itree="355">
      <Node pos="s" depth="0" NCoef="0" IVar="7" Cut="7.0000000000000000e+00" cType="1" res="-2.5484035722911358e-03" rms="4.6011158823966980e-01" purity="5.0112771987915039e-01" nType="0">
        <Node pos="l" depth="1" NCoef="0" IVar="9" Cut="6.3812035156250000e+04" cType="1" res="3.7449545925483108e-04" rms="4.6246087551116943e-01" purity="4.9283021688461304e-01" nType="0">
          <Node pos="l" depth="2" NCoef="0" IVar="4" Cut="3.0067155361175537e+00" cType="1" res="-3.5174160730093718e-03" rms="4.6617907285690308e-01" purity="4.5503148436546326e-01" nType="0">
            <Node pos="l" depth="3" NCoef="0" IVar="-1" Cut="0.0000000000000000e+00" cType="1" res="5.7104317238554358e-04" rms="4.6734446287155151e-01" purity="4.6359491348266602e-01" nType="-99"/>
            <Node pos="r" depth="3" NCoef="0" IVar="-1" Cut="0.0000000000000000e+00" cType="1" res="-1.3041335158050060e-02" rms="4.5827448368072510e-01" purity="4.0299826860427856e-01" nType="-99"/>
          </Node>
          <Node pos="r" depth="2" NCoef="0" IVar="4" Cut="2.6060092449188232e+00" cType="1" res="2.1657774224877357e-02" rms="4.4096708297729492e-01" purity="6.9953620433807373e-01" nType="0">
            <Node pos="l" depth="3" NCoef="0" IVar="-1" Cut="0.0000000000000000e+00" cType="1" res="9.1375559568405151e-03" rms="4.4132387638092041e-01" purity="6.9436979293823242e-01" nType="-99"/>
            <Node pos="r" depth="3" NCoef="0" IVar="-1" Cut="0.0000000000000000e+00" cType="1" res="4.9667727202177048e-02" rms="4.3849676847457886e-01" purity="7.1106767654418945e-01" nType="-99"/>
          </Node>
        </Node>
        <Node pos="r" depth="1" NCoef="0" IVar="6" Cut="-4.4828706979751587e-01" cType="1" res="-2.5139108300209045e-02" rms="4.4092637300491333e-01" purity="5.6517559289932251e-01" nType="0">
          <Node pos="l" depth="2" NCoef="0" IVar="-1" Cut="0.0000000000000000e+00" cType="1" res="7.8988503664731979e-03" rms="4.5660004019737244e-01" purity="6.2389171123504639e-01" nType="-99"/>
          <Node pos="r" depth="2" NCoef="0" IVar="-1" Cut="0.0000000000000000e+00" cType="1" res="-1.8174181459471583e-03" rms="4.2907479405403137e-01" purity="5.2672642469406128e-01" nType="-99"/>
        </Node>
      </Node>
    </BinaryTree>
    <BinaryTree type="DecisionTree" boostWeight="1.0000000000000000e+00" itree="356">
      <Node pos="s" depth="0" NCoef="0" IVar="4" Cut="1.8821195363998413e+00" cType="1" res="-1.8811437766999006e-03" rms="4.5981010794639587e-01" purity="5.0203114748001099e-01" nType="0">
        <Node pos="l" depth="1" NCoef="0" IVar="6" Cut="2.2439491748809814e+00" cType="1" res="-1.0148000903427601e-02" rms="4.5478081703186035e-01" purity="4.6704569458961487e-01" nType="0">
          <Node pos="l" depth="2" NCoef="0" IVar="5" Cut="-1.4978925883769989e-01" cType="1" res="-2.2442149929702282e-03" rms="4.5466497540473938e-01" purity="4.8569929599761963e-01" nType="0">
            <Node pos="l" depth="3" NCoef="0" IVar="-1" Cut="0.0000000000000000e+00" cType="1" res="-1.1776613071560860e-02" rms="4.5294725894927979e-01" purity="4.6776255965232849e-01" nType="-99"/>
            <Node pos="r" depth="3" NCoef="0" IVar="-1" Cut="0.0000000000000000e+00" cType="1" res="1.4536113478243351e-02" rms="4.5658487081527710e-01" purity="5.0990563631057739e-01" nType="-99"/>
          </Node>
          <Node pos="r" depth="2" NCoef="0" IVar="7" Cut="5.0000000000000000e+00" cType="1" res="-3.5556726157665253e-02" rms="4.5420873165130615e-01" purity="4.0701907873153687e-01" nType="0">
            <Node pos="l" depth="3" NCoef="0" IVar="-1" Cut="0.0000000000000000e+00" cType="1" res="-2.5438621378270909e-06" rms="4.6249964833259583e-01" purity="4.3647438287734985e-01" nType="-99"/>
            <Node pos="r" depth="3" NCoef="0" IVar="-1" Cut="0.0000000000000000e+00" cType="1" res="-2.4122477043420076e-03" rms="4.4203814864158630e-01" purity="3.7551584839820862e-01" nType="-99"/>
          </Node>
        </Node>
        <Node pos="r" depth="1" NCoef="0" IVar="5" Cut="-7.4792379140853882e-01" cType="1" res="6.2821470201015472e-03" rms="4.6457862854003906e-01" purity="5.3657823801040649e-01" nType="0">
          <Node pos="l" depth="2" NCoef="0" IVar="5" Cut="-2.0017833709716797e+00" cType="1" res="1.7889767885208130e-02" rms="4.6299961209297180e-01" purity="5.5794918537139893e-01" nType="0">
            <Node pos="l" depth="3" NCoef="0" IVar="-1" Cut="0.0000000000000000e+00" cType="1" res="6.3359504565596581e-03" rms="4.6351543068885803e-01" purity="5.6164205074310303e-01" nType="-99"/>
            <Node pos="r" depth="3" NCoef="0" IVar="-1" Cut="0.0000000000000000e+00" cType="1" res="4.1599683463573456e-02" rms="4.6141090989112854e-01" purity="5.5188304185867310e-01" nType="-99"/>
          </Node>
          <Node pos="r" depth="2" NCoef="0" IVar="6" Cut="1.9448103904724121e+00" cType="1" res="-2.5570960715413094e-03" rms="4.6558341383934021e-01" purity="5.2030426263809204e-01" nType="0">
            <Node pos="l" depth="3" NCoef="0" IVar="-1" Cut="0.0000000000000000e+00" cType="1" res="-2.1190518513321877e-02" rms="4.5844122767448425e-01" purity="5.5204480886459351e-01" nType="-99"/>
            <Node pos="r" depth="3" NCoef="0" IVar="-1" Cut="0.0000000000000000e+00" cType="1" res="9.8472088575363159e-03" rms="4.7274449467658997e-01" purity="4.8501849174499512e-01" nType="-99"/>
          </Node>
        </Node>
      </Node>
    </BinaryTree>
    <BinaryTree type="DecisionTree" boostWeight="1.0000000000000000e+00" itree="357">
      <Node pos="s" depth="0" NCoef="0" IVar="6" Cut="1.3464040756225586e+00" cType="1" res="1.8851506756618619e-03" rms="4.6364313364028931e-01" purity="5.1215469837188721e-01" nType="0">
        <Node pos="l" depth="1" NCoef="0" IVar="5" Cut="1.9447109699249268e+00" cType="1" res="-5.9324004687368870e-03" rms="4.5862245559692383e-01" purity="5.1472675800323486e-01" nType="0">
          <Node pos="l" depth="2" NCoef="0" IVar="6" Cut="2.7756756544113159e-01" cType="1" res="-2.0620792638510466e-03" rms="4.6083581447601318e-01" purity="5.0582253932952881e-01" nType="0">
            <Node pos="l" depth="3" NCoef="0" IVar="-1" Cut="0.0000000000000000e+00" cType="1" res="-5.6799217127263546e-03" rms="4.6552726626396179e-01" purity="4.8058697581291199e-01" nType="-99"/>
            <Node pos="r" depth="3" NCoef="0" IVar="-1" Cut="0.0000000000000000e+00" cType="1" res="2.6424845680594444e-02" rms="4.1976469755172729e-01" purity="7.1065837144851685e-01" nType="-99"/>
          </Node>
          <Node pos="r" depth="2" NCoef="0" IVar="8" Cut="5.7305246093750000e+04" cType="1" res="-2.0530002191662788e-02" rms="4.4987690448760986e-01" purity="5.4831069707870483e-01" nType="0">
            <Node pos="l" depth="3" NCoef="0" IVar="-1" Cut="0.0000000000000000e+00" cType="1" res="-3.4996762871742249e-02" rms="4.4836136698722839e-01" purity="3.7665584683418274e-01" nType="-99"/>
            <Node pos="r" depth="3" NCoef="0" IVar="-1" Cut="0.0000000000000000e+00" cType="1" res="-1.3388161547482014e-02" rms="4.5034751296043396e-01" purity="6.3020950555801392e-01" nType="-99"/>
          </Node>
        </Node>
        <Node pos="r" depth="1" NCoef="0" IVar="8" Cut="1.0951225000000000e+05" cType="1" res="1.4949184842407703e-02" rms="4.7162494063377380e-01" purity="5.0785642862319946e-01" nType="0">
          <Node pos="l" depth="2" NCoef="0" IVar="6" Cut="2.7997241020202637e+00" cType="1" res="0.0000000000000000e+00" rms="0.0000000000000000e+00" purity="4.8806333541870117e-01" nType="0">
            <Node pos="l" depth="3" NCoef="0" IVar="-1" Cut="0.0000000000000000e+00" cType="1" res="2.7658425271511078e-02" rms="4.7233632206916809e-01" purity="4.8736593127250671e-01" nType="-99"/>
            <Node pos="r" depth="3" NCoef="0" IVar="-1" Cut="0.0000000000000000e+00" cType="1" res="7.0887212641537189e-03" rms="4.7702905535697937e-01" purity="4.8958107829093933e-01" nType="-99"/>
          </Node>
          <Node pos="r" depth="2" NCoef="0" IVar="-1" Cut="0.0000000000000000e+00" cType="1" res="-1.2108604423701763e-02" rms="4.5214816927909851e-01" purity="6.6758358478546143e-01" nType="-99"/>
        </Node>
      </Node>
    </BinaryTree>
    <BinaryTree type="DecisionTree" boostWeight="1.0000000000000000e+00" itree="358">
      <Node pos="s" depth="0" NCoef="0" IVar="6" Cut="1.9447799921035767e+00" cType="1" res="-4.7486033290624619e-03" rms="4.5863869786262512e-01" purity="5.0221735239028931e-01" nType="0">
        <Node pos="l" depth="1" NCoef="0" IVar="5" Cut="-1.6453859806060791e+00" cType="1" res="3.9256322197616100e-03" rms="4.5700761675834656e-01" purity="5.2385449409484863e-01" nType="0">
          <Node pos="l" depth="2" NCoef="0" IVar="2" Cut="1.7451246643066406e+02" cType="1" res="1.2181153520941734e-02" rms="4.5869466662406921e-01" purity="5.3923279047012329e-01" nType="0">
            <Node pos="l" depth="3" NCoef="0" IVar="-1" Cut="0.0000000000000000e+00" cType="1" res="3.5570874810218811e-02" rms="4.5161265134811401e-01" purity="5.8472406864166260e-01" nType="-99"/>
            <Node pos="r" depth="3" NCoef="0" IVar="-1" Cut="0.0000000000000000e+00" cType="1" res="2.7733757160604000e-03" rms="4.6259286999702454e-01" purity="5.1204073429107666e-01" nType="-99"/>
          </Node>
          <Node pos="r" depth="2" NCoef="0" IVar="4" Cut="2.9326980113983154e+00" cType="1" res="-1.8810653127729893e-03" rms="4.5572769641876221e-01" purity="5.1303780078887939e-01" nType="0">
            <Node pos="l" depth="3" NCoef="0" IVar="-1" Cut="0.0000000000000000e+00" cType="1" res="2.5035312864929438e-03" rms="4.5508751273155212e-01" purity="5.2124726772308350e-01" nType="-99"/>
            <Node pos="r" depth="3" NCoef="0" IVar="-1" Cut="0.0000000000000000e+00" cType="1" res="-2.1962685510516167e-02" rms="4.5810744166374207e-01" purity="4.6722614765167236e-01" nType="-99"/>
          </Node>
        </Node>
        <Node pos="r" depth="1" NCoef="0" IVar="7" Cut="6.0000000000000000e+00" cType="1" res="0.0000000000000000e+00" rms="0.0000000000000000e+00" purity="4.5525416731834412e-01" nType="0">
          <Node pos="l" depth="2" NCoef="0" IVar="4" Cut="2.0669407844543457e+00" cType="1" res="-9.5290876924991608e-03" rms="4.6843105554580688e-01" purity="4.6467140316963196e-01" nType="0">
            <Node pos="l" depth="3" NCoef="0" IVar="-1" Cut="0.0000000000000000e+00" cType="1" res="3.6014965735375881e-03" rms="4.6823829412460327e-01" purity="4.6211239695549011e-01" nType="-99"/>
            <Node pos="r" depth="3" NCoef="0" IVar="-1" Cut="0.0000000000000000e+00" cType="1" res="-1.6299726441502571e-02" rms="4.6821826696395874e-01" purity="4.6747064590454102e-01" nType="-99"/>
          </Node>
          <Node pos="r" depth="2" NCoef="0" IVar="-1" Cut="0.0000000000000000e+00" cType="1" res="-2.2054344881325960e-03" rms="4.3246898055076599e-01" purity="4.2146968841552734e-01" nType="-99"/>
        </Node>
      </Node>
    </BinaryTree>
    <BinaryTree type="DecisionTree" boostWeight="1.0000000000000000e+00" itree="359">
      <Node pos="s" depth="0" NCoef="0" IVar="3" Cut="-4.1474479436874390e-01" cType="1" res="-1.6829388914629817e-03" rms="4.6305340528488159e-01" purity="5.0901842117309570e-01" nType="0">
        <Node pos="l" depth="1" NCoef="0" IVar="-1" Cut="0.0000000000000000e+00" cType="1" res="2.2200901061296463e-02" rms="4.6959888935089111e-01" purity="4.3243882060050964e-01" nType="-99"/>
        <Node pos="r" depth="1" NCoef="0" IVar="6" Cut="1.4963832497596741e-01" cType="1" res="-4.1412822902202606e-03" rms="4.6228480339050293e-01" purity="5.1715052127838135e-01" nType="0">
          <Node pos="l" depth="2" NCoef="0" IVar="7" Cut="5.0000000000000000e+00" cType="1" res="2.3220966104418039e-03" rms="4.6019548177719116e-01" purity="5.2348005771636963e-01" nType="0">
            <Node pos="l" depth="3" NCoef="0" IVar="-1" Cut="0.0000000000000000e+00" cType="1" res="-1.1095408350229263e-02" rms="4.6682578325271606e-01" purity="4.1878360509872437e-01" nType="-99"/>
            <Node pos="r" depth="3" NCoef="0" IVar="-1" Cut="0.0000000000000000e+00" cType="1" res="1.3058988377451897e-02" rms="4.5501908659934998e-01" purity="6.0051971673965454e-01" nType="-99"/>
          </Node>
          <Node pos="r" depth="2" NCoef="0" IVar="7" Cut="6.0000000000000000e+00" cType="1" res="-1.0703912004828453e-02" rms="4.6429806947708130e-01" purity="5.1070690155029297e-01" nType="0">
            <Node pos="l" depth="3" NCoef="0" IVar="-1" Cut="0.0000000000000000e+00" cType="1" res="-2.5712256319820881e-03" rms="4.6899884939193726e-01" purity="4.8336392641067505e-01" nType="-99"/>
            <Node pos="r" depth="3" NCoef="0" IVar="-1" Cut="0.0000000000000000e+00" cType="1" res="-1.5429395250976086e-02" rms="4.5101818442344666e-01" purity="5.8256888389587402e-01" nType="-99"/>
          </Node>
        </Node>
      </Node>
    </BinaryTree>
    <BinaryTree type="DecisionTree" boostWeight="1.0000000000000000e+00" itree="360">
      <Node pos="s" depth="0" NCoef="0" IVar="6" Cut="2.8423922061920166e+00" cType="1" res="-4.0423921309411526e-03" rms="4.6479982137680054e-01" purity="5.0986403226852417e-01" nType="0">
        <Node pos="l" depth="1" NCoef="0" IVar="5" Cut="1.9448055028915405e+00" cType="1" res="-1.0679299011826515e-03" rms="4.6364194154739380e-01" purity="5.1442098617553711e-01" nType="0">
          <Node pos="l" depth="2" NCoef="0" IVar="7" Cut="5.0000000000000000e+00" cType="1" res="4.3173367157578468e-03" rms="4.6586173772811890e-01" purity="5.1179742813110352e-01" nType="0">
            <Node pos="l" depth="3" NCoef="0" IVar="-1" Cut="0.0000000000000000e+00" cType="1" res="1.8161574378609657e-02" rms="4.7294050455093384e-01" purity="4.3117627501487732e-01" nType="-99"/>
            <Node pos="r" depth="3" NCoef="0" IVar="-1" Cut="0.0000000000000000e+00" cType="1" res="-4.3117916211485863e-03" rms="4.6039578318595886e-01" purity="5.7130187749862671e-01" nType="-99"/>
          </Node>
          <Node pos="r" depth="2" NCoef="0" IVar="4" Cut="1.5518453121185303e+00" cType="1" res="-1.4825263060629368e-02" rms="4.5763462781906128e-01" purity="5.2112323045730591e-01" nType="0">
            <Node pos="l" depth="3" NCoef="0" IVar="-1" Cut="0.0000000000000000e+00" cType="1" res="-3.3506635576486588e-02" rms="4.5785304903984070e-01" purity="4.9887552857398987e-01" nType="-99"/>
            <Node pos="r" depth="3" NCoef="0" IVar="-1" Cut="0.0000000000000000e+00" cType="1" res="-4.5090098865330219e-03" rms="4.5726767182350159e-01" purity="5.3711181879043579e-01" nType="-99"/>
          </Node>
        </Node>
        <Node pos="r" depth="1" NCoef="0" IVar="4" Cut="2.4080369472503662e+00" cType="1" res="0.0000000000000000e+00" rms="0.0000000000000000e+00" purity="4.6879538893699646e-01" nType="0">
          <Node pos="l" depth="2" NCoef="0" IVar="-1" Cut="0.0000000000000000e+00" cType="1" res="-3.2949827611446381e-02" rms="4.6923324465751648e-01" purity="4.3368086218833923e-01" nType="-99"/>
          <Node pos="r" depth="2" NCoef="0" IVar="-1" Cut="0.0000000000000000e+00" cType="1" res="-1.2704597786068916e-02" rms="4.8062717914581299e-01" purity="5.1772987842559814e-01" nType="-99"/>
        </Node>
      </Node>
    </BinaryTree>
    <BinaryTree type="DecisionTree" boostWeight="1.0000000000000000e+00" itree="361">
      <Node pos="s" depth="0" NCoef="0" IVar="5" Cut="-2.8422944545745850e+00" cType="1" res="-1.1723520234227180e-02" rms="4.5987361669540405e-01" purity="4.9875935912132263e-01" nType="0">
        <Node pos="l" depth="1" NCoef="0" IVar="-1" Cut="0.0000000000000000e+00" cType="1" res="-3.8481296505779028e-03" rms="4.3503820896148682e-01" purity="4.7705659270286560e-01" nType="-99"/>
        <Node pos="r" depth="1" NCoef="0" IVar="5" Cut="2.2867431640625000e+00" cType="1" res="-6.0064056888222694e-03" rms="4.6164906024932861e-01" purity="5.0073891878128052e-01" nType="0">
          <Node pos="l" depth="2" NCoef="0" IVar="6" Cut="-2.5431561470031738e+00" cType="1" res="-1.0250900872051716e-02" rms="4.6354958415031433e-01" purity="4.8676583170890808e-01" nType="0">
            <Node pos="l" depth="3" NCoef="0" IVar="-1" Cut="0.0000000000000000e+00" cType="1" res="2.9316765721887350e-03" rms="4.7503265738487244e-01" purity="4.6035906672477722e-01" nType="-99"/>
            <Node pos="r" depth="3" NCoef="0" IVar="-1" Cut="0.0000000000000000e+00" cType="1" res="-1.4040978625416756e-02" rms="4.6022924780845642e-01" purity="4.9413549900054932e-01" nType="-99"/>
          </Node>
          <Node pos="r" depth="2" NCoef="0" IVar="6" Cut="2.2440285682678223e+00" cType="1" res="7.9627437517046928e-03" rms="4.5505869388580322e-01" purity="5.4672598838806152e-01" nType="0">
            <Node pos="l" depth="3" NCoef="0" IVar="-1" Cut="0.0000000000000000e+00" cType="1" res="2.2728160023689270e-02" rms="4.4808450341224670e-01" purity="5.6115013360977173e-01" nType="-99"/>
            <Node pos="r" depth="3" NCoef="0" IVar="-1" Cut="0.0000000000000000e+00" cType="1" res="-6.2065068632364273e-03" rms="4.6793127059936523e-01" purity="5.1797807216644287e-01" nType="-99"/>
          </Node>
        </Node>
      </Node>
    </BinaryTree>
    <BinaryTree type="DecisionTree" boostWeight="1.0000000000000000e+00" itree="362">
      <Node pos="s" depth="0" NCoef="0" IVar="6" Cut="-1.3463208675384521e+00" cType="1" res="-2.5576853659003973e-03" rms="4.6056681871414185e-01" purity="5.0262385606765747e-01" nType="0">
        <Node pos="l" depth="1" NCoef="0" IVar="8" Cut="5.8678101562500000e+04" cType="1" res="6.9521702826023102e-03" rms="4.7063049674034119e-01" purity="4.9550542235374451e-01" nType="0">
          <Node pos="l" depth="2" NCoef="0" IVar="6" Cut="-2.2023389339447021e+00" cType="1" res="1.7714899033308029e-02" rms="4.7212368249893188e-01" purity="4.3355998396873474e-01" nType="0">
            <Node pos="l" depth="3" NCoef="0" IVar="-1" Cut="0.0000000000000000e+00" cType="1" res="1.1328893713653088e-02" rms="4.7365105152130127e-01" purity="4.2850503325462341e-01" nType="-99"/>
            <Node pos="r" depth="3" NCoef="0" IVar="-1" Cut="0.0000000000000000e+00" cType="1" res="4.2075853794813156e-02" rms="4.6720451116561890e-01" purity="4.4746187329292297e-01" nType="-99"/>
          </Node>
          <Node pos="r" depth="2" NCoef="0" IVar="2" Cut="2.7794085693359375e+02" cType="1" res="-4.3147089891135693e-03" rms="4.6879759430885315e-01" purity="5.6035250425338745e-01" nType="0">
            <Node pos="l" depth="3" NCoef="0" IVar="-1" Cut="0.0000000000000000e+00" cType="1" res="-1.2216283939778805e-02" rms="4.6823191642761230e-01" purity="5.4527312517166138e-01" nType="-99"/>
            <Node pos="r" depth="3" NCoef="0" IVar="-1" Cut="0.0000000000000000e+00" cType="1" res="2.6313371956348419e-02" rms="4.6890985965728760e-01" purity="5.9374707937240601e-01" nType="-99"/>
          </Node>
        </Node>
        <Node pos="r" depth="1" NCoef="0" IVar="6" Cut="2.7141742706298828e+00" cType="1" res="-8.1008048728108406e-03" rms="4.5450633764266968e-01" purity="5.0677299499511719e-01" nType="0">
          <Node pos="l" depth="2" NCoef="0" IVar="4" Cut="1.3555473089218140e+00" cType="1" res="-1.2425187975168228e-02" rms="4.4855055212974548e-01" purity="5.1308727264404297e-01" nType="0">
            <Node pos="l" depth="3" NCoef="0" IVar="-1" Cut="0.0000000000000000e+00" cType="1" res="-2.0887078717350960e-03" rms="4.5094379782676697e-01" purity="4.9612402915954590e-01" nType="-99"/>
            <Node pos="r" depth="3" NCoef="0" IVar="-1" Cut="0.0000000000000000e+00" cType="1" res="-2.7358285151422024e-03" rms="4.4719621539115906e-01" purity="5.2195531129837036e-01" nType="-99"/>
          </Node>
          <Node pos="r" depth="2" NCoef="0" IVar="9" Cut="4.0037250000000000e+04" cType="1" res="7.4050975963473320e-03" rms="4.7492507100105286e-01" purity="4.8413184285163879e-01" nType="0">
            <Node pos="l" depth="3" NCoef="0" IVar="-1" Cut="0.0000000000000000e+00" cType="1" res="1.6942890360951424e-02" rms="4.7147336602210999e-01" purity="4.3185815215110779e-01" nType="-99"/>
            <Node pos="r" depth="3" NCoef="0" IVar="-1" Cut="0.0000000000000000e+00" cType="1" res="-9.3301814049482346e-03" rms="4.7931328415870667e-01" purity="5.5840629339218140e-01" nType="-99"/>
          </Node>
        </Node>
      </Node>
    </BinaryTree>
    <BinaryTree type="DecisionTree" boostWeight="1.0000000000000000e+00" itree="363">
      <Node pos="s" depth="0" NCoef="0" IVar="4" Cut="3.2530410289764404e+00" cType="1" res="-7.0253144949674606e-03" rms="4.6034899353981018e-01" purity="5.0022125244140625e-01" nType="0">
        <Node pos="l" depth="1" NCoef="0" IVar="7" Cut="6.0000000000000000e+00" cType="1" res="0.0000000000000000e+00" rms="0.0000000000000000e+00" purity="5.0407510995864868e-01" nType="0">
          <Node pos="l" depth="2" NCoef="0" IVar="5" Cut="2.8420646190643311e+00" cType="1" res="-4.6754023060202599e-03" rms="4.6586602926254272e-01" purity="4.8004618287086487e-01" nType="0">
            <Node pos="l" depth="3" NCoef="0" IVar="-1" Cut="0.0000000000000000e+00" cType="1" res="-2.6034167967736721e-03" rms="4.6621155738830566e-01" purity="4.7793757915496826e-01" nType="-99"/>
            <Node pos="r" depth="3" NCoef="0" IVar="-1" Cut="0.0000000000000000e+00" cType="1" res="-4.1039515286684036e-02" rms="4.5978048443794250e-01" purity="5.1019901037216187e-01" nType="-99"/>
          </Node>
          <Node pos="r" depth="2" NCoef="0" IVar="6" Cut="2.2434113025665283e+00" cType="1" res="0.0000000000000000e+00" rms="0.0000000000000000e+00" purity="5.6909447908401489e-01" nType="0">
            <Node pos="l" depth="3" NCoef="0" IVar="-1" Cut="0.0000000000000000e+00" cType="1" res="-7.9239634796977043e-03" rms="4.4956898689270020e-01" purity="6.2134927511215210e-01" nType="-99"/>
            <Node pos="r" depth="3" NCoef="0" IVar="-1" Cut="0.0000000000000000e+00" cType="1" res="-1.9250700715929270e-03" rms="4.2139020562171936e-01" purity="3.8145434856414795e-01" nType="-99"/>
          </Node>
        </Node>
        <Node pos="r" depth="1" NCoef="0" IVar="-1" Cut="0.0000000000000000e+00" cType="1" res="3.8733087480068207e-02" rms="4.5923396944999695e-01" purity="4.3101567029953003e-01" nType="-99"/>
      </Node>
    </BinaryTree>
    <BinaryTree type="DecisionTree" boostWeight="1.0000000000000000e+00" itree="364">
      <Node pos="s" depth="0" NCoef="0" IVar="6" Cut="2.2439978122711182e+00" cType="1" res="-7.6080663129687309e-03" rms="4.5954108238220215e-01" purity="4.9410137534141541e-01" nType="0">
        <Node pos="l" depth="1" NCoef="0" IVar="0" Cut="2.5418218750000000e+05" cType="1" res="-1.9131801091134548e-03" rms="4.5949611067771912e-01" purity="5.1876616477966309e-01" nType="0">
          <Node pos="l" depth="2" NCoef="0" IVar="3" Cut="4.4277000427246094e-01" cType="1" res="0.0000000000000000e+00" rms="0.0000000000000000e+00" purity="5.0512337684631348e-01" nType="0">
            <Node pos="l" depth="3" NCoef="0" IVar="-1" Cut="0.0000000000000000e+00" cType="1" res="-1.7383078113198280e-02" rms="4.7034209966659546e-01" purity="4.1460838913917542e-01" nType="-99"/>
            <Node pos="r" depth="3" NCoef="0" IVar="-1" Cut="0.0000000000000000e+00" cType="1" res="-5.8053672546520829e-04" rms="4.6204960346221924e-01" purity="5.2179402112960815e-01" nType="-99"/>
          </Node>
          <Node pos="r" depth="2" NCoef="0" IVar="-1" Cut="0.0000000000000000e+00" cType="1" res="3.3080704510211945e-02" rms="4.0957632660865784e-01" purity="6.7978179454803467e-01" nType="-99"/>
        </Node>
        <Node pos="r" depth="1" NCoef="0" IVar="6" Cut="2.5432021617889404e+00" cType="1" res="-2.3076361045241356e-02" rms="4.5930701494216919e-01" purity="4.2710751295089722e-01" nType="0">
          <Node pos="l" depth="2" NCoef="0" IVar="-1" Cut="0.0000000000000000e+00" cType="1" res="-1.5708697028458118e-03" rms="4.2183539271354675e-01" purity="3.4266528487205505e-01" nType="-99"/>
          <Node pos="r" depth="2" NCoef="0" IVar="3" Cut="6.0403838157653809e+00" cType="1" res="-3.7833014503121376e-03" rms="4.7508206963539124e-01" purity="4.6773529052734375e-01" nType="0">
            <Node pos="l" depth="3" NCoef="0" IVar="-1" Cut="0.0000000000000000e+00" cType="1" res="8.8910153135657310e-03" rms="4.8291796445846558e-01" purity="4.6791735291481018e-01" nType="-99"/>
            <Node pos="r" depth="3" NCoef="0" IVar="-1" Cut="0.0000000000000000e+00" cType="1" res="-2.6411741971969604e-02" rms="4.6374431252479553e-01" purity="4.6749088168144226e-01" nType="-99"/>
          </Node>
        </Node>
      </Node>
    </BinaryTree>
    <BinaryTree type="DecisionTree" boostWeight="1.0000000000000000e+00" itree="365">
      <Node pos="s" depth="0" NCoef="0" IVar="8" Cut="6.4921847656250000e+04" cType="1" res="-5.4441979154944420e-03" rms="4.5872551202774048e-01" purity="4.9981188774108887e-01" nType="0">
        <Node pos="l" depth="1" NCoef="0" IVar="7" Cut="6.0000000000000000e+00" cType="1" res="-1.9111715257167816e-02" rms="4.6047890186309814e-01" purity="4.0159150958061218e-01" nType="0">
          <Node pos="l" depth="2" NCoef="0" IVar="1" Cut="1.9916148437500000e+05" cType="1" res="0.0000000000000000e+00" rms="0.0000000000000000e+00" purity="4.0487679839134216e-01" nType="0">
            <Node pos="l" depth="3" NCoef="0" IVar="-1" Cut="0.0000000000000000e+00" cType="1" res="-3.2354290597140789e-03" rms="4.7474423050880432e-01" purity="4.4316670298576355e-01" nType="-99"/>
            <Node pos="r" depth="3" NCoef="0" IVar="-1" Cut="0.0000000000000000e+00" cType="1" res="-4.4204264879226685e-02" rms="4.2468181252479553e-01" purity="2.6166591048240662e-01" nType="-99"/>
          </Node>
          <Node pos="r" depth="2" NCoef="0" IVar="-1" Cut="0.0000000000000000e+00" cType="1" res="-2.4845243897289038e-03" rms="4.3518000841140747e-01" purity="3.8559141755104065e-01" nType="-99"/>
        </Node>
        <Node pos="r" depth="1" NCoef="0" IVar="5" Cut="2.5429151058197021e+00" cType="1" res="1.1852381750941277e-02" rms="4.5590844750404358e-01" purity="6.2406855821609497e-01" nType="0">
          <Node pos="l" depth="2" NCoef="0" IVar="2" Cut="4.1235635375976562e+02" cType="1" res="1.7175883054733276e-02" rms="4.5472800731658936e-01" purity="6.2727320194244385e-01" nType="0">
            <Node pos="l" depth="3" NCoef="0" IVar="-1" Cut="0.0000000000000000e+00" cType="1" res="2.6010062545537949e-02" rms="4.5212757587432861e-01" purity="6.3398820161819458e-01" nType="-99"/>
            <Node pos="r" depth="3" NCoef="0" IVar="-1" Cut="0.0000000000000000e+00" cType="1" res="-2.9401782900094986e-02" rms="4.7115156054496765e-01" purity="5.7866501808166504e-01" nType="-99"/>
          </Node>
          <Node pos="r" depth="2" NCoef="0" IVar="4" Cut="1.8567487001419067e+00" cType="1" res="-9.6762916073203087e-03" rms="4.6002355217933655e-01" purity="6.1110854148864746e-01" nType="0">
            <Node pos="l" depth="3" NCoef="0" IVar="-1" Cut="0.0000000000000000e+00" cType="1" res="4.3703638948500156e-03" rms="4.5665150880813599e-01" purity="6.2358552217483521e-01" nType="-99"/>
            <Node pos="r" depth="3" NCoef="0" IVar="-1" Cut="0.0000000000000000e+00" cType="1" res="-2.1590722724795341e-02" rms="4.6305620670318604e-01" purity="5.9838575124740601e-01" nType="-99"/>
          </Node>
        </Node>
      </Node>
    </BinaryTree>
    <BinaryTree type="DecisionTree" boostWeight="1.0000000000000000e+00" itree="366">
      <Node pos="s" depth="0" NCoef="0" IVar="6" Cut="2.8423213958740234e+00" cType="1" res="-8.2563180476427078e-03" rms="4.5991802215576172e-01" purity="4.9234044551849365e-01" nType="0">
        <Node pos="l" depth="1" NCoef="0" IVar="6" Cut="2.2724239826202393e+00" cType="1" res="0.0000000000000000e+00" rms="0.0000000000000000e+00" purity="4.9194231629371643e-01" nType="0">
          <Node pos="l" depth="2" NCoef="0" IVar="3" Cut="6.4887351989746094e+00" cType="1" res="-3.9393361657857895e-03" rms="4.5979139208793640e-01" purity="5.1241302490234375e-01" nType="0">
            <Node pos="l" depth="3" NCoef="0" IVar="-1" Cut="0.0000000000000000e+00" cType="1" res="-5.3292806260287762e-03" rms="4.6581158041954041e-01" purity="5.0263261795043945e-01" nType="-99"/>
            <Node pos="r" depth="3" NCoef="0" IVar="-1" Cut="0.0000000000000000e+00" cType="1" res="1.0958455502986908e-02" rms="4.4494679570198059e-01" purity="5.3560835123062134e-01" nType="-99"/>
          </Node>
          <Node pos="r" depth="2" NCoef="0" IVar="8" Cut="6.4859007812500000e+04" cType="1" res="-4.5746110379695892e-02" rms="4.5013123750686646e-01" purity="3.9681386947631836e-01" nType="0">
            <Node pos="l" depth="3" NCoef="0" IVar="-1" Cut="0.0000000000000000e+00" cType="1" res="-2.6591606438159943e-03" rms="4.3560895323753357e-01" purity="3.1070822477340698e-01" nType="-99"/>
            <Node pos="r" depth="3" NCoef="0" IVar="-1" Cut="0.0000000000000000e+00" cType="1" res="-1.0600977577269077e-02" rms="4.7526022791862488e-01" purity="5.6078594923019409e-01" nType="-99"/>
          </Node>
        </Node>
        <Node pos="r" depth="1" NCoef="0" IVar="8" Cut="5.2457796875000000e+04" cType="1" res="1.9764093682169914e-02" rms="4.7278949618339539e-01" purity="4.9595513939857483e-01" nType="0">
          <Node pos="l" depth="2" NCoef="0" IVar="-1" Cut="0.0000000000000000e+00" cType="1" res="4.1031666100025177e-02" rms="4.7239783406257629e-01" purity="4.4250008463859558e-01" nType="-99"/>
          <Node pos="r" depth="2" NCoef="0" IVar="-1" Cut="0.0000000000000000e+00" cType="1" res="1.3526903931051493e-03" rms="4.7241142392158508e-01" purity="5.4449576139450073e-01" nType="-99"/>
        </Node>
      </Node>
    </BinaryTree>
    <BinaryTree type="DecisionTree" boostWeight="1.0000000000000000e+00" itree="367">
      <Node pos="s" depth="0" NCoef="0" IVar="7" Cut="5.0000000000000000e+00" cType="1" res="-5.0286971963942051e-03" rms="4.6336060762405396e-01" purity="5.0315123796463013e-01" nType="0">
        <Node pos="l" depth="1" NCoef="0" IVar="5" Cut="-1.9446960687637329e+00" cType="1" res="5.3794602863490582e-03" rms="4.6662113070487976e-01" purity="4.3426731228828430e-01" nType="0">
          <Node pos="l" depth="2" NCoef="0" IVar="8" Cut="6.7379382812500000e+04" cType="1" res="-5.4903724230825901e-03" rms="4.6609032154083252e-01" purity="4.5850786566734314e-01" nType="0">
            <Node pos="l" depth="3" NCoef="0" IVar="-1" Cut="0.0000000000000000e+00" cType="1" res="-1.4519705437123775e-02" rms="4.6059533953666687e-01" purity="3.9073720574378967e-01" nType="-99"/>
            <Node pos="r" depth="3" NCoef="0" IVar="-1" Cut="0.0000000000000000e+00" cType="1" res="1.6135841608047485e-02" rms="4.7460716962814331e-01" purity="5.7176029682159424e-01" nType="-99"/>
          </Node>
          <Node pos="r" depth="2" NCoef="0" IVar="4" Cut="1.5621613264083862e+00" cType="1" res="9.4153126701712608e-03" rms="4.6675360202789307e-01" purity="4.2526707053184509e-01" nType="0">
            <Node pos="l" depth="3" NCoef="0" IVar="-1" Cut="0.0000000000000000e+00" cType="1" res="2.9293067753314972e-02" rms="4.5973381400108337e-01" purity="4.0613564848899841e-01" nType="-99"/>
            <Node pos="r" depth="3" NCoef="0" IVar="-1" Cut="0.0000000000000000e+00" cType="1" res="-1.4006216078996658e-03" rms="4.7126707434654236e-01" purity="4.3859618902206421e-01" nType="-99"/>
          </Node>
        </Node>
        <Node pos="r" depth="1" NCoef="0" IVar="5" Cut="-2.2439131736755371e+00" cType="1" res="-1.3239203952252865e-02" rms="4.6061548590660095e-01" purity="5.5743008852005005e-01" nType="0">
          <Node pos="l" depth="2" NCoef="0" IVar="6" Cut="1.4957387745380402e-01" cType="1" res="-3.1918708235025406e-02" rms="4.5548444986343384e-01" purity="5.8262109756469727e-01" nType="0">
            <Node pos="l" depth="3" NCoef="0" IVar="-1" Cut="0.0000000000000000e+00" cType="1" res="-5.0867110490798950e-02" rms="4.6845448017120361e-01" purity="5.1029312610626221e-01" nType="-99"/>
            <Node pos="r" depth="3" NCoef="0" IVar="-1" Cut="0.0000000000000000e+00" cType="1" res="-1.0952302254736423e-02" rms="4.3059355020523071e-01" purity="7.1054810285568237e-01" nType="-99"/>
          </Node>
          <Node pos="r" depth="2" NCoef="0" IVar="8" Cut="9.0833546875000000e+04" cType="1" res="-7.7943378128111362e-03" rms="4.6195825934410095e-01" purity="5.5008721351623535e-01" nType="0">
            <Node pos="l" depth="3" NCoef="0" IVar="-1" Cut="0.0000000000000000e+00" cType="1" res="-1.1069339234381914e-03" rms="4.6777996420860291e-01" purity="5.1592105627059937e-01" nType="-99"/>
            <Node pos="r" depth="3" NCoef="0" IVar="-1" Cut="0.0000000000000000e+00" cType="1" res="-2.6445228606462479e-02" rms="4.4661787152290344e-01" purity="6.3580161333084106e-01" nType="-99"/>
          </Node>
        </Node>
      </Node>
    </BinaryTree>
    <BinaryTree type="DecisionTree" boostWeight="1.0000000000000000e+00" itree="368">
      <Node pos="s" depth="0" NCoef="0" IVar="7" Cut="6.0000000000000000e+00" cType="1" res="0.0000000000000000e+00" rms="0.0000000000000000e+00" purity="4.9923235177993774e-01" nType="0">
        <Node pos="l" depth="1" NCoef="0" IVar="4" Cut="1.4112743139266968e+00" cType="1" res="-1.9691018387675285e-03" rms="4.6407008171081543e-01" purity="4.6956816315650940e-01" nType="0">
          <Node pos="l" depth="2" NCoef="0" IVar="0" Cut="2.0758364062500000e+05" cType="1" res="-1.5934268012642860e-02" rms="4.5548290014266968e-01" purity="4.1946500539779663e-01" nType="0">
            <Node pos="l" depth="3" NCoef="0" IVar="-1" Cut="0.0000000000000000e+00" cType="1" res="-2.1984428167343140e-02" rms="4.5687735080718994e-01" purity="4.0290364623069763e-01" nType="-99"/>
            <Node pos="r" depth="3" NCoef="0" IVar="-1" Cut="0.0000000000000000e+00" cType="1" res="2.5637870654463768e-02" rms="4.4719073176383972e-01" purity="5.0163573026657104e-01" nType="-99"/>
          </Node>
          <Node pos="r" depth="2" NCoef="0" IVar="4" Cut="3.2243971824645996e+00" cType="1" res="5.4965293966233730e-03" rms="4.6842539310455322e-01" purity="4.9635273218154907e-01" nType="0">
            <Node pos="l" depth="3" NCoef="0" IVar="-1" Cut="0.0000000000000000e+00" cType="1" res="8.4119047969579697e-03" rms="4.7099301218986511e-01" purity="5.1199698448181152e-01" nType="-99"/>
            <Node pos="r" depth="3" NCoef="0" IVar="-1" Cut="0.0000000000000000e+00" cType="1" res="-8.0845812335610390e-03" rms="4.4237801432609558e-01" purity="3.4707051515579224e-01" nType="-99"/>
          </Node>
        </Node>
        <Node pos="r" depth="1" NCoef="0" IVar="9" Cut="4.6773964843750000e+04" cType="1" res="-1.3668121770024300e-02" rms="4.5609876513481140e-01" purity="5.8033281564712524e-01" nType="0">
          <Node pos="l" depth="2" NCoef="0" IVar="-1" Cut="0.0000000000000000e+00" cType="1" res="-4.6629598364233971e-03" rms="4.6934878826141357e-01" purity="4.3198782205581665e-01" nType="-99"/>
          <Node pos="r" depth="2" NCoef="0" IVar="4" Cut="1.5933080911636353e+00" cType="1" res="-3.2134952489286661e-03" rms="4.5022675395011902e-01" purity="6.4011317491531372e-01" nType="0">
            <Node pos="l" depth="3" NCoef="0" IVar="-1" Cut="0.0000000000000000e+00" cType="1" res="-3.3680699765682220e-02" rms="4.6203276515007019e-01" purity="6.0765188932418823e-01" nType="-99"/>
            <Node pos="r" depth="3" NCoef="0" IVar="-1" Cut="0.0000000000000000e+00" cType="1" res="1.2227194383740425e-02" rms="4.4167062640190125e-01" purity="6.6130584478378296e-01" nType="-99"/>
          </Node>
        </Node>
      </Node>
    </BinaryTree>
    <BinaryTree type="DecisionTree" boostWeight="1.0000000000000000e+00" itree="369">
      <Node pos="s" depth="0" NCoef="0" IVar="5" Cut="-7.4795460700988770e-01" cType="1" res="-6.6659464500844479e-03" rms="4.6190118789672852e-01" purity="4.9724140763282776e-01" nType="0">
        <Node pos="l" depth="1" NCoef="0" IVar="6" Cut="1.9447628259658813e+00" cType="1" res="-1.8252152949571609e-02" rms="4.6118369698524475e-01" purity="5.0039285421371460e-01" nType="0">
          <Node pos="l" depth="2" NCoef="0" IVar="5" Cut="-1.2043659687042236e+00" cType="1" res="-1.3193913735449314e-02" rms="4.6265932917594910e-01" purity="5.0311791896820068e-01" nType="0">
            <Node pos="l" depth="3" NCoef="0" IVar="-1" Cut="0.0000000000000000e+00" cType="1" res="-1.7767826095223427e-02" rms="4.6162158250808716e-01" purity="5.0620830059051514e-01" nType="-99"/>
            <Node pos="r" depth="3" NCoef="0" IVar="-1" Cut="0.0000000000000000e+00" cType="1" res="9.1276634484529495e-03" rms="4.7030481696128845e-01" purity="4.7856155037879944e-01" nType="-99"/>
          </Node>
          <Node pos="r" depth="2" NCoef="0" IVar="-1" Cut="0.0000000000000000e+00" cType="1" res="-3.9894976653158665e-03" rms="4.4857263565063477e-01" purity="4.8054486513137817e-01" nType="-99"/>
        </Node>
        <Node pos="r" depth="1" NCoef="0" IVar="9" Cut="6.7559710937500000e+04" cType="1" res="2.1633347496390343e-03" rms="4.6225228905677795e-01" purity="4.9483987689018250e-01" nType="0">
          <Node pos="l" depth="2" NCoef="0" IVar="8" Cut="6.4845898437500000e+04" cType="1" res="-3.3479258418083191e-03" rms="4.6753963828086853e-01" purity="4.5343223214149475e-01" nType="0">
            <Node pos="l" depth="3" NCoef="0" IVar="-1" Cut="0.0000000000000000e+00" cType="1" res="4.1449400596320629e-03" rms="4.6649897098541260e-01" purity="4.1667661070823669e-01" nType="-99"/>
            <Node pos="r" depth="3" NCoef="0" IVar="-1" Cut="0.0000000000000000e+00" cType="1" res="-1.1188885197043419e-02" rms="4.6939060091972351e-01" purity="5.3163099288940430e-01" nType="-99"/>
          </Node>
          <Node pos="r" depth="2" NCoef="0" IVar="4" Cut="1.7055803537368774e+00" cType="1" res="2.9522534459829330e-02" rms="4.3401950597763062e-01" purity="7.0039719343185425e-01" nType="0">
            <Node pos="l" depth="3" NCoef="0" IVar="-1" Cut="0.0000000000000000e+00" cType="1" res="5.2882809191942215e-02" rms="4.3045455217361450e-01" purity="7.1379446983337402e-01" nType="-99"/>
            <Node pos="r" depth="3" NCoef="0" IVar="-1" Cut="0.0000000000000000e+00" cType="1" res="1.7243234440684319e-02" rms="4.3671095371246338e-01" purity="6.8789392709732056e-01" nType="-99"/>
          </Node>
        </Node>
      </Node>
    </BinaryTree>
    <BinaryTree type="DecisionTree" boostWeight="1.0000000000000000e+00" itree="370">
      <Node pos="s" depth="0" NCoef="0" IVar="3" Cut="3.5673124790191650e+00" cType="1" res="3.8174211513251066e-03" rms="4.6338915824890137e-01" purity="5.0893455743789673e-01" nType="0">
        <Node pos="l" depth="1" NCoef="0" IVar="1" Cut="1.6914245312500000e+05" cType="1" res="1.5166157856583595e-02" rms="4.7146394848823547e-01" purity="4.9143716692924500e-01" nType="0">
          <Node pos="l" depth="2" NCoef="0" IVar="1" Cut="1.2936135156250000e+05" cType="1" res="0.0000000000000000e+00" rms="0.0000000000000000e+00" purity="4.9027210474014282e-01" nType="0">
            <Node pos="l" depth="3" NCoef="0" IVar="-1" Cut="0.0000000000000000e+00" cType="1" res="2.7173414826393127e-02" rms="4.7928282618522644e-01" purity="4.6765744686126709e-01" nType="-99"/>
            <Node pos="r" depth="3" NCoef="0" IVar="-1" Cut="0.0000000000000000e+00" cType="1" res="-4.0121463825926185e-04" rms="4.6923929452896118e-01" purity="5.0069499015808105e-01" nType="-99"/>
          </Node>
          <Node pos="r" depth="2" NCoef="0" IVar="6" Cut="1.5012523531913757e-01" cType="1" res="0.0000000000000000e+00" rms="0.0000000000000000e+00" purity="4.9456480145454407e-01" nType="0">
            <Node pos="l" depth="3" NCoef="0" IVar="-1" Cut="0.0000000000000000e+00" cType="1" res="3.9556127041578293e-02" rms="4.7150161862373352e-01" purity="4.8653033375740051e-01" nType="-99"/>
            <Node pos="r" depth="3" NCoef="0" IVar="-1" Cut="0.0000000000000000e+00" cType="1" res="3.1977731734514236e-02" rms="4.6409961581230164e-01" purity="5.0277310609817505e-01" nType="-99"/>
          </Node>
        </Node>
        <Node pos="r" depth="1" NCoef="0" IVar="5" Cut="-1.0472447872161865e+00" cType="1" res="-4.0372908115386963e-03" rms="4.5755222439765930e-01" purity="5.2104490995407104e-01" nType="0">
          <Node pos="l" depth="2" NCoef="0" IVar="5" Cut="-2.1448307037353516e+00" cType="1" res="8.9079858735203743e-03" rms="4.5530563592910767e-01" purity="5.5918610095977783e-01" nType="0">
            <Node pos="l" depth="3" NCoef="0" IVar="-1" Cut="0.0000000000000000e+00" cType="1" res="2.7585292235016823e-02" rms="4.4927546381950378e-01" purity="5.9140938520431519e-01" nType="-99"/>
            <Node pos="r" depth="3" NCoef="0" IVar="-1" Cut="0.0000000000000000e+00" cType="1" res="-4.5235641300678253e-03" rms="4.6222063899040222e-01" purity="5.1998949050903320e-01" nType="-99"/>
          </Node>
          <Node pos="r" depth="2" NCoef="0" IVar="7" Cut="5.0000000000000000e+00" cType="1" res="-1.2215592898428440e-02" rms="4.5876696705818176e-01" purity="4.9689149856567383e-01" nType="0">
            <Node pos="l" depth="3" NCoef="0" IVar="-1" Cut="0.0000000000000000e+00" cType="1" res="-3.0792890116572380e-02" rms="4.6321186423301697e-01" purity="4.0408274531364441e-01" nType="-99"/>
            <Node pos="r" depth="3" NCoef="0" IVar="-1" Cut="0.0000000000000000e+00" cType="1" res="-3.6830690805800259e-04" rms="4.5481991767883301e-01" purity="5.7199436426162720e-01" nType="-99"/>
          </Node>
        </Node>
      </Node>
    </BinaryTree>
    <BinaryTree type="DecisionTree" boostWeight="1.0000000000000000e+00" itree="371">
      <Node pos="s" depth="0" NCoef="0" IVar="5" Cut="-7.4793750047683716e-01" cType="1" res="-2.7247825637459755e-03" rms="4.5978379249572754e-01" purity="5.0200718641281128e-01" nType="0">
        <Node pos="l" depth="1" NCoef="0" IVar="5" Cut="-1.8880045413970947e+00" cType="1" res="-9.8751047626137733e-03" rms="4.5629683136940002e-01" purity="5.1127493381500244e-01" nType="0">
          <Node pos="l" depth="2" NCoef="0" IVar="8" Cut="9.2453945312500000e+04" cType="1" res="-2.1802980918437243e-03" rms="4.5258334279060364e-01" purity="5.4179787635803223e-01" nType="0">
            <Node pos="l" depth="3" NCoef="0" IVar="-1" Cut="0.0000000000000000e+00" cType="1" res="-7.8560654073953629e-03" rms="4.6022450923919678e-01" purity="4.9081873893737793e-01" nType="-99"/>
            <Node pos="r" depth="3" NCoef="0" IVar="-1" Cut="0.0000000000000000e+00" cType="1" res="1.8648184835910797e-02" rms="4.2939627170562744e-01" purity="6.8877381086349487e-01" nType="-99"/>
          </Node>
          <Node pos="r" depth="2" NCoef="0" IVar="4" Cut="1.4950768947601318e+00" cType="1" res="-2.4584902450442314e-02" rms="4.6295705437660217e-01" purity="4.5292562246322632e-01" nType="0">
            <Node pos="l" depth="3" NCoef="0" IVar="-1" Cut="0.0000000000000000e+00" cType="1" res="9.5927128568291664e-03" rms="4.5648777484893799e-01" purity="4.2766827344894409e-01" nType="-99"/>
            <Node pos="r" depth="3" NCoef="0" IVar="-1" Cut="0.0000000000000000e+00" cType="1" res="-2.0995950326323509e-02" rms="4.6537888050079346e-01" purity="4.6662199497222900e-01" nType="-99"/>
          </Node>
        </Node>
        <Node pos="r" depth="1" NCoef="0" IVar="6" Cut="4.4881492853164673e-01" cType="1" res="2.6882584206759930e-03" rms="4.6233251690864563e-01" purity="4.9499115347862244e-01" nType="0">
          <Node pos="l" depth="2" NCoef="0" IVar="4" Cut="2.4204943180084229e+00" cType="1" res="1.8587021157145500e-02" rms="4.4738000631332397e-01" purity="5.8183115720748901e-01" nType="0">
            <Node pos="l" depth="3" NCoef="0" IVar="-1" Cut="0.0000000000000000e+00" cType="1" res="7.3759462684392929e-03" rms="4.4202443957328796e-01" purity="5.6209647655487061e-01" nType="-99"/>
            <Node pos="r" depth="3" NCoef="0" IVar="-1" Cut="0.0000000000000000e+00" cType="1" res="5.2929289638996124e-02" rms="4.5650592446327209e-01" purity="6.1901628971099854e-01" nType="-99"/>
          </Node>
          <Node pos="r" depth="2" NCoef="0" IVar="4" Cut="3.0035190582275391e+00" cType="1" res="-5.4820170626044273e-03" rms="4.6962213516235352e-01" purity="4.5036461949348450e-01" nType="0">
            <Node pos="l" depth="3" NCoef="0" IVar="-1" Cut="0.0000000000000000e+00" cType="1" res="-7.3427245952188969e-03" rms="4.7101807594299316e-01" purity="4.4866508245468140e-01" nType="-99"/>
            <Node pos="r" depth="3" NCoef="0" IVar="-1" Cut="0.0000000000000000e+00" cType="1" res="2.7891678735613823e-02" rms="4.5888060331344604e-01" purity="4.6123191714286804e-01" nType="-99"/>
          </Node>
        </Node>
      </Node>
    </BinaryTree>
    <BinaryTree type="DecisionTree" boostWeight="1.0000000000000000e+00" itree="372">
      <Node pos="s" depth="0" NCoef="0" IVar="4" Cut="1.6400408744812012e+00" cType="1" res="-7.1157672209665179e-04" rms="4.6246147155761719e-01" purity="5.0734436511993408e-01" nType="0">
        <Node pos="l" depth="1" NCoef="0" IVar="7" Cut="6.0000000000000000e+00" cType="1" res="9.9582411348819733e-03" rms="4.6167153120040894e-01" purity="4.8870667815208435e-01" nType="0">
          <Node pos="l" depth="2" NCoef="0" IVar="4" Cut="7.5386029481887817e-01" cType="1" res="4.6728295274078846e-03" rms="4.6229568123817444e-01" purity="4.4813185930252075e-01" nType="0">
            <Node pos="l" depth="3" NCoef="0" IVar="-1" Cut="0.0000000000000000e+00" cType="1" res="3.1291943043470383e-02" rms="4.6410000324249268e-01" purity="4.6370461583137512e-01" nType="-99"/>
            <Node pos="r" depth="3" NCoef="0" IVar="-1" Cut="0.0000000000000000e+00" cType="1" res="-3.4243590198457241e-03" rms="4.6143102645874023e-01" purity="4.4267389178276062e-01" nType="-99"/>
          </Node>
          <Node pos="r" depth="2" NCoef="0" IVar="4" Cut="1.1232668161392212e+00" cType="1" res="2.4668099358677864e-02" rms="4.5966923236846924e-01" purity="6.0234707593917847e-01" nType="0">
            <Node pos="l" depth="3" NCoef="0" IVar="-1" Cut="0.0000000000000000e+00" cType="1" res="1.0953050106763840e-02" rms="4.6930927038192749e-01" purity="5.7654047012329102e-01" nType="-99"/>
            <Node pos="r" depth="3" NCoef="0" IVar="-1" Cut="0.0000000000000000e+00" cType="1" res="5.9241753071546555e-02" rms="4.4402432441711426e-01" purity="6.4071047306060791e-01" nType="-99"/>
          </Node>
        </Node>
        <Node pos="r" depth="1" NCoef="0" IVar="6" Cut="2.8423907756805420e+00" cType="1" res="-8.3957007154822350e-03" rms="4.6286538243293762e-01" purity="5.2079772949218750e-01" nType="0">
          <Node pos="l" depth="2" NCoef="0" IVar="8" Cut="6.2871515625000000e+04" cType="1" res="-1.2112095020711422e-02" rms="4.6133860945701599e-01" purity="5.1823937892913818e-01" nType="0">
            <Node pos="l" depth="3" NCoef="0" IVar="-1" Cut="0.0000000000000000e+00" cType="1" res="-1.4026809949427843e-03" rms="4.6634751558303833e-01" purity="4.4081369042396545e-01" nType="-99"/>
            <Node pos="r" depth="3" NCoef="0" IVar="-1" Cut="0.0000000000000000e+00" cType="1" res="-2.3366145789623260e-02" rms="4.5536619424819946e-01" purity="6.0566377639770508e-01" nType="-99"/>
          </Node>
          <Node pos="r" depth="2" NCoef="0" IVar="-1" Cut="0.0000000000000000e+00" cType="1" res="1.4510739594697952e-02" rms="4.7338843345642090e-01" purity="5.4030811786651611e-01" nType="-99"/>
        </Node>
      </Node>
    </BinaryTree>
    <BinaryTree type="DecisionTree" boostWeight="1.0000000000000000e+00" itree="373">
      <Node pos="s" depth="0" NCoef="0" IVar="5" Cut="1.9448095560073853e+00" cType="1" res="-1.2121563777327538e-03" rms="4.6053701639175415e-01" purity="5.0085449218750000e-01" nType="0">
        <Node pos="l" depth="1" NCoef="0" IVar="4" Cut="6.1113601922988892e-01" cType="1" res="0.0000000000000000e+00" rms="0.0000000000000000e+00" purity="4.8364558815956116e-01" nType="0">
          <Node pos="l" depth="2" NCoef="0" IVar="-1" Cut="0.0000000000000000e+00" cType="1" res="-2.7566120028495789e-02" rms="4.4645050168037415e-01" purity="4.3040516972541809e-01" nType="-99"/>
          <Node pos="r" depth="2" NCoef="0" IVar="5" Cut="1.2180019617080688e+00" cType="1" res="-2.4031535722315311e-03" rms="4.6198263764381409e-01" purity="4.8726290464401245e-01" nType="0">
            <Node pos="l" depth="3" NCoef="0" IVar="-1" Cut="0.0000000000000000e+00" cType="1" res="3.4004934132099152e-03" rms="4.6520414948463440e-01" purity="4.9809223413467407e-01" nType="-99"/>
            <Node pos="r" depth="3" NCoef="0" IVar="-1" Cut="0.0000000000000000e+00" cType="1" res="-1.8726174021139741e-03" rms="4.4319659471511841e-01" purity="4.2936378717422485e-01" nType="-99"/>
          </Node>
        </Node>
        <Node pos="r" depth="1" NCoef="0" IVar="4" Cut="2.6655979156494141e+00" cType="1" res="9.7420513629913330e-03" rms="4.5873615145683289e-01" purity="5.4620319604873657e-01" nType="0">
          <Node pos="l" depth="2" NCoef="0" IVar="6" Cut="1.0471764802932739e+00" cType="1" res="2.1010944619774818e-02" rms="4.5767509937286377e-01" purity="5.6003814935684204e-01" nType="0">
            <Node pos="l" depth="3" NCoef="0" IVar="-1" Cut="0.0000000000000000e+00" cType="1" res="5.1993187516927719e-03" rms="4.3551817536354065e-01" purity="5.9760761260986328e-01" nType="-99"/>
            <Node pos="r" depth="3" NCoef="0" IVar="-1" Cut="0.0000000000000000e+00" cType="1" res="3.3142156898975372e-02" rms="4.7240743041038513e-01" purity="5.3335756063461304e-01" nType="-99"/>
          </Node>
          <Node pos="r" depth="2" NCoef="0" IVar="-1" Cut="0.0000000000000000e+00" cType="1" res="-1.8925916403532028e-02" rms="4.6020293235778809e-01" purity="5.0959295034408569e-01" nType="-99"/>
        </Node>
      </Node>
    </BinaryTree>
    <BinaryTree type="DecisionTree" boostWeight="1.0000000000000000e+00" itree="374">
      <Node pos="s" depth="0" NCoef="0" IVar="7" Cut="7.0000000000000000e+00" cType="1" res="0.0000000000000000e+00" rms="0.0000000000000000e+00" purity="4.9510475993156433e-01" nType="0">
        <Node pos="l" depth="1" NCoef="0" IVar="6" Cut="2.8423199653625488e+00" cType="1" res="-1.8731774762272835e-03" rms="4.6282589435577393e-01" purity="4.9320730566978455e-01" nType="0">
          <Node pos="l" depth="2" NCoef="0" IVar="5" Cut="-1.3463257551193237e+00" cType="1" res="1.3498543994501233e-03" rms="4.6193867921829224e-01" purity="4.9727448821067810e-01" nType="0">
            <Node pos="l" depth="3" NCoef="0" IVar="-1" Cut="0.0000000000000000e+00" cType="1" res="1.1191474273800850e-02" rms="4.6047091484069824e-01" purity="5.2137076854705811e-01" nType="-99"/>
            <Node pos="r" depth="3" NCoef="0" IVar="-1" Cut="0.0000000000000000e+00" cType="1" res="-4.9161450006067753e-03" rms="4.6278458833694458e-01" purity="4.8186501860618591e-01" nType="-99"/>
          </Node>
          <Node pos="r" depth="2" NCoef="0" IVar="3" Cut="6.0181264877319336e+00" cType="1" res="-2.8574990108609200e-02" rms="4.6926113963127136e-01" purity="4.5951205492019653e-01" nType="0">
            <Node pos="l" depth="3" NCoef="0" IVar="-1" Cut="0.0000000000000000e+00" cType="1" res="-4.5486588031053543e-02" rms="4.7079938650131226e-01" purity="4.3634250760078430e-01" nType="-99"/>
            <Node pos="r" depth="3" NCoef="0" IVar="-1" Cut="0.0000000000000000e+00" cType="1" res="-2.0301807671785355e-03" rms="4.6609842777252197e-01" purity="4.8504287004470825e-01" nType="-99"/>
          </Node>
        </Node>
        <Node pos="r" depth="1" NCoef="0" IVar="4" Cut="1.5639826059341431e+00" cType="1" res="0.0000000000000000e+00" rms="0.0000000000000000e+00" purity="5.0895237922668457e-01" nType="0">
          <Node pos="l" depth="2" NCoef="0" IVar="-1" Cut="0.0000000000000000e+00" cType="1" res="-1.7348572146147490e-03" rms="3.8706988096237183e-01" purity="3.8407474756240845e-01" nType="-99"/>
          <Node pos="r" depth="2" NCoef="0" IVar="-1" Cut="0.0000000000000000e+00" cType="1" res="-3.8536875508725643e-03" rms="4.5943182706832886e-01" purity="6.2645977735519409e-01" nType="-99"/>
        </Node>
      </Node>
    </BinaryTree>
    <BinaryTree type="DecisionTree" boostWeight="1.0000000000000000e+00" itree="375">
      <Node pos="s" depth="0" NCoef="0" IVar="3" Cut="-5.0363677740097046e-01" cType="1" res="-4.9160094931721687e-03" rms="4.6156284213066101e-01" purity="4.9996963143348694e-01" nType="0">
        <Node pos="l" depth="1" NCoef="0" IVar="-1" Cut="0.0000000000000000e+00" cType="1" res="1.1682335287332535e-02" rms="4.7137677669525146e-01" purity="4.3286934494972229e-01" nType="-99"/>
        <Node pos="r" depth="1" NCoef="0" IVar="8" Cut="1.0043669531250000e+05" cType="1" res="0.0000000000000000e+00" rms="0.0000000000000000e+00" purity="5.0676792860031128e-01" nType="0">
          <Node pos="l" depth="2" NCoef="0" IVar="9" Cut="2.8546605468750000e+04" cType="1" res="-1.0471384041011333e-02" rms="4.6596932411193848e-01" purity="4.6798279881477356e-01" nType="0">
            <Node pos="l" depth="3" NCoef="0" IVar="-1" Cut="0.0000000000000000e+00" cType="1" res="1.7015090212225914e-02" rms="4.6020889282226562e-01" purity="3.4373816847801208e-01" nType="-99"/>
            <Node pos="r" depth="3" NCoef="0" IVar="-1" Cut="0.0000000000000000e+00" cType="1" res="-4.1739721782505512e-03" rms="4.6704444289207458e-01" purity="4.9552464485168457e-01" nType="-99"/>
          </Node>
          <Node pos="r" depth="2" NCoef="0" IVar="3" Cut="4.9201683998107910e+00" cType="1" res="0.0000000000000000e+00" rms="0.0000000000000000e+00" purity="6.8724232912063599e-01" nType="0">
            <Node pos="l" depth="3" NCoef="0" IVar="-1" Cut="0.0000000000000000e+00" cType="1" res="-4.1274358518421650e-03" rms="4.5353618264198303e-01" purity="6.3280946016311646e-01" nType="-99"/>
            <Node pos="r" depth="3" NCoef="0" IVar="-1" Cut="0.0000000000000000e+00" cType="1" res="3.1409002840518951e-02" rms="4.1596764326095581e-01" purity="7.3345273733139038e-01" nType="-99"/>
          </Node>
        </Node>
      </Node>
    </BinaryTree>
    <BinaryTree type="DecisionTree" boostWeight="1.0000000000000000e+00" itree="376">
      <Node pos="s" depth="0" NCoef="0" IVar="7" Cut="6.0000000000000000e+00" cType="1" res="-8.7013347074389458e-03" rms="4.6123731136322021e-01" purity="4.9462658166885376e-01" nType="0">
        <Node pos="l" depth="1" NCoef="0" IVar="0" Cut="2.5418456250000000e+05" cType="1" res="-2.3672026582062244e-03" rms="4.6456995606422424e-01" purity="4.6748939156532288e-01" nType="0">
          <Node pos="l" depth="2" NCoef="0" IVar="1" Cut="2.6742253125000000e+05" cType="1" res="0.0000000000000000e+00" rms="0.0000000000000000e+00" purity="4.6174824237823486e-01" nType="0">
            <Node pos="l" depth="3" NCoef="0" IVar="-1" Cut="0.0000000000000000e+00" cType="1" res="-1.7132837092503905e-03" rms="4.6627634763717651e-01" purity="4.7003567218780518e-01" nType="-99"/>
            <Node pos="r" depth="3" NCoef="0" IVar="-1" Cut="0.0000000000000000e+00" cType="1" res="4.4162474572658539e-02" rms="4.4225233793258667e-01" purity="3.3107092976570129e-01" nType="-99"/>
          </Node>
          <Node pos="r" depth="2" NCoef="0" IVar="-1" Cut="0.0000000000000000e+00" cType="1" res="-6.6478654742240906e-02" rms="4.5663425326347351e-01" purity="5.6127429008483887e-01" nType="-99"/>
        </Node>
        <Node pos="r" depth="1" NCoef="0" IVar="9" Cut="4.5072027343750000e+04" cType="1" res="-2.5411061942577362e-02" rms="4.5191547274589539e-01" purity="5.6616926193237305e-01" nType="0">
          <Node pos="l" depth="2" NCoef="0" IVar="-1" Cut="0.0000000000000000e+00" cType="1" res="-4.0113939903676510e-03" rms="4.5417615771293640e-01" purity="3.9623981714248657e-01" nType="-99"/>
          <Node pos="r" depth="2" NCoef="0" IVar="9" Cut="6.3525031250000000e+04" cType="1" res="0.0000000000000000e+00" rms="0.0000000000000000e+00" purity="6.3476896286010742e-01" nType="0">
            <Node pos="l" depth="3" NCoef="0" IVar="-1" Cut="0.0000000000000000e+00" cType="1" res="1.2137437239289284e-02" rms="4.6931260824203491e-01" purity="5.9805321693420410e-01" nType="-99"/>
            <Node pos="r" depth="3" NCoef="0" IVar="-1" Cut="0.0000000000000000e+00" cType="1" res="-1.9211210310459137e-02" rms="4.3572187423706055e-01" purity="6.6000121831893921e-01" nType="-99"/>
          </Node>
        </Node>
      </Node>
    </BinaryTree>
    <BinaryTree type="DecisionTree" boostWeight="1.0000000000000000e+00" itree="377">
      <Node pos="s" depth="0" NCoef="0" IVar="6" Cut="2.8423221111297607e+00" cType="1" res="-2.5399450678378344e-03" rms="4.6251869201660156e-01" purity="5.0192576646804810e-01" nType="0">
        <Node pos="l" depth="1" NCoef="0" IVar="5" Cut="-1.6455287933349609e+00" cType="1" res="0.0000000000000000e+00" rms="0.0000000000000000e+00" purity="5.0147932767868042e-01" nType="0">
          <Node pos="l" depth="2" NCoef="0" IVar="3" Cut="3.6417973041534424e+00" cType="1" res="-1.2387756258249283e-02" rms="4.6102300286293030e-01" purity="5.1833033561706543e-01" nType="0">
            <Node pos="l" depth="3" NCoef="0" IVar="-1" Cut="0.0000000000000000e+00" cType="1" res="-4.6786814345978200e-04" rms="4.6705672144889832e-01" purity="4.9891036748886108e-01" nType="-99"/>
            <Node pos="r" depth="3" NCoef="0" IVar="-1" Cut="0.0000000000000000e+00" cType="1" res="-2.9881061986088753e-02" rms="4.5526301860809326e-01" purity="5.3579241037368774e-01" nType="-99"/>
          </Node>
          <Node pos="r" depth="2" NCoef="0" IVar="3" Cut="5.1293212175369263e-01" cType="1" res="-2.8016809374094009e-03" rms="4.6113365888595581e-01" purity="4.9264195561408997e-01" nType="0">
            <Node pos="l" depth="3" NCoef="0" IVar="-1" Cut="0.0000000000000000e+00" cType="1" res="-1.7412070184946060e-02" rms="4.6443501114845276e-01" purity="3.8942664861679077e-01" nType="-99"/>
            <Node pos="r" depth="3" NCoef="0" IVar="-1" Cut="0.0000000000000000e+00" cType="1" res="6.4156536245718598e-04" rms="4.6052309870719910e-01" purity="5.0873035192489624e-01" nType="-99"/>
          </Node>
        </Node>
        <Node pos="r" depth="1" NCoef="0" IVar="5" Cut="1.0465873479843140e+00" cType="1" res="2.8654510155320168e-02" rms="4.7347292304039001e-01" purity="5.0583845376968384e-01" nType="0">
          <Node pos="l" depth="2" NCoef="0" IVar="-1" Cut="0.0000000000000000e+00" cType="1" res="1.6766995191574097e-02" rms="4.6786585450172424e-01" purity="4.5536744594573975e-01" nType="-99"/>
          <Node pos="r" depth="2" NCoef="0" IVar="-1" Cut="0.0000000000000000e+00" cType="1" res="4.9110643565654755e-02" rms="4.8006159067153931e-01" purity="5.7123559713363647e-01" nType="-99"/>
        </Node>
      </Node>
    </BinaryTree>
    <BinaryTree type="DecisionTree" boostWeight="1.0000000000000000e+00" itree="378">
      <Node pos="s" depth="0" NCoef="0" IVar="4" Cut="1.6705539226531982e+00" cType="1" res="-7.4401352321729064e-04" rms="4.6214178204536438e-01" purity="5.0591671466827393e-01" nType="0">
        <Node pos="l" depth="1" NCoef="0" IVar="5" Cut="2.2439022064208984e+00" cType="1" res="-7.3371040634810925e-03" rms="4.6202421188354492e-01" purity="4.7204732894897461e-01" nType="0">
          <Node pos="l" depth="2" NCoef="0" IVar="4" Cut="1.3675985336303711e+00" cType="1" res="-6.5616732172202319e-05" rms="4.6204057335853577e-01" purity="4.6255490183830261e-01" nType="0">
            <Node pos="l" depth="3" NCoef="0" IVar="-1" Cut="0.0000000000000000e+00" cType="1" res="5.4914015345275402e-03" rms="4.5877274870872498e-01" purity="4.5879846811294556e-01" nType="-99"/>
            <Node pos="r" depth="3" NCoef="0" IVar="-1" Cut="0.0000000000000000e+00" cType="1" res="-1.6262229532003403e-02" rms="4.7230476140975952e-01" purity="4.7487321496009827e-01" nType="-99"/>
          </Node>
          <Node pos="r" depth="2" NCoef="0" IVar="5" Cut="2.6713178157806396e+00" cType="1" res="-3.2639276236295700e-02" rms="4.6107444167137146e-01" purity="5.0507760047912598e-01" nType="0">
            <Node pos="l" depth="3" NCoef="0" IVar="-1" Cut="0.0000000000000000e+00" cType="1" res="-6.6853769123554230e-02" rms="4.6708998084068298e-01" purity="4.7870686650276184e-01" nType="-99"/>
            <Node pos="r" depth="3" NCoef="0" IVar="-1" Cut="0.0000000000000000e+00" cType="1" res="-2.4677839130163193e-02" rms="4.5541709661483765e-01" purity="5.2746319770812988e-01" nType="-99"/>
          </Node>
        </Node>
        <Node pos="r" depth="1" NCoef="0" IVar="2" Cut="2.2296136474609375e+02" cType="1" res="4.2203878983855247e-03" rms="4.6216824650764465e-01" purity="5.3141933679580688e-01" nType="0">
          <Node pos="l" depth="2" NCoef="0" IVar="9" Cut="3.9957617187500000e+04" cType="1" res="-5.6660054251551628e-03" rms="4.6053895354270935e-01" purity="5.3254073858261108e-01" nType="0">
            <Node pos="l" depth="3" NCoef="0" IVar="-1" Cut="0.0000000000000000e+00" cType="1" res="-2.2553369402885437e-02" rms="4.6831181645393372e-01" purity="4.1059100627899170e-01" nType="-99"/>
            <Node pos="r" depth="3" NCoef="0" IVar="-1" Cut="0.0000000000000000e+00" cType="1" res="1.0454409755766392e-02" rms="4.5293858647346497e-01" purity="6.4200240373611450e-01" nType="-99"/>
          </Node>
          <Node pos="r" depth="2" NCoef="0" IVar="5" Cut="1.3464324474334717e+00" cType="1" res="2.4312928318977356e-02" rms="4.6481448411941528e-01" purity="5.2914035320281982e-01" nType="0">
            <Node pos="l" depth="3" NCoef="0" IVar="-1" Cut="0.0000000000000000e+00" cType="1" res="4.2662516236305237e-02" rms="4.6630769968032837e-01" purity="5.4908698797225952e-01" nType="-99"/>
            <Node pos="r" depth="3" NCoef="0" IVar="-1" Cut="0.0000000000000000e+00" cType="1" res="3.2968542072921991e-03" rms="4.6167993545532227e-01" purity="4.9712678790092468e-01" nType="-99"/>
          </Node>
        </Node>
      </Node>
    </BinaryTree>
    <BinaryTree type="DecisionTree" boostWeight="1.0000000000000000e+00" itree="379">
      <Node pos="s" depth="0" NCoef="0" IVar="4" Cut="3.3736600875854492e+00" cType="1" res="-8.7330946698784828e-03" rms="4.5689007639884949e-01" purity="4.8811510205268860e-01" nType="0">
        <Node pos="l" depth="1" NCoef="0" IVar="5" Cut="1.3463873863220215e+00" cType="1" res="-6.1146058142185211e-03" rms="4.5823958516120911e-01" purity="4.9674689769744873e-01" nType="0">
          <Node pos="l" depth="2" NCoef="0" IVar="5" Cut="-1.6455633640289307e+00" cType="1" res="0.0000000000000000e+00" rms="0.0000000000000000e+00" purity="5.0232130289077759e-01" nType="0">
            <Node pos="l" depth="3" NCoef="0" IVar="-1" Cut="0.0000000000000000e+00" cType="1" res="-2.9511607717722654e-03" rms="4.5610690116882324e-01" purity="5.2629941701889038e-01" nType="-99"/>
            <Node pos="r" depth="3" NCoef="0" IVar="-1" Cut="0.0000000000000000e+00" cType="1" res="1.4278434216976166e-02" rms="4.6714869141578674e-01" purity="4.7558781504631042e-01" nType="-99"/>
          </Node>
          <Node pos="r" depth="2" NCoef="0" IVar="5" Cut="1.6883559226989746e+00" cType="1" res="-1.8678184598684311e-02" rms="4.5268917083740234e-01" purity="4.8773726820945740e-01" nType="0">
            <Node pos="l" depth="3" NCoef="0" IVar="-1" Cut="0.0000000000000000e+00" cType="1" res="-1.2921582674607635e-03" rms="3.9747595787048340e-01" purity="3.1289470195770264e-01" nType="-99"/>
            <Node pos="r" depth="3" NCoef="0" IVar="-1" Cut="0.0000000000000000e+00" cType="1" res="-4.9096010625362396e-03" rms="4.6154829859733582e-01" purity="5.2061432600021362e-01" nType="-99"/>
          </Node>
        </Node>
        <Node pos="r" depth="1" NCoef="0" IVar="-1" Cut="0.0000000000000000e+00" cType="1" res="-1.9283447414636612e-02" rms="4.2252004146575928e-01" purity="3.0053329467773438e-01" nType="-99"/>
      </Node>
    </BinaryTree>
    <BinaryTree type="DecisionTree" boostWeight="1.0000000000000000e+00" itree="380">
      <Node pos="s" depth="0" NCoef="0" IVar="7" Cut="5.0000000000000000e+00" cType="1" res="-2.6429572608321905e-03" rms="4.5970132946968079e-01" purity="5.0157248973846436e-01" nType="0">
        <Node pos="l" depth="1" NCoef="0" IVar="4" Cut="8.3067220449447632e-01" cType="1" res="0.0000000000000000e+00" rms="0.0000000000000000e+00" purity="4.1329213976860046e-01" nType="0">
          <Node pos="l" depth="2" NCoef="0" IVar="-1" Cut="0.0000000000000000e+00" cType="1" res="-8.0206096172332764e-03" rms="4.2829811573028564e-01" purity="3.0903613567352295e-01" nType="-99"/>
          <Node pos="r" depth="2" NCoef="0" IVar="5" Cut="1.6449670791625977e+00" cType="1" res="-3.6564965266734362e-03" rms="4.6604365110397339e-01" purity="4.3056082725524902e-01" nType="0">
            <Node pos="l" depth="3" NCoef="0" IVar="-1" Cut="0.0000000000000000e+00" cType="1" res="-1.1957222595810890e-02" rms="4.6558842062950134e-01" purity="4.1350859403610229e-01" nType="-99"/>
            <Node pos="r" depth="3" NCoef="0" IVar="-1" Cut="0.0000000000000000e+00" cType="1" res="1.2957039289176464e-02" rms="4.6643984317779541e-01" purity="4.6534308791160583e-01" nType="-99"/>
          </Node>
        </Node>
        <Node pos="r" depth="1" NCoef="0" IVar="6" Cut="-4.4880267977714539e-01" cType="1" res="4.2743724770843983e-03" rms="4.5833647251129150e-01" purity="5.7292544841766357e-01" nType="0">
          <Node pos="l" depth="2" NCoef="0" IVar="3" Cut="3.7265925407409668e+00" cType="1" res="-1.8112206598743796e-03" rms="4.6226033568382263e-01" purity="5.6126463413238525e-01" nType="0">
            <Node pos="l" depth="3" NCoef="0" IVar="-1" Cut="0.0000000000000000e+00" cType="1" res="8.1522241234779358e-03" rms="4.7480127215385437e-01" purity="5.4178398847579956e-01" nType="-99"/>
            <Node pos="r" depth="3" NCoef="0" IVar="-1" Cut="0.0000000000000000e+00" cType="1" res="-1.2354637496173382e-02" rms="4.5216941833496094e-01" purity="5.7631987333297729e-01" nType="-99"/>
          </Node>
          <Node pos="r" depth="2" NCoef="0" IVar="5" Cut="-2.5428102016448975e+00" cType="1" res="9.2623345553874969e-03" rms="4.5503440499305725e-01" purity="5.8248305320739746e-01" nType="0">
            <Node pos="l" depth="3" NCoef="0" IVar="-1" Cut="0.0000000000000000e+00" cType="1" res="-3.5457670688629150e-02" rms="4.2518025636672974e-01" purity="6.7497432231903076e-01" nType="-99"/>
            <Node pos="r" depth="3" NCoef="0" IVar="-1" Cut="0.0000000000000000e+00" cType="1" res="1.6830218955874443e-02" rms="4.5935511589050293e-01" purity="5.6784540414810181e-01" nType="-99"/>
          </Node>
        </Node>
      </Node>
    </BinaryTree>
    <BinaryTree type="DecisionTree" boostWeight="1.0000000000000000e+00" itree="381">
      <Node pos="s" depth="0" NCoef="0" IVar="4" Cut="1.4202798604965210e+00" cType="1" res="-5.7774386368691921e-03" rms="4.6272915601730347e-01" purity="4.9699065089225769e-01" nType="0">
        <Node pos="l" depth="1" NCoef="0" IVar="1" Cut="1.9916271875000000e+05" cType="1" res="3.0536516569554806e-03" rms="4.6134844422340393e-01" purity="4.6893709897994995e-01" nType="0">
          <Node pos="l" depth="2" NCoef="0" IVar="5" Cut="-1.4950199425220490e-01" cType="1" res="-2.5967904366552830e-03" rms="4.6797755360603333e-01" purity="5.0394827127456665e-01" nType="0">
            <Node pos="l" depth="3" NCoef="0" IVar="-1" Cut="0.0000000000000000e+00" cType="1" res="1.5175975859165192e-02" rms="4.7124335169792175e-01" purity="5.2229458093643188e-01" nType="-99"/>
            <Node pos="r" depth="3" NCoef="0" IVar="-1" Cut="0.0000000000000000e+00" cType="1" res="-6.7142769694328308e-03" rms="4.6460583806037903e-01" purity="4.8727363348007202e-01" nType="-99"/>
          </Node>
          <Node pos="r" depth="2" NCoef="0" IVar="6" Cut="1.4919808506965637e-01" cType="1" res="1.8360033631324768e-02" rms="4.4253057241439819e-01" purity="3.7409627437591553e-01" nType="0">
            <Node pos="l" depth="3" NCoef="0" IVar="-1" Cut="0.0000000000000000e+00" cType="1" res="9.2077674344182014e-03" rms="4.4281321763992310e-01" purity="3.6073142290115356e-01" nType="-99"/>
            <Node pos="r" depth="3" NCoef="0" IVar="-1" Cut="0.0000000000000000e+00" cType="1" res="5.0194699317216873e-02" rms="4.4184401631355286e-01" purity="3.8854435086250305e-01" nType="-99"/>
          </Node>
        </Node>
        <Node pos="r" depth="1" NCoef="0" IVar="6" Cut="-1.6455991268157959e+00" cType="1" res="-1.0458298027515411e-02" rms="4.6339109539985657e-01" purity="5.1186031103134155e-01" nType="0">
          <Node pos="l" depth="2" NCoef="0" IVar="3" Cut="3.2687304019927979e+00" cType="1" res="-2.1404488012194633e-02" rms="4.7321718931198120e-01" purity="4.7226288914680481e-01" nType="0">
            <Node pos="l" depth="3" NCoef="0" IVar="-1" Cut="0.0000000000000000e+00" cType="1" res="-4.0786057710647583e-02" rms="4.6933361887931824e-01" purity="4.0569218993186951e-01" nType="-99"/>
            <Node pos="r" depth="3" NCoef="0" IVar="-1" Cut="0.0000000000000000e+00" cType="1" res="-9.8846051841974258e-03" rms="4.7503972053527832e-01" purity="5.1167082786560059e-01" nType="-99"/>
          </Node>
          <Node pos="r" depth="2" NCoef="0" IVar="5" Cut="-2.5431003570556641e+00" cType="1" res="-4.3871565721929073e-03" rms="4.5773744583129883e-01" purity="5.3382235765457153e-01" nType="0">
            <Node pos="l" depth="3" NCoef="0" IVar="-1" Cut="0.0000000000000000e+00" cType="1" res="4.0322124958038330e-02" rms="4.5110502839088440e-01" purity="6.3367402553558350e-01" nType="-99"/>
            <Node pos="r" depth="3" NCoef="0" IVar="-1" Cut="0.0000000000000000e+00" cType="1" res="-5.5995462462306023e-03" rms="4.5838505029678345e-01" purity="5.2093046903610229e-01" nType="-99"/>
          </Node>
        </Node>
      </Node>
    </BinaryTree>
    <BinaryTree type="DecisionTree" boostWeight="1.0000000000000000e+00" itree="382">
      <Node pos="s" depth="0" NCoef="0" IVar="7" Cut="7.0000000000000000e+00" cType="1" res="-2.6958973612636328e-03" rms="4.6168920397758484e-01" purity="4.9776491522789001e-01" nType="0">
        <Node pos="l" depth="1" NCoef="0" IVar="2" Cut="2.4033009338378906e+02" cType="1" res="1.3957202900201082e-03" rms="4.6401044726371765e-01" purity="4.9038660526275635e-01" nType="0">
          <Node pos="l" depth="2" NCoef="0" IVar="2" Cut="1.7034162902832031e+02" cType="1" res="6.3042147085070610e-03" rms="4.6343547105789185e-01" purity="4.9365329742431641e-01" nType="0">
            <Node pos="l" depth="3" NCoef="0" IVar="-1" Cut="0.0000000000000000e+00" cType="1" res="-4.5415251515805721e-03" rms="4.6399855613708496e-01" purity="4.8218351602554321e-01" nType="-99"/>
            <Node pos="r" depth="3" NCoef="0" IVar="-1" Cut="0.0000000000000000e+00" cType="1" res="1.9791258499026299e-02" rms="4.6268910169601440e-01" purity="5.0302618741989136e-01" nType="-99"/>
          </Node>
          <Node pos="r" depth="2" NCoef="0" IVar="5" Cut="-1.4952427148818970e-01" cType="1" res="-9.7083747386932373e-03" rms="4.6511745452880859e-01" purity="4.8299667239189148e-01" nType="0">
            <Node pos="l" depth="3" NCoef="0" IVar="-1" Cut="0.0000000000000000e+00" cType="1" res="-3.4324593842029572e-02" rms="4.6612983942031860e-01" purity="4.7661560773849487e-01" nType="-99"/>
            <Node pos="r" depth="3" NCoef="0" IVar="-1" Cut="0.0000000000000000e+00" cType="1" res="5.1466571167111397e-03" rms="4.6363267302513123e-01" purity="4.8849436640739441e-01" nType="-99"/>
          </Node>
        </Node>
        <Node pos="r" depth="1" NCoef="0" IVar="2" Cut="1.7327644348144531e+02" cType="1" res="-3.4424107521772385e-02" rms="4.4208303093910217e-01" purity="5.5485063791275024e-01" nType="0">
          <Node pos="l" depth="2" NCoef="0" IVar="-1" Cut="0.0000000000000000e+00" cType="1" res="9.4116423279047012e-03" rms="4.5162644982337952e-01" purity="6.5265232324600220e-01" nType="-99"/>
          <Node pos="r" depth="2" NCoef="0" IVar="-1" Cut="0.0000000000000000e+00" cType="1" res="-2.4053561501204967e-03" rms="4.2985823750495911e-01" purity="4.6664181351661682e-01" nType="-99"/>
        </Node>
      </Node>
    </BinaryTree>
    <BinaryTree type="DecisionTree" boostWeight="1.0000000000000000e+00" itree="383">
      <Node pos="s" depth="0" NCoef="0" IVar="7" Cut="6.0000000000000000e+00" cType="1" res="0.0000000000000000e+00" rms="0.0000000000000000e+00" purity="5.0609809160232544e-01" nType="0">
        <Node pos="l" depth="1" NCoef="0" IVar="3" Cut="1.0813715457916260e+00" cType="1" res="1.0588352568447590e-02" rms="4.6714240312576294e-01" purity="4.8118045926094055e-01" nType="0">
          <Node pos="l" depth="2" NCoef="0" IVar="9" Cut="3.4756628906250000e+04" cType="1" res="3.2086331397294998e-02" rms="4.7290849685668945e-01" purity="4.4139033555984497e-01" nType="0">
            <Node pos="l" depth="3" NCoef="0" IVar="-1" Cut="0.0000000000000000e+00" cType="1" res="4.6795617789030075e-02" rms="4.6410453319549561e-01" purity="3.9605945348739624e-01" nType="-99"/>
            <Node pos="r" depth="3" NCoef="0" IVar="-1" Cut="0.0000000000000000e+00" cType="1" res="2.3016369959805161e-04" rms="4.7941684722900391e-01" purity="4.8653382062911987e-01" nType="-99"/>
          </Node>
          <Node pos="r" depth="2" NCoef="0" IVar="6" Cut="-1.9447624683380127e+00" cType="1" res="5.8788084425032139e-03" rms="4.6573722362518311e-01" purity="4.8989728093147278e-01" nType="0">
            <Node pos="l" depth="3" NCoef="0" IVar="-1" Cut="0.0000000000000000e+00" cType="1" res="2.1676968783140182e-02" rms="4.7316563129425049e-01" purity="4.8778808116912842e-01" nType="-99"/>
            <Node pos="r" depth="3" NCoef="0" IVar="-1" Cut="0.0000000000000000e+00" cType="1" res="-4.1185219743056223e-05" rms="4.6178922057151794e-01" purity="4.9097329378128052e-01" nType="-99"/>
          </Node>
        </Node>
        <Node pos="r" depth="1" NCoef="0" IVar="5" Cut="-1.9444655179977417e+00" cType="1" res="-1.8495131283998489e-02" rms="4.4602927565574646e-01" purity="5.7285970449447632e-01" nType="0">
          <Node pos="l" depth="2" NCoef="0" IVar="-1" Cut="0.0000000000000000e+00" cType="1" res="1.9468246027827263e-02" rms="4.3937680125236511e-01" purity="6.5477889776229858e-01" nType="-99"/>
          <Node pos="r" depth="2" NCoef="0" IVar="8" Cut="1.0027964062500000e+05" cType="1" res="-3.0806109309196472e-02" rms="4.4781723618507385e-01" purity="5.4278355836868286e-01" nType="0">
            <Node pos="l" depth="3" NCoef="0" IVar="-1" Cut="0.0000000000000000e+00" cType="1" res="-2.8508401010185480e-03" rms="4.5025131106376648e-01" purity="4.8851698637008667e-01" nType="-99"/>
            <Node pos="r" depth="3" NCoef="0" IVar="-1" Cut="0.0000000000000000e+00" cType="1" res="-1.4702471904456615e-02" rms="4.4129869341850281e-01" purity="6.7136418819427490e-01" nType="-99"/>
          </Node>
        </Node>
      </Node>
    </BinaryTree>
    <BinaryTree type="DecisionTree" boostWeight="1.0000000000000000e+00" itree="384">
      <Node pos="s" depth="0" NCoef="0" IVar="3" Cut="-5.0363677740097046e-01" cType="1" res="-7.6977489516139030e-03" rms="4.6205326914787292e-01" purity="4.9645549058914185e-01" nType="0">
        <Node pos="l" depth="1" NCoef="0" IVar="-1" Cut="0.0000000000000000e+00" cType="1" res="-5.8231269940733910e-03" rms="4.6091547608375549e-01" purity="3.7385237216949463e-01" nType="-99"/>
        <Node pos="r" depth="1" NCoef="0" IVar="4" Cut="3.3659248352050781e+00" cType="1" res="-4.4696652330458164e-03" rms="4.6206313371658325e-01" purity="5.0986313819885254e-01" nType="0">
          <Node pos="l" depth="2" NCoef="0" IVar="4" Cut="1.0144768953323364e+00" cType="1" res="-2.3453310132026672e-03" rms="4.6340796351432800e-01" purity="5.1879447698593140e-01" nType="0">
            <Node pos="l" depth="3" NCoef="0" IVar="-1" Cut="0.0000000000000000e+00" cType="1" res="-9.5082344487309456e-03" rms="4.5374268293380737e-01" purity="4.4402262568473816e-01" nType="-99"/>
            <Node pos="r" depth="3" NCoef="0" IVar="-1" Cut="0.0000000000000000e+00" cType="1" res="2.2590165026485920e-03" rms="4.6593415737152100e-01" purity="5.3944653272628784e-01" nType="-99"/>
          </Node>
          <Node pos="r" depth="2" NCoef="0" IVar="-1" Cut="0.0000000000000000e+00" cType="1" res="-1.4987214468419552e-02" rms="4.3008664250373840e-01" purity="3.2040250301361084e-01" nType="-99"/>
        </Node>
      </Node>
    </BinaryTree>
    <BinaryTree type="DecisionTree" boostWeight="1.0000000000000000e+00" itree="385">
      <Node pos="s" depth="0" NCoef="0" IVar="2" Cut="3.2089465332031250e+02" cType="1" res="-3.1149059068411589e-03" rms="4.5990848541259766e-01" purity="5.0446194410324097e-01" nType="0">
        <Node pos="l" depth="1" NCoef="0" IVar="2" Cut="1.9633081054687500e+02" cType="1" res="-5.2844006568193436e-03" rms="4.5917433500289917e-01" purity="4.9919080734252930e-01" nType="0">
          <Node pos="l" depth="2" NCoef="0" IVar="9" Cut="4.6281582031250000e+04" cType="1" res="2.5567321572452784e-03" rms="4.6108075976371765e-01" purity="5.3138023614883423e-01" nType="0">
            <Node pos="l" depth="3" NCoef="0" IVar="-1" Cut="0.0000000000000000e+00" cType="1" res="4.4208928011357784e-03" rms="4.7134760022163391e-01" purity="4.4646176695823669e-01" nType="-99"/>
            <Node pos="r" depth="3" NCoef="0" IVar="-1" Cut="0.0000000000000000e+00" cType="1" res="-4.0873130783438683e-03" rms="4.4457474350929260e-01" purity="6.6336971521377563e-01" nType="-99"/>
          </Node>
          <Node pos="r" depth="2" NCoef="0" IVar="6" Cut="2.2431638240814209e+00" cType="1" res="-2.0034134387969971e-02" rms="4.5520073175430298e-01" purity="4.3864014744758606e-01" nType="0">
            <Node pos="l" depth="3" NCoef="0" IVar="-1" Cut="0.0000000000000000e+00" cType="1" res="-9.7439792007207870e-03" rms="4.6057450771331787e-01" purity="4.6344694495201111e-01" nType="-99"/>
            <Node pos="r" depth="3" NCoef="0" IVar="-1" Cut="0.0000000000000000e+00" cType="1" res="-2.1216375753283501e-03" rms="4.4106543064117432e-01" purity="3.7910467386245728e-01" nType="-99"/>
          </Node>
        </Node>
        <Node pos="r" depth="1" NCoef="0" IVar="8" Cut="7.6056023437500000e+04" cType="1" res="8.9681157842278481e-03" rms="4.6379050612449646e-01" purity="5.3381949663162231e-01" nType="0">
          <Node pos="l" depth="2" NCoef="0" IVar="-1" Cut="0.0000000000000000e+00" cType="1" res="-1.0179768316447735e-02" rms="4.6869555115699768e-01" purity="4.3089216947555542e-01" nType="-99"/>
          <Node pos="r" depth="2" NCoef="0" IVar="-1" Cut="0.0000000000000000e+00" cType="1" res="3.2680615782737732e-02" rms="4.5799252390861511e-01" purity="6.3647383451461792e-01" nType="-99"/>
        </Node>
      </Node>
    </BinaryTree>
    <BinaryTree type="DecisionTree" boostWeight="1.0000000000000000e+00" itree="386">
      <Node pos="s" depth="0" NCoef="0" IVar="5" Cut="-2.8423094749450684e+00" cType="1" res="-4.6920399181544781e-03" rms="4.6158793568611145e-01" purity="5.0160199403762817e-01" nType="0">
        <Node pos="l" depth="1" NCoef="0" IVar="-1" Cut="0.0000000000000000e+00" cType="1" res="-3.1264727003872395e-03" rms="4.3666443228721619e-01" purity="4.9226781725883484e-01" nType="-99"/>
        <Node pos="r" depth="1" NCoef="0" IVar="4" Cut="1.3616176843643188e+00" cType="1" res="4.7112803440541029e-04" rms="4.6346095204353333e-01" purity="5.0245690345764160e-01" nType="0">
          <Node pos="l" depth="2" NCoef="0" IVar="5" Cut="2.2864582538604736e+00" cType="1" res="1.1474659666419029e-02" rms="4.6392649412155151e-01" purity="4.8146447539329529e-01" nType="0">
            <Node pos="l" depth="3" NCoef="0" IVar="-1" Cut="0.0000000000000000e+00" cType="1" res="6.0431478777900338e-04" rms="4.6437221765518188e-01" purity="4.5561799407005310e-01" nType="-99"/>
            <Node pos="r" depth="3" NCoef="0" IVar="-1" Cut="0.0000000000000000e+00" cType="1" res="4.8867493867874146e-02" rms="4.6100062131881714e-01" purity="5.5929768085479736e-01" nType="-99"/>
          </Node>
          <Node pos="r" depth="2" NCoef="0" IVar="6" Cut="1.0471932888031006e+00" cType="1" res="-4.9094236455857754e-03" rms="4.6313798427581787e-01" purity="5.1272183656692505e-01" nType="0">
            <Node pos="l" depth="3" NCoef="0" IVar="-1" Cut="0.0000000000000000e+00" cType="1" res="-8.9581782231107354e-04" rms="4.6158728003501892e-01" purity="5.3598850965499878e-01" nType="-99"/>
            <Node pos="r" depth="3" NCoef="0" IVar="-1" Cut="0.0000000000000000e+00" cType="1" res="-6.5061682835221291e-03" rms="4.6512687206268311e-01" purity="4.8196122050285339e-01" nType="-99"/>
          </Node>
        </Node>
      </Node>
    </BinaryTree>
    <BinaryTree type="DecisionTree" boostWeight="1.0000000000000000e+00" itree="387">
      <Node pos="s" depth="0" NCoef="0" IVar="7" Cut="6.0000000000000000e+00" cType="1" res="-5.7125231251120567e-03" rms="4.6023494005203247e-01" purity="4.9951124191284180e-01" nType="0">
        <Node pos="l" depth="1" NCoef="0" IVar="4" Cut="1.3419300317764282e+00" cType="1" res="4.9638980999588966e-04" rms="4.6403703093528748e-01" purity="4.7303199768066406e-01" nType="0">
          <Node pos="l" depth="2" NCoef="0" IVar="5" Cut="1.0466798543930054e+00" cType="1" res="-1.3091240078210831e-02" rms="4.5652285218238831e-01" purity="4.2348328232765198e-01" nType="0">
            <Node pos="l" depth="3" NCoef="0" IVar="-1" Cut="0.0000000000000000e+00" cType="1" res="-2.9446072876453400e-02" rms="4.5386540889739990e-01" purity="3.9597940444946289e-01" nType="-99"/>
            <Node pos="r" depth="3" NCoef="0" IVar="-1" Cut="0.0000000000000000e+00" cType="1" res="-5.2405119640752673e-04" rms="4.5999264717102051e-01" purity="4.6272295713424683e-01" nType="-99"/>
          </Node>
          <Node pos="r" depth="2" NCoef="0" IVar="4" Cut="3.0599665641784668e+00" cType="1" res="6.8925251252949238e-03" rms="4.6739569306373596e-01" purity="4.9635615944862366e-01" nType="0">
            <Node pos="l" depth="3" NCoef="0" IVar="-1" Cut="0.0000000000000000e+00" cType="1" res="1.2144140899181366e-02" rms="4.6886456012725830e-01" purity="5.1378369331359863e-01" nType="-99"/>
            <Node pos="r" depth="3" NCoef="0" IVar="-1" Cut="0.0000000000000000e+00" cType="1" res="-9.3915862962603569e-03" rms="4.5934012532234192e-01" purity="4.1164293885231018e-01" nType="-99"/>
          </Node>
        </Node>
        <Node pos="r" depth="1" NCoef="0" IVar="3" Cut="2.3450436592102051e+00" cType="1" res="-2.2346163168549538e-02" rms="4.4950383901596069e-01" purity="5.7034164667129517e-01" nType="0">
          <Node pos="l" depth="2" NCoef="0" IVar="-1" Cut="0.0000000000000000e+00" cType="1" res="-3.0022852588444948e-03" rms="4.5144796371459961e-01" purity="4.3273249268531799e-01" nType="-99"/>
          <Node pos="r" depth="2" NCoef="0" IVar="6" Cut="1.9440608024597168e+00" cType="1" res="0.0000000000000000e+00" rms="0.0000000000000000e+00" purity="6.2851405143737793e-01" nType="0">
            <Node pos="l" depth="3" NCoef="0" IVar="-1" Cut="0.0000000000000000e+00" cType="1" res="6.4876774558797479e-04" rms="4.4034606218338013e-01" purity="6.4871287345886230e-01" nType="-99"/>
            <Node pos="r" depth="3" NCoef="0" IVar="-1" Cut="0.0000000000000000e+00" cType="1" res="-2.1570930257439613e-02" rms="4.7116824984550476e-01" purity="5.5676484107971191e-01" nType="-99"/>
          </Node>
        </Node>
      </Node>
    </BinaryTree>
    <BinaryTree type="DecisionTree" boostWeight="1.0000000000000000e+00" itree="388">
      <Node pos="s" depth="0" NCoef="0" IVar="5" Cut="-4.4879457354545593e-01" cType="1" res="-7.2463859396521002e-05" rms="4.6180212497711182e-01" purity="5.0650167465209961e-01" nType="0">
        <Node pos="l" depth="1" NCoef="0" IVar="6" Cut="2.2439551353454590e+00" cType="1" res="-7.1013527922332287e-03" rms="4.6030387282371521e-01" purity="5.0250220298767090e-01" nType="0">
          <Node pos="l" depth="2" NCoef="0" IVar="5" Cut="-1.4747738838195801e+00" cType="1" res="-8.8095862884074450e-04" rms="4.6020191907882690e-01" purity="5.0887066125869751e-01" nType="0">
            <Node pos="l" depth="3" NCoef="0" IVar="-1" Cut="0.0000000000000000e+00" cType="1" res="8.5493857041001320e-03" rms="4.6091303229331970e-01" purity="5.3087300062179565e-01" nType="-99"/>
            <Node pos="r" depth="3" NCoef="0" IVar="-1" Cut="0.0000000000000000e+00" cType="1" res="-2.8993738815188408e-02" rms="4.5666125416755676e-01" purity="4.3502154946327209e-01" nType="-99"/>
          </Node>
          <Node pos="r" depth="2" NCoef="0" IVar="-1" Cut="0.0000000000000000e+00" cType="1" res="-4.0309568867087364e-03" rms="4.5782953500747681e-01" purity="4.4895449280738831e-01" nType="-99"/>
        </Node>
        <Node pos="r" depth="1" NCoef="0" IVar="6" Cut="2.5432152748107910e+00" cType="1" res="5.8992053382098675e-03" rms="4.6298736333847046e-01" purity="5.0989961624145508e-01" nType="0">
          <Node pos="l" depth="2" NCoef="0" IVar="5" Cut="4.0614351630210876e-01" cType="1" res="6.9102662382647395e-04" rms="4.5868623256683350e-01" purity="5.2117562294006348e-01" nType="0">
            <Node pos="l" depth="3" NCoef="0" IVar="-1" Cut="0.0000000000000000e+00" cType="1" res="-2.1736631169915199e-02" rms="4.6846592426300049e-01" purity="4.6068441867828369e-01" nType="-99"/>
            <Node pos="r" depth="3" NCoef="0" IVar="-1" Cut="0.0000000000000000e+00" cType="1" res="4.6621072106063366e-03" rms="4.5701822638511658e-01" purity="5.3070521354675293e-01" nType="-99"/>
          </Node>
          <Node pos="r" depth="2" NCoef="0" IVar="5" Cut="7.4829274415969849e-01" cType="1" res="1.8940318375825882e-02" rms="4.7333458065986633e-01" purity="4.8166483640670776e-01" nType="0">
            <Node pos="l" depth="3" NCoef="0" IVar="-1" Cut="0.0000000000000000e+00" cType="1" res="6.4662761986255646e-02" rms="4.7376772761344910e-01" purity="4.4682386517524719e-01" nType="-99"/>
            <Node pos="r" depth="3" NCoef="0" IVar="-1" Cut="0.0000000000000000e+00" cType="1" res="4.0618428029119968e-03" rms="4.7253307700157166e-01" purity="4.9443835020065308e-01" nType="-99"/>
          </Node>
        </Node>
      </Node>
    </BinaryTree>
    <BinaryTree type="DecisionTree" boostWeight="1.0000000000000000e+00" itree="389">
      <Node pos="s" depth="0" NCoef="0" IVar="5" Cut="4.4882133603096008e-01" cType="1" res="-1.1865957640111446e-02" rms="4.5952427387237549e-01" purity="4.9522453546524048e-01" nType="0">
        <Node pos="l" depth="1" NCoef="0" IVar="5" Cut="-1.2608762979507446e+00" cType="1" res="-3.2843272201716900e-03" rms="4.6196606755256653e-01" purity="5.0212967395782471e-01" nType="0">
          <Node pos="l" depth="2" NCoef="0" IVar="2" Cut="3.2665100097656250e+02" cType="1" res="-9.4288764521479607e-03" rms="4.5932683348655701e-01" purity="5.1791685819625854e-01" nType="0">
            <Node pos="l" depth="3" NCoef="0" IVar="-1" Cut="0.0000000000000000e+00" cType="1" res="-4.1572414338588715e-03" rms="4.5762386918067932e-01" purity="5.2083593606948853e-01" nType="-99"/>
            <Node pos="r" depth="3" NCoef="0" IVar="-1" Cut="0.0000000000000000e+00" cType="1" res="-2.7331395074725151e-02" rms="4.6676898002624512e-01" purity="5.0357246398925781e-01" nType="-99"/>
          </Node>
          <Node pos="r" depth="2" NCoef="0" IVar="3" Cut="6.3112425804138184e+00" cType="1" res="0.0000000000000000e+00" rms="0.0000000000000000e+00" purity="4.6408817172050476e-01" nType="0">
            <Node pos="l" depth="3" NCoef="0" IVar="-1" Cut="0.0000000000000000e+00" cType="1" res="2.5102522224187851e-02" rms="4.7963175177574158e-01" purity="4.8527717590332031e-01" nType="-99"/>
            <Node pos="r" depth="3" NCoef="0" IVar="-1" Cut="0.0000000000000000e+00" cType="1" res="-1.7432239837944508e-03" rms="4.5176228880882263e-01" purity="4.3620961904525757e-01" nType="-99"/>
          </Node>
        </Node>
        <Node pos="r" depth="1" NCoef="0" IVar="3" Cut="1.3459860086441040e+00" cType="1" res="-2.1668793633580208e-02" rms="4.5652166008949280e-01" purity="4.8733681440353394e-01" nType="0">
          <Node pos="l" depth="2" NCoef="0" IVar="-1" Cut="0.0000000000000000e+00" cType="1" res="2.2260393016040325e-03" rms="4.6532723307609558e-01" purity="4.3816402554512024e-01" nType="-99"/>
          <Node pos="r" depth="2" NCoef="0" IVar="7" Cut="7.0000000000000000e+00" cType="1" res="-2.7707826346158981e-02" rms="4.5418217778205872e-01" purity="4.9905255436897278e-01" nType="0">
            <Node pos="l" depth="3" NCoef="0" IVar="-1" Cut="0.0000000000000000e+00" cType="1" res="-1.4343531802296638e-02" rms="4.6047738194465637e-01" purity="4.9690136313438416e-01" nType="-99"/>
            <Node pos="r" depth="3" NCoef="0" IVar="-1" Cut="0.0000000000000000e+00" cType="1" res="-1.7664938932284713e-03" rms="4.0535610914230347e-01" purity="5.1415055990219116e-01" nType="-99"/>
          </Node>
        </Node>
      </Node>
    </BinaryTree>
    <BinaryTree type="DecisionTree" boostWeight="1.0000000000000000e+00" itree="390">
      <Node pos="s" depth="0" NCoef="0" IVar="6" Cut="2.2438383102416992e+00" cType="1" res="-9.7794085741043091e-03" rms="4.5878911018371582e-01" purity="4.9542227387428284e-01" nType="0">
        <Node pos="l" depth="1" NCoef="0" IVar="5" Cut="2.5432097911834717e+00" cType="1" res="-3.9443941786885262e-03" rms="4.5617848634719849e-01" purity="5.1371526718139648e-01" nType="0">
          <Node pos="l" depth="2" NCoef="0" IVar="5" Cut="1.7311162948608398e+00" cType="1" res="-6.7623490467667580e-03" rms="4.5696413516998291e-01" purity="5.0585269927978516e-01" nType="0">
            <Node pos="l" depth="3" NCoef="0" IVar="-1" Cut="0.0000000000000000e+00" cType="1" res="-4.2124860920011997e-03" rms="4.5934835076332092e-01" purity="5.0756317377090454e-01" nType="-99"/>
            <Node pos="r" depth="3" NCoef="0" IVar="-1" Cut="0.0000000000000000e+00" cType="1" res="-8.7428418919444084e-03" rms="4.4432121515274048e-01" purity="4.9717625975608826e-01" nType="-99"/>
          </Node>
          <Node pos="r" depth="2" NCoef="0" IVar="5" Cut="2.8283703327178955e+00" cType="1" res="0.0000000000000000e+00" rms="0.0000000000000000e+00" purity="5.6261444091796875e-01" nType="0">
            <Node pos="l" depth="3" NCoef="0" IVar="-1" Cut="0.0000000000000000e+00" cType="1" res="8.5260216146707535e-03" rms="4.4668534398078918e-01" purity="5.3937327861785889e-01" nType="-99"/>
            <Node pos="r" depth="3" NCoef="0" IVar="-1" Cut="0.0000000000000000e+00" cType="1" res="2.2746894508600235e-02" rms="4.5423531532287598e-01" purity="5.8197546005249023e-01" nType="-99"/>
          </Node>
        </Node>
        <Node pos="r" depth="1" NCoef="0" IVar="5" Cut="-4.4912964105606079e-01" cType="1" res="-2.6417048647999763e-02" rms="4.6575140953063965e-01" purity="4.4326263666152954e-01" nType="0">
          <Node pos="l" depth="2" NCoef="0" IVar="-1" Cut="0.0000000000000000e+00" cType="1" res="-3.4347681794315577e-03" rms="4.5038866996765137e-01" purity="4.3189725279808044e-01" nType="-99"/>
          <Node pos="r" depth="2" NCoef="0" IVar="5" Cut="2.4570939540863037e+00" cType="1" res="0.0000000000000000e+00" rms="0.0000000000000000e+00" purity="4.4591352343559265e-01" nType="0">
            <Node pos="l" depth="3" NCoef="0" IVar="-1" Cut="0.0000000000000000e+00" cType="1" res="-6.2374807894229889e-03" rms="4.7337877750396729e-01" purity="4.3487393856048584e-01" nType="-99"/>
            <Node pos="r" depth="3" NCoef="0" IVar="-1" Cut="0.0000000000000000e+00" cType="1" res="-1.1673072353005409e-02" rms="4.5400705933570862e-01" purity="4.7680994868278503e-01" nType="-99"/>
          </Node>
        </Node>
      </Node>
    </BinaryTree>
    <BinaryTree type="DecisionTree" boostWeight="1.0000000000000000e+00" itree="391">
      <Node pos="s" depth="0" NCoef="0" IVar="6" Cut="1.0472187995910645e+00" cType="1" res="-1.6424049390479922e-03" rms="4.6207550168037415e-01" purity="5.0529611110687256e-01" nType="0">
        <Node pos="l" depth="1" NCoef="0" IVar="4" Cut="8.6891603469848633e-01" cType="1" res="5.2843405865132809e-03" rms="4.6015334129333496e-01" purity="5.2296346426010132e-01" nType="0">
          <Node pos="l" depth="2" NCoef="0" IVar="9" Cut="4.4299640625000000e+04" cType="1" res="0.0000000000000000e+00" rms="0.0000000000000000e+00" purity="4.5361575484275818e-01" nType="0">
            <Node pos="l" depth="3" NCoef="0" IVar="-1" Cut="0.0000000000000000e+00" cType="1" res="-4.9207010306417942e-04" rms="4.4951152801513672e-01" purity="3.2655560970306396e-01" nType="-99"/>
            <Node pos="r" depth="3" NCoef="0" IVar="-1" Cut="0.0000000000000000e+00" cType="1" res="-3.9102446287870407e-02" rms="4.6116799116134644e-01" purity="5.6985217332839966e-01" nType="-99"/>
          </Node>
          <Node pos="r" depth="2" NCoef="0" IVar="8" Cut="5.5323742187500000e+04" cType="1" res="9.6126841381192207e-03" rms="4.6084767580032349e-01" purity="5.3643727302551270e-01" nType="0">
            <Node pos="l" depth="3" NCoef="0" IVar="-1" Cut="0.0000000000000000e+00" cType="1" res="-3.8636797107756138e-03" rms="4.6658250689506531e-01" purity="4.0670087933540344e-01" nType="-99"/>
            <Node pos="r" depth="3" NCoef="0" IVar="-1" Cut="0.0000000000000000e+00" cType="1" res="2.2689422592520714e-02" rms="4.5649757981300354e-01" purity="6.2872159481048584e-01" nType="-99"/>
          </Node>
        </Node>
        <Node pos="r" depth="1" NCoef="0" IVar="6" Cut="2.7426714897155762e+00" cType="1" res="0.0000000000000000e+00" rms="0.0000000000000000e+00" purity="4.7940155863761902e-01" nType="0">
          <Node pos="l" depth="2" NCoef="0" IVar="1" Cut="1.7887350000000000e+05" cType="1" res="0.0000000000000000e+00" rms="0.0000000000000000e+00" purity="4.8652949929237366e-01" nType="0">
            <Node pos="l" depth="3" NCoef="0" IVar="-1" Cut="0.0000000000000000e+00" cType="1" res="1.6843714984133840e-03" rms="4.6451580524444580e-01" purity="5.2085810899734497e-01" nType="-99"/>
            <Node pos="r" depth="3" NCoef="0" IVar="-1" Cut="0.0000000000000000e+00" cType="1" res="-3.2215967774391174e-02" rms="4.5830491185188293e-01" purity="3.9712989330291748e-01" nType="-99"/>
          </Node>
          <Node pos="r" depth="2" NCoef="0" IVar="4" Cut="2.0085792541503906e+00" cType="1" res="-2.4914020672440529e-02" rms="4.6785503625869751e-01" purity="4.6520650386810303e-01" nType="0">
            <Node pos="l" depth="3" NCoef="0" IVar="-1" Cut="0.0000000000000000e+00" cType="1" res="-8.7746940553188324e-03" rms="4.6667525172233582e-01" purity="4.5162475109100342e-01" nType="-99"/>
            <Node pos="r" depth="3" NCoef="0" IVar="-1" Cut="0.0000000000000000e+00" cType="1" res="-2.3960391059517860e-02" rms="4.6863269805908203e-01" purity="4.7818431258201599e-01" nType="-99"/>
          </Node>
        </Node>
      </Node>
    </BinaryTree>
    <BinaryTree type="DecisionTree" boostWeight="1.0000000000000000e+00" itree="392">
      <Node pos="s" depth="0" NCoef="0" IVar="5" Cut="-2.8422935009002686e+00" cType="1" res="-8.1738764420151711e-03" rms="4.5701611042022705e-01" purity="4.9191194772720337e-01" nType="0">
        <Node pos="l" depth="1" NCoef="0" IVar="-1" Cut="0.0000000000000000e+00" cType="1" res="-3.2925864215940237e-03" rms="4.4269695878028870e-01" purity="5.0225704908370972e-01" nType="-99"/>
        <Node pos="r" depth="1" NCoef="0" IVar="7" Cut="7.0000000000000000e+00" cType="1" res="-5.0028562545776367e-03" rms="4.5806819200515747e-01" purity="4.9103537201881409e-01" nType="0">
          <Node pos="l" depth="2" NCoef="0" IVar="6" Cut="1.6456010341644287e+00" cType="1" res="-6.1000988353043795e-04" rms="4.6336206793785095e-01" purity="4.8679408431053162e-01" nType="0">
            <Node pos="l" depth="3" NCoef="0" IVar="-1" Cut="0.0000000000000000e+00" cType="1" res="-5.4575665853917599e-03" rms="4.5699581503868103e-01" purity="4.9183717370033264e-01" nType="-99"/>
            <Node pos="r" depth="3" NCoef="0" IVar="-1" Cut="0.0000000000000000e+00" cType="1" res="1.0532467626035213e-02" rms="4.7407385706901550e-01" purity="4.7799837589263916e-01" nType="-99"/>
          </Node>
          <Node pos="r" depth="2" NCoef="0" IVar="4" Cut="1.9786683320999146e+00" cType="1" res="-3.6714088171720505e-02" rms="4.1650217771530151e-01" purity="5.2164924144744873e-01" nType="0">
            <Node pos="l" depth="3" NCoef="0" IVar="-1" Cut="0.0000000000000000e+00" cType="1" res="-1.5010102652013302e-03" rms="3.9358568191528320e-01" purity="4.2270559072494507e-01" nType="-99"/>
            <Node pos="r" depth="3" NCoef="0" IVar="-1" Cut="0.0000000000000000e+00" cType="1" res="1.5871061012148857e-02" rms="4.3833497166633606e-01" purity="6.5211290121078491e-01" nType="-99"/>
          </Node>
        </Node>
      </Node>
    </BinaryTree>
    <BinaryTree type="DecisionTree" boostWeight="1.0000000000000000e+00" itree="393">
      <Node pos="s" depth="0" NCoef="0" IVar="2" Cut="3.2089465332031250e+02" cType="1" res="-6.0169305652379990e-03" rms="4.6317592263221741e-01" purity="5.0022566318511963e-01" nType="0">
        <Node pos="l" depth="1" NCoef="0" IVar="4" Cut="2.0997700691223145e+00" cType="1" res="0.0000000000000000e+00" rms="0.0000000000000000e+00" purity="4.9323666095733643e-01" nType="0">
          <Node pos="l" depth="2" NCoef="0" IVar="2" Cut="1.4963121032714844e+02" cType="1" res="-1.0787224164232612e-03" rms="4.6263995766639709e-01" purity="4.7989737987518311e-01" nType="0">
            <Node pos="l" depth="3" NCoef="0" IVar="-1" Cut="0.0000000000000000e+00" cType="1" res="-5.7269791141152382e-03" rms="4.4660326838493347e-01" purity="4.2415359616279602e-01" nType="-99"/>
            <Node pos="r" depth="3" NCoef="0" IVar="-1" Cut="0.0000000000000000e+00" cType="1" res="2.7687321417033672e-03" rms="4.6531251072883606e-01" purity="4.8967245221138000e-01" nType="-99"/>
          </Node>
          <Node pos="r" depth="2" NCoef="0" IVar="6" Cut="2.2438821792602539e+00" cType="1" res="-1.9900774583220482e-02" rms="4.6150484681129456e-01" purity="5.1002097129821777e-01" nType="0">
            <Node pos="l" depth="3" NCoef="0" IVar="-1" Cut="0.0000000000000000e+00" cType="1" res="-1.4617441222071648e-02" rms="4.6075800061225891e-01" purity="5.3621149063110352e-01" nType="-99"/>
            <Node pos="r" depth="3" NCoef="0" IVar="-1" Cut="0.0000000000000000e+00" cType="1" res="-5.5365995503962040e-03" rms="4.6297225356101990e-01" purity="4.3891674280166626e-01" nType="-99"/>
          </Node>
        </Node>
        <Node pos="r" depth="1" NCoef="0" IVar="4" Cut="2.4689044952392578e+00" cType="1" res="1.2655463069677353e-02" rms="4.6788987517356873e-01" purity="5.3864771127700806e-01" nType="0">
          <Node pos="l" depth="2" NCoef="0" IVar="6" Cut="-1.3463690280914307e+00" cType="1" res="1.5235341852530837e-03" rms="4.6292516589164734e-01" purity="5.2571690082550049e-01" nType="0">
            <Node pos="l" depth="3" NCoef="0" IVar="-1" Cut="0.0000000000000000e+00" cType="1" res="1.6219429671764374e-02" rms="4.6767312288284302e-01" purity="5.4164135456085205e-01" nType="-99"/>
            <Node pos="r" depth="3" NCoef="0" IVar="-1" Cut="0.0000000000000000e+00" cType="1" res="-6.4009106718003750e-03" rms="4.5952329039573669e-01" purity="5.1490527391433716e-01" nType="-99"/>
          </Node>
          <Node pos="r" depth="2" NCoef="0" IVar="-1" Cut="0.0000000000000000e+00" cType="1" res="3.6122631281614304e-02" rms="4.7651952505111694e-01" purity="5.6338435411453247e-01" nType="-99"/>
        </Node>
      </Node>
    </BinaryTree>
    <BinaryTree type="DecisionTree" boostWeight="1.0000000000000000e+00" itree="394">
      <Node pos="s" depth="0" NCoef="0" IVar="8" Cut="6.1592808593750000e+04" cType="1" res="-7.3470699135214090e-04" rms="4.6362555027008057e-01" purity="5.0461918115615845e-01" nType="0">
        <Node pos="l" depth="1" NCoef="0" IVar="8" Cut="5.1144328125000000e+04" cType="1" res="7.5688306242227554e-03" rms="4.6730032563209534e-01" purity="4.1622638702392578e-01" nType="0">
          <Node pos="l" depth="2" NCoef="0" IVar="6" Cut="-2.2439973354339600e+00" cType="1" res="1.1839896906167269e-03" rms="4.6293029189109802e-01" purity="3.7466359138488770e-01" nType="0">
            <Node pos="l" depth="3" NCoef="0" IVar="-1" Cut="0.0000000000000000e+00" cType="1" res="2.6126900687813759e-02" rms="4.7481825947761536e-01" purity="3.9331787824630737e-01" nType="-99"/>
            <Node pos="r" depth="3" NCoef="0" IVar="-1" Cut="0.0000000000000000e+00" cType="1" res="-6.9847186096012592e-03" rms="4.5740979909896851e-01" purity="3.6664873361587524e-01" nType="-99"/>
          </Node>
          <Node pos="r" depth="2" NCoef="0" IVar="5" Cut="1.4962053298950195e-01" cType="1" res="2.2992178797721863e-02" rms="4.7733956575393677e-01" purity="5.1662641763687134e-01" nType="0">
            <Node pos="l" depth="3" NCoef="0" IVar="-1" Cut="0.0000000000000000e+00" cType="1" res="3.9147790521383286e-02" rms="4.6931290626525879e-01" purity="5.3479653596878052e-01" nType="-99"/>
            <Node pos="r" depth="3" NCoef="0" IVar="-1" Cut="0.0000000000000000e+00" cType="1" res="1.0430889204144478e-02" rms="4.8596212267875671e-01" purity="4.9584856629371643e-01" nType="-99"/>
          </Node>
        </Node>
        <Node pos="r" depth="1" NCoef="0" IVar="3" Cut="1.0181767940521240e+00" cType="1" res="-9.3516763299703598e-03" rms="4.5962241291999817e-01" purity="5.9634852409362793e-01" nType="0">
          <Node pos="l" depth="2" NCoef="0" IVar="-1" Cut="0.0000000000000000e+00" cType="1" res="-4.4084530323743820e-02" rms="4.7335153818130493e-01" purity="4.5775109529495239e-01" nType="-99"/>
          <Node pos="r" depth="2" NCoef="0" IVar="6" Cut="-2.2439136505126953e+00" cType="1" res="-2.6498120278120041e-03" rms="4.5702943205833435e-01" purity="6.1854684352874756e-01" nType="0">
            <Node pos="l" depth="3" NCoef="0" IVar="-1" Cut="0.0000000000000000e+00" cType="1" res="-2.0309586077928543e-02" rms="4.7466245293617249e-01" purity="5.6445705890655518e-01" nType="-99"/>
            <Node pos="r" depth="3" NCoef="0" IVar="-1" Cut="0.0000000000000000e+00" cType="1" res="2.1125089842826128e-03" rms="4.5184421539306641e-01" purity="6.3377708196640015e-01" nType="-99"/>
          </Node>
        </Node>
      </Node>
    </BinaryTree>
    <BinaryTree type="DecisionTree" boostWeight="1.0000000000000000e+00" itree="395">
      <Node pos="s" depth="0" NCoef="0" IVar="5" Cut="-2.8422744274139404e+00" cType="1" res="1.4093548525124788e-03" rms="4.6041709184646606e-01" purity="5.0808322429656982e-01" nType="0">
        <Node pos="l" depth="1" NCoef="0" IVar="-1" Cut="0.0000000000000000e+00" cType="1" res="3.8549847900867462e-02" rms="4.4342985749244690e-01" purity="6.1132162809371948e-01" nType="-99"/>
        <Node pos="r" depth="1" NCoef="0" IVar="3" Cut="3.9418737888336182e+00" cType="1" res="-1.0693443473428488e-03" rms="4.6163958311080933e-01" purity="4.9993893504142761e-01" nType="0">
          <Node pos="l" depth="2" NCoef="0" IVar="6" Cut="2.5429513454437256e+00" cType="1" res="-1.0840256698429585e-02" rms="4.6797686815261841e-01" purity="4.7208839654922485e-01" nType="0">
            <Node pos="l" depth="3" NCoef="0" IVar="-1" Cut="0.0000000000000000e+00" cType="1" res="-6.3635893166065216e-03" rms="4.6497994661331177e-01" purity="4.8188498616218567e-01" nType="-99"/>
            <Node pos="r" depth="3" NCoef="0" IVar="-1" Cut="0.0000000000000000e+00" cType="1" res="-2.2324578836560249e-02" rms="4.8306548595428467e-01" purity="4.2060941457748413e-01" nType="-99"/>
          </Node>
          <Node pos="r" depth="2" NCoef="0" IVar="4" Cut="8.6870193481445312e-01" cType="1" res="6.6628367640078068e-03" rms="4.5641401410102844e-01" purity="5.2197843790054321e-01" nType="0">
            <Node pos="l" depth="3" NCoef="0" IVar="-1" Cut="0.0000000000000000e+00" cType="1" res="2.7191616594791412e-02" rms="4.5574057102203369e-01" purity="4.6202191710472107e-01" nType="-99"/>
            <Node pos="r" depth="3" NCoef="0" IVar="-1" Cut="0.0000000000000000e+00" cType="1" res="4.6415510587394238e-03" rms="4.5649403333663940e-01" purity="5.3365033864974976e-01" nType="-99"/>
          </Node>
        </Node>
      </Node>
    </BinaryTree>
    <BinaryTree type="DecisionTree" boostWeight="1.0000000000000000e+00" itree="396">
      <Node pos="s" depth="0" NCoef="0" IVar="7" Cut="7.0000000000000000e+00" cType="1" res="-5.1418063230812550e-04" rms="4.5967361330986023e-01" purity="5.0026732683181763e-01" nType="0">
        <Node pos="l" depth="1" NCoef="0" IVar="3" Cut="3.4833588600158691e+00" cType="1" res="4.9606254324316978e-03" rms="4.6496421098709106e-01" purity="4.9804428219795227e-01" nType="0">
          <Node pos="l" depth="2" NCoef="0" IVar="5" Cut="-1.3463445901870728e+00" cType="1" res="0.0000000000000000e+00" rms="0.0000000000000000e+00" purity="4.8405951261520386e-01" nType="0">
            <Node pos="l" depth="3" NCoef="0" IVar="-1" Cut="0.0000000000000000e+00" cType="1" res="-5.0496002659201622e-03" rms="4.7041171789169312e-01" purity="4.7192674875259399e-01" nType="-99"/>
            <Node pos="r" depth="3" NCoef="0" IVar="-1" Cut="0.0000000000000000e+00" cType="1" res="2.1327218040823936e-02" rms="4.7262421250343323e-01" purity="4.9194034934043884e-01" nType="-99"/>
          </Node>
          <Node pos="r" depth="2" NCoef="0" IVar="4" Cut="1.5641043186187744e+00" cType="1" res="-6.4061151351779699e-04" rms="4.6009957790374756e-01" purity="5.0742989778518677e-01" nType="0">
            <Node pos="l" depth="3" NCoef="0" IVar="-1" Cut="0.0000000000000000e+00" cType="1" res="8.8083641603589058e-03" rms="4.5859092473983765e-01" purity="4.6003046631813049e-01" nType="-99"/>
            <Node pos="r" depth="3" NCoef="0" IVar="-1" Cut="0.0000000000000000e+00" cType="1" res="-5.7315155863761902e-03" rms="4.6112400293350220e-01" purity="5.4226517677307129e-01" nType="-99"/>
          </Node>
        </Node>
        <Node pos="r" depth="1" NCoef="0" IVar="5" Cut="1.0450830459594727e+00" cType="1" res="0.0000000000000000e+00" rms="0.0000000000000000e+00" purity="5.1641362905502319e-01" nType="0">
          <Node pos="l" depth="2" NCoef="0" IVar="-1" Cut="0.0000000000000000e+00" cType="1" res="-2.0225170010235161e-04" rms="4.4242873787879944e-01" purity="6.0579186677932739e-01" nType="-99"/>
          <Node pos="r" depth="2" NCoef="0" IVar="-1" Cut="0.0000000000000000e+00" cType="1" res="-1.4340968336910009e-03" rms="3.8376146554946899e-01" purity="4.2112568020820618e-01" nType="-99"/>
        </Node>
      </Node>
    </BinaryTree>
    <BinaryTree type="DecisionTree" boostWeight="1.0000000000000000e+00" itree="397">
      <Node pos="s" depth="0" NCoef="0" IVar="9" Cut="8.5372960937500000e+04" cType="1" res="-8.2185855135321617e-03" rms="4.5968464016914368e-01" purity="4.9702224135398865e-01" nType="0">
        <Node pos="l" depth="1" NCoef="0" IVar="5" Cut="-2.8423106670379639e+00" cType="1" res="-1.0690811090171337e-02" rms="4.6334356069564819e-01" purity="4.7461864352226257e-01" nType="0">
          <Node pos="l" depth="2" NCoef="0" IVar="-1" Cut="0.0000000000000000e+00" cType="1" res="-4.3954830616712570e-03" rms="4.5627549290657043e-01" purity="5.1454007625579834e-01" nType="-99"/>
          <Node pos="r" depth="2" NCoef="0" IVar="4" Cut="1.1596368551254272e+00" cType="1" res="-8.5591012611985207e-03" rms="4.6379876136779785e-01" purity="4.7162625193595886e-01" nType="0">
            <Node pos="l" depth="3" NCoef="0" IVar="-1" Cut="0.0000000000000000e+00" cType="1" res="-7.8849792480468750e-03" rms="4.4971394538879395e-01" purity="4.0097814798355103e-01" nType="-99"/>
            <Node pos="r" depth="3" NCoef="0" IVar="-1" Cut="0.0000000000000000e+00" cType="1" res="-1.8328065052628517e-03" rms="4.6832132339477539e-01" purity="4.9567273259162903e-01" nType="-99"/>
          </Node>
        </Node>
        <Node pos="r" depth="1" NCoef="0" IVar="4" Cut="1.9149196147918701e+00" cType="1" res="1.7889611423015594e-02" rms="4.1820764541625977e-01" purity="7.3361754417419434e-01" nType="0">
          <Node pos="l" depth="2" NCoef="0" IVar="-1" Cut="0.0000000000000000e+00" cType="1" res="4.3157074600458145e-02" rms="4.0976235270500183e-01" purity="7.4598759412765503e-01" nType="-99"/>
          <Node pos="r" depth="2" NCoef="0" IVar="-1" Cut="0.0000000000000000e+00" cType="1" res="2.8860119637101889e-03" rms="4.2698842287063599e-01" purity="7.1967148780822754e-01" nType="-99"/>
        </Node>
      </Node>
    </BinaryTree>
    <BinaryTree type="DecisionTree" boostWeight="1.0000000000000000e+00" itree="398">
      <Node pos="s" depth="0" NCoef="0" IVar="6" Cut="-2.8423666954040527e+00" cType="1" res="-5.7667311921250075e-05" rms="4.6446537971496582e-01" purity="5.0881469249725342e-01" nType="0">
        <Node pos="l" depth="1" NCoef="0" IVar="5" Cut="-4.4880315661430359e-01" cType="1" res="0.0000000000000000e+00" rms="0.0000000000000000e+00" purity="4.6687239408493042e-01" nType="0">
          <Node pos="l" depth="2" NCoef="0" IVar="-1" Cut="0.0000000000000000e+00" cType="1" res="-1.7195643857121468e-02" rms="4.7397410869598389e-01" purity="4.9407818913459778e-01" nType="-99"/>
          <Node pos="r" depth="2" NCoef="0" IVar="-1" Cut="0.0000000000000000e+00" cType="1" res="-3.7387382239103317e-02" rms="4.7220483422279358e-01" purity="4.3120950460433960e-01" nType="-99"/>
        </Node>
        <Node pos="r" depth="1" NCoef="0" IVar="6" Cut="-1.7026139497756958e+00" cType="1" res="2.4976115673780441e-03" rms="4.6341770887374878e-01" purity="5.1338350772857666e-01" nType="0">
          <Node pos="l" depth="2" NCoef="0" IVar="6" Cut="-2.1911368370056152e+00" cType="1" res="1.7361830919981003e-02" rms="4.7226604819297791e-01" purity="4.9211895465850830e-01" nType="0">
            <Node pos="l" depth="3" NCoef="0" IVar="-1" Cut="0.0000000000000000e+00" cType="1" res="6.5801511518657207e-03" rms="4.7415867447853088e-01" purity="4.7769552469253540e-01" nType="-99"/>
            <Node pos="r" depth="3" NCoef="0" IVar="-1" Cut="0.0000000000000000e+00" cType="1" res="5.4168798029422760e-02" rms="4.6657648682594299e-01" purity="5.2611583471298218e-01" nType="-99"/>
          </Node>
          <Node pos="r" depth="2" NCoef="0" IVar="6" Cut="6.0402482748031616e-01" cType="1" res="-2.6608312036842108e-03" rms="4.6019506454467773e-01" purity="5.2076309919357300e-01" nType="0">
            <Node pos="l" depth="3" NCoef="0" IVar="-1" Cut="0.0000000000000000e+00" cType="1" res="-2.3290216922760010e-02" rms="4.4523057341575623e-01" purity="5.5343234539031982e-01" nType="-99"/>
            <Node pos="r" depth="3" NCoef="0" IVar="-1" Cut="0.0000000000000000e+00" cType="1" res="8.1116240471601486e-03" rms="4.6690493822097778e-01" purity="5.0506561994552612e-01" nType="-99"/>
          </Node>
        </Node>
      </Node>
    </BinaryTree>
    <BinaryTree type="DecisionTree" boostWeight="1.0000000000000000e+00" itree="399">
      <Node pos="s" depth="0" NCoef="0" IVar="7" Cut="7.0000000000000000e+00" cType="1" res="0.0000000000000000e+00" rms="0.0000000000000000e+00" purity="4.9449247121810913e-01" nType="0">
        <Node pos="l" depth="1" NCoef="0" IVar="6" Cut="1.3464145660400391e+00" cType="1" res="-5.4050651378929615e-03" rms="4.5946437120437622e-01" purity="4.8789104819297791e-01" nType="0">
          <Node pos="l" depth="2" NCoef="0" IVar="2" Cut="4.3187332153320312e+02" cType="1" res="1.1945955338887870e-04" rms="4.5908945798873901e-01" purity="5.0513452291488647e-01" nType="0">
            <Node pos="l" depth="3" NCoef="0" IVar="-1" Cut="0.0000000000000000e+00" cType="1" res="-2.2652703337371349e-03" rms="4.5843398571014404e-01" purity="4.9957555532455444e-01" nType="-99"/>
            <Node pos="r" depth="3" NCoef="0" IVar="-1" Cut="0.0000000000000000e+00" cType="1" res="2.8710918501019478e-02" rms="4.6605581045150757e-01" purity="5.7136899232864380e-01" nType="-99"/>
          </Node>
          <Node pos="r" depth="2" NCoef="0" IVar="4" Cut="8.9289855957031250e-01" cType="1" res="-1.3747368939220905e-02" rms="4.5990413427352905e-01" purity="4.6185261011123657e-01" nType="0">
            <Node pos="l" depth="3" NCoef="0" IVar="-1" Cut="0.0000000000000000e+00" cType="1" res="-4.9975444562733173e-03" rms="4.3253153562545776e-01" purity="3.7469622492790222e-01" nType="-99"/>
            <Node pos="r" depth="3" NCoef="0" IVar="-1" Cut="0.0000000000000000e+00" cType="1" res="-3.5413990262895823e-03" rms="4.6418613195419312e-01" purity="4.7734385728836060e-01" nType="-99"/>
          </Node>
        </Node>
        <Node pos="r" depth="1" NCoef="0" IVar="4" Cut="2.0997700691223145e+00" cType="1" res="-4.1634175926446915e-02" rms="4.3614190816879272e-01" purity="5.4555016756057739e-01" nType="0">
          <Node pos="l" depth="2" NCoef="0" IVar="-1" Cut="0.0000000000000000e+00" cType="1" res="-2.5543502997606993e-03" rms="4.2961925268173218e-01" purity="4.9099460244178772e-01" nType="-99"/>
          <Node pos="r" depth="2" NCoef="0" IVar="-1" Cut="0.0000000000000000e+00" cType="1" res="-2.9367338865995407e-03" rms="4.4172582030296326e-01" purity="6.1563026905059814e-01" nType="-99"/>
        </Node>
      </Node>
    </BinaryTree>
  </Weights>
</MethodSetup>
