<?xml version="1.0"?>
<MethodSetup Method="BDT::BDTG">
  <GeneralInfo>
    <Info name="TMVA Release" value="4.2.1 [262657]"/>
    <Info name="ROOT Release" value="6.08/06 [395270]"/>
    <Info name="Creator" value="unok"/>
    <Info name="Date" value="Mon Jan 14 13:19:06 2019"/>
    <Info name="Host" value="Linux buildvm-16.phx2.fedoraproject.org 4.10.14-200.fc25.x86_64 #1 SMP Wed May 3 22:52:30 UTC 2017 x86_64 x86_64 x86_64 GNU/Linux"/>
    <Info name="Dir" value="/gpfs/fs6001/unok/TMVA/2018/v142/V2/TMVA-0L"/>
    <Info name="Training events" value="802241"/>
    <Info name="TrainingTime" value="7.02510958e+02"/>
    <Info name="AnalysisType" value="Classification"/>
  </GeneralInfo>
  <Options>
    <Option name="V" modified="Yes">False</Option>
    <Option name="VerbosityLevel" modified="No">Default</Option>
    <Option name="VarTransform" modified="No">None</Option>
    <Option name="H" modified="Yes">False</Option>
    <Option name="CreateMVAPdfs" modified="No">False</Option>
    <Option name="IgnoreNegWeightsInTraining" modified="No">False</Option>
    <Option name="NTrees" modified="Yes">800</Option>
    <Option name="MaxDepth" modified="Yes">3</Option>
    <Option name="MinNodeSize" modified="Yes">2.500000%</Option>
    <Option name="nCuts" modified="Yes">20</Option>
    <Option name="BoostType" modified="Yes">Grad</Option>
    <Option name="AdaBoostR2Loss" modified="No">quadratic</Option>
    <Option name="UseBaggedBoost" modified="Yes">True</Option>
    <Option name="Shrinkage" modified="Yes">2.000000e-01</Option>
    <Option name="AdaBoostBeta" modified="No">5.000000e-01</Option>
    <Option name="UseRandomisedTrees" modified="No">False</Option>
    <Option name="UseNvars" modified="No">3</Option>
    <Option name="UsePoissonNvars" modified="No">True</Option>
    <Option name="BaggedSampleFraction" modified="Yes">5.000000e-01</Option>
    <Option name="UseYesNoLeaf" modified="No">True</Option>
    <Option name="NegWeightTreatment" modified="Yes">pray</Option>
    <Option name="Css" modified="No">1.000000e+00</Option>
    <Option name="Cts_sb" modified="No">1.000000e+00</Option>
    <Option name="Ctb_ss" modified="No">1.000000e+00</Option>
    <Option name="Cbb" modified="No">1.000000e+00</Option>
    <Option name="NodePurityLimit" modified="No">5.000000e-01</Option>
    <Option name="SeparationType" modified="No">giniindex</Option>
    <Option name="RegressionLossFunctionBDTG" modified="No">huber</Option>
    <Option name="HuberQuantile" modified="No">7.000000e-01</Option>
    <Option name="DoBoostMonitor" modified="No">False</Option>
    <Option name="UseFisherCuts" modified="No">False</Option>
    <Option name="MinLinCorrForFisher" modified="No">8.000000e-01</Option>
    <Option name="UseExclusiveVars" modified="No">False</Option>
    <Option name="DoPreselection" modified="No">False</Option>
    <Option name="SigToBkgFraction" modified="No">1.000000e+00</Option>
    <Option name="PruneMethod" modified="No">nopruning</Option>
    <Option name="PruneStrength" modified="No">0.000000e+00</Option>
    <Option name="PruningValFraction" modified="No">5.000000e-01</Option>
    <Option name="SkipNormalization" modified="No">False</Option>
    <Option name="nEventsMin" modified="No">0</Option>
    <Option name="UseBaggedGrad" modified="No">False</Option>
    <Option name="GradBaggingFraction" modified="No">5.000000e-01</Option>
    <Option name="UseNTrainEvents" modified="No">0</Option>
    <Option name="NNodesMax" modified="No">0</Option>
  </Options>
  <Variables NVar="10">
    <Variable VarIndex="0" Expression="meff" Label="meff" Title="m_{eff}(incl.)" Unit="GeV" Internal="meff" Type="F" Min="8.00027588e+02" Max="8.99630371e+03"/>
    <Variable VarIndex="1" Expression="met" Label="met" Title="E_{T}^{miss}" Unit="GeV" Internal="met" Type="F" Min="3.00001556e+02" Max="3.76814819e+03"/>
    <Variable VarIndex="2" Expression="jetPt0" Label="jetPt0" Title="p_{T}(j_{1})" Unit="GeV" Internal="jetPt0" Type="F" Min="2.00002060e+02" Max="4.46562451e+03"/>
    <Variable VarIndex="3" Expression="jetPt1" Label="jetPt1" Title="p_{T}(j_{2})" Unit="GeV" Internal="jetPt1" Type="F" Min="5.29285202e+01" Max="2.07720947e+03"/>
    <Variable VarIndex="4" Expression="jetPt2" Label="jetPt2" Title="p_{T}(j_{3})" Unit="GeV" Internal="jetPt2" Type="F" Min="5.06614456e+01" Max="1.21655359e+03"/>
    <Variable VarIndex="5" Expression="jetPt3" Label="jetPt3" Title="p_{T}(j_{4})" Unit="GeV" Internal="jetPt3" Type="F" Min="5.00182076e+01" Max="7.86908386e+02"/>
    <Variable VarIndex="6" Expression="jetEta0" Label="jetEta0" Title="#eta(j_{1})" Unit="" Internal="jetEta0" Type="F" Min="-2.78860641e+00" Max="2.79973054e+00"/>
    <Variable VarIndex="7" Expression="jetEta1" Label="jetEta1" Title="#eta(j_{2})" Unit="" Internal="jetEta1" Type="F" Min="-2.79994178e+00" Max="2.79998803e+00"/>
    <Variable VarIndex="8" Expression="jetEta2" Label="jetEta2" Title="#eta(j_{3})" Unit="" Internal="jetEta2" Type="F" Min="-2.79999733e+00" Max="2.79998136e+00"/>
    <Variable VarIndex="9" Expression="jetEta3" Label="jetEta3" Title="#eta(j_{4})" Unit="" Internal="jetEta3" Type="F" Min="-2.79990530e+00" Max="2.79996967e+00"/>
  </Variables>
  <Spectators NSpec="0">
  </Spectators>
  <Classes NClass="2">
    <Class Name="Signal" Index="0"/>
    <Class Name="Background" Index="1"/>
  </Classes>
  <Transformations NTransformations="0"/>
  <MVAPdfs/>
  <Weights NTrees="800" AnalysisType="1">
    <BinaryTree type="DecisionTree" boostWeight="1.0000000000000000e+00" itree="0">
      <Node pos="s" depth="0" NCoef="0" IVar="5" Cut="8.1894096374511719e+01" cType="1" res="4.4127721339464188e-03" rms="4.9998053908348083e-01" purity="5.0441277027130127e-01" nType="0">
        <Node pos="l" depth="1" NCoef="0" IVar="1" Cut="4.2253054809570312e+02" cType="1" res="-2.1084317564964294e-01" rms="4.5337086915969849e-01" purity="2.8915682435035706e-01" nType="0">
          <Node pos="l" depth="2" NCoef="0" IVar="2" Cut="3.2424813842773438e+02" cType="1" res="-2.7535170316696167e-01" rms="4.1735050082206726e-01" purity="2.2464828193187714e-01" nType="0">
            <Node pos="l" depth="3" NCoef="0" IVar="-1" Cut="0.0000000000000000e+00" cType="1" res="-7.3889708146452904e-03" rms="4.5114159584045410e-01" purity="2.8442803025245667e-01" nType="-99"/>
            <Node pos="r" depth="3" NCoef="0" IVar="-1" Cut="0.0000000000000000e+00" cType="1" res="-1.4712487347424030e-02" rms="3.6284121870994568e-01" purity="1.5598510205745697e-01" nType="-99"/>
          </Node>
          <Node pos="r" depth="2" NCoef="0" IVar="1" Cut="5.3922534179687500e+02" cType="1" res="-7.5230799615383148e-02" rms="4.9430793523788452e-01" purity="4.2476922273635864e-01" nType="0">
            <Node pos="l" depth="3" NCoef="0" IVar="-1" Cut="0.0000000000000000e+00" cType="1" res="-5.1335841417312622e-03" rms="4.8111718893051147e-01" purity="3.6388885974884033e-01" nType="-99"/>
            <Node pos="r" depth="3" NCoef="0" IVar="-1" Cut="0.0000000000000000e+00" cType="1" res="8.9573004515841603e-04" rms="4.9927234649658203e-01" purity="5.2696543931961060e-01" nType="-99"/>
          </Node>
        </Node>
        <Node pos="r" depth="1" NCoef="0" IVar="1" Cut="4.6515295410156250e+02" cType="1" res="9.1553933918476105e-02" rms="4.9154642224311829e-01" purity="5.9155392646789551e-01" nType="0">
          <Node pos="l" depth="2" NCoef="0" IVar="5" Cut="1.1212373352050781e+02" cType="1" res="1.5158719383180141e-02" rms="4.9977016448974609e-01" purity="5.1515871286392212e-01" nType="0">
            <Node pos="l" depth="3" NCoef="0" IVar="-1" Cut="0.0000000000000000e+00" cType="1" res="-2.8074570000171661e-03" rms="4.9290904402732849e-01" purity="4.1609120368957520e-01" nType="-99"/>
            <Node pos="r" depth="3" NCoef="0" IVar="-1" Cut="0.0000000000000000e+00" cType="1" res="3.0923662707209587e-03" rms="4.8930618166923523e-01" purity="6.0285651683807373e-01" nType="-99"/>
          </Node>
          <Node pos="r" depth="2" NCoef="0" IVar="2" Cut="4.9196633911132812e+02" cType="1" res="2.3892620205879211e-01" rms="4.3922007083892822e-01" purity="7.3892617225646973e-01" nType="0">
            <Node pos="l" depth="3" NCoef="0" IVar="-1" Cut="0.0000000000000000e+00" cType="1" res="7.8074051998555660e-03" rms="3.9385041594505310e-01" purity="8.0802893638610840e-01" nType="-99"/>
            <Node pos="r" depth="3" NCoef="0" IVar="-1" Cut="0.0000000000000000e+00" cType="1" res="2.4849895853549242e-03" rms="4.9402028322219849e-01" purity="5.7709705829620361e-01" nType="-99"/>
          </Node>
        </Node>
      </Node>
    </BinaryTree>
    <BinaryTree type="DecisionTree" boostWeight="1.0000000000000000e+00" itree="1">
      <Node pos="s" depth="0" NCoef="0" IVar="5" Cut="1.0898453521728516e+02" cType="1" res="3.2120062969624996e-03" rms="4.9877688288688660e-01" purity="5.0286138057708740e-01" nType="0">
        <Node pos="l" depth="1" NCoef="0" IVar="1" Cut="4.2850576782226562e+02" cType="1" res="-1.1718522757291794e-01" rms="4.8461872339248657e-01" purity="3.8070470094680786e-01" nType="0">
          <Node pos="l" depth="2" NCoef="0" IVar="2" Cut="3.3159793090820312e+02" cType="1" res="-2.0119334757328033e-01" rms="4.5573464035987854e-01" purity="2.9534101486206055e-01" nType="0">
            <Node pos="l" depth="3" NCoef="0" IVar="-1" Cut="0.0000000000000000e+00" cType="1" res="-4.3530436232686043e-03" rms="4.8052334785461426e-01" purity="3.6262291669845581e-01" nType="-99"/>
            <Node pos="r" depth="3" NCoef="0" IVar="-1" Cut="0.0000000000000000e+00" cType="1" res="-1.2327885255217552e-02" rms="4.0470719337463379e-01" purity="2.0698776841163635e-01" nType="-99"/>
          </Node>
          <Node pos="r" depth="2" NCoef="0" IVar="5" Cut="8.0904937744140625e+01" cType="1" res="3.8002081215381622e-02" rms="4.9790549278259277e-01" purity="5.3839612007141113e-01" nType="0">
            <Node pos="l" depth="3" NCoef="0" IVar="-1" Cut="0.0000000000000000e+00" cType="1" res="-2.4494177196174860e-03" rms="4.9421572685241699e-01" purity="4.2555132508277893e-01" nType="-99"/>
            <Node pos="r" depth="3" NCoef="0" IVar="-1" Cut="0.0000000000000000e+00" cType="1" res="3.6743239033967257e-03" rms="4.8312100768089294e-01" purity="6.2741702795028687e-01" nType="-99"/>
          </Node>
        </Node>
        <Node pos="r" depth="1" NCoef="0" IVar="1" Cut="4.2404833984375000e+02" cType="1" res="1.6477963328361511e-01" rms="4.7106909751892090e-01" purity="6.6679018735885620e-01" nType="0">
          <Node pos="l" depth="2" NCoef="0" IVar="2" Cut="3.8052062988281250e+02" cType="1" res="6.8828128278255463e-02" rms="4.9502775073051453e-01" purity="5.7014274597167969e-01" nType="0">
            <Node pos="l" depth="3" NCoef="0" IVar="-1" Cut="0.0000000000000000e+00" cType="1" res="3.7997509352862835e-03" rms="4.8032775521278381e-01" purity="6.3878273963928223e-01" nType="-99"/>
            <Node pos="r" depth="3" NCoef="0" IVar="-1" Cut="0.0000000000000000e+00" cType="1" res="-3.0416043009608984e-03" rms="4.9448469281196594e-01" purity="4.2632138729095459e-01" nType="-99"/>
          </Node>
          <Node pos="r" depth="2" NCoef="0" IVar="2" Cut="4.7396170043945312e+02" cType="1" res="2.6426082849502563e-01" rms="4.2245280742645264e-01" purity="7.6699286699295044e-01" nType="0">
            <Node pos="l" depth="3" NCoef="0" IVar="-1" Cut="0.0000000000000000e+00" cType="1" res="8.0637587234377861e-03" rms="3.7238630652427673e-01" purity="8.3352071046829224e-01" nType="-99"/>
            <Node pos="r" depth="3" NCoef="0" IVar="-1" Cut="0.0000000000000000e+00" cType="1" res="3.2927864231169224e-03" rms="4.8907539248466492e-01" purity="6.0373127460479736e-01" nType="-99"/>
          </Node>
        </Node>
      </Node>
    </BinaryTree>
    <BinaryTree type="DecisionTree" boostWeight="1.0000000000000000e+00" itree="2">
      <Node pos="s" depth="0" NCoef="0" IVar="5" Cut="8.5154937744140625e+01" cType="1" res="2.2790841758251190e-03" rms="4.9753949046134949e-01" purity="5.0140649080276489e-01" nType="0">
        <Node pos="l" depth="1" NCoef="0" IVar="1" Cut="4.2762725830078125e+02" cType="1" res="-1.9183085858821869e-01" rms="4.5778211951255798e-01" purity="3.0157423019409180e-01" nType="0">
          <Node pos="l" depth="2" NCoef="0" IVar="7" Cut="-1.1984637975692749e+00" cType="1" res="-2.5354737043380737e-01" rms="4.2510190606117249e-01" purity="2.3762659728527069e-01" nType="0">
            <Node pos="l" depth="3" NCoef="0" IVar="-1" Cut="0.0000000000000000e+00" cType="1" res="-1.9271954894065857e-02" rms="2.9311513900756836e-01" purity="9.5218703150749207e-02" nType="-99"/>
            <Node pos="r" depth="3" NCoef="0" IVar="-1" Cut="0.0000000000000000e+00" cType="1" res="-8.0934409052133560e-03" rms="4.4047549366950989e-01" purity="2.6440855860710144e-01" nType="-99"/>
          </Node>
          <Node pos="r" depth="2" NCoef="0" IVar="5" Cut="6.6774864196777344e+01" cType="1" res="-5.8141894638538361e-02" rms="4.9592474102973938e-01" purity="4.4009628891944885e-01" nType="0">
            <Node pos="l" depth="3" NCoef="0" IVar="-1" Cut="0.0000000000000000e+00" cType="1" res="-8.0144489184021950e-03" rms="4.6471789479255676e-01" purity="3.1606602668762207e-01" nType="-99"/>
            <Node pos="r" depth="3" NCoef="0" IVar="-1" Cut="0.0000000000000000e+00" cType="1" res="-8.5042564023751765e-05" rms="4.9955341219902039e-01" purity="4.9605387449264526e-01" nType="-99"/>
          </Node>
        </Node>
        <Node pos="r" depth="1" NCoef="0" IVar="1" Cut="4.1917437744140625e+02" cType="1" res="9.6417173743247986e-02" rms="4.8870259523391724e-01" purity="5.9831964969635010e-01" nType="0">
          <Node pos="l" depth="2" NCoef="0" IVar="6" Cut="1.2141132354736328e+00" cType="1" res="-7.8752627596259117e-03" rms="4.9889871478080750e-01" purity="4.9121761322021484e-01" nType="0">
            <Node pos="l" depth="3" NCoef="0" IVar="-1" Cut="0.0000000000000000e+00" cType="1" res="6.0727552045136690e-04" rms="4.9836748838424683e-01" purity="5.2495312690734863e-01" nType="-99"/>
            <Node pos="r" depth="3" NCoef="0" IVar="-1" Cut="0.0000000000000000e+00" cType="1" res="-1.2343388050794601e-02" rms="4.1056224703788757e-01" purity="2.1603910624980927e-01" nType="-99"/>
          </Node>
          <Node pos="r" depth="2" NCoef="0" IVar="2" Cut="4.0313281250000000e+02" cType="1" res="2.1218381822109222e-01" rms="4.4964113831520081e-01" purity="7.1720510721206665e-01" nType="0">
            <Node pos="l" depth="3" NCoef="0" IVar="-1" Cut="0.0000000000000000e+00" cType="1" res="7.2622499428689480e-03" rms="3.9965805411338806e-01" purity="7.9975992441177368e-01" nType="-99"/>
            <Node pos="r" depth="3" NCoef="0" IVar="-1" Cut="0.0000000000000000e+00" cType="1" res="2.9724752530455589e-03" rms="4.8955020308494568e-01" purity="5.9942024946212769e-01" nType="-99"/>
          </Node>
        </Node>
      </Node>
    </BinaryTree>
    <BinaryTree type="DecisionTree" boostWeight="1.0000000000000000e+00" itree="3">
      <Node pos="s" depth="0" NCoef="0" IVar="5" Cut="1.1335482788085938e+02" cType="1" res="2.9918167274445295e-03" rms="4.9626433849334717e-01" purity="5.0162369012832642e-01" nType="0">
        <Node pos="l" depth="1" NCoef="0" IVar="1" Cut="4.3640145874023438e+02" cType="1" res="-1.0244671255350113e-01" rms="4.8517850041389465e-01" purity="3.9190885424613953e-01" nType="0">
          <Node pos="l" depth="2" NCoef="0" IVar="5" Cut="8.3236587524414062e+01" cType="1" res="-1.7906861007213593e-01" rms="4.6129083633422852e-01" purity="3.1135752797126770e-01" nType="0">
            <Node pos="l" depth="3" NCoef="0" IVar="-1" Cut="0.0000000000000000e+00" cType="1" res="-9.7295409068465233e-03" rms="4.2064765095710754e-01" purity="2.3126237094402313e-01" nType="-99"/>
            <Node pos="r" depth="3" NCoef="0" IVar="-1" Cut="0.0000000000000000e+00" cType="1" res="-3.2184941228479147e-03" rms="4.8914977908134460e-01" purity="4.0130940079689026e-01" nType="-99"/>
          </Node>
          <Node pos="r" depth="2" NCoef="0" IVar="5" Cut="7.7162239074707031e+01" cType="1" res="5.2238099277019501e-02" rms="4.9523898959159851e-01" purity="5.5452644824981689e-01" nType="0">
            <Node pos="l" depth="3" NCoef="0" IVar="-1" Cut="0.0000000000000000e+00" cType="1" res="-3.9530550129711628e-03" rms="4.8651608824729919e-01" purity="3.8647767901420593e-01" nType="-99"/>
            <Node pos="r" depth="3" NCoef="0" IVar="-1" Cut="0.0000000000000000e+00" cType="1" res="3.7130306009203196e-03" rms="4.8038965463638306e-01" purity="6.3571220636367798e-01" nType="-99"/>
          </Node>
        </Node>
        <Node pos="r" depth="1" NCoef="0" IVar="1" Cut="4.1174975585937500e+02" cType="1" res="1.6879144310951233e-01" rms="4.6734973788261414e-01" purity="6.7414760589599609e-01" nType="0">
          <Node pos="l" depth="2" NCoef="0" IVar="2" Cut="4.5956225585937500e+02" cType="1" res="7.6239451766014099e-02" rms="4.9316170811653137e-01" purity="5.7823675870895386e-01" nType="0">
            <Node pos="l" depth="3" NCoef="0" IVar="-1" Cut="0.0000000000000000e+00" cType="1" res="3.5493550822138786e-03" rms="4.8400455713272095e-01" purity="6.2346637248992920e-01" nType="-99"/>
            <Node pos="r" depth="3" NCoef="0" IVar="-1" Cut="0.0000000000000000e+00" cType="1" res="-6.2739457935094833e-03" rms="4.7982454299926758e-01" purity="3.6028486490249634e-01" nType="-99"/>
          </Node>
          <Node pos="r" depth="2" NCoef="0" IVar="2" Cut="5.0811590576171875e+02" cType="1" res="2.5119698047637939e-01" rms="4.2652508616447449e-01" purity="7.5954377651214600e-01" nType="0">
            <Node pos="l" depth="3" NCoef="0" IVar="-1" Cut="0.0000000000000000e+00" cType="1" res="7.7712754718959332e-03" rms="3.8589268922805786e-01" purity="8.1747680902481079e-01" nType="-99"/>
            <Node pos="r" depth="3" NCoef="0" IVar="-1" Cut="0.0000000000000000e+00" cType="1" res="2.3110313341021538e-03" rms="4.9431234598159790e-01" purity="5.7461726665496826e-01" nType="-99"/>
          </Node>
        </Node>
      </Node>
    </BinaryTree>
    <BinaryTree type="DecisionTree" boostWeight="1.0000000000000000e+00" itree="4">
      <Node pos="s" depth="0" NCoef="0" IVar="5" Cut="1.0902892303466797e+02" cType="1" res="-1.9350668881088495e-03" rms="4.9504294991493225e-01" purity="4.9628588557243347e-01" nType="0">
        <Node pos="l" depth="1" NCoef="0" IVar="1" Cut="4.2850576782226562e+02" cType="1" res="-1.1860680580139160e-01" rms="4.8002764582633972e-01" purity="3.7296345829963684e-01" nType="0">
          <Node pos="l" depth="2" NCoef="0" IVar="7" Cut="-1.1998449563980103e+00" cType="1" res="-2.0265081524848938e-01" rms="4.4903343915939331e-01" purity="2.8341713547706604e-01" nType="0">
            <Node pos="l" depth="3" NCoef="0" IVar="-1" Cut="0.0000000000000000e+00" cType="1" res="-1.5680627897381783e-02" rms="3.1615349650382996e-01" purity="1.1357168853282928e-01" nType="-99"/>
            <Node pos="r" depth="3" NCoef="0" IVar="-1" Cut="0.0000000000000000e+00" cType="1" res="-4.4198329560458660e-03" rms="4.6272492408752441e-01" purity="3.1414982676506042e-01" nType="-99"/>
          </Node>
          <Node pos="r" depth="2" NCoef="0" IVar="2" Cut="3.7131597900390625e+02" cType="1" res="3.9791945368051529e-02" rms="4.9628129601478577e-01" purity="5.4173254966735840e-01" nType="0">
            <Node pos="l" depth="3" NCoef="0" IVar="-1" Cut="0.0000000000000000e+00" cType="1" res="3.8404678925871849e-03" rms="4.7707378864288330e-01" purity="6.4227980375289917e-01" nType="-99"/>
            <Node pos="r" depth="3" NCoef="0" IVar="-1" Cut="0.0000000000000000e+00" cType="1" res="-1.9793570972979069e-03" rms="4.9561336636543274e-01" purity="4.4503340125083923e-01" nType="-99"/>
          </Node>
        </Node>
        <Node pos="r" depth="1" NCoef="0" IVar="1" Cut="4.2162579345703125e+02" cType="1" res="1.5507997572422028e-01" rms="4.7095453739166260e-01" purity="6.6225129365921021e-01" nType="0">
          <Node pos="l" depth="2" NCoef="0" IVar="7" Cut="9.3314409255981445e-01" cType="1" res="6.0410764068365097e-02" rms="4.9494281411170959e-01" purity="5.6302595138549805e-01" nType="0">
            <Node pos="l" depth="3" NCoef="0" IVar="-1" Cut="0.0000000000000000e+00" cType="1" res="3.0294987373054028e-03" rms="4.8780617117881775e-01" purity="6.0487973690032959e-01" nType="-99"/>
            <Node pos="r" depth="3" NCoef="0" IVar="-1" Cut="0.0000000000000000e+00" cType="1" res="-6.6511859185993671e-03" rms="4.7132256627082825e-01" purity="3.3567920327186584e-01" nType="-99"/>
          </Node>
          <Node pos="r" depth="2" NCoef="0" IVar="2" Cut="4.6581951904296875e+02" cType="1" res="2.5142604112625122e-01" rms="4.2404481768608093e-01" purity="7.6323401927947998e-01" nType="0">
            <Node pos="l" depth="3" NCoef="0" IVar="-1" Cut="0.0000000000000000e+00" cType="1" res="7.9054990783333778e-03" rms="3.7633970379829407e-01" purity="8.2890135049819946e-01" nType="-99"/>
            <Node pos="r" depth="3" NCoef="0" IVar="-1" Cut="0.0000000000000000e+00" cType="1" res="3.3106184564530849e-03" rms="4.8749613761901855e-01" purity="6.1021602153778076e-01" nType="-99"/>
          </Node>
        </Node>
      </Node>
    </BinaryTree>
    <BinaryTree type="DecisionTree" boostWeight="1.0000000000000000e+00" itree="5">
      <Node pos="s" depth="0" NCoef="0" IVar="5" Cut="1.1367871856689453e+02" cType="1" res="6.6320719197392464e-03" rms="4.9398547410964966e-01" purity="5.0473076105117798e-01" nType="0">
        <Node pos="l" depth="1" NCoef="0" IVar="1" Cut="4.5299722290039062e+02" cType="1" res="-9.6431344747543335e-02" rms="4.8429271578788757e-01" purity="3.9443644881248474e-01" nType="0">
          <Node pos="l" depth="2" NCoef="0" IVar="5" Cut="8.0378860473632812e+01" cType="1" res="-1.6876149177551270e-01" rms="4.6257749199867249e-01" purity="3.1672728061676025e-01" nType="0">
            <Node pos="l" depth="3" NCoef="0" IVar="-1" Cut="0.0000000000000000e+00" cType="1" res="-9.3917194753885269e-03" rms="4.1456982493400574e-01" purity="2.2221522033214569e-01" nType="-99"/>
            <Node pos="r" depth="3" NCoef="0" IVar="-1" Cut="0.0000000000000000e+00" cType="1" res="-3.1468367669731379e-03" rms="4.8793369531631470e-01" purity="3.9932823181152344e-01" nType="-99"/>
          </Node>
          <Node pos="r" depth="2" NCoef="0" IVar="5" Cut="8.3404121398925781e+01" cType="1" res="7.8980103135108948e-02" rms="4.9086397886276245e-01" purity="5.8289283514022827e-01" nType="0">
            <Node pos="l" depth="3" NCoef="0" IVar="-1" Cut="0.0000000000000000e+00" cType="1" res="-8.2557345740497112e-04" rms="4.9834215641021729e-01" purity="4.7081336379051208e-01" nType="-99"/>
            <Node pos="r" depth="3" NCoef="0" IVar="-1" Cut="0.0000000000000000e+00" cType="1" res="4.4706217013299465e-03" rms="4.6938636898994446e-01" purity="6.6976052522659302e-01" nType="-99"/>
          </Node>
        </Node>
        <Node pos="r" depth="1" NCoef="0" IVar="1" Cut="4.1917437744140625e+02" cType="1" res="1.7072796821594238e-01" rms="4.6398204565048218e-01" purity="6.8033957481384277e-01" nType="0">
          <Node pos="l" depth="2" NCoef="0" IVar="2" Cut="3.3538464355468750e+02" cType="1" res="8.5936553776264191e-02" rms="4.9052882194519043e-01" purity="5.8969640731811523e-01" nType="0">
            <Node pos="l" depth="3" NCoef="0" IVar="-1" Cut="0.0000000000000000e+00" cType="1" res="4.8199477605521679e-03" rms="4.6295839548110962e-01" purity="6.8719428777694702e-01" nType="-99"/>
            <Node pos="r" depth="3" NCoef="0" IVar="-1" Cut="0.0000000000000000e+00" cType="1" res="-1.4352678554132581e-03" rms="4.9764865636825562e-01" purity="4.6523806452751160e-01" nType="-99"/>
          </Node>
          <Node pos="r" depth="2" NCoef="0" IVar="2" Cut="4.7259527587890625e+02" cType="1" res="2.5232639908790588e-01" rms="4.2109048366546631e-01" purity="7.6756942272186279e-01" nType="0">
            <Node pos="l" depth="3" NCoef="0" IVar="-1" Cut="0.0000000000000000e+00" cType="1" res="7.7061560004949570e-03" rms="3.7470927834510803e-01" purity="8.3077567815780640e-01" nType="-99"/>
            <Node pos="r" depth="3" NCoef="0" IVar="-1" Cut="0.0000000000000000e+00" cType="1" res="3.1857774592936039e-03" rms="4.8889070749282837e-01" purity="6.0425025224685669e-01" nType="-99"/>
          </Node>
        </Node>
      </Node>
    </BinaryTree>
    <BinaryTree type="DecisionTree" boostWeight="1.0000000000000000e+00" itree="6">
      <Node pos="s" depth="0" NCoef="0" IVar="5" Cut="1.0902892303466797e+02" cType="1" res="3.9809155277907848e-03" rms="4.9278309941291809e-01" purity="5.0187784433364868e-01" nType="0">
        <Node pos="l" depth="1" NCoef="0" IVar="1" Cut="4.3640277099609375e+02" cType="1" res="-1.1330753564834595e-01" rms="4.7909334301948547e-01" purity="3.7459197640419006e-01" nType="0">
          <Node pos="l" depth="2" NCoef="0" IVar="2" Cut="3.7273956298828125e+02" cType="1" res="-1.9024786353111267e-01" rms="4.5145171880722046e-01" purity="2.9012373089790344e-01" nType="0">
            <Node pos="l" depth="3" NCoef="0" IVar="-1" Cut="0.0000000000000000e+00" cType="1" res="-4.5496975071728230e-03" rms="4.7380948066711426e-01" purity="3.4736567735671997e-01" nType="-99"/>
            <Node pos="r" depth="3" NCoef="0" IVar="-1" Cut="0.0000000000000000e+00" cType="1" res="-6.2187546864151955e-03" rms="3.7714353203773499e-01" purity="1.7310819029808044e-01" nType="-99"/>
          </Node>
          <Node pos="r" depth="2" NCoef="0" IVar="5" Cut="6.9720558166503906e+01" cType="1" res="4.2813144624233246e-02" rms="4.9531522393226624e-01" purity="5.4598766565322876e-01" nType="0">
            <Node pos="l" depth="3" NCoef="0" IVar="-1" Cut="0.0000000000000000e+00" cType="1" res="-5.4697040468454361e-03" rms="4.7630783915519714e-01" purity="3.5001268982887268e-01" nType="-99"/>
            <Node pos="r" depth="3" NCoef="0" IVar="-1" Cut="0.0000000000000000e+00" cType="1" res="2.7180504985153675e-03" rms="4.8845219612121582e-01" purity="5.9944713115692139e-01" nType="-99"/>
          </Node>
        </Node>
        <Node pos="r" depth="1" NCoef="0" IVar="1" Cut="4.2163168334960938e+02" cType="1" res="1.6003164649009705e-01" rms="4.6677854657173157e-01" purity="6.7122995853424072e-01" nType="0">
          <Node pos="l" depth="2" NCoef="0" IVar="2" Cut="4.3198400878906250e+02" cType="1" res="6.8878844380378723e-02" rms="4.9288931488990784e-01" purity="5.7310247421264648e-01" nType="0">
            <Node pos="l" depth="3" NCoef="0" IVar="-1" Cut="0.0000000000000000e+00" cType="1" res="3.5592156928032637e-03" rms="4.8229104280471802e-01" purity="6.2780904769897461e-01" nType="-99"/>
            <Node pos="r" depth="3" NCoef="0" IVar="-1" Cut="0.0000000000000000e+00" cType="1" res="-5.5614565499126911e-03" rms="4.8334127664566040e-01" purity="3.7545192241668701e-01" nType="-99"/>
          </Node>
          <Node pos="r" depth="2" NCoef="0" IVar="2" Cut="5.0812619018554688e+02" cType="1" res="2.4999333918094635e-01" rms="4.2054557800292969e-01" purity="7.6807528734207153e-01" nType="0">
            <Node pos="l" depth="3" NCoef="0" IVar="-1" Cut="0.0000000000000000e+00" cType="1" res="7.4557350017130375e-03" rms="3.8178625702857971e-01" purity="8.2224726676940918e-01" nType="-99"/>
            <Node pos="r" depth="3" NCoef="0" IVar="-1" Cut="0.0000000000000000e+00" cType="1" res="3.1127589754760265e-03" rms="4.8836454749107361e-01" purity="6.0706907510757446e-01" nType="-99"/>
          </Node>
        </Node>
      </Node>
    </BinaryTree>
    <BinaryTree type="DecisionTree" boostWeight="1.0000000000000000e+00" itree="7">
      <Node pos="s" depth="0" NCoef="0" IVar="5" Cut="8.5154937744140625e+01" cType="1" res="1.4874264597892761e-03" rms="4.9203002452850342e-01" purity="4.9913063645362854e-01" nType="0">
        <Node pos="l" depth="1" NCoef="0" IVar="1" Cut="4.2762725830078125e+02" cType="1" res="-1.8446981906890869e-01" rms="4.5235723257064819e-01" purity="2.9448816180229187e-01" nType="0">
          <Node pos="l" depth="2" NCoef="0" IVar="2" Cut="2.8177029418945312e+02" cType="1" res="-2.4050861597061157e-01" rms="4.2040327191352844e-01" purity="2.3137246072292328e-01" nType="0">
            <Node pos="l" depth="3" NCoef="0" IVar="-1" Cut="0.0000000000000000e+00" cType="1" res="-4.7438610345125198e-03" rms="4.6451890468597412e-01" purity="3.1708660721778870e-01" nType="-99"/>
            <Node pos="r" depth="3" NCoef="0" IVar="-1" Cut="0.0000000000000000e+00" cType="1" res="-1.2493002228438854e-02" rms="3.7696850299835205e-01" purity="1.7254391312599182e-01" nType="-99"/>
          </Node>
          <Node pos="r" depth="2" NCoef="0" IVar="1" Cut="5.4917553710937500e+02" cType="1" res="-6.2860108911991119e-02" rms="4.9350106716156006e-01" purity="4.3145549297332764e-01" nType="0">
            <Node pos="l" depth="3" NCoef="0" IVar="-1" Cut="0.0000000000000000e+00" cType="1" res="-4.4914088211953640e-03" rms="4.8148170113563538e-01" purity="3.7128236889839172e-01" nType="-99"/>
            <Node pos="r" depth="3" NCoef="0" IVar="-1" Cut="0.0000000000000000e+00" cType="1" res="1.4685915084555745e-03" rms="4.9711793661117554e-01" purity="5.4257720708847046e-01" nType="-99"/>
          </Node>
        </Node>
        <Node pos="r" depth="1" NCoef="0" IVar="1" Cut="4.1917230224609375e+02" cType="1" res="9.1311551630496979e-02" rms="4.8520037531852722e-01" purity="5.9798032045364380e-01" nType="0">
          <Node pos="l" depth="2" NCoef="0" IVar="7" Cut="-1.2000046968460083e+00" cType="1" res="-7.1411179378628731e-03" rms="4.9659121036529541e-01" purity="4.8977226018905640e-01" nType="0">
            <Node pos="l" depth="3" NCoef="0" IVar="-1" Cut="0.0000000000000000e+00" cType="1" res="-1.1822857894003391e-02" rms="4.1574752330780029e-01" purity="2.2720870375633240e-01" nType="-99"/>
            <Node pos="r" depth="3" NCoef="0" IVar="-1" Cut="0.0000000000000000e+00" cType="1" res="6.4233131706714630e-04" rms="4.9626922607421875e-01" purity="5.2468889951705933e-01" nType="-99"/>
          </Node>
          <Node pos="r" depth="2" NCoef="0" IVar="2" Cut="4.8050473022460938e+02" cType="1" res="2.0144094526767731e-01" rms="4.4714486598968506e-01" purity="7.1902215480804443e-01" nType="0">
            <Node pos="l" depth="3" NCoef="0" IVar="-1" Cut="0.0000000000000000e+00" cType="1" res="6.7217163741588593e-03" rms="4.1116896271705627e-01" purity="7.8215140104293823e-01" nType="-99"/>
            <Node pos="r" depth="3" NCoef="0" IVar="-1" Cut="0.0000000000000000e+00" cType="1" res="1.4311961131170392e-03" rms="4.9676460027694702e-01" purity="5.5141323804855347e-01" nType="-99"/>
          </Node>
        </Node>
      </Node>
    </BinaryTree>
    <BinaryTree type="DecisionTree" boostWeight="1.0000000000000000e+00" itree="8">
      <Node pos="s" depth="0" NCoef="0" IVar="5" Cut="1.1367871856689453e+02" cType="1" res="-2.2308451589196920e-03" rms="4.9083676934242249e-01" purity="4.9483361840248108e-01" nType="0">
        <Node pos="l" depth="1" NCoef="0" IVar="1" Cut="4.6515432739257812e+02" cType="1" res="-1.0243763774633408e-01" rms="4.7964322566986084e-01" purity="3.8363346457481384e-01" nType="0">
          <Node pos="l" depth="2" NCoef="0" IVar="5" Cut="7.7353569030761719e+01" cType="1" res="-1.6232378780841827e-01" rms="4.6096983551979065e-01" purity="3.1647557020187378e-01" nType="0">
            <Node pos="l" depth="3" NCoef="0" IVar="-1" Cut="0.0000000000000000e+00" cType="1" res="-9.5546236261725426e-03" rms="4.0856164693832397e-01" purity="2.1382327377796173e-01" nType="-99"/>
            <Node pos="r" depth="3" NCoef="0" IVar="-1" Cut="0.0000000000000000e+00" cType="1" res="-2.3815694730728865e-03" rms="4.8341196775436401e-01" purity="3.8560038805007935e-01" nType="-99"/>
          </Node>
          <Node pos="r" depth="2" NCoef="0" IVar="2" Cut="3.3996990966796875e+02" cType="1" res="7.2016038000583649e-02" rms="4.9024781584739685e-01" purity="5.7927042245864868e-01" nType="0">
            <Node pos="l" depth="3" NCoef="0" IVar="-1" Cut="0.0000000000000000e+00" cType="1" res="5.2934931591153145e-03" rms="4.5022642612457275e-01" purity="7.1069657802581787e-01" nType="-99"/>
            <Node pos="r" depth="3" NCoef="0" IVar="-1" Cut="0.0000000000000000e+00" cType="1" res="-2.4221396597567946e-04" rms="4.9749544262886047e-01" purity="4.9743583798408508e-01" nType="-99"/>
          </Node>
        </Node>
        <Node pos="r" depth="1" NCoef="0" IVar="1" Cut="4.2404690551757812e+02" cType="1" res="1.5862281620502472e-01" rms="4.6515142917633057e-01" purity="6.7333388328552246e-01" nType="0">
          <Node pos="l" depth="2" NCoef="0" IVar="2" Cut="3.3080282592773438e+02" cType="1" res="7.6439417898654938e-02" rms="4.9094793200492859e-01" purity="5.8201032876968384e-01" nType="0">
            <Node pos="l" depth="3" NCoef="0" IVar="-1" Cut="0.0000000000000000e+00" cType="1" res="4.4063734821975231e-03" rms="4.6749398112297058e-01" purity="6.7482066154479980e-01" nType="-99"/>
            <Node pos="r" depth="3" NCoef="0" IVar="-1" Cut="0.0000000000000000e+00" cType="1" res="-9.7532762447372079e-04" rms="4.9752482771873474e-01" purity="4.7482958436012268e-01" nType="-99"/>
          </Node>
          <Node pos="r" depth="2" NCoef="0" IVar="2" Cut="4.8052658081054688e+02" cType="1" res="2.4386191368103027e-01" rms="4.2013546824455261e-01" purity="7.6805305480957031e-01" nType="0">
            <Node pos="l" depth="3" NCoef="0" IVar="-1" Cut="0.0000000000000000e+00" cType="1" res="7.5963027775287628e-03" rms="3.7542119622230530e-01" purity="8.2997393608093262e-01" nType="-99"/>
            <Node pos="r" depth="3" NCoef="0" IVar="-1" Cut="0.0000000000000000e+00" cType="1" res="3.3759071957319975e-03" rms="4.8636502027511597e-01" purity="6.1542254686355591e-01" nType="-99"/>
          </Node>
        </Node>
      </Node>
    </BinaryTree>
    <BinaryTree type="DecisionTree" boostWeight="1.0000000000000000e+00" itree="9">
      <Node pos="s" depth="0" NCoef="0" IVar="5" Cut="1.1364518737792969e+02" cType="1" res="2.3191956279333681e-04" rms="4.9008321762084961e-01" purity="4.9700215458869934e-01" nType="0">
        <Node pos="l" depth="1" NCoef="0" IVar="1" Cut="4.5299798583984375e+02" cType="1" res="-9.3632020056247711e-02" rms="4.8091018199920654e-01" purity="3.9077395200729370e-01" nType="0">
          <Node pos="l" depth="2" NCoef="0" IVar="2" Cut="3.5154885864257812e+02" cType="1" res="-1.5753838419914246e-01" rms="4.6167814731597900e-01" purity="3.1773629784584045e-01" nType="0">
            <Node pos="l" depth="3" NCoef="0" IVar="-1" Cut="0.0000000000000000e+00" cType="1" res="-3.0829941388219595e-03" rms="4.8145249485969543e-01" purity="3.7867599725723267e-01" nType="-99"/>
            <Node pos="r" depth="3" NCoef="0" IVar="-1" Cut="0.0000000000000000e+00" cType="1" res="-5.7285670191049576e-03" rms="4.0994399785995483e-01" purity="2.1819165349006653e-01" nType="-99"/>
          </Node>
          <Node pos="r" depth="2" NCoef="0" IVar="5" Cut="6.8232330322265625e+01" cType="1" res="6.6885747015476227e-02" rms="4.9069696664810181e-01" purity="5.7422733306884766e-01" nType="0">
            <Node pos="l" depth="3" NCoef="0" IVar="-1" Cut="0.0000000000000000e+00" cType="1" res="-6.0499040409922600e-03" rms="4.7402843832969666e-01" purity="3.4211629629135132e-01" nType="-99"/>
            <Node pos="r" depth="3" NCoef="0" IVar="-1" Cut="0.0000000000000000e+00" cType="1" res="3.2270266674458981e-03" rms="4.8283913731575012e-01" purity="6.2070578336715698e-01" nType="-99"/>
          </Node>
        </Node>
        <Node pos="r" depth="1" NCoef="0" IVar="1" Cut="4.1917388916015625e+02" cType="1" res="1.5298013389110565e-01" rms="4.6583971381187439e-01" purity="6.6987115144729614e-01" nType="0">
          <Node pos="l" depth="2" NCoef="0" IVar="6" Cut="-8.1845027208328247e-01" cType="1" res="6.7210219800472260e-02" rms="4.9224972724914551e-01" purity="5.7318240404129028e-01" nType="0">
            <Node pos="l" depth="3" NCoef="0" IVar="-1" Cut="0.0000000000000000e+00" cType="1" res="-4.1967094875872135e-03" rms="4.8637142777442932e-01" purity="3.9292511343955994e-01" nType="-99"/>
            <Node pos="r" depth="3" NCoef="0" IVar="-1" Cut="0.0000000000000000e+00" cType="1" res="3.3022677525877953e-03" rms="4.8424956202507019e-01" purity="6.1429888010025024e-01" nType="-99"/>
          </Node>
          <Node pos="r" depth="2" NCoef="0" IVar="2" Cut="5.0811215209960938e+02" cType="1" res="2.3548451066017151e-01" rms="4.2282798886299133e-01" purity="7.6287871599197388e-01" nType="0">
            <Node pos="l" depth="3" NCoef="0" IVar="-1" Cut="0.0000000000000000e+00" cType="1" res="7.4268998578190804e-03" rms="3.7871640920639038e-01" purity="8.2583534717559814e-01" nType="-99"/>
            <Node pos="r" depth="3" NCoef="0" IVar="-1" Cut="0.0000000000000000e+00" cType="1" res="1.6548180719837546e-03" rms="4.9627298116683960e-01" purity="5.6041640043258667e-01" nType="-99"/>
          </Node>
        </Node>
      </Node>
    </BinaryTree>
    <BinaryTree type="DecisionTree" boostWeight="1.0000000000000000e+00" itree="10">
      <Node pos="s" depth="0" NCoef="0" IVar="5" Cut="1.1044891357421875e+02" cType="1" res="6.8601695820689201e-03" rms="4.8901826143264771e-01" purity="5.0383102893829346e-01" nType="0">
        <Node pos="l" depth="1" NCoef="0" IVar="1" Cut="4.3640545654296875e+02" cType="1" res="-9.9602982401847839e-02" rms="4.7869074344635010e-01" purity="3.8244485855102539e-01" nType="0">
          <Node pos="l" depth="2" NCoef="0" IVar="2" Cut="3.3641738891601562e+02" cType="1" res="-1.6618402302265167e-01" rms="4.5654276013374329e-01" purity="3.0449223518371582e-01" nType="0">
            <Node pos="l" depth="3" NCoef="0" IVar="-1" Cut="0.0000000000000000e+00" cType="1" res="-3.0738261993974447e-03" rms="4.8161992430686951e-01" purity="3.7709996104240417e-01" nType="-99"/>
            <Node pos="r" depth="3" NCoef="0" IVar="-1" Cut="0.0000000000000000e+00" cType="1" res="-1.1623843573033810e-02" rms="3.9804774522781372e-01" purity="2.0076084136962891e-01" nType="-99"/>
          </Node>
          <Node pos="r" depth="2" NCoef="0" IVar="5" Cut="7.5917037963867188e+01" cType="1" res="3.7461120635271072e-02" rms="4.9383533000946045e-01" purity="5.4291862249374390e-01" nType="0">
            <Node pos="l" depth="3" NCoef="0" IVar="-1" Cut="0.0000000000000000e+00" cType="1" res="-3.9217476733028889e-03" rms="4.8469322919845581e-01" purity="3.8277709484100342e-01" nType="-99"/>
            <Node pos="r" depth="3" NCoef="0" IVar="-1" Cut="0.0000000000000000e+00" cType="1" res="2.9920369852334261e-03" rms="4.8406550288200378e-01" purity="6.1625248193740845e-01" nType="-99"/>
          </Node>
        </Node>
        <Node pos="r" depth="1" NCoef="0" IVar="1" Cut="4.1996020507812500e+02" cType="1" res="1.5737265348434448e-01" rms="4.6323850750923157e-01" purity="6.7544096708297729e-01" nType="0">
          <Node pos="l" depth="2" NCoef="0" IVar="6" Cut="9.7063708305358887e-01" cType="1" res="7.3361538350582123e-02" rms="4.9062499403953552e-01" purity="5.7971876859664917e-01" nType="0">
            <Node pos="l" depth="3" NCoef="0" IVar="-1" Cut="0.0000000000000000e+00" cType="1" res="3.4509645774960518e-03" rms="4.8212945461273193e-01" purity="6.2211889028549194e-01" nType="-99"/>
            <Node pos="r" depth="3" NCoef="0" IVar="-1" Cut="0.0000000000000000e+00" cType="1" res="-6.8271565251052380e-03" rms="4.6739274263381958e-01" purity="3.2908260822296143e-01" nType="-99"/>
          </Node>
          <Node pos="r" depth="2" NCoef="0" IVar="2" Cut="4.7383923339843750e+02" cType="1" res="2.4031819403171539e-01" rms="4.1827020049095154e-01" purity="7.6994907855987549e-01" nType="0">
            <Node pos="l" depth="3" NCoef="0" IVar="-1" Cut="0.0000000000000000e+00" cType="1" res="7.4664754793047905e-03" rms="3.6978080868721008e-01" purity="8.3608853816986084e-01" nType="-99"/>
            <Node pos="r" depth="3" NCoef="0" IVar="-1" Cut="0.0000000000000000e+00" cType="1" res="3.0496143735945225e-03" rms="4.8775199055671692e-01" purity="6.0882127285003662e-01" nType="-99"/>
          </Node>
        </Node>
      </Node>
    </BinaryTree>
    <BinaryTree type="DecisionTree" boostWeight="1.0000000000000000e+00" itree="11">
      <Node pos="s" depth="0" NCoef="0" IVar="5" Cut="1.0730957794189453e+02" cType="1" res="5.2456227131187916e-03" rms="4.8794683814048767e-01" purity="5.0180464982986450e-01" nType="0">
        <Node pos="l" depth="1" NCoef="0" IVar="1" Cut="4.6515270996093750e+02" cType="1" res="-1.0439848899841309e-01" rms="4.7594848275184631e-01" purity="3.7438255548477173e-01" nType="0">
          <Node pos="l" depth="2" NCoef="0" IVar="2" Cut="3.5154885864257812e+02" cType="1" res="-1.6056776046752930e-01" rms="4.5717525482177734e-01" purity="3.0861696600914001e-01" nType="0">
            <Node pos="l" depth="3" NCoef="0" IVar="-1" Cut="0.0000000000000000e+00" cType="1" res="-3.1441105529665947e-03" rms="4.8110353946685791e-01" purity="3.7799260020256042e-01" nType="-99"/>
            <Node pos="r" depth="3" NCoef="0" IVar="-1" Cut="0.0000000000000000e+00" cType="1" res="-1.2004961259663105e-02" rms="3.9332315325737000e-01" purity="1.9625081121921539e-01" nType="-99"/>
          </Node>
          <Node pos="r" depth="2" NCoef="0" IVar="5" Cut="7.4620712280273438e+01" cType="1" res="6.3015200197696686e-02" rms="4.9123123288154602e-01" purity="5.7039839029312134e-01" nType="0">
            <Node pos="l" depth="3" NCoef="0" IVar="-1" Cut="0.0000000000000000e+00" cType="1" res="-2.6153491344302893e-03" rms="4.9228566884994507e-01" purity="4.1899594664573669e-01" nType="-99"/>
            <Node pos="r" depth="3" NCoef="0" IVar="-1" Cut="0.0000000000000000e+00" cType="1" res="3.5214114468544722e-03" rms="4.7957336902618408e-01" purity="6.3588458299636841e-01" nType="-99"/>
          </Node>
        </Node>
        <Node pos="r" depth="1" NCoef="0" IVar="1" Cut="4.2404663085937500e+02" cType="1" res="1.4183293282985687e-01" rms="4.6783241629600525e-01" purity="6.6053855419158936e-01" nType="0">
          <Node pos="l" depth="2" NCoef="0" IVar="6" Cut="-1.0768665075302124e+00" cType="1" res="6.0224071145057678e-02" rms="4.9226674437522888e-01" purity="5.6611281633377075e-01" nType="0">
            <Node pos="l" depth="3" NCoef="0" IVar="-1" Cut="0.0000000000000000e+00" cType="1" res="-8.5029536858201027e-03" rms="4.6028813719749451e-01" purity="3.1133022904396057e-01" nType="-99"/>
            <Node pos="r" depth="3" NCoef="0" IVar="-1" Cut="0.0000000000000000e+00" cType="1" res="2.8631121385842562e-03" rms="4.8638403415679932e-01" purity="6.0094439983367920e-01" nType="-99"/>
          </Node>
          <Node pos="r" depth="2" NCoef="0" IVar="2" Cut="4.8063299560546875e+02" cType="1" res="2.2942425310611725e-01" rms="4.2292740941047668e-01" purity="7.6188623905181885e-01" nType="0">
            <Node pos="l" depth="3" NCoef="0" IVar="-1" Cut="0.0000000000000000e+00" cType="1" res="7.1583339013159275e-03" rms="3.7819713354110718e-01" purity="8.2611095905303955e-01" nType="-99"/>
            <Node pos="r" depth="3" NCoef="0" IVar="-1" Cut="0.0000000000000000e+00" cType="1" res="2.5741087738424540e-03" rms="4.9067375063896179e-01" purity="5.9487950801849365e-01" nType="-99"/>
          </Node>
        </Node>
      </Node>
    </BinaryTree>
    <BinaryTree type="DecisionTree" boostWeight="1.0000000000000000e+00" itree="12">
      <Node pos="s" depth="0" NCoef="0" IVar="5" Cut="1.0906489562988281e+02" cType="1" res="5.8747641742229462e-03" rms="4.8700866103172302e-01" purity="5.0212472677230835e-01" nType="0">
        <Node pos="l" depth="1" NCoef="0" IVar="1" Cut="4.2762921142578125e+02" cType="1" res="-9.8958417773246765e-02" rms="4.7665137052536011e-01" purity="3.7824198603630066e-01" nType="0">
          <Node pos="l" depth="2" NCoef="0" IVar="6" Cut="9.3691831827163696e-01" cType="1" res="-1.6618260741233826e-01" rms="4.5298081636428833e-01" purity="2.9718729853630066e-01" nType="0">
            <Node pos="l" depth="3" NCoef="0" IVar="-1" Cut="0.0000000000000000e+00" cType="1" res="-4.6723983250558376e-03" rms="4.6706801652908325e-01" purity="3.3304452896118164e-01" nType="-99"/>
            <Node pos="r" depth="3" NCoef="0" IVar="-1" Cut="0.0000000000000000e+00" cType="1" res="-1.2870670296251774e-02" rms="3.5151800513267517e-01" purity="1.4665110409259796e-01" nType="-99"/>
          </Node>
          <Node pos="r" depth="2" NCoef="0" IVar="5" Cut="8.3804283142089844e+01" cType="1" res="2.5566028431057930e-02" rms="4.9404501914978027e-01" purity="5.2838569879531860e-01" nType="0">
            <Node pos="l" depth="3" NCoef="0" IVar="-1" Cut="0.0000000000000000e+00" cType="1" res="-2.0335868466645479e-03" rms="4.9195545911788940e-01" purity="4.2898514866828918e-01" nType="-99"/>
            <Node pos="r" depth="3" NCoef="0" IVar="-1" Cut="0.0000000000000000e+00" cType="1" res="3.1877709552645683e-03" rms="4.8185190558433533e-01" purity="6.2508946657180786e-01" nType="-99"/>
          </Node>
        </Node>
        <Node pos="r" depth="1" NCoef="0" IVar="1" Cut="4.1917462158203125e+02" cType="1" res="1.4651772379875183e-01" rms="4.6480447053909302e-01" purity="6.6832435131072998e-01" nType="0">
          <Node pos="l" depth="2" NCoef="0" IVar="2" Cut="3.7053485107421875e+02" cType="1" res="5.8745183050632477e-02" rms="4.9189001321792603e-01" purity="5.6628829240798950e-01" nType="0">
            <Node pos="l" depth="3" NCoef="0" IVar="-1" Cut="0.0000000000000000e+00" cType="1" res="3.5816987510770559e-03" rms="4.7734245657920837e-01" purity="6.4105504751205444e-01" nType="-99"/>
            <Node pos="r" depth="3" NCoef="0" IVar="-1" Cut="0.0000000000000000e+00" cType="1" res="-3.1138844788074493e-03" rms="4.9140295386314392e-01" purity="4.2408937215805054e-01" nType="-99"/>
          </Node>
          <Node pos="r" depth="2" NCoef="0" IVar="2" Cut="4.8052658081054688e+02" cType="1" res="2.2965826094150543e-01" rms="4.2105615139007568e-01" purity="7.6497566699981689e-01" nType="0">
            <Node pos="l" depth="3" NCoef="0" IVar="-1" Cut="0.0000000000000000e+00" cType="1" res="6.9750184193253517e-03" rms="3.7898674607276917e-01" purity="8.2543367147445679e-01" nType="-99"/>
            <Node pos="r" depth="3" NCoef="0" IVar="-1" Cut="0.0000000000000000e+00" cType="1" res="2.8617635834962130e-03" rms="4.8787131905555725e-01" purity="6.0790121555328369e-01" nType="-99"/>
          </Node>
        </Node>
      </Node>
    </BinaryTree>
    <BinaryTree type="DecisionTree" boostWeight="1.0000000000000000e+00" itree="13">
      <Node pos="s" depth="0" NCoef="0" IVar="5" Cut="8.5154937744140625e+01" cType="1" res="3.0958370771259069e-03" rms="4.8621422052383423e-01" purity="4.9874377250671387e-01" nType="0">
        <Node pos="l" depth="1" NCoef="0" IVar="1" Cut="4.2850576782226562e+02" cType="1" res="-1.6797080636024475e-01" rms="4.4972202181816101e-01" purity="2.9541495442390442e-01" nType="0">
          <Node pos="l" depth="2" NCoef="0" IVar="2" Cut="2.8398718261718750e+02" cType="1" res="-2.2197955846786499e-01" rms="4.1767475008964539e-01" purity="2.2952264547348022e-01" nType="0">
            <Node pos="l" depth="3" NCoef="0" IVar="-1" Cut="0.0000000000000000e+00" cType="1" res="-4.6371882781386375e-03" rms="4.6421191096305847e-01" purity="3.1749969720840454e-01" nType="-99"/>
            <Node pos="r" depth="3" NCoef="0" IVar="-1" Cut="0.0000000000000000e+00" cType="1" res="-1.1477076448500156e-02" rms="3.7480717897415161e-01" purity="1.7116455733776093e-01" nType="-99"/>
          </Node>
          <Node pos="r" depth="2" NCoef="0" IVar="5" Cut="6.6775474548339844e+01" cType="1" res="-4.9070075154304504e-02" rms="4.9283638596534729e-01" purity="4.4047740101814270e-01" nType="0">
            <Node pos="l" depth="3" NCoef="0" IVar="-1" Cut="0.0000000000000000e+00" cType="1" res="-5.6393970735371113e-03" rms="4.6740892529487610e-01" purity="3.2552683353424072e-01" nType="-99"/>
            <Node pos="r" depth="3" NCoef="0" IVar="-1" Cut="0.0000000000000000e+00" cType="1" res="1.0145134001504630e-04" rms="4.9723947048187256e-01" purity="4.9898424744606018e-01" nType="-99"/>
          </Node>
        </Node>
        <Node pos="r" depth="1" NCoef="0" IVar="7" Cut="-1.1999186277389526e+00" cType="1" res="8.5547976195812225e-02" rms="4.8162546753883362e-01" purity="5.9674590826034546e-01" nType="0">
          <Node pos="l" depth="2" NCoef="0" IVar="7" Cut="-1.6570765972137451e+00" cType="1" res="-1.6044144332408905e-01" rms="4.6391266584396362e-01" purity="3.4116116166114807e-01" nType="0">
            <Node pos="l" depth="3" NCoef="0" IVar="-1" Cut="0.0000000000000000e+00" cType="1" res="-1.2230397202074528e-02" rms="4.1362935304641724e-01" purity="2.3206663131713867e-01" nType="-99"/>
            <Node pos="r" depth="3" NCoef="0" IVar="-1" Cut="0.0000000000000000e+00" cType="1" res="-2.7346042916178703e-03" rms="4.8482340574264526e-01" purity="4.3248531222343445e-01" nType="-99"/>
          </Node>
          <Node pos="r" depth="2" NCoef="0" IVar="7" Cut="1.0857653617858887e+00" cType="1" res="1.1446391791105270e-01" rms="4.7537636756896973e-01" purity="6.2678968906402588e-01" nType="0">
            <Node pos="l" depth="3" NCoef="0" IVar="-1" Cut="0.0000000000000000e+00" cType="1" res="4.3170666322112083e-03" rms="4.6351084113121033e-01" purity="6.6694450378417969e-01" nType="-99"/>
            <Node pos="r" depth="3" NCoef="0" IVar="-1" Cut="0.0000000000000000e+00" cType="1" res="-5.1929773762822151e-03" rms="4.7477063536643982e-01" purity="3.7246200442314148e-01" nType="-99"/>
          </Node>
        </Node>
      </Node>
    </BinaryTree>
    <BinaryTree type="DecisionTree" boostWeight="1.0000000000000000e+00" itree="14">
      <Node pos="s" depth="0" NCoef="0" IVar="5" Cut="1.1360079956054688e+02" cType="1" res="4.2581520974636078e-03" rms="4.8512658476829529e-01" purity="4.9949949979782104e-01" nType="0">
        <Node pos="l" depth="1" NCoef="0" IVar="1" Cut="4.3640158081054688e+02" cType="1" res="-8.6361289024353027e-02" rms="4.7724941372871399e-01" purity="3.8984033465385437e-01" nType="0">
          <Node pos="l" depth="2" NCoef="0" IVar="2" Cut="4.0206427001953125e+02" cType="1" res="-1.5264563262462616e-01" rms="4.5605203509330750e-01" purity="3.0825370550155640e-01" nType="0">
            <Node pos="l" depth="3" NCoef="0" IVar="-1" Cut="0.0000000000000000e+00" cType="1" res="-3.4107281826436520e-03" rms="4.7424927353858948e-01" purity="3.5771781206130981e-01" nType="-99"/>
            <Node pos="r" depth="3" NCoef="0" IVar="-1" Cut="0.0000000000000000e+00" cType="1" res="-5.4942187853157520e-03" rms="3.7040573358535767e-01" purity="1.6760551929473877e-01" nType="-99"/>
          </Node>
          <Node pos="r" depth="2" NCoef="0" IVar="5" Cut="7.7267539978027344e+01" cType="1" res="4.9457099288702011e-02" rms="4.9076956510543823e-01" purity="5.5701351165771484e-01" nType="0">
            <Node pos="l" depth="3" NCoef="0" IVar="-1" Cut="0.0000000000000000e+00" cType="1" res="-2.6695185806602240e-03" rms="4.8948508501052856e-01" purity="4.0942561626434326e-01" nType="-99"/>
            <Node pos="r" depth="3" NCoef="0" IVar="-1" Cut="0.0000000000000000e+00" cType="1" res="3.1494803261011839e-03" rms="4.8023432493209839e-01" purity="6.2804722785949707e-01" nType="-99"/>
          </Node>
        </Node>
        <Node pos="r" depth="1" NCoef="0" IVar="1" Cut="4.1917388916015625e+02" cType="1" res="1.4860884845256805e-01" rms="4.6206641197204590e-01" purity="6.7417919635772705e-01" nType="0">
          <Node pos="l" depth="2" NCoef="0" IVar="6" Cut="-8.6751598119735718e-01" cType="1" res="6.3919857144355774e-02" rms="4.9034228920936584e-01" purity="5.7412308454513550e-01" nType="0">
            <Node pos="l" depth="3" NCoef="0" IVar="-1" Cut="0.0000000000000000e+00" cType="1" res="-5.0472724251449108e-03" rms="4.8078656196594238e-01" purity="3.7560319900512695e-01" nType="-99"/>
            <Node pos="r" depth="3" NCoef="0" IVar="-1" Cut="0.0000000000000000e+00" cType="1" res="3.0965725891292095e-03" rms="4.8324409127235413e-01" purity="6.1312502622604370e-01" nType="-99"/>
          </Node>
          <Node pos="r" depth="2" NCoef="0" IVar="2" Cut="4.6539038085937500e+02" cType="1" res="2.2846588492393494e-01" rms="4.1829597949981689e-01" purity="7.6852655410766602e-01" nType="0">
            <Node pos="l" depth="3" NCoef="0" IVar="-1" Cut="0.0000000000000000e+00" cType="1" res="7.0649827830493450e-03" rms="3.7098330259323120e-01" purity="8.3447170257568359e-01" nType="-99"/>
            <Node pos="r" depth="3" NCoef="0" IVar="-1" Cut="0.0000000000000000e+00" cType="1" res="3.1485392246395350e-03" rms="4.8422217369079590e-01" purity="6.2071830034255981e-01" nType="-99"/>
          </Node>
        </Node>
      </Node>
    </BinaryTree>
    <BinaryTree type="DecisionTree" boostWeight="1.0000000000000000e+00" itree="15">
      <Node pos="s" depth="0" NCoef="0" IVar="5" Cut="1.0688733673095703e+02" cType="1" res="3.3412529155611992e-03" rms="4.8433098196983337e-01" purity="4.9848961830139160e-01" nType="0">
        <Node pos="l" depth="1" NCoef="0" IVar="1" Cut="4.6515151977539062e+02" cType="1" res="-9.9614851176738739e-02" rms="4.7310328483581543e-01" purity="3.7211996316909790e-01" nType="0">
          <Node pos="l" depth="2" NCoef="0" IVar="2" Cut="4.3402227783203125e+02" cType="1" res="-1.5655328333377838e-01" rms="4.5381024479866028e-01" purity="3.0258673429489136e-01" nType="0">
            <Node pos="l" depth="3" NCoef="0" IVar="-1" Cut="0.0000000000000000e+00" cType="1" res="-3.9727892726659775e-03" rms="4.6935349702835083e-01" purity="3.4254363179206848e-01" nType="-99"/>
            <Node pos="r" depth="3" NCoef="0" IVar="-1" Cut="0.0000000000000000e+00" cType="1" res="-1.3534114696085453e-02" rms="3.6048269271850586e-01" purity="1.5638725459575653e-01" nType="-99"/>
          </Node>
          <Node pos="r" depth="2" NCoef="0" IVar="5" Cut="8.7959609985351562e+01" cType="1" res="6.9248348474502563e-02" rms="4.8860308527946472e-01" purity="5.7833582162857056e-01" nType="0">
            <Node pos="l" depth="3" NCoef="0" IVar="-1" Cut="0.0000000000000000e+00" cType="1" res="-2.5456835282966495e-04" rms="4.9719011783599854e-01" purity="4.8866507411003113e-01" nType="-99"/>
            <Node pos="r" depth="3" NCoef="0" IVar="-1" Cut="0.0000000000000000e+00" cType="1" res="4.5826658606529236e-03" rms="4.5739376544952393e-01" purity="6.9765615463256836e-01" nType="-99"/>
          </Node>
        </Node>
        <Node pos="r" depth="1" NCoef="0" IVar="1" Cut="4.1995864868164062e+02" cType="1" res="1.3257716596126556e-01" rms="4.6697181463241577e-01" purity="6.5711539983749390e-01" nType="0">
          <Node pos="l" depth="2" NCoef="0" IVar="6" Cut="-1.1126710176467896e+00" cType="1" res="4.5533411204814911e-02" rms="4.9217987060546875e-01" purity="5.5311506986618042e-01" nType="0">
            <Node pos="l" depth="3" NCoef="0" IVar="-1" Cut="0.0000000000000000e+00" cType="1" res="-8.9629981666803360e-03" rms="4.5263642072677612e-01" purity="2.9414555430412292e-01" nType="-99"/>
            <Node pos="r" depth="3" NCoef="0" IVar="-1" Cut="0.0000000000000000e+00" cType="1" res="2.4362776894122362e-03" rms="4.8774373531341553e-01" purity="5.8746200799942017e-01" nType="-99"/>
          </Node>
          <Node pos="r" depth="2" NCoef="0" IVar="2" Cut="4.7392840576171875e+02" cType="1" res="2.1766886115074158e-01" rms="4.2400380969047546e-01" purity="7.5878345966339111e-01" nType="0">
            <Node pos="l" depth="3" NCoef="0" IVar="-1" Cut="0.0000000000000000e+00" cType="1" res="6.8217772059142590e-03" rms="3.8174545764923096e-01" purity="8.2136100530624390e-01" nType="-99"/>
            <Node pos="r" depth="3" NCoef="0" IVar="-1" Cut="0.0000000000000000e+00" cType="1" res="2.7571034152060747e-03" rms="4.8700952529907227e-01" purity="6.0913521051406860e-01" nType="-99"/>
          </Node>
        </Node>
      </Node>
    </BinaryTree>
    <BinaryTree type="DecisionTree" boostWeight="1.0000000000000000e+00" itree="16">
      <Node pos="s" depth="0" NCoef="0" IVar="5" Cut="1.1360079956054688e+02" cType="1" res="3.4523915965110064e-03" rms="4.8352307081222534e-01" purity="4.9814301729202271e-01" nType="0">
        <Node pos="l" depth="1" NCoef="0" IVar="1" Cut="4.6515139770507812e+02" cType="1" res="-8.3676531910896301e-02" rms="4.7628164291381836e-01" purity="3.8944870233535767e-01" nType="0">
          <Node pos="l" depth="2" NCoef="0" IVar="2" Cut="4.0206964111328125e+02" cType="1" res="-1.3545097410678864e-01" rms="4.6118640899658203e-01" purity="3.2412317395210266e-01" nType="0">
            <Node pos="l" depth="3" NCoef="0" IVar="-1" Cut="0.0000000000000000e+00" cType="1" res="-2.8846000786870718e-03" rms="4.7767540812492371e-01" purity="3.7300950288772583e-01" nType="-99"/>
            <Node pos="r" depth="3" NCoef="0" IVar="-1" Cut="0.0000000000000000e+00" cType="1" res="-5.3273928351700306e-03" rms="3.8885602355003357e-01" purity="1.9184409081935883e-01" nType="-99"/>
          </Node>
          <Node pos="r" depth="2" NCoef="0" IVar="2" Cut="3.3996990966796875e+02" cType="1" res="6.7959330976009369e-02" rms="4.8728418350219727e-01" purity="5.8077269792556763e-01" nType="0">
            <Node pos="l" depth="3" NCoef="0" IVar="-1" Cut="0.0000000000000000e+00" cType="1" res="5.2898619323968887e-03" rms="4.4871097803115845e-01" purity="7.0809972286224365e-01" nType="-99"/>
            <Node pos="r" depth="3" NCoef="0" IVar="-1" Cut="0.0000000000000000e+00" cType="1" res="-2.3259960289578885e-04" rms="4.9556696414947510e-01" purity="5.0091987848281860e-01" nType="-99"/>
          </Node>
        </Node>
        <Node pos="r" depth="1" NCoef="0" IVar="6" Cut="1.2266453504562378e+00" cType="1" res="1.4289122819900513e-01" rms="4.6187162399291992e-01" purity="6.7209452390670776e-01" nType="0">
          <Node pos="l" depth="2" NCoef="0" IVar="6" Cut="-1.2072160243988037e+00" cType="1" res="1.6665939986705780e-01" rms="4.5255005359649658e-01" purity="6.9666039943695068e-01" nType="0">
            <Node pos="l" depth="3" NCoef="0" IVar="-1" Cut="0.0000000000000000e+00" cType="1" res="-4.1254861280322075e-03" rms="4.8229786753654480e-01" purity="4.0981018543243408e-01" nType="-99"/>
            <Node pos="r" depth="3" NCoef="0" IVar="-1" Cut="0.0000000000000000e+00" cType="1" res="5.3550875745713711e-03" rms="4.4034749269485474e-01" purity="7.2510993480682373e-01" nType="-99"/>
          </Node>
          <Node pos="r" depth="2" NCoef="0" IVar="-1" Cut="0.0000000000000000e+00" cType="1" res="-4.7425827942788601e-03" rms="4.8080638051033020e-01" purity="3.9474877715110779e-01" nType="-99"/>
        </Node>
      </Node>
    </BinaryTree>
    <BinaryTree type="DecisionTree" boostWeight="1.0000000000000000e+00" itree="17">
      <Node pos="s" depth="0" NCoef="0" IVar="5" Cut="8.1733245849609375e+01" cType="1" res="2.9430116992443800e-03" rms="4.8257079720497131e-01" purity="4.9809756875038147e-01" nType="0">
        <Node pos="l" depth="1" NCoef="0" IVar="1" Cut="4.3640277099609375e+02" cType="1" res="-1.7013654112815857e-01" rms="4.4282141327857971e-01" purity="2.8305199742317200e-01" nType="0">
          <Node pos="l" depth="2" NCoef="0" IVar="2" Cut="2.8557690429687500e+02" cType="1" res="-2.2191369533538818e-01" rms="4.0942165255546570e-01" purity="2.1788340806961060e-01" nType="0">
            <Node pos="l" depth="3" NCoef="0" IVar="-1" Cut="0.0000000000000000e+00" cType="1" res="-4.5879520475864410e-03" rms="4.6348646283149719e-01" purity="3.1486505270004272e-01" nType="-99"/>
            <Node pos="r" depth="3" NCoef="0" IVar="-1" Cut="0.0000000000000000e+00" cType="1" res="-1.2115090154111385e-02" rms="3.5849624872207642e-01" purity="1.5353801846504211e-01" nType="-99"/>
          </Node>
          <Node pos="r" depth="2" NCoef="0" IVar="1" Cut="5.6631951904296875e+02" cType="1" res="-4.4361926615238190e-02" rms="4.9285340309143066e-01" purity="4.4135653972625732e-01" nType="0">
            <Node pos="l" depth="3" NCoef="0" IVar="-1" Cut="0.0000000000000000e+00" cType="1" res="-3.6410198081284761e-03" rms="4.8264652490615845e-01" purity="3.8146898150444031e-01" nType="-99"/>
            <Node pos="r" depth="3" NCoef="0" IVar="-1" Cut="0.0000000000000000e+00" cType="1" res="1.8751119496300817e-03" rms="4.9432215094566345e-01" purity="5.5729931592941284e-01" nType="-99"/>
          </Node>
        </Node>
        <Node pos="r" depth="1" NCoef="0" IVar="1" Cut="4.2162734985351562e+02" cType="1" res="7.3149926960468292e-02" rms="4.8032793402671814e-01" purity="5.8532732725143433e-01" nType="0">
          <Node pos="l" depth="2" NCoef="0" IVar="2" Cut="4.3198400878906250e+02" cType="1" res="-1.1610800400376320e-02" rms="4.9059325456619263e-01" purity="4.7954398393630981e-01" nType="0">
            <Node pos="l" depth="3" NCoef="0" IVar="-1" Cut="0.0000000000000000e+00" cType="1" res="1.0350422235205770e-03" rms="4.9116101861000061e-01" purity="5.2918422222137451e-01" nType="-99"/>
            <Node pos="r" depth="3" NCoef="0" IVar="-1" Cut="0.0000000000000000e+00" cType="1" res="-9.3383044004440308e-03" rms="4.4713485240936279e-01" purity="2.9029470682144165e-01" nType="-99"/>
          </Node>
          <Node pos="r" depth="2" NCoef="0" IVar="2" Cut="4.8559863281250000e+02" cType="1" res="1.7364025115966797e-01" rms="4.4752940535545349e-01" purity="7.1074151992797852e-01" nType="0">
            <Node pos="l" depth="3" NCoef="0" IVar="-1" Cut="0.0000000000000000e+00" cType="1" res="5.9355408884584904e-03" rms="4.1451817750930786e-01" purity="7.7289181947708130e-01" nType="-99"/>
            <Node pos="r" depth="3" NCoef="0" IVar="-1" Cut="0.0000000000000000e+00" cType="1" res="7.7812059316784143e-04" rms="4.9612346291542053e-01" purity="5.4194742441177368e-01" nType="-99"/>
          </Node>
        </Node>
      </Node>
    </BinaryTree>
    <BinaryTree type="DecisionTree" boostWeight="1.0000000000000000e+00" itree="18">
      <Node pos="s" depth="0" NCoef="0" IVar="5" Cut="8.5154937744140625e+01" cType="1" res="4.5008528977632523e-03" rms="4.8162299394607544e-01" purity="4.9936643242835999e-01" nType="0">
        <Node pos="l" depth="1" NCoef="0" IVar="1" Cut="4.2253302001953125e+02" cType="1" res="-1.5790307521820068e-01" rms="4.4729453325271606e-01" purity="2.9454585909843445e-01" nType="0">
          <Node pos="l" depth="2" NCoef="0" IVar="7" Cut="1.1996804475784302e+00" cType="1" res="-2.1867667138576508e-01" rms="4.0933915972709656e-01" purity="2.1771936118602753e-01" nType="0">
            <Node pos="l" depth="3" NCoef="0" IVar="-1" Cut="0.0000000000000000e+00" cType="1" res="-7.5517673976719379e-03" rms="4.2399877309799194e-01" purity="2.4109528958797455e-01" nType="-99"/>
            <Node pos="r" depth="3" NCoef="0" IVar="-1" Cut="0.0000000000000000e+00" cType="1" res="-1.9545566290616989e-02" rms="2.8345742821693420e-01" purity="8.8871881365776062e-02" nType="-99"/>
          </Node>
          <Node pos="r" depth="2" NCoef="0" IVar="5" Cut="6.8445510864257812e+01" cType="1" res="-3.9074610918760300e-02" rms="4.9224361777305603e-01" purity="4.4476205110549927e-01" nType="0">
            <Node pos="l" depth="3" NCoef="0" IVar="-1" Cut="0.0000000000000000e+00" cType="1" res="-5.3554885089397430e-03" rms="4.6934187412261963e-01" purity="3.3349418640136719e-01" nType="-99"/>
            <Node pos="r" depth="3" NCoef="0" IVar="-1" Cut="0.0000000000000000e+00" cType="1" res="5.2438169950619340e-04" rms="4.9647897481918335e-01" purity="5.0869613885879517e-01" nType="-99"/>
          </Node>
        </Node>
        <Node pos="r" depth="1" NCoef="0" IVar="7" Cut="-1.1999689340591431e+00" cType="1" res="8.1414759159088135e-02" rms="4.7817990183830261e-01" purity="5.9636867046356201e-01" nType="0">
          <Node pos="l" depth="2" NCoef="0" IVar="7" Cut="-1.5047223567962646e+00" cType="1" res="-1.6871489584445953e-01" rms="4.5594760775566101e-01" purity="3.2995316386222839e-01" nType="0">
            <Node pos="l" depth="3" NCoef="0" IVar="-1" Cut="0.0000000000000000e+00" cType="1" res="-9.7085675224661827e-03" rms="4.2537441849708557e-01" purity="2.5917929410934448e-01" nType="-99"/>
            <Node pos="r" depth="3" NCoef="0" IVar="-1" Cut="0.0000000000000000e+00" cType="1" res="-2.4460847489535809e-03" rms="4.8195481300354004e-01" purity="4.3982186913490295e-01" nType="-99"/>
          </Node>
          <Node pos="r" depth="2" NCoef="0" IVar="7" Cut="1.0856294631958008e+00" cType="1" res="1.1052730679512024e-01" rms="4.7216919064521790e-01" purity="6.2737679481506348e-01" nType="0">
            <Node pos="l" depth="3" NCoef="0" IVar="-1" Cut="0.0000000000000000e+00" cType="1" res="4.3009053915739059e-03" rms="4.5963221788406372e-01" purity="6.7099881172180176e-01" nType="-99"/>
            <Node pos="r" depth="3" NCoef="0" IVar="-1" Cut="0.0000000000000000e+00" cType="1" res="-5.5595315061509609e-03" rms="4.6800157427787781e-01" purity="3.5945427417755127e-01" nType="-99"/>
          </Node>
        </Node>
      </Node>
    </BinaryTree>
    <BinaryTree type="DecisionTree" boostWeight="1.0000000000000000e+00" itree="19">
      <Node pos="s" depth="0" NCoef="0" IVar="5" Cut="1.1335482788085938e+02" cType="1" res="4.6705766580998898e-03" rms="4.8061382770538330e-01" purity="4.9924156069755554e-01" nType="0">
        <Node pos="l" depth="1" NCoef="0" IVar="1" Cut="4.2762844848632812e+02" cType="1" res="-8.3823926746845245e-02" rms="4.7349914908409119e-01" purity="3.8581815361976624e-01" nType="0">
          <Node pos="l" depth="2" NCoef="0" IVar="2" Cut="3.2891751098632812e+02" cType="1" res="-1.4694434404373169e-01" rms="4.5166054368019104e-01" purity="3.0221575498580933e-01" nType="0">
            <Node pos="l" depth="3" NCoef="0" IVar="-1" Cut="0.0000000000000000e+00" cType="1" res="-2.5725055020302534e-03" rms="4.7931084036827087e-01" purity="3.7766182422637939e-01" nType="-99"/>
            <Node pos="r" depth="3" NCoef="0" IVar="-1" Cut="0.0000000000000000e+00" cType="1" res="-1.0123930871486664e-02" rms="3.9670574665069580e-01" purity="2.0307658612728119e-01" nType="-99"/>
          </Node>
          <Node pos="r" depth="2" NCoef="0" IVar="5" Cut="8.9225219726562500e+01" cType="1" res="3.2207489013671875e-02" rms="4.9046373367309570e-01" purity="5.3950059413909912e-01" nType="0">
            <Node pos="l" depth="3" NCoef="0" IVar="-1" Cut="0.0000000000000000e+00" cType="1" res="-1.5945481136441231e-03" rms="4.9238595366477966e-01" purity="4.4358092546463013e-01" nType="-99"/>
            <Node pos="r" depth="3" NCoef="0" IVar="-1" Cut="0.0000000000000000e+00" cType="1" res="3.4568351693451405e-03" rms="4.7197508811950684e-01" purity="6.5284460783004761e-01" nType="-99"/>
          </Node>
        </Node>
        <Node pos="r" depth="1" NCoef="0" IVar="1" Cut="4.2404614257812500e+02" cType="1" res="1.4271165430545807e-01" rms="4.5859271287918091e-01" purity="6.7616873979568481e-01" nType="0">
          <Node pos="l" depth="2" NCoef="0" IVar="2" Cut="3.3082598876953125e+02" cType="1" res="5.7031255215406418e-02" rms="4.8817348480224609e-01" purity="5.7174152135848999e-01" nType="0">
            <Node pos="l" depth="3" NCoef="0" IVar="-1" Cut="0.0000000000000000e+00" cType="1" res="3.9445748552680016e-03" rms="4.6632683277130127e-01" purity="6.6907948255538940e-01" nType="-99"/>
            <Node pos="r" depth="3" NCoef="0" IVar="-1" Cut="0.0000000000000000e+00" cType="1" res="-1.9129328429698944e-03" rms="4.9243444204330444e-01" purity="4.5624211430549622e-01" nType="-99"/>
          </Node>
          <Node pos="r" depth="2" NCoef="0" IVar="2" Cut="5.0811590576171875e+02" cType="1" res="2.2563737630844116e-01" rms="4.1136336326599121e-01" purity="7.7723848819732666e-01" nType="0">
            <Node pos="l" depth="3" NCoef="0" IVar="-1" Cut="0.0000000000000000e+00" cType="1" res="6.7912563681602478e-03" rms="3.7235015630722046e-01" purity="8.3166474103927612e-01" nType="-99"/>
            <Node pos="r" depth="3" NCoef="0" IVar="-1" Cut="0.0000000000000000e+00" cType="1" res="2.7040899731218815e-03" rms="4.8592737317085266e-01" purity="6.1278116703033447e-01" nType="-99"/>
          </Node>
        </Node>
      </Node>
    </BinaryTree>
    <BinaryTree type="DecisionTree" boostWeight="1.0000000000000000e+00" itree="20">
      <Node pos="s" depth="0" NCoef="0" IVar="5" Cut="8.5154937744140625e+01" cType="1" res="8.1997886300086975e-03" rms="4.7939345240592957e-01" purity="5.0250643491744995e-01" nType="0">
        <Node pos="l" depth="1" NCoef="0" IVar="7" Cut="1.2000039815902710e+00" cType="1" res="-1.5383459627628326e-01" rms="4.4639596343040466e-01" purity="2.9245623946189880e-01" nType="0">
          <Node pos="l" depth="2" NCoef="0" IVar="7" Cut="-8.9503228664398193e-01" cType="1" res="-1.2617264688014984e-01" rms="4.5819360017776489e-01" purity="3.2115569710731506e-01" nType="0">
            <Node pos="l" depth="3" NCoef="0" IVar="-1" Cut="0.0000000000000000e+00" cType="1" res="-1.2651950120925903e-02" rms="3.6583366990089417e-01" purity="1.6535498201847076e-01" nType="-99"/>
            <Node pos="r" depth="3" NCoef="0" IVar="-1" Cut="0.0000000000000000e+00" cType="1" res="-2.4894012603908777e-03" rms="4.7517767548561096e-01" purity="3.7388449907302856e-01" nType="-99"/>
          </Node>
          <Node pos="r" depth="2" NCoef="0" IVar="-1" Cut="0.0000000000000000e+00" cType="1" res="-1.5716752037405968e-02" rms="3.3368164300918579e-01" purity="1.3190940022468567e-01" nType="-99"/>
        </Node>
        <Node pos="r" depth="1" NCoef="0" IVar="1" Cut="4.5299591064453125e+02" cType="1" res="8.4824964404106140e-02" rms="4.7537046670913696e-01" purity="6.0183805227279663e-01" nType="0">
          <Node pos="l" depth="2" NCoef="0" IVar="6" Cut="-1.1920399665832520e+00" cType="1" res="1.6545629128813744e-02" rms="4.8797282576560974e-01" purity="5.1550602912902832e-01" nType="0">
            <Node pos="l" depth="3" NCoef="0" IVar="-1" Cut="0.0000000000000000e+00" cType="1" res="-1.1275926604866982e-02" rms="4.0930259227752686e-01" purity="2.2466044127941132e-01" nType="-99"/>
            <Node pos="r" depth="3" NCoef="0" IVar="-1" Cut="0.0000000000000000e+00" cType="1" res="1.1844243854284286e-03" rms="4.8616552352905273e-01" purity="5.4976654052734375e-01" nType="-99"/>
          </Node>
          <Node pos="r" depth="2" NCoef="0" IVar="2" Cut="4.7837655639648438e+02" cType="1" res="1.9710588455200195e-01" rms="4.3097504973411560e-01" purity="7.4380522966384888e-01" nType="0">
            <Node pos="l" depth="3" NCoef="0" IVar="-1" Cut="0.0000000000000000e+00" cType="1" res="6.5160566009581089e-03" rms="3.8738286495208740e-01" purity="8.1232607364654541e-01" nType="-99"/>
            <Node pos="r" depth="3" NCoef="0" IVar="-1" Cut="0.0000000000000000e+00" cType="1" res="1.8180360784754157e-03" rms="4.9128541350364685e-01" purity="5.8286333084106445e-01" nType="-99"/>
          </Node>
        </Node>
      </Node>
    </BinaryTree>
    <BinaryTree type="DecisionTree" boostWeight="1.0000000000000000e+00" itree="21">
      <Node pos="s" depth="0" NCoef="0" IVar="5" Cut="8.5154937744140625e+01" cType="1" res="6.1942837201058865e-03" rms="4.7896736860275269e-01" purity="4.9927878379821777e-01" nType="0">
        <Node pos="l" depth="1" NCoef="0" IVar="1" Cut="5.7280261230468750e+02" cType="1" res="-1.4223487675189972e-01" rms="4.4942373037338257e-01" purity="3.0109086632728577e-01" nType="0">
          <Node pos="l" depth="2" NCoef="0" IVar="7" Cut="1.1998049020767212e+00" cType="1" res="-1.6386878490447998e-01" rms="4.3893849849700928e-01" purity="2.7459156513214111e-01" nType="0">
            <Node pos="l" depth="3" NCoef="0" IVar="-1" Cut="0.0000000000000000e+00" cType="1" res="-4.8550390638411045e-03" rms="4.5140603184700012e-01" purity="3.0120286345481873e-01" nType="-99"/>
            <Node pos="r" depth="3" NCoef="0" IVar="-1" Cut="0.0000000000000000e+00" cType="1" res="-1.4549862593412399e-02" rms="3.2948604226112366e-01" purity="1.2671136856079102e-01" nType="-99"/>
          </Node>
          <Node pos="r" depth="2" NCoef="0" IVar="-1" Cut="0.0000000000000000e+00" cType="1" res="2.1738195791840553e-03" rms="4.9361863732337952e-01" purity="5.6536275148391724e-01" nType="-99"/>
        </Node>
        <Node pos="r" depth="1" NCoef="0" IVar="1" Cut="4.6515432739257812e+02" cType="1" res="7.9362303018569946e-02" rms="4.7614759206771851e-01" purity="5.9697526693344116e-01" nType="0">
          <Node pos="l" depth="2" NCoef="0" IVar="6" Cut="9.4984364509582520e-01" cType="1" res="1.7858093604445457e-02" rms="4.8790624737739563e-01" purity="5.1828330755233765e-01" nType="0">
            <Node pos="l" depth="3" NCoef="0" IVar="-1" Cut="0.0000000000000000e+00" cType="1" res="1.7562052235007286e-03" rms="4.8526138067245483e-01" purity="5.5848062038421631e-01" nType="-99"/>
            <Node pos="r" depth="3" NCoef="0" IVar="-1" Cut="0.0000000000000000e+00" cType="1" res="-7.1694725193083286e-03" rms="4.5145040750503540e-01" purity="3.0868384242057800e-01" nType="-99"/>
          </Node>
          <Node pos="r" depth="2" NCoef="0" IVar="2" Cut="4.8559646606445312e+02" cType="1" res="1.9499005377292633e-01" rms="4.3002736568450928e-01" purity="7.4491608142852783e-01" nType="0">
            <Node pos="l" depth="3" NCoef="0" IVar="-1" Cut="0.0000000000000000e+00" cType="1" res="6.4027798362076283e-03" rms="3.8609108328819275e-01" purity="8.1376892328262329e-01" nType="-99"/>
            <Node pos="r" depth="3" NCoef="0" IVar="-1" Cut="0.0000000000000000e+00" cType="1" res="1.7677334835752845e-03" rms="4.9223172664642334e-01" purity="5.7975596189498901e-01" nType="-99"/>
          </Node>
        </Node>
      </Node>
    </BinaryTree>
    <BinaryTree type="DecisionTree" boostWeight="1.0000000000000000e+00" itree="22">
      <Node pos="s" depth="0" NCoef="0" IVar="5" Cut="8.5154937744140625e+01" cType="1" res="5.7189427316188812e-03" rms="4.7840055823326111e-01" purity="4.9837070703506470e-01" nType="0">
        <Node pos="l" depth="1" NCoef="0" IVar="7" Cut="-9.3314337730407715e-01" cType="1" res="-1.4614777266979218e-01" rms="4.4589549303054810e-01" purity="2.9461500048637390e-01" nType="0">
          <Node pos="l" depth="2" NCoef="0" IVar="7" Cut="-1.4664427042007446e+00" cType="1" res="-2.8406700491905212e-01" rms="3.4843826293945312e-01" purity="1.4724048972129822e-01" nType="0">
            <Node pos="l" depth="3" NCoef="0" IVar="-1" Cut="0.0000000000000000e+00" cType="1" res="-1.8338371068239212e-02" rms="2.8330785036087036e-01" purity="8.9479491114616394e-02" nType="-99"/>
            <Node pos="r" depth="3" NCoef="0" IVar="-1" Cut="0.0000000000000000e+00" cType="1" res="-9.2373546212911606e-03" rms="3.9737817645072937e-01" purity="2.0720785856246948e-01" nType="-99"/>
          </Node>
          <Node pos="r" depth="2" NCoef="0" IVar="7" Cut="8.4448230266571045e-01" cType="1" res="-1.1131694912910461e-01" rms="4.6082121133804321e-01" purity="3.3183369040489197e-01" nType="0">
            <Node pos="l" depth="3" NCoef="0" IVar="-1" Cut="0.0000000000000000e+00" cType="1" res="-1.8085063202306628e-03" rms="4.7897621989250183e-01" purity="3.9186596870422363e-01" nType="-99"/>
            <Node pos="r" depth="3" NCoef="0" IVar="-1" Cut="0.0000000000000000e+00" cType="1" res="-1.2167054228484631e-02" rms="3.7775951623916626e-01" purity="1.8224884569644928e-01" nType="-99"/>
          </Node>
        </Node>
        <Node pos="r" depth="1" NCoef="0" IVar="7" Cut="-1.2001594305038452e+00" cType="1" res="7.9048760235309601e-02" rms="4.7629880905151367e-01" purity="5.9675550460815430e-01" nType="0">
          <Node pos="l" depth="2" NCoef="0" IVar="1" Cut="4.0059201049804688e+02" cType="1" res="-1.5652814507484436e-01" rms="4.5711779594421387e-01" purity="3.4072232246398926e-01" nType="0">
            <Node pos="l" depth="3" NCoef="0" IVar="-1" Cut="0.0000000000000000e+00" cType="1" res="-1.0775901377201080e-02" rms="4.0103864669799805e-01" purity="2.1332317590713501e-01" nType="-99"/>
            <Node pos="r" depth="3" NCoef="0" IVar="-1" Cut="0.0000000000000000e+00" cType="1" res="-1.4713387936353683e-03" rms="4.8871889710426331e-01" purity="4.8462393879890442e-01" nType="-99"/>
          </Node>
          <Node pos="r" depth="2" NCoef="0" IVar="7" Cut="1.0852447748184204e+00" cType="1" res="1.0737902671098709e-01" rms="4.7067728638648987e-01" purity="6.2754583358764648e-01" nType="0">
            <Node pos="l" depth="3" NCoef="0" IVar="-1" Cut="0.0000000000000000e+00" cType="1" res="3.4057195298373699e-03" rms="4.5986464619636536e-01" purity="6.6648006439208984e-01" nType="-99"/>
            <Node pos="r" depth="3" NCoef="0" IVar="-1" Cut="0.0000000000000000e+00" cType="1" res="-4.6203378587961197e-03" rms="4.7418826818466187e-01" purity="3.8300943374633789e-01" nType="-99"/>
          </Node>
        </Node>
      </Node>
    </BinaryTree>
    <BinaryTree type="DecisionTree" boostWeight="1.0000000000000000e+00" itree="23">
      <Node pos="s" depth="0" NCoef="0" IVar="5" Cut="8.5108215332031250e+01" cType="1" res="7.4905198998749256e-03" rms="4.7736269235610962e-01" purity="4.9995172023773193e-01" nType="0">
        <Node pos="l" depth="1" NCoef="0" IVar="1" Cut="4.3640527343750000e+02" cType="1" res="-1.4153134822845459e-01" rms="4.4605529308319092e-01" purity="2.9567566514015198e-01" nType="0">
          <Node pos="l" depth="2" NCoef="0" IVar="6" Cut="9.4842690229415894e-01" cType="1" res="-1.8723869323730469e-01" rms="4.1783100366592407e-01" purity="2.3311045765876770e-01" nType="0">
            <Node pos="l" depth="3" NCoef="0" IVar="-1" Cut="0.0000000000000000e+00" cType="1" res="-6.0939043760299683e-03" rms="4.3422353267669678e-01" purity="2.6144897937774658e-01" nType="-99"/>
            <Node pos="r" depth="3" NCoef="0" IVar="-1" Cut="0.0000000000000000e+00" cType="1" res="-1.1422272771596909e-02" rms="3.3086010813713074e-01" purity="1.2730255722999573e-01" nType="-99"/>
          </Node>
          <Node pos="r" depth="2" NCoef="0" IVar="5" Cut="6.6726928710937500e+01" cType="1" res="-2.8742844238877296e-02" rms="4.9117797613143921e-01" purity="4.5006299018859863e-01" nType="0">
            <Node pos="l" depth="3" NCoef="0" IVar="-1" Cut="0.0000000000000000e+00" cType="1" res="-5.9750596992671490e-03" rms="4.6065261960029602e-01" purity="3.1335523724555969e-01" nType="-99"/>
            <Node pos="r" depth="3" NCoef="0" IVar="-1" Cut="0.0000000000000000e+00" cType="1" res="8.6840969743207097e-04" rms="4.9530550837516785e-01" purity="5.1520621776580811e-01" nType="-99"/>
          </Node>
        </Node>
        <Node pos="r" depth="1" NCoef="0" IVar="0" Cut="1.2300401611328125e+03" cType="1" res="7.8839510679244995e-02" rms="4.7538763284683228e-01" purity="5.9775537252426147e-01" nType="0">
          <Node pos="l" depth="2" NCoef="0" IVar="0" Cut="1.1375809326171875e+03" cType="1" res="-9.5052860677242279e-02" rms="4.8274466395378113e-01" purity="3.9385867118835449e-01" nType="0">
            <Node pos="l" depth="3" NCoef="0" IVar="-1" Cut="0.0000000000000000e+00" cType="1" res="-4.5034540817141533e-03" rms="4.6988785266876221e-01" purity="3.4259670972824097e-01" nType="-99"/>
            <Node pos="r" depth="3" NCoef="0" IVar="-1" Cut="0.0000000000000000e+00" cType="1" res="-1.3192349579185247e-03" rms="4.9173286557197571e-01" purity="4.5077303051948547e-01" nType="-99"/>
          </Node>
          <Node pos="r" depth="2" NCoef="0" IVar="2" Cut="4.0315188598632812e+02" cType="1" res="1.1905332654714584e-01" rms="4.6449244022369385e-01" purity="6.4490795135498047e-01" nType="0">
            <Node pos="l" depth="3" NCoef="0" IVar="-1" Cut="0.0000000000000000e+00" cType="1" res="5.6273359805345535e-03" rms="4.2476129531860352e-01" purity="7.4764299392700195e-01" nType="-99"/>
            <Node pos="r" depth="3" NCoef="0" IVar="-1" Cut="0.0000000000000000e+00" cType="1" res="-7.3430070187896490e-04" rms="4.8658204078674316e-01" purity="4.9027967453002930e-01" nType="-99"/>
          </Node>
        </Node>
      </Node>
    </BinaryTree>
    <BinaryTree type="DecisionTree" boostWeight="1.0000000000000000e+00" itree="24">
      <Node pos="s" depth="0" NCoef="0" IVar="5" Cut="8.5108215332031250e+01" cType="1" res="9.7940517589449883e-03" rms="4.7658166289329529e-01" purity="5.0237566232681274e-01" nType="0">
        <Node pos="l" depth="1" NCoef="0" IVar="1" Cut="4.3640158081054688e+02" cType="1" res="-1.3388025760650635e-01" rms="4.4766724109649658e-01" purity="3.0128282308578491e-01" nType="0">
          <Node pos="l" depth="2" NCoef="0" IVar="2" Cut="3.4041265869140625e+02" cType="1" res="-1.8414971232414246e-01" rms="4.1686648130416870e-01" purity="2.3278856277465820e-01" nType="0">
            <Node pos="l" depth="3" NCoef="0" IVar="-1" Cut="0.0000000000000000e+00" cType="1" res="-4.6684453263878822e-03" rms="4.5075994729995728e-01" purity="2.9165968298912048e-01" nType="-99"/>
            <Node pos="r" depth="3" NCoef="0" IVar="-1" Cut="0.0000000000000000e+00" cType="1" res="-1.2402311898767948e-02" rms="3.4958058595657349e-01" purity="1.4548282325267792e-01" nType="-99"/>
          </Node>
          <Node pos="r" depth="2" NCoef="0" IVar="1" Cut="5.6630676269531250e+02" cType="1" res="-1.6681173816323280e-02" rms="4.9280875921249390e-01" purity="4.6097159385681152e-01" nType="0">
            <Node pos="l" depth="3" NCoef="0" IVar="-1" Cut="0.0000000000000000e+00" cType="1" res="-2.0259274169802666e-03" rms="4.8688110709190369e-01" purity="4.1374698281288147e-01" nType="-99"/>
            <Node pos="r" depth="3" NCoef="0" IVar="-1" Cut="0.0000000000000000e+00" cType="1" res="2.0582166034728289e-03" rms="4.9391144514083862e-01" purity="5.5644929409027100e-01" nType="-99"/>
          </Node>
        </Node>
        <Node pos="r" depth="1" NCoef="0" IVar="7" Cut="1.1998893022537231e+00" cType="1" res="7.9070784151554108e-02" rms="4.7461915016174316e-01" purity="5.9933835268020630e-01" nType="0">
          <Node pos="l" depth="2" NCoef="0" IVar="7" Cut="-1.2760022878646851e+00" cType="1" res="1.0724501311779022e-01" rms="4.6826362609863281e-01" purity="6.2989479303359985e-01" nType="0">
            <Node pos="l" depth="3" NCoef="0" IVar="-1" Cut="0.0000000000000000e+00" cType="1" res="-6.3322703354060650e-03" rms="4.5516639947891235e-01" purity="3.3394932746887207e-01" nType="-99"/>
            <Node pos="r" depth="3" NCoef="0" IVar="-1" Cut="0.0000000000000000e+00" cType="1" res="3.9544953033328056e-03" rms="4.5972174406051636e-01" purity="6.6471517086029053e-01" nType="-99"/>
          </Node>
          <Node pos="r" depth="2" NCoef="0" IVar="1" Cut="4.0965753173828125e+02" cType="1" res="-1.6785097122192383e-01" rms="4.5809927582740784e-01" purity="3.3153882622718811e-01" nType="0">
            <Node pos="l" depth="3" NCoef="0" IVar="-1" Cut="0.0000000000000000e+00" cType="1" res="-1.0275122709572315e-02" rms="4.2316210269927979e-01" purity="2.4352581799030304e-01" nType="-99"/>
            <Node pos="r" depth="3" NCoef="0" IVar="-1" Cut="0.0000000000000000e+00" cType="1" res="-2.9732906259596348e-03" rms="4.8784095048904419e-01" purity="4.5230463147163391e-01" nType="-99"/>
          </Node>
        </Node>
      </Node>
    </BinaryTree>
    <BinaryTree type="DecisionTree" boostWeight="1.0000000000000000e+00" itree="25">
      <Node pos="s" depth="0" NCoef="0" IVar="5" Cut="1.1364518737792969e+02" cType="1" res="9.9595701321959496e-03" rms="4.7574007511138916e-01" purity="5.0175631046295166e-01" nType="0">
        <Node pos="l" depth="1" NCoef="0" IVar="1" Cut="4.2253045654296875e+02" cType="1" res="-6.8797245621681213e-02" rms="4.7034582495689392e-01" purity="3.9300322532653809e-01" nType="0">
          <Node pos="l" depth="2" NCoef="0" IVar="2" Cut="3.7969976806640625e+02" cType="1" res="-1.3119038939476013e-01" rms="4.4993668794631958e-01" purity="3.0587178468704224e-01" nType="0">
            <Node pos="l" depth="3" NCoef="0" IVar="-1" Cut="0.0000000000000000e+00" cType="1" res="-2.6408913545310497e-03" rms="4.7189903259277344e-01" purity="3.6437335610389709e-01" nType="-99"/>
            <Node pos="r" depth="3" NCoef="0" IVar="-1" Cut="0.0000000000000000e+00" cType="1" res="-3.1726299785077572e-03" rms="3.7017375230789185e-01" purity="1.7140527069568634e-01" nType="-99"/>
          </Node>
          <Node pos="r" depth="2" NCoef="0" IVar="5" Cut="8.6397392272949219e+01" cType="1" res="3.8872357457876205e-02" rms="4.8510444164276123e-01" purity="5.4336273670196533e-01" nType="0">
            <Node pos="l" depth="3" NCoef="0" IVar="-1" Cut="0.0000000000000000e+00" cType="1" res="-1.7610607901588082e-03" rms="4.8753991723060608e-01" purity="4.2342519760131836e-01" nType="-99"/>
            <Node pos="r" depth="3" NCoef="0" IVar="-1" Cut="0.0000000000000000e+00" cType="1" res="3.3985935151576996e-03" rms="4.6724238991737366e-01" purity="6.5858805179595947e-01" nType="-99"/>
          </Node>
        </Node>
        <Node pos="r" depth="1" NCoef="0" IVar="1" Cut="4.2404833984375000e+02" cType="1" res="1.3556449115276337e-01" rms="4.5694521069526672e-01" purity="6.7520076036453247e-01" nType="0">
          <Node pos="l" depth="2" NCoef="0" IVar="2" Cut="4.3201928710937500e+02" cType="1" res="6.4154088497161865e-02" rms="4.8436361551284790e-01" purity="5.8228170871734619e-01" nType="0">
            <Node pos="l" depth="3" NCoef="0" IVar="-1" Cut="0.0000000000000000e+00" cType="1" res="3.0727102421224117e-03" rms="4.7475636005401611e-01" purity="6.3359147310256958e-01" nType="-99"/>
            <Node pos="r" depth="3" NCoef="0" IVar="-1" Cut="0.0000000000000000e+00" cType="1" res="-4.6306205913424492e-03" rms="4.8290768265724182e-01" purity="3.9354875683784485e-01" nType="-99"/>
          </Node>
          <Node pos="r" depth="2" NCoef="0" IVar="2" Cut="4.7393212890625000e+02" cType="1" res="2.0962478220462799e-01" rms="4.1383382678031921e-01" purity="7.7156788110733032e-01" nType="0">
            <Node pos="l" depth="3" NCoef="0" IVar="-1" Cut="0.0000000000000000e+00" cType="1" res="6.5082665532827377e-03" rms="3.7176483869552612e-01" purity="8.3179974555969238e-01" nType="-99"/>
            <Node pos="r" depth="3" NCoef="0" IVar="-1" Cut="0.0000000000000000e+00" cType="1" res="3.0385176651179790e-03" rms="4.7971716523170471e-01" purity="6.3264137506484985e-01" nType="-99"/>
          </Node>
        </Node>
      </Node>
    </BinaryTree>
    <BinaryTree type="DecisionTree" boostWeight="1.0000000000000000e+00" itree="26">
      <Node pos="s" depth="0" NCoef="0" IVar="5" Cut="1.1367871856689453e+02" cType="1" res="1.4111823402345181e-03" rms="4.7479730844497681e-01" purity="4.9291720986366272e-01" nType="0">
        <Node pos="l" depth="1" NCoef="0" IVar="1" Cut="4.2850772094726562e+02" cType="1" res="-7.4993066489696503e-02" rms="4.6799221634864807e-01" purity="3.8601922988891602e-01" nType="0">
          <Node pos="l" depth="2" NCoef="0" IVar="2" Cut="3.8003915405273438e+02" cType="1" res="-1.3828630745410919e-01" rms="4.4558227062225342e-01" purity="2.9713869094848633e-01" nType="0">
            <Node pos="l" depth="3" NCoef="0" IVar="-1" Cut="0.0000000000000000e+00" cType="1" res="-2.9462527018040419e-03" rms="4.6856984496116638e-01" purity="3.5450801253318787e-01" nType="-99"/>
            <Node pos="r" depth="3" NCoef="0" IVar="-1" Cut="0.0000000000000000e+00" cType="1" res="-1.3322141952812672e-02" rms="3.6115375161170959e-01" purity="1.6187560558319092e-01" nType="-99"/>
          </Node>
          <Node pos="r" depth="2" NCoef="0" IVar="2" Cut="4.0312799072265625e+02" cType="1" res="4.1854355484247208e-02" rms="4.8555514216423035e-01" purity="5.5010402202606201e-01" nType="0">
            <Node pos="l" depth="3" NCoef="0" IVar="-1" Cut="0.0000000000000000e+00" cType="1" res="3.3897708635777235e-03" rms="4.6834859251976013e-01" purity="6.3649594783782959e-01" nType="-99"/>
            <Node pos="r" depth="3" NCoef="0" IVar="-1" Cut="0.0000000000000000e+00" cType="1" res="-1.9798092544078827e-03" rms="4.8887333273887634e-01" purity="4.4150322675704956e-01" nType="-99"/>
          </Node>
        </Node>
        <Node pos="r" depth="1" NCoef="0" IVar="6" Cut="-1.0811027288436890e+00" cType="1" res="1.2598094344139099e-01" rms="4.5919221639633179e-01" purity="6.6720414161682129e-01" nType="0">
          <Node pos="l" depth="2" NCoef="0" IVar="-1" Cut="0.0000000000000000e+00" cType="1" res="-3.0667458195239305e-03" rms="4.8390784859657288e-01" purity="4.3067926168441772e-01" nType="-99"/>
          <Node pos="r" depth="2" NCoef="0" IVar="6" Cut="9.5174396038055420e-01" cType="1" res="1.5251226723194122e-01" rms="4.4895848631858826e-01" purity="6.9629693031311035e-01" nType="0">
            <Node pos="l" depth="3" NCoef="0" IVar="-1" Cut="0.0000000000000000e+00" cType="1" res="5.2786651067435741e-03" rms="4.3083441257476807e-01" purity="7.3721861839294434e-01" nType="-99"/>
            <Node pos="r" depth="3" NCoef="0" IVar="-1" Cut="0.0000000000000000e+00" cType="1" res="-1.7136030364781618e-03" rms="4.8669260740280151e-01" purity="4.7923743724822998e-01" nType="-99"/>
          </Node>
        </Node>
      </Node>
    </BinaryTree>
    <BinaryTree type="DecisionTree" boostWeight="1.0000000000000000e+00" itree="27">
      <Node pos="s" depth="0" NCoef="0" IVar="5" Cut="1.1044891357421875e+02" cType="1" res="8.6154416203498840e-03" rms="4.7399854660034180e-01" purity="5.0050485134124756e-01" nType="0">
        <Node pos="l" depth="1" NCoef="0" IVar="1" Cut="4.6515270996093750e+02" cType="1" res="-7.6540872454643250e-02" rms="4.6705093979835510e-01" purity="3.7993341684341431e-01" nType="0">
          <Node pos="l" depth="2" NCoef="0" IVar="6" Cut="-9.0005922317504883e-01" cType="1" res="-1.2631726264953613e-01" rms="4.5096644759178162e-01" purity="3.0935233831405640e-01" nType="0">
            <Node pos="l" depth="3" NCoef="0" IVar="-1" Cut="0.0000000000000000e+00" cType="1" res="-1.2302481569349766e-02" rms="3.5570237040519714e-01" purity="1.5743714570999146e-01" nType="-99"/>
            <Node pos="r" depth="3" NCoef="0" IVar="-1" Cut="0.0000000000000000e+00" cType="1" res="-3.1752341892570257e-03" rms="4.6390199661254883e-01" purity="3.4521245956420898e-01" nType="-99"/>
          </Node>
          <Node pos="r" depth="2" NCoef="0" IVar="2" Cut="3.4597155761718750e+02" cType="1" res="6.4700506627559662e-02" rms="4.8275804519653320e-01" purity="5.8020848035812378e-01" nType="0">
            <Node pos="l" depth="3" NCoef="0" IVar="-1" Cut="0.0000000000000000e+00" cType="1" res="4.8885592259466648e-03" rms="4.4312804937362671e-01" purity="7.0948433876037598e-01" nType="-99"/>
            <Node pos="r" depth="3" NCoef="0" IVar="-1" Cut="0.0000000000000000e+00" cType="1" res="-2.5065493537113070e-04" rms="4.9284440279006958e-01" purity="4.9842220544815063e-01" nType="-99"/>
          </Node>
        </Node>
        <Node pos="r" depth="1" NCoef="0" IVar="7" Cut="-1.1999078989028931e+00" cType="1" res="1.2821266055107117e-01" rms="4.5756852626800537e-01" purity="6.6984063386917114e-01" nType="0">
          <Node pos="l" depth="2" NCoef="0" IVar="-1" Cut="0.0000000000000000e+00" cType="1" res="-4.1491286829113960e-03" rms="4.7786635160446167e-01" purity="4.1111752390861511e-01" nType="-99"/>
          <Node pos="r" depth="2" NCoef="0" IVar="7" Cut="1.0857882499694824e+00" cType="1" res="1.5207734704017639e-01" rms="4.4862475991249084e-01" purity="6.9612252712249756e-01" nType="0">
            <Node pos="l" depth="3" NCoef="0" IVar="-1" Cut="0.0000000000000000e+00" cType="1" res="4.9785310402512550e-03" rms="4.3426573276519775e-01" purity="7.3067045211791992e-01" nType="-99"/>
            <Node pos="r" depth="3" NCoef="0" IVar="-1" Cut="0.0000000000000000e+00" cType="1" res="-2.3923933040350676e-03" rms="4.8590102791786194e-01" purity="4.5405292510986328e-01" nType="-99"/>
          </Node>
        </Node>
      </Node>
    </BinaryTree>
    <BinaryTree type="DecisionTree" boostWeight="1.0000000000000000e+00" itree="28">
      <Node pos="s" depth="0" NCoef="0" IVar="5" Cut="8.5192810058593750e+01" cType="1" res="5.6227999739348888e-03" rms="4.7326368093490601e-01" purity="4.9692741036415100e-01" nType="0">
        <Node pos="l" depth="1" NCoef="0" IVar="1" Cut="5.5456585693359375e+02" cType="1" res="-1.3342881202697754e-01" rms="4.4333463907241821e-01" purity="2.9414361715316772e-01" nType="0">
          <Node pos="l" depth="2" NCoef="0" IVar="6" Cut="-8.9043730497360229e-01" cType="1" res="-1.5536442399024963e-01" rms="4.3192476034164429e-01" purity="2.6487135887145996e-01" nType="0">
            <Node pos="l" depth="3" NCoef="0" IVar="-1" Cut="0.0000000000000000e+00" cType="1" res="-1.3764759525656700e-02" rms="3.3563554286956787e-01" purity="1.3484852015972137e-01" nType="-99"/>
            <Node pos="r" depth="3" NCoef="0" IVar="-1" Cut="0.0000000000000000e+00" cType="1" res="-4.3826848268508911e-03" rms="4.4667038321495056e-01" purity="2.9546573758125305e-01" nType="-99"/>
          </Node>
          <Node pos="r" depth="2" NCoef="0" IVar="-1" Cut="0.0000000000000000e+00" cType="1" res="1.7722476040944457e-03" rms="4.9263635277748108e-01" purity="5.4554283618927002e-01" nType="-99"/>
        </Node>
        <Node pos="r" depth="1" NCoef="0" IVar="1" Cut="4.1917388916015625e+02" cType="1" res="7.3710069060325623e-02" rms="4.7255438566207886e-01" purity="5.9622138738632202e-01" nType="0">
          <Node pos="l" depth="2" NCoef="0" IVar="6" Cut="9.7394317388534546e-01" cType="1" res="-9.0376753360033035e-03" rms="4.8583820462226868e-01" purity="4.8372405767440796e-01" nType="0">
            <Node pos="l" depth="3" NCoef="0" IVar="-1" Cut="0.0000000000000000e+00" cType="1" res="8.9775264495983720e-04" rms="4.8594143986701965e-01" purity="5.2452933788299561e-01" nType="-99"/>
            <Node pos="r" depth="3" NCoef="0" IVar="-1" Cut="0.0000000000000000e+00" cType="1" res="-7.5814761221408844e-03" rms="4.4002202153205872e-01" purity="2.7988356351852417e-01" nType="-99"/>
          </Node>
          <Node pos="r" depth="2" NCoef="0" IVar="2" Cut="4.9196279907226562e+02" cType="1" res="1.6472853720188141e-01" rms="4.3987283110618591e-01" purity="7.1996295452117920e-01" nType="0">
            <Node pos="l" depth="3" NCoef="0" IVar="-1" Cut="0.0000000000000000e+00" cType="1" res="5.5812071077525616e-03" rms="4.0681564807891846e-01" purity="7.8071773052215576e-01" nType="-99"/>
            <Node pos="r" depth="3" NCoef="0" IVar="-1" Cut="0.0000000000000000e+00" cType="1" res="6.7803711863234639e-04" rms="4.9346309900283813e-01" purity="5.4944384098052979e-01" nType="-99"/>
          </Node>
        </Node>
      </Node>
    </BinaryTree>
    <BinaryTree type="DecisionTree" boostWeight="1.0000000000000000e+00" itree="29">
      <Node pos="s" depth="0" NCoef="0" IVar="5" Cut="1.1364518737792969e+02" cType="1" res="1.4404010958969593e-02" rms="4.7266703844070435e-01" purity="5.0558662414550781e-01" nType="0">
        <Node pos="l" depth="1" NCoef="0" IVar="1" Cut="4.6515356445312500e+02" cType="1" res="-6.0097031295299530e-02" rms="4.6900096535682678e-01" purity="3.9677330851554871e-01" nType="0">
          <Node pos="l" depth="2" NCoef="0" IVar="2" Cut="2.9456130981445312e+02" cType="1" res="-1.0677357763051987e-01" rms="4.5610260963439941e-01" purity="3.2857963442802429e-01" nType="0">
            <Node pos="l" depth="3" NCoef="0" IVar="-1" Cut="0.0000000000000000e+00" cType="1" res="-7.3720375075936317e-04" rms="4.8319545388221741e-01" purity="4.2606425285339355e-01" nType="-99"/>
            <Node pos="r" depth="3" NCoef="0" IVar="-1" Cut="0.0000000000000000e+00" cType="1" res="-6.9918031804263592e-03" rms="4.2287626862525940e-01" purity="2.5287061929702759e-01" nType="-99"/>
          </Node>
          <Node pos="r" depth="2" NCoef="0" IVar="2" Cut="3.4597155761718750e+02" cType="1" res="7.4212700128555298e-02" rms="4.7957101464271545e-01" purity="5.9299761056900024e-01" nType="0">
            <Node pos="l" depth="3" NCoef="0" IVar="-1" Cut="0.0000000000000000e+00" cType="1" res="4.8704505898058414e-03" rms="4.3874913454055786e-01" purity="7.1806401014328003e-01" nType="-99"/>
            <Node pos="r" depth="3" NCoef="0" IVar="-1" Cut="0.0000000000000000e+00" cType="1" res="2.1753956389147788e-04" rms="4.9180662631988525e-01" purity="5.1392787694931030e-01" nType="-99"/>
          </Node>
        </Node>
        <Node pos="r" depth="1" NCoef="0" IVar="6" Cut="9.6484041213989258e-01" cType="1" res="1.3328935205936432e-01" rms="4.5379760861396790e-01" purity="6.7922604084014893e-01" nType="0">
          <Node pos="l" depth="2" NCoef="0" IVar="6" Cut="-9.5744270086288452e-01" cType="1" res="1.6430465877056122e-01" rms="4.4077867269515991e-01" purity="7.1289479732513428e-01" nType="0">
            <Node pos="l" depth="3" NCoef="0" IVar="-1" Cut="0.0000000000000000e+00" cType="1" res="-1.7250826349481940e-03" rms="4.8467227816581726e-01" purity="4.8013886809349060e-01" nType="-99"/>
            <Node pos="r" depth="3" NCoef="0" IVar="-1" Cut="0.0000000000000000e+00" cType="1" res="5.4539502598345280e-03" rms="4.2211940884590149e-01" purity="7.5305682420730591e-01" nType="-99"/>
          </Node>
          <Node pos="r" depth="2" NCoef="0" IVar="8" Cut="1.3149495422840118e-01" cType="1" res="-7.2843596339225769e-02" rms="4.8420280218124390e-01" purity="4.5545771718025208e-01" nType="0">
            <Node pos="l" depth="3" NCoef="0" IVar="-1" Cut="0.0000000000000000e+00" cType="1" res="-2.9563275165855885e-03" rms="4.8267638683319092e-01" purity="4.4948190450668335e-01" nType="-99"/>
            <Node pos="r" depth="3" NCoef="0" IVar="-1" Cut="0.0000000000000000e+00" cType="1" res="-2.3648247588425875e-03" rms="4.8563456535339355e-01" purity="4.6141478419303894e-01" nType="-99"/>
          </Node>
        </Node>
      </Node>
    </BinaryTree>
    <BinaryTree type="DecisionTree" boostWeight="1.0000000000000000e+00" itree="30">
      <Node pos="s" depth="0" NCoef="0" IVar="5" Cut="8.1686515808105469e+01" cType="1" res="1.1993748135864735e-02" rms="4.7157514095306396e-01" purity="5.0361847877502441e-01" nType="0">
        <Node pos="l" depth="1" NCoef="0" IVar="7" Cut="-1.1997233629226685e+00" cType="1" res="-1.3976743817329407e-01" rms="4.3641874194145203e-01" purity="2.8041598200798035e-01" nType="0">
          <Node pos="l" depth="2" NCoef="0" IVar="-1" Cut="0.0000000000000000e+00" cType="1" res="-1.2983438558876514e-02" rms="3.1158465147018433e-01" purity="1.1520314216613770e-01" nType="-99"/>
          <Node pos="r" depth="2" NCoef="0" IVar="7" Cut="8.9541006088256836e-01" cType="1" res="-1.1228432506322861e-01" rms="4.5082569122314453e-01" purity="3.1147703528404236e-01" nType="0">
            <Node pos="l" depth="3" NCoef="0" IVar="-1" Cut="0.0000000000000000e+00" cType="1" res="-2.2698978427797556e-03" rms="4.6987065672874451e-01" purity="3.6416846513748169e-01" nType="-99"/>
            <Node pos="r" depth="3" NCoef="0" IVar="-1" Cut="0.0000000000000000e+00" cType="1" res="-1.2919787317514420e-02" rms="3.5473108291625977e-01" purity="1.5703460574150085e-01" nType="-99"/>
          </Node>
        </Node>
        <Node pos="r" depth="1" NCoef="0" IVar="1" Cut="4.2404458618164062e+02" cType="1" res="7.2017602622509003e-02" rms="4.7148331999778748e-01" purity="5.9189838171005249e-01" nType="0">
          <Node pos="l" depth="2" NCoef="0" IVar="2" Cut="4.7838336181640625e+02" cType="1" res="-3.9829993620514870e-03" rms="4.8425558209419250e-01" purity="4.8462215065956116e-01" nType="0">
            <Node pos="l" depth="3" NCoef="0" IVar="-1" Cut="0.0000000000000000e+00" cType="1" res="9.5890823286026716e-04" rms="4.8528203368186951e-01" purity="5.2450466156005859e-01" nType="-99"/>
            <Node pos="r" depth="3" NCoef="0" IVar="-1" Cut="0.0000000000000000e+00" cType="1" res="-1.3194532133638859e-02" rms="4.1727316379547119e-01" purity="2.4177981913089752e-01" nType="-99"/>
          </Node>
          <Node pos="r" depth="2" NCoef="0" IVar="2" Cut="4.0313281250000000e+02" cType="1" res="1.6264575719833374e-01" rms="4.3890646100044250e-01" purity="7.1982175111770630e-01" nType="0">
            <Node pos="l" depth="3" NCoef="0" IVar="-1" Cut="0.0000000000000000e+00" cType="1" res="5.8960537426173687e-03" rms="3.9102169871330261e-01" purity="8.0256789922714233e-01" nType="-99"/>
            <Node pos="r" depth="3" NCoef="0" IVar="-1" Cut="0.0000000000000000e+00" cType="1" res="1.9079016055911779e-03" rms="4.8188638687133789e-01" purity="6.0132420063018799e-01" nType="-99"/>
          </Node>
        </Node>
      </Node>
    </BinaryTree>
    <BinaryTree type="DecisionTree" boostWeight="1.0000000000000000e+00" itree="31">
      <Node pos="s" depth="0" NCoef="0" IVar="5" Cut="1.0680941772460938e+02" cType="1" res="9.9868886172771454e-03" rms="4.7115230560302734e-01" purity="5.0049799680709839e-01" nType="0">
        <Node pos="l" depth="1" NCoef="0" IVar="1" Cut="4.6515432739257812e+02" cType="1" res="-7.6779775321483612e-02" rms="4.6347659826278687e-01" purity="3.7093240022659302e-01" nType="0">
          <Node pos="l" depth="2" NCoef="0" IVar="2" Cut="3.8721908569335938e+02" cType="1" res="-1.1783355474472046e-01" rms="4.4859206676483154e-01" purity="3.0789566040039062e-01" nType="0">
            <Node pos="l" depth="3" NCoef="0" IVar="-1" Cut="0.0000000000000000e+00" cType="1" res="-2.4774165358394384e-03" rms="4.6889084577560425e-01" purity="3.6057972908020020e-01" nType="-99"/>
            <Node pos="r" depth="3" NCoef="0" IVar="-1" Cut="0.0000000000000000e+00" cType="1" res="-1.0200351476669312e-02" rms="3.8031452894210815e-01" purity="1.8664702773094177e-01" nType="-99"/>
          </Node>
          <Node pos="r" depth="2" NCoef="0" IVar="2" Cut="3.7135073852539062e+02" cType="1" res="4.6659424901008606e-02" rms="4.8510277271270752e-01" purity="5.6046932935714722e-01" nType="0">
            <Node pos="l" depth="3" NCoef="0" IVar="-1" Cut="0.0000000000000000e+00" cType="1" res="3.8360659964382648e-03" rms="4.6059042215347290e-01" purity="6.6240441799163818e-01" nType="-99"/>
            <Node pos="r" depth="3" NCoef="0" IVar="-1" Cut="0.0000000000000000e+00" cType="1" res="-7.2782690403982997e-04" rms="4.9313357472419739e-01" purity="4.8057907819747925e-01" nType="-99"/>
          </Node>
        </Node>
        <Node pos="r" depth="1" NCoef="0" IVar="8" Cut="1.1998411417007446e+00" cType="1" res="1.1725939065217972e-01" rms="4.5829987525939941e-01" purity="6.6068416833877563e-01" nType="0">
          <Node pos="l" depth="2" NCoef="0" IVar="8" Cut="-1.2762632369995117e+00" cType="1" res="1.4256861805915833e-01" rms="4.4896143674850464e-01" purity="6.8698847293853760e-01" nType="0">
            <Node pos="l" depth="3" NCoef="0" IVar="-1" Cut="0.0000000000000000e+00" cType="1" res="-3.3947555348277092e-03" rms="4.7997108101844788e-01" purity="4.4714903831481934e-01" nType="-99"/>
            <Node pos="r" depth="3" NCoef="0" IVar="-1" Cut="0.0000000000000000e+00" cType="1" res="4.6999440528452396e-03" rms="4.3773812055587769e-01" purity="7.1423161029815674e-01" nType="-99"/>
          </Node>
          <Node pos="r" depth="2" NCoef="0" IVar="-1" Cut="0.0000000000000000e+00" cType="1" res="-4.1076489724218845e-03" rms="4.7899731993675232e-01" purity="4.2985257506370544e-01" nType="-99"/>
        </Node>
      </Node>
    </BinaryTree>
    <BinaryTree type="DecisionTree" boostWeight="1.0000000000000000e+00" itree="32">
      <Node pos="s" depth="0" NCoef="0" IVar="5" Cut="8.1926155090332031e+01" cType="1" res="1.1644016951322556e-02" rms="4.7044637799263000e-01" purity="5.0209832191467285e-01" nType="0">
        <Node pos="l" depth="1" NCoef="0" IVar="1" Cut="4.1082659912109375e+02" cType="1" res="-1.3162425160408020e-01" rms="4.3821373581886292e-01" purity="2.8441968560218811e-01" nType="0">
          <Node pos="l" depth="2" NCoef="0" IVar="6" Cut="6.7523616552352905e-01" cType="1" res="-1.8148469924926758e-01" rms="4.0201196074485779e-01" purity="2.1170888841152191e-01" nType="0">
            <Node pos="l" depth="3" NCoef="0" IVar="-1" Cut="0.0000000000000000e+00" cType="1" res="-5.7209129445254803e-03" rms="4.2379027605056763e-01" purity="2.4625115096569061e-01" nType="-99"/>
            <Node pos="r" depth="3" NCoef="0" IVar="-1" Cut="0.0000000000000000e+00" cType="1" res="-1.1549695394933224e-02" rms="3.2224753499031067e-01" purity="1.2129092216491699e-01" nType="-99"/>
          </Node>
          <Node pos="r" depth="2" NCoef="0" IVar="5" Cut="6.6795166015625000e+01" cType="1" res="-4.6270314604043961e-02" rms="4.8224568367004395e-01" purity="4.0889018774032593e-01" nType="0">
            <Node pos="l" depth="3" NCoef="0" IVar="-1" Cut="0.0000000000000000e+00" cType="1" res="-6.0160923749208450e-03" rms="4.4912689924240112e-01" purity="2.9510232806205750e-01" nType="-99"/>
            <Node pos="r" depth="3" NCoef="0" IVar="-1" Cut="0.0000000000000000e+00" cType="1" res="3.3433447242714465e-04" rms="4.9176701903343201e-01" purity="4.7537517547607422e-01" nType="-99"/>
          </Node>
        </Node>
        <Node pos="r" depth="1" NCoef="0" IVar="7" Cut="1.1997660398483276e+00" cType="1" res="7.0625148713588715e-02" rms="4.7058311104774475e-01" purity="5.9171301126480103e-01" nType="0">
          <Node pos="l" depth="2" NCoef="0" IVar="7" Cut="-8.9532130956649780e-01" cType="1" res="9.7867421805858612e-02" rms="4.6501037478446960e-01" purity="6.2234061956405640e-01" nType="0">
            <Node pos="l" depth="3" NCoef="0" IVar="-1" Cut="0.0000000000000000e+00" cType="1" res="-3.0057684052735567e-03" rms="4.7132891416549683e-01" purity="4.1966986656188965e-01" nType="-99"/>
            <Node pos="r" depth="3" NCoef="0" IVar="-1" Cut="0.0000000000000000e+00" cType="1" res="3.9269584231078625e-03" rms="4.5343390107154846e-01" purity="6.6969776153564453e-01" nType="-99"/>
          </Node>
          <Node pos="r" depth="2" NCoef="0" IVar="7" Cut="1.5807027816772461e+00" cType="1" res="-1.5677513182163239e-01" rms="4.5504298806190491e-01" purity="3.3605462312698364e-01" nType="0">
            <Node pos="l" depth="3" NCoef="0" IVar="-1" Cut="0.0000000000000000e+00" cType="1" res="-2.3486360441893339e-03" rms="4.7845539450645447e-01" purity="4.3047028779983521e-01" nType="-99"/>
            <Node pos="r" depth="3" NCoef="0" IVar="-1" Cut="0.0000000000000000e+00" cType="1" res="-1.0942669585347176e-02" rms="4.1344922780990601e-01" purity="2.4544344842433929e-01" nType="-99"/>
          </Node>
        </Node>
      </Node>
    </BinaryTree>
    <BinaryTree type="DecisionTree" boostWeight="1.0000000000000000e+00" itree="33">
      <Node pos="s" depth="0" NCoef="0" IVar="5" Cut="1.1364518737792969e+02" cType="1" res="1.2316363863646984e-02" rms="4.6997886896133423e-01" purity="5.0298184156417847e-01" nType="0">
        <Node pos="l" depth="1" NCoef="0" IVar="1" Cut="4.3640158081054688e+02" cType="1" res="-6.0478884726762772e-02" rms="4.6605616807937622e-01" purity="3.9212816953659058e-01" nType="0">
          <Node pos="l" depth="2" NCoef="0" IVar="6" Cut="-1.1820416450500488e+00" cType="1" res="-1.1079898476600647e-01" rms="4.4931069016456604e-01" purity="3.1259027123451233e-01" nType="0">
            <Node pos="l" depth="3" NCoef="0" IVar="-1" Cut="0.0000000000000000e+00" cType="1" res="-1.3093346729874611e-02" rms="3.2974827289581299e-01" purity="1.2998622655868530e-01" nType="-99"/>
            <Node pos="r" depth="3" NCoef="0" IVar="-1" Cut="0.0000000000000000e+00" cType="1" res="-2.2388594225049019e-03" rms="4.5945242047309875e-01" purity="3.4067198634147644e-01" nType="-99"/>
          </Node>
          <Node pos="r" depth="2" NCoef="0" IVar="2" Cut="3.7131118774414062e+02" cType="1" res="4.1887726634740829e-02" rms="4.8245283961296082e-01" purity="5.5393272638320923e-01" nType="0">
            <Node pos="l" depth="3" NCoef="0" IVar="-1" Cut="0.0000000000000000e+00" cType="1" res="3.5251283552497625e-03" rms="4.6118950843811035e-01" purity="6.5314257144927979e-01" nType="-99"/>
            <Node pos="r" depth="3" NCoef="0" IVar="-1" Cut="0.0000000000000000e+00" cType="1" res="-1.1902737896889448e-03" rms="4.8881304264068604e-01" purity="4.6228733658790588e-01" nType="-99"/>
          </Node>
        </Node>
        <Node pos="r" depth="1" NCoef="0" IVar="2" Cut="3.4025061035156250e+02" cType="1" res="1.2704072892665863e-01" rms="4.5293903350830078e-01" purity="6.7768591642379761e-01" nType="0">
          <Node pos="l" depth="2" NCoef="0" IVar="0" Cut="1.3813714599609375e+03" cType="1" res="1.9912037253379822e-01" rms="4.1495782136917114e-01" purity="7.5992923974990845e-01" nType="0">
            <Node pos="l" depth="3" NCoef="0" IVar="-1" Cut="0.0000000000000000e+00" cType="1" res="1.2647055555135012e-03" rms="4.8211881518363953e-01" purity="5.8902269601821899e-01" nType="-99"/>
            <Node pos="r" depth="3" NCoef="0" IVar="-1" Cut="0.0000000000000000e+00" cType="1" res="7.4651655741035938e-03" rms="3.2675352692604065e-01" purity="8.7239032983779907e-01" nType="-99"/>
          </Node>
          <Node pos="r" depth="2" NCoef="0" IVar="0" Cut="1.6550450439453125e+03" cType="1" res="5.6004717946052551e-02" rms="4.7694224119186401e-01" purity="5.9663331508636475e-01" nType="0">
            <Node pos="l" depth="3" NCoef="0" IVar="-1" Cut="0.0000000000000000e+00" cType="1" res="-2.3606622125953436e-03" rms="4.8508763313293457e-01" purity="4.6733528375625610e-01" nType="-99"/>
            <Node pos="r" depth="3" NCoef="0" IVar="-1" Cut="0.0000000000000000e+00" cType="1" res="3.5606622695922852e-03" rms="4.6083629131317139e-01" purity="6.6347002983093262e-01" nType="-99"/>
          </Node>
        </Node>
      </Node>
    </BinaryTree>
    <BinaryTree type="DecisionTree" boostWeight="1.0000000000000000e+00" itree="34">
      <Node pos="s" depth="0" NCoef="0" IVar="0" Cut="1.1903264160156250e+03" cType="1" res="5.4080598056316376e-03" rms="4.6881559491157532e-01" purity="4.9586006999015808e-01" nType="0">
        <Node pos="l" depth="1" NCoef="0" IVar="2" Cut="2.5572679138183594e+02" cType="1" res="-1.4369674026966095e-01" rms="4.4091665744781494e-01" purity="2.8836503624916077e-01" nType="0">
          <Node pos="l" depth="2" NCoef="0" IVar="0" Cut="1.0230425415039062e+03" cType="1" res="-7.3968574404716492e-02" rms="4.7390162944793701e-01" purity="3.7597617506980896e-01" nType="0">
            <Node pos="l" depth="3" NCoef="0" IVar="-1" Cut="0.0000000000000000e+00" cType="1" res="-4.8061888664960861e-03" rms="4.3215152621269226e-01" purity="2.5537687540054321e-01" nType="-99"/>
            <Node pos="r" depth="3" NCoef="0" IVar="-1" Cut="0.0000000000000000e+00" cType="1" res="2.2354576503857970e-04" rms="4.9276208877563477e-01" purity="4.7956645488739014e-01" nType="-99"/>
          </Node>
          <Node pos="r" depth="2" NCoef="0" IVar="0" Cut="1.1160205078125000e+03" cType="1" res="-2.0027509331703186e-01" rms="4.0345594286918640e-01" purity="2.1727621555328369e-01" nType="0">
            <Node pos="l" depth="3" NCoef="0" IVar="-1" Cut="0.0000000000000000e+00" cType="1" res="-9.0405521914362907e-03" rms="3.7673354148864746e-01" purity="1.7910182476043701e-01" nType="-99"/>
            <Node pos="r" depth="3" NCoef="0" IVar="-1" Cut="0.0000000000000000e+00" cType="1" res="-5.2428450435400009e-03" rms="4.3836864829063416e-01" purity="2.7765172719955444e-01" nType="-99"/>
          </Node>
        </Node>
        <Node pos="r" depth="1" NCoef="0" IVar="2" Cut="4.0314468383789062e+02" cType="1" res="6.2106590718030930e-02" rms="4.6665892004966736e-01" purity="5.7476210594177246e-01" nType="0">
          <Node pos="l" depth="2" NCoef="0" IVar="0" Cut="1.3808577880859375e+03" cType="1" res="1.5966895222663879e-01" rms="4.4158273935317993e-01" purity="6.9466525316238403e-01" nType="0">
            <Node pos="l" depth="3" NCoef="0" IVar="-1" Cut="0.0000000000000000e+00" cType="1" res="1.8358394736424088e-03" rms="4.8294010758399963e-01" purity="5.6409198045730591e-01" nType="-99"/>
            <Node pos="r" depth="3" NCoef="0" IVar="-1" Cut="0.0000000000000000e+00" cType="1" res="6.2976856715977192e-03" rms="3.8893046975135803e-01" purity="7.9779422283172607e-01" nType="-99"/>
          </Node>
          <Node pos="r" depth="2" NCoef="0" IVar="0" Cut="1.5620822753906250e+03" cType="1" res="-6.3024543225765228e-02" rms="4.6809783577919006e-01" purity="4.2097714543342590e-01" nType="0">
            <Node pos="l" depth="3" NCoef="0" IVar="-1" Cut="0.0000000000000000e+00" cType="1" res="-8.9994650334119797e-03" rms="4.1135647892951965e-01" purity="2.3654597997665405e-01" nType="-99"/>
            <Node pos="r" depth="3" NCoef="0" IVar="-1" Cut="0.0000000000000000e+00" cType="1" res="5.1099580014124513e-04" rms="4.8169353604316711e-01" purity="5.2852910757064819e-01" nType="-99"/>
          </Node>
        </Node>
      </Node>
    </BinaryTree>
    <BinaryTree type="DecisionTree" boostWeight="1.0000000000000000e+00" itree="35">
      <Node pos="s" depth="0" NCoef="0" IVar="5" Cut="8.1809501647949219e+01" cType="1" res="8.8136559352278709e-03" rms="4.6862426400184631e-01" purity="4.9815797805786133e-01" nType="0">
        <Node pos="l" depth="1" NCoef="0" IVar="1" Cut="4.2728652954101562e+02" cType="1" res="-1.2941223382949829e-01" rms="4.3544906377792358e-01" purity="2.7944791316986084e-01" nType="0">
          <Node pos="l" depth="2" NCoef="0" IVar="7" Cut="1.1997517347335815e+00" cType="1" res="-1.6868804395198822e-01" rms="4.0469318628311157e-01" purity="2.1623402833938599e-01" nType="0">
            <Node pos="l" depth="3" NCoef="0" IVar="-1" Cut="0.0000000000000000e+00" cType="1" res="-5.5994531139731407e-03" rms="4.2117318511009216e-01" purity="2.4103859066963196e-01" nType="-99"/>
            <Node pos="r" depth="3" NCoef="0" IVar="-1" Cut="0.0000000000000000e+00" cType="1" res="-1.3885573484003544e-02" rms="2.8419634699821472e-01" purity="9.0569458901882172e-02" nType="-99"/>
          </Node>
          <Node pos="r" depth="2" NCoef="0" IVar="5" Cut="6.6670753479003906e+01" cType="1" res="-4.3298427015542984e-02" rms="4.8525440692901611e-01" purity="4.1804701089859009e-01" nType="0">
            <Node pos="l" depth="3" NCoef="0" IVar="-1" Cut="0.0000000000000000e+00" cType="1" res="-4.8673315905034542e-03" rms="4.6302565932273865e-01" purity="3.2553276419639587e-01" nType="-99"/>
            <Node pos="r" depth="3" NCoef="0" IVar="-1" Cut="0.0000000000000000e+00" cType="1" res="3.9910937630338594e-05" rms="4.9264401197433472e-01" purity="4.7306099534034729e-01" nType="-99"/>
          </Node>
        </Node>
        <Node pos="r" depth="1" NCoef="0" IVar="6" Cut="1.2129262685775757e+00" cType="1" res="6.3989840447902679e-02" rms="4.7001051902770996e-01" purity="5.8546137809753418e-01" nType="0">
          <Node pos="l" depth="2" NCoef="0" IVar="6" Cut="-1.2428462505340576e+00" cType="1" res="8.8405057787895203e-02" rms="4.6558958292007446e-01" purity="6.1277794837951660e-01" nType="0">
            <Node pos="l" depth="3" NCoef="0" IVar="-1" Cut="0.0000000000000000e+00" cType="1" res="-6.9188261404633522e-03" rms="4.4418627023696899e-01" purity="3.1869822740554810e-01" nType="-99"/>
            <Node pos="r" depth="3" NCoef="0" IVar="-1" Cut="0.0000000000000000e+00" cType="1" res="2.8852508403360844e-03" rms="4.5901975035667419e-01" purity="6.4447426795959473e-01" nType="-99"/>
          </Node>
          <Node pos="r" depth="2" NCoef="0" IVar="6" Cut="1.5151848793029785e+00" cType="1" res="-1.5890866518020630e-01" rms="4.5116025209426880e-01" purity="3.3607491850852966e-01" nType="0">
            <Node pos="l" depth="3" NCoef="0" IVar="-1" Cut="0.0000000000000000e+00" cType="1" res="-2.1246182732284069e-03" rms="4.7641795873641968e-01" purity="4.4170233607292175e-01" nType="-99"/>
            <Node pos="r" depth="3" NCoef="0" IVar="-1" Cut="0.0000000000000000e+00" cType="1" res="-8.9736329391598701e-03" rms="4.1654816269874573e-01" purity="2.5792047381401062e-01" nType="-99"/>
          </Node>
        </Node>
      </Node>
    </BinaryTree>
    <BinaryTree type="DecisionTree" boostWeight="1.0000000000000000e+00" itree="36">
      <Node pos="s" depth="0" NCoef="0" IVar="5" Cut="8.5108215332031250e+01" cType="1" res="1.0881055146455765e-02" rms="4.6765211224555969e-01" purity="5.0070834159851074e-01" nType="0">
        <Node pos="l" depth="1" NCoef="0" IVar="6" Cut="1.2128906250000000e+00" cType="1" res="-1.1481884121894836e-01" rms="4.4166892766952515e-01" purity="2.9666176438331604e-01" nType="0">
          <Node pos="l" depth="2" NCoef="0" IVar="6" Cut="-6.7624670267105103e-01" cType="1" res="-9.1450862586498260e-02" rms="4.5191895961761475e-01" purity="3.2159486413002014e-01" nType="0">
            <Node pos="l" depth="3" NCoef="0" IVar="-1" Cut="0.0000000000000000e+00" cType="1" res="-9.0221231803297997e-03" rms="3.8656100630760193e-01" purity="1.9778077304363251e-01" nType="-99"/>
            <Node pos="r" depth="3" NCoef="0" IVar="-1" Cut="0.0000000000000000e+00" cType="1" res="-1.5440905699506402e-03" rms="4.6848583221435547e-01" purity="3.7308305501937866e-01" nType="-99"/>
          </Node>
          <Node pos="r" depth="2" NCoef="0" IVar="-1" Cut="0.0000000000000000e+00" cType="1" res="-9.3802856281399727e-03" rms="3.2280150055885315e-01" purity="1.2766413390636444e-01" nType="-99"/>
        </Node>
        <Node pos="r" depth="1" NCoef="0" IVar="1" Cut="4.5299749755859375e+02" cType="1" res="7.1478605270385742e-02" rms="4.6776008605957031e-01" purity="5.9907537698745728e-01" nType="0">
          <Node pos="l" depth="2" NCoef="0" IVar="2" Cut="3.3920019531250000e+02" cType="1" res="1.0264997370541096e-02" rms="4.8072388768196106e-01" purity="5.1141208410263062e-01" nType="0">
            <Node pos="l" depth="3" NCoef="0" IVar="-1" Cut="0.0000000000000000e+00" cType="1" res="2.3812756408005953e-03" rms="4.7472149133682251e-01" purity="5.9526705741882324e-01" nType="-99"/>
            <Node pos="r" depth="3" NCoef="0" IVar="-1" Cut="0.0000000000000000e+00" cType="1" res="-3.4679393284022808e-03" rms="4.7175675630569458e-01" purity="3.9966025948524475e-01" nType="-99"/>
          </Node>
          <Node pos="r" depth="2" NCoef="0" IVar="2" Cut="4.0313281250000000e+02" cType="1" res="1.7226012051105499e-01" rms="4.2688339948654175e-01" purity="7.4340337514877319e-01" nType="0">
            <Node pos="l" depth="3" NCoef="0" IVar="-1" Cut="0.0000000000000000e+00" cType="1" res="6.0018277727067471e-03" rms="3.7283495068550110e-01" purity="8.2647997140884399e-01" nType="-99"/>
            <Node pos="r" depth="3" NCoef="0" IVar="-1" Cut="0.0000000000000000e+00" cType="1" res="2.6516774669289589e-03" rms="4.7520542144775391e-01" purity="6.3455390930175781e-01" nType="-99"/>
          </Node>
        </Node>
      </Node>
    </BinaryTree>
    <BinaryTree type="DecisionTree" boostWeight="1.0000000000000000e+00" itree="37">
      <Node pos="s" depth="0" NCoef="0" IVar="5" Cut="8.5195877075195312e+01" cType="1" res="1.0296443477272987e-02" rms="4.6700951457023621e-01" purity="5.0020009279251099e-01" nType="0">
        <Node pos="l" depth="1" NCoef="0" IVar="7" Cut="-9.3326419591903687e-01" cType="1" res="-1.1916863173246384e-01" rms="4.3889474868774414e-01" purity="2.8929674625396729e-01" nType="0">
          <Node pos="l" depth="2" NCoef="0" IVar="7" Cut="-1.4665718078613281e+00" cType="1" res="-2.2910578548908234e-01" rms="3.6168482899665833e-01" purity="1.6222941875457764e-01" nType="0">
            <Node pos="l" depth="3" NCoef="0" IVar="-1" Cut="0.0000000000000000e+00" cType="1" res="-1.4099856838583946e-02" rms="3.0723619461059570e-01" purity="1.0848693549633026e-01" nType="-99"/>
            <Node pos="r" depth="3" NCoef="0" IVar="-1" Cut="0.0000000000000000e+00" cType="1" res="-7.8520597890019417e-03" rms="4.0676835179328918e-01" purity="2.2054862976074219e-01" nType="-99"/>
          </Node>
          <Node pos="r" depth="2" NCoef="0" IVar="7" Cut="1.0222235918045044e+00" cType="1" res="-9.0803034603595734e-02" rms="4.5238727331161499e-01" purity="3.2208219170570374e-01" nType="0">
            <Node pos="l" depth="3" NCoef="0" IVar="-1" Cut="0.0000000000000000e+00" cType="1" res="-1.5486900229007006e-03" rms="4.7098669409751892e-01" purity="3.7552681565284729e-01" nType="-99"/>
            <Node pos="r" depth="3" NCoef="0" IVar="-1" Cut="0.0000000000000000e+00" cType="1" res="-1.1523617431521416e-02" rms="3.5052585601806641e-01" purity="1.5238876640796661e-01" nType="-99"/>
          </Node>
        </Node>
        <Node pos="r" depth="1" NCoef="0" IVar="6" Cut="-1.1648347377777100e+00" cType="1" res="7.2032548487186432e-02" rms="4.6737462282180786e-01" purity="6.0077047348022461e-01" nType="0">
          <Node pos="l" depth="2" NCoef="0" IVar="1" Cut="3.8910989379882812e+02" cType="1" res="-1.6909144818782806e-01" rms="4.4874814152717590e-01" purity="3.2827854156494141e-01" nType="0">
            <Node pos="l" depth="3" NCoef="0" IVar="-1" Cut="0.0000000000000000e+00" cType="1" res="-1.1429097503423691e-02" rms="3.9165678620338440e-01" purity="2.0144070684909821e-01" nType="-99"/>
            <Node pos="r" depth="3" NCoef="0" IVar="-1" Cut="0.0000000000000000e+00" cType="1" res="-2.7994401752948761e-03" rms="4.8389732837677002e-01" purity="4.6222972869873047e-01" nType="-99"/>
          </Node>
          <Node pos="r" depth="2" NCoef="0" IVar="6" Cut="1.0996032953262329e+00" cType="1" res="9.8182357847690582e-02" rms="4.6184465289115906e-01" purity="6.3032209873199463e-01" nType="0">
            <Node pos="l" depth="3" NCoef="0" IVar="-1" Cut="0.0000000000000000e+00" cType="1" res="3.8107223808765411e-03" rms="4.5212897658348083e-01" purity="6.6890484094619751e-01" nType="-99"/>
            <Node pos="r" depth="3" NCoef="0" IVar="-1" Cut="0.0000000000000000e+00" cType="1" res="-5.1617887802422047e-03" rms="4.6054998040199280e-01" purity="3.6601212620735168e-01" nType="-99"/>
          </Node>
        </Node>
      </Node>
    </BinaryTree>
    <BinaryTree type="DecisionTree" boostWeight="1.0000000000000000e+00" itree="38">
      <Node pos="s" depth="0" NCoef="0" IVar="5" Cut="1.1339921569824219e+02" cType="1" res="1.2049732729792595e-02" rms="4.6682286262512207e-01" purity="5.0135356187820435e-01" nType="0">
        <Node pos="l" depth="1" NCoef="0" IVar="1" Cut="4.5299591064453125e+02" cType="1" res="-5.4913476109504700e-02" rms="4.6341526508331299e-01" purity="3.9206248521804810e-01" nType="0">
          <Node pos="l" depth="2" NCoef="0" IVar="6" Cut="9.3617016077041626e-01" cType="1" res="-1.0050209611654282e-01" rms="4.4919264316558838e-01" purity="3.1827208399772644e-01" nType="0">
            <Node pos="l" depth="3" NCoef="0" IVar="-1" Cut="0.0000000000000000e+00" cType="1" res="-1.7547912430018187e-03" rms="4.6185997128486633e-01" purity="3.5558015108108521e-01" nType="-99"/>
            <Node pos="r" depth="3" NCoef="0" IVar="-1" Cut="0.0000000000000000e+00" cType="1" res="-9.3109933659434319e-03" rms="3.5924541950225830e-01" purity="1.6309387981891632e-01" nType="-99"/>
          </Node>
          <Node pos="r" depth="2" NCoef="0" IVar="2" Cut="3.7132525634765625e+02" cType="1" res="5.8378309011459351e-02" rms="4.7854936122894287e-01" purity="5.7543820142745972e-01" nType="0">
            <Node pos="l" depth="3" NCoef="0" IVar="-1" Cut="0.0000000000000000e+00" cType="1" res="4.0094121359288692e-03" rms="4.5063418149948120e-01" purity="6.8294501304626465e-01" nType="-99"/>
            <Node pos="r" depth="3" NCoef="0" IVar="-1" Cut="0.0000000000000000e+00" cType="1" res="-5.6570378364995122e-04" rms="4.8899850249290466e-01" purity="4.8315140604972839e-01" nType="-99"/>
          </Node>
        </Node>
        <Node pos="r" depth="1" NCoef="0" IVar="6" Cut="1.2278002500534058e+00" cType="1" res="1.1699870973825455e-01" rms="4.5260316133499146e-01" purity="6.7264139652252197e-01" nType="0">
          <Node pos="l" depth="2" NCoef="0" IVar="6" Cut="-1.2044140100479126e+00" cType="1" res="1.3793373107910156e-01" rms="4.4461226463317871e-01" purity="6.9662535190582275e-01" nType="0">
            <Node pos="l" depth="3" NCoef="0" IVar="-1" Cut="0.0000000000000000e+00" cType="1" res="-4.3223085813224316e-03" rms="4.7172370553016663e-01" purity="4.0645274519920349e-01" nType="-99"/>
            <Node pos="r" depth="3" NCoef="0" IVar="-1" Cut="0.0000000000000000e+00" cType="1" res="4.5959153212606907e-03" rms="4.3355906009674072e-01" purity="7.2629541158676147e-01" nType="-99"/>
          </Node>
          <Node pos="r" depth="2" NCoef="0" IVar="-1" Cut="0.0000000000000000e+00" cType="1" res="-4.4375704601407051e-03" rms="4.7462806105613708e-01" purity="4.0409177541732788e-01" nType="-99"/>
        </Node>
      </Node>
    </BinaryTree>
    <BinaryTree type="DecisionTree" boostWeight="1.0000000000000000e+00" itree="39">
      <Node pos="s" depth="0" NCoef="0" IVar="5" Cut="8.1733245849609375e+01" cType="1" res="1.2146129272878170e-02" rms="4.6574330329895020e-01" purity="5.0052887201309204e-01" nType="0">
        <Node pos="l" depth="1" NCoef="0" IVar="7" Cut="-1.4663438796997070e+00" cType="1" res="-1.1814209818840027e-01" rms="4.3511521816253662e-01" purity="2.8267556428909302e-01" nType="0">
          <Node pos="l" depth="2" NCoef="0" IVar="-1" Cut="0.0000000000000000e+00" cType="1" res="-1.4160695485770702e-02" rms="2.9018756747245789e-01" purity="9.7666561603546143e-02" nType="-99"/>
          <Node pos="r" depth="2" NCoef="0" IVar="7" Cut="9.7159975767135620e-01" cType="1" res="-9.7754105925559998e-02" rms="4.4626912474632263e-01" purity="3.0641213059425354e-01" nType="0">
            <Node pos="l" depth="3" NCoef="0" IVar="-1" Cut="0.0000000000000000e+00" cType="1" res="-2.2123709786683321e-03" rms="4.6281692385673523e-01" purity="3.4818947315216064e-01" nType="-99"/>
            <Node pos="r" depth="3" NCoef="0" IVar="-1" Cut="0.0000000000000000e+00" cType="1" res="-1.0969995521008968e-02" rms="3.5821843147277832e-01" purity="1.6096852719783783e-01" nType="-99"/>
          </Node>
        </Node>
        <Node pos="r" depth="1" NCoef="0" IVar="7" Cut="9.3324750661849976e-01" cType="1" res="6.4979948103427887e-02" rms="4.6736559271812439e-01" purity="5.8887165784835815e-01" nType="0">
          <Node pos="l" depth="2" NCoef="0" IVar="7" Cut="-1.0222061872482300e+00" cType="1" res="9.7089998424053192e-02" rms="4.6084809303283691e-01" purity="6.2588185071945190e-01" nType="0">
            <Node pos="l" depth="3" NCoef="0" IVar="-1" Cut="0.0000000000000000e+00" cType="1" res="-4.0922756306827068e-03" rms="4.6134322881698608e-01" purity="3.8969403505325317e-01" nType="-99"/>
            <Node pos="r" depth="3" NCoef="0" IVar="-1" Cut="0.0000000000000000e+00" cType="1" res="3.8997237570583820e-03" rms="4.4935628771781921e-01" purity="6.7447757720947266e-01" nType="-99"/>
          </Node>
          <Node pos="r" depth="2" NCoef="0" IVar="7" Cut="1.5554385185241699e+00" cType="1" res="-1.0793094336986542e-01" rms="4.6428135037422180e-01" purity="3.8957342505455017e-01" nType="0">
            <Node pos="l" depth="3" NCoef="0" IVar="-1" Cut="0.0000000000000000e+00" cType="1" res="-1.0834434069693089e-03" rms="4.7637489438056946e-01" purity="4.7514536976814270e-01" nType="-99"/>
            <Node pos="r" depth="3" NCoef="0" IVar="-1" Cut="0.0000000000000000e+00" cType="1" res="-1.0824425145983696e-02" rms="4.1294685006141663e-01" purity="2.4475039541721344e-01" nType="-99"/>
          </Node>
        </Node>
      </Node>
    </BinaryTree>
    <BinaryTree type="DecisionTree" boostWeight="1.0000000000000000e+00" itree="40">
      <Node pos="s" depth="0" NCoef="0" IVar="0" Cut="1.1903468017578125e+03" cType="1" res="1.0712563060224056e-02" rms="4.6530064940452576e-01" purity="4.9983310699462891e-01" nType="0">
        <Node pos="l" depth="1" NCoef="0" IVar="2" Cut="2.5787225341796875e+02" cType="1" res="-1.2752927839756012e-01" rms="4.4267916679382324e-01" purity="2.9652601480484009e-01" nType="0">
          <Node pos="l" depth="2" NCoef="0" IVar="0" Cut="1.0044824829101562e+03" cType="1" res="-6.2365427613258362e-02" rms="4.7390910983085632e-01" purity="3.8178154826164246e-01" nType="0">
            <Node pos="l" depth="3" NCoef="0" IVar="-1" Cut="0.0000000000000000e+00" cType="1" res="-6.6938884556293488e-03" rms="4.2318046092987061e-01" purity="2.4456937611103058e-01" nType="-99"/>
            <Node pos="r" depth="3" NCoef="0" IVar="-1" Cut="0.0000000000000000e+00" cType="1" res="-5.0801525503629819e-05" rms="4.9175983667373657e-01" purity="4.6351411938667297e-01" nType="-99"/>
          </Node>
          <Node pos="r" depth="2" NCoef="0" IVar="0" Cut="1.0992973632812500e+03" cType="1" res="-1.8520617485046387e-01" rms="4.0440523624420166e-01" purity="2.2106584906578064e-01" nType="0">
            <Node pos="l" depth="3" NCoef="0" IVar="-1" Cut="0.0000000000000000e+00" cType="1" res="-9.1573148965835571e-03" rms="3.5892993211746216e-01" purity="1.5964238345623016e-01" nType="-99"/>
            <Node pos="r" depth="3" NCoef="0" IVar="-1" Cut="0.0000000000000000e+00" cType="1" res="-4.6715456992387772e-03" rms="4.4241455197334290e-01" purity="2.8710204362869263e-01" nType="-99"/>
          </Node>
        </Node>
        <Node pos="r" depth="1" NCoef="0" IVar="2" Cut="4.0315579223632812e+02" cType="1" res="6.2128230929374695e-02" rms="4.6302551031112671e-01" purity="5.7544815540313721e-01" nType="0">
          <Node pos="l" depth="2" NCoef="0" IVar="0" Cut="1.3724654541015625e+03" cType="1" res="1.5751628577709198e-01" rms="4.3802487850189209e-01" purity="6.9695502519607544e-01" nType="0">
            <Node pos="l" depth="3" NCoef="0" IVar="-1" Cut="0.0000000000000000e+00" cType="1" res="1.9846861250698566e-03" rms="4.7897201776504517e-01" purity="5.7034200429916382e-01" nType="-99"/>
            <Node pos="r" depth="3" NCoef="0" IVar="-1" Cut="0.0000000000000000e+00" cType="1" res="6.0261003673076630e-03" rms="3.9109182357788086e-01" purity="7.9189872741699219e-01" nType="-99"/>
          </Node>
          <Node pos="r" depth="2" NCoef="0" IVar="1" Cut="4.6515139770507812e+02" cType="1" res="-5.7332281023263931e-02" rms="4.6576657891273499e-01" purity="4.2327746748924255e-01" nType="0">
            <Node pos="l" depth="3" NCoef="0" IVar="-1" Cut="0.0000000000000000e+00" cType="1" res="-3.3290784340351820e-03" rms="4.3612495064735413e-01" purity="3.0507111549377441e-01" nType="-99"/>
            <Node pos="r" depth="3" NCoef="0" IVar="-1" Cut="0.0000000000000000e+00" cType="1" res="1.4581237919628620e-03" rms="4.8198246955871582e-01" purity="5.7398790121078491e-01" nType="-99"/>
          </Node>
        </Node>
      </Node>
    </BinaryTree>
    <BinaryTree type="DecisionTree" boostWeight="1.0000000000000000e+00" itree="41">
      <Node pos="s" depth="0" NCoef="0" IVar="5" Cut="8.5208946228027344e+01" cType="1" res="1.3786392286419868e-02" rms="4.6469050645828247e-01" purity="5.0313264131546021e-01" nType="0">
        <Node pos="l" depth="1" NCoef="0" IVar="6" Cut="1.2067987918853760e+00" cType="1" res="-1.0612506419420242e-01" rms="4.4026279449462891e-01" purity="2.9542955756187439e-01" nType="0">
          <Node pos="l" depth="2" NCoef="0" IVar="6" Cut="-6.8922585248947144e-01" cType="1" res="-8.3484515547752380e-02" rms="4.5111313462257385e-01" purity="3.2078000903129578e-01" nType="0">
            <Node pos="l" depth="3" NCoef="0" IVar="-1" Cut="0.0000000000000000e+00" cType="1" res="-8.6768129840493202e-03" rms="3.8583824038505554e-01" purity="1.9931572675704956e-01" nType="-99"/>
            <Node pos="r" depth="3" NCoef="0" IVar="-1" Cut="0.0000000000000000e+00" cType="1" res="-1.3824264751747251e-03" rms="4.6779644489288330e-01" purity="3.7008565664291382e-01" nType="-99"/>
          </Node>
          <Node pos="r" depth="2" NCoef="0" IVar="-1" Cut="0.0000000000000000e+00" cType="1" res="-1.3619845733046532e-02" rms="3.2215356826782227e-01" purity="1.2736473977565765e-01" nType="-99"/>
        </Node>
        <Node pos="r" depth="1" NCoef="0" IVar="8" Cut="1.1997560262680054e+00" cType="1" res="7.1348413825035095e-02" rms="4.6511635184288025e-01" purity="6.0283792018890381e-01" nType="0">
          <Node pos="l" depth="2" NCoef="0" IVar="8" Cut="-1.2762523889541626e+00" cType="1" res="9.8268777132034302e-02" rms="4.5853206515312195e-01" purity="6.3232034444808960e-01" nType="0">
            <Node pos="l" depth="3" NCoef="0" IVar="-1" Cut="0.0000000000000000e+00" cType="1" res="-5.3776130080223083e-03" rms="4.6411144733428955e-01" purity="3.7775567173957825e-01" nType="-99"/>
            <Node pos="r" depth="3" NCoef="0" IVar="-1" Cut="0.0000000000000000e+00" cType="1" res="3.6415625363588333e-03" rms="4.4927674531936646e-01" purity="6.6451919078826904e-01" nType="-99"/>
          </Node>
          <Node pos="r" depth="2" NCoef="0" IVar="8" Cut="1.8092640638351440e+00" cType="1" res="-1.3906215131282806e-01" rms="4.6252566576004028e-01" purity="3.7240260839462280e-01" nType="0">
            <Node pos="l" depth="3" NCoef="0" IVar="-1" Cut="0.0000000000000000e+00" cType="1" res="-2.6470699813216925e-03" rms="4.7578075528144836e-01" purity="4.4335937500000000e-01" nType="-99"/>
            <Node pos="r" depth="3" NCoef="0" IVar="-1" Cut="0.0000000000000000e+00" cType="1" res="-1.1717553250491619e-02" rms="4.1198888421058655e-01" purity="2.4685379862785339e-01" nType="-99"/>
          </Node>
        </Node>
      </Node>
    </BinaryTree>
    <BinaryTree type="DecisionTree" boostWeight="1.0000000000000000e+00" itree="42">
      <Node pos="s" depth="0" NCoef="0" IVar="1" Cut="4.2850772094726562e+02" cType="1" res="1.3687765225768089e-02" rms="4.6390518546104431e-01" purity="5.0315123796463013e-01" nType="0">
        <Node pos="l" depth="1" NCoef="0" IVar="5" Cut="9.5236747741699219e+01" cType="1" res="-5.1242575049400330e-02" rms="4.6016922593116760e-01" purity="3.9979842305183411e-01" nType="0">
          <Node pos="l" depth="2" NCoef="0" IVar="2" Cut="2.8277963256835938e+02" cType="1" res="-1.3467541337013245e-01" rms="4.2310905456542969e-01" purity="2.5555092096328735e-01" nType="0">
            <Node pos="l" depth="3" NCoef="0" IVar="-1" Cut="0.0000000000000000e+00" cType="1" res="-2.0093291532248259e-03" rms="4.6672740578651428e-01" purity="3.5290417075157166e-01" nType="-99"/>
            <Node pos="r" depth="3" NCoef="0" IVar="-1" Cut="0.0000000000000000e+00" cType="1" res="-4.3584755621850491e-03" rms="3.8507184386253357e-01" purity="1.9356465339660645e-01" nType="-99"/>
          </Node>
          <Node pos="r" depth="2" NCoef="0" IVar="6" Cut="1.2147665023803711e+00" cType="1" res="2.7228068560361862e-02" rms="4.7941485047340393e-01" purity="5.3546679019927979e-01" nType="0">
            <Node pos="l" depth="3" NCoef="0" IVar="-1" Cut="0.0000000000000000e+00" cType="1" res="1.6975360922515392e-03" rms="4.7771826386451721e-01" purity="5.6877869367599487e-01" nType="-99"/>
            <Node pos="r" depth="3" NCoef="0" IVar="-1" Cut="0.0000000000000000e+00" cType="1" res="-1.0350130498409271e-02" rms="4.1216215491294861e-01" purity="2.3544636368751526e-01" nType="-99"/>
          </Node>
        </Node>
        <Node pos="r" depth="1" NCoef="0" IVar="8" Cut="1.1999675035476685e+00" cType="1" res="1.0970561206340790e-01" rms="4.5261391997337341e-01" purity="6.5598750114440918e-01" nType="0">
          <Node pos="l" depth="2" NCoef="0" IVar="8" Cut="-1.4666812419891357e+00" cType="1" res="1.3558015227317810e-01" rms="4.4297701120376587e-01" purity="6.8454992771148682e-01" nType="0">
            <Node pos="l" depth="3" NCoef="0" IVar="-1" Cut="0.0000000000000000e+00" cType="1" res="-4.0768668986856937e-03" rms="4.7355949878692627e-01" purity="4.2360627651214600e-01" nType="-99"/>
            <Node pos="r" depth="3" NCoef="0" IVar="-1" Cut="0.0000000000000000e+00" cType="1" res="4.3768216855823994e-03" rms="4.3395158648490906e-01" purity="7.0768922567367554e-01" nType="-99"/>
          </Node>
          <Node pos="r" depth="2" NCoef="0" IVar="-1" Cut="0.0000000000000000e+00" cType="1" res="-4.0002884343266487e-03" rms="4.7472110390663147e-01" purity="4.2404121160507202e-01" nType="-99"/>
        </Node>
      </Node>
    </BinaryTree>
    <BinaryTree type="DecisionTree" boostWeight="1.0000000000000000e+00" itree="43">
      <Node pos="s" depth="0" NCoef="0" IVar="1" Cut="4.5299722290039062e+02" cType="1" res="9.3295508995652199e-03" rms="4.6304211020469666e-01" purity="4.9804663658142090e-01" nType="0">
        <Node pos="l" depth="1" NCoef="0" IVar="5" Cut="9.8570655822753906e+01" cType="1" res="-4.9049049615859985e-02" rms="4.6037343144416809e-01" purity="4.0628191828727722e-01" nType="0">
          <Node pos="l" depth="2" NCoef="0" IVar="2" Cut="2.9130548095703125e+02" cType="1" res="-1.2454160302877426e-01" rms="4.3095430731773376e-01" purity="2.7238282561302185e-01" nType="0">
            <Node pos="l" depth="3" NCoef="0" IVar="-1" Cut="0.0000000000000000e+00" cType="1" res="-1.5313805779442191e-03" rms="4.7026997804641724e-01" purity="3.6906263232231140e-01" nType="-99"/>
            <Node pos="r" depth="3" NCoef="0" IVar="-1" Cut="0.0000000000000000e+00" cType="1" res="-7.7585335820913315e-03" rms="3.9089784026145935e-01" purity="2.0230656862258911e-01" nType="-99"/>
          </Node>
          <Node pos="r" depth="2" NCoef="0" IVar="6" Cut="-1.1509436368942261e+00" cType="1" res="3.3935107290744781e-02" rms="4.7709214687347412e-01" purity="5.5346864461898804e-01" nType="0">
            <Node pos="l" depth="3" NCoef="0" IVar="-1" Cut="0.0000000000000000e+00" cType="1" res="-8.1204865127801895e-03" rms="4.3566966056823730e-01" purity="2.8488805890083313e-01" nType="-99"/>
            <Node pos="r" depth="3" NCoef="0" IVar="-1" Cut="0.0000000000000000e+00" cType="1" res="1.9715109374374151e-03" rms="4.7414380311965942e-01" purity="5.8761644363403320e-01" nType="-99"/>
          </Node>
        </Node>
        <Node pos="r" depth="1" NCoef="0" IVar="2" Cut="4.0313507080078125e+02" cType="1" res="1.2376854568719864e-01" rms="4.4661128520965576e-01" purity="6.7793208360671997e-01" nType="0">
          <Node pos="l" depth="2" NCoef="0" IVar="0" Cut="1.3285065917968750e+03" cType="1" res="1.9089786708354950e-01" rms="4.0419384837150574e-01" purity="7.6539325714111328e-01" nType="0">
            <Node pos="l" depth="3" NCoef="0" IVar="-1" Cut="0.0000000000000000e+00" cType="1" res="6.9109449395909905e-04" rms="4.8618060350418091e-01" purity="5.3873407840728760e-01" nType="-99"/>
            <Node pos="r" depth="3" NCoef="0" IVar="-1" Cut="0.0000000000000000e+00" cType="1" res="6.1818151734769344e-03" rms="3.5936075448989868e-01" purity="8.3577865362167358e-01" nType="-99"/>
          </Node>
          <Node pos="r" depth="2" NCoef="0" IVar="8" Cut="-9.3338900804519653e-01" cType="1" res="4.3129350990056992e-02" rms="4.8051810264587402e-01" purity="5.7286924123764038e-01" nType="0">
            <Node pos="l" depth="3" NCoef="0" IVar="-1" Cut="0.0000000000000000e+00" cType="1" res="-5.5857491679489613e-03" rms="4.7633668780326843e-01" purity="3.9551785588264465e-01" nType="-99"/>
            <Node pos="r" depth="3" NCoef="0" IVar="-1" Cut="0.0000000000000000e+00" cType="1" res="2.3076543584465981e-03" rms="4.7451967000961304e-01" purity="6.0807371139526367e-01" nType="-99"/>
          </Node>
        </Node>
      </Node>
    </BinaryTree>
    <BinaryTree type="DecisionTree" boostWeight="1.0000000000000000e+00" itree="44">
      <Node pos="s" depth="0" NCoef="0" IVar="5" Cut="1.0906244659423828e+02" cType="1" res="6.8929484114050865e-03" rms="4.6262508630752563e-01" purity="4.9475541710853577e-01" nType="0">
        <Node pos="l" depth="1" NCoef="0" IVar="7" Cut="1.1998432874679565e+00" cType="1" res="-6.4733229577541351e-02" rms="4.5685264468193054e-01" purity="3.7143629789352417e-01" nType="0">
          <Node pos="l" depth="2" NCoef="0" IVar="7" Cut="-1.0855274200439453e+00" cType="1" res="-3.6773066967725754e-02" rms="4.6524247527122498e-01" purity="4.0508639812469482e-01" nType="0">
            <Node pos="l" depth="3" NCoef="0" IVar="-1" Cut="0.0000000000000000e+00" cType="1" res="-9.0230042114853859e-03" rms="3.8178378343582153e-01" purity="1.9895492494106293e-01" nType="-99"/>
            <Node pos="r" depth="3" NCoef="0" IVar="-1" Cut="0.0000000000000000e+00" cType="1" res="4.7565899876644835e-05" rms="4.7420063614845276e-01" purity="4.5278295874595642e-01" nType="-99"/>
          </Node>
          <Node pos="r" depth="2" NCoef="0" IVar="7" Cut="1.8854727745056152e+00" cType="1" res="-2.4292206764221191e-01" rms="3.5025471448898315e-01" purity="1.5698578953742981e-01" nType="0">
            <Node pos="l" depth="3" NCoef="0" IVar="-1" Cut="0.0000000000000000e+00" cType="1" res="-9.2259738594293594e-03" rms="3.8222184777259827e-01" purity="1.9545111060142517e-01" nType="-99"/>
            <Node pos="r" depth="3" NCoef="0" IVar="-1" Cut="0.0000000000000000e+00" cType="1" res="-1.6645481809973717e-02" rms="2.6798099279403687e-01" purity="8.4293805062770844e-02" nType="-99"/>
          </Node>
        </Node>
        <Node pos="r" depth="1" NCoef="0" IVar="7" Cut="1.1998822689056396e+00" cType="1" res="1.0468375682830811e-01" rms="4.5243895053863525e-01" purity="6.6312235593795776e-01" nType="0">
          <Node pos="l" depth="2" NCoef="0" IVar="7" Cut="-1.0857468843460083e+00" cType="1" res="1.2709568440914154e-01" rms="4.4432455301284790e-01" purity="6.8941503763198853e-01" nType="0">
            <Node pos="l" depth="3" NCoef="0" IVar="-1" Cut="0.0000000000000000e+00" cType="1" res="-1.9495988963171840e-03" rms="4.7693911194801331e-01" purity="4.7187498211860657e-01" nType="-99"/>
            <Node pos="r" depth="3" NCoef="0" IVar="-1" Cut="0.0000000000000000e+00" cType="1" res="4.3725366704165936e-03" rms="4.3210399150848389e-01" purity="7.2319740056991577e-01" nType="-99"/>
          </Node>
          <Node pos="r" depth="2" NCoef="0" IVar="-1" Cut="0.0000000000000000e+00" cType="1" res="-5.0799455493688583e-03" rms="4.7084677219390869e-01" purity="3.9612147212028503e-01" nType="-99"/>
        </Node>
      </Node>
    </BinaryTree>
    <BinaryTree type="DecisionTree" boostWeight="1.0000000000000000e+00" itree="45">
      <Node pos="s" depth="0" NCoef="0" IVar="0" Cut="1.1903520507812500e+03" cType="1" res="1.4867393299937248e-02" rms="4.6172127127647400e-01" purity="5.0353318452835083e-01" nType="0">
        <Node pos="l" depth="1" NCoef="0" IVar="6" Cut="-9.1657739877700806e-01" cType="1" res="-1.1733650416135788e-01" rms="4.4208261370658875e-01" purity="2.9868969321250916e-01" nType="0">
          <Node pos="l" depth="2" NCoef="0" IVar="-1" Cut="0.0000000000000000e+00" cType="1" res="-9.8378201946616173e-03" rms="3.5600438714027405e-01" purity="1.5779945254325867e-01" nType="-99"/>
          <Node pos="r" depth="2" NCoef="0" IVar="6" Cut="1.0301129817962646e+00" cType="1" res="-8.8287718594074249e-02" rms="4.5548912882804871e-01" purity="3.3234387636184692e-01" nType="0">
            <Node pos="l" depth="3" NCoef="0" IVar="-1" Cut="0.0000000000000000e+00" cType="1" res="-1.4488822780549526e-03" rms="4.7129499912261963e-01" purity="3.8342550396919250e-01" nType="-99"/>
            <Node pos="r" depth="3" NCoef="0" IVar="-1" Cut="0.0000000000000000e+00" cType="1" res="-1.0049371980130672e-02" rms="3.5868415236473083e-01" purity="1.5681131184101105e-01" nType="-99"/>
          </Node>
        </Node>
        <Node pos="r" depth="1" NCoef="0" IVar="2" Cut="4.0321121215820312e+02" cType="1" res="6.5221726894378662e-02" rms="4.5907998085021973e-01" purity="5.8155477046966553e-01" nType="0">
          <Node pos="l" depth="2" NCoef="0" IVar="0" Cut="1.4018748779296875e+03" cType="1" res="1.5831024944782257e-01" rms="4.3386268615722656e-01" purity="7.0265501737594604e-01" nType="0">
            <Node pos="l" depth="3" NCoef="0" IVar="-1" Cut="0.0000000000000000e+00" cType="1" res="2.2300623822957277e-03" rms="4.7428843379020691e-01" purity="5.8387744426727295e-01" nType="-99"/>
            <Node pos="r" depth="3" NCoef="0" IVar="-1" Cut="0.0000000000000000e+00" cType="1" res="6.1967936344444752e-03" rms="3.7816697359085083e-01" purity="8.1019699573516846e-01" nType="-99"/>
          </Node>
          <Node pos="r" depth="2" NCoef="0" IVar="1" Cut="4.5299591064453125e+02" cType="1" res="-5.4201904684305191e-02" rms="4.6288591623306274e-01" purity="4.2619487643241882e-01" nType="0">
            <Node pos="l" depth="3" NCoef="0" IVar="-1" Cut="0.0000000000000000e+00" cType="1" res="-3.5362814087420702e-03" rms="4.2804646492004395e-01" purity="2.8968790173530579e-01" nType="-99"/>
            <Node pos="r" depth="3" NCoef="0" IVar="-1" Cut="0.0000000000000000e+00" cType="1" res="1.3576727360486984e-03" rms="4.7914567589759827e-01" purity="5.7279366254806519e-01" nType="-99"/>
          </Node>
        </Node>
      </Node>
    </BinaryTree>
    <BinaryTree type="DecisionTree" boostWeight="1.0000000000000000e+00" itree="46">
      <Node pos="s" depth="0" NCoef="0" IVar="0" Cut="1.1316947021484375e+03" cType="1" res="1.0015276260674000e-02" rms="4.6122464537620544e-01" purity="4.9878218770027161e-01" nType="0">
        <Node pos="l" depth="1" NCoef="0" IVar="2" Cut="2.3388401794433594e+02" cType="1" res="-1.3756175339221954e-01" rms="4.3028646707534790e-01" purity="2.6796981692314148e-01" nType="0">
          <Node pos="l" depth="2" NCoef="0" IVar="-1" Cut="0.0000000000000000e+00" cType="1" res="-1.6894318396225572e-03" rms="4.7352233529090881e-01" purity="3.7790077924728394e-01" nType="-99"/>
          <Node pos="r" depth="2" NCoef="0" IVar="1" Cut="3.5402304077148438e+02" cType="1" res="-1.8085964024066925e-01" rms="3.9949882030487061e-01" purity="2.1167324483394623e-01" nType="0">
            <Node pos="l" depth="3" NCoef="0" IVar="-1" Cut="0.0000000000000000e+00" cType="1" res="-7.3342765681445599e-03" rms="3.8066732883453369e-01" purity="1.8533334136009216e-01" nType="-99"/>
            <Node pos="r" depth="3" NCoef="0" IVar="-1" Cut="0.0000000000000000e+00" cType="1" res="-4.8585208132863045e-03" rms="4.2775043845176697e-01" purity="2.5861963629722595e-01" nType="-99"/>
          </Node>
        </Node>
        <Node pos="r" depth="1" NCoef="0" IVar="2" Cut="3.4280462646484375e+02" cType="1" res="4.9026846885681152e-02" rms="4.6123769879341125e-01" purity="5.5979681015014648e-01" nType="0">
          <Node pos="l" depth="2" NCoef="0" IVar="0" Cut="1.3689315185546875e+03" cType="1" res="1.6135367751121521e-01" rms="4.3348771333694458e-01" purity="7.0366185903549194e-01" nType="0">
            <Node pos="l" depth="3" NCoef="0" IVar="-1" Cut="0.0000000000000000e+00" cType="1" res="2.1633778233081102e-03" rms="4.7819662094116211e-01" purity="5.8021497726440430e-01" nType="-99"/>
            <Node pos="r" depth="3" NCoef="0" IVar="-1" Cut="0.0000000000000000e+00" cType="1" res="6.6440552473068237e-03" rms="3.5173079371452332e-01" purity="8.4375381469726562e-01" nType="-99"/>
          </Node>
          <Node pos="r" depth="2" NCoef="0" IVar="0" Cut="1.4474321289062500e+03" cType="1" res="-3.7584859877824783e-02" rms="4.6330809593200684e-01" purity="4.4886699318885803e-01" nType="0">
            <Node pos="l" depth="3" NCoef="0" IVar="-1" Cut="0.0000000000000000e+00" cType="1" res="-6.3026426360011101e-03" rms="4.2467805743217468e-01" purity="2.6899001002311707e-01" nType="-99"/>
            <Node pos="r" depth="3" NCoef="0" IVar="-1" Cut="0.0000000000000000e+00" cType="1" res="3.9198296144604683e-04" rms="4.7109404206275940e-01" purity="5.3326010704040527e-01" nType="-99"/>
          </Node>
        </Node>
      </Node>
    </BinaryTree>
    <BinaryTree type="DecisionTree" boostWeight="1.0000000000000000e+00" itree="47">
      <Node pos="s" depth="0" NCoef="0" IVar="5" Cut="1.1368388366699219e+02" cType="1" res="1.1836924590170383e-02" rms="4.6087637543678284e-01" purity="5.0067728757858276e-01" nType="0">
        <Node pos="l" depth="1" NCoef="0" IVar="7" Cut="1.1999629735946655e+00" cType="1" res="-4.9665912985801697e-02" rms="4.5838281512260437e-01" purity="3.9023661613464355e-01" nType="0">
          <Node pos="l" depth="2" NCoef="0" IVar="7" Cut="-8.9516162872314453e-01" cType="1" res="-2.4633932858705521e-02" rms="4.6558326482772827e-01" purity="4.2181298136711121e-01" nType="0">
            <Node pos="l" depth="3" NCoef="0" IVar="-1" Cut="0.0000000000000000e+00" cType="1" res="-7.8180031850934029e-03" rms="4.0421780943870544e-01" purity="2.3729902505874634e-01" nType="-99"/>
            <Node pos="r" depth="3" NCoef="0" IVar="-1" Cut="0.0000000000000000e+00" cType="1" res="4.8198990407399833e-04" rms="4.7340455651283264e-01" purity="4.7643351554870605e-01" nType="-99"/>
          </Node>
          <Node pos="r" depth="2" NCoef="0" IVar="7" Cut="1.5047316551208496e+00" cType="1" res="-2.1061012148857117e-01" rms="3.7068521976470947e-01" purity="1.8721492588520050e-01" nType="0">
            <Node pos="l" depth="3" NCoef="0" IVar="-1" Cut="0.0000000000000000e+00" cType="1" res="-5.5081401951611042e-03" rms="4.2663028836250305e-01" purity="2.8072506189346313e-01" nType="-99"/>
            <Node pos="r" depth="3" NCoef="0" IVar="-1" Cut="0.0000000000000000e+00" cType="1" res="-1.3318679295480251e-02" rms="3.2346817851066589e-01" purity="1.3221578299999237e-01" nType="-99"/>
          </Node>
        </Node>
        <Node pos="r" depth="1" NCoef="0" IVar="8" Cut="1.1997526884078979e+00" cType="1" res="1.0858821868896484e-01" rms="4.4799742102622986e-01" purity="6.7441368103027344e-01" nType="0">
          <Node pos="l" depth="2" NCoef="0" IVar="8" Cut="-1.2762613296508789e+00" cType="1" res="1.3119928538799286e-01" rms="4.3901762366294861e-01" purity="6.9949692487716675e-01" nType="0">
            <Node pos="l" depth="3" NCoef="0" IVar="-1" Cut="0.0000000000000000e+00" cType="1" res="-4.0712398476898670e-03" rms="4.7542080283164978e-01" purity="4.4308853149414062e-01" nType="-99"/>
            <Node pos="r" depth="3" NCoef="0" IVar="-1" Cut="0.0000000000000000e+00" cType="1" res="4.3309149332344532e-03" rms="4.2724752426147461e-01" purity="7.2736251354217529e-01" nType="-99"/>
          </Node>
          <Node pos="r" depth="2" NCoef="0" IVar="-1" Cut="0.0000000000000000e+00" cType="1" res="-4.1626328602433205e-03" rms="4.7484666109085083e-01" purity="4.3731743097305298e-01" nType="-99"/>
        </Node>
      </Node>
    </BinaryTree>
    <BinaryTree type="DecisionTree" boostWeight="1.0000000000000000e+00" itree="48">
      <Node pos="s" depth="0" NCoef="0" IVar="5" Cut="1.0688733673095703e+02" cType="1" res="7.4309669435024261e-03" rms="4.5980891585350037e-01" purity="4.9479275941848755e-01" nType="0">
        <Node pos="l" depth="1" NCoef="0" IVar="8" Cut="-1.4666765928268433e+00" cType="1" res="-6.3524156808853149e-02" rms="4.5318678021430969e-01" purity="3.6594641208648682e-01" nType="0">
          <Node pos="l" depth="2" NCoef="0" IVar="8" Cut="-1.9111429452896118e+00" cType="1" res="-2.4995499849319458e-01" rms="3.4526753425598145e-01" purity="1.6069616377353668e-01" nType="0">
            <Node pos="l" depth="3" NCoef="0" IVar="-1" Cut="0.0000000000000000e+00" cType="1" res="-1.3036297634243965e-02" rms="3.0409726500511169e-01" purity="1.1754055321216583e-01" nType="-99"/>
            <Node pos="r" depth="3" NCoef="0" IVar="-1" Cut="0.0000000000000000e+00" cType="1" res="-9.9016446620225906e-03" rms="3.7886187434196472e-01" purity="2.0501212775707245e-01" nType="-99"/>
          </Node>
          <Node pos="r" depth="2" NCoef="0" IVar="8" Cut="1.1745699644088745e+00" cType="1" res="-4.1842084378004074e-02" rms="4.5922482013702393e-01" purity="3.8981723785400391e-01" nType="0">
            <Node pos="l" depth="3" NCoef="0" IVar="-1" Cut="0.0000000000000000e+00" cType="1" res="-3.1005000346340239e-04" rms="4.6590164303779602e-01" purity="4.2583978176116943e-01" nType="-99"/>
            <Node pos="r" depth="3" NCoef="0" IVar="-1" Cut="0.0000000000000000e+00" cType="1" res="-9.0411975979804993e-03" rms="3.9143586158752441e-01" purity="2.1974045038223267e-01" nType="-99"/>
          </Node>
        </Node>
        <Node pos="r" depth="1" NCoef="0" IVar="7" Cut="1.1998995542526245e+00" cType="1" res="9.6006132662296295e-02" rms="4.5259383320808411e-01" purity="6.5563499927520752e-01" nType="0">
          <Node pos="l" depth="2" NCoef="0" IVar="7" Cut="-1.0856980085372925e+00" cType="1" res="1.1882866919040680e-01" rms="4.4493865966796875e-01" purity="6.8296658992767334e-01" nType="0">
            <Node pos="l" depth="3" NCoef="0" IVar="-1" Cut="0.0000000000000000e+00" cType="1" res="-2.9370994307100773e-03" rms="4.7393086552619934e-01" purity="4.4460767507553101e-01" nType="-99"/>
            <Node pos="r" depth="3" NCoef="0" IVar="-1" Cut="0.0000000000000000e+00" cType="1" res="4.0991534478962421e-03" rms="4.3282446265220642e-01" purity="7.1815502643585205e-01" nType="-99"/>
          </Node>
          <Node pos="r" depth="2" NCoef="0" IVar="-1" Cut="0.0000000000000000e+00" cType="1" res="-5.1076910458505154e-03" rms="4.6635663509368896e-01" purity="3.9096927642822266e-01" nType="-99"/>
        </Node>
      </Node>
    </BinaryTree>
    <BinaryTree type="DecisionTree" boostWeight="1.0000000000000000e+00" itree="49">
      <Node pos="s" depth="0" NCoef="0" IVar="1" Cut="4.5299798583984375e+02" cType="1" res="1.3413962908089161e-02" rms="4.5931860804557800e-01" purity="5.0113290548324585e-01" nType="0">
        <Node pos="l" depth="1" NCoef="0" IVar="5" Cut="9.9784782409667969e+01" cType="1" res="-3.9043985307216644e-02" rms="4.5788154006004333e-01" purity="4.1266232728958130e-01" nType="0">
          <Node pos="l" depth="2" NCoef="0" IVar="6" Cut="6.7609512805938721e-01" cType="1" res="-1.0747737437486649e-01" rms="4.3167448043823242e-01" purity="2.8066444396972656e-01" nType="0">
            <Node pos="l" depth="3" NCoef="0" IVar="-1" Cut="0.0000000000000000e+00" cType="1" res="-2.6601161807775497e-03" rms="4.4860789179801941e-01" purity="3.2057803869247437e-01" nType="-99"/>
            <Node pos="r" depth="3" NCoef="0" IVar="-1" Cut="0.0000000000000000e+00" cType="1" res="-8.2924226298928261e-03" rms="3.6538100242614746e-01" purity="1.7232982814311981e-01" nType="-99"/>
          </Node>
          <Node pos="r" depth="2" NCoef="0" IVar="2" Cut="4.7367776489257812e+02" cType="1" res="3.9183814078569412e-02" rms="4.7416427731513977e-01" purity="5.6355226039886475e-01" nType="0">
            <Node pos="l" depth="3" NCoef="0" IVar="-1" Cut="0.0000000000000000e+00" cType="1" res="2.2368507925421000e-03" rms="4.6883118152618408e-01" purity="6.0745882987976074e-01" nType="-99"/>
            <Node pos="r" depth="3" NCoef="0" IVar="-1" Cut="0.0000000000000000e+00" cType="1" res="-7.8341430053114891e-03" rms="4.5451638102531433e-01" purity="3.3075782656669617e-01" nType="-99"/>
          </Node>
        </Node>
        <Node pos="r" depth="1" NCoef="0" IVar="2" Cut="4.7992706298828125e+02" cType="1" res="1.1765198409557343e-01" rms="4.4413852691650391e-01" purity="6.7693072557449341e-01" nType="0">
          <Node pos="l" depth="2" NCoef="0" IVar="0" Cut="1.4145263671875000e+03" cType="1" res="1.6935612261295319e-01" rms="4.1280922293663025e-01" purity="7.4530220031738281e-01" nType="0">
            <Node pos="l" depth="3" NCoef="0" IVar="-1" Cut="0.0000000000000000e+00" cType="1" res="1.4392763841897249e-03" rms="4.7412610054016113e-01" purity="5.7570064067840576e-01" nType="-99"/>
            <Node pos="r" depth="3" NCoef="0" IVar="-1" Cut="0.0000000000000000e+00" cType="1" res="5.9453789144754410e-03" rms="3.6813551187515259e-01" purity="8.2296401262283325e-01" nType="-99"/>
          </Node>
          <Node pos="r" depth="2" NCoef="0" IVar="1" Cut="5.9871136474609375e+02" cType="1" res="4.4849612750113010e-03" rms="4.8719963431358337e-01" purity="5.2728319168090820e-01" nType="0">
            <Node pos="l" depth="3" NCoef="0" IVar="-1" Cut="0.0000000000000000e+00" cType="1" res="-3.6272946745157242e-03" rms="4.8246413469314575e-01" purity="4.3037009239196777e-01" nType="-99"/>
            <Node pos="r" depth="3" NCoef="0" IVar="-1" Cut="0.0000000000000000e+00" cType="1" res="2.9493246693164110e-03" rms="4.7418624162673950e-01" purity="6.2821108102798462e-01" nType="-99"/>
          </Node>
        </Node>
      </Node>
    </BinaryTree>
    <BinaryTree type="DecisionTree" boostWeight="1.0000000000000000e+00" itree="50">
      <Node pos="s" depth="0" NCoef="0" IVar="0" Cut="1.1903398437500000e+03" cType="1" res="1.2311723083257675e-02" rms="4.5889371633529663e-01" purity="5.0070858001708984e-01" nType="0">
        <Node pos="l" depth="1" NCoef="0" IVar="2" Cut="2.5598854064941406e+02" cType="1" res="-1.1928467452526093e-01" rms="4.3667450547218323e-01" purity="2.8800749778747559e-01" nType="0">
          <Node pos="l" depth="2" NCoef="0" IVar="0" Cut="1.0230485229492188e+03" cType="1" res="-5.4439857602119446e-02" rms="4.7090542316436768e-01" purity="3.7850970029830933e-01" nType="0">
            <Node pos="l" depth="3" NCoef="0" IVar="-1" Cut="0.0000000000000000e+00" cType="1" res="-5.0287111662328243e-03" rms="4.3010228872299194e-01" purity="2.5683233141899109e-01" nType="-99"/>
            <Node pos="r" depth="3" NCoef="0" IVar="-1" Cut="0.0000000000000000e+00" cType="1" res="4.7586692380718887e-04" rms="4.9194616079330444e-01" purity="4.8094645142555237e-01" nType="-99"/>
          </Node>
          <Node pos="r" depth="2" NCoef="0" IVar="1" Cut="3.6066891479492188e+02" cType="1" res="-1.7145717144012451e-01" rms="3.9947915077209473e-01" purity="2.1519172191619873e-01" nType="0">
            <Node pos="l" depth="3" NCoef="0" IVar="-1" Cut="0.0000000000000000e+00" cType="1" res="-7.5564170256257057e-03" rms="3.7281456589698792e-01" purity="1.7891740798950195e-01" nType="-99"/>
            <Node pos="r" depth="3" NCoef="0" IVar="-1" Cut="0.0000000000000000e+00" cType="1" res="-3.9728214032948017e-03" rms="4.3759849667549133e-01" purity="2.8059816360473633e-01" nType="-99"/>
          </Node>
        </Node>
        <Node pos="r" depth="1" NCoef="0" IVar="2" Cut="4.0313281250000000e+02" cType="1" res="6.1903469264507294e-02" rms="4.5727106928825378e-01" purity="5.8086442947387695e-01" nType="0">
          <Node pos="l" depth="2" NCoef="0" IVar="6" Cut="1.2137776613235474e+00" cType="1" res="1.4982907474040985e-01" rms="4.3337032198905945e-01" purity="6.9959229230880737e-01" nType="0">
            <Node pos="l" depth="3" NCoef="0" IVar="-1" Cut="0.0000000000000000e+00" cType="1" res="4.7377254813909531e-03" rms="4.2311459779739380e-01" purity="7.2604084014892578e-01" nType="-99"/>
            <Node pos="r" depth="3" NCoef="0" IVar="-1" Cut="0.0000000000000000e+00" cType="1" res="-3.2170219346880913e-03" rms="4.6688693761825562e-01" purity="4.1813287138938904e-01" nType="-99"/>
          </Node>
          <Node pos="r" depth="2" NCoef="0" IVar="0" Cut="1.5620822753906250e+03" cType="1" res="-5.3046498447656631e-02" rms="4.6217522025108337e-01" purity="4.2564493417739868e-01" nType="0">
            <Node pos="l" depth="3" NCoef="0" IVar="-1" Cut="0.0000000000000000e+00" cType="1" res="-8.1536918878555298e-03" rms="4.1326195001602173e-01" purity="2.4517694115638733e-01" nType="-99"/>
            <Node pos="r" depth="3" NCoef="0" IVar="-1" Cut="0.0000000000000000e+00" cType="1" res="4.4731830712407827e-04" rms="4.7613897919654846e-01" purity="5.3033459186553955e-01" nType="-99"/>
          </Node>
        </Node>
      </Node>
    </BinaryTree>
    <BinaryTree type="DecisionTree" boostWeight="1.0000000000000000e+00" itree="51">
      <Node pos="s" depth="0" NCoef="0" IVar="5" Cut="1.0723166656494141e+02" cType="1" res="1.0937956161797047e-02" rms="4.5877704024314880e-01" purity="4.9773871898651123e-01" nType="0">
        <Node pos="l" depth="1" NCoef="0" IVar="7" Cut="-1.1997843980789185e+00" cType="1" res="-5.2692290395498276e-02" rms="4.5426750183105469e-01" purity="3.7423640489578247e-01" nType="0">
          <Node pos="l" depth="2" NCoef="0" IVar="1" Cut="3.9600689697265625e+02" cType="1" res="-2.0824331045150757e-01" rms="3.6050409078598022e-01" purity="1.7464129626750946e-01" nType="0">
            <Node pos="l" depth="3" NCoef="0" IVar="-1" Cut="0.0000000000000000e+00" cType="1" res="-1.1692960746586323e-02" rms="3.0377447605133057e-01" purity="1.0802935063838959e-01" nType="-99"/>
            <Node pos="r" depth="3" NCoef="0" IVar="-1" Cut="0.0000000000000000e+00" cType="1" res="-7.0828562602400780e-03" rms="4.3151283264160156e-01" purity="2.8297683596611023e-01" nType="-99"/>
          </Node>
          <Node pos="r" depth="2" NCoef="0" IVar="7" Cut="8.9527308940887451e-01" cType="1" res="-2.7602208778262138e-02" rms="4.6276253461837769e-01" purity="4.0643072128295898e-01" nType="0">
            <Node pos="l" depth="3" NCoef="0" IVar="-1" Cut="0.0000000000000000e+00" cType="1" res="4.4224469456821680e-04" rms="4.7284388542175293e-01" purity="4.5957940816879272e-01" nType="-99"/>
            <Node pos="r" depth="3" NCoef="0" IVar="-1" Cut="0.0000000000000000e+00" cType="1" res="-6.7047411575913429e-03" rms="4.0155640244483948e-01" purity="2.3727570474147797e-01" nType="-99"/>
          </Node>
        </Node>
        <Node pos="r" depth="1" NCoef="0" IVar="6" Cut="-1.1323057413101196e+00" cType="1" res="9.2168852686882019e-02" rms="4.5162540674209595e-01" purity="6.5540277957916260e-01" nType="0">
          <Node pos="l" depth="2" NCoef="0" IVar="-1" Cut="0.0000000000000000e+00" cType="1" res="-4.5956233516335487e-03" rms="4.6440842747688293e-01" purity="3.9168405532836914e-01" nType="-99"/>
          <Node pos="r" depth="2" NCoef="0" IVar="6" Cut="1.1143218278884888e+00" cType="1" res="1.1553516238927841e-01" rms="4.4393119215965271e-01" purity="6.8370139598846436e-01" nType="0">
            <Node pos="l" depth="3" NCoef="0" IVar="-1" Cut="0.0000000000000000e+00" cType="1" res="4.1565899737179279e-03" rms="4.3184986710548401e-01" purity="7.1887648105621338e-01" nType="-99"/>
            <Node pos="r" depth="3" NCoef="0" IVar="-1" Cut="0.0000000000000000e+00" cType="1" res="-3.5533956252038479e-03" rms="4.7230911254882812e-01" purity="4.2689830064773560e-01" nType="-99"/>
          </Node>
        </Node>
      </Node>
    </BinaryTree>
    <BinaryTree type="DecisionTree" boostWeight="1.0000000000000000e+00" itree="52">
      <Node pos="s" depth="0" NCoef="0" IVar="0" Cut="1.1285432128906250e+03" cType="1" res="1.0625786148011684e-02" rms="4.5733091235160828e-01" purity="4.9828895926475525e-01" nType="0">
        <Node pos="l" depth="1" NCoef="0" IVar="6" Cut="6.9907623529434204e-01" cType="1" res="-1.3807019591331482e-01" rms="4.2280626296997070e-01" purity="2.5484195351600647e-01" nType="0">
          <Node pos="l" depth="2" NCoef="0" IVar="6" Cut="-7.6351374387741089e-01" cType="1" res="-1.0647390782833099e-01" rms="4.4125106930732727e-01" purity="2.9228743910789490e-01" nType="0">
            <Node pos="l" depth="3" NCoef="0" IVar="-1" Cut="0.0000000000000000e+00" cType="1" res="-8.2246689125895500e-03" rms="3.7713170051574707e-01" purity="1.8200922012329102e-01" nType="-99"/>
            <Node pos="r" depth="3" NCoef="0" IVar="-1" Cut="0.0000000000000000e+00" cType="1" res="-2.0921651739627123e-03" rms="4.6351557970046997e-01" purity="3.4706246852874756e-01" nType="-99"/>
          </Node>
          <Node pos="r" depth="2" NCoef="0" IVar="-1" Cut="0.0000000000000000e+00" cType="1" res="-8.1433886662125587e-03" rms="3.5721847414970398e-01" purity="1.5684351325035095e-01" nType="-99"/>
        </Node>
        <Node pos="r" depth="1" NCoef="0" IVar="2" Cut="3.7131823730468750e+02" cType="1" res="4.8452142626047134e-02" rms="4.5806771516799927e-01" purity="5.6021875143051147e-01" nType="0">
          <Node pos="l" depth="2" NCoef="0" IVar="0" Cut="1.4308548583984375e+03" cType="1" res="1.3855481147766113e-01" rms="4.3776759505271912e-01" purity="6.8193864822387695e-01" nType="0">
            <Node pos="l" depth="3" NCoef="0" IVar="-1" Cut="0.0000000000000000e+00" cType="1" res="2.0491606555879116e-03" rms="4.7248679399490356e-01" purity="5.8035373687744141e-01" nType="-99"/>
            <Node pos="r" depth="3" NCoef="0" IVar="-1" Cut="0.0000000000000000e+00" cType="1" res="6.3847624696791172e-03" rms="3.4939065575599670e-01" purity="8.4457695484161377e-01" nType="-99"/>
          </Node>
          <Node pos="r" depth="2" NCoef="0" IVar="1" Cut="4.3640145874023438e+02" cType="1" res="-4.9155455082654953e-02" rms="4.5956978201866150e-01" purity="4.2836052179336548e-01" nType="0">
            <Node pos="l" depth="3" NCoef="0" IVar="-1" Cut="0.0000000000000000e+00" cType="1" res="-6.2736780382692814e-03" rms="4.2637404799461365e-01" purity="2.9389429092407227e-01" nType="-99"/>
            <Node pos="r" depth="3" NCoef="0" IVar="-1" Cut="0.0000000000000000e+00" cType="1" res="1.0434025898575783e-03" rms="4.7671401500701904e-01" purity="5.6244516372680664e-01" nType="-99"/>
          </Node>
        </Node>
      </Node>
    </BinaryTree>
    <BinaryTree type="DecisionTree" boostWeight="1.0000000000000000e+00" itree="53">
      <Node pos="s" depth="0" NCoef="0" IVar="0" Cut="1.1903264160156250e+03" cType="1" res="1.0029354132711887e-02" rms="4.5715031027793884e-01" purity="4.9667632579803467e-01" nType="0">
        <Node pos="l" depth="1" NCoef="0" IVar="6" Cut="9.4981169700622559e-01" cType="1" res="-1.1145578324794769e-01" rms="4.3637293577194214e-01" purity="2.9060694575309753e-01" nType="0">
          <Node pos="l" depth="2" NCoef="0" IVar="6" Cut="-8.1206083297729492e-01" cType="1" res="-7.9805269837379456e-02" rms="4.5166927576065063e-01" purity="3.2859581708908081e-01" nType="0">
            <Node pos="l" depth="3" NCoef="0" IVar="-1" Cut="0.0000000000000000e+00" cType="1" res="-8.7584732100367546e-03" rms="3.6920663714408875e-01" purity="1.6953665018081665e-01" nType="-99"/>
            <Node pos="r" depth="3" NCoef="0" IVar="-1" Cut="0.0000000000000000e+00" cType="1" res="-9.6555269556120038e-04" rms="4.6998861432075500e-01" purity="3.8964468240737915e-01" nType="-99"/>
          </Node>
          <Node pos="r" depth="2" NCoef="0" IVar="-1" Cut="0.0000000000000000e+00" cType="1" res="-9.9681867286562920e-03" rms="3.3952355384826660e-01" purity="1.3735090196132660e-01" nType="-99"/>
        </Node>
        <Node pos="r" depth="1" NCoef="0" IVar="2" Cut="4.0317947387695312e+02" cType="1" res="5.6614350527524948e-02" rms="4.5637249946594238e-01" purity="5.7569622993469238e-01" nType="0">
          <Node pos="l" depth="2" NCoef="0" IVar="6" Cut="9.3513113260269165e-01" cType="1" res="1.4280165731906891e-01" rms="4.3420994281768799e-01" purity="6.9534456729888916e-01" nType="0">
            <Node pos="l" depth="3" NCoef="0" IVar="-1" Cut="0.0000000000000000e+00" cType="1" res="4.7398284077644348e-03" rms="4.2017504572868347e-01" purity="7.3039132356643677e-01" nType="-99"/>
            <Node pos="r" depth="3" NCoef="0" IVar="-1" Cut="0.0000000000000000e+00" cType="1" res="-9.6696871332824230e-04" rms="4.7241804003715515e-01" purity="4.9165359139442444e-01" nType="-99"/>
          </Node>
          <Node pos="r" depth="2" NCoef="0" IVar="1" Cut="5.5700976562500000e+02" cType="1" res="-5.2873481065034866e-02" rms="4.6035355329513550e-01" purity="4.2370113730430603e-01" nType="0">
            <Node pos="l" depth="3" NCoef="0" IVar="-1" Cut="0.0000000000000000e+00" cType="1" res="-4.4181854464113712e-03" rms="4.4599190354347229e-01" purity="3.5073184967041016e-01" nType="-99"/>
            <Node pos="r" depth="3" NCoef="0" IVar="-1" Cut="0.0000000000000000e+00" cType="1" res="2.5887936353683472e-03" rms="4.7070005536079407e-01" purity="6.2549960613250732e-01" nType="-99"/>
          </Node>
        </Node>
      </Node>
    </BinaryTree>
    <BinaryTree type="DecisionTree" boostWeight="1.0000000000000000e+00" itree="54">
      <Node pos="s" depth="0" NCoef="0" IVar="5" Cut="1.2027858734130859e+02" cType="1" res="1.2125375680625439e-02" rms="4.5692059397697449e-01" purity="4.9934339523315430e-01" nType="0">
        <Node pos="l" depth="1" NCoef="0" IVar="6" Cut="-9.2584341764450073e-01" cType="1" res="-3.7739165127277374e-02" rms="4.5655179023742676e-01" purity="4.0612873435020447e-01" nType="0">
          <Node pos="l" depth="2" NCoef="0" IVar="6" Cut="-1.5467652082443237e+00" cType="1" res="-1.8242689967155457e-01" rms="3.9666524529457092e-01" purity="2.3152872920036316e-01" nType="0">
            <Node pos="l" depth="3" NCoef="0" IVar="-1" Cut="0.0000000000000000e+00" cType="1" res="-1.1000718921422958e-02" rms="3.4743586182594299e-01" purity="1.6059604287147522e-01" nType="-99"/>
            <Node pos="r" depth="3" NCoef="0" IVar="-1" Cut="0.0000000000000000e+00" cType="1" res="-5.9500643983483315e-03" rms="4.1792854666709900e-01" purity="2.7101951837539673e-01" nType="-99"/>
          </Node>
          <Node pos="r" depth="2" NCoef="0" IVar="6" Cut="1.0256286859512329e+00" cType="1" res="-7.4859727174043655e-03" rms="4.6241852641105652e-01" purity="4.4263637065887451e-01" nType="0">
            <Node pos="l" depth="3" NCoef="0" IVar="-1" Cut="0.0000000000000000e+00" cType="1" res="1.1242823675274849e-03" rms="4.6832725405693054e-01" purity="4.9525833129882812e-01" nType="-99"/>
            <Node pos="r" depth="3" NCoef="0" IVar="-1" Cut="0.0000000000000000e+00" cType="1" res="-7.6004122383892536e-03" rms="3.8653412461280823e-01" purity="2.1727888286113739e-01" nType="-99"/>
          </Node>
        </Node>
        <Node pos="r" depth="1" NCoef="0" IVar="8" Cut="-1.1997814178466797e+00" cType="1" res="1.1238594353199005e-01" rms="4.4091063737869263e-01" purity="6.8676614761352539e-01" nType="0">
          <Node pos="l" depth="2" NCoef="0" IVar="-1" Cut="0.0000000000000000e+00" cType="1" res="-3.9641107432544231e-03" rms="4.7104805707931519e-01" purity="4.5290541648864746e-01" nType="-99"/>
          <Node pos="r" depth="2" NCoef="0" IVar="8" Cut="1.0857193470001221e+00" cType="1" res="1.3520047068595886e-01" rms="4.3137007951736450e-01" purity="7.1183854341506958e-01" nType="0">
            <Node pos="l" depth="3" NCoef="0" IVar="-1" Cut="0.0000000000000000e+00" cType="1" res="4.6063074842095375e-03" rms="4.1638842225074768e-01" purity="7.4500167369842529e-01" nType="-99"/>
            <Node pos="r" depth="3" NCoef="0" IVar="-1" Cut="0.0000000000000000e+00" cType="1" res="-2.6265732012689114e-03" rms="4.7570887207984924e-01" purity="4.8504164814949036e-01" nType="-99"/>
          </Node>
        </Node>
      </Node>
    </BinaryTree>
    <BinaryTree type="DecisionTree" boostWeight="1.0000000000000000e+00" itree="55">
      <Node pos="s" depth="0" NCoef="0" IVar="0" Cut="1.1903398437500000e+03" cType="1" res="1.2855201028287411e-02" rms="4.5514538884162903e-01" purity="5.0030648708343506e-01" nType="0">
        <Node pos="l" depth="1" NCoef="0" IVar="2" Cut="2.3667259216308594e+02" cType="1" res="-1.1009218543767929e-01" rms="4.3436557054519653e-01" purity="2.9036557674407959e-01" nType="0">
          <Node pos="l" depth="2" NCoef="0" IVar="-1" Cut="0.0000000000000000e+00" cType="1" res="-6.9554999936372042e-04" rms="4.7335729002952576e-01" purity="4.0932473540306091e-01" nType="-99"/>
          <Node pos="r" depth="2" NCoef="0" IVar="7" Cut="-6.6707652807235718e-01" cType="1" res="-1.5162035822868347e-01" rms="4.0830281376838684e-01" purity="2.3474282026290894e-01" nType="0">
            <Node pos="l" depth="3" NCoef="0" IVar="-1" Cut="0.0000000000000000e+00" cType="1" res="-8.7400479242205620e-03" rms="3.4604930877685547e-01" purity="1.5458160638809204e-01" nType="-99"/>
            <Node pos="r" depth="3" NCoef="0" IVar="-1" Cut="0.0000000000000000e+00" cType="1" res="-4.4782171025872231e-03" rms="4.2842778563499451e-01" purity="2.6762005686759949e-01" nType="-99"/>
          </Node>
        </Node>
        <Node pos="r" depth="1" NCoef="0" IVar="2" Cut="4.0315188598632812e+02" cType="1" res="6.0126628726720810e-02" rms="4.5411187410354614e-01" purity="5.8102560043334961e-01" nType="0">
          <Node pos="l" depth="2" NCoef="0" IVar="0" Cut="1.3933685302734375e+03" cType="1" res="1.4293245971202850e-01" rms="4.3247279524803162e-01" purity="6.9853711128234863e-01" nType="0">
            <Node pos="l" depth="3" NCoef="0" IVar="-1" Cut="0.0000000000000000e+00" cType="1" res="1.9236539956182241e-03" rms="4.7336065769195557e-01" purity="5.8092832565307617e-01" nType="-99"/>
            <Node pos="r" depth="3" NCoef="0" IVar="-1" Cut="0.0000000000000000e+00" cType="1" res="5.7959337718784809e-03" rms="3.7920102477073669e-01" purity="8.0462753772735596e-01" nType="-99"/>
          </Node>
          <Node pos="r" depth="2" NCoef="0" IVar="0" Cut="1.5620584716796875e+03" cType="1" res="-4.6905744820833206e-02" rms="4.5901697874069214e-01" purity="4.2913368344306946e-01" nType="0">
            <Node pos="l" depth="3" NCoef="0" IVar="-1" Cut="0.0000000000000000e+00" cType="1" res="-7.8374855220317841e-03" rms="4.0551376342773438e-01" purity="2.3766654729843140e-01" nType="-99"/>
            <Node pos="r" depth="3" NCoef="0" IVar="-1" Cut="0.0000000000000000e+00" cType="1" res="7.1124947862699628e-04" rms="4.7399470210075378e-01" purity="5.3819221258163452e-01" nType="-99"/>
          </Node>
        </Node>
      </Node>
    </BinaryTree>
    <BinaryTree type="DecisionTree" boostWeight="1.0000000000000000e+00" itree="56">
      <Node pos="s" depth="0" NCoef="0" IVar="1" Cut="4.6515139770507812e+02" cType="1" res="7.6977615244686604e-03" rms="4.5551201701164246e-01" purity="4.9396467208862305e-01" nType="0">
        <Node pos="l" depth="1" NCoef="0" IVar="6" Cut="9.3673843145370483e-01" cType="1" res="-3.7207644432783127e-02" rms="4.5427271723747253e-01" purity="4.1362252831459045e-01" nType="0">
          <Node pos="l" depth="2" NCoef="0" IVar="6" Cut="-8.3723598718643188e-01" cType="1" res="-6.8124430254101753e-03" rms="4.6009817719459534e-01" purity="4.5261603593826294e-01" nType="0">
            <Node pos="l" depth="3" NCoef="0" IVar="-1" Cut="0.0000000000000000e+00" cType="1" res="-7.0435311645269394e-03" rms="4.0654256939888000e-01" purity="2.5457158684730530e-01" nType="-99"/>
            <Node pos="r" depth="3" NCoef="0" IVar="-1" Cut="0.0000000000000000e+00" cType="1" res="1.0767014464363456e-03" rms="4.6481698751449585e-01" purity="5.1428282260894775e-01" nType="-99"/>
          </Node>
          <Node pos="r" depth="2" NCoef="0" IVar="6" Cut="1.3802322149276733e+00" cType="1" res="-1.7779465019702911e-01" rms="3.9710012078285217e-01" purity="2.3326565325260162e-01" nType="0">
            <Node pos="l" depth="3" NCoef="0" IVar="-1" Cut="0.0000000000000000e+00" cType="1" res="-4.9287872388958931e-03" rms="4.3405172228813171e-01" purity="3.0445590615272522e-01" nType="-99"/>
            <Node pos="r" depth="3" NCoef="0" IVar="-1" Cut="0.0000000000000000e+00" cType="1" res="-9.5217367634177208e-03" rms="3.4955024719238281e-01" purity="1.6504608094692230e-01" nType="-99"/>
          </Node>
        </Node>
        <Node pos="r" depth="1" NCoef="0" IVar="2" Cut="3.7131597900390625e+02" cType="1" res="1.1012785136699677e-01" rms="4.4155570864677429e-01" purity="6.7722660303115845e-01" nType="0">
          <Node pos="l" depth="2" NCoef="0" IVar="0" Cut="1.3963944091796875e+03" cType="1" res="1.8578374385833740e-01" rms="3.8955485820770264e-01" purity="7.8373980522155762e-01" nType="0">
            <Node pos="l" depth="3" NCoef="0" IVar="-1" Cut="0.0000000000000000e+00" cType="1" res="2.0843900274485350e-03" rms="4.6904569864273071e-01" purity="6.1323380470275879e-01" nType="-99"/>
            <Node pos="r" depth="3" NCoef="0" IVar="-1" Cut="0.0000000000000000e+00" cType="1" res="6.4296512864530087e-03" rms="3.2463744282722473e-01" purity="8.7197780609130859e-01" nType="-99"/>
          </Node>
          <Node pos="r" depth="2" NCoef="0" IVar="5" Cut="1.2029392242431641e+02" cType="1" res="4.3526336550712585e-02" rms="4.7280335426330566e-01" purity="5.8346074819564819e-01" nType="0">
            <Node pos="l" depth="3" NCoef="0" IVar="-1" Cut="0.0000000000000000e+00" cType="1" res="-4.2952442890964448e-04" rms="4.8458322882652283e-01" purity="4.9528491497039795e-01" nType="-99"/>
            <Node pos="r" depth="3" NCoef="0" IVar="-1" Cut="0.0000000000000000e+00" cType="1" res="3.6136379931122065e-03" rms="4.4462311267852783e-01" purity="7.0568174123764038e-01" nType="-99"/>
          </Node>
        </Node>
      </Node>
    </BinaryTree>
    <BinaryTree type="DecisionTree" boostWeight="1.0000000000000000e+00" itree="57">
      <Node pos="s" depth="0" NCoef="0" IVar="1" Cut="4.5299722290039062e+02" cType="1" res="8.7843034416437149e-03" rms="4.5449876785278320e-01" purity="4.9574482440948486e-01" nType="0">
        <Node pos="l" depth="1" NCoef="0" IVar="6" Cut="-9.1657739877700806e-01" cType="1" res="-4.0721189230680466e-02" rms="4.5228800177574158e-01" purity="4.0662926435470581e-01" nType="0">
          <Node pos="l" depth="2" NCoef="0" IVar="6" Cut="-1.4474790096282959e+00" cType="1" res="-1.8641518056392670e-01" rms="3.8866502046585083e-01" purity="2.2334039211273193e-01" nType="0">
            <Node pos="l" depth="3" NCoef="0" IVar="-1" Cut="0.0000000000000000e+00" cType="1" res="-1.2171792797744274e-02" rms="3.2819408178329468e-01" purity="1.3895049691200256e-01" nType="-99"/>
            <Node pos="r" depth="3" NCoef="0" IVar="-1" Cut="0.0000000000000000e+00" cType="1" res="-5.5579189211130142e-03" rms="4.2225274443626404e-01" purity="2.8921583294868469e-01" nType="-99"/>
          </Node>
          <Node pos="r" depth="2" NCoef="0" IVar="6" Cut="1.2070380449295044e+00" cType="1" res="-9.2408992350101471e-03" rms="4.5885464549064636e-01" purity="4.4623276591300964e-01" nType="0">
            <Node pos="l" depth="3" NCoef="0" IVar="-1" Cut="0.0000000000000000e+00" cType="1" res="8.3547778194770217e-04" rms="4.6454429626464844e-01" purity="4.9211150407791138e-01" nType="-99"/>
            <Node pos="r" depth="3" NCoef="0" IVar="-1" Cut="0.0000000000000000e+00" cType="1" res="-9.5157409086823463e-03" rms="3.6350500583648682e-01" purity="1.8014289438724518e-01" nType="-99"/>
          </Node>
        </Node>
        <Node pos="r" depth="1" NCoef="0" IVar="2" Cut="3.7131118774414062e+02" cType="1" res="1.0622738301753998e-01" rms="4.4294005632400513e-01" purity="6.7115348577499390e-01" nType="0">
          <Node pos="l" depth="2" NCoef="0" IVar="0" Cut="1.3283476562500000e+03" cType="1" res="1.8843683600425720e-01" rms="3.8774457573890686e-01" purity="7.8441816568374634e-01" nType="0">
            <Node pos="l" depth="3" NCoef="0" IVar="-1" Cut="0.0000000000000000e+00" cType="1" res="1.1467911535874009e-03" rms="4.7899469733238220e-01" purity="5.6025969982147217e-01" nType="-99"/>
            <Node pos="r" depth="3" NCoef="0" IVar="-1" Cut="0.0000000000000000e+00" cType="1" res="6.2090652063488960e-03" rms="3.3743923902511597e-01" purity="8.5898518562316895e-01" nType="-99"/>
          </Node>
          <Node pos="r" depth="2" NCoef="0" IVar="7" Cut="9.3351793289184570e-01" cType="1" res="2.8465494513511658e-02" rms="4.7657713294029236e-01" purity="5.6401652097702026e-01" nType="0">
            <Node pos="l" depth="3" NCoef="0" IVar="-1" Cut="0.0000000000000000e+00" cType="1" res="1.8746049609035254e-03" rms="4.7311052680015564e-01" purity="5.9963798522949219e-01" nType="-99"/>
            <Node pos="r" depth="3" NCoef="0" IVar="-1" Cut="0.0000000000000000e+00" cType="1" res="-6.9758580066263676e-03" rms="4.5959344506263733e-01" purity="3.6359432339668274e-01" nType="-99"/>
          </Node>
        </Node>
      </Node>
    </BinaryTree>
    <BinaryTree type="DecisionTree" boostWeight="1.0000000000000000e+00" itree="58">
      <Node pos="s" depth="0" NCoef="0" IVar="0" Cut="1.1903398437500000e+03" cType="1" res="1.2244884856045246e-02" rms="4.5469218492507935e-01" purity="4.9840977787971497e-01" nType="0">
        <Node pos="l" depth="1" NCoef="0" IVar="2" Cut="2.3597627258300781e+02" cType="1" res="-9.9991448223590851e-02" rms="4.3667587637901306e-01" purity="2.9625549912452698e-01" nType="0">
          <Node pos="l" depth="2" NCoef="0" IVar="-1" Cut="0.0000000000000000e+00" cType="1" res="-2.6666212943382561e-04" rms="4.7479093074798584e-01" purity="4.1912961006164551e-01" nType="-99"/>
          <Node pos="r" depth="2" NCoef="0" IVar="2" Cut="3.0107150268554688e+02" cType="1" res="-1.4224256575107574e-01" rms="4.1116800904273987e-01" purity="2.3982658982276917e-01" nType="0">
            <Node pos="l" depth="3" NCoef="0" IVar="-1" Cut="0.0000000000000000e+00" cType="1" res="-3.6021498963236809e-03" rms="4.4511407613754272e-01" purity="3.0045261979103088e-01" nType="-99"/>
            <Node pos="r" depth="3" NCoef="0" IVar="-1" Cut="0.0000000000000000e+00" cType="1" res="-8.0344518646597862e-03" rms="3.5761678218841553e-01" purity="1.6267919540405273e-01" nType="-99"/>
          </Node>
        </Node>
        <Node pos="r" depth="1" NCoef="0" IVar="2" Cut="4.0319674682617188e+02" cType="1" res="5.4454218596220016e-02" rms="4.5416447520256042e-01" purity="5.7443505525588989e-01" nType="0">
          <Node pos="l" depth="2" NCoef="0" IVar="0" Cut="1.4018670654296875e+03" cType="1" res="1.3947664201259613e-01" rms="4.3316224217414856e-01" purity="6.9611281156539917e-01" nType="0">
            <Node pos="l" depth="3" NCoef="0" IVar="-1" Cut="0.0000000000000000e+00" cType="1" res="2.0301498007029295e-03" rms="4.7292730212211609e-01" purity="5.8256936073303223e-01" nType="-99"/>
            <Node pos="r" depth="3" NCoef="0" IVar="-1" Cut="0.0000000000000000e+00" cType="1" res="5.5530811659991741e-03" rms="3.8062834739685059e-01" purity="8.0285823345184326e-01" nType="-99"/>
          </Node>
          <Node pos="r" depth="2" NCoef="0" IVar="1" Cut="6.0599029541015625e+02" cType="1" res="-5.5765151977539062e-02" rms="4.5706090331077576e-01" purity="4.1669726371765137e-01" nType="0">
            <Node pos="l" depth="3" NCoef="0" IVar="-1" Cut="0.0000000000000000e+00" cType="1" res="-2.7137943543493748e-03" rms="4.4486957788467407e-01" purity="3.5508897900581360e-01" nType="-99"/>
            <Node pos="r" depth="3" NCoef="0" IVar="-1" Cut="0.0000000000000000e+00" cType="1" res="3.2947275321930647e-03" rms="4.6491041779518127e-01" purity="6.5259236097335815e-01" nType="-99"/>
          </Node>
        </Node>
      </Node>
    </BinaryTree>
    <BinaryTree type="DecisionTree" boostWeight="1.0000000000000000e+00" itree="59">
      <Node pos="s" depth="0" NCoef="0" IVar="0" Cut="1.1285310058593750e+03" cType="1" res="1.1377984657883644e-02" rms="4.5387998223304749e-01" purity="4.9755287170410156e-01" nType="0">
        <Node pos="l" depth="1" NCoef="0" IVar="2" Cut="2.5274098205566406e+02" cType="1" res="-1.2819001078605652e-01" rms="4.2137530446052551e-01" purity="2.5391796231269836e-01" nType="0">
          <Node pos="l" depth="2" NCoef="0" IVar="-1" Cut="0.0000000000000000e+00" cType="1" res="-2.6429751887917519e-03" rms="4.5885553956031799e-01" purity="3.3573725819587708e-01" nType="-99"/>
          <Node pos="r" depth="2" NCoef="0" IVar="2" Cut="2.9794915771484375e+02" cType="1" res="-1.7754983901977539e-01" rms="3.7860798835754395e-01" purity="1.8198336660861969e-01" nType="0">
            <Node pos="l" depth="3" NCoef="0" IVar="-1" Cut="0.0000000000000000e+00" cType="1" res="-6.0327728278934956e-03" rms="4.0838268399238586e-01" purity="2.1945795416831970e-01" nType="-99"/>
            <Node pos="r" depth="3" NCoef="0" IVar="-1" Cut="0.0000000000000000e+00" cType="1" res="-7.1097132749855518e-03" rms="3.4924560785293579e-01" purity="1.4845535159111023e-01" nType="-99"/>
          </Node>
        </Node>
        <Node pos="r" depth="1" NCoef="0" IVar="2" Cut="3.7131823730468750e+02" cType="1" res="4.6760007739067078e-02" rms="4.5500475168228149e-01" purity="5.5931699275970459e-01" nType="0">
          <Node pos="l" depth="2" NCoef="0" IVar="0" Cut="1.3164251708984375e+03" cType="1" res="1.2909905612468719e-01" rms="4.3714830279350281e-01" purity="6.7745572328567505e-01" nType="0">
            <Node pos="l" depth="3" NCoef="0" IVar="-1" Cut="0.0000000000000000e+00" cType="1" res="1.0483665391802788e-03" rms="4.7973760962486267e-01" purity="5.2341175079345703e-01" nType="-99"/>
            <Node pos="r" depth="3" NCoef="0" IVar="-1" Cut="0.0000000000000000e+00" cType="1" res="5.3932061418890953e-03" rms="3.8898780941963196e-01" purity="7.8998589515686035e-01" nType="-99"/>
          </Node>
          <Node pos="r" depth="2" NCoef="0" IVar="1" Cut="5.5701391601562500e+02" cType="1" res="-3.9824668318033218e-02" rms="4.5733490586280823e-01" purity="4.3508678674697876e-01" nType="0">
            <Node pos="l" depth="3" NCoef="0" IVar="-1" Cut="0.0000000000000000e+00" cType="1" res="-3.4905155189335346e-03" rms="4.4631999731063843e-01" purity="3.6878508329391479e-01" nType="-99"/>
            <Node pos="r" depth="3" NCoef="0" IVar="-1" Cut="0.0000000000000000e+00" cType="1" res="2.8209707234054804e-03" rms="4.6515652537345886e-01" purity="6.4283353090286255e-01" nType="-99"/>
          </Node>
        </Node>
      </Node>
    </BinaryTree>
    <BinaryTree type="DecisionTree" boostWeight="1.0000000000000000e+00" itree="60">
      <Node pos="s" depth="0" NCoef="0" IVar="8" Cut="1.1999346017837524e+00" cType="1" res="1.5585441142320633e-02" rms="4.5400601625442505e-01" purity="5.0188404321670532e-01" nType="0">
        <Node pos="l" depth="1" NCoef="0" IVar="8" Cut="-1.4666674137115479e+00" cType="1" res="4.1197583079338074e-02" rms="4.5331004261970520e-01" purity="5.3296267986297607e-01" nType="0">
          <Node pos="l" depth="2" NCoef="0" IVar="8" Cut="-1.7841325998306274e+00" cType="1" res="-1.8639071285724640e-01" rms="4.0060132741928101e-01" purity="2.5283324718475342e-01" nType="0">
            <Node pos="l" depth="3" NCoef="0" IVar="-1" Cut="0.0000000000000000e+00" cType="1" res="-1.0801043361425400e-02" rms="3.7390762567520142e-01" purity="2.0139214396476746e-01" nType="-99"/>
            <Node pos="r" depth="3" NCoef="0" IVar="-1" Cut="0.0000000000000000e+00" cType="1" res="-5.2211126312613487e-03" rms="4.3003004789352417e-01" purity="3.3098074793815613e-01" nType="-99"/>
          </Node>
          <Node pos="r" depth="2" NCoef="0" IVar="5" Cut="8.5208946228027344e+01" cType="1" res="6.6544592380523682e-02" rms="4.5176491141319275e-01" purity="5.6416130065917969e-01" nType="0">
            <Node pos="l" depth="3" NCoef="0" IVar="-1" Cut="0.0000000000000000e+00" cType="1" res="-1.2239918578416109e-03" rms="4.5183390378952026e-01" purity="3.5153579711914062e-01" nType="-99"/>
            <Node pos="r" depth="3" NCoef="0" IVar="-1" Cut="0.0000000000000000e+00" cType="1" res="3.1906180083751678e-03" rms="4.4498103857040405e-01" purity="6.5458267927169800e-01" nType="-99"/>
          </Node>
        </Node>
        <Node pos="r" depth="1" NCoef="0" IVar="6" Cut="-6.5116810798645020e-01" cType="1" res="-1.5777981281280518e-01" rms="4.1940441727638245e-01" purity="2.9151701927185059e-01" nType="0">
          <Node pos="l" depth="2" NCoef="0" IVar="-1" Cut="0.0000000000000000e+00" cType="1" res="-1.5459908172488213e-02" rms="3.3656248450279236e-01" purity="1.5475003421306610e-01" nType="-99"/>
          <Node pos="r" depth="2" NCoef="0" IVar="8" Cut="1.8094321489334106e+00" cType="1" res="-1.2269787490367889e-01" rms="4.3556115031242371e-01" purity="3.3319231867790222e-01" nType="0">
            <Node pos="l" depth="3" NCoef="0" IVar="-1" Cut="0.0000000000000000e+00" cType="1" res="-2.4156372528523207e-03" rms="4.5231786370277405e-01" purity="3.9852347970008850e-01" nType="-99"/>
            <Node pos="r" depth="3" NCoef="0" IVar="-1" Cut="0.0000000000000000e+00" cType="1" res="-1.0538248345255852e-02" rms="3.8638219237327576e-01" purity="2.2098085284233093e-01" nType="-99"/>
          </Node>
        </Node>
      </Node>
    </BinaryTree>
    <BinaryTree type="DecisionTree" boostWeight="1.0000000000000000e+00" itree="61">
      <Node pos="s" depth="0" NCoef="0" IVar="7" Cut="-1.1999617815017700e+00" cType="1" res="1.6145702451467514e-02" rms="4.5350760221481323e-01" purity="5.0262916088104248e-01" nType="0">
        <Node pos="l" depth="1" NCoef="0" IVar="7" Cut="-1.5047339200973511e+00" cType="1" res="-1.6382552683353424e-01" rms="4.0416741371154785e-01" purity="2.5859874486923218e-01" nType="0">
          <Node pos="l" depth="2" NCoef="0" IVar="9" Cut="-6.6674149036407471e-01" cType="1" res="-2.0884385704994202e-01" rms="3.7218546867370605e-01" purity="2.0404076576232910e-01" nType="0">
            <Node pos="l" depth="3" NCoef="0" IVar="-1" Cut="0.0000000000000000e+00" cType="1" res="-1.5652338042855263e-02" rms="3.0583643913269043e-01" purity="1.2052907049655914e-01" nType="-99"/>
            <Node pos="r" depth="3" NCoef="0" IVar="-1" Cut="0.0000000000000000e+00" cType="1" res="-7.8279692679643631e-03" rms="3.9878472685813904e-01" purity="2.4972783029079437e-01" nType="-99"/>
          </Node>
          <Node pos="r" depth="2" NCoef="0" IVar="-1" Cut="0.0000000000000000e+00" cType="1" res="-3.7045849021524191e-03" rms="4.4307646155357361e-01" purity="3.5154643654823303e-01" nType="-99"/>
        </Node>
        <Node pos="r" depth="1" NCoef="0" IVar="7" Cut="1.0857268571853638e+00" cType="1" res="4.0442571043968201e-02" rms="4.5433375239372253e-01" purity="5.3557431697845459e-01" nType="0">
          <Node pos="l" depth="2" NCoef="0" IVar="5" Cut="8.0233558654785156e+01" cType="1" res="7.3677927255630493e-02" rms="4.5310807228088379e-01" purity="5.8141344785690308e-01" nType="0">
            <Node pos="l" depth="3" NCoef="0" IVar="-1" Cut="0.0000000000000000e+00" cType="1" res="-1.4631481608375907e-03" rms="4.5780244469642639e-01" purity="3.4650361537933350e-01" nType="-99"/>
            <Node pos="r" depth="3" NCoef="0" IVar="-1" Cut="0.0000000000000000e+00" cType="1" res="3.1892417464405298e-03" rms="4.4552093744277954e-01" purity="6.5589320659637451e-01" nType="-99"/>
          </Node>
          <Node pos="r" depth="2" NCoef="0" IVar="7" Cut="1.7387989759445190e+00" cType="1" res="-1.2844929099082947e-01" rms="4.2182171344757080e-01" purity="3.0263394117355347e-01" nType="0">
            <Node pos="l" depth="3" NCoef="0" IVar="-1" Cut="0.0000000000000000e+00" cType="1" res="-3.2324546482414007e-03" rms="4.4131749868392944e-01" purity="3.5715964436531067e-01" nType="-99"/>
            <Node pos="r" depth="3" NCoef="0" IVar="-1" Cut="0.0000000000000000e+00" cType="1" res="-1.0052298195660114e-02" rms="3.7276414036750793e-01" purity="2.0519977807998657e-01" nType="-99"/>
          </Node>
        </Node>
      </Node>
    </BinaryTree>
    <BinaryTree type="DecisionTree" boostWeight="1.0000000000000000e+00" itree="62">
      <Node pos="s" depth="0" NCoef="0" IVar="5" Cut="1.0906761169433594e+02" cType="1" res="9.8322350531816483e-03" rms="4.5146152377128601e-01" purity="4.9572920799255371e-01" nType="0">
        <Node pos="l" depth="1" NCoef="0" IVar="8" Cut="1.1999660730361938e+00" cType="1" res="-4.9626439809799194e-02" rms="4.4724982976913452e-01" purity="3.7054720520973206e-01" nType="0">
          <Node pos="l" depth="2" NCoef="0" IVar="8" Cut="-1.4666765928268433e+00" cType="1" res="-2.6179462671279907e-02" rms="4.5348942279815674e-01" purity="3.9858922362327576e-01" nType="0">
            <Node pos="l" depth="3" NCoef="0" IVar="-1" Cut="0.0000000000000000e+00" cType="1" res="-8.5090808570384979e-03" rms="3.7454062700271606e-01" purity="1.9749912619590759e-01" nType="-99"/>
            <Node pos="r" depth="3" NCoef="0" IVar="-1" Cut="0.0000000000000000e+00" cType="1" res="-3.7474444980034605e-05" rms="4.5903182029724121e-01" purity="4.2890399694442749e-01" nType="-99"/>
          </Node>
          <Node pos="r" depth="2" NCoef="0" IVar="7" Cut="6.6660934686660767e-01" cType="1" res="-1.8538917601108551e-01" rms="3.8193619251251221e-01" purity="2.0817819237709045e-01" nType="0">
            <Node pos="l" depth="3" NCoef="0" IVar="-1" Cut="0.0000000000000000e+00" cType="1" res="-6.6202948801219463e-03" rms="4.1337949037551880e-01" purity="2.5578323006629944e-01" nType="-99"/>
            <Node pos="r" depth="3" NCoef="0" IVar="-1" Cut="0.0000000000000000e+00" cType="1" res="-1.4352441765367985e-02" rms="3.0246889591217041e-01" purity="1.1832544952630997e-01" nType="-99"/>
          </Node>
        </Node>
        <Node pos="r" depth="1" NCoef="0" IVar="7" Cut="1.2000254392623901e+00" cType="1" res="8.8899411261081696e-02" rms="4.4485732913017273e-01" purity="6.6219419240951538e-01" nType="0">
          <Node pos="l" depth="2" NCoef="0" IVar="7" Cut="-1.0856496095657349e+00" cType="1" res="1.1093416810035706e-01" rms="4.3730929493904114e-01" purity="6.8991041183471680e-01" nType="0">
            <Node pos="l" depth="3" NCoef="0" IVar="-1" Cut="0.0000000000000000e+00" cType="1" res="-1.7508680466562510e-03" rms="4.6828427910804749e-01" purity="4.8289963603019714e-01" nType="-99"/>
            <Node pos="r" depth="3" NCoef="0" IVar="-1" Cut="0.0000000000000000e+00" cType="1" res="3.8415426388382912e-03" rms="4.2685800790786743e-01" purity="7.2193801403045654e-01" nType="-99"/>
          </Node>
          <Node pos="r" depth="2" NCoef="0" IVar="-1" Cut="0.0000000000000000e+00" cType="1" res="-4.9974126741290092e-03" rms="4.6071577072143555e-01" purity="3.9476966857910156e-01" nType="-99"/>
        </Node>
      </Node>
    </BinaryTree>
    <BinaryTree type="DecisionTree" boostWeight="1.0000000000000000e+00" itree="63">
      <Node pos="s" depth="0" NCoef="0" IVar="1" Cut="4.2762713623046875e+02" cType="1" res="1.3665040954947472e-02" rms="4.5197656750679016e-01" purity="4.9895912408828735e-01" nType="0">
        <Node pos="l" depth="1" NCoef="0" IVar="2" Cut="4.3198400878906250e+02" cType="1" res="-4.1430708020925522e-02" rms="4.4892549514770508e-01" purity="3.9444804191589355e-01" nType="0">
          <Node pos="l" depth="2" NCoef="0" IVar="0" Cut="1.2458472900390625e+03" cType="1" res="-1.0003910399973392e-02" rms="4.5743504166603088e-01" purity="4.3687084317207336e-01" nType="0">
            <Node pos="l" depth="3" NCoef="0" IVar="-1" Cut="0.0000000000000000e+00" cType="1" res="-2.8795464895665646e-03" rms="4.4341820478439331e-01" purity="3.1610119342803955e-01" nType="-99"/>
            <Node pos="r" depth="3" NCoef="0" IVar="-1" Cut="0.0000000000000000e+00" cType="1" res="3.0496499966830015e-03" rms="4.5699477195739746e-01" purity="6.2368053197860718e-01" nType="-99"/>
          </Node>
          <Node pos="r" depth="2" NCoef="0" IVar="5" Cut="1.2544383239746094e+02" cType="1" res="-1.6003189980983734e-01" rms="3.9323484897613525e-01" purity="2.3434922099113464e-01" nType="0">
            <Node pos="l" depth="3" NCoef="0" IVar="-1" Cut="0.0000000000000000e+00" cType="1" res="-1.2905580922961235e-02" rms="3.4506741166114807e-01" purity="1.5193337202072144e-01" nType="-99"/>
            <Node pos="r" depth="3" NCoef="0" IVar="-1" Cut="0.0000000000000000e+00" cType="1" res="-1.7203791067004204e-03" rms="4.7858628630638123e-01" purity="4.5162644982337952e-01" nType="-99"/>
          </Node>
        </Node>
        <Node pos="r" depth="1" NCoef="0" IVar="2" Cut="3.5407019042968750e+02" cType="1" res="9.5361381769180298e-02" rms="4.4405320286750793e-01" purity="6.5392881631851196e-01" nType="0">
          <Node pos="l" depth="2" NCoef="0" IVar="0" Cut="1.2957891845703125e+03" cType="1" res="1.7059986293315887e-01" rms="3.9680740237236023e-01" purity="7.5930631160736084e-01" nType="0">
            <Node pos="l" depth="3" NCoef="0" IVar="-1" Cut="0.0000000000000000e+00" cType="1" res="1.0612085461616516e-03" rms="4.7734737396240234e-01" purity="5.3044772148132324e-01" nType="-99"/>
            <Node pos="r" depth="3" NCoef="0" IVar="-1" Cut="0.0000000000000000e+00" cType="1" res="5.7943793945014477e-03" rms="3.4745654463768005e-01" purity="8.4616929292678833e-01" nType="-99"/>
          </Node>
          <Node pos="r" depth="2" NCoef="0" IVar="7" Cut="9.3359977006912231e-01" cType="1" res="3.1356446444988251e-02" rms="4.7123947739601135e-01" purity="5.6428480148315430e-01" nType="0">
            <Node pos="l" depth="3" NCoef="0" IVar="-1" Cut="0.0000000000000000e+00" cType="1" res="1.9110047724097967e-03" rms="4.6799984574317932e-01" purity="6.0070580244064331e-01" nType="-99"/>
            <Node pos="r" depth="3" NCoef="0" IVar="-1" Cut="0.0000000000000000e+00" cType="1" res="-5.5217971093952656e-03" rms="4.5661833882331848e-01" purity="3.6401361227035522e-01" nType="-99"/>
          </Node>
        </Node>
      </Node>
    </BinaryTree>
    <BinaryTree type="DecisionTree" boostWeight="1.0000000000000000e+00" itree="64">
      <Node pos="s" depth="0" NCoef="0" IVar="1" Cut="4.3640277099609375e+02" cType="1" res="1.2357538565993309e-02" rms="4.4998893141746521e-01" purity="4.9863421916961670e-01" nType="0">
        <Node pos="l" depth="1" NCoef="0" IVar="5" Cut="9.4565582275390625e+01" cType="1" res="-3.9371278136968613e-02" rms="4.4753766059875488e-01" purity="3.9944726228713989e-01" nType="0">
          <Node pos="l" depth="2" NCoef="0" IVar="2" Cut="2.4509237670898438e+02" cType="1" res="-1.0296498984098434e-01" rms="4.1530701518058777e-01" purity="2.5431677699089050e-01" nType="0">
            <Node pos="l" depth="3" NCoef="0" IVar="-1" Cut="0.0000000000000000e+00" cType="1" res="-6.2576131313107908e-05" rms="4.6604359149932861e-01" purity="3.8457453250885010e-01" nType="-99"/>
            <Node pos="r" depth="3" NCoef="0" IVar="-1" Cut="0.0000000000000000e+00" cType="1" res="-3.4561238717287779e-03" rms="3.9440414309501648e-01" purity="2.1626403927803040e-01" nType="-99"/>
          </Node>
          <Node pos="r" depth="2" NCoef="0" IVar="8" Cut="1.2000265121459961e+00" cType="1" res="1.9275063648819923e-02" rms="4.6772593259811401e-01" purity="5.3328710794448853e-01" nType="0">
            <Node pos="l" depth="3" NCoef="0" IVar="-1" Cut="0.0000000000000000e+00" cType="1" res="1.4182404847815633e-03" rms="4.6554890275001526e-01" purity="5.6538087129592896e-01" nType="-99"/>
            <Node pos="r" depth="3" NCoef="0" IVar="-1" Cut="0.0000000000000000e+00" cType="1" res="-6.9017861969769001e-03" rms="4.3737366795539856e-01" purity="3.0322968959808350e-01" nType="-99"/>
          </Node>
        </Node>
        <Node pos="r" depth="1" NCoef="0" IVar="2" Cut="3.5405340576171875e+02" cType="1" res="9.6831917762756348e-02" rms="4.4110900163650513e-01" purity="6.6060876846313477e-01" nType="0">
          <Node pos="l" depth="2" NCoef="0" IVar="0" Cut="1.3147893066406250e+03" cType="1" res="1.7447927594184875e-01" rms="3.9101636409759521e-01" purity="7.7078908681869507e-01" nType="0">
            <Node pos="l" depth="3" NCoef="0" IVar="-1" Cut="0.0000000000000000e+00" cType="1" res="1.0050573619082570e-03" rms="4.7672486305236816e-01" purity="5.4227173328399658e-01" nType="-99"/>
            <Node pos="r" depth="3" NCoef="0" IVar="-1" Cut="0.0000000000000000e+00" cType="1" res="5.8811828494071960e-03" rms="3.3622226119041443e-01" purity="8.5948574542999268e-01" nType="-99"/>
          </Node>
          <Node pos="r" depth="2" NCoef="0" IVar="8" Cut="-9.3333190679550171e-01" cType="1" res="3.2336514443159103e-02" rms="4.6907633543014526e-01" purity="5.6909090280532837e-01" nType="0">
            <Node pos="l" depth="3" NCoef="0" IVar="-1" Cut="0.0000000000000000e+00" cType="1" res="-5.5721718817949295e-03" rms="4.6079790592193604e-01" purity="3.6914482712745667e-01" nType="-99"/>
            <Node pos="r" depth="3" NCoef="0" IVar="-1" Cut="0.0000000000000000e+00" cType="1" res="2.0079773385077715e-03" rms="4.6343722939491272e-01" purity="6.0695803165435791e-01" nType="-99"/>
          </Node>
        </Node>
      </Node>
    </BinaryTree>
    <BinaryTree type="DecisionTree" boostWeight="1.0000000000000000e+00" itree="65">
      <Node pos="s" depth="0" NCoef="0" IVar="0" Cut="1.1903520507812500e+03" cType="1" res="1.5368345193564892e-02" rms="4.5074945688247681e-01" purity="5.0116884708404541e-01" nType="0">
        <Node pos="l" depth="1" NCoef="0" IVar="2" Cut="2.5787130737304688e+02" cType="1" res="-9.2075094580650330e-02" rms="4.3513849377632141e-01" purity="2.9567486047744751e-01" nType="0">
          <Node pos="l" depth="2" NCoef="0" IVar="0" Cut="1.0416606445312500e+03" cType="1" res="-2.4463435634970665e-02" rms="4.7106778621673584e-01" purity="3.9288493990898132e-01" nType="0">
            <Node pos="l" depth="3" NCoef="0" IVar="-1" Cut="0.0000000000000000e+00" cType="1" res="-2.8345056343823671e-03" rms="4.4808208942413330e-01" purity="3.0136010050773621e-01" nType="-99"/>
            <Node pos="r" depth="3" NCoef="0" IVar="-1" Cut="0.0000000000000000e+00" cType="1" res="1.0436420561745763e-03" rms="4.8740068078041077e-01" purity="4.8981228470802307e-01" nType="-99"/>
          </Node>
          <Node pos="r" depth="2" NCoef="0" IVar="1" Cut="3.4267544555664062e+02" cType="1" res="-1.5121808648109436e-01" rms="3.9162188768386841e-01" purity="2.1064080297946930e-01" nType="0">
            <Node pos="l" depth="3" NCoef="0" IVar="-1" Cut="0.0000000000000000e+00" cType="1" res="-7.3731527663767338e-03" rms="3.6338913440704346e-01" purity="1.7154414951801300e-01" nType="-99"/>
            <Node pos="r" depth="3" NCoef="0" IVar="-1" Cut="0.0000000000000000e+00" cType="1" res="-4.4302986934781075e-03" rms="4.1602078080177307e-01" purity="2.5146615505218506e-01" nType="-99"/>
          </Node>
        </Node>
        <Node pos="r" depth="1" NCoef="0" IVar="2" Cut="4.0313281250000000e+02" cType="1" res="5.6507907807826996e-02" rms="4.4984185695648193e-01" purity="5.7985144853591919e-01" nType="0">
          <Node pos="l" depth="2" NCoef="0" IVar="2" Cut="2.8706106567382812e+02" cType="1" res="1.3255980610847473e-01" rms="4.2938020825386047e-01" purity="6.9740855693817139e-01" nType="0">
            <Node pos="l" depth="3" NCoef="0" IVar="-1" Cut="0.0000000000000000e+00" cType="1" res="5.6162737309932709e-03" rms="3.8567811250686646e-01" purity="7.9531705379486084e-01" nType="-99"/>
            <Node pos="r" depth="3" NCoef="0" IVar="-1" Cut="0.0000000000000000e+00" cType="1" res="2.2689490579068661e-03" rms="4.4940796494483948e-01" purity="6.2700384855270386e-01" nType="-99"/>
          </Node>
          <Node pos="r" depth="2" NCoef="0" IVar="1" Cut="5.5700976562500000e+02" cType="1" res="-4.0997464209794998e-02" rms="4.5661818981170654e-01" purity="4.2913272976875305e-01" nType="0">
            <Node pos="l" depth="3" NCoef="0" IVar="-1" Cut="0.0000000000000000e+00" cType="1" res="-3.9611095562577248e-03" rms="4.4338032603263855e-01" purity="3.5333976149559021e-01" nType="-99"/>
            <Node pos="r" depth="3" NCoef="0" IVar="-1" Cut="0.0000000000000000e+00" cType="1" res="2.5924555957317352e-03" rms="4.6655553579330444e-01" purity="6.3363558053970337e-01" nType="-99"/>
          </Node>
        </Node>
      </Node>
    </BinaryTree>
    <BinaryTree type="DecisionTree" boostWeight="1.0000000000000000e+00" itree="66">
      <Node pos="s" depth="0" NCoef="0" IVar="1" Cut="4.3640353393554688e+02" cType="1" res="1.5609065070748329e-02" rms="4.5026367902755737e-01" purity="5.0257074832916260e-01" nType="0">
        <Node pos="l" depth="1" NCoef="0" IVar="2" Cut="5.0309509277343750e+02" cType="1" res="-3.5299114882946014e-02" rms="4.4927453994750977e-01" purity="4.0240511298179626e-01" nType="0">
          <Node pos="l" depth="2" NCoef="0" IVar="0" Cut="1.3432797851562500e+03" cType="1" res="-1.1249298229813576e-02" rms="4.5487850904464722e-01" purity="4.3347823619842529e-01" nType="0">
            <Node pos="l" depth="3" NCoef="0" IVar="-1" Cut="0.0000000000000000e+00" cType="1" res="-2.1699257194995880e-03" rms="4.4752538204193115e-01" purity="3.4804165363311768e-01" nType="-99"/>
            <Node pos="r" depth="3" NCoef="0" IVar="-1" Cut="0.0000000000000000e+00" cType="1" res="3.2655324321240187e-03" rms="4.5040065050125122e-01" purity="6.2523567676544189e-01" nType="-99"/>
          </Node>
          <Node pos="r" depth="2" NCoef="0" IVar="2" Cut="6.1134252929687500e+02" cType="1" res="-2.0119537413120270e-01" rms="3.6794701218605042e-01" purity="1.8806195259094238e-01" nType="0">
            <Node pos="l" depth="3" NCoef="0" IVar="-1" Cut="0.0000000000000000e+00" cType="1" res="-8.5725709795951843e-03" rms="3.9313289523124695e-01" purity="2.2815737128257751e-01" nType="-99"/>
            <Node pos="r" depth="3" NCoef="0" IVar="-1" Cut="0.0000000000000000e+00" cType="1" res="-1.1782542569562793e-03" rms="3.1486856937408447e-01" purity="1.2818534672260284e-01" nType="-99"/>
          </Node>
        </Node>
        <Node pos="r" depth="1" NCoef="0" IVar="2" Cut="4.9196633911132812e+02" cType="1" res="9.8028793931007385e-02" rms="4.3953275680541992e-01" purity="6.6473758220672607e-01" nType="0">
          <Node pos="l" depth="2" NCoef="0" IVar="0" Cut="1.3845435791015625e+03" cType="1" res="1.4303055405616760e-01" rms="4.1378864645957947e-01" purity="7.2760093212127686e-01" nType="0">
            <Node pos="l" depth="3" NCoef="0" IVar="-1" Cut="0.0000000000000000e+00" cType="1" res="1.1072746710851789e-03" rms="4.6948710083961487e-01" purity="5.5650448799133301e-01" nType="-99"/>
            <Node pos="r" depth="3" NCoef="0" IVar="-1" Cut="0.0000000000000000e+00" cType="1" res="5.2162301726639271e-03" rms="3.7508648633956909e-01" purity="8.0724579095840454e-01" nType="-99"/>
          </Node>
          <Node pos="r" depth="2" NCoef="0" IVar="1" Cut="5.6631304931640625e+02" cType="1" res="-1.4497536234557629e-02" rms="4.7999340295791626e-01" purity="5.0754868984222412e-01" nType="0">
            <Node pos="l" depth="3" NCoef="0" IVar="-1" Cut="0.0000000000000000e+00" cType="1" res="-5.2038058638572693e-03" rms="4.6490857005119324e-01" purity="3.7974557280540466e-01" nType="-99"/>
            <Node pos="r" depth="3" NCoef="0" IVar="-1" Cut="0.0000000000000000e+00" cType="1" res="2.1922534797340631e-03" rms="4.7487059235572815e-01" purity="6.1043572425842285e-01" nType="-99"/>
          </Node>
        </Node>
      </Node>
    </BinaryTree>
    <BinaryTree type="DecisionTree" boostWeight="1.0000000000000000e+00" itree="67">
      <Node pos="s" depth="0" NCoef="0" IVar="0" Cut="1.1319779052734375e+03" cType="1" res="1.8163934350013733e-02" rms="4.4976499676704407e-01" purity="5.0463300943374634e-01" nType="0">
        <Node pos="l" depth="1" NCoef="0" IVar="2" Cut="2.3516203308105469e+02" cType="1" res="-1.1407254636287689e-01" rms="4.2306265234947205e-01" purity="2.5873512029647827e-01" nType="0">
          <Node pos="l" depth="2" NCoef="0" IVar="-1" Cut="0.0000000000000000e+00" cType="1" res="-1.8395466031506658e-03" rms="4.6422564983367920e-01" purity="3.5303205251693726e-01" nType="-99"/>
          <Node pos="r" depth="2" NCoef="0" IVar="1" Cut="3.3831521606445312e+02" cType="1" res="-1.4564198255538940e-01" rms="3.9653319120407104e-01" purity="2.1016633510589600e-01" nType="0">
            <Node pos="l" depth="3" NCoef="0" IVar="-1" Cut="0.0000000000000000e+00" cType="1" res="-7.7325073070824146e-03" rms="3.6739942431449890e-01" purity="1.7060939967632294e-01" nType="-99"/>
            <Node pos="r" depth="3" NCoef="0" IVar="-1" Cut="0.0000000000000000e+00" cType="1" res="-4.2380564846098423e-03" rms="4.1977789998054504e-01" purity="2.4796494841575623e-01" nType="-99"/>
          </Node>
        </Node>
        <Node pos="r" depth="1" NCoef="0" IVar="2" Cut="3.7131597900390625e+02" cType="1" res="5.1921062171459198e-02" rms="4.5014968514442444e-01" purity="5.6740546226501465e-01" nType="0">
          <Node pos="l" depth="2" NCoef="0" IVar="0" Cut="1.4133156738281250e+03" cType="1" res="1.2879420816898346e-01" rms="4.3180054426193237e-01" purity="6.8516910076141357e-01" nType="0">
            <Node pos="l" depth="3" NCoef="0" IVar="-1" Cut="0.0000000000000000e+00" cType="1" res="1.7838828498497605e-03" rms="4.7039198875427246e-01" purity="5.7285201549530029e-01" nType="-99"/>
            <Node pos="r" depth="3" NCoef="0" IVar="-1" Cut="0.0000000000000000e+00" cType="1" res="6.0393642634153366e-03" rms="3.4797966480255127e-01" purity="8.4491395950317383e-01" nType="-99"/>
          </Node>
          <Node pos="r" depth="2" NCoef="0" IVar="0" Cut="1.7634299316406250e+03" cType="1" res="-2.9079552739858627e-02" rms="4.5486131310462952e-01" purity="4.4331887364387512e-01" nType="0">
            <Node pos="l" depth="3" NCoef="0" IVar="-1" Cut="0.0000000000000000e+00" cType="1" res="-3.6218899767845869e-03" rms="4.3958342075347900e-01" purity="3.4516870975494385e-01" nType="-99"/>
            <Node pos="r" depth="3" NCoef="0" IVar="-1" Cut="0.0000000000000000e+00" cType="1" res="2.2528434637933969e-03" rms="4.6380007266998291e-01" purity="6.1337518692016602e-01" nType="-99"/>
          </Node>
        </Node>
      </Node>
    </BinaryTree>
    <BinaryTree type="DecisionTree" boostWeight="1.0000000000000000e+00" itree="68">
      <Node pos="s" depth="0" NCoef="0" IVar="7" Cut="1.4665515422821045e+00" cType="1" res="1.6467388719320297e-02" rms="4.4963553547859192e-01" purity="5.0211912393569946e-01" nType="0">
        <Node pos="l" depth="1" NCoef="0" IVar="7" Cut="-9.7142022848129272e-01" cType="1" res="3.5470243543386459e-02" rms="4.5109868049621582e-01" purity="5.2824240922927856e-01" nType="0">
          <Node pos="l" depth="2" NCoef="0" IVar="7" Cut="-1.4938392639160156e+00" cType="1" res="-1.1978095769882202e-01" rms="4.1894659399986267e-01" purity="3.1631129980087280e-01" nType="0">
            <Node pos="l" depth="3" NCoef="0" IVar="-1" Cut="0.0000000000000000e+00" cType="1" res="-9.7945453599095345e-03" rms="3.6884963512420654e-01" purity="1.9661545753479004e-01" nType="-99"/>
            <Node pos="r" depth="3" NCoef="0" IVar="-1" Cut="0.0000000000000000e+00" cType="1" res="-1.8936195410788059e-03" rms="4.4436627626419067e-01" purity="4.1360530257225037e-01" nType="-99"/>
          </Node>
          <Node pos="r" depth="2" NCoef="0" IVar="8" Cut="1.4666385650634766e+00" cType="1" res="7.0523500442504883e-02" rms="4.5070528984069824e-01" purity="5.7609307765960693e-01" nType="0">
            <Node pos="l" depth="3" NCoef="0" IVar="-1" Cut="0.0000000000000000e+00" cType="1" res="2.7158721350133419e-03" rms="4.4795042276382446e-01" purity="5.9921574592590332e-01" nType="-99"/>
            <Node pos="r" depth="3" NCoef="0" IVar="-1" Cut="0.0000000000000000e+00" cType="1" res="-6.0056289657950401e-03" rms="4.2746311426162720e-01" purity="3.1131133437156677e-01" nType="-99"/>
          </Node>
        </Node>
        <Node pos="r" depth="1" NCoef="0" IVar="1" Cut="3.8815307617187500e+02" cType="1" res="-2.0356126129627228e-01" rms="3.6649522185325623e-01" purity="1.9964517652988434e-01" nType="0">
          <Node pos="l" depth="2" NCoef="0" IVar="-1" Cut="0.0000000000000000e+00" cType="1" res="-1.3336434960365295e-02" rms="3.0435946583747864e-01" purity="1.1388568580150604e-01" nType="-99"/>
          <Node pos="r" depth="2" NCoef="0" IVar="-1" Cut="0.0000000000000000e+00" cType="1" res="-7.0052435621619225e-03" rms="4.2559909820556641e-01" purity="3.0495610833168030e-01" nType="-99"/>
        </Node>
      </Node>
    </BinaryTree>
    <BinaryTree type="DecisionTree" boostWeight="1.0000000000000000e+00" itree="69">
      <Node pos="s" depth="0" NCoef="0" IVar="7" Cut="1.2000254392623901e+00" cType="1" res="1.3916154392063618e-02" rms="4.4851633906364441e-01" purity="4.9959990382194519e-01" nType="0">
        <Node pos="l" depth="1" NCoef="0" IVar="7" Cut="-1.2761198282241821e+00" cType="1" res="3.7577997893095016e-02" rms="4.5010760426521301e-01" purity="5.3328168392181396e-01" nType="0">
          <Node pos="l" depth="2" NCoef="0" IVar="2" Cut="4.0543417358398438e+02" cType="1" res="-1.6559737920761108e-01" rms="3.9081001281738281e-01" purity="2.4442490935325623e-01" nType="0">
            <Node pos="l" depth="3" NCoef="0" IVar="-1" Cut="0.0000000000000000e+00" cType="1" res="-5.2269268780946732e-03" rms="4.1166940331459045e-01" purity="2.9341393709182739e-01" nType="-99"/>
            <Node pos="r" depth="3" NCoef="0" IVar="-1" Cut="0.0000000000000000e+00" cType="1" res="-1.5875656157732010e-02" rms="3.2969859242439270e-01" purity="1.4261850714683533e-01" nType="-99"/>
          </Node>
          <Node pos="r" depth="2" NCoef="0" IVar="6" Cut="-1.1644747257232666e+00" cType="1" res="6.5979108214378357e-02" rms="4.5054429769515991e-01" purity="5.7365989685058594e-01" nType="0">
            <Node pos="l" depth="3" NCoef="0" IVar="-1" Cut="0.0000000000000000e+00" cType="1" res="-5.6813168339431286e-03" rms="4.2678406834602356e-01" purity="3.1372129917144775e-01" nType="-99"/>
            <Node pos="r" depth="3" NCoef="0" IVar="-1" Cut="0.0000000000000000e+00" cType="1" res="2.6696329005062580e-03" rms="4.4772252440452576e-01" purity="6.0176461935043335e-01" nType="-99"/>
          </Node>
        </Node>
        <Node pos="r" depth="1" NCoef="0" IVar="1" Cut="3.9809487915039062e+02" cType="1" res="-1.6415120661258698e-01" rms="3.9304515719413757e-01" purity="2.4612744152545929e-01" nType="0">
          <Node pos="l" depth="2" NCoef="0" IVar="1" Cut="3.3269946289062500e+02" cType="1" res="-2.0573924481868744e-01" rms="3.4721523523330688e-01" purity="1.5802170336246490e-01" nType="0">
            <Node pos="l" depth="3" NCoef="0" IVar="-1" Cut="0.0000000000000000e+00" cType="1" res="-1.2120881117880344e-02" rms="3.0692538619041443e-01" purity="1.1385661363601685e-01" nType="-99"/>
            <Node pos="r" depth="3" NCoef="0" IVar="-1" Cut="0.0000000000000000e+00" cType="1" res="-9.2390580102801323e-03" rms="3.7371101975440979e-01" purity="1.9342185556888580e-01" nType="-99"/>
          </Node>
          <Node pos="r" depth="2" NCoef="0" IVar="-1" Cut="0.0000000000000000e+00" cType="1" res="-4.4871754944324493e-03" rms="4.4241499900817871e-01" purity="3.6806413531303406e-01" nType="-99"/>
        </Node>
      </Node>
    </BinaryTree>
    <BinaryTree type="DecisionTree" boostWeight="1.0000000000000000e+00" itree="70">
      <Node pos="s" depth="0" NCoef="0" IVar="0" Cut="1.1903398437500000e+03" cType="1" res="9.4141643494367599e-03" rms="4.4815191626548767e-01" purity="4.9402737617492676e-01" nType="0">
        <Node pos="l" depth="1" NCoef="0" IVar="2" Cut="2.5787176513671875e+02" cType="1" res="-9.7224935889244080e-02" rms="4.2967873811721802e-01" purity="2.8472492098808289e-01" nType="0">
          <Node pos="l" depth="2" NCoef="0" IVar="0" Cut="1.0044715576171875e+03" cType="1" res="-4.1328035295009613e-02" rms="4.6202340722084045e-01" purity="3.7370884418487549e-01" nType="0">
            <Node pos="l" depth="3" NCoef="0" IVar="-1" Cut="0.0000000000000000e+00" cType="1" res="-3.8895872421562672e-03" rms="4.2095550894737244e-01" purity="2.5146901607513428e-01" nType="-99"/>
            <Node pos="r" depth="3" NCoef="0" IVar="-1" Cut="0.0000000000000000e+00" cType="1" res="2.1688194829039276e-04" rms="4.8110240697860718e-01" purity="4.5410823822021484e-01" nType="-99"/>
          </Node>
          <Node pos="r" depth="2" NCoef="0" IVar="1" Cut="3.6067147827148438e+02" cType="1" res="-1.4507666230201721e-01" rms="3.9366054534912109e-01" purity="2.0854832231998444e-01" nType="0">
            <Node pos="l" depth="3" NCoef="0" IVar="-1" Cut="0.0000000000000000e+00" cType="1" res="-6.6147823818027973e-03" rms="3.7331235408782959e-01" purity="1.7948490381240845e-01" nType="-99"/>
            <Node pos="r" depth="3" NCoef="0" IVar="-1" Cut="0.0000000000000000e+00" cType="1" res="-4.2202370241284370e-03" rms="4.2402121424674988e-01" purity="2.5936651229858398e-01" nType="-99"/>
          </Node>
        </Node>
        <Node pos="r" depth="1" NCoef="0" IVar="2" Cut="4.0315579223632812e+02" cType="1" res="5.0388485193252563e-02" rms="4.4835546612739563e-01" purity="5.7444840669631958e-01" nType="0">
          <Node pos="l" depth="2" NCoef="0" IVar="2" Cut="2.8708480834960938e+02" cType="1" res="1.2660169601440430e-01" rms="4.2894628643989563e-01" purity="6.9505929946899414e-01" nType="0">
            <Node pos="l" depth="3" NCoef="0" IVar="-1" Cut="0.0000000000000000e+00" cType="1" res="5.6493184529244900e-03" rms="3.8177067041397095e-01" purity="7.9951655864715576e-01" nType="-99"/>
            <Node pos="r" depth="3" NCoef="0" IVar="-1" Cut="0.0000000000000000e+00" cType="1" res="2.0218042191118002e-03" rms="4.4964355230331421e-01" purity="6.2137526273727417e-01" nType="-99"/>
          </Node>
          <Node pos="r" depth="2" NCoef="0" IVar="1" Cut="4.5299798583984375e+02" cType="1" res="-4.4936705380678177e-02" rms="4.5383748412132263e-01" purity="4.2359182238578796e-01" nType="0">
            <Node pos="l" depth="3" NCoef="0" IVar="-1" Cut="0.0000000000000000e+00" cType="1" res="-1.9536186009645462e-03" rms="4.2137455940246582e-01" purity="2.8889855742454529e-01" nType="-99"/>
            <Node pos="r" depth="3" NCoef="0" IVar="-1" Cut="0.0000000000000000e+00" cType="1" res="1.1729805264621973e-03" rms="4.7337758541107178e-01" purity="5.6891661882400513e-01" nType="-99"/>
          </Node>
        </Node>
      </Node>
    </BinaryTree>
    <BinaryTree type="DecisionTree" boostWeight="1.0000000000000000e+00" itree="71">
      <Node pos="s" depth="0" NCoef="0" IVar="5" Cut="8.1896957397460938e+01" cType="1" res="1.2771467678248882e-02" rms="4.4743800163269043e-01" purity="4.9910828471183777e-01" nType="0">
        <Node pos="l" depth="1" NCoef="0" IVar="8" Cut="-9.3365353345870972e-01" cType="1" res="-8.5208557546138763e-02" rms="4.2163413763046265e-01" purity="2.7730172872543335e-01" nType="0">
          <Node pos="l" depth="2" NCoef="0" IVar="8" Cut="-1.3780330419540405e+00" cType="1" res="-1.6941988468170166e-01" rms="3.5991057753562927e-01" purity="1.8024297058582306e-01" nType="0">
            <Node pos="l" depth="3" NCoef="0" IVar="-1" Cut="0.0000000000000000e+00" cType="1" res="-1.1499362066388130e-02" rms="3.2896789908409119e-01" purity="1.3774144649505615e-01" nType="-99"/>
            <Node pos="r" depth="3" NCoef="0" IVar="-1" Cut="0.0000000000000000e+00" cType="1" res="-5.2480483427643776e-03" rms="3.9391830563545227e-01" purity="2.3715586960315704e-01" nType="-99"/>
          </Node>
          <Node pos="r" depth="2" NCoef="0" IVar="7" Cut="1.1997588872909546e+00" cType="1" res="-6.0704521834850311e-02" rms="4.3491181731224060e-01" purity="3.0554416775703430e-01" nType="0">
            <Node pos="l" depth="3" NCoef="0" IVar="-1" Cut="0.0000000000000000e+00" cType="1" res="-1.4238444855436683e-03" rms="4.4876581430435181e-01" purity="3.3724626898765564e-01" nType="-99"/>
            <Node pos="r" depth="3" NCoef="0" IVar="-1" Cut="0.0000000000000000e+00" cType="1" res="-1.0541226714849472e-02" rms="3.2172217965126038e-01" purity="1.2924616038799286e-01" nType="-99"/>
          </Node>
        </Node>
        <Node pos="r" depth="1" NCoef="0" IVar="6" Cut="9.5165544748306274e-01" cType="1" res="5.2039761096239090e-02" rms="4.5144093036651611e-01" purity="5.8800357580184937e-01" nType="0">
          <Node pos="l" depth="2" NCoef="0" IVar="6" Cut="-9.8432672023773193e-01" cType="1" res="7.9508125782012939e-02" rms="4.4649976491928101e-01" purity="6.2345558404922485e-01" nType="0">
            <Node pos="l" depth="3" NCoef="0" IVar="-1" Cut="0.0000000000000000e+00" cType="1" res="-3.6682749632745981e-03" rms="4.4948443770408630e-01" purity="3.9301404356956482e-01" nType="-99"/>
            <Node pos="r" depth="3" NCoef="0" IVar="-1" Cut="0.0000000000000000e+00" cType="1" res="3.3161048777401447e-03" rms="4.3804684281349182e-01" purity="6.6768652200698853e-01" nType="-99"/>
          </Node>
          <Node pos="r" depth="2" NCoef="0" IVar="0" Cut="1.5401093750000000e+03" cType="1" res="-1.0810291767120361e-01" rms="4.4679042696952820e-01" purity="3.8131573796272278e-01" nType="0">
            <Node pos="l" depth="3" NCoef="0" IVar="-1" Cut="0.0000000000000000e+00" cType="1" res="-6.4571569673717022e-03" rms="4.2567631602287292e-01" purity="2.9772937297821045e-01" nType="-99"/>
            <Node pos="r" depth="3" NCoef="0" IVar="-1" Cut="0.0000000000000000e+00" cType="1" res="-4.2414863128215075e-04" rms="4.6502128243446350e-01" purity="5.2380877733230591e-01" nType="-99"/>
          </Node>
        </Node>
      </Node>
    </BinaryTree>
    <BinaryTree type="DecisionTree" boostWeight="1.0000000000000000e+00" itree="72">
      <Node pos="s" depth="0" NCoef="0" IVar="1" Cut="4.3640277099609375e+02" cType="1" res="1.1485012248158455e-02" rms="4.4622799754142761e-01" purity="4.9741008877754211e-01" nType="0">
        <Node pos="l" depth="1" NCoef="0" IVar="2" Cut="4.6953921508789062e+02" cType="1" res="-3.7886075675487518e-02" rms="4.4415637850761414e-01" purity="3.9588680863380432e-01" nType="0">
          <Node pos="l" depth="2" NCoef="0" IVar="0" Cut="1.3045496826171875e+03" cType="1" res="-1.0405013337731361e-02" rms="4.5088121294975281e-01" purity="4.3267241120338440e-01" nType="0">
            <Node pos="l" depth="3" NCoef="0" IVar="-1" Cut="0.0000000000000000e+00" cType="1" res="-2.3430662695318460e-03" rms="4.4173327088356018e-01" purity="3.3422082662582397e-01" nType="-99"/>
            <Node pos="r" depth="3" NCoef="0" IVar="-1" Cut="0.0000000000000000e+00" cType="1" res="3.2325338106602430e-03" rms="4.4847175478935242e-01" purity="6.2970066070556641e-01" nType="-99"/>
          </Node>
          <Node pos="r" depth="2" NCoef="0" IVar="2" Cut="5.9789324951171875e+02" cType="1" res="-1.8386584520339966e-01" rms="3.7413921952247620e-01" purity="2.0048117637634277e-01" nType="0">
            <Node pos="l" depth="3" NCoef="0" IVar="-1" Cut="0.0000000000000000e+00" cType="1" res="-7.4354126118123531e-03" rms="3.9961230754852295e-01" purity="2.4751886725425720e-01" nType="-99"/>
            <Node pos="r" depth="3" NCoef="0" IVar="-1" Cut="0.0000000000000000e+00" cType="1" res="-1.3166009448468685e-03" rms="2.9691234230995178e-01" purity="1.1071462184190750e-01" nType="-99"/>
          </Node>
        </Node>
        <Node pos="r" depth="1" NCoef="0" IVar="2" Cut="4.8051354980468750e+02" cType="1" res="9.0843878686428070e-02" rms="4.3802797794342041e-01" purity="6.6059803962707520e-01" nType="0">
          <Node pos="l" depth="2" NCoef="0" IVar="0" Cut="1.3964487304687500e+03" cType="1" res="1.3576114177703857e-01" rms="4.1175279021263123e-01" purity="7.2581535577774048e-01" nType="0">
            <Node pos="l" depth="3" NCoef="0" IVar="-1" Cut="0.0000000000000000e+00" cType="1" res="1.0230418993160129e-03" rms="4.6635422110557556e-01" purity="5.5822384357452393e-01" nType="-99"/>
            <Node pos="r" depth="3" NCoef="0" IVar="-1" Cut="0.0000000000000000e+00" cType="1" res="5.2063264884054661e-03" rms="3.6733600497245789e-01" purity="8.1610876321792603e-01" nType="-99"/>
          </Node>
          <Node pos="r" depth="2" NCoef="0" IVar="1" Cut="5.6631951904296875e+02" cType="1" res="-1.3965626247227192e-02" rms="4.7778233885765076e-01" purity="5.0842070579528809e-01" nType="0">
            <Node pos="l" depth="3" NCoef="0" IVar="-1" Cut="0.0000000000000000e+00" cType="1" res="-4.3182768858969212e-03" rms="4.6818566322326660e-01" purity="3.9653992652893066e-01" nType="-99"/>
            <Node pos="r" depth="3" NCoef="0" IVar="-1" Cut="0.0000000000000000e+00" cType="1" res="1.8923954339697957e-03" rms="4.7307506203651428e-01" purity="6.0483413934707642e-01" nType="-99"/>
          </Node>
        </Node>
      </Node>
    </BinaryTree>
    <BinaryTree type="DecisionTree" boostWeight="1.0000000000000000e+00" itree="73">
      <Node pos="s" depth="0" NCoef="0" IVar="6" Cut="-9.1659337282180786e-01" cType="1" res="1.2111835181713104e-02" rms="4.4753465056419373e-01" purity="4.9730399250984192e-01" nType="0">
        <Node pos="l" depth="1" NCoef="0" IVar="1" Cut="5.1025109863281250e+02" cType="1" res="-1.2716500461101532e-01" rms="4.1553595662117004e-01" purity="3.0684897303581238e-01" nType="0">
          <Node pos="l" depth="2" NCoef="0" IVar="7" Cut="9.3338698148727417e-01" cType="1" res="-1.5691512823104858e-01" rms="3.9799994230270386e-01" purity="2.5113016366958618e-01" nType="0">
            <Node pos="l" depth="3" NCoef="0" IVar="-1" Cut="0.0000000000000000e+00" cType="1" res="-5.2852970547974110e-03" rms="4.1743579506874084e-01" purity="2.8976777195930481e-01" nType="-99"/>
            <Node pos="r" depth="3" NCoef="0" IVar="-1" Cut="0.0000000000000000e+00" cType="1" res="-1.8104616552591324e-02" rms="2.7648812532424927e-01" purity="8.9839696884155273e-02" nType="-99"/>
          </Node>
          <Node pos="r" depth="2" NCoef="0" IVar="-1" Cut="0.0000000000000000e+00" cType="1" res="4.4761857134290040e-04" rms="4.6492198109626770e-01" purity="5.7030105590820312e-01" nType="-99"/>
        </Node>
        <Node pos="r" depth="1" NCoef="0" IVar="6" Cut="1.0300296545028687e+00" cType="1" res="3.9233162999153137e-02" rms="4.4849991798400879e-01" purity="5.3439122438430786e-01" nType="0">
          <Node pos="l" depth="2" NCoef="0" IVar="7" Cut="-1.4666193723678589e+00" cType="1" res="7.2962567210197449e-02" rms="4.4728061556816101e-01" purity="5.8166009187698364e-01" nType="0">
            <Node pos="l" depth="3" NCoef="0" IVar="-1" Cut="0.0000000000000000e+00" cType="1" res="-6.5231625922024250e-03" rms="4.0551930665969849e-01" purity="2.6098549365997314e-01" nType="-99"/>
            <Node pos="r" depth="3" NCoef="0" IVar="-1" Cut="0.0000000000000000e+00" cType="1" res="2.7525415644049644e-03" rms="4.4553196430206299e-01" purity="6.0524034500122070e-01" nType="-99"/>
          </Node>
          <Node pos="r" depth="2" NCoef="0" IVar="1" Cut="4.8443972778320312e+02" cType="1" res="-1.2416185438632965e-01" rms="4.1741365194320679e-01" purity="3.0540740489959717e-01" nType="0">
            <Node pos="l" depth="3" NCoef="0" IVar="-1" Cut="0.0000000000000000e+00" cType="1" res="-7.2619980201125145e-03" rms="3.9510414004325867e-01" purity="2.3653326928615570e-01" nType="-99"/>
            <Node pos="r" depth="3" NCoef="0" IVar="-1" Cut="0.0000000000000000e+00" cType="1" res="2.4198507890105247e-04" rms="4.6834245324134827e-01" purity="5.6015014648437500e-01" nType="-99"/>
          </Node>
        </Node>
      </Node>
    </BinaryTree>
    <BinaryTree type="DecisionTree" boostWeight="1.0000000000000000e+00" itree="74">
      <Node pos="s" depth="0" NCoef="0" IVar="0" Cut="1.1903264160156250e+03" cType="1" res="1.1471646837890148e-02" rms="4.4622591137886047e-01" purity="4.9691855907440186e-01" nType="0">
        <Node pos="l" depth="1" NCoef="0" IVar="2" Cut="2.7465634155273438e+02" cType="1" res="-8.6866863071918488e-02" rms="4.3119242787361145e-01" purity="2.9073110222816467e-01" nType="0">
          <Node pos="l" depth="2" NCoef="0" IVar="0" Cut="1.0602235107421875e+03" cType="1" res="-4.0751133114099503e-02" rms="4.6038904786109924e-01" purity="3.6560088396072388e-01" nType="0">
            <Node pos="l" depth="3" NCoef="0" IVar="-1" Cut="0.0000000000000000e+00" cType="1" res="-3.7135379388928413e-03" rms="4.3184655904769897e-01" purity="2.6960331201553345e-01" nType="-99"/>
            <Node pos="r" depth="3" NCoef="0" IVar="-1" Cut="0.0000000000000000e+00" cType="1" res="1.1396048357710242e-03" rms="4.8328474164009094e-01" purity="4.8788180947303772e-01" nType="-99"/>
          </Node>
          <Node pos="r" depth="2" NCoef="0" IVar="0" Cut="1.0978572998046875e+03" cType="1" res="-1.4646236598491669e-01" rms="3.8208222389221191e-01" purity="1.9397665560245514e-01" nType="0">
            <Node pos="l" depth="3" NCoef="0" IVar="-1" Cut="0.0000000000000000e+00" cType="1" res="-6.5748691558837891e-03" rms="3.5399535298347473e-01" purity="1.5867698192596436e-01" nType="-99"/>
            <Node pos="r" depth="3" NCoef="0" IVar="-1" Cut="0.0000000000000000e+00" cType="1" res="-5.1808357238769531e-03" rms="4.0872505307197571e-01" purity="2.3099881410598755e-01" nType="-99"/>
          </Node>
        </Node>
        <Node pos="r" depth="1" NCoef="0" IVar="2" Cut="4.0315188598632812e+02" cType="1" res="4.8813454806804657e-02" rms="4.4616124033927917e-01" purity="5.7521349191665649e-01" nType="0">
          <Node pos="l" depth="2" NCoef="0" IVar="2" Cut="2.8708059692382812e+02" cType="1" res="1.1791577190160751e-01" rms="4.2862361669540405e-01" purity="6.9031310081481934e-01" nType="0">
            <Node pos="l" depth="3" NCoef="0" IVar="-1" Cut="0.0000000000000000e+00" cType="1" res="5.3033027797937393e-03" rms="3.8297420740127563e-01" purity="7.9549723863601685e-01" nType="-99"/>
            <Node pos="r" depth="3" NCoef="0" IVar="-1" Cut="0.0000000000000000e+00" cType="1" res="1.7317719757556915e-03" rms="4.4923108816146851e-01" purity="6.1287969350814819e-01" nType="-99"/>
          </Node>
          <Node pos="r" depth="2" NCoef="0" IVar="0" Cut="1.5620584716796875e+03" cType="1" res="-3.8520757108926773e-02" rms="4.5253396034240723e-01" purity="4.2974615097045898e-01" nType="0">
            <Node pos="l" depth="3" NCoef="0" IVar="-1" Cut="0.0000000000000000e+00" cType="1" res="-7.1269185282289982e-03" rms="4.0230974555015564e-01" purity="2.3427894711494446e-01" nType="-99"/>
            <Node pos="r" depth="3" NCoef="0" IVar="-1" Cut="0.0000000000000000e+00" cType="1" res="7.8317458974197507e-04" rms="4.6787041425704956e-01" purity="5.4037028551101685e-01" nType="-99"/>
          </Node>
        </Node>
      </Node>
    </BinaryTree>
    <BinaryTree type="DecisionTree" boostWeight="1.0000000000000000e+00" itree="75">
      <Node pos="s" depth="0" NCoef="0" IVar="7" Cut="-1.1999617815017700e+00" cType="1" res="1.5019183047115803e-02" rms="4.4602140784263611e-01" purity="4.9999281764030457e-01" nType="0">
        <Node pos="l" depth="1" NCoef="0" IVar="7" Cut="-1.8094809055328369e+00" cType="1" res="-1.4919261634349823e-01" rms="3.9637610316276550e-01" purity="2.5694635510444641e-01" nType="0">
          <Node pos="l" depth="2" NCoef="0" IVar="-1" Cut="0.0000000000000000e+00" cType="1" res="-1.1308184824883938e-02" rms="3.4084251523017883e-01" purity="1.6217829287052155e-01" nType="-99"/>
          <Node pos="r" depth="2" NCoef="0" IVar="5" Cut="1.0244649505615234e+02" cType="1" res="-1.0744731128215790e-01" rms="4.2070654034614563e-01" purity="3.1373032927513123e-01" nType="0">
            <Node pos="l" depth="3" NCoef="0" IVar="-1" Cut="0.0000000000000000e+00" cType="1" res="-7.9581635072827339e-03" rms="3.7011718750000000e-01" purity="1.9145713746547699e-01" nType="-99"/>
            <Node pos="r" depth="3" NCoef="0" IVar="-1" Cut="0.0000000000000000e+00" cType="1" res="-1.3709405902773142e-03" rms="4.7051790356636047e-01" purity="4.7479829192161560e-01" nType="-99"/>
          </Node>
        </Node>
        <Node pos="r" depth="1" NCoef="0" IVar="7" Cut="1.2762002944946289e+00" cType="1" res="3.7469141185283661e-02" rms="4.4772988557815552e-01" purity="5.3322052955627441e-01" nType="0">
          <Node pos="l" depth="2" NCoef="0" IVar="6" Cut="1.2377752065658569e+00" cType="1" res="6.4590327441692352e-02" rms="4.4818663597106934e-01" purity="5.7377094030380249e-01" nType="0">
            <Node pos="l" depth="3" NCoef="0" IVar="-1" Cut="0.0000000000000000e+00" cType="1" res="2.5714992079883814e-03" rms="4.4574740529060364e-01" purity="6.0086697340011597e-01" nType="-99"/>
            <Node pos="r" depth="3" NCoef="0" IVar="-1" Cut="0.0000000000000000e+00" cType="1" res="-4.3984274379909039e-03" rms="4.2778363823890686e-01" purity="3.1531384587287903e-01" nType="-99"/>
          </Node>
          <Node pos="r" depth="2" NCoef="0" IVar="6" Cut="-5.9605538845062256e-01" cType="1" res="-1.5883333981037140e-01" rms="3.9197137951850891e-01" purity="2.3971723020076752e-01" nType="0">
            <Node pos="l" depth="3" NCoef="0" IVar="-1" Cut="0.0000000000000000e+00" cType="1" res="-1.3724416494369507e-02" rms="3.2462111115455627e-01" purity="1.3895808160305023e-01" nType="-99"/>
            <Node pos="r" depth="3" NCoef="0" IVar="-1" Cut="0.0000000000000000e+00" cType="1" res="-5.4742558859288692e-03" rms="4.1149690747261047e-01" purity="2.7927610278129578e-01" nType="-99"/>
          </Node>
        </Node>
      </Node>
    </BinaryTree>
    <BinaryTree type="DecisionTree" boostWeight="1.0000000000000000e+00" itree="76">
      <Node pos="s" depth="0" NCoef="0" IVar="8" Cut="-1.2000033855438232e+00" cType="1" res="1.7431579530239105e-02" rms="4.4551360607147217e-01" purity="5.0370800495147705e-01" nType="0">
        <Node pos="l" depth="1" NCoef="0" IVar="8" Cut="-1.8095300197601318e+00" cType="1" res="-1.4384876191616058e-01" rms="4.1289138793945312e-01" purity="2.9563906788825989e-01" nType="0">
          <Node pos="l" depth="2" NCoef="0" IVar="-1" Cut="0.0000000000000000e+00" cType="1" res="-1.0380819439888000e-02" rms="3.6518540978431702e-01" purity="1.9275675714015961e-01" nType="-99"/>
          <Node pos="r" depth="2" NCoef="0" IVar="8" Cut="-1.4612256288528442e+00" cType="1" res="-9.6009425818920135e-02" rms="4.3267142772674561e-01" purity="3.5869017243385315e-01" nType="0">
            <Node pos="l" depth="3" NCoef="0" IVar="-1" Cut="0.0000000000000000e+00" cType="1" res="-5.8887181803584099e-03" rms="4.1493406891822815e-01" purity="3.0300790071487427e-01" nType="-99"/>
            <Node pos="r" depth="3" NCoef="0" IVar="-1" Cut="0.0000000000000000e+00" cType="1" res="-2.3014547768980265e-03" rms="4.4423556327819824e-01" purity="4.0715473890304565e-01" nType="-99"/>
          </Node>
        </Node>
        <Node pos="r" depth="1" NCoef="0" IVar="8" Cut="1.2761735916137695e+00" cType="1" res="4.1614931076765060e-02" rms="4.4519230723381042e-01" purity="5.3490710258483887e-01" nType="0">
          <Node pos="l" depth="2" NCoef="0" IVar="5" Cut="8.5192810058593750e+01" cType="1" res="7.0216625928878784e-02" rms="4.4318881630897522e-01" purity="5.7261067628860474e-01" nType="0">
            <Node pos="l" depth="3" NCoef="0" IVar="-1" Cut="0.0000000000000000e+00" cType="1" res="-8.2084030145779252e-04" rms="4.4986036419868469e-01" purity="3.5087642073631287e-01" nType="-99"/>
            <Node pos="r" depth="3" NCoef="0" IVar="-1" Cut="0.0000000000000000e+00" cType="1" res="3.1912124250084162e-03" rms="4.3447601795196533e-01" purity="6.6564744710922241e-01" nType="-99"/>
          </Node>
          <Node pos="r" depth="2" NCoef="0" IVar="8" Cut="1.8566806316375732e+00" cType="1" res="-1.4783070981502533e-01" rms="4.1070324182510376e-01" purity="2.8517451882362366e-01" nType="0">
            <Node pos="l" depth="3" NCoef="0" IVar="-1" Cut="0.0000000000000000e+00" cType="1" res="-4.1363826021552086e-03" rms="4.3317770957946777e-01" purity="3.4762263298034668e-01" nType="-99"/>
            <Node pos="r" depth="3" NCoef="0" IVar="-1" Cut="0.0000000000000000e+00" cType="1" res="-1.1173996143043041e-02" rms="3.6355581879615784e-01" purity="1.9380505383014679e-01" nType="-99"/>
          </Node>
        </Node>
      </Node>
    </BinaryTree>
    <BinaryTree type="DecisionTree" boostWeight="1.0000000000000000e+00" itree="77">
      <Node pos="s" depth="0" NCoef="0" IVar="1" Cut="4.6515151977539062e+02" cType="1" res="1.5204329974949360e-02" rms="4.4306626915931702e-01" purity="5.0211638212203979e-01" nType="0">
        <Node pos="l" depth="1" NCoef="0" IVar="2" Cut="3.4313186645507812e+02" cType="1" res="-2.5478320196270943e-02" rms="4.4267460703849792e-01" purity="4.1842105984687805e-01" nType="0">
          <Node pos="l" depth="2" NCoef="0" IVar="0" Cut="1.2532834472656250e+03" cType="1" res="2.9036695137619972e-02" rms="4.5074397325515747e-01" purity="4.9383610486984253e-01" nType="0">
            <Node pos="l" depth="3" NCoef="0" IVar="-1" Cut="0.0000000000000000e+00" cType="1" res="-1.6404828056693077e-03" rms="4.5164126157760620e-01" purity="3.5713005065917969e-01" nType="-99"/>
            <Node pos="r" depth="3" NCoef="0" IVar="-1" Cut="0.0000000000000000e+00" cType="1" res="4.6450407244265079e-03" rms="4.1344773769378662e-01" purity="7.4602270126342773e-01" nType="-99"/>
          </Node>
          <Node pos="r" depth="2" NCoef="0" IVar="6" Cut="-8.9853543043136597e-01" cType="1" res="-1.0050827264785767e-01" rms="4.1990324854850769e-01" purity="3.1462603807449341e-01" nType="0">
            <Node pos="l" depth="3" NCoef="0" IVar="-1" Cut="0.0000000000000000e+00" cType="1" res="-1.4610633254051208e-02" rms="3.1911408901214600e-01" purity="1.3879920542240143e-01" nType="-99"/>
            <Node pos="r" depth="3" NCoef="0" IVar="-1" Cut="0.0000000000000000e+00" cType="1" res="-1.9037827150896192e-03" rms="4.3363454937934875e-01" purity="3.5228303074836731e-01" nType="-99"/>
          </Node>
        </Node>
        <Node pos="r" depth="1" NCoef="0" IVar="2" Cut="5.4262591552734375e+02" cType="1" res="1.0602439939975739e-01" rms="4.3027788400650024e-01" purity="6.8895798921585083e-01" nType="0">
          <Node pos="l" depth="2" NCoef="0" IVar="7" Cut="-9.3239170312881470e-01" cType="1" res="1.4069794118404388e-01" rms="4.0682762861251831e-01" purity="7.4034738540649414e-01" nType="0">
            <Node pos="l" depth="3" NCoef="0" IVar="-1" Cut="0.0000000000000000e+00" cType="1" res="-2.2891172557137907e-04" rms="4.5438939332962036e-01" purity="5.5199855566024780e-01" nType="-99"/>
            <Node pos="r" depth="3" NCoef="0" IVar="-1" Cut="0.0000000000000000e+00" cType="1" res="4.5651900582015514e-03" rms="3.9416146278381348e-01" purity="7.6930099725723267e-01" nType="-99"/>
          </Node>
          <Node pos="r" depth="2" NCoef="0" IVar="1" Cut="6.2244592285156250e+02" cType="1" res="1.6088957199826837e-03" rms="4.7930222749710083e-01" purity="5.3420454263687134e-01" nType="0">
            <Node pos="l" depth="3" NCoef="0" IVar="-1" Cut="0.0000000000000000e+00" cType="1" res="-4.0803644806146622e-03" rms="4.7203546762466431e-01" purity="4.2298525571823120e-01" nType="-99"/>
            <Node pos="r" depth="3" NCoef="0" IVar="-1" Cut="0.0000000000000000e+00" cType="1" res="2.5974253658205271e-03" rms="4.6822932362556458e-01" purity="6.3938552141189575e-01" nType="-99"/>
          </Node>
        </Node>
      </Node>
    </BinaryTree>
    <BinaryTree type="DecisionTree" boostWeight="1.0000000000000000e+00" itree="78">
      <Node pos="s" depth="0" NCoef="0" IVar="7" Cut="1.2000080347061157e+00" cType="1" res="1.7161453142762184e-02" rms="4.4456437230110168e-01" purity="5.0289344787597656e-01" nType="0">
        <Node pos="l" depth="1" NCoef="0" IVar="7" Cut="-1.0856841802597046e+00" cType="1" res="3.8649786263704300e-02" rms="4.4640552997589111e-01" purity="5.3548920154571533e-01" nType="0">
          <Node pos="l" depth="2" NCoef="0" IVar="7" Cut="-1.4938421249389648e+00" cType="1" res="-1.2306773662567139e-01" rms="4.0837293863296509e-01" purity="2.9121208190917969e-01" nType="0">
            <Node pos="l" depth="3" NCoef="0" IVar="-1" Cut="0.0000000000000000e+00" cType="1" res="-9.2053851112723351e-03" rms="3.6835157871246338e-01" purity="2.0583507418632507e-01" nType="-99"/>
            <Node pos="r" depth="3" NCoef="0" IVar="-1" Cut="0.0000000000000000e+00" cType="1" res="-2.1619696635752916e-03" rms="4.4165313243865967e-01" purity="3.9187276363372803e-01" nType="-99"/>
          </Node>
          <Node pos="r" depth="2" NCoef="0" IVar="8" Cut="1.1997509002685547e+00" cType="1" res="6.9455355405807495e-02" rms="4.4669881463050842e-01" purity="5.8202153444290161e-01" nType="0">
            <Node pos="l" depth="3" NCoef="0" IVar="-1" Cut="0.0000000000000000e+00" cType="1" res="2.7697419282048941e-03" rms="4.4218710064888000e-01" purity="6.1135172843933105e-01" nType="-99"/>
            <Node pos="r" depth="3" NCoef="0" IVar="-1" Cut="0.0000000000000000e+00" cType="1" res="-3.5837490577250719e-03" rms="4.4583153724670410e-01" purity="3.6613598465919495e-01" nType="-99"/>
          </Node>
        </Node>
        <Node pos="r" depth="1" NCoef="0" IVar="7" Cut="1.6571758985519409e+00" cType="1" res="-1.4516699314117432e-01" rms="3.9421668648719788e-01" purity="2.5665685534477234e-01" nType="0">
          <Node pos="l" depth="2" NCoef="0" IVar="7" Cut="1.3741861581802368e+00" cType="1" res="-8.5548847913742065e-02" rms="4.2846477031707764e-01" purity="3.3523386716842651e-01" nType="0">
            <Node pos="l" depth="3" NCoef="0" IVar="-1" Cut="0.0000000000000000e+00" cType="1" res="-1.5393885551020503e-03" rms="4.4117507338523865e-01" purity="3.9551630616188049e-01" nType="-99"/>
            <Node pos="r" depth="3" NCoef="0" IVar="-1" Cut="0.0000000000000000e+00" cType="1" res="-5.9366389177739620e-03" rms="4.1320446133613586e-01" purity="2.8416004776954651e-01" nType="-99"/>
          </Node>
          <Node pos="r" depth="2" NCoef="0" IVar="7" Cut="1.9837064743041992e+00" cType="1" res="-2.0923146605491638e-01" rms="3.4235444664955139e-01" purity="1.7221952974796295e-01" nType="0">
            <Node pos="l" depth="3" NCoef="0" IVar="-1" Cut="0.0000000000000000e+00" cType="1" res="-9.1324551030993462e-03" rms="3.7094363570213318e-01" purity="2.0862399041652679e-01" nType="-99"/>
            <Node pos="r" depth="3" NCoef="0" IVar="-1" Cut="0.0000000000000000e+00" cType="1" res="-1.2997021898627281e-02" rms="3.1410112977027893e-01" purity="1.4204852283000946e-01" nType="-99"/>
          </Node>
        </Node>
      </Node>
    </BinaryTree>
    <BinaryTree type="DecisionTree" boostWeight="1.0000000000000000e+00" itree="79">
      <Node pos="s" depth="0" NCoef="0" IVar="7" Cut="9.3313908576965332e-01" cType="1" res="1.7701636999845505e-02" rms="4.4400614500045776e-01" purity="5.0411659479141235e-01" nType="0">
        <Node pos="l" depth="1" NCoef="0" IVar="7" Cut="-8.4449118375778198e-01" cType="1" res="4.4000376015901566e-02" rms="4.4538602232933044e-01" purity="5.4265844821929932e-01" nType="0">
          <Node pos="l" depth="2" NCoef="0" IVar="7" Cut="-1.4963124990463257e+00" cType="1" res="-8.0254457890987396e-02" rms="4.2698943614959717e-01" purity="3.5622122883796692e-01" nType="0">
            <Node pos="l" depth="3" NCoef="0" IVar="-1" Cut="0.0000000000000000e+00" cType="1" res="-7.1465196087956429e-03" rms="3.8317206501960754e-01" purity="2.3013631999492645e-01" nType="-99"/>
            <Node pos="r" depth="3" NCoef="0" IVar="-1" Cut="0.0000000000000000e+00" cType="1" res="-1.1889567831531167e-03" rms="4.4657966494560242e-01" purity="4.3789750337600708e-01" nType="-99"/>
          </Node>
          <Node pos="r" depth="2" NCoef="0" IVar="0" Cut="1.1904589843750000e+03" cType="1" res="8.2918681204319000e-02" rms="4.4389748573303223e-01" purity="6.0105311870574951e-01" nType="0">
            <Node pos="l" depth="3" NCoef="0" IVar="-1" Cut="0.0000000000000000e+00" cType="1" res="-4.4053205056115985e-04" rms="4.6895366907119751e-01" purity="3.9015963673591614e-01" nType="-99"/>
            <Node pos="r" depth="3" NCoef="0" IVar="-1" Cut="0.0000000000000000e+00" cType="1" res="3.4269636962562799e-03" rms="4.3087282776832581e-01" purity="6.6893410682678223e-01" nType="-99"/>
          </Node>
        </Node>
        <Node pos="r" depth="1" NCoef="0" IVar="2" Cut="3.1893139648437500e+02" cType="1" res="-1.1063525825738907e-01" rms="4.1389253735542297e-01" purity="3.1603345274925232e-01" nType="0">
          <Node pos="l" depth="2" NCoef="0" IVar="-1" Cut="0.0000000000000000e+00" cType="1" res="-1.4114826917648315e-03" rms="4.3477818369865417e-01" purity="4.0407341718673706e-01" nType="-99"/>
          <Node pos="r" depth="2" NCoef="0" IVar="7" Cut="1.6441441774368286e+00" cType="1" res="-1.7004320025444031e-01" rms="3.8569390773773193e-01" purity="2.4258394539356232e-01" nType="0">
            <Node pos="l" depth="3" NCoef="0" IVar="-1" Cut="0.0000000000000000e+00" cType="1" res="-6.2345936894416809e-03" rms="4.1601240634918213e-01" purity="3.0489879846572876e-01" nType="-99"/>
            <Node pos="r" depth="3" NCoef="0" IVar="-1" Cut="0.0000000000000000e+00" cType="1" res="-1.4539022929966450e-02" rms="3.1059950590133667e-01" purity="1.2802025675773621e-01" nType="-99"/>
          </Node>
        </Node>
      </Node>
    </BinaryTree>
    <BinaryTree type="DecisionTree" boostWeight="1.0000000000000000e+00" itree="80">
      <Node pos="s" depth="0" NCoef="0" IVar="6" Cut="9.3691962957382202e-01" cType="1" res="1.2629274278879166e-02" rms="4.4312348961830139e-01" purity="4.9757927656173706e-01" nType="0">
        <Node pos="l" depth="1" NCoef="0" IVar="6" Cut="-1.0145511627197266e+00" cType="1" res="3.7841927260160446e-02" rms="4.4380182027816772e-01" purity="5.3370481729507446e-01" nType="0">
          <Node pos="l" depth="2" NCoef="0" IVar="1" Cut="3.9281677246093750e+02" cType="1" res="-1.2124513089656830e-01" rms="4.1129404306411743e-01" purity="3.0288591980934143e-01" nType="0">
            <Node pos="l" depth="3" NCoef="0" IVar="-1" Cut="0.0000000000000000e+00" cType="1" res="-8.1232720986008644e-03" rms="3.6239662766456604e-01" purity="1.8698360025882721e-01" nType="-99"/>
            <Node pos="r" depth="3" NCoef="0" IVar="-1" Cut="0.0000000000000000e+00" cType="1" res="-1.9915013108402491e-03" rms="4.5326235890388489e-01" purity="4.3945372104644775e-01" nType="-99"/>
          </Node>
          <Node pos="r" depth="2" NCoef="0" IVar="8" Cut="1.4666464328765869e+00" cType="1" res="7.1233205497264862e-02" rms="4.4313362240791321e-01" purity="5.8215206861495972e-01" nType="0">
            <Node pos="l" depth="3" NCoef="0" IVar="-1" Cut="0.0000000000000000e+00" cType="1" res="2.3013555910438299e-03" rms="4.4045203924179077e-01" purity="6.0382109880447388e-01" nType="-99"/>
            <Node pos="r" depth="3" NCoef="0" IVar="-1" Cut="0.0000000000000000e+00" cType="1" res="-5.7997610419988632e-03" rms="4.2673426866531372e-01" purity="3.1675401329994202e-01" nType="-99"/>
          </Node>
        </Node>
        <Node pos="r" depth="1" NCoef="0" IVar="1" Cut="4.8659393310546875e+02" cType="1" res="-1.1707789450883865e-01" rms="4.1613602638244629e-01" purity="3.1173065304756165e-01" nType="0">
          <Node pos="l" depth="2" NCoef="0" IVar="2" Cut="2.9406213378906250e+02" cType="1" res="-1.5099726617336273e-01" rms="3.9435556530952454e-01" purity="2.4357002973556519e-01" nType="0">
            <Node pos="l" depth="3" NCoef="0" IVar="-1" Cut="0.0000000000000000e+00" cType="1" res="-3.5823471844196320e-03" rms="4.2548716068267822e-01" purity="3.1116110086441040e-01" nType="-99"/>
            <Node pos="r" depth="3" NCoef="0" IVar="-1" Cut="0.0000000000000000e+00" cType="1" res="-9.6091320738196373e-03" rms="3.6561426520347595e-01" purity="1.9561493396759033e-01" nType="-99"/>
          </Node>
          <Node pos="r" depth="2" NCoef="0" IVar="-1" Cut="0.0000000000000000e+00" cType="1" res="2.7727166889235377e-04" rms="4.6734002232551575e-01" purity="5.6332457065582275e-01" nType="-99"/>
        </Node>
      </Node>
    </BinaryTree>
    <BinaryTree type="DecisionTree" boostWeight="1.0000000000000000e+00" itree="81">
      <Node pos="s" depth="0" NCoef="0" IVar="8" Cut="-1.2000046968460083e+00" cType="1" res="1.3407706283032894e-02" rms="4.4265410304069519e-01" purity="5.0003892183303833e-01" nType="0">
        <Node pos="l" depth="1" NCoef="0" IVar="6" Cut="6.8641555309295654e-01" cType="1" res="-1.4250478148460388e-01" rms="4.0816637873649597e-01" purity="2.9157769680023193e-01" nType="0">
          <Node pos="l" depth="2" NCoef="0" IVar="6" Cut="-9.4886684417724609e-01" cType="1" res="-1.1077756434679031e-01" rms="4.2517712712287903e-01" purity="3.3176633715629578e-01" nType="0">
            <Node pos="l" depth="3" NCoef="0" IVar="-1" Cut="0.0000000000000000e+00" cType="1" res="-1.1648515239357948e-02" rms="3.4662494063377380e-01" purity="1.7437149584293365e-01" nType="-99"/>
            <Node pos="r" depth="3" NCoef="0" IVar="-1" Cut="0.0000000000000000e+00" cType="1" res="-2.7960976585745811e-03" rms="4.4598156213760376e-01" purity="3.9361193776130676e-01" nType="-99"/>
          </Node>
          <Node pos="r" depth="2" NCoef="0" IVar="-1" Cut="0.0000000000000000e+00" cType="1" res="-1.5736920759081841e-02" rms="3.1983506679534912e-01" purity="1.5302714705467224e-01" nType="-99"/>
        </Node>
        <Node pos="r" depth="1" NCoef="0" IVar="8" Cut="1.2761659622192383e+00" cType="1" res="3.6400236189365387e-02" rms="4.4289547204971313e-01" purity="5.3078091144561768e-01" nType="0">
          <Node pos="l" depth="2" NCoef="0" IVar="5" Cut="8.5192810058593750e+01" cType="1" res="6.2213774770498276e-02" rms="4.4164052605628967e-01" purity="5.6728690862655640e-01" nType="0">
            <Node pos="l" depth="3" NCoef="0" IVar="-1" Cut="0.0000000000000000e+00" cType="1" res="-1.0556676425039768e-03" rms="4.4584015011787415e-01" purity="3.4448409080505371e-01" nType="-99"/>
            <Node pos="r" depth="3" NCoef="0" IVar="-1" Cut="0.0000000000000000e+00" cType="1" res="2.9617694672197104e-03" rms="4.3430998921394348e-01" purity="6.5911817550659180e-01" nType="-99"/>
          </Node>
          <Node pos="r" depth="2" NCoef="0" IVar="2" Cut="3.2500277709960938e+02" cType="1" res="-1.2530121207237244e-01" rms="4.1567841172218323e-01" purity="3.0209958553314209e-01" nType="0">
            <Node pos="l" depth="3" NCoef="0" IVar="-1" Cut="0.0000000000000000e+00" cType="1" res="-2.6023553218692541e-03" rms="4.3194851279258728e-01" purity="3.7054353952407837e-01" nType="-99"/>
            <Node pos="r" depth="3" NCoef="0" IVar="-1" Cut="0.0000000000000000e+00" cType="1" res="-9.1300569474697113e-03" rms="3.9479243755340576e-01" purity="2.4179379642009735e-01" nType="-99"/>
          </Node>
        </Node>
      </Node>
    </BinaryTree>
    <BinaryTree type="DecisionTree" boostWeight="1.0000000000000000e+00" itree="82">
      <Node pos="s" depth="0" NCoef="0" IVar="5" Cut="1.0898453521728516e+02" cType="1" res="1.6251843422651291e-02" rms="4.4170945882797241e-01" purity="5.0122261047363281e-01" nType="0">
        <Node pos="l" depth="1" NCoef="0" IVar="7" Cut="-9.3324476480484009e-01" cType="1" res="-3.4657809883356094e-02" rms="4.4028484821319580e-01" purity="3.7652209401130676e-01" nType="0">
          <Node pos="l" depth="2" NCoef="0" IVar="6" Cut="-8.9301520586013794e-01" cType="1" res="-1.4309942722320557e-01" rms="3.7905323505401611e-01" purity="2.1571174263954163e-01" nType="0">
            <Node pos="l" depth="3" NCoef="0" IVar="-1" Cut="0.0000000000000000e+00" cType="1" res="-1.1580523103475571e-02" rms="3.0020269751548767e-01" purity="1.1521231383085251e-01" nType="-99"/>
            <Node pos="r" depth="3" NCoef="0" IVar="-1" Cut="0.0000000000000000e+00" cType="1" res="-5.4373904131352901e-03" rms="3.9797425270080566e-01" purity="2.4702382087707520e-01" nType="-99"/>
          </Node>
          <Node pos="r" depth="2" NCoef="0" IVar="7" Cut="1.0222016572952271e+00" cType="1" res="-8.3863204345107079e-03" rms="4.4996207952499390e-01" purity="4.1548061370849609e-01" nType="0">
            <Node pos="l" depth="3" NCoef="0" IVar="-1" Cut="0.0000000000000000e+00" cType="1" res="6.5329502103850245e-04" rms="4.6115878224372864e-01" purity="4.7028711438179016e-01" nType="-99"/>
            <Node pos="r" depth="3" NCoef="0" IVar="-1" Cut="0.0000000000000000e+00" cType="1" res="-6.7033399827778339e-03" rms="3.7729847431182861e-01" purity="2.0893377065658569e-01" nType="-99"/>
          </Node>
        </Node>
        <Node pos="r" depth="1" NCoef="0" IVar="8" Cut="-1.2000447511672974e+00" cType="1" res="8.5170611739158630e-02" rms="4.3422320485115051e-01" purity="6.7003560066223145e-01" nType="0">
          <Node pos="l" depth="2" NCoef="0" IVar="-1" Cut="0.0000000000000000e+00" cType="1" res="-3.7579108029603958e-03" rms="4.6013456583023071e-01" purity="4.4885504245758057e-01" nType="-99"/>
          <Node pos="r" depth="2" NCoef="0" IVar="8" Cut="1.2760558128356934e+00" cType="1" res="1.0565482079982758e-01" rms="4.2638814449310303e-01" purity="6.9523155689239502e-01" nType="0">
            <Node pos="l" depth="3" NCoef="0" IVar="-1" Cut="0.0000000000000000e+00" cType="1" res="3.6941738799214363e-03" rms="4.1643244028091431e-01" purity="7.2387236356735229e-01" nType="-99"/>
            <Node pos="r" depth="3" NCoef="0" IVar="-1" Cut="0.0000000000000000e+00" cType="1" res="-3.2133024651557207e-03" rms="4.6248865127563477e-01" purity="4.4609150290489197e-01" nType="-99"/>
          </Node>
        </Node>
      </Node>
    </BinaryTree>
    <BinaryTree type="DecisionTree" boostWeight="1.0000000000000000e+00" itree="83">
      <Node pos="s" depth="0" NCoef="0" IVar="0" Cut="1.1903264160156250e+03" cType="1" res="1.4937469735741615e-02" rms="4.4241029024124146e-01" purity="4.9994671344757080e-01" nType="0">
        <Node pos="l" depth="1" NCoef="0" IVar="2" Cut="2.5598806762695312e+02" cType="1" res="-8.2249321043491364e-02" rms="4.2836794257164001e-01" purity="2.8889384865760803e-01" nType="0">
          <Node pos="l" depth="2" NCoef="0" IVar="0" Cut="1.0230500488281250e+03" cType="1" res="-2.2587219253182411e-02" rms="4.6222487092018127e-01" purity="3.8545033335685730e-01" nType="0">
            <Node pos="l" depth="3" NCoef="0" IVar="-1" Cut="0.0000000000000000e+00" cType="1" res="-3.4077512100338936e-03" rms="4.2679050564765930e-01" purity="2.6592004299163818e-01" nType="-99"/>
            <Node pos="r" depth="3" NCoef="0" IVar="-1" Cut="0.0000000000000000e+00" cType="1" res="1.0293314699083567e-03" rms="4.8158308863639832e-01" purity="4.8143848776817322e-01" nType="-99"/>
          </Node>
          <Node pos="r" depth="2" NCoef="0" IVar="1" Cut="3.4268017578125000e+02" cType="1" res="-1.3037419319152832e-01" rms="3.9241549372673035e-01" purity="2.1100908517837524e-01" nType="0">
            <Node pos="l" depth="3" NCoef="0" IVar="-1" Cut="0.0000000000000000e+00" cType="1" res="-6.7435530945658684e-03" rms="3.5646045207977295e-01" purity="1.6731919348239899e-01" nType="-99"/>
            <Node pos="r" depth="3" NCoef="0" IVar="-1" Cut="0.0000000000000000e+00" cType="1" res="-3.6242168862372637e-03" rms="4.2116272449493408e-01" purity="2.5313404202461243e-01" nType="-99"/>
          </Node>
        </Node>
        <Node pos="r" depth="1" NCoef="0" IVar="2" Cut="4.0314468383789062e+02" cType="1" res="5.1661062985658646e-02" rms="4.4207426905632019e-01" purity="5.7969641685485840e-01" nType="0">
          <Node pos="l" depth="2" NCoef="0" IVar="7" Cut="-1.2000087499618530e+00" cType="1" res="1.2132024019956589e-01" rms="4.2370393872261047e-01" purity="6.9772678613662720e-01" nType="0">
            <Node pos="l" depth="3" NCoef="0" IVar="-1" Cut="0.0000000000000000e+00" cType="1" res="-2.8720162808895111e-03" rms="4.5764315128326416e-01" purity="4.1874358057975769e-01" nType="-99"/>
            <Node pos="r" depth="3" NCoef="0" IVar="-1" Cut="0.0000000000000000e+00" cType="1" res="4.0834387764334679e-03" rms="4.1431257128715515e-01" purity="7.2703784704208374e-01" nType="-99"/>
          </Node>
          <Node pos="r" depth="2" NCoef="0" IVar="0" Cut="1.5621153564453125e+03" cType="1" res="-3.7941604852676392e-02" rms="4.4901838898658752e-01" purity="4.2787384986877441e-01" nType="0">
            <Node pos="l" depth="3" NCoef="0" IVar="-1" Cut="0.0000000000000000e+00" cType="1" res="-6.7487792111933231e-03" rms="4.0272545814514160e-01" purity="2.3879809677600861e-01" nType="-99"/>
            <Node pos="r" depth="3" NCoef="0" IVar="-1" Cut="0.0000000000000000e+00" cType="1" res="6.1307335272431374e-04" rms="4.6479749679565430e-01" purity="5.3693777322769165e-01" nType="-99"/>
          </Node>
        </Node>
      </Node>
    </BinaryTree>
    <BinaryTree type="DecisionTree" boostWeight="1.0000000000000000e+00" itree="84">
      <Node pos="s" depth="0" NCoef="0" IVar="8" Cut="-1.2000062465667725e+00" cType="1" res="1.3770620338618755e-02" rms="4.4137769937515259e-01" purity="4.9939692020416260e-01" nType="0">
        <Node pos="l" depth="1" NCoef="0" IVar="8" Cut="-1.8857209682464600e+00" cType="1" res="-1.4397995173931122e-01" rms="4.0601593255996704e-01" purity="2.8191289305686951e-01" nType="0">
          <Node pos="l" depth="2" NCoef="0" IVar="-1" Cut="0.0000000000000000e+00" cType="1" res="-1.2094167992472649e-02" rms="3.5069653391838074e-01" purity="1.7105297744274139e-01" nType="-99"/>
          <Node pos="r" depth="2" NCoef="0" IVar="1" Cut="3.9999212646484375e+02" cType="1" res="-1.0443048179149628e-01" rms="4.2532560229301453e-01" purity="3.3691698312759399e-01" nType="0">
            <Node pos="l" depth="3" NCoef="0" IVar="-1" Cut="0.0000000000000000e+00" cType="1" res="-7.1394275873899460e-03" rms="3.9018905162811279e-01" purity="2.3668746650218964e-01" nType="-99"/>
            <Node pos="r" depth="3" NCoef="0" IVar="-1" Cut="0.0000000000000000e+00" cType="1" res="-1.7247755313292146e-03" rms="4.5892608165740967e-01" purity="4.6342262625694275e-01" nType="-99"/>
          </Node>
        </Node>
        <Node pos="r" depth="1" NCoef="0" IVar="8" Cut="1.2761768102645874e+00" cType="1" res="3.6969173699617386e-02" rms="4.4161427021026611e-01" purity="5.3137975931167603e-01" nType="0">
          <Node pos="l" depth="2" NCoef="0" IVar="6" Cut="-9.2601633071899414e-01" cType="1" res="6.3359409570693970e-02" rms="4.4071128964424133e-01" purity="5.6928229331970215e-01" nType="0">
            <Node pos="l" depth="3" NCoef="0" IVar="-1" Cut="0.0000000000000000e+00" cType="1" res="-2.9633047524839640e-03" rms="4.3058177828788757e-01" purity="3.7225168943405151e-01" nType="-99"/>
            <Node pos="r" depth="3" NCoef="0" IVar="-1" Cut="0.0000000000000000e+00" cType="1" res="2.2654731292277575e-03" rms="4.3804928660392761e-01" purity="6.0266405344009399e-01" nType="-99"/>
          </Node>
          <Node pos="r" depth="2" NCoef="0" IVar="2" Cut="3.2477679443359375e+02" cType="1" res="-1.3581700623035431e-01" rms="4.0721562504768372e-01" purity="2.8321844339370728e-01" nType="0">
            <Node pos="l" depth="3" NCoef="0" IVar="-1" Cut="0.0000000000000000e+00" cType="1" res="-3.1700062099844217e-03" rms="4.3070524930953979e-01" purity="3.5122102499008179e-01" nType="-99"/>
            <Node pos="r" depth="3" NCoef="0" IVar="-1" Cut="0.0000000000000000e+00" cType="1" res="-1.0526856407523155e-02" rms="3.7801721692085266e-01" purity="2.2170096635818481e-01" nType="-99"/>
          </Node>
        </Node>
      </Node>
    </BinaryTree>
    <BinaryTree type="DecisionTree" boostWeight="1.0000000000000000e+00" itree="85">
      <Node pos="s" depth="0" NCoef="0" IVar="8" Cut="-1.4666963815689087e+00" cType="1" res="2.2346723824739456e-02" rms="4.4151106476783752e-01" purity="5.0783598423004150e-01" nType="0">
        <Node pos="l" depth="1" NCoef="0" IVar="1" Cut="3.9289953613281250e+02" cType="1" res="-1.6771917045116425e-01" rms="3.9031505584716797e-01" purity="2.4120022356510162e-01" nType="0">
          <Node pos="l" depth="2" NCoef="0" IVar="-1" Cut="0.0000000000000000e+00" cType="1" res="-1.0975129902362823e-02" rms="3.4538757801055908e-01" purity="1.5472899377346039e-01" nType="-99"/>
          <Node pos="r" depth="2" NCoef="0" IVar="-1" Cut="0.0000000000000000e+00" cType="1" res="-5.4279300384223461e-03" rms="4.3605867028236389e-01" purity="3.5064530372619629e-01" nType="-99"/>
        </Node>
        <Node pos="r" depth="1" NCoef="0" IVar="8" Cut="1.3776719570159912e+00" cType="1" res="4.0044367313385010e-02" rms="4.4183757901191711e-01" purity="5.3266328573226929e-01" nType="0">
          <Node pos="l" depth="2" NCoef="0" IVar="0" Cut="1.1315577392578125e+03" cType="1" res="6.0939516872167587e-02" rms="4.4136989116668701e-01" purity="5.6350988149642944e-01" nType="0">
            <Node pos="l" depth="3" NCoef="0" IVar="-1" Cut="0.0000000000000000e+00" cType="1" res="-2.2177707869559526e-03" rms="4.4012445211410522e-01" purity="3.0729210376739502e-01" nType="-99"/>
            <Node pos="r" depth="3" NCoef="0" IVar="-1" Cut="0.0000000000000000e+00" cType="1" res="2.7672760188579559e-03" rms="4.3674787878990173e-01" purity="6.2232470512390137e-01" nType="-99"/>
          </Node>
          <Node pos="r" depth="2" NCoef="0" IVar="8" Cut="2.0549046993255615e+00" cType="1" res="-1.2919148802757263e-01" rms="4.0790799260139465e-01" purity="2.8282773494720459e-01" nType="0">
            <Node pos="l" depth="3" NCoef="0" IVar="-1" Cut="0.0000000000000000e+00" cType="1" res="-3.8034433964639902e-03" rms="4.2597448825836182e-01" purity="3.3409559726715088e-01" nType="-99"/>
            <Node pos="r" depth="3" NCoef="0" IVar="-1" Cut="0.0000000000000000e+00" cType="1" res="-1.0720367543399334e-02" rms="3.4593406319618225e-01" purity="1.6514062881469727e-01" nType="-99"/>
          </Node>
        </Node>
      </Node>
    </BinaryTree>
    <BinaryTree type="DecisionTree" boostWeight="1.0000000000000000e+00" itree="86">
      <Node pos="s" depth="0" NCoef="0" IVar="6" Cut="9.3695157766342163e-01" cType="1" res="1.9267959520220757e-02" rms="4.4091638922691345e-01" purity="5.0446867942810059e-01" nType="0">
        <Node pos="l" depth="1" NCoef="0" IVar="6" Cut="-8.3712637424468994e-01" cType="1" res="4.4589679688215256e-02" rms="4.4131273031234741e-01" purity="5.4153269529342651e-01" nType="0">
          <Node pos="l" depth="2" NCoef="0" IVar="6" Cut="-1.3946933746337891e+00" cType="1" res="-9.6955478191375732e-02" rms="4.1644451022148132e-01" purity="3.3473971486091614e-01" nType="0">
            <Node pos="l" depth="3" NCoef="0" IVar="-1" Cut="0.0000000000000000e+00" cType="1" res="-8.0056749284267426e-03" rms="3.7644195556640625e-01" purity="2.2921842336654663e-01" nType="-99"/>
            <Node pos="r" depth="3" NCoef="0" IVar="-1" Cut="0.0000000000000000e+00" cType="1" res="-1.7498160013929009e-03" rms="4.3440434336662292e-01" purity="4.0579825639724731e-01" nType="-99"/>
          </Node>
          <Node pos="r" depth="2" NCoef="0" IVar="5" Cut="8.1773971557617188e+01" cType="1" res="8.4842734038829803e-02" rms="4.3989220261573792e-01" purity="6.0034108161926270e-01" nType="0">
            <Node pos="l" depth="3" NCoef="0" IVar="-1" Cut="0.0000000000000000e+00" cType="1" res="-5.4621760500594974e-04" rms="4.5333415269851685e-01" purity="3.5867902636528015e-01" nType="-99"/>
            <Node pos="r" depth="3" NCoef="0" IVar="-1" Cut="0.0000000000000000e+00" cType="1" res="3.5040555521845818e-03" rms="4.2978912591934204e-01" purity="6.8393087387084961e-01" nType="-99"/>
          </Node>
        </Node>
        <Node pos="r" depth="1" NCoef="0" IVar="1" Cut="4.9252700805664062e+02" cType="1" res="-1.0874389857053757e-01" rms="4.1594597697257996e-01" purity="3.1709474325180054e-01" nType="0">
          <Node pos="l" depth="2" NCoef="0" IVar="6" Cut="1.4691932201385498e+00" cType="1" res="-1.3843943178653717e-01" rms="3.9953389763832092e-01" purity="2.5339198112487793e-01" nType="0">
            <Node pos="l" depth="3" NCoef="0" IVar="-1" Cut="0.0000000000000000e+00" cType="1" res="-3.4590016584843397e-03" rms="4.2741456627845764e-01" purity="3.1064635515213013e-01" nType="-99"/>
            <Node pos="r" depth="3" NCoef="0" IVar="-1" Cut="0.0000000000000000e+00" cType="1" res="-9.3284351751208305e-03" rms="3.5305580496788025e-01" purity="1.7906163632869720e-01" nType="-99"/>
          </Node>
          <Node pos="r" depth="2" NCoef="0" IVar="-1" Cut="0.0000000000000000e+00" cType="1" res="3.7188045098446310e-04" rms="4.5738232135772705e-01" purity="5.7531690597534180e-01" nType="-99"/>
        </Node>
      </Node>
    </BinaryTree>
    <BinaryTree type="DecisionTree" boostWeight="1.0000000000000000e+00" itree="87">
      <Node pos="s" depth="0" NCoef="0" IVar="6" Cut="-1.1820416450500488e+00" cType="1" res="1.4699476771056652e-02" rms="4.3947786092758179e-01" purity="5.0087255239486694e-01" nType="0">
        <Node pos="l" depth="1" NCoef="0" IVar="8" Cut="-9.3143057823181152e-01" cType="1" res="-1.4609314501285553e-01" rms="3.9073181152343750e-01" purity="2.5782468914985657e-01" nType="0">
          <Node pos="l" depth="2" NCoef="0" IVar="-1" Cut="0.0000000000000000e+00" cType="1" res="-1.2604452669620514e-02" rms="3.1432995200157166e-01" purity="1.3307824730873108e-01" nType="-99"/>
          <Node pos="r" depth="2" NCoef="0" IVar="8" Cut="6.6752409934997559e-01" cType="1" res="-1.1647826433181763e-01" rms="4.0931195020675659e-01" purity="3.0025145411491394e-01" nType="0">
            <Node pos="l" depth="3" NCoef="0" IVar="-1" Cut="0.0000000000000000e+00" cType="1" res="-3.0949523206800222e-03" rms="4.2875459790229797e-01" purity="3.5594317317008972e-01" nType="-99"/>
            <Node pos="r" depth="3" NCoef="0" IVar="-1" Cut="0.0000000000000000e+00" cType="1" res="-9.7663458436727524e-03" rms="3.5854017734527588e-01" purity="1.9781580567359924e-01" nType="-99"/>
          </Node>
        </Node>
        <Node pos="r" depth="1" NCoef="0" IVar="6" Cut="1.0932319164276123e+00" cType="1" res="3.3887550234794617e-02" rms="4.4104048609733582e-01" purity="5.2987647056579590e-01" nType="0">
          <Node pos="l" depth="2" NCoef="0" IVar="2" Cut="4.9194973754882812e+02" cType="1" res="6.1655480414628983e-02" rms="4.4107377529144287e-01" purity="5.7219797372817993e-01" nType="0">
            <Node pos="l" depth="3" NCoef="0" IVar="-1" Cut="0.0000000000000000e+00" cType="1" res="2.6670098304748535e-03" rms="4.3343713879585266e-01" purity="6.0793948173522949e-01" nType="-99"/>
            <Node pos="r" depth="3" NCoef="0" IVar="-1" Cut="0.0000000000000000e+00" cType="1" res="-1.1186720803380013e-03" rms="4.5423921942710876e-01" purity="4.2178943753242493e-01" nType="-99"/>
          </Node>
          <Node pos="r" depth="2" NCoef="0" IVar="1" Cut="4.8808273315429688e+02" cType="1" res="-1.3021768629550934e-01" rms="4.0355390310287476e-01" purity="2.7976110577583313e-01" nType="0">
            <Node pos="l" depth="3" NCoef="0" IVar="-1" Cut="0.0000000000000000e+00" cType="1" res="-7.5364713557064533e-03" rms="3.8076362013816833e-01" purity="2.1785263717174530e-01" nType="-99"/>
            <Node pos="r" depth="3" NCoef="0" IVar="-1" Cut="0.0000000000000000e+00" cType="1" res="-7.2059256490319967e-04" rms="4.6802297234535217e-01" purity="5.2654451131820679e-01" nType="-99"/>
          </Node>
        </Node>
      </Node>
    </BinaryTree>
    <BinaryTree type="DecisionTree" boostWeight="1.0000000000000000e+00" itree="88">
      <Node pos="s" depth="0" NCoef="0" IVar="6" Cut="9.3691831827163696e-01" cType="1" res="1.6954533755779266e-02" rms="4.3981289863586426e-01" purity="5.0161278247833252e-01" nType="0">
        <Node pos="l" depth="1" NCoef="0" IVar="6" Cut="-1.0145511627197266e+00" cType="1" res="4.2542669922113419e-02" rms="4.4068008661270142e-01" purity="5.3999686241149902e-01" nType="0">
          <Node pos="l" depth="2" NCoef="0" IVar="6" Cut="-1.4369463920593262e+00" cType="1" res="-1.1430868506431580e-01" rms="4.0842086076736450e-01" purity="2.9869276285171509e-01" nType="0">
            <Node pos="l" depth="3" NCoef="0" IVar="-1" Cut="0.0000000000000000e+00" cType="1" res="-9.6559012308716774e-03" rms="3.6270767450332642e-01" purity="1.9961501657962799e-01" nType="-99"/>
            <Node pos="r" depth="3" NCoef="0" IVar="-1" Cut="0.0000000000000000e+00" cType="1" res="-1.9342045998200774e-03" rms="4.3440061807632446e-01" purity="3.8464051485061646e-01" nType="-99"/>
          </Node>
          <Node pos="r" depth="2" NCoef="0" IVar="7" Cut="1.4667043685913086e+00" cType="1" res="7.4815317988395691e-02" rms="4.4014912843704224e-01" purity="5.8964592218399048e-01" nType="0">
            <Node pos="l" depth="3" NCoef="0" IVar="-1" Cut="0.0000000000000000e+00" cType="1" res="2.7358250226825476e-03" rms="4.3893954157829285e-01" purity="6.1192941665649414e-01" nType="-99"/>
            <Node pos="r" depth="3" NCoef="0" IVar="-1" Cut="0.0000000000000000e+00" cType="1" res="-6.2307612970471382e-03" rms="4.0282720327377319e-01" purity="2.7011951804161072e-01" nType="-99"/>
          </Node>
        </Node>
        <Node pos="r" depth="1" NCoef="0" IVar="6" Cut="1.4691561460494995e+00" cType="1" res="-1.1336739361286163e-01" rms="4.1137346625328064e-01" purity="3.0612045526504517e-01" nType="0">
          <Node pos="l" depth="2" NCoef="0" IVar="5" Cut="1.0738957977294922e+02" cType="1" res="-6.4765259623527527e-02" rms="4.3364790081977844e-01" purity="3.7927317619323730e-01" nType="0">
            <Node pos="l" depth="3" NCoef="0" IVar="-1" Cut="0.0000000000000000e+00" cType="1" res="-4.7235679812729359e-03" rms="4.0423741936683655e-01" purity="2.5898441672325134e-01" nType="-99"/>
            <Node pos="r" depth="3" NCoef="0" IVar="-1" Cut="0.0000000000000000e+00" cType="1" res="-7.8206621765275486e-06" rms="4.6360591053962708e-01" purity="5.4550868272781372e-01" nType="-99"/>
          </Node>
          <Node pos="r" depth="2" NCoef="0" IVar="8" Cut="3.9929369091987610e-01" cType="1" res="-1.8238726258277893e-01" rms="3.6657911539077759e-01" purity="2.0223630964756012e-01" nType="0">
            <Node pos="l" depth="3" NCoef="0" IVar="-1" Cut="0.0000000000000000e+00" cType="1" res="-7.7408780343830585e-03" rms="3.8695442676544189e-01" purity="2.3265385627746582e-01" nType="-99"/>
            <Node pos="r" depth="3" NCoef="0" IVar="-1" Cut="0.0000000000000000e+00" cType="1" res="-1.1694531887769699e-02" rms="3.3293381333351135e-01" purity="1.5907447040081024e-01" nType="-99"/>
          </Node>
        </Node>
      </Node>
    </BinaryTree>
    <BinaryTree type="DecisionTree" boostWeight="1.0000000000000000e+00" itree="89">
      <Node pos="s" depth="0" NCoef="0" IVar="8" Cut="-1.2000033855438232e+00" cType="1" res="1.4028963632881641e-02" rms="4.4143223762512207e-01" purity="4.9883368611335754e-01" nType="0">
        <Node pos="l" depth="1" NCoef="0" IVar="8" Cut="-1.5809855461120605e+00" cType="1" res="-1.2636326253414154e-01" rms="4.0977296233177185e-01" purity="2.9951652884483337e-01" nType="0">
          <Node pos="l" depth="2" NCoef="0" IVar="1" Cut="3.9765856933593750e+02" cType="1" res="-1.7844897508621216e-01" rms="3.8242915272712708e-01" purity="2.2516651451587677e-01" nType="0">
            <Node pos="l" depth="3" NCoef="0" IVar="-1" Cut="0.0000000000000000e+00" cType="1" res="-1.1369213461875916e-02" rms="3.3613300323486328e-01" purity="1.4473117887973785e-01" nType="-99"/>
            <Node pos="r" depth="3" NCoef="0" IVar="-1" Cut="0.0000000000000000e+00" cType="1" res="-5.3834007121622562e-03" rms="4.3433550000190735e-01" purity="3.3605152368545532e-01" nType="-99"/>
          </Node>
          <Node pos="r" depth="2" NCoef="0" IVar="1" Cut="4.0354150390625000e+02" cType="1" res="-5.8303318917751312e-02" rms="4.3363824486732483e-01" purity="3.9666903018951416e-01" nType="0">
            <Node pos="l" depth="3" NCoef="0" IVar="-1" Cut="0.0000000000000000e+00" cType="1" res="-5.0228871405124664e-03" rms="4.0453156828880310e-01" purity="2.8477641940116882e-01" nType="-99"/>
            <Node pos="r" depth="3" NCoef="0" IVar="-1" Cut="0.0000000000000000e+00" cType="1" res="2.5804626056924462e-04" rms="4.5750850439071655e-01" purity="5.3070968389511108e-01" nType="-99"/>
          </Node>
        </Node>
        <Node pos="r" depth="1" NCoef="0" IVar="8" Cut="1.0857110023498535e+00" cType="1" res="3.5534061491489410e-02" rms="4.4216370582580566e-01" purity="5.2936482429504395e-01" nType="0">
          <Node pos="l" depth="2" NCoef="0" IVar="7" Cut="-1.1998630762100220e+00" cType="1" res="6.4772777259349823e-02" rms="4.4055390357971191e-01" purity="5.7373428344726562e-01" nType="0">
            <Node pos="l" depth="3" NCoef="0" IVar="-1" Cut="0.0000000000000000e+00" cType="1" res="-3.7534467410296202e-03" rms="4.2637899518013000e-01" purity="3.2403475046157837e-01" nType="-99"/>
            <Node pos="r" depth="3" NCoef="0" IVar="-1" Cut="0.0000000000000000e+00" cType="1" res="2.5686479639261961e-03" rms="4.3837827444076538e-01" purity="6.0398381948471069e-01" nType="-99"/>
          </Node>
          <Node pos="r" depth="2" NCoef="0" IVar="8" Cut="1.6571427583694458e+00" cType="1" res="-9.7328267991542816e-02" rms="4.2476886510848999e-01" purity="3.2774746417999268e-01" nType="0">
            <Node pos="l" depth="3" NCoef="0" IVar="-1" Cut="0.0000000000000000e+00" cType="1" res="-1.9109405111521482e-03" rms="4.4083884358406067e-01" purity="3.9546689391136169e-01" nType="-99"/>
            <Node pos="r" depth="3" NCoef="0" IVar="-1" Cut="0.0000000000000000e+00" cType="1" res="-8.2220081239938736e-03" rms="3.9254978299140930e-01" purity="2.3406083881855011e-01" nType="-99"/>
          </Node>
        </Node>
      </Node>
    </BinaryTree>
    <BinaryTree type="DecisionTree" boostWeight="1.0000000000000000e+00" itree="90">
      <Node pos="s" depth="0" NCoef="0" IVar="0" Cut="1.1315443115234375e+03" cType="1" res="1.7008353024721146e-02" rms="4.3916451930999756e-01" purity="5.0147855281829834e-01" nType="0">
        <Node pos="l" depth="1" NCoef="0" IVar="2" Cut="2.3348583984375000e+02" cType="1" res="-9.1180667281150818e-02" rms="4.1650304198265076e-01" purity="2.6140031218528748e-01" nType="0">
          <Node pos="l" depth="2" NCoef="0" IVar="-1" Cut="0.0000000000000000e+00" cType="1" res="-4.7705200267955661e-04" rms="4.6492025256156921e-01" purity="3.8025888800621033e-01" nType="-99"/>
          <Node pos="r" depth="2" NCoef="0" IVar="1" Cut="3.3878268432617188e+02" cType="1" res="-1.2725211679935455e-01" rms="3.8664212822914124e-01" purity="2.0600485801696777e-01" nType="0">
            <Node pos="l" depth="3" NCoef="0" IVar="-1" Cut="0.0000000000000000e+00" cType="1" res="-5.6279422715306282e-03" rms="3.5987097024917603e-01" purity="1.6982106864452362e-01" nType="-99"/>
            <Node pos="r" depth="3" NCoef="0" IVar="-1" Cut="0.0000000000000000e+00" cType="1" res="-3.6524748429656029e-03" rms="4.0941849350929260e-01" purity="2.4190771579742432e-01" nType="-99"/>
          </Node>
        </Node>
        <Node pos="r" depth="1" NCoef="0" IVar="2" Cut="3.7131823730468750e+02" cType="1" res="4.5279685407876968e-02" rms="4.4053903222084045e-01" purity="5.6421440839767456e-01" nType="0">
          <Node pos="l" depth="2" NCoef="0" IVar="0" Cut="1.3327990722656250e+03" cType="1" res="1.1599960178136826e-01" rms="4.2330902814865112e-01" purity="6.8260437250137329e-01" nType="0">
            <Node pos="l" depth="3" NCoef="0" IVar="-1" Cut="0.0000000000000000e+00" cType="1" res="1.2157286982983351e-03" rms="4.6798330545425415e-01" purity="5.3466117382049561e-01" nType="-99"/>
            <Node pos="r" depth="3" NCoef="0" IVar="-1" Cut="0.0000000000000000e+00" cType="1" res="4.8796269111335278e-03" rms="3.7280473113059998e-01" purity="8.0100095272064209e-01" nType="-99"/>
          </Node>
          <Node pos="r" depth="2" NCoef="0" IVar="0" Cut="1.7630074462890625e+03" cType="1" res="-3.0112696811556816e-02" rms="4.4601163268089294e-01" purity="4.3800246715545654e-01" nType="0">
            <Node pos="l" depth="3" NCoef="0" IVar="-1" Cut="0.0000000000000000e+00" cType="1" res="-3.4666159190237522e-03" rms="4.2982435226440430e-01" purity="3.4172731637954712e-01" nType="-99"/>
            <Node pos="r" depth="3" NCoef="0" IVar="-1" Cut="0.0000000000000000e+00" cType="1" res="1.8595337169244885e-03" rms="4.6039560437202454e-01" purity="6.0590082406997681e-01" nType="-99"/>
          </Node>
        </Node>
      </Node>
    </BinaryTree>
    <BinaryTree type="DecisionTree" boostWeight="1.0000000000000000e+00" itree="91">
      <Node pos="s" depth="0" NCoef="0" IVar="5" Cut="1.0731203460693359e+02" cType="1" res="1.1443342082202435e-02" rms="4.3911984562873840e-01" purity="4.9537706375122070e-01" nType="0">
        <Node pos="l" depth="1" NCoef="0" IVar="6" Cut="6.8392443656921387e-01" cType="1" res="-3.8488280028104782e-02" rms="4.3778201937675476e-01" purity="3.6543139815330505e-01" nType="0">
          <Node pos="l" depth="2" NCoef="0" IVar="6" Cut="-7.8954511880874634e-01" cType="1" res="-1.1383446864783764e-02" rms="4.4724252820014954e-01" purity="4.0428775548934937e-01" nType="0">
            <Node pos="l" depth="3" NCoef="0" IVar="-1" Cut="0.0000000000000000e+00" cType="1" res="-5.0560752861201763e-03" rms="3.9907741546630859e-01" purity="2.4786970019340515e-01" nType="-99"/>
            <Node pos="r" depth="3" NCoef="0" IVar="-1" Cut="0.0000000000000000e+00" cType="1" res="6.6502747358754277e-04" rms="4.5862239599227905e-01" purity="4.6459332108497620e-01" nType="-99"/>
          </Node>
          <Node pos="r" depth="2" NCoef="0" IVar="6" Cut="1.5906530618667603e+00" cType="1" res="-1.2072944641113281e-01" rms="3.9655485749244690e-01" purity="2.4753390252590179e-01" nType="0">
            <Node pos="l" depth="3" NCoef="0" IVar="-1" Cut="0.0000000000000000e+00" cType="1" res="-3.8138539530336857e-03" rms="4.1810530424118042e-01" purity="2.8921270370483398e-01" nType="-99"/>
            <Node pos="r" depth="3" NCoef="0" IVar="-1" Cut="0.0000000000000000e+00" cType="1" res="-1.0666375979781151e-02" rms="3.1558123230934143e-01" purity="1.2869670987129211e-01" nType="-99"/>
          </Node>
        </Node>
        <Node pos="r" depth="1" NCoef="0" IVar="8" Cut="-1.2000569105148315e+00" cType="1" res="7.4722304940223694e-02" rms="4.3260738253593445e-01" purity="6.6005885601043701e-01" nType="0">
          <Node pos="l" depth="2" NCoef="0" IVar="-1" Cut="0.0000000000000000e+00" cType="1" res="-4.2251297272741795e-03" rms="4.5315834879875183e-01" purity="4.2214071750640869e-01" nType="-99"/>
          <Node pos="r" depth="2" NCoef="0" IVar="8" Cut="1.0855650901794434e+00" cType="1" res="9.5051415264606476e-02" rms="4.2545720934867859e-01" purity="6.8681430816650391e-01" nType="0">
            <Node pos="l" depth="3" NCoef="0" IVar="-1" Cut="0.0000000000000000e+00" cType="1" res="3.5763727501034737e-03" rms="4.1373130679130554e-01" purity="7.2348833084106445e-01" nType="-99"/>
            <Node pos="r" depth="3" NCoef="0" IVar="-1" Cut="0.0000000000000000e+00" cType="1" res="-2.5134657043963671e-03" rms="4.5953726768493652e-01" purity="4.6149206161499023e-01" nType="-99"/>
          </Node>
        </Node>
      </Node>
    </BinaryTree>
    <BinaryTree type="DecisionTree" boostWeight="1.0000000000000000e+00" itree="92">
      <Node pos="s" depth="0" NCoef="0" IVar="8" Cut="-1.2000033855438232e+00" cType="1" res="8.7862899526953697e-03" rms="4.3826857209205627e-01" purity="4.9202901124954224e-01" nType="0">
        <Node pos="l" depth="1" NCoef="0" IVar="8" Cut="-1.5809615850448608e+00" cType="1" res="-1.2815269827842712e-01" rms="4.0648499131202698e-01" purity="2.8692460060119629e-01" nType="0">
          <Node pos="l" depth="2" NCoef="0" IVar="4" Cut="1.1714925384521484e+02" cType="1" res="-1.7197623848915100e-01" rms="3.8037133216857910e-01" purity="2.1928443014621735e-01" nType="0">
            <Node pos="l" depth="3" NCoef="0" IVar="-1" Cut="0.0000000000000000e+00" cType="1" res="-7.1604382246732712e-03" rms="3.6853343248367310e-01" purity="1.8683005869388580e-01" nType="-99"/>
            <Node pos="r" depth="3" NCoef="0" IVar="-1" Cut="0.0000000000000000e+00" cType="1" res="-1.0280931368470192e-02" rms="3.8852471113204956e-01" purity="2.4869403243064880e-01" nType="-99"/>
          </Node>
          <Node pos="r" depth="2" NCoef="0" IVar="5" Cut="9.8762489318847656e+01" cType="1" res="-7.2146952152252197e-02" rms="4.3115964531898499e-01" purity="3.7336763739585876e-01" nType="0">
            <Node pos="l" depth="3" NCoef="0" IVar="-1" Cut="0.0000000000000000e+00" cType="1" res="-4.6785115264356136e-03" rms="3.9934322237968445e-01" purity="2.5736013054847717e-01" nType="-99"/>
            <Node pos="r" depth="3" NCoef="0" IVar="-1" Cut="0.0000000000000000e+00" cType="1" res="-9.9999783560633659e-04" rms="4.6055707335472107e-01" purity="5.0445437431335449e-01" nType="-99"/>
          </Node>
        </Node>
        <Node pos="r" depth="1" NCoef="0" IVar="8" Cut="1.0856993198394775e+00" cType="1" res="2.9780773445963860e-02" rms="4.3918099999427795e-01" purity="5.2347421646118164e-01" nType="0">
          <Node pos="l" depth="2" NCoef="0" IVar="0" Cut="1.1316768798828125e+03" cType="1" res="5.7950712740421295e-02" rms="4.3868622183799744e-01" purity="5.6696158647537231e-01" nType="0">
            <Node pos="l" depth="3" NCoef="0" IVar="-1" Cut="0.0000000000000000e+00" cType="1" res="-2.1588208619505167e-03" rms="4.3933379650115967e-01" purity="3.0541419982910156e-01" nType="-99"/>
            <Node pos="r" depth="3" NCoef="0" IVar="-1" Cut="0.0000000000000000e+00" cType="1" res="2.6345499791204929e-03" rms="4.3415990471839905e-01" purity="6.2477302551269531e-01" nType="-99"/>
          </Node>
          <Node pos="r" depth="2" NCoef="0" IVar="7" Cut="-6.6637170314788818e-01" cType="1" res="-1.0256270319223404e-01" rms="4.1674640774726868e-01" purity="3.1916823983192444e-01" nType="0">
            <Node pos="l" depth="3" NCoef="0" IVar="-1" Cut="0.0000000000000000e+00" cType="1" res="-1.0919338092207909e-02" rms="3.5304802656173706e-01" purity="1.8916672468185425e-01" nType="-99"/>
            <Node pos="r" depth="3" NCoef="0" IVar="-1" Cut="0.0000000000000000e+00" cType="1" res="-2.9650821816176176e-03" rms="4.2879584431648254e-01" purity="3.5612475872039795e-01" nType="-99"/>
          </Node>
        </Node>
      </Node>
    </BinaryTree>
    <BinaryTree type="DecisionTree" boostWeight="1.0000000000000000e+00" itree="93">
      <Node pos="s" depth="0" NCoef="0" IVar="5" Cut="1.0597140502929688e+02" cType="1" res="1.3911178335547447e-02" rms="4.3724638223648071e-01" purity="4.9814775586128235e-01" nType="0">
        <Node pos="l" depth="1" NCoef="0" IVar="7" Cut="-9.3324476480484009e-01" cType="1" res="-3.6268576979637146e-02" rms="4.3481707572937012e-01" purity="3.6441093683242798e-01" nType="0">
          <Node pos="l" depth="2" NCoef="0" IVar="2" Cut="4.4669799804687500e+02" cType="1" res="-1.3872717320919037e-01" rms="3.7501817941665649e-01" purity="2.0383535325527191e-01" nType="0">
            <Node pos="l" depth="3" NCoef="0" IVar="-1" Cut="0.0000000000000000e+00" cType="1" res="-5.3022280335426331e-03" rms="3.8951393961906433e-01" purity="2.2708883881568909e-01" nType="-99"/>
            <Node pos="r" depth="3" NCoef="0" IVar="-1" Cut="0.0000000000000000e+00" cType="1" res="-1.3476026244461536e-02" rms="3.2160148024559021e-01" purity="1.3442251086235046e-01" nType="-99"/>
          </Node>
          <Node pos="r" depth="2" NCoef="0" IVar="7" Cut="8.4443455934524536e-01" cType="1" res="-1.1447589844465256e-02" rms="4.4456535577774048e-01" purity="4.0331101417541504e-01" nType="0">
            <Node pos="l" depth="3" NCoef="0" IVar="-1" Cut="0.0000000000000000e+00" cType="1" res="8.1849860725924373e-04" rms="4.5735833048820496e-01" purity="4.6247479319572449e-01" nType="-99"/>
            <Node pos="r" depth="3" NCoef="0" IVar="-1" Cut="0.0000000000000000e+00" cType="1" res="-4.9665127880871296e-03" rms="3.9127838611602783e-01" purity="2.4355658888816833e-01" nType="-99"/>
          </Node>
        </Node>
        <Node pos="r" depth="1" NCoef="0" IVar="7" Cut="1.1999737024307251e+00" cType="1" res="7.4187673628330231e-02" rms="4.3251737952232361e-01" purity="6.5879398584365845e-01" nType="0">
          <Node pos="l" depth="2" NCoef="0" IVar="7" Cut="-1.2759683132171631e+00" cType="1" res="9.2373497784137726e-02" rms="4.2661967873573303e-01" purity="6.8567889928817749e-01" nType="0">
            <Node pos="l" depth="3" NCoef="0" IVar="-1" Cut="0.0000000000000000e+00" cType="1" res="-4.3362472206354141e-03" rms="4.4635850191116333e-01" purity="3.9297756552696228e-01" nType="-99"/>
            <Node pos="r" depth="3" NCoef="0" IVar="-1" Cut="0.0000000000000000e+00" cType="1" res="3.3552311360836029e-03" rms="4.1929575800895691e-01" purity="7.1555525064468384e-01" nType="-99"/>
          </Node>
          <Node pos="r" depth="2" NCoef="0" IVar="-1" Cut="0.0000000000000000e+00" cType="1" res="-4.0358500555157661e-03" rms="4.4945153594017029e-01" purity="3.9982438087463379e-01" nType="-99"/>
        </Node>
      </Node>
    </BinaryTree>
    <BinaryTree type="DecisionTree" boostWeight="1.0000000000000000e+00" itree="94">
      <Node pos="s" depth="0" NCoef="0" IVar="7" Cut="-1.2000069618225098e+00" cType="1" res="1.5754666179418564e-02" rms="4.3817296624183655e-01" purity="5.0029236078262329e-01" nType="0">
        <Node pos="l" depth="1" NCoef="0" IVar="2" Cut="3.0271972656250000e+02" cType="1" res="-1.3314040005207062e-01" rms="3.8972264528274536e-01" purity="2.5202059745788574e-01" nType="0">
          <Node pos="l" depth="2" NCoef="0" IVar="-1" Cut="0.0000000000000000e+00" cType="1" res="-2.5024909991770983e-03" rms="4.2186450958251953e-01" purity="3.3160734176635742e-01" nType="-99"/>
          <Node pos="r" depth="2" NCoef="0" IVar="1" Cut="4.0058242797851562e+02" cType="1" res="-1.8076373636722565e-01" rms="3.5825145244598389e-01" purity="1.9716010987758636e-01" nType="0">
            <Node pos="l" depth="3" NCoef="0" IVar="-1" Cut="0.0000000000000000e+00" cType="1" res="-1.4556391164660454e-02" rms="2.8175884485244751e-01" purity="9.9697045981884003e-02" nType="-99"/>
            <Node pos="r" depth="3" NCoef="0" IVar="-1" Cut="0.0000000000000000e+00" cType="1" res="-6.8281535059213638e-03" rms="4.2141556739807129e-01" purity="3.0096045136451721e-01" nType="-99"/>
          </Node>
        </Node>
        <Node pos="r" depth="1" NCoef="0" IVar="7" Cut="1.0856316089630127e+00" cType="1" res="3.5646781325340271e-02" rms="4.4045078754425049e-01" purity="5.3346103429794312e-01" nType="0">
          <Node pos="l" depth="2" NCoef="0" IVar="6" Cut="-1.1510349512100220e+00" cType="1" res="6.2711648643016815e-02" rms="4.4136455655097961e-01" purity="5.7889205217361450e-01" nType="0">
            <Node pos="l" depth="3" NCoef="0" IVar="-1" Cut="0.0000000000000000e+00" cType="1" res="-4.1797980666160583e-03" rms="4.2441412806510925e-01" purity="3.3276751637458801e-01" nType="-99"/>
            <Node pos="r" depth="3" NCoef="0" IVar="-1" Cut="0.0000000000000000e+00" cType="1" res="2.4778065271675587e-03" rms="4.3942257761955261e-01" purity="6.0698503255844116e-01" nType="-99"/>
          </Node>
          <Node pos="r" depth="2" NCoef="0" IVar="7" Cut="1.7386649847030640e+00" cType="1" res="-1.0928656905889511e-01" rms="4.0589854121208191e-01" purity="2.9017630219459534e-01" nType="0">
            <Node pos="l" depth="3" NCoef="0" IVar="-1" Cut="0.0000000000000000e+00" cType="1" res="-2.8974376618862152e-03" rms="4.3006587028503418e-01" purity="3.5354256629943848e-01" nType="-99"/>
            <Node pos="r" depth="3" NCoef="0" IVar="-1" Cut="0.0000000000000000e+00" cType="1" res="-1.0085643269121647e-02" rms="3.4934216737747192e-01" purity="1.8080051243305206e-01" nType="-99"/>
          </Node>
        </Node>
      </Node>
    </BinaryTree>
    <BinaryTree type="DecisionTree" boostWeight="1.0000000000000000e+00" itree="95">
      <Node pos="s" depth="0" NCoef="0" IVar="1" Cut="4.6515270996093750e+02" cType="1" res="1.6240512952208519e-02" rms="4.3674772977828979e-01" purity="5.0137352943420410e-01" nType="0">
        <Node pos="l" depth="1" NCoef="0" IVar="2" Cut="3.4206253051757812e+02" cType="1" res="-1.9259450957179070e-02" rms="4.3707683682441711e-01" purity="4.2012158036231995e-01" nType="0">
          <Node pos="l" depth="2" NCoef="0" IVar="0" Cut="1.1511502685546875e+03" cType="1" res="2.9259219765663147e-02" rms="4.4437539577484131e-01" purity="4.9204304814338684e-01" nType="0">
            <Node pos="l" depth="3" NCoef="0" IVar="-1" Cut="0.0000000000000000e+00" cType="1" res="-2.4753194302320480e-03" rms="4.3626308441162109e-01" purity="2.9879611730575562e-01" nType="-99"/>
            <Node pos="r" depth="3" NCoef="0" IVar="-1" Cut="0.0000000000000000e+00" cType="1" res="3.2920544035732746e-03" rms="4.3423923850059509e-01" purity="6.6458934545516968e-01" nType="-99"/>
          </Node>
          <Node pos="r" depth="2" NCoef="0" IVar="5" Cut="1.3324830627441406e+02" cType="1" res="-8.5435882210731506e-02" rms="4.1793707013130188e-01" purity="3.2202515006065369e-01" nType="0">
            <Node pos="l" depth="3" NCoef="0" IVar="-1" Cut="0.0000000000000000e+00" cType="1" res="-3.1791990622878075e-03" rms="3.9697667956352234e-01" purity="2.5043222308158875e-01" nType="-99"/>
            <Node pos="r" depth="3" NCoef="0" IVar="-1" Cut="0.0000000000000000e+00" cType="1" res="6.6898908698931336e-04" rms="4.6440535783767700e-01" purity="5.5429941415786743e-01" nType="-99"/>
          </Node>
        </Node>
        <Node pos="r" depth="1" NCoef="0" IVar="2" Cut="4.9197750854492188e+02" cType="1" res="9.7305729985237122e-02" rms="4.2502060532569885e-01" purity="6.8691480159759521e-01" nType="0">
          <Node pos="l" depth="2" NCoef="0" IVar="7" Cut="-9.3192702531814575e-01" cType="1" res="1.3891638815402985e-01" rms="3.9382937550544739e-01" purity="7.5443464517593384e-01" nType="0">
            <Node pos="l" depth="3" NCoef="0" IVar="-1" Cut="0.0000000000000000e+00" cType="1" res="-3.1889893580228090e-04" rms="4.5162853598594666e-01" purity="5.5022370815277100e-01" nType="-99"/>
            <Node pos="r" depth="3" NCoef="0" IVar="-1" Cut="0.0000000000000000e+00" cType="1" res="4.5395405031740665e-03" rms="3.7892451882362366e-01" purity="7.8612339496612549e-01" nType="-99"/>
          </Node>
          <Node pos="r" depth="2" NCoef="0" IVar="1" Cut="6.2243865966796875e+02" cType="1" res="7.7314483933150768e-03" rms="4.7315233945846558e-01" purity="5.4156631231307983e-01" nType="0">
            <Node pos="l" depth="3" NCoef="0" IVar="-1" Cut="0.0000000000000000e+00" cType="1" res="-2.6418005581945181e-03" rms="4.7128221392631531e-01" purity="4.4962751865386963e-01" nType="-99"/>
            <Node pos="r" depth="3" NCoef="0" IVar="-1" Cut="0.0000000000000000e+00" cType="1" res="2.6258339639753103e-03" rms="4.6171757578849792e-01" purity="6.4308249950408936e-01" nType="-99"/>
          </Node>
        </Node>
      </Node>
    </BinaryTree>
    <BinaryTree type="DecisionTree" boostWeight="1.0000000000000000e+00" itree="96">
      <Node pos="s" depth="0" NCoef="0" IVar="6" Cut="-1.1920399665832520e+00" cType="1" res="1.6277298331260681e-02" rms="4.3709596991539001e-01" purity="5.0109922885894775e-01" nType="0">
        <Node pos="l" depth="1" NCoef="0" IVar="1" Cut="3.8652267456054688e+02" cType="1" res="-1.4166834950447083e-01" rms="3.8695099949836731e-01" purity="2.5081157684326172e-01" nType="0">
          <Node pos="l" depth="2" NCoef="0" IVar="6" Cut="-1.6482144594192505e+00" cType="1" res="-1.8605524301528931e-01" rms="3.3029118180274963e-01" purity="1.4822268486022949e-01" nType="0">
            <Node pos="l" depth="3" NCoef="0" IVar="-1" Cut="0.0000000000000000e+00" cType="1" res="-1.1689294129610062e-02" rms="2.7928966283798218e-01" purity="9.7878053784370422e-02" nType="-99"/>
            <Node pos="r" depth="3" NCoef="0" IVar="-1" Cut="0.0000000000000000e+00" cType="1" res="-6.6783651709556580e-03" rms="3.6374035477638245e-01" purity="1.8972350656986237e-01" nType="-99"/>
          </Node>
          <Node pos="r" depth="2" NCoef="0" IVar="-1" Cut="0.0000000000000000e+00" cType="1" res="-3.3712133299559355e-03" rms="4.4114139676094055e-01" purity="3.7788489460945129e-01" nType="-99"/>
        </Node>
        <Node pos="r" depth="1" NCoef="0" IVar="6" Cut="8.9870387315750122e-01" cType="1" res="3.5511504858732224e-02" rms="4.3894991278648376e-01" purity="5.3157860040664673e-01" nType="0">
          <Node pos="l" depth="2" NCoef="0" IVar="2" Cut="5.4261816406250000e+02" cType="1" res="6.4409032464027405e-02" rms="4.3859761953353882e-01" purity="5.7837009429931641e-01" nType="0">
            <Node pos="l" depth="3" NCoef="0" IVar="-1" Cut="0.0000000000000000e+00" cType="1" res="2.6200248394161463e-03" rms="4.3263640999794006e-01" purity="6.0428041219711304e-01" nType="-99"/>
            <Node pos="r" depth="3" NCoef="0" IVar="-1" Cut="0.0000000000000000e+00" cType="1" res="-2.6727933436632156e-03" rms="4.5241501927375793e-01" purity="4.2109543085098267e-01" nType="-99"/>
          </Node>
          <Node pos="r" depth="2" NCoef="0" IVar="6" Cut="1.3512660264968872e+00" cType="1" res="-8.5448831319808960e-02" rms="4.1933780908584595e-01" purity="3.3571690320968628e-01" nType="0">
            <Node pos="l" depth="3" NCoef="0" IVar="-1" Cut="0.0000000000000000e+00" cType="1" res="-1.0878313332796097e-03" rms="4.4455537199974060e-01" purity="4.2091220617294312e-01" nType="-99"/>
            <Node pos="r" depth="3" NCoef="0" IVar="-1" Cut="0.0000000000000000e+00" cType="1" res="-6.9588781334459782e-03" rms="3.8076159358024597e-01" purity="2.4304647743701935e-01" nType="-99"/>
          </Node>
        </Node>
      </Node>
    </BinaryTree>
    <BinaryTree type="DecisionTree" boostWeight="1.0000000000000000e+00" itree="97">
      <Node pos="s" depth="0" NCoef="0" IVar="7" Cut="1.1999126672744751e+00" cType="1" res="1.6894051805138588e-02" rms="4.3744489550590515e-01" purity="5.0142180919647217e-01" nType="0">
        <Node pos="l" depth="1" NCoef="0" IVar="7" Cut="-1.0856846570968628e+00" cType="1" res="3.6344654858112335e-02" rms="4.3989408016204834e-01" purity="5.3463941812515259e-01" nType="0">
          <Node pos="l" depth="2" NCoef="0" IVar="7" Cut="-1.7387204170227051e+00" cType="1" res="-9.8469384014606476e-02" rms="4.0755581855773926e-01" purity="2.9918909072875977e-01" nType="0">
            <Node pos="l" depth="3" NCoef="0" IVar="-1" Cut="0.0000000000000000e+00" cType="1" res="-1.0121077299118042e-02" rms="3.4425723552703857e-01" purity="1.6838797926902771e-01" nType="-99"/>
            <Node pos="r" depth="3" NCoef="0" IVar="-1" Cut="0.0000000000000000e+00" cType="1" res="-2.0015819463878870e-03" rms="4.3159496784210205e-01" purity="3.7190392613410950e-01" nType="-99"/>
          </Node>
          <Node pos="r" depth="2" NCoef="0" IVar="0" Cut="1.1205960693359375e+03" cType="1" res="6.1770599335432053e-02" rms="4.4113621115684509e-01" purity="5.7904535531997681e-01" nType="0">
            <Node pos="l" depth="3" NCoef="0" IVar="-1" Cut="0.0000000000000000e+00" cType="1" res="-1.7310865223407745e-03" rms="4.5240941643714905e-01" purity="3.2597890496253967e-01" nType="-99"/>
            <Node pos="r" depth="3" NCoef="0" IVar="-1" Cut="0.0000000000000000e+00" cType="1" res="2.6729407254606485e-03" rms="4.3501973152160645e-01" purity="6.3234251737594604e-01" nType="-99"/>
          </Node>
        </Node>
        <Node pos="r" depth="1" NCoef="0" IVar="1" Cut="4.0631195068359375e+02" cType="1" res="-1.2945902347564697e-01" rms="3.8848960399627686e-01" purity="2.5148087739944458e-01" nType="0">
          <Node pos="l" depth="2" NCoef="0" IVar="7" Cut="1.5806509256362915e+00" cType="1" res="-1.6940140724182129e-01" rms="3.3971887826919556e-01" purity="1.5842650830745697e-01" nType="0">
            <Node pos="l" depth="3" NCoef="0" IVar="-1" Cut="0.0000000000000000e+00" cType="1" res="-6.5928511321544647e-03" rms="3.8612401485443115e-01" purity="2.1801146864891052e-01" nType="-99"/>
            <Node pos="r" depth="3" NCoef="0" IVar="-1" Cut="0.0000000000000000e+00" cType="1" res="-1.1491470038890839e-02" rms="2.9978939890861511e-01" purity="1.1643829196691513e-01" nType="-99"/>
          </Node>
          <Node pos="r" depth="2" NCoef="0" IVar="-1" Cut="0.0000000000000000e+00" cType="1" res="-3.0561857856810093e-03" rms="4.4467037916183472e-01" purity="3.8952240347862244e-01" nType="-99"/>
        </Node>
      </Node>
    </BinaryTree>
    <BinaryTree type="DecisionTree" boostWeight="1.0000000000000000e+00" itree="98">
      <Node pos="s" depth="0" NCoef="0" IVar="7" Cut="-1.1999481916427612e+00" cType="1" res="1.5042769722640514e-02" rms="4.3601396679878235e-01" purity="5.0113141536712646e-01" nType="0">
        <Node pos="l" depth="1" NCoef="0" IVar="7" Cut="-1.5046985149383545e+00" cType="1" res="-1.2695378065109253e-01" rms="3.8767108321189880e-01" purity="2.5234144926071167e-01" nType="0">
          <Node pos="l" depth="2" NCoef="0" IVar="9" Cut="-6.6619312763214111e-01" cType="1" res="-1.6038502752780914e-01" rms="3.6019414663314819e-01" purity="1.9497413933277130e-01" nType="0">
            <Node pos="l" depth="3" NCoef="0" IVar="-1" Cut="0.0000000000000000e+00" cType="1" res="-1.1889418587088585e-02" rms="3.0478355288505554e-01" purity="1.3019862771034241e-01" nType="-99"/>
            <Node pos="r" depth="3" NCoef="0" IVar="-1" Cut="0.0000000000000000e+00" cType="1" res="-6.6858027130365372e-03" rms="3.8531830906867981e-01" purity="2.3157034814357758e-01" nType="-99"/>
          </Node>
          <Node pos="r" depth="2" NCoef="0" IVar="-1" Cut="0.0000000000000000e+00" cType="1" res="-2.9467309359461069e-03" rms="4.2358180880546570e-01" purity="3.4741213917732239e-01" nType="-99"/>
        </Node>
        <Node pos="r" depth="1" NCoef="0" IVar="7" Cut="1.0856399536132812e+00" cType="1" res="3.4150987863540649e-02" rms="4.3862077593803406e-01" purity="5.3461068868637085e-01" nType="0">
          <Node pos="l" depth="2" NCoef="0" IVar="8" Cut="-1.2000213861465454e+00" cType="1" res="6.0740064829587936e-02" rms="4.3999981880187988e-01" purity="5.8106565475463867e-01" nType="0">
            <Node pos="l" depth="3" NCoef="0" IVar="-1" Cut="0.0000000000000000e+00" cType="1" res="-3.5381801426410675e-03" rms="4.3582701683044434e-01" purity="3.6476510763168335e-01" nType="-99"/>
            <Node pos="r" depth="3" NCoef="0" IVar="-1" Cut="0.0000000000000000e+00" cType="1" res="2.0930124446749687e-03" rms="4.3698108196258545e-01" purity="6.0927915573120117e-01" nType="-99"/>
          </Node>
          <Node pos="r" depth="2" NCoef="0" IVar="7" Cut="1.5754088163375854e+00" cType="1" res="-1.0869479179382324e-01" rms="4.0208911895751953e-01" purity="2.8503841161727905e-01" nType="0">
            <Node pos="l" depth="3" NCoef="0" IVar="-1" Cut="0.0000000000000000e+00" cType="1" res="-2.5720559060573578e-03" rms="4.2923915386199951e-01" purity="3.6322277784347534e-01" nType="-99"/>
            <Node pos="r" depth="3" NCoef="0" IVar="-1" Cut="0.0000000000000000e+00" cType="1" res="-8.6550042033195496e-03" rms="3.6216697096824646e-01" purity="1.9739936292171478e-01" nType="-99"/>
          </Node>
        </Node>
      </Node>
    </BinaryTree>
    <BinaryTree type="DecisionTree" boostWeight="1.0000000000000000e+00" itree="99">
      <Node pos="s" depth="0" NCoef="0" IVar="7" Cut="1.2000297307968140e+00" cType="1" res="1.4780145138502121e-02" rms="4.3693473935127258e-01" purity="4.9873429536819458e-01" nType="0">
        <Node pos="l" depth="1" NCoef="0" IVar="7" Cut="-8.9517164230346680e-01" cType="1" res="3.4155633300542831e-02" rms="4.3996039032936096e-01" purity="5.3194558620452881e-01" nType="0">
          <Node pos="l" depth="2" NCoef="0" IVar="7" Cut="-1.7114720344543457e+00" cType="1" res="-8.0259919166564941e-02" rms="4.1657251119613647e-01" purity="3.3270573616027832e-01" nType="0">
            <Node pos="l" depth="3" NCoef="0" IVar="-1" Cut="0.0000000000000000e+00" cType="1" res="-8.7822955101728439e-03" rms="3.4875440597534180e-01" purity="1.7610226571559906e-01" nType="-99"/>
            <Node pos="r" depth="3" NCoef="0" IVar="-1" Cut="0.0000000000000000e+00" cType="1" res="-1.7040997045114636e-03" rms="4.3534252047538757e-01" purity="3.9520403742790222e-01" nType="-99"/>
          </Node>
          <Node pos="r" depth="2" NCoef="0" IVar="8" Cut="-1.2000046968460083e+00" cType="1" res="6.4867638051509857e-02" rms="4.4100478291511536e-01" purity="5.8542656898498535e-01" nType="0">
            <Node pos="l" depth="3" NCoef="0" IVar="-1" Cut="0.0000000000000000e+00" cType="1" res="-3.3620251342654228e-03" rms="4.3793013691902161e-01" purity="3.7301850318908691e-01" nType="-99"/>
            <Node pos="r" depth="3" NCoef="0" IVar="-1" Cut="0.0000000000000000e+00" cType="1" res="2.5786254554986954e-03" rms="4.3790420889854431e-01" purity="6.1272829771041870e-01" nType="-99"/>
          </Node>
        </Node>
        <Node pos="r" depth="1" NCoef="0" IVar="0" Cut="1.3931634521484375e+03" cType="1" res="-1.3254454731941223e-01" rms="3.8233366608619690e-01" purity="2.4620677530765533e-01" nType="0">
          <Node pos="l" depth="2" NCoef="0" IVar="6" Cut="1.9288390874862671e-01" cType="1" res="-1.7688044905662537e-01" rms="3.3356305956840515e-01" purity="1.5235902369022369e-01" nType="0">
            <Node pos="l" depth="3" NCoef="0" IVar="-1" Cut="0.0000000000000000e+00" cType="1" res="-1.0207328945398331e-02" rms="3.2460179924964905e-01" purity="1.4295324683189392e-01" nType="-99"/>
            <Node pos="r" depth="3" NCoef="0" IVar="-1" Cut="0.0000000000000000e+00" cType="1" res="-8.5360277444124222e-03" rms="3.4223952889442444e-01" purity="1.6190347075462341e-01" nType="-99"/>
          </Node>
          <Node pos="r" depth="2" NCoef="0" IVar="-1" Cut="0.0000000000000000e+00" cType="1" res="-3.0261673964560032e-03" rms="4.3814545869827271e-01" purity="3.8973054289817810e-01" nType="-99"/>
        </Node>
      </Node>
    </BinaryTree>
    <BinaryTree type="DecisionTree" boostWeight="1.0000000000000000e+00" itree="100">
      <Node pos="s" depth="0" NCoef="0" IVar="6" Cut="9.4842690229415894e-01" cType="1" res="1.3507772237062454e-02" rms="4.3658357858657837e-01" purity="4.9667894840240479e-01" nType="0">
        <Node pos="l" depth="1" NCoef="0" IVar="6" Cut="-9.9100154638290405e-01" cType="1" res="3.6224775016307831e-02" rms="4.3759712576866150e-01" purity="5.3388392925262451e-01" nType="0">
          <Node pos="l" depth="2" NCoef="0" IVar="1" Cut="4.8562969970703125e+02" cType="1" res="-9.5401212573051453e-02" rms="4.0760573744773865e-01" purity="3.1192988157272339e-01" nType="0">
            <Node pos="l" depth="3" NCoef="0" IVar="-1" Cut="0.0000000000000000e+00" cType="1" res="-6.0200681909918785e-03" rms="3.8774102926254272e-01" purity="2.4061091244220734e-01" nType="-99"/>
            <Node pos="r" depth="3" NCoef="0" IVar="-1" Cut="0.0000000000000000e+00" cType="1" res="6.5446714870631695e-04" rms="4.5377278327941895e-01" purity="5.6858634948730469e-01" nType="-99"/>
          </Node>
          <Node pos="r" depth="2" NCoef="0" IVar="9" Cut="-1.7329400777816772e+00" cType="1" res="6.4908176660537720e-02" rms="4.3865355849266052e-01" purity="5.8225125074386597e-01" nType="0">
            <Node pos="l" depth="3" NCoef="0" IVar="-1" Cut="0.0000000000000000e+00" cType="1" res="-6.0820337384939194e-03" rms="4.1453173756599426e-01" purity="3.1580832600593567e-01" nType="-99"/>
            <Node pos="r" depth="3" NCoef="0" IVar="-1" Cut="0.0000000000000000e+00" cType="1" res="2.4667789693921804e-03" rms="4.3667492270469666e-01" purity="5.9892231225967407e-01" nType="-99"/>
          </Node>
        </Node>
        <Node pos="r" depth="1" NCoef="0" IVar="9" Cut="1.1999374628067017e+00" cType="1" res="-1.0295474529266357e-01" rms="4.1213306784629822e-01" purity="3.0594119429588318e-01" nType="0">
          <Node pos="l" depth="2" NCoef="0" IVar="9" Cut="-1.0857070684432983e+00" cType="1" res="-7.9134069383144379e-02" rms="4.2271959781646729e-01" purity="3.3680114150047302e-01" nType="0">
            <Node pos="l" depth="3" NCoef="0" IVar="-1" Cut="0.0000000000000000e+00" cType="1" res="-9.8612606525421143e-03" rms="3.6759904026985168e-01" purity="2.0319736003875732e-01" nType="-99"/>
            <Node pos="r" depth="3" NCoef="0" IVar="-1" Cut="0.0000000000000000e+00" cType="1" res="-2.0005712285637856e-03" rms="4.3160089850425720e-01" purity="3.6973166465759277e-01" nType="-99"/>
          </Node>
          <Node pos="r" depth="2" NCoef="0" IVar="-1" Cut="0.0000000000000000e+00" cType="1" res="-1.1094979941844940e-02" rms="3.4631642699241638e-01" purity="1.7544707655906677e-01" nType="-99"/>
        </Node>
      </Node>
    </BinaryTree>
    <BinaryTree type="DecisionTree" boostWeight="1.0000000000000000e+00" itree="101">
      <Node pos="s" depth="0" NCoef="0" IVar="0" Cut="1.1903264160156250e+03" cType="1" res="1.2576091103255749e-02" rms="4.3398621678352356e-01" purity="4.9742797017097473e-01" nType="0">
        <Node pos="l" depth="1" NCoef="0" IVar="2" Cut="2.7716107177734375e+02" cType="1" res="-7.0763021707534790e-02" rms="4.2170286178588867e-01" purity="2.8894263505935669e-01" nType="0">
          <Node pos="l" depth="2" NCoef="0" IVar="0" Cut="1.0602235107421875e+03" cType="1" res="-2.8047237545251846e-02" rms="4.4923317432403564e-01" purity="3.6306333541870117e-01" nType="0">
            <Node pos="l" depth="3" NCoef="0" IVar="-1" Cut="0.0000000000000000e+00" cType="1" res="-3.3461633138358593e-03" rms="4.2042499780654907e-01" purity="2.6626706123352051e-01" nType="-99"/>
            <Node pos="r" depth="3" NCoef="0" IVar="-1" Cut="0.0000000000000000e+00" cType="1" res="1.1430706363171339e-03" rms="4.7368255257606506e-01" purity="4.8051089048385620e-01" nType="-99"/>
          </Node>
          <Node pos="r" depth="2" NCoef="0" IVar="1" Cut="3.4274920654296875e+02" cType="1" res="-1.2831954658031464e-01" rms="3.7383750081062317e-01" purity="1.8907026946544647e-01" nType="0">
            <Node pos="l" depth="3" NCoef="0" IVar="-1" Cut="0.0000000000000000e+00" cType="1" res="-6.7346054129302502e-03" rms="3.4294143319129944e-01" purity="1.5473227202892303e-01" nType="-99"/>
            <Node pos="r" depth="3" NCoef="0" IVar="-1" Cut="0.0000000000000000e+00" cType="1" res="-4.1663190349936485e-03" rms="3.9993655681610107e-01" purity="2.2297132015228271e-01" nType="-99"/>
          </Node>
        </Node>
        <Node pos="r" depth="1" NCoef="0" IVar="2" Cut="4.0313281250000000e+02" cType="1" res="4.3828364461660385e-02" rms="4.3440112471580505e-01" purity="5.7561016082763672e-01" nType="0">
          <Node pos="l" depth="2" NCoef="0" IVar="2" Cut="2.9673355102539062e+02" cType="1" res="1.1297643929719925e-01" rms="4.1615268588066101e-01" purity="6.9874674081802368e-01" nType="0">
            <Node pos="l" depth="3" NCoef="0" IVar="-1" Cut="0.0000000000000000e+00" cType="1" res="5.1242504268884659e-03" rms="3.7582266330718994e-01" purity="7.9705810546875000e-01" nType="-99"/>
            <Node pos="r" depth="3" NCoef="0" IVar="-1" Cut="0.0000000000000000e+00" cType="1" res="1.4419305371120572e-03" rms="4.3857726454734802e-01" purity="6.1023581027984619e-01" nType="-99"/>
          </Node>
          <Node pos="r" depth="2" NCoef="0" IVar="1" Cut="6.3030627441406250e+02" cType="1" res="-4.3877664953470230e-02" rms="4.4117364287376404e-01" purity="4.1942620277404785e-01" nType="0">
            <Node pos="l" depth="3" NCoef="0" IVar="-1" Cut="0.0000000000000000e+00" cType="1" res="-2.0460374653339386e-03" rms="4.3339982628822327e-01" purity="3.6646386981010437e-01" nType="-99"/>
            <Node pos="r" depth="3" NCoef="0" IVar="-1" Cut="0.0000000000000000e+00" cType="1" res="2.8530415147542953e-03" rms="4.4986048340797424e-01" purity="6.6253381967544556e-01" nType="-99"/>
          </Node>
        </Node>
      </Node>
    </BinaryTree>
    <BinaryTree type="DecisionTree" boostWeight="1.0000000000000000e+00" itree="102">
      <Node pos="s" depth="0" NCoef="0" IVar="5" Cut="1.1339921569824219e+02" cType="1" res="1.7743371427059174e-02" rms="4.3351292610168457e-01" purity="5.0426745414733887e-01" nType="0">
        <Node pos="l" depth="1" NCoef="0" IVar="9" Cut="1.7333267927169800e+00" cType="1" res="-2.4472881108522415e-02" rms="4.3451043963432312e-01" purity="3.8928437232971191e-01" nType="0">
          <Node pos="l" depth="2" NCoef="0" IVar="7" Cut="-1.1992739439010620e+00" cType="1" res="-1.0038741864264011e-02" rms="4.3847689032554626e-01" purity="4.0682017803192139e-01" nType="0">
            <Node pos="l" depth="3" NCoef="0" IVar="-1" Cut="0.0000000000000000e+00" cType="1" res="-6.8536475300788879e-03" rms="3.5930317640304565e-01" purity="1.8356741964817047e-01" nType="-99"/>
            <Node pos="r" depth="3" NCoef="0" IVar="-1" Cut="0.0000000000000000e+00" cType="1" res="3.4479593159630895e-04" rms="4.4625571370124817e-01" purity="4.4157654047012329e-01" nType="-99"/>
          </Node>
          <Node pos="r" depth="2" NCoef="0" IVar="-1" Cut="0.0000000000000000e+00" cType="1" res="-1.0759283788502216e-02" rms="3.3225235342979431e-01" purity="1.7015321552753448e-01" nType="-99"/>
        </Node>
        <Node pos="r" depth="1" NCoef="0" IVar="8" Cut="1.1999435424804688e+00" cType="1" res="8.3169646561145782e-02" rms="4.2373213171958923e-01" purity="6.8246704339981079e-01" nType="0">
          <Node pos="l" depth="2" NCoef="0" IVar="8" Cut="-1.2759978771209717e+00" cType="1" res="1.0093004256486893e-01" rms="4.1611811518669128e-01" purity="7.0809525251388550e-01" nType="0">
            <Node pos="l" depth="3" NCoef="0" IVar="-1" Cut="0.0000000000000000e+00" cType="1" res="-3.7463076878339052e-03" rms="4.5439544320106506e-01" purity="4.3592730164527893e-01" nType="-99"/>
            <Node pos="r" depth="3" NCoef="0" IVar="-1" Cut="0.0000000000000000e+00" cType="1" res="3.5134570207446814e-03" rms="4.0691825747489929e-01" purity="7.3625487089157104e-01" nType="-99"/>
          </Node>
          <Node pos="r" depth="2" NCoef="0" IVar="-1" Cut="0.0000000000000000e+00" cType="1" res="-3.1811199150979519e-03" rms="4.5689868927001953e-01" purity="4.4865816831588745e-01" nType="-99"/>
        </Node>
      </Node>
    </BinaryTree>
    <BinaryTree type="DecisionTree" boostWeight="1.0000000000000000e+00" itree="103">
      <Node pos="s" depth="0" NCoef="0" IVar="9" Cut="1.4666407108306885e+00" cType="1" res="1.6372384503483772e-02" rms="4.3465408682823181e-01" purity="5.0084793567657471e-01" nType="0">
        <Node pos="l" depth="1" NCoef="0" IVar="9" Cut="-1.1745625734329224e+00" cType="1" res="3.2787241041660309e-02" rms="4.3485853075981140e-01" purity="5.2279597520828247e-01" nType="0">
          <Node pos="l" depth="2" NCoef="0" IVar="2" Cut="4.8559738159179688e+02" cType="1" res="-9.2871204018592834e-02" rms="4.1900625824928284e-01" purity="3.5066267848014832e-01" nType="0">
            <Node pos="l" depth="3" NCoef="0" IVar="-1" Cut="0.0000000000000000e+00" cType="1" res="-2.5593081954866648e-03" rms="4.2477682232856750e-01" purity="3.8237425684928894e-01" nType="-99"/>
            <Node pos="r" depth="3" NCoef="0" IVar="-1" Cut="0.0000000000000000e+00" cType="1" res="-1.4813105575740337e-02" rms="3.7052184343338013e-01" purity="2.1257896721363068e-01" nType="-99"/>
          </Node>
          <Node pos="r" depth="2" NCoef="0" IVar="6" Cut="9.3687939643859863e-01" cType="1" res="5.7085055857896805e-02" rms="4.3367689847946167e-01" purity="5.5608034133911133e-01" nType="0">
            <Node pos="l" depth="3" NCoef="0" IVar="-1" Cut="0.0000000000000000e+00" cType="1" res="2.4781494867056608e-03" rms="4.3155103921890259e-01" purity="5.9186744689941406e-01" nType="-99"/>
            <Node pos="r" depth="3" NCoef="0" IVar="-1" Cut="0.0000000000000000e+00" cType="1" res="-2.0565369632095098e-03" rms="4.2704907059669495e-01" purity="3.6832711100578308e-01" nType="-99"/>
          </Node>
        </Node>
        <Node pos="r" depth="1" NCoef="0" IVar="0" Cut="1.3229373779296875e+03" cType="1" res="-1.3806627690792084e-01" rms="4.0108004212379456e-01" purity="2.9435065388679504e-01" nType="0">
          <Node pos="l" depth="2" NCoef="0" IVar="-1" Cut="0.0000000000000000e+00" cType="1" res="-8.0709019675850868e-03" rms="3.6150237917900085e-01" purity="1.9059035181999207e-01" nType="-99"/>
          <Node pos="r" depth="2" NCoef="0" IVar="-1" Cut="0.0000000000000000e+00" cType="1" res="-3.9372537285089493e-03" rms="4.3682399392127991e-01" purity="4.1078117489814758e-01" nType="-99"/>
        </Node>
      </Node>
    </BinaryTree>
    <BinaryTree type="DecisionTree" boostWeight="1.0000000000000000e+00" itree="104">
      <Node pos="s" depth="0" NCoef="0" IVar="1" Cut="4.5299603271484375e+02" cType="1" res="1.8171921372413635e-02" rms="4.3375879526138306e-01" purity="5.0392967462539673e-01" nType="0">
        <Node pos="l" depth="1" NCoef="0" IVar="2" Cut="4.7838079833984375e+02" cType="1" res="-1.8910184502601624e-02" rms="4.3362292647361755e-01" purity="4.1374808549880981e-01" nType="0">
          <Node pos="l" depth="2" NCoef="0" IVar="0" Cut="1.2603828125000000e+03" cType="1" res="3.4368531778454781e-03" rms="4.3809890747070312e-01" purity="4.4604387879371643e-01" nType="0">
            <Node pos="l" depth="3" NCoef="0" IVar="-1" Cut="0.0000000000000000e+00" cType="1" res="-2.0296887960284948e-03" rms="4.2960292100906372e-01" purity="3.1808680295944214e-01" nType="-99"/>
            <Node pos="r" depth="3" NCoef="0" IVar="-1" Cut="0.0000000000000000e+00" cType="1" res="2.6493459008634090e-03" rms="4.3667566776275635e-01" purity="6.1858093738555908e-01" nType="-99"/>
          </Node>
          <Node pos="r" depth="2" NCoef="0" IVar="0" Cut="1.7097042236328125e+03" cType="1" res="-1.4431975781917572e-01" rms="3.8419029116630554e-01" purity="2.3250678181648254e-01" nType="0">
            <Node pos="l" depth="3" NCoef="0" IVar="-1" Cut="0.0000000000000000e+00" cType="1" res="-1.3936271890997887e-02" rms="3.3020421862602234e-01" purity="1.4502686262130737e-01" nType="-99"/>
            <Node pos="r" depth="3" NCoef="0" IVar="-1" Cut="0.0000000000000000e+00" cType="1" res="-2.2211240138858557e-03" rms="4.6030247211456299e-01" purity="4.0775394439697266e-01" nType="-99"/>
          </Node>
        </Node>
        <Node pos="r" depth="1" NCoef="0" IVar="2" Cut="6.0627856445312500e+02" cType="1" res="8.9639358222484589e-02" rms="4.2498952150344849e-01" purity="6.7773467302322388e-01" nType="0">
          <Node pos="l" depth="2" NCoef="0" IVar="5" Cut="7.1818809509277344e+01" cType="1" res="1.1711130291223526e-01" rms="4.0797689557075500e-01" purity="7.1709507703781128e-01" nType="0">
            <Node pos="l" depth="3" NCoef="0" IVar="-1" Cut="0.0000000000000000e+00" cType="1" res="-9.6631370251998305e-04" rms="4.6726897358894348e-01" purity="4.0201425552368164e-01" nType="-99"/>
            <Node pos="r" depth="3" NCoef="0" IVar="-1" Cut="0.0000000000000000e+00" cType="1" res="3.8996001239866018e-03" rms="3.9582324028015137e-01" purity="7.5776988267898560e-01" nType="-99"/>
          </Node>
          <Node pos="r" depth="2" NCoef="0" IVar="1" Cut="5.9870660400390625e+02" cType="1" res="-3.6890488117933273e-02" rms="4.7581365704536438e-01" purity="4.9644914269447327e-01" nType="0">
            <Node pos="l" depth="3" NCoef="0" IVar="-1" Cut="0.0000000000000000e+00" cType="1" res="-8.4769418463110924e-03" rms="4.5139196515083313e-01" purity="3.4018898010253906e-01" nType="-99"/>
            <Node pos="r" depth="3" NCoef="0" IVar="-1" Cut="0.0000000000000000e+00" cType="1" res="1.8484640168026090e-03" rms="4.7099819779396057e-01" purity="6.1108332872390747e-01" nType="-99"/>
          </Node>
        </Node>
      </Node>
    </BinaryTree>
    <BinaryTree type="DecisionTree" boostWeight="1.0000000000000000e+00" itree="105">
      <Node pos="s" depth="0" NCoef="0" IVar="8" Cut="-1.2000005245208740e+00" cType="1" res="1.6307784244418144e-02" rms="4.3418619036674500e-01" purity="5.0112938880920410e-01" nType="0">
        <Node pos="l" depth="1" NCoef="0" IVar="8" Cut="-1.6571719646453857e+00" cType="1" res="-1.1885274201631546e-01" rms="4.0069511532783508e-01" purity="2.9169741272926331e-01" nType="0">
          <Node pos="l" depth="2" NCoef="0" IVar="1" Cut="3.9373031616210938e+02" cType="1" res="-1.8146590888500214e-01" rms="3.5834616422653198e-01" purity="2.0235866308212280e-01" nType="0">
            <Node pos="l" depth="3" NCoef="0" IVar="-1" Cut="0.0000000000000000e+00" cType="1" res="-1.1983626522123814e-02" rms="2.8247842192649841e-01" purity="9.9815651774406433e-02" nType="-99"/>
            <Node pos="r" depth="3" NCoef="0" IVar="-1" Cut="0.0000000000000000e+00" cType="1" res="-5.5921557359397411e-03" rms="4.2823329567909241e-01" purity="3.3127442002296448e-01" nType="-99"/>
          </Node>
          <Node pos="r" depth="2" NCoef="0" IVar="1" Cut="3.9999496459960938e+02" cType="1" res="-5.7848487049341202e-02" rms="4.2934137582778931e-01" purity="3.7874051928520203e-01" nType="0">
            <Node pos="l" depth="3" NCoef="0" IVar="-1" Cut="0.0000000000000000e+00" cType="1" res="-5.0183343701064587e-03" rms="4.0285372734069824e-01" purity="2.6571351289749146e-01" nType="-99"/>
            <Node pos="r" depth="3" NCoef="0" IVar="-1" Cut="0.0000000000000000e+00" cType="1" res="-2.8214208214194514e-05" rms="4.5122599601745605e-01" purity="5.0873619318008423e-01" nType="-99"/>
          </Node>
        </Node>
        <Node pos="r" depth="1" NCoef="0" IVar="8" Cut="1.2761797904968262e+00" cType="1" res="3.6420773714780807e-02" rms="4.3537968397140503e-01" purity="5.3229457139968872e-01" nType="0">
          <Node pos="l" depth="2" NCoef="0" IVar="2" Cut="4.0312747192382812e+02" cType="1" res="6.0153108090162277e-02" rms="4.3521353602409363e-01" purity="5.7100546360015869e-01" nType="0">
            <Node pos="l" depth="3" NCoef="0" IVar="-1" Cut="0.0000000000000000e+00" cType="1" res="2.7729149442166090e-03" rms="4.2482042312622070e-01" purity="6.2238931655883789e-01" nType="-99"/>
            <Node pos="r" depth="3" NCoef="0" IVar="-1" Cut="0.0000000000000000e+00" cType="1" res="-1.3676607341039926e-04" rms="4.4779112935066223e-01" purity="4.6785852313041687e-01" nType="-99"/>
          </Node>
          <Node pos="r" depth="2" NCoef="0" IVar="8" Cut="2.0743684768676758e+00" cType="1" res="-1.1910849809646606e-01" rms="4.0326526761054993e-01" purity="2.7860352396965027e-01" nType="0">
            <Node pos="l" depth="3" NCoef="0" IVar="-1" Cut="0.0000000000000000e+00" cType="1" res="-3.8684287574142218e-03" rms="4.2099863290786743e-01" purity="3.1751593947410583e-01" nType="-99"/>
            <Node pos="r" depth="3" NCoef="0" IVar="-1" Cut="0.0000000000000000e+00" cType="1" res="-1.1901089921593666e-02" rms="3.3376345038414001e-01" purity="1.6692312061786652e-01" nType="-99"/>
          </Node>
        </Node>
      </Node>
    </BinaryTree>
    <BinaryTree type="DecisionTree" boostWeight="1.0000000000000000e+00" itree="106">
      <Node pos="s" depth="0" NCoef="0" IVar="8" Cut="1.1999660730361938e+00" cType="1" res="1.6439417377114296e-02" rms="4.3412339687347412e-01" purity="5.0119853019714355e-01" nType="0">
        <Node pos="l" depth="1" NCoef="0" IVar="8" Cut="-1.0857269763946533e+00" cType="1" res="3.5001963376998901e-02" rms="4.3504974246025085e-01" purity="5.3147125244140625e-01" nType="0">
          <Node pos="l" depth="2" NCoef="0" IVar="8" Cut="-1.9020456075668335e+00" cType="1" res="-9.2112258076667786e-02" rms="4.1210874915122986e-01" purity="3.2873636484146118e-01" nType="0">
            <Node pos="l" depth="3" NCoef="0" IVar="-1" Cut="0.0000000000000000e+00" cType="1" res="-1.0077002458274364e-02" rms="3.5307839512825012e-01" purity="1.8796391785144806e-01" nType="-99"/>
            <Node pos="r" depth="3" NCoef="0" IVar="-1" Cut="0.0000000000000000e+00" cType="1" res="-2.4293910246342421e-03" rms="4.2743545770645142e-01" purity="3.8061207532882690e-01" nType="-99"/>
          </Node>
          <Node pos="r" depth="2" NCoef="0" IVar="6" Cut="-1.4259135723114014e+00" cType="1" res="6.2379818409681320e-02" rms="4.3499934673309326e-01" purity="5.7513624429702759e-01" nType="0">
            <Node pos="l" depth="3" NCoef="0" IVar="-1" Cut="0.0000000000000000e+00" cType="1" res="-6.0947421006858349e-03" rms="4.0501996874809265e-01" purity="2.7682912349700928e-01" nType="-99"/>
            <Node pos="r" depth="3" NCoef="0" IVar="-1" Cut="0.0000000000000000e+00" cType="1" res="2.3095342330634594e-03" rms="4.3408855795860291e-01" purity="5.9353905916213989e-01" nType="-99"/>
          </Node>
        </Node>
        <Node pos="r" depth="1" NCoef="0" IVar="8" Cut="1.5809555053710938e+00" cType="1" res="-1.0872591286897659e-01" rms="4.0625664591789246e-01" purity="2.9707291722297668e-01" nType="0">
          <Node pos="l" depth="2" NCoef="0" IVar="8" Cut="1.3632687330245972e+00" cType="1" res="-5.3564522415399551e-02" rms="4.2890292406082153e-01" purity="3.7664240598678589e-01" nType="0">
            <Node pos="l" depth="3" NCoef="0" IVar="-1" Cut="0.0000000000000000e+00" cType="1" res="-1.4059089589864016e-03" rms="4.3689355254173279e-01" purity="4.0183180570602417e-01" nType="-99"/>
            <Node pos="r" depth="3" NCoef="0" IVar="-1" Cut="0.0000000000000000e+00" cType="1" res="-2.9233004897832870e-03" rms="4.2026829719543457e-01" purity="3.5240474343299866e-01" nType="-99"/>
          </Node>
          <Node pos="r" depth="2" NCoef="0" IVar="1" Cut="4.0682684326171875e+02" cType="1" res="-1.5010271966457367e-01" rms="3.8322719931602478e-01" purity="2.3738747835159302e-01" nType="0">
            <Node pos="l" depth="3" NCoef="0" IVar="-1" Cut="0.0000000000000000e+00" cType="1" res="-9.4535406678915024e-03" rms="3.4055024385452271e-01" purity="1.5858253836631775e-01" nType="-99"/>
            <Node pos="r" depth="3" NCoef="0" IVar="-1" Cut="0.0000000000000000e+00" cType="1" res="-4.8426212742924690e-03" rms="4.3728503584861755e-01" purity="3.5857164859771729e-01" nType="-99"/>
          </Node>
        </Node>
      </Node>
    </BinaryTree>
    <BinaryTree type="DecisionTree" boostWeight="1.0000000000000000e+00" itree="107">
      <Node pos="s" depth="0" NCoef="0" IVar="1" Cut="4.6515139770507812e+02" cType="1" res="1.3835594989359379e-02" rms="4.3228948116302490e-01" purity="4.9927163124084473e-01" nType="0">
        <Node pos="l" depth="1" NCoef="0" IVar="2" Cut="3.4313494873046875e+02" cType="1" res="-2.1529821678996086e-02" rms="4.3191066384315491e-01" purity="4.1514632105827332e-01" nType="0">
          <Node pos="l" depth="2" NCoef="0" IVar="0" Cut="1.2600279541015625e+03" cType="1" res="2.5626786053180695e-02" rms="4.3754166364669800e-01" purity="4.8632952570915222e-01" nType="0">
            <Node pos="l" depth="3" NCoef="0" IVar="-1" Cut="0.0000000000000000e+00" cType="1" res="-1.3236791128292680e-03" rms="4.4030508399009705e-01" purity="3.5594877600669861e-01" nType="-99"/>
            <Node pos="r" depth="3" NCoef="0" IVar="-1" Cut="0.0000000000000000e+00" cType="1" res="4.2499350383877754e-03" rms="4.0367850661277771e-01" purity="7.4469476938247681e-01" nType="-99"/>
          </Node>
          <Node pos="r" depth="2" NCoef="0" IVar="2" Cut="6.2938922119140625e+02" cType="1" res="-8.6965143680572510e-02" rms="4.1519358754158020e-01" purity="3.1637135148048401e-01" nType="0">
            <Node pos="l" depth="3" NCoef="0" IVar="-1" Cut="0.0000000000000000e+00" cType="1" res="-2.9425427783280611e-03" rms="4.1986909508705139e-01" purity="3.3567047119140625e-01" nType="-99"/>
            <Node pos="r" depth="3" NCoef="0" IVar="-1" Cut="0.0000000000000000e+00" cType="1" res="-1.9362360471859574e-03" rms="3.3323282003402710e-01" purity="1.4844770729541779e-01" nType="-99"/>
          </Node>
        </Node>
        <Node pos="r" depth="1" NCoef="0" IVar="2" Cut="5.0808947753906250e+02" cType="1" res="9.2877887189388275e-02" rms="4.2256695032119751e-01" purity="6.8729293346405029e-01" nType="0">
          <Node pos="l" depth="2" NCoef="0" IVar="0" Cut="1.4794674072265625e+03" cType="1" res="1.3154613971710205e-01" rms="3.9368945360183716e-01" purity="7.5247246026992798e-01" nType="0">
            <Node pos="l" depth="3" NCoef="0" IVar="-1" Cut="0.0000000000000000e+00" cType="1" res="1.9260257249698043e-03" rms="4.4352644681930542e-01" purity="6.3467007875442505e-01" nType="-99"/>
            <Node pos="r" depth="3" NCoef="0" IVar="-1" Cut="0.0000000000000000e+00" cType="1" res="4.8971911892294884e-03" rms="3.5150846838951111e-01" purity="8.2741326093673706e-01" nType="-99"/>
          </Node>
          <Node pos="r" depth="2" NCoef="0" IVar="1" Cut="6.2243841552734375e+02" cType="1" res="1.9916431047022343e-03" rms="4.7137105464935303e-01" purity="5.3409439325332642e-01" nType="0">
            <Node pos="l" depth="3" NCoef="0" IVar="-1" Cut="0.0000000000000000e+00" cType="1" res="-2.4646103847771883e-03" rms="4.6771594882011414e-01" purity="4.4776979088783264e-01" nType="-99"/>
            <Node pos="r" depth="3" NCoef="0" IVar="-1" Cut="0.0000000000000000e+00" cType="1" res="2.1075711119920015e-03" rms="4.6508684754371643e-01" purity="6.3002932071685791e-01" nType="-99"/>
          </Node>
        </Node>
      </Node>
    </BinaryTree>
    <BinaryTree type="DecisionTree" boostWeight="1.0000000000000000e+00" itree="108">
      <Node pos="s" depth="0" NCoef="0" IVar="1" Cut="4.3640145874023438e+02" cType="1" res="1.5797315165400505e-02" rms="4.3305507302284241e-01" purity="5.0123685598373413e-01" nType="0">
        <Node pos="l" depth="1" NCoef="0" IVar="2" Cut="2.9360675048828125e+02" cType="1" res="-2.3948905989527702e-02" rms="4.3131282925605774e-01" purity="4.0190112590789795e-01" nType="0">
          <Node pos="l" depth="2" NCoef="0" IVar="0" Cut="1.1715341796875000e+03" cType="1" res="4.0550980716943741e-02" rms="4.4248878955841064e-01" purity="4.9293965101242065e-01" nType="0">
            <Node pos="l" depth="3" NCoef="0" IVar="-1" Cut="0.0000000000000000e+00" cType="1" res="-1.5660889912396669e-03" rms="4.4217321276664734e-01" purity="3.2689797878265381e-01" nType="-99"/>
            <Node pos="r" depth="3" NCoef="0" IVar="-1" Cut="0.0000000000000000e+00" cType="1" res="4.4693429954349995e-03" rms="4.1297128796577454e-01" purity="7.3484563827514648e-01" nType="-99"/>
          </Node>
          <Node pos="r" depth="2" NCoef="0" IVar="7" Cut="9.3291109800338745e-01" cType="1" res="-7.2791054844856262e-02" rms="4.1605281829833984e-01" purity="3.3296278119087219e-01" nType="0">
            <Node pos="l" depth="3" NCoef="0" IVar="-1" Cut="0.0000000000000000e+00" cType="1" res="-1.3019167818129063e-03" rms="4.3012705445289612e-01" purity="3.7350806593894958e-01" nType="-99"/>
            <Node pos="r" depth="3" NCoef="0" IVar="-1" Cut="0.0000000000000000e+00" cType="1" res="-9.7702825441956520e-03" rms="3.2978117465972900e-01" purity="1.6051241755485535e-01" nType="-99"/>
          </Node>
        </Node>
        <Node pos="r" depth="1" NCoef="0" IVar="2" Cut="4.0312799072265625e+02" cType="1" res="8.0505318939685822e-02" rms="4.2805299162864685e-01" purity="6.6295838356018066e-01" nType="0">
          <Node pos="l" depth="2" NCoef="0" IVar="0" Cut="1.3793596191406250e+03" cType="1" res="1.2461467832326889e-01" rms="3.9425367116928101e-01" purity="7.4645531177520752e-01" nType="0">
            <Node pos="l" depth="3" NCoef="0" IVar="-1" Cut="0.0000000000000000e+00" cType="1" res="9.7786891274154186e-04" rms="4.5764955878257751e-01" purity="5.7013648748397827e-01" nType="-99"/>
            <Node pos="r" depth="3" NCoef="0" IVar="-1" Cut="0.0000000000000000e+00" cType="1" res="5.0284639000892639e-03" rms="3.4351077675819397e-01" purity="8.4417957067489624e-01" nType="-99"/>
          </Node>
          <Node pos="r" depth="2" NCoef="0" IVar="8" Cut="-9.3330341577529907e-01" cType="1" res="2.5313904508948326e-02" rms="4.6100440621376038e-01" purity="5.5848360061645508e-01" nType="0">
            <Node pos="l" depth="3" NCoef="0" IVar="-1" Cut="0.0000000000000000e+00" cType="1" res="-4.1867988184094429e-03" rms="4.5393449068069458e-01" purity="3.8379046320915222e-01" nType="-99"/>
            <Node pos="r" depth="3" NCoef="0" IVar="-1" Cut="0.0000000000000000e+00" cType="1" res="1.6461182385683060e-03" rms="4.5830944180488586e-01" purity="5.9423112869262695e-01" nType="-99"/>
          </Node>
        </Node>
      </Node>
    </BinaryTree>
    <BinaryTree type="DecisionTree" boostWeight="1.0000000000000000e+00" itree="109">
      <Node pos="s" depth="0" NCoef="0" IVar="9" Cut="-1.7331304550170898e+00" cType="1" res="1.3279624283313751e-02" rms="4.3344667553901672e-01" purity="4.9644976854324341e-01" nType="0">
        <Node pos="l" depth="1" NCoef="0" IVar="9" Cut="-2.0378921031951904e+00" cType="1" res="-1.8758571147918701e-01" rms="3.7077176570892334e-01" purity="2.2457885742187500e-01" nType="0">
          <Node pos="l" depth="2" NCoef="0" IVar="-1" Cut="0.0000000000000000e+00" cType="1" res="-1.1235455982387066e-02" rms="3.5274997353553772e-01" purity="1.9012255966663361e-01" nType="-99"/>
          <Node pos="r" depth="2" NCoef="0" IVar="-1" Cut="0.0000000000000000e+00" cType="1" res="-7.9247988760471344e-03" rms="3.9074015617370605e-01" purity="2.7079400420188904e-01" nType="-99"/>
        </Node>
        <Node pos="r" depth="1" NCoef="0" IVar="9" Cut="1.0730772018432617e+00" cType="1" res="2.6567399501800537e-02" rms="4.3401011824607849e-01" purity="5.1443475484848022e-01" nType="0">
          <Node pos="l" depth="2" NCoef="0" IVar="8" Cut="-1.2000631093978882e+00" cType="1" res="5.1390495151281357e-02" rms="4.3359696865081787e-01" purity="5.4786098003387451e-01" nType="0">
            <Node pos="l" depth="3" NCoef="0" IVar="-1" Cut="0.0000000000000000e+00" cType="1" res="-3.3740431535989046e-03" rms="4.1682130098342896e-01" purity="3.3564049005508423e-01" nType="-99"/>
            <Node pos="r" depth="3" NCoef="0" IVar="-1" Cut="0.0000000000000000e+00" cType="1" res="2.2130589932203293e-03" rms="4.3278437852859497e-01" purity="5.7790762186050415e-01" nType="-99"/>
          </Node>
          <Node pos="r" depth="2" NCoef="0" IVar="9" Cut="1.9776504039764404e+00" cType="1" res="-8.2659967243671417e-02" rms="4.1868847608566284e-01" purity="3.6735162138938904e-01" nType="0">
            <Node pos="l" depth="3" NCoef="0" IVar="-1" Cut="0.0000000000000000e+00" cType="1" res="-1.9315651152282953e-03" rms="4.2798233032226562e-01" purity="4.1134840250015259e-01" nType="-99"/>
            <Node pos="r" depth="3" NCoef="0" IVar="-1" Cut="0.0000000000000000e+00" cType="1" res="-9.4136139377951622e-03" rms="3.6598977446556091e-01" purity="2.2135120630264282e-01" nType="-99"/>
          </Node>
        </Node>
      </Node>
    </BinaryTree>
    <BinaryTree type="DecisionTree" boostWeight="1.0000000000000000e+00" itree="110">
      <Node pos="s" depth="0" NCoef="0" IVar="0" Cut="1.1285175781250000e+03" cType="1" res="1.5101707540452480e-02" rms="4.3204253911972046e-01" purity="4.9910467863082886e-01" nType="0">
        <Node pos="l" depth="1" NCoef="0" IVar="2" Cut="2.5038038635253906e+02" cType="1" res="-8.2543767988681793e-02" rms="4.1013744473457336e-01" purity="2.5520259141921997e-01" nType="0">
          <Node pos="l" depth="2" NCoef="0" IVar="-1" Cut="0.0000000000000000e+00" cType="1" res="-1.1150796199217439e-03" rms="4.4881454110145569e-01" purity="3.4389978647232056e-01" nType="-99"/>
          <Node pos="r" depth="2" NCoef="0" IVar="2" Cut="2.9356268310546875e+02" cType="1" res="-1.2724739313125610e-01" rms="3.6870792508125305e-01" purity="1.8074540793895721e-01" nType="0">
            <Node pos="l" depth="3" NCoef="0" IVar="-1" Cut="0.0000000000000000e+00" cType="1" res="-3.9453520439565182e-03" rms="4.0678414702415466e-01" purity="2.3331132531166077e-01" nType="-99"/>
            <Node pos="r" depth="3" NCoef="0" IVar="-1" Cut="0.0000000000000000e+00" cType="1" res="-7.3227137327194214e-03" rms="3.2881891727447510e-01" purity="1.3321441411972046e-01" nType="-99"/>
          </Node>
        </Node>
        <Node pos="r" depth="1" NCoef="0" IVar="2" Cut="3.7131597900390625e+02" cType="1" res="3.9983768016099930e-02" rms="4.3395039439201355e-01" purity="5.6125593185424805e-01" nType="0">
          <Node pos="l" depth="2" NCoef="0" IVar="0" Cut="1.4308309326171875e+03" cType="1" res="1.0323374718427658e-01" rms="4.1741770505905151e-01" purity="6.7957586050033569e-01" nType="0">
            <Node pos="l" depth="3" NCoef="0" IVar="-1" Cut="0.0000000000000000e+00" cType="1" res="1.5443791635334492e-03" rms="4.5258796215057373e-01" purity="5.7551461458206177e-01" nType="-99"/>
            <Node pos="r" depth="3" NCoef="0" IVar="-1" Cut="0.0000000000000000e+00" cType="1" res="5.3081028163433075e-03" rms="3.3646783232688904e-01" purity="8.4692162275314331e-01" nType="-99"/>
          </Node>
          <Node pos="r" depth="2" NCoef="0" IVar="1" Cut="6.0599151611328125e+02" cType="1" res="-2.7088405564427376e-02" rms="4.4101920723915100e-01" purity="4.3578585982322693e-01" nType="0">
            <Node pos="l" depth="3" NCoef="0" IVar="-1" Cut="0.0000000000000000e+00" cType="1" res="-2.4135597050189972e-03" rms="4.3423417210578918e-01" purity="3.8403400778770447e-01" nType="-99"/>
            <Node pos="r" depth="3" NCoef="0" IVar="-1" Cut="0.0000000000000000e+00" cType="1" res="2.9618055559694767e-03" rms="4.4989642500877380e-01" purity="6.6669607162475586e-01" nType="-99"/>
          </Node>
        </Node>
      </Node>
    </BinaryTree>
    <BinaryTree type="DecisionTree" boostWeight="1.0000000000000000e+00" itree="111">
      <Node pos="s" depth="0" NCoef="0" IVar="9" Cut="1.7334110736846924e+00" cType="1" res="1.6669519245624542e-02" rms="4.3235915899276733e-01" purity="5.0176388025283813e-01" nType="0">
        <Node pos="l" depth="1" NCoef="0" IVar="9" Cut="-1.2884120941162109e+00" cType="1" res="2.9489120468497276e-02" rms="4.3283179402351379e-01" purity="5.1925814151763916e-01" nType="0">
          <Node pos="l" depth="2" NCoef="0" IVar="9" Cut="-1.9359461069107056e+00" cType="1" res="-1.0747130960226059e-01" rms="4.1025504469871521e-01" purity="3.2754883170127869e-01" nType="0">
            <Node pos="l" depth="3" NCoef="0" IVar="-1" Cut="0.0000000000000000e+00" cType="1" res="-1.0867596603929996e-02" rms="3.6373201012611389e-01" purity="2.1943520009517670e-01" nType="-99"/>
            <Node pos="r" depth="3" NCoef="0" IVar="-1" Cut="0.0000000000000000e+00" cType="1" res="-2.6620333082973957e-03" rms="4.2624163627624512e-01" purity="3.8435938954353333e-01" nType="-99"/>
          </Node>
          <Node pos="r" depth="2" NCoef="0" IVar="6" Cut="9.5149129629135132e-01" cType="1" res="5.0698336213827133e-02" rms="4.3236127495765686e-01" purity="5.4894554615020752e-01" nType="0">
            <Node pos="l" depth="3" NCoef="0" IVar="-1" Cut="0.0000000000000000e+00" cType="1" res="1.9911418203264475e-03" rms="4.3095710873603821e-01" purity="5.8420419692993164e-01" nType="-99"/>
            <Node pos="r" depth="3" NCoef="0" IVar="-1" Cut="0.0000000000000000e+00" cType="1" res="-2.4755715858191252e-03" rms="4.2236059904098511e-01" purity="3.5581648349761963e-01" nType="-99"/>
          </Node>
        </Node>
        <Node pos="r" depth="1" NCoef="0" IVar="9" Cut="2.1397070884704590e+00" cType="1" res="-1.7185044288635254e-01" rms="3.7810617685317993e-01" purity="2.4449966847896576e-01" nType="0">
          <Node pos="l" depth="2" NCoef="0" IVar="-1" Cut="0.0000000000000000e+00" cType="1" res="-5.7479096576571465e-03" rms="3.9492180943489075e-01" purity="2.8685840964317322e-01" nType="-99"/>
          <Node pos="r" depth="2" NCoef="0" IVar="-1" Cut="0.0000000000000000e+00" cType="1" res="-1.2267301790416241e-02" rms="3.5164862871170044e-01" purity="1.9152769446372986e-01" nType="-99"/>
        </Node>
      </Node>
    </BinaryTree>
    <BinaryTree type="DecisionTree" boostWeight="1.0000000000000000e+00" itree="112">
      <Node pos="s" depth="0" NCoef="0" IVar="0" Cut="1.4570269775390625e+03" cType="1" res="1.2568431906402111e-02" rms="4.3023610115051270e-01" purity="4.9686446785926819e-01" nType="0">
        <Node pos="l" depth="1" NCoef="0" IVar="2" Cut="2.8752990722656250e+02" cType="1" res="-3.0100477859377861e-02" rms="4.3047749996185303e-01" purity="3.9668360352516174e-01" nType="0">
          <Node pos="l" depth="2" NCoef="0" IVar="0" Cut="1.1441757812500000e+03" cType="1" res="3.5153780132532120e-02" rms="4.4200614094734192e-01" purity="5.0072336196899414e-01" nType="0">
            <Node pos="l" depth="3" NCoef="0" IVar="-1" Cut="0.0000000000000000e+00" cType="1" res="-1.7778541659936309e-03" rms="4.3848794698715210e-01" purity="3.1767377257347107e-01" nType="-99"/>
            <Node pos="r" depth="3" NCoef="0" IVar="-1" Cut="0.0000000000000000e+00" cType="1" res="3.4670624881982803e-03" rms="4.2831313610076904e-01" purity="6.9167190790176392e-01" nType="-99"/>
          </Node>
          <Node pos="r" depth="2" NCoef="0" IVar="6" Cut="6.9936007261276245e-01" cType="1" res="-9.4585254788398743e-02" rms="4.0866211056709290e-01" purity="2.9387071728706360e-01" nType="0">
            <Node pos="l" depth="3" NCoef="0" IVar="-1" Cut="0.0000000000000000e+00" cType="1" res="-2.7021572459489107e-03" rms="4.2310842871665955e-01" purity="3.3413574099540710e-01" nType="-99"/>
            <Node pos="r" depth="3" NCoef="0" IVar="-1" Cut="0.0000000000000000e+00" cType="1" res="-8.9788120239973068e-03" rms="3.5106927156448364e-01" purity="1.7461995780467987e-01" nType="-99"/>
          </Node>
        </Node>
        <Node pos="r" depth="1" NCoef="0" IVar="2" Cut="5.4289050292968750e+02" cType="1" res="7.2837606072425842e-02" rms="4.2261755466461182e-01" purity="6.3836836814880371e-01" nType="0">
          <Node pos="l" depth="2" NCoef="0" IVar="3" Cut="2.6535638427734375e+02" cType="1" res="1.3648369908332825e-01" rms="3.9452245831489563e-01" purity="7.3816514015197754e-01" nType="0">
            <Node pos="l" depth="3" NCoef="0" IVar="-1" Cut="0.0000000000000000e+00" cType="1" res="5.3677675314247608e-03" rms="3.5406070947647095e-01" purity="8.1376463174819946e-01" nType="-99"/>
            <Node pos="r" depth="3" NCoef="0" IVar="-1" Cut="0.0000000000000000e+00" cType="1" res="1.9227147568017244e-03" rms="4.3527486920356750e-01" purity="6.2689292430877686e-01" nType="-99"/>
          </Node>
          <Node pos="r" depth="2" NCoef="0" IVar="1" Cut="5.5701098632812500e+02" cType="1" res="-7.4969246983528137e-02" rms="4.4795811176300049e-01" purity="4.0660801529884338e-01" nType="0">
            <Node pos="l" depth="3" NCoef="0" IVar="-1" Cut="0.0000000000000000e+00" cType="1" res="-9.7053498029708862e-03" rms="4.0918666124343872e-01" purity="2.6565855741500854e-01" nType="-99"/>
            <Node pos="r" depth="3" NCoef="0" IVar="-1" Cut="0.0000000000000000e+00" cType="1" res="1.5333935152739286e-03" rms="4.6886810660362244e-01" purity="6.0110151767730713e-01" nType="-99"/>
          </Node>
        </Node>
      </Node>
    </BinaryTree>
    <BinaryTree type="DecisionTree" boostWeight="1.0000000000000000e+00" itree="113">
      <Node pos="s" depth="0" NCoef="0" IVar="6" Cut="1.2128906250000000e+00" cType="1" res="1.6929941251873970e-02" rms="4.3217641115188599e-01" purity="5.0122064352035522e-01" nType="0">
        <Node pos="l" depth="1" NCoef="0" IVar="6" Cut="-8.6505073308944702e-01" cType="1" res="3.3336218446493149e-02" rms="4.3419605493545532e-01" purity="5.2960431575775146e-01" nType="0">
          <Node pos="l" depth="2" NCoef="0" IVar="1" Cut="4.0337216186523438e+02" cType="1" res="-8.0230623483657837e-02" rms="4.0990287065505981e-01" purity="3.3483147621154785e-01" nType="0">
            <Node pos="l" depth="3" NCoef="0" IVar="-1" Cut="0.0000000000000000e+00" cType="1" res="-5.8045461773872375e-03" rms="3.7211492657661438e-01" purity="2.2363190352916718e-01" nType="-99"/>
            <Node pos="r" depth="3" NCoef="0" IVar="-1" Cut="0.0000000000000000e+00" cType="1" res="-8.7686633924022317e-04" rms="4.4841504096984863e-01" purity="4.8030900955200195e-01" nType="-99"/>
          </Node>
          <Node pos="r" depth="2" NCoef="0" IVar="9" Cut="-1.7331697940826416e+00" cType="1" res="6.1463080346584320e-02" rms="4.3545314669609070e-01" purity="5.7784324884414673e-01" nType="0">
            <Node pos="l" depth="3" NCoef="0" IVar="-1" Cut="0.0000000000000000e+00" cType="1" res="-6.7637586034834385e-03" rms="4.0701740980148315e-01" purity="2.9176408052444458e-01" nType="-99"/>
            <Node pos="r" depth="3" NCoef="0" IVar="-1" Cut="0.0000000000000000e+00" cType="1" res="2.0162153523415327e-03" rms="4.3389827013015747e-01" purity="5.9450232982635498e-01" nType="-99"/>
          </Node>
        </Node>
        <Node pos="r" depth="1" NCoef="0" IVar="1" Cut="3.7544058227539062e+02" cType="1" res="-1.1972954124212265e-01" rms="3.8895186781883240e-01" purity="2.6479321718215942e-01" nType="0">
          <Node pos="l" depth="2" NCoef="0" IVar="8" Cut="1.3296486437320709e-01" cType="1" res="-1.7715762555599213e-01" rms="3.2786819338798523e-01" purity="1.3694970309734344e-01" nType="0">
            <Node pos="l" depth="3" NCoef="0" IVar="-1" Cut="0.0000000000000000e+00" cType="1" res="-7.7667739242315292e-03" rms="3.2748076319694519e-01" purity="1.3793341815471649e-01" nType="-99"/>
            <Node pos="r" depth="3" NCoef="0" IVar="-1" Cut="0.0000000000000000e+00" cType="1" res="-1.0406729765236378e-02" rms="3.2816630601882935e-01" purity="1.3594116270542145e-01" nType="-99"/>
          </Node>
          <Node pos="r" depth="2" NCoef="0" IVar="6" Cut="1.5150636434555054e+00" cType="1" res="-6.6730126738548279e-02" rms="4.3109205365180969e-01" purity="3.8277789950370789e-01" nType="0">
            <Node pos="l" depth="3" NCoef="0" IVar="-1" Cut="0.0000000000000000e+00" cType="1" res="-3.1717840465717018e-04" rms="4.4328248500823975e-01" purity="4.5599141716957092e-01" nType="-99"/>
            <Node pos="r" depth="3" NCoef="0" IVar="-1" Cut="0.0000000000000000e+00" cType="1" res="-4.8949196934700012e-03" rms="4.1423404216766357e-01" purity="3.2113751769065857e-01" nType="-99"/>
          </Node>
        </Node>
      </Node>
    </BinaryTree>
    <BinaryTree type="DecisionTree" boostWeight="1.0000000000000000e+00" itree="114">
      <Node pos="s" depth="0" NCoef="0" IVar="8" Cut="-1.2000602483749390e+00" cType="1" res="1.2597294524312019e-02" rms="4.3216204643249512e-01" purity="4.9474790692329407e-01" nType="0">
        <Node pos="l" depth="1" NCoef="0" IVar="8" Cut="-1.8857514858245850e+00" cType="1" res="-1.1698669195175171e-01" rms="3.9360371232032776e-01" purity="2.7819159626960754e-01" nType="0">
          <Node pos="l" depth="2" NCoef="0" IVar="-1" Cut="0.0000000000000000e+00" cType="1" res="-1.0233788751065731e-02" rms="3.5030946135520935e-01" purity="1.7517448961734772e-01" nType="-99"/>
          <Node pos="r" depth="2" NCoef="0" IVar="1" Cut="4.0306503295898438e+02" cType="1" res="-8.2846805453300476e-02" rms="4.1023841500282288e-01" purity="3.3184766769409180e-01" nType="0">
            <Node pos="l" depth="3" NCoef="0" IVar="-1" Cut="0.0000000000000000e+00" cType="1" res="-6.0946322046220303e-03" rms="3.7132415175437927e-01" purity="2.2372142970561981e-01" nType="-99"/>
            <Node pos="r" depth="3" NCoef="0" IVar="-1" Cut="0.0000000000000000e+00" cType="1" res="-9.7405893029645085e-04" rms="4.5001521706581116e-01" purity="4.7423380613327026e-01" nType="-99"/>
          </Node>
        </Node>
        <Node pos="r" depth="1" NCoef="0" IVar="8" Cut="1.0855650901794434e+00" cType="1" res="3.2181646674871445e-02" rms="4.3434405326843262e-01" purity="5.2747660875320435e-01" nType="0">
          <Node pos="l" depth="2" NCoef="0" IVar="7" Cut="9.3315833806991577e-01" cType="1" res="5.8705627918243408e-02" rms="4.3383115530014038e-01" purity="5.7187598943710327e-01" nType="0">
            <Node pos="l" depth="3" NCoef="0" IVar="-1" Cut="0.0000000000000000e+00" cType="1" res="2.0819769706577063e-03" rms="4.3177136778831482e-01" purity="6.0595524311065674e-01" nType="-99"/>
            <Node pos="r" depth="3" NCoef="0" IVar="-1" Cut="0.0000000000000000e+00" cType="1" res="-1.8549660453572869e-03" rms="4.2961585521697998e-01" purity="3.8717716932296753e-01" nType="-99"/>
          </Node>
          <Node pos="r" depth="2" NCoef="0" IVar="8" Cut="1.6569801568984985e+00" cType="1" res="-9.1307438910007477e-02" rms="4.1497337818145752e-01" purity="3.2076394557952881e-01" nType="0">
            <Node pos="l" depth="3" NCoef="0" IVar="-1" Cut="0.0000000000000000e+00" cType="1" res="-1.6968642594292760e-03" rms="4.3541109561920166e-01" purity="3.9744991064071655e-01" nType="-99"/>
            <Node pos="r" depth="3" NCoef="0" IVar="-1" Cut="0.0000000000000000e+00" cType="1" res="-7.9052206128835678e-03" rms="3.7638610601425171e-01" purity="2.1710127592086792e-01" nType="-99"/>
          </Node>
        </Node>
      </Node>
    </BinaryTree>
    <BinaryTree type="DecisionTree" boostWeight="1.0000000000000000e+00" itree="115">
      <Node pos="s" depth="0" NCoef="0" IVar="8" Cut="1.1999802589416504e+00" cType="1" res="1.7379457131028175e-02" rms="4.3223574757575989e-01" purity="4.9943208694458008e-01" nType="0">
        <Node pos="l" depth="1" NCoef="0" IVar="8" Cut="-1.0857280492782593e+00" cType="1" res="3.7250712513923645e-02" rms="4.3370622396469116e-01" purity="5.3230249881744385e-01" nType="0">
          <Node pos="l" depth="2" NCoef="0" IVar="8" Cut="-1.9020475149154663e+00" cType="1" res="-8.7922938168048859e-02" rms="4.0988150238990784e-01" purity="3.2519337534904480e-01" nType="0">
            <Node pos="l" depth="3" NCoef="0" IVar="-1" Cut="0.0000000000000000e+00" cType="1" res="-9.4216382130980492e-03" rms="3.5036170482635498e-01" purity="1.8499426543712616e-01" nType="-99"/>
            <Node pos="r" depth="3" NCoef="0" IVar="-1" Cut="0.0000000000000000e+00" cType="1" res="-2.2899650502949953e-03" rms="4.2632636427879333e-01" purity="3.7931838631629944e-01" nType="-99"/>
          </Node>
          <Node pos="r" depth="2" NCoef="0" IVar="6" Cut="1.4689040184020996e+00" cType="1" res="6.4197346568107605e-02" rms="4.3396842479705811e-01" purity="5.7688772678375244e-01" nType="0">
            <Node pos="l" depth="3" NCoef="0" IVar="-1" Cut="0.0000000000000000e+00" cType="1" res="2.3980881087481976e-03" rms="4.3297135829925537e-01" purity="5.9643852710723877e-01" nType="-99"/>
            <Node pos="r" depth="3" NCoef="0" IVar="-1" Cut="0.0000000000000000e+00" cType="1" res="-5.7954522781074047e-03" rms="4.0408247709274292e-01" purity="2.6463642716407776e-01" nType="-99"/>
          </Node>
        </Node>
        <Node pos="r" depth="1" NCoef="0" IVar="8" Cut="1.8095054626464844e+00" cType="1" res="-1.1571616679430008e-01" rms="3.9741629362106323e-01" purity="2.7926957607269287e-01" nType="0">
          <Node pos="l" depth="2" NCoef="0" IVar="1" Cut="4.0096374511718750e+02" cType="1" res="-7.8068345785140991e-02" rms="4.1984814405441284e-01" purity="3.4069275856018066e-01" nType="0">
            <Node pos="l" depth="3" NCoef="0" IVar="-1" Cut="0.0000000000000000e+00" cType="1" res="-5.4788966663181782e-03" rms="3.9044860005378723e-01" purity="2.3553664982318878e-01" nType="-99"/>
            <Node pos="r" depth="3" NCoef="0" IVar="-1" Cut="0.0000000000000000e+00" cType="1" res="-1.0744642931967974e-03" rms="4.4770464301109314e-01" purity="4.6686279773712158e-01" nType="-99"/>
          </Node>
          <Node pos="r" depth="2" NCoef="0" IVar="8" Cut="2.1396634578704834e+00" cType="1" res="-1.7440122365951538e-01" rms="3.5172364115715027e-01" purity="1.8352374434471130e-01" nType="0">
            <Node pos="l" depth="3" NCoef="0" IVar="-1" Cut="0.0000000000000000e+00" cType="1" res="-7.8066415153443813e-03" rms="3.7985640764236450e-01" purity="2.1606770157814026e-01" nType="-99"/>
            <Node pos="r" depth="3" NCoef="0" IVar="-1" Cut="0.0000000000000000e+00" cType="1" res="-1.1554162949323654e-02" rms="3.1986403465270996e-01" purity="1.5211457014083862e-01" nType="-99"/>
          </Node>
        </Node>
      </Node>
    </BinaryTree>
    <BinaryTree type="DecisionTree" boostWeight="1.0000000000000000e+00" itree="116">
      <Node pos="s" depth="0" NCoef="0" IVar="7" Cut="1.1998995542526245e+00" cType="1" res="1.5062154270708561e-02" rms="4.2819252610206604e-01" purity="5.0040215253829956e-01" nType="0">
        <Node pos="l" depth="1" NCoef="0" IVar="7" Cut="-8.9524900913238525e-01" cType="1" res="3.3712103962898254e-02" rms="4.3155470490455627e-01" purity="5.3423291444778442e-01" nType="0">
          <Node pos="l" depth="2" NCoef="0" IVar="7" Cut="-1.3487341403961182e+00" cType="1" res="-8.3248503506183624e-02" rms="4.0511512756347656e-01" purity="3.2713666558265686e-01" nType="0">
            <Node pos="l" depth="3" NCoef="0" IVar="-1" Cut="0.0000000000000000e+00" cType="1" res="-6.5965023823082447e-03" rms="3.6976474523544312e-01" purity="2.2835235297679901e-01" nType="-99"/>
            <Node pos="r" depth="3" NCoef="0" IVar="-1" Cut="0.0000000000000000e+00" cType="1" res="-1.2316484935581684e-03" rms="4.3442267179489136e-01" purity="4.3309450149536133e-01" nType="-99"/>
          </Node>
          <Node pos="r" depth="2" NCoef="0" IVar="6" Cut="1.2030628919601440e+00" cType="1" res="6.4192481338977814e-02" rms="4.3302458524703979e-01" purity="5.8820301294326782e-01" nType="0">
            <Node pos="l" depth="3" NCoef="0" IVar="-1" Cut="0.0000000000000000e+00" cType="1" res="2.1607985254377127e-03" rms="4.3159517645835876e-01" purity="6.1543869972229004e-01" nType="-99"/>
            <Node pos="r" depth="3" NCoef="0" IVar="-1" Cut="0.0000000000000000e+00" cType="1" res="-3.5716062411665916e-03" rms="4.1677543520927429e-01" purity="3.3418107032775879e-01" nType="-99"/>
          </Node>
        </Node>
        <Node pos="r" depth="1" NCoef="0" IVar="7" Cut="1.9617666006088257e+00" cType="1" res="-1.2735258042812347e-01" rms="3.7193745374679565e-01" purity="2.4206376075744629e-01" nType="0">
          <Node pos="l" depth="2" NCoef="0" IVar="1" Cut="3.9810031127929688e+02" cType="1" res="-9.9692985415458679e-02" rms="3.9329630136489868e-01" purity="2.8659048676490784e-01" nType="0">
            <Node pos="l" depth="3" NCoef="0" IVar="-1" Cut="0.0000000000000000e+00" cType="1" res="-8.0729229375720024e-03" rms="3.4805652499198914e-01" purity="1.7720799148082733e-01" nType="-99"/>
            <Node pos="r" depth="3" NCoef="0" IVar="-1" Cut="0.0000000000000000e+00" cType="1" res="-1.9626102875918150e-03" rms="4.3708413839340210e-01" purity="4.2309814691543579e-01" nType="-99"/>
          </Node>
          <Node pos="r" depth="2" NCoef="0" IVar="-1" Cut="0.0000000000000000e+00" cType="1" res="-1.2717350386083126e-02" rms="3.0133774876594543e-01" purity="1.3079468905925751e-01" nType="-99"/>
        </Node>
      </Node>
    </BinaryTree>
    <BinaryTree type="DecisionTree" boostWeight="1.0000000000000000e+00" itree="117">
      <Node pos="s" depth="0" NCoef="0" IVar="9" Cut="1.4666680097579956e+00" cType="1" res="1.6638485714793205e-02" rms="4.2951011657714844e-01" purity="5.0094449520111084e-01" nType="0">
        <Node pos="l" depth="1" NCoef="0" IVar="9" Cut="-1.1744775772094727e+00" cType="1" res="3.2181654125452042e-02" rms="4.3028125166893005e-01" purity="5.2292722463607788e-01" nType="0">
          <Node pos="l" depth="2" NCoef="0" IVar="9" Cut="-1.9484518766403198e+00" cType="1" res="-9.3512333929538727e-02" rms="4.1101810336112976e-01" purity="3.4249994158744812e-01" nType="0">
            <Node pos="l" depth="3" NCoef="0" IVar="-1" Cut="0.0000000000000000e+00" cType="1" res="-8.3563048392534256e-03" rms="3.6240160465240479e-01" purity="2.2280973196029663e-01" nType="-99"/>
            <Node pos="r" depth="3" NCoef="0" IVar="-1" Cut="0.0000000000000000e+00" cType="1" res="-2.3423174861818552e-03" rms="4.2566969990730286e-01" purity="3.9514306187629700e-01" nType="-99"/>
          </Node>
          <Node pos="r" depth="2" NCoef="0" IVar="5" Cut="1.2027888488769531e+02" cType="1" res="5.6937262415885925e-02" rms="4.2966184020042419e-01" purity="5.5846267938613892e-01" nType="0">
            <Node pos="l" depth="3" NCoef="0" IVar="-1" Cut="0.0000000000000000e+00" cType="1" res="7.3433842044323683e-04" rms="4.4064718484878540e-01" purity="4.5867994427680969e-01" nType="-99"/>
            <Node pos="r" depth="3" NCoef="0" IVar="-1" Cut="0.0000000000000000e+00" cType="1" res="3.5428404808044434e-03" rms="4.0237748622894287e-01" purity="7.3245692253112793e-01" nType="-99"/>
          </Node>
        </Node>
        <Node pos="r" depth="1" NCoef="0" IVar="9" Cut="2.1015679836273193e+00" cType="1" res="-1.2778219580650330e-01" rms="3.9397498965263367e-01" purity="2.9669025540351868e-01" nType="0">
          <Node pos="l" depth="2" NCoef="0" IVar="1" Cut="4.0631735229492188e+02" cType="1" res="-9.0673208236694336e-02" rms="4.1151338815689087e-01" purity="3.4480068087577820e-01" nType="0">
            <Node pos="l" depth="3" NCoef="0" IVar="-1" Cut="0.0000000000000000e+00" cType="1" res="-6.6959010437130928e-03" rms="3.7624508142471313e-01" purity="2.3234695196151733e-01" nType="-99"/>
            <Node pos="r" depth="3" NCoef="0" IVar="-1" Cut="0.0000000000000000e+00" cType="1" res="-8.9722272241488099e-04" rms="4.4463986158370972e-01" purity="4.8740822076797485e-01" nType="-99"/>
          </Node>
          <Node pos="r" depth="2" NCoef="0" IVar="-1" Cut="0.0000000000000000e+00" cType="1" res="-1.1192779056727886e-02" rms="3.4080243110656738e-01" purity="1.9466848671436310e-01" nType="-99"/>
        </Node>
      </Node>
    </BinaryTree>
    <BinaryTree type="DecisionTree" boostWeight="1.0000000000000000e+00" itree="118">
      <Node pos="s" depth="0" NCoef="0" IVar="6" Cut="-1.1820589303970337e+00" cType="1" res="1.7827656120061874e-02" rms="4.3108552694320679e-01" purity="5.0084304809570312e-01" nType="0">
        <Node pos="l" depth="1" NCoef="0" IVar="1" Cut="4.0512622070312500e+02" cType="1" res="-1.2042450159788132e-01" rms="3.9015811681747437e-01" purity="2.5893378257751465e-01" nType="0">
          <Node pos="l" depth="2" NCoef="0" IVar="6" Cut="-1.4854816198348999e+00" cType="1" res="-1.5438541769981384e-01" rms="3.4087872505187988e-01" purity="1.6231842339038849e-01" nType="0">
            <Node pos="l" depth="3" NCoef="0" IVar="-1" Cut="0.0000000000000000e+00" cType="1" res="-1.0951182805001736e-02" rms="3.0992925167083740e-01" purity="1.2261751294136047e-01" nType="-99"/>
            <Node pos="r" depth="3" NCoef="0" IVar="-1" Cut="0.0000000000000000e+00" cType="1" res="-5.3888275288045406e-03" rms="3.7823754549026489e-01" purity="2.2195768356323242e-01" nType="-99"/>
          </Node>
          <Node pos="r" depth="2" NCoef="0" IVar="-1" Cut="0.0000000000000000e+00" cType="1" res="-2.7211734559386969e-03" rms="4.4995543360710144e-01" purity="4.0546935796737671e-01" nType="-99"/>
        </Node>
        <Node pos="r" depth="1" NCoef="0" IVar="6" Cut="7.1399402618408203e-01" cType="1" res="3.4534603357315063e-02" rms="4.3279045820236206e-01" purity="5.3007638454437256e-01" nType="0">
          <Node pos="l" depth="2" NCoef="0" IVar="7" Cut="-1.1999689340591431e+00" cType="1" res="6.5909653902053833e-02" rms="4.3310347199440002e-01" purity="5.8350116014480591e-01" nType="0">
            <Node pos="l" depth="3" NCoef="0" IVar="-1" Cut="0.0000000000000000e+00" cType="1" res="-3.2656313851475716e-03" rms="4.1966065764427185e-01" purity="3.2755360007286072e-01" nType="-99"/>
            <Node pos="r" depth="3" NCoef="0" IVar="-1" Cut="0.0000000000000000e+00" cType="1" res="2.5648386217653751e-03" rms="4.3180817365646362e-01" purity="6.1329752206802368e-01" nType="-99"/>
          </Node>
          <Node pos="r" depth="2" NCoef="0" IVar="1" Cut="3.9451904296875000e+02" cType="1" res="-5.6493204087018967e-02" rms="4.1878294944763184e-01" purity="3.7507602572441101e-01" nType="0">
            <Node pos="l" depth="3" NCoef="0" IVar="-1" Cut="0.0000000000000000e+00" cType="1" res="-5.4923375137150288e-03" rms="3.8660687208175659e-01" purity="2.4119038879871368e-01" nType="-99"/>
            <Node pos="r" depth="3" NCoef="0" IVar="-1" Cut="0.0000000000000000e+00" cType="1" res="2.3242447059601545e-04" rms="4.4188579916954041e-01" purity="5.1781803369522095e-01" nType="-99"/>
          </Node>
        </Node>
      </Node>
    </BinaryTree>
    <BinaryTree type="DecisionTree" boostWeight="1.0000000000000000e+00" itree="119">
      <Node pos="s" depth="0" NCoef="0" IVar="6" Cut="9.3695157766342163e-01" cType="1" res="1.6737876459956169e-02" rms="4.2942428588867188e-01" purity="5.0027281045913696e-01" nType="0">
        <Node pos="l" depth="1" NCoef="0" IVar="6" Cut="-1.0145426988601685e+00" cType="1" res="3.7282399833202362e-02" rms="4.3069809675216675e-01" purity="5.3753471374511719e-01" nType="0">
          <Node pos="l" depth="2" NCoef="0" IVar="6" Cut="-1.6059038639068604e+00" cType="1" res="-9.7539044916629791e-02" rms="3.9884895086288452e-01" purity="2.9387876391410828e-01" nType="0">
            <Node pos="l" depth="3" NCoef="0" IVar="-1" Cut="0.0000000000000000e+00" cType="1" res="-9.3026543036103249e-03" rms="3.5543552041053772e-01" purity="1.9022563099861145e-01" nType="-99"/>
            <Node pos="r" depth="3" NCoef="0" IVar="-1" Cut="0.0000000000000000e+00" cType="1" res="-2.7087132912129164e-03" rms="4.1518160700798035e-01" purity="3.4671077132225037e-01" nType="-99"/>
          </Node>
          <Node pos="r" depth="2" NCoef="0" IVar="2" Cut="5.4262194824218750e+02" cType="1" res="6.4500577747821808e-02" rms="4.3176874518394470e-01" purity="5.8672481775283813e-01" nType="0">
            <Node pos="l" depth="3" NCoef="0" IVar="-1" Cut="0.0000000000000000e+00" cType="1" res="2.6495077181607485e-03" rms="4.2558372020721436e-01" purity="6.1307746171951294e-01" nType="-99"/>
            <Node pos="r" depth="3" NCoef="0" IVar="-1" Cut="0.0000000000000000e+00" cType="1" res="-2.6222164742648602e-03" rms="4.4802436232566833e-01" purity="4.2436140775680542e-01" nType="-99"/>
          </Node>
        </Node>
        <Node pos="r" depth="1" NCoef="0" IVar="1" Cut="4.9252700805664062e+02" cType="1" res="-8.7740465998649597e-02" rms="4.0715020895004272e-01" purity="3.1077870726585388e-01" nType="0">
          <Node pos="l" depth="2" NCoef="0" IVar="9" Cut="1.1995441913604736e+00" cType="1" res="-1.1323998123407364e-01" rms="3.9077892899513245e-01" purity="2.4432873725891113e-01" nType="0">
            <Node pos="l" depth="3" NCoef="0" IVar="-1" Cut="0.0000000000000000e+00" cType="1" res="-4.2246831580996513e-03" rms="4.0679562091827393e-01" purity="2.7386900782585144e-01" nType="-99"/>
            <Node pos="r" depth="3" NCoef="0" IVar="-1" Cut="0.0000000000000000e+00" cType="1" res="-1.1475804261863232e-02" rms="3.0624857544898987e-01" purity="1.2938731908798218e-01" nType="-99"/>
          </Node>
          <Node pos="r" depth="2" NCoef="0" IVar="-1" Cut="0.0000000000000000e+00" cType="1" res="4.3610282591544092e-04" rms="4.5242077112197876e-01" purity="5.7350718975067139e-01" nType="-99"/>
        </Node>
      </Node>
    </BinaryTree>
    <BinaryTree type="DecisionTree" boostWeight="1.0000000000000000e+00" itree="120">
      <Node pos="s" depth="0" NCoef="0" IVar="7" Cut="1.4666910171508789e+00" cType="1" res="1.9782193005084991e-02" rms="4.2812418937683105e-01" purity="5.0440150499343872e-01" nType="0">
        <Node pos="l" depth="1" NCoef="0" IVar="7" Cut="-1.1745299100875854e+00" cType="1" res="3.3925417810678482e-02" rms="4.3091866374015808e-01" purity="5.3049397468566895e-01" nType="0">
          <Node pos="l" depth="2" NCoef="0" IVar="1" Cut="4.5299850463867188e+02" cType="1" res="-1.0125904530286789e-01" rms="3.8675117492675781e-01" purity="2.6982563734054565e-01" nType="0">
            <Node pos="l" depth="3" NCoef="0" IVar="-1" Cut="0.0000000000000000e+00" cType="1" res="-6.5683275461196899e-03" rms="3.5675707459449768e-01" purity="1.9513830542564392e-01" nType="-99"/>
            <Node pos="r" depth="3" NCoef="0" IVar="-1" Cut="0.0000000000000000e+00" cType="1" res="-1.1727206874638796e-03" rms="4.4906702637672424e-01" purity="4.6654936671257019e-01" nType="-99"/>
          </Node>
          <Node pos="r" depth="2" NCoef="0" IVar="2" Cut="5.4262518310546875e+02" cType="1" res="5.4948523640632629e-02" rms="4.3361645936965942e-01" purity="5.7103168964385986e-01" nType="0">
            <Node pos="l" depth="3" NCoef="0" IVar="-1" Cut="0.0000000000000000e+00" cType="1" res="2.3266323842108250e-03" rms="4.2823547124862671e-01" purity="5.9521716833114624e-01" nType="-99"/>
            <Node pos="r" depth="3" NCoef="0" IVar="-1" Cut="0.0000000000000000e+00" cType="1" res="-1.1665194761008024e-03" rms="4.4736853241920471e-01" purity="4.2307692766189575e-01" nType="-99"/>
          </Node>
        </Node>
        <Node pos="r" depth="1" NCoef="0" IVar="7" Cut="1.7841593027114868e+00" cType="1" res="-1.4722262322902679e-01" rms="3.5311672091484070e-01" purity="1.9629834592342377e-01" nType="0">
          <Node pos="l" depth="2" NCoef="0" IVar="-1" Cut="0.0000000000000000e+00" cType="1" res="-5.1604704931378365e-03" rms="3.9038288593292236e-01" purity="2.5318658351898193e-01" nType="-99"/>
          <Node pos="r" depth="2" NCoef="0" IVar="-1" Cut="0.0000000000000000e+00" cType="1" res="-1.0453921742737293e-02" rms="3.2036939263343811e-01" purity="1.5460509061813354e-01" nType="-99"/>
        </Node>
      </Node>
    </BinaryTree>
    <BinaryTree type="DecisionTree" boostWeight="1.0000000000000000e+00" itree="121">
      <Node pos="s" depth="0" NCoef="0" IVar="9" Cut="1.4666407108306885e+00" cType="1" res="1.6152251511812210e-02" rms="4.2952531576156616e-01" purity="4.9905252456665039e-01" nType="0">
        <Node pos="l" depth="1" NCoef="0" IVar="9" Cut="-1.1745660305023193e+00" cType="1" res="3.1368128955364227e-02" rms="4.3048194050788879e-01" purity="5.2103382349014282e-01" nType="0">
          <Node pos="l" depth="2" NCoef="0" IVar="9" Cut="-2.0259485244750977e+00" cType="1" res="-7.7886380255222321e-02" rms="4.1737920045852661e-01" purity="3.5416820645332336e-01" nType="0">
            <Node pos="l" depth="3" NCoef="0" IVar="-1" Cut="0.0000000000000000e+00" cType="1" res="-8.1773707643151283e-03" rms="3.6756685376167297e-01" purity="2.2142826020717621e-01" nType="-99"/>
            <Node pos="r" depth="3" NCoef="0" IVar="-1" Cut="0.0000000000000000e+00" cType="1" res="-1.8909189384430647e-03" rms="4.2893704771995544e-01" purity="3.9921778440475464e-01" nType="-99"/>
          </Node>
          <Node pos="r" depth="2" NCoef="0" IVar="5" Cut="8.1733245849609375e+01" cType="1" res="5.3417246788740158e-02" rms="4.2972269654273987e-01" purity="5.5470967292785645e-01" nType="0">
            <Node pos="l" depth="3" NCoef="0" IVar="-1" Cut="0.0000000000000000e+00" cType="1" res="-8.3514233119785786e-04" rms="4.3163850903511047e-01" purity="3.2258039712905884e-01" nType="-99"/>
            <Node pos="r" depth="3" NCoef="0" IVar="-1" Cut="0.0000000000000000e+00" cType="1" res="2.5076973251998425e-03" rms="4.2581358551979065e-01" purity="6.3793712854385376e-01" nType="-99"/>
          </Node>
        </Node>
        <Node pos="r" depth="1" NCoef="0" IVar="9" Cut="2.1015486717224121e+00" cType="1" res="-1.2819638848304749e-01" rms="3.9198756217956543e-01" purity="2.9052194952964783e-01" nType="0">
          <Node pos="l" depth="2" NCoef="0" IVar="1" Cut="3.9658642578125000e+02" cType="1" res="-9.6637882292270660e-02" rms="4.0645667910575867e-01" purity="3.3705216646194458e-01" nType="0">
            <Node pos="l" depth="3" NCoef="0" IVar="-1" Cut="0.0000000000000000e+00" cType="1" res="-6.3511943444609642e-03" rms="3.7071928381919861e-01" purity="2.2874295711517334e-01" nType="-99"/>
            <Node pos="r" depth="3" NCoef="0" IVar="-1" Cut="0.0000000000000000e+00" cType="1" res="-1.8520725425332785e-03" rms="4.4060438871383667e-01" purity="4.6746850013732910e-01" nType="-99"/>
          </Node>
          <Node pos="r" depth="2" NCoef="0" IVar="-1" Cut="0.0000000000000000e+00" cType="1" res="-1.1432826519012451e-02" rms="3.4941700100898743e-01" purity="1.9054138660430908e-01" nType="-99"/>
        </Node>
      </Node>
    </BinaryTree>
    <BinaryTree type="DecisionTree" boostWeight="1.0000000000000000e+00" itree="122">
      <Node pos="s" depth="0" NCoef="0" IVar="6" Cut="-9.0296322107315063e-01" cType="1" res="1.4929918572306633e-02" rms="4.2846590280532837e-01" purity="4.9913913011550903e-01" nType="0">
        <Node pos="l" depth="1" NCoef="0" IVar="1" Cut="5.1024856567382812e+02" cType="1" res="-8.8027939200401306e-02" rms="4.0491369366645813e-01" purity="3.1545421481132507e-01" nType="0">
          <Node pos="l" depth="2" NCoef="0" IVar="2" Cut="2.9864855957031250e+02" cType="1" res="-1.1289102584123611e-01" rms="3.8872662186622620e-01" purity="2.5667124986648560e-01" nType="0">
            <Node pos="l" depth="3" NCoef="0" IVar="-1" Cut="0.0000000000000000e+00" cType="1" res="-2.1528413053601980e-03" rms="4.1225165128707886e-01" purity="3.3500620722770691e-01" nType="-99"/>
            <Node pos="r" depth="3" NCoef="0" IVar="-1" Cut="0.0000000000000000e+00" cType="1" res="-8.7586622685194016e-03" rms="3.6518764495849609e-01" purity="1.9849900901317596e-01" nType="-99"/>
          </Node>
          <Node pos="r" depth="2" NCoef="0" IVar="-1" Cut="0.0000000000000000e+00" cType="1" res="7.3476822581142187e-04" rms="4.5416840910911560e-01" purity="5.7824832201004028e-01" nType="-99"/>
        </Node>
        <Node pos="r" depth="1" NCoef="0" IVar="6" Cut="6.8371218442916870e-01" cType="1" res="3.5725735127925873e-02" rms="4.3008601665496826e-01" purity="5.3624045848846436e-01" nType="0">
          <Node pos="l" depth="2" NCoef="0" IVar="2" Cut="3.7131063842773438e+02" cType="1" res="7.1851544082164764e-02" rms="4.2984649538993835e-01" purity="5.9940510988235474e-01" nType="0">
            <Node pos="l" depth="3" NCoef="0" IVar="-1" Cut="0.0000000000000000e+00" cType="1" res="3.3370971214026213e-03" rms="4.1385859251022339e-01" purity="6.6255384683609009e-01" nType="-99"/>
            <Node pos="r" depth="3" NCoef="0" IVar="-1" Cut="0.0000000000000000e+00" cType="1" res="4.1817664168775082e-04" rms="4.4641605019569397e-01" purity="5.0306946039199829e-01" nType="-99"/>
          </Node>
          <Node pos="r" depth="2" NCoef="0" IVar="1" Cut="4.9123529052734375e+02" cType="1" res="-5.4638810455799103e-02" rms="4.1720369458198547e-01" purity="3.7824162840843201e-01" nType="0">
            <Node pos="l" depth="3" NCoef="0" IVar="-1" Cut="0.0000000000000000e+00" cType="1" res="-3.5353109706193209e-03" rms="4.0586602687835693e-01" purity="3.0888035893440247e-01" nType="-99"/>
            <Node pos="r" depth="3" NCoef="0" IVar="-1" Cut="0.0000000000000000e+00" cType="1" res="1.4178644632920623e-03" rms="4.4091311097145081e-01" purity="6.2356793880462646e-01" nType="-99"/>
          </Node>
        </Node>
      </Node>
    </BinaryTree>
    <BinaryTree type="DecisionTree" boostWeight="1.0000000000000000e+00" itree="123">
      <Node pos="s" depth="0" NCoef="0" IVar="1" Cut="4.5299603271484375e+02" cType="1" res="1.3832774944603443e-02" rms="4.2680448293685913e-01" purity="4.9852561950683594e-01" nType="0">
        <Node pos="l" depth="1" NCoef="0" IVar="2" Cut="3.5154837036132812e+02" cType="1" res="-2.1523881703615189e-02" rms="4.2571625113487244e-01" purity="4.0642026066780090e-01" nType="0">
          <Node pos="l" depth="2" NCoef="0" IVar="0" Cut="1.1937757568359375e+03" cType="1" res="2.1158963441848755e-02" rms="4.3408828973770142e-01" purity="4.7591727972030640e-01" nType="0">
            <Node pos="l" depth="3" NCoef="0" IVar="-1" Cut="0.0000000000000000e+00" cType="1" res="-1.9110682187601924e-03" rms="4.2952740192413330e-01" purity="3.0726471543312073e-01" nType="-99"/>
            <Node pos="r" depth="3" NCoef="0" IVar="-1" Cut="0.0000000000000000e+00" cType="1" res="3.2094258349388838e-03" rms="4.2260274291038513e-01" purity="6.8329763412475586e-01" nType="-99"/>
          </Node>
          <Node pos="r" depth="2" NCoef="0" IVar="5" Cut="1.4703585815429688e+02" cType="1" res="-8.8182240724563599e-02" rms="4.0336599946022034e-01" purity="2.9788595438003540e-01" nType="0">
            <Node pos="l" depth="3" NCoef="0" IVar="-1" Cut="0.0000000000000000e+00" cType="1" res="-5.7015577331185341e-03" rms="3.8757321238517761e-01" purity="2.4462157487869263e-01" nType="-99"/>
            <Node pos="r" depth="3" NCoef="0" IVar="-1" Cut="0.0000000000000000e+00" cType="1" res="8.6995866149663925e-04" rms="4.5619404315948486e-01" purity="5.5725598335266113e-01" nType="-99"/>
          </Node>
        </Node>
        <Node pos="r" depth="1" NCoef="0" IVar="2" Cut="5.4262371826171875e+02" cType="1" res="8.2977905869483948e-02" rms="4.2041715979576111e-01" purity="6.7865115404129028e-01" nType="0">
          <Node pos="l" depth="2" NCoef="0" IVar="0" Cut="1.3499689941406250e+03" cType="1" res="1.1507698148488998e-01" rms="3.9879187941551208e-01" purity="7.3140639066696167e-01" nType="0">
            <Node pos="l" depth="3" NCoef="0" IVar="-1" Cut="0.0000000000000000e+00" cType="1" res="9.4110070494934916e-04" rms="4.5647999644279480e-01" purity="5.5310010910034180e-01" nType="-99"/>
            <Node pos="r" depth="3" NCoef="0" IVar="-1" Cut="0.0000000000000000e+00" cType="1" res="4.1408394463360310e-03" rms="3.7734869122505188e-01" purity="7.8195434808731079e-01" nType="-99"/>
          </Node>
          <Node pos="r" depth="2" NCoef="0" IVar="1" Cut="5.9871252441406250e+02" cType="1" res="-1.8868230283260345e-02" rms="4.6831417083740234e-01" purity="5.1126569509506226e-01" nType="0">
            <Node pos="l" depth="3" NCoef="0" IVar="-1" Cut="0.0000000000000000e+00" cType="1" res="-4.3495404534041882e-03" rms="4.6042516827583313e-01" purity="4.0098854899406433e-01" nType="-99"/>
            <Node pos="r" depth="3" NCoef="0" IVar="-1" Cut="0.0000000000000000e+00" cType="1" res="1.5745423734188080e-03" rms="4.6488261222839355e-01" purity="6.1055171489715576e-01" nType="-99"/>
          </Node>
        </Node>
      </Node>
    </BinaryTree>
    <BinaryTree type="DecisionTree" boostWeight="1.0000000000000000e+00" itree="124">
      <Node pos="s" depth="0" NCoef="0" IVar="8" Cut="-1.4667198657989502e+00" cType="1" res="1.8823882564902306e-02" rms="4.2752546072006226e-01" purity="5.0379055738449097e-01" nType="0">
        <Node pos="l" depth="1" NCoef="0" IVar="2" Cut="4.0731210327148438e+02" cType="1" res="-1.3241668045520782e-01" rms="3.7276974320411682e-01" purity="2.3622280359268188e-01" nType="0">
          <Node pos="l" depth="2" NCoef="0" IVar="-1" Cut="0.0000000000000000e+00" cType="1" res="-4.9800444394350052e-03" rms="3.8809716701507568e-01" purity="2.7420571446418762e-01" nType="-99"/>
          <Node pos="r" depth="2" NCoef="0" IVar="-1" Cut="0.0000000000000000e+00" cType="1" res="-1.2981968000531197e-02" rms="3.3583033084869385e-01" purity="1.6295894980430603e-01" nType="-99"/>
        </Node>
        <Node pos="r" depth="1" NCoef="0" IVar="8" Cut="1.5807722806930542e+00" cType="1" res="3.2781668007373810e-02" rms="4.2955368757247925e-01" purity="5.2848398685455322e-01" nType="0">
          <Node pos="l" depth="2" NCoef="0" IVar="7" Cut="9.3359428644180298e-01" cType="1" res="4.7092910856008530e-02" rms="4.3054571747779846e-01" purity="5.5391669273376465e-01" nType="0">
            <Node pos="l" depth="3" NCoef="0" IVar="-1" Cut="0.0000000000000000e+00" cType="1" res="2.1662116050720215e-03" rms="4.2923793196678162e-01" purity="5.9114521741867065e-01" nType="-99"/>
            <Node pos="r" depth="3" NCoef="0" IVar="-1" Cut="0.0000000000000000e+00" cType="1" res="-2.2200557868927717e-03" rms="4.2259794473648071e-01" purity="3.6625239253044128e-01" nType="-99"/>
          </Node>
          <Node pos="r" depth="2" NCoef="0" IVar="8" Cut="1.8710290193557739e+00" cType="1" res="-1.3051338493824005e-01" rms="3.8180935382843018e-01" purity="2.3829025030136108e-01" nType="0">
            <Node pos="l" depth="3" NCoef="0" IVar="-1" Cut="0.0000000000000000e+00" cType="1" res="-3.8355232682079077e-03" rms="4.1845434904098511e-01" purity="3.0916950106620789e-01" nType="-99"/>
            <Node pos="r" depth="3" NCoef="0" IVar="-1" Cut="0.0000000000000000e+00" cType="1" res="-8.6117535829544067e-03" rms="3.5473096370697021e-01" purity="1.9584234058856964e-01" nType="-99"/>
          </Node>
        </Node>
      </Node>
    </BinaryTree>
    <BinaryTree type="DecisionTree" boostWeight="1.0000000000000000e+00" itree="125">
      <Node pos="s" depth="0" NCoef="0" IVar="1" Cut="4.5299591064453125e+02" cType="1" res="1.4351591467857361e-02" rms="4.2701196670532227e-01" purity="4.9904951453208923e-01" nType="0">
        <Node pos="l" depth="1" NCoef="0" IVar="2" Cut="4.5257925415039062e+02" cType="1" res="-1.8143655732274055e-02" rms="4.2688289284706116e-01" purity="4.0991410613059998e-01" nType="0">
          <Node pos="l" depth="2" NCoef="0" IVar="0" Cut="1.2307333984375000e+03" cType="1" res="5.4491516202688217e-03" rms="4.3263819813728333e-01" purity="4.4871577620506287e-01" nType="0">
            <Node pos="l" depth="3" NCoef="0" IVar="-1" Cut="0.0000000000000000e+00" cType="1" res="-2.2187081631273031e-03" rms="4.2305958271026611e-01" purity="3.0040392279624939e-01" nType="-99"/>
            <Node pos="r" depth="3" NCoef="0" IVar="-1" Cut="0.0000000000000000e+00" cType="1" res="2.5398547295480967e-03" rms="4.3153446912765503e-01" purity="6.2248367071151733e-01" nType="-99"/>
          </Node>
          <Node pos="r" depth="2" NCoef="0" IVar="2" Cut="5.6804846191406250e+02" cType="1" res="-1.2146145850419998e-01" rms="3.8399723172187805e-01" purity="2.3999343812465668e-01" nType="0">
            <Node pos="l" depth="3" NCoef="0" IVar="-1" Cut="0.0000000000000000e+00" cType="1" res="-3.7371946964412928e-03" rms="4.0158504247665405e-01" purity="2.8630208969116211e-01" nType="-99"/>
            <Node pos="r" depth="3" NCoef="0" IVar="-1" Cut="0.0000000000000000e+00" cType="1" res="-2.3088525049388409e-03" rms="3.4323281049728394e-01" purity="1.6793392598628998e-01" nType="-99"/>
          </Node>
        </Node>
        <Node pos="r" depth="1" NCoef="0" IVar="2" Cut="4.8564755249023438e+02" cType="1" res="7.8735150396823883e-02" rms="4.1990497708320618e-01" purity="6.7565560340881348e-01" nType="0">
          <Node pos="l" depth="2" NCoef="0" IVar="0" Cut="1.5765164794921875e+03" cType="1" res="1.1718121170997620e-01" rms="3.9084550738334656e-01" purity="7.4449568986892700e-01" nType="0">
            <Node pos="l" depth="3" NCoef="0" IVar="-1" Cut="0.0000000000000000e+00" cType="1" res="2.1766885183751583e-03" rms="4.2571967840194702e-01" purity="6.6219460964202881e-01" nType="-99"/>
            <Node pos="r" depth="3" NCoef="0" IVar="-1" Cut="0.0000000000000000e+00" cType="1" res="5.1069967448711395e-03" rms="3.2764005661010742e-01" purity="8.5590463876724243e-01" nType="-99"/>
          </Node>
          <Node pos="r" depth="2" NCoef="0" IVar="1" Cut="5.9870507812500000e+02" cType="1" res="-9.7673032432794571e-03" rms="4.6831592917442322e-01" purity="5.1718628406524658e-01" nType="0">
            <Node pos="l" depth="3" NCoef="0" IVar="-1" Cut="0.0000000000000000e+00" cType="1" res="-3.3964407630264759e-03" rms="4.6132794022560120e-01" purity="4.1636896133422852e-01" nType="-99"/>
            <Node pos="r" depth="3" NCoef="0" IVar="-1" Cut="0.0000000000000000e+00" cType="1" res="1.8748419824987650e-03" rms="4.6513059735298157e-01" purity="6.1974740028381348e-01" nType="-99"/>
          </Node>
        </Node>
      </Node>
    </BinaryTree>
    <BinaryTree type="DecisionTree" boostWeight="1.0000000000000000e+00" itree="126">
      <Node pos="s" depth="0" NCoef="0" IVar="8" Cut="-1.2000094652175903e+00" cType="1" res="1.3706409372389317e-02" rms="4.2715612053871155e-01" purity="4.9671122431755066e-01" nType="0">
        <Node pos="l" depth="1" NCoef="0" IVar="8" Cut="-2.0381050109863281e+00" cType="1" res="-9.9765144288539886e-02" rms="3.9414334297180176e-01" purity="2.9186981916427612e-01" nType="0">
          <Node pos="l" depth="2" NCoef="0" IVar="-1" Cut="0.0000000000000000e+00" cType="1" res="-1.0713015682995319e-02" rms="3.3362373709678650e-01" purity="1.6030031442642212e-01" nType="-99"/>
          <Node pos="r" depth="2" NCoef="0" IVar="2" Cut="4.2628353881835938e+02" cType="1" res="-7.3986701667308807e-02" rms="4.0911716222763062e-01" purity="3.3573836088180542e-01" nType="0">
            <Node pos="l" depth="3" NCoef="0" IVar="-1" Cut="0.0000000000000000e+00" cType="1" res="-1.5048236818984151e-03" rms="4.1760820150375366e-01" purity="3.8838508725166321e-01" nType="-99"/>
            <Node pos="r" depth="3" NCoef="0" IVar="-1" Cut="0.0000000000000000e+00" cType="1" res="-1.1526363901793957e-02" rms="3.7223988771438599e-01" purity="2.0123867690563202e-01" nType="-99"/>
          </Node>
        </Node>
        <Node pos="r" depth="1" NCoef="0" IVar="8" Cut="8.9521348476409912e-01" cType="1" res="3.0880872160196304e-02" rms="4.2932775616645813e-01" purity="5.2771496772766113e-01" nType="0">
          <Node pos="l" depth="2" NCoef="0" IVar="6" Cut="1.2028344869613647e+00" cType="1" res="5.8767139911651611e-02" rms="4.2893311381340027e-01" purity="5.7740455865859985e-01" nType="0">
            <Node pos="l" depth="3" NCoef="0" IVar="-1" Cut="0.0000000000000000e+00" cType="1" res="1.9618985243141651e-03" rms="4.2750507593154907e-01" purity="6.0237908363342285e-01" nType="-99"/>
            <Node pos="r" depth="3" NCoef="0" IVar="-1" Cut="0.0000000000000000e+00" cType="1" res="-2.9118605889379978e-03" rms="4.1894194483757019e-01" purity="3.3430039882659912e-01" nType="-99"/>
          </Node>
          <Node pos="r" depth="2" NCoef="0" IVar="8" Cut="1.7115350961685181e+00" cType="1" res="-6.2507450580596924e-02" rms="4.1728994250297546e-01" purity="3.6130958795547485e-01" nType="0">
            <Node pos="l" depth="3" NCoef="0" IVar="-1" Cut="0.0000000000000000e+00" cType="1" res="-1.1655392590910196e-03" rms="4.3162965774536133e-01" purity="4.2006188631057739e-01" nType="-99"/>
            <Node pos="r" depth="3" NCoef="0" IVar="-1" Cut="0.0000000000000000e+00" cType="1" res="-7.0704352110624313e-03" rms="3.7091282010078430e-01" purity="2.2308807075023651e-01" nType="-99"/>
          </Node>
        </Node>
      </Node>
    </BinaryTree>
    <BinaryTree type="DecisionTree" boostWeight="1.0000000000000000e+00" itree="127">
      <Node pos="s" depth="0" NCoef="0" IVar="7" Cut="9.3334478139877319e-01" cType="1" res="1.8076671287417412e-02" rms="4.2719516158103943e-01" purity="5.0359308719635010e-01" nType="0">
        <Node pos="l" depth="1" NCoef="0" IVar="7" Cut="-8.4441375732421875e-01" cType="1" res="3.9150062948465347e-02" rms="4.2990130186080933e-01" purity="5.4246091842651367e-01" nType="0">
          <Node pos="l" depth="2" NCoef="0" IVar="2" Cut="5.4081427001953125e+02" cType="1" res="-6.0447920113801956e-02" rms="4.1184210777282715e-01" purity="3.5172140598297119e-01" nType="0">
            <Node pos="l" depth="3" NCoef="0" IVar="-1" Cut="0.0000000000000000e+00" cType="1" res="-1.6808022046461701e-03" rms="4.1504487395286560e-01" purity="3.7344610691070557e-01" nType="-99"/>
            <Node pos="r" depth="3" NCoef="0" IVar="-1" Cut="0.0000000000000000e+00" cType="1" res="-1.1433137580752373e-02" rms="3.6954966187477112e-01" purity="2.0761060714721680e-01" nType="-99"/>
          </Node>
          <Node pos="r" depth="2" NCoef="0" IVar="8" Cut="1.1998864412307739e+00" cType="1" res="7.0858858525753021e-02" rms="4.3068683147430420e-01" purity="6.0318619012832642e-01" nType="0">
            <Node pos="l" depth="3" NCoef="0" IVar="-1" Cut="0.0000000000000000e+00" cType="1" res="2.2541980724781752e-03" rms="4.2677173018455505e-01" purity="6.3096678256988525e-01" nType="-99"/>
            <Node pos="r" depth="3" NCoef="0" IVar="-1" Cut="0.0000000000000000e+00" cType="1" res="-2.2845666389912367e-03" rms="4.4098335504531860e-01" purity="3.8051497936248779e-01" nType="-99"/>
          </Node>
        </Node>
        <Node pos="r" depth="1" NCoef="0" IVar="2" Cut="3.2048535156250000e+02" cType="1" res="-8.3204843103885651e-02" rms="3.9869266748428345e-01" purity="3.1678947806358337e-01" nType="0">
          <Node pos="l" depth="2" NCoef="0" IVar="-1" Cut="0.0000000000000000e+00" cType="1" res="-1.2316899374127388e-03" rms="4.1345655918121338e-01" purity="3.8947096467018127e-01" nType="-99"/>
          <Node pos="r" depth="2" NCoef="0" IVar="7" Cut="1.6444540023803711e+00" cType="1" res="-1.2622974812984467e-01" rms="3.8019260764122009e-01" purity="2.5356584787368774e-01" nType="0">
            <Node pos="l" depth="3" NCoef="0" IVar="-1" Cut="0.0000000000000000e+00" cType="1" res="-4.4781342148780823e-03" rms="4.0907505154609680e-01" purity="3.1161084771156311e-01" nType="-99"/>
            <Node pos="r" depth="3" NCoef="0" IVar="-1" Cut="0.0000000000000000e+00" cType="1" res="-1.2770335189998150e-02" rms="3.1090098619461060e-01" purity="1.4123234152793884e-01" nType="-99"/>
          </Node>
        </Node>
      </Node>
    </BinaryTree>
    <BinaryTree type="DecisionTree" boostWeight="1.0000000000000000e+00" itree="128">
      <Node pos="s" depth="0" NCoef="0" IVar="7" Cut="9.3334478139877319e-01" cType="1" res="1.1279178783297539e-02" rms="4.2690870165824890e-01" purity="4.9481138586997986e-01" nType="0">
        <Node pos="l" depth="1" NCoef="0" IVar="7" Cut="-1.0221898555755615e+00" cType="1" res="3.3181227743625641e-02" rms="4.3060693144798279e-01" purity="5.3554636240005493e-01" nType="0">
          <Node pos="l" depth="2" NCoef="0" IVar="9" Cut="-1.1998306512832642e+00" cType="1" res="-7.7655628323554993e-02" rms="4.0279486775398254e-01" purity="3.1021666526794434e-01" nType="0">
            <Node pos="l" depth="3" NCoef="0" IVar="-1" Cut="0.0000000000000000e+00" cType="1" res="-1.0829674080014229e-02" rms="3.1888180971145630e-01" purity="1.5672202408313751e-01" nType="-99"/>
            <Node pos="r" depth="3" NCoef="0" IVar="-1" Cut="0.0000000000000000e+00" cType="1" res="-2.1660835482180119e-03" rms="4.1680708527565002e-01" purity="3.4733283519744873e-01" nType="-99"/>
          </Node>
          <Node pos="r" depth="2" NCoef="0" IVar="0" Cut="1.1317449951171875e+03" cType="1" res="5.9468008577823639e-02" rms="4.3279901146888733e-01" purity="5.8898699283599854e-01" nType="0">
            <Node pos="l" depth="3" NCoef="0" IVar="-1" Cut="0.0000000000000000e+00" cType="1" res="-1.3512816512957215e-03" rms="4.4914653897285461e-01" purity="3.3752930164337158e-01" nType="-99"/>
            <Node pos="r" depth="3" NCoef="0" IVar="-1" Cut="0.0000000000000000e+00" cType="1" res="2.5535859167575836e-03" rms="4.2630952596664429e-01" purity="6.4295238256454468e-01" nType="-99"/>
          </Node>
        </Node>
        <Node pos="r" depth="1" NCoef="0" IVar="2" Cut="3.2499594116210938e+02" cType="1" res="-9.4140872359275818e-02" rms="3.9187318086624146e-01" purity="2.9874369502067566e-01" nType="0">
          <Node pos="l" depth="2" NCoef="0" IVar="-1" Cut="0.0000000000000000e+00" cType="1" res="-1.7361567588523030e-03" rms="4.0878582000732422e-01" purity="3.7283235788345337e-01" nType="-99"/>
          <Node pos="r" depth="2" NCoef="0" IVar="7" Cut="1.3777886629104614e+00" cType="1" res="-1.3925871253013611e-01" rms="3.7040361762046814e-01" purity="2.3286415636539459e-01" nType="0">
            <Node pos="l" depth="3" NCoef="0" IVar="-1" Cut="0.0000000000000000e+00" cType="1" res="-4.4777542352676392e-03" rms="4.1719928383827209e-01" purity="3.2997688651084900e-01" nType="-99"/>
            <Node pos="r" depth="3" NCoef="0" IVar="-1" Cut="0.0000000000000000e+00" cType="1" res="-1.1004602536559105e-02" rms="3.2036125659942627e-01" purity="1.4917263388633728e-01" nType="-99"/>
          </Node>
        </Node>
      </Node>
    </BinaryTree>
    <BinaryTree type="DecisionTree" boostWeight="1.0000000000000000e+00" itree="129">
      <Node pos="s" depth="0" NCoef="0" IVar="0" Cut="1.3927326660156250e+03" cType="1" res="1.6940921545028687e-02" rms="4.2659601569175720e-01" purity="5.0183635950088501e-01" nType="0">
        <Node pos="l" depth="1" NCoef="0" IVar="2" Cut="2.7943682861328125e+02" cType="1" res="-2.7691282331943512e-02" rms="4.3002128601074219e-01" purity="3.8415658473968506e-01" nType="0">
          <Node pos="l" depth="2" NCoef="0" IVar="0" Cut="1.1387202148437500e+03" cType="1" res="3.8049057126045227e-02" rms="4.4695618748664856e-01" purity="4.8822012543678284e-01" nType="0">
            <Node pos="l" depth="3" NCoef="0" IVar="-1" Cut="0.0000000000000000e+00" cType="1" res="-8.8879035320132971e-04" rms="4.4598829746246338e-01" purity="3.3705449104309082e-01" nType="-99"/>
            <Node pos="r" depth="3" NCoef="0" IVar="-1" Cut="0.0000000000000000e+00" cType="1" res="3.1487045343965292e-03" rms="4.3592712283134460e-01" purity="6.7587393522262573e-01" nType="-99"/>
          </Node>
          <Node pos="r" depth="2" NCoef="0" IVar="6" Cut="-1.1383694410324097e+00" cType="1" res="-8.8549964129924774e-02" rms="4.0430799126625061e-01" purity="2.8782045841217041e-01" nType="0">
            <Node pos="l" depth="3" NCoef="0" IVar="-1" Cut="0.0000000000000000e+00" cType="1" res="-1.0248221457004547e-02" rms="3.0538326501846313e-01" purity="1.1569041758775711e-01" nType="-99"/>
            <Node pos="r" depth="3" NCoef="0" IVar="-1" Cut="0.0000000000000000e+00" cType="1" res="-2.8803774621337652e-03" rms="4.1658779978752136e-01" purity="3.1630936264991760e-01" nType="-99"/>
          </Node>
        </Node>
        <Node pos="r" depth="1" NCoef="0" IVar="2" Cut="4.7839468383789062e+02" cType="1" res="6.4254477620124817e-02" rms="4.1776007413864136e-01" purity="6.2658590078353882e-01" nType="0">
          <Node pos="l" depth="2" NCoef="0" IVar="3" Cut="2.6865747070312500e+02" cType="1" res="1.3218073546886444e-01" rms="3.8648667931556702e-01" purity="7.5182986259460449e-01" nType="0">
            <Node pos="l" depth="3" NCoef="0" IVar="-1" Cut="0.0000000000000000e+00" cType="1" res="5.0830878317356110e-03" rms="3.5328698158264160e-01" purity="8.1396842002868652e-01" nType="-99"/>
            <Node pos="r" depth="3" NCoef="0" IVar="-1" Cut="0.0000000000000000e+00" cType="1" res="1.4724232023581862e-03" rms="4.3443951010704041e-01" purity="6.2238180637359619e-01" nType="-99"/>
          </Node>
          <Node pos="r" depth="2" NCoef="0" IVar="1" Cut="5.5525274658203125e+02" cType="1" res="-4.4215258210897446e-02" rms="4.4221454858779907e-01" purity="4.2658695578575134e-01" nType="0">
            <Node pos="l" depth="3" NCoef="0" IVar="-1" Cut="0.0000000000000000e+00" cType="1" res="-2.1812699269503355e-03" rms="4.2057675123214722e-01" purity="3.1673452258110046e-01" nType="-99"/>
            <Node pos="r" depth="3" NCoef="0" IVar="-1" Cut="0.0000000000000000e+00" cType="1" res="1.8475028919056058e-03" rms="4.5912656188011169e-01" purity="6.1720049381256104e-01" nType="-99"/>
          </Node>
        </Node>
      </Node>
    </BinaryTree>
    <BinaryTree type="DecisionTree" boostWeight="1.0000000000000000e+00" itree="130">
      <Node pos="s" depth="0" NCoef="0" IVar="6" Cut="-9.2584341764450073e-01" cType="1" res="1.5188086777925491e-02" rms="4.2635771632194519e-01" purity="4.9956005811691284e-01" nType="0">
        <Node pos="l" depth="1" NCoef="0" IVar="6" Cut="-1.3693592548370361e+00" cType="1" res="-8.7195575237274170e-02" rms="3.9770215749740601e-01" purity="3.1321310997009277e-01" nType="0">
          <Node pos="l" depth="2" NCoef="0" IVar="8" Cut="-3.9872494339942932e-01" cType="1" res="-1.3611382246017456e-01" rms="3.6553218960762024e-01" purity="2.2438018023967743e-01" nType="0">
            <Node pos="l" depth="3" NCoef="0" IVar="-1" Cut="0.0000000000000000e+00" cType="1" res="-1.1431051418185234e-02" rms="3.2042706012725830e-01" purity="1.6418735682964325e-01" nType="-99"/>
            <Node pos="r" depth="3" NCoef="0" IVar="-1" Cut="0.0000000000000000e+00" cType="1" res="-5.2867503836750984e-03" rms="3.9094948768615723e-01" purity="2.6637059450149536e-01" nType="-99"/>
          </Node>
          <Node pos="r" depth="2" NCoef="0" IVar="5" Cut="9.3745056152343750e+01" cType="1" res="-4.3655294924974442e-02" rms="4.1951784491539001e-01" purity="3.9227986335754395e-01" nType="0">
            <Node pos="l" depth="3" NCoef="0" IVar="-1" Cut="0.0000000000000000e+00" cType="1" res="-4.4604656286537647e-03" rms="3.8283064961433411e-01" purity="2.2382731735706329e-01" nType="-99"/>
            <Node pos="r" depth="3" NCoef="0" IVar="-1" Cut="0.0000000000000000e+00" cType="1" res="-4.2842133552767336e-05" rms="4.4296708703041077e-01" purity="5.3084677457809448e-01" nType="-99"/>
          </Node>
        </Node>
        <Node pos="r" depth="1" NCoef="0" IVar="6" Cut="8.4821808338165283e-01" cType="1" res="3.4953843802213669e-02" rms="4.2886513471603394e-01" purity="5.3553545475006104e-01" nType="0">
          <Node pos="l" depth="2" NCoef="0" IVar="2" Cut="4.8559088134765625e+02" cType="1" res="6.6561542451381683e-02" rms="4.2915701866149902e-01" purity="5.9326428174972534e-01" nType="0">
            <Node pos="l" depth="3" NCoef="0" IVar="-1" Cut="0.0000000000000000e+00" cType="1" res="2.7961716987192631e-03" rms="4.2143028974533081e-01" purity="6.3005000352859497e-01" nType="-99"/>
            <Node pos="r" depth="3" NCoef="0" IVar="-1" Cut="0.0000000000000000e+00" cType="1" res="-1.2193432776257396e-03" rms="4.4567400217056274e-01" purity="4.4670331478118896e-01" nType="-99"/>
          </Node>
          <Node pos="r" depth="2" NCoef="0" IVar="6" Cut="1.3128604888916016e+00" cType="1" res="-7.4270777404308319e-02" rms="4.0948450565338135e-01" purity="3.3604571223258972e-01" nType="0">
            <Node pos="l" depth="3" NCoef="0" IVar="-1" Cut="0.0000000000000000e+00" cType="1" res="-7.7568122651427984e-04" rms="4.3774357438087463e-01" purity="4.3146380782127380e-01" nType="-99"/>
            <Node pos="r" depth="3" NCoef="0" IVar="-1" Cut="0.0000000000000000e+00" cType="1" res="-6.9447462446987629e-03" rms="3.6676159501075745e-01" purity="2.3060323297977448e-01" nType="-99"/>
          </Node>
        </Node>
      </Node>
    </BinaryTree>
    <BinaryTree type="DecisionTree" boostWeight="1.0000000000000000e+00" itree="131">
      <Node pos="s" depth="0" NCoef="0" IVar="9" Cut="-1.4664818048477173e+00" cType="1" res="2.0913517102599144e-02" rms="4.2457786202430725e-01" purity="5.0514745712280273e-01" nType="0">
        <Node pos="l" depth="1" NCoef="0" IVar="2" Cut="3.3269375610351562e+02" cType="1" res="-1.2148088961839676e-01" rms="3.9217421412467957e-01" purity="2.8791567683219910e-01" nType="0">
          <Node pos="l" depth="2" NCoef="0" IVar="-1" Cut="0.0000000000000000e+00" cType="1" res="-3.2364001963287592e-03" rms="4.0976452827453613e-01" purity="3.4842374920845032e-01" nType="-99"/>
          <Node pos="r" depth="2" NCoef="0" IVar="-1" Cut="0.0000000000000000e+00" cType="1" res="-9.5573663711547852e-03" rms="3.6923226714134216e-01" purity="2.2751764953136444e-01" nType="-99"/>
        </Node>
        <Node pos="r" depth="1" NCoef="0" IVar="9" Cut="1.1746466159820557e+00" cType="1" res="3.6199312657117844e-02" rms="4.2508488893508911e-01" purity="5.2846693992614746e-01" nType="0">
          <Node pos="l" depth="2" NCoef="0" IVar="1" Cut="4.2762725830078125e+02" cType="1" res="5.7900533080101013e-02" rms="4.2447990179061890e-01" purity="5.6155717372894287e-01" nType="0">
            <Node pos="l" depth="3" NCoef="0" IVar="-1" Cut="0.0000000000000000e+00" cType="1" res="5.5186054669320583e-04" rms="4.3179285526275635e-01" purity="4.5603880286216736e-01" nType="-99"/>
            <Node pos="r" depth="3" NCoef="0" IVar="-1" Cut="0.0000000000000000e+00" cType="1" res="3.2608339097350836e-03" rms="4.0872886776924133e-01" purity="7.0534503459930420e-01" nType="-99"/>
          </Node>
          <Node pos="r" depth="2" NCoef="0" IVar="9" Cut="1.7938216924667358e+00" cType="1" res="-7.5934454798698425e-02" rms="4.1029927134513855e-01" purity="3.5748389363288879e-01" nType="0">
            <Node pos="l" depth="3" NCoef="0" IVar="-1" Cut="0.0000000000000000e+00" cType="1" res="-1.3212520861998200e-03" rms="4.2607292532920837e-01" purity="4.2152786254882812e-01" nType="-99"/>
            <Node pos="r" depth="3" NCoef="0" IVar="-1" Cut="0.0000000000000000e+00" cType="1" res="-6.6916611976921558e-03" rms="3.7495368719100952e-01" purity="2.5676575303077698e-01" nType="-99"/>
          </Node>
        </Node>
      </Node>
    </BinaryTree>
    <BinaryTree type="DecisionTree" boostWeight="1.0000000000000000e+00" itree="132">
      <Node pos="s" depth="0" NCoef="0" IVar="9" Cut="-1.4665083885192871e+00" cType="1" res="1.3337046839296818e-02" rms="4.2675393819808960e-01" purity="4.9735727906227112e-01" nType="0">
        <Node pos="l" depth="1" NCoef="0" IVar="9" Cut="-1.9744315147399902e+00" cType="1" res="-1.1948243528604507e-01" rms="3.9286452531814575e-01" purity="2.9039427638053894e-01" nType="0">
          <Node pos="l" depth="2" NCoef="0" IVar="-1" Cut="0.0000000000000000e+00" cType="1" res="-9.5186019316315651e-03" rms="3.5624161362648010e-01" purity="2.1698464453220367e-01" nType="-99"/>
          <Node pos="r" depth="2" NCoef="0" IVar="7" Cut="-1.3272356986999512e-01" cType="1" res="-8.3498843014240265e-02" rms="4.1467723250389099e-01" purity="3.4559985995292664e-01" nType="0">
            <Node pos="l" depth="3" NCoef="0" IVar="-1" Cut="0.0000000000000000e+00" cType="1" res="-5.1088891923427582e-03" rms="3.9905843138694763e-01" purity="3.0653285980224609e-01" nType="-99"/>
            <Node pos="r" depth="3" NCoef="0" IVar="-1" Cut="0.0000000000000000e+00" cType="1" res="-2.4009882472455502e-03" rms="4.3028065562248230e-01" purity="3.9029207825660706e-01" nType="-99"/>
          </Node>
        </Node>
        <Node pos="r" depth="1" NCoef="0" IVar="9" Cut="1.1746480464935303e+00" cType="1" res="2.7501087635755539e-02" rms="4.2778402566909790e-01" purity="5.1942813396453857e-01" nType="0">
          <Node pos="l" depth="2" NCoef="0" IVar="6" Cut="-1.1602894067764282e+00" cType="1" res="4.8661794513463974e-02" rms="4.2714691162109375e-01" purity="5.5253297090530396e-01" nType="0">
            <Node pos="l" depth="3" NCoef="0" IVar="-1" Cut="0.0000000000000000e+00" cType="1" res="-3.3205859363079071e-03" rms="4.0784803032875061e-01" purity="3.1147870421409607e-01" nType="-99"/>
            <Node pos="r" depth="3" NCoef="0" IVar="-1" Cut="0.0000000000000000e+00" cType="1" res="2.0869662985205650e-03" rms="4.2692634463310242e-01" purity="5.8112972974777222e-01" nType="-99"/>
          </Node>
          <Node pos="r" depth="2" NCoef="0" IVar="9" Cut="2.1034040451049805e+00" cType="1" res="-7.9466797411441803e-02" rms="4.1478529572486877e-01" purity="3.5208222270011902e-01" nType="0">
            <Node pos="l" depth="3" NCoef="0" IVar="-1" Cut="0.0000000000000000e+00" cType="1" res="-2.0970122423022985e-03" rms="4.2426782846450806e-01" purity="3.8906052708625793e-01" nType="-99"/>
            <Node pos="r" depth="3" NCoef="0" IVar="-1" Cut="0.0000000000000000e+00" cType="1" res="-9.8784221336245537e-03" rms="3.6046048998832703e-01" purity="2.0706944167613983e-01" nType="-99"/>
          </Node>
        </Node>
      </Node>
    </BinaryTree>
    <BinaryTree type="DecisionTree" boostWeight="1.0000000000000000e+00" itree="133">
      <Node pos="s" depth="0" NCoef="0" IVar="7" Cut="-1.4666252136230469e+00" cType="1" res="1.6159521415829659e-02" rms="4.2561596632003784e-01" purity="5.0092607736587524e-01" nType="0">
        <Node pos="l" depth="1" NCoef="0" IVar="0" Cut="1.4296784667968750e+03" cType="1" res="-1.3716112077236176e-01" rms="3.5216560959815979e-01" purity="2.0092476904392242e-01" nType="0">
          <Node pos="l" depth="2" NCoef="0" IVar="-1" Cut="0.0000000000000000e+00" cType="1" res="-8.8198417797684669e-03" rms="3.1572547554969788e-01" purity="1.3281363248825073e-01" nType="-99"/>
          <Node pos="r" depth="2" NCoef="0" IVar="-1" Cut="0.0000000000000000e+00" cType="1" res="-4.2490023188292980e-03" rms="4.1310179233551025e-01" purity="3.4128078818321228e-01" nType="-99"/>
        </Node>
        <Node pos="r" depth="1" NCoef="0" IVar="7" Cut="9.7144609689712524e-01" cType="1" res="2.9396396130323410e-02" rms="4.2880812287330627e-01" purity="5.2682650089263916e-01" nType="0">
          <Node pos="l" depth="2" NCoef="0" IVar="8" Cut="1.1999832391738892e+00" cType="1" res="5.1780574023723602e-02" rms="4.3157812952995300e-01" purity="5.7326543331146240e-01" nType="0">
            <Node pos="l" depth="3" NCoef="0" IVar="-1" Cut="0.0000000000000000e+00" cType="1" res="2.1980137098580599e-03" rms="4.2854478955268860e-01" purity="6.0297912359237671e-01" nType="-99"/>
            <Node pos="r" depth="3" NCoef="0" IVar="-1" Cut="0.0000000000000000e+00" cType="1" res="-3.2273284159600735e-03" rms="4.3229979276657104e-01" purity="3.4656402468681335e-01" nType="-99"/>
          </Node>
          <Node pos="r" depth="2" NCoef="0" IVar="2" Cut="3.2046813964843750e+02" cType="1" res="-7.5157485902309418e-02" rms="3.9934015274047852e-01" purity="3.0991575121879578e-01" nType="0">
            <Node pos="l" depth="3" NCoef="0" IVar="-1" Cut="0.0000000000000000e+00" cType="1" res="-8.6641934467479587e-04" rms="4.1510900855064392e-01" purity="3.8781559467315674e-01" nType="-99"/>
            <Node pos="r" depth="3" NCoef="0" IVar="-1" Cut="0.0000000000000000e+00" cType="1" res="-6.6201398149132729e-03" rms="3.8036510348320007e-01" purity="2.4563519656658173e-01" nType="-99"/>
          </Node>
        </Node>
      </Node>
    </BinaryTree>
    <BinaryTree type="DecisionTree" boostWeight="1.0000000000000000e+00" itree="134">
      <Node pos="s" depth="0" NCoef="0" IVar="6" Cut="9.3691962957382202e-01" cType="1" res="1.4661928638815880e-02" rms="4.2378875613212585e-01" purity="4.9889954924583435e-01" nType="0">
        <Node pos="l" depth="1" NCoef="0" IVar="6" Cut="-1.0145552158355713e+00" cType="1" res="3.4354791045188904e-02" rms="4.2613494396209717e-01" purity="5.3660124540328979e-01" nType="0">
          <Node pos="l" depth="2" NCoef="0" IVar="1" Cut="5.1024896240234375e+02" cType="1" res="-7.5716026127338409e-02" rms="4.0028822422027588e-01" purity="3.1312081217765808e-01" nType="0">
            <Node pos="l" depth="3" NCoef="0" IVar="-1" Cut="0.0000000000000000e+00" cType="1" res="-4.9466588534414768e-03" rms="3.8159424066543579e-01" purity="2.5318452715873718e-01" nType="-99"/>
            <Node pos="r" depth="3" NCoef="0" IVar="-1" Cut="0.0000000000000000e+00" cType="1" res="1.0205683065578341e-03" rms="4.5733353495597839e-01" purity="5.7424354553222656e-01" nType="-99"/>
          </Node>
          <Node pos="r" depth="2" NCoef="0" IVar="2" Cut="6.0625231933593750e+02" cType="1" res="5.6982886046171188e-02" rms="4.2776101827621460e-01" purity="5.8254379034042358e-01" nType="0">
            <Node pos="l" depth="3" NCoef="0" IVar="-1" Cut="0.0000000000000000e+00" cType="1" res="2.3047842551022768e-03" rms="4.2325699329376221e-01" purity="6.0119181871414185e-01" nType="-99"/>
            <Node pos="r" depth="3" NCoef="0" IVar="-1" Cut="0.0000000000000000e+00" cType="1" res="-1.1396688641980290e-03" rms="4.4283723831176758e-01" purity="4.1208130121231079e-01" nType="-99"/>
          </Node>
        </Node>
        <Node pos="r" depth="1" NCoef="0" IVar="6" Cut="1.2917542457580566e+00" cType="1" res="-8.4778569638729095e-02" rms="3.9709052443504333e-01" purity="3.0852222442626953e-01" nType="0">
          <Node pos="l" depth="2" NCoef="0" IVar="1" Cut="3.9626425170898438e+02" cType="1" res="-2.9738742858171463e-02" rms="4.2555865645408630e-01" purity="4.0774250030517578e-01" nType="0">
            <Node pos="l" depth="3" NCoef="0" IVar="-1" Cut="0.0000000000000000e+00" cType="1" res="-3.5598909016698599e-03" rms="3.9985838532447815e-01" purity="2.7333945035934448e-01" nType="-99"/>
            <Node pos="r" depth="3" NCoef="0" IVar="-1" Cut="0.0000000000000000e+00" cType="1" res="8.0406456254422665e-04" rms="4.4415572285652161e-01" purity="5.4634743928909302e-01" nType="-99"/>
          </Node>
          <Node pos="r" depth="2" NCoef="0" IVar="9" Cut="6.6648232936859131e-01" cType="1" res="-1.2875352799892426e-01" rms="3.6689984798431396e-01" purity="2.2924855351448059e-01" nType="0">
            <Node pos="l" depth="3" NCoef="0" IVar="-1" Cut="0.0000000000000000e+00" cType="1" res="-4.3006218038499355e-03" rms="3.8405594229698181e-01" purity="2.6647064089775085e-01" nType="-99"/>
            <Node pos="r" depth="3" NCoef="0" IVar="-1" Cut="0.0000000000000000e+00" cType="1" res="-1.1522467248141766e-02" rms="3.2383191585540771e-01" purity="1.5555445849895477e-01" nType="-99"/>
          </Node>
        </Node>
      </Node>
    </BinaryTree>
    <BinaryTree type="DecisionTree" boostWeight="1.0000000000000000e+00" itree="135">
      <Node pos="s" depth="0" NCoef="0" IVar="1" Cut="4.5299591064453125e+02" cType="1" res="2.1781757473945618e-02" rms="4.2468568682670593e-01" purity="5.0778067111968994e-01" nType="0">
        <Node pos="l" depth="1" NCoef="0" IVar="2" Cut="3.0103344726562500e+02" cType="1" res="-9.9195083603262901e-03" rms="4.2563855648040771e-01" purity="4.1664800047874451e-01" nType="0">
          <Node pos="l" depth="2" NCoef="0" IVar="0" Cut="1.0787453613281250e+03" cType="1" res="4.9224413931369781e-02" rms="4.3462541699409485e-01" purity="5.0536155700683594e-01" nType="0">
            <Node pos="l" depth="3" NCoef="0" IVar="-1" Cut="0.0000000000000000e+00" cType="1" res="-2.2525417152792215e-03" rms="4.2250430583953857e-01" purity="2.7720111608505249e-01" nType="-99"/>
            <Node pos="r" depth="3" NCoef="0" IVar="-1" Cut="0.0000000000000000e+00" cType="1" res="3.4283443819731474e-03" rms="4.2845395207405090e-01" purity="6.4865934848785400e-01" nType="-99"/>
          </Node>
          <Node pos="r" depth="2" NCoef="0" IVar="2" Cut="5.7526025390625000e+02" cType="1" res="-5.9145398437976837e-02" rms="4.1158103942871094e-01" purity="3.4281107783317566e-01" nType="0">
            <Node pos="l" depth="3" NCoef="0" IVar="-1" Cut="0.0000000000000000e+00" cType="1" res="-1.6992837190628052e-03" rms="4.1714438796043396e-01" purity="3.6718225479125977e-01" nType="-99"/>
            <Node pos="r" depth="3" NCoef="0" IVar="-1" Cut="0.0000000000000000e+00" cType="1" res="-1.8891151994466782e-02" rms="3.3448877930641174e-01" purity="1.5294627845287323e-01" nType="-99"/>
          </Node>
        </Node>
        <Node pos="r" depth="1" NCoef="0" IVar="2" Cut="6.0625280761718750e+02" cType="1" res="8.3338521420955658e-02" rms="4.1598552465438843e-01" purity="6.8473982810974121e-01" nType="0">
          <Node pos="l" depth="2" NCoef="0" IVar="6" Cut="-8.9546823501586914e-01" cType="1" res="1.0810769349336624e-01" rms="3.9997634291648865e-01" purity="7.2467243671417236e-01" nType="0">
            <Node pos="l" depth="3" NCoef="0" IVar="-1" Cut="0.0000000000000000e+00" cType="1" res="1.8888669728767127e-04" rms="4.4739371538162231e-01" purity="5.5831134319305420e-01" nType="-99"/>
            <Node pos="r" depth="3" NCoef="0" IVar="-1" Cut="0.0000000000000000e+00" cType="1" res="3.7478222511708736e-03" rms="3.8934618234634399e-01" purity="7.5132989883422852e-01" nType="-99"/>
          </Node>
          <Node pos="r" depth="2" NCoef="0" IVar="1" Cut="5.9870855712890625e+02" cType="1" res="-2.8662467375397682e-02" rms="4.6561053395271301e-01" purity="5.0417315959930420e-01" nType="0">
            <Node pos="l" depth="3" NCoef="0" IVar="-1" Cut="0.0000000000000000e+00" cType="1" res="-6.8949637934565544e-03" rms="4.4629171490669250e-01" purity="3.4619861841201782e-01" nType="-99"/>
            <Node pos="r" depth="3" NCoef="0" IVar="-1" Cut="0.0000000000000000e+00" cType="1" res="1.6816392308101058e-03" rms="4.6174094080924988e-01" purity="6.1900854110717773e-01" nType="-99"/>
          </Node>
        </Node>
      </Node>
    </BinaryTree>
    <BinaryTree type="DecisionTree" boostWeight="1.0000000000000000e+00" itree="136">
      <Node pos="s" depth="0" NCoef="0" IVar="9" Cut="1.4666661024093628e+00" cType="1" res="1.4392239972949028e-02" rms="4.2513802647590637e-01" purity="4.9914255738258362e-01" nType="0">
        <Node pos="l" depth="1" NCoef="0" IVar="9" Cut="-1.1745504140853882e+00" cType="1" res="2.8950199484825134e-02" rms="4.2603540420532227e-01" purity="5.2216470241546631e-01" nType="0">
          <Node pos="l" depth="2" NCoef="0" IVar="2" Cut="3.2890588378906250e+02" cType="1" res="-8.3443827927112579e-02" rms="4.0973260998725891e-01" purity="3.4110707044601440e-01" nType="0">
            <Node pos="l" depth="3" NCoef="0" IVar="-1" Cut="0.0000000000000000e+00" cType="1" res="-9.9001382477581501e-04" rms="4.3029952049255371e-01" purity="4.2153614759445190e-01" nType="-99"/>
            <Node pos="r" depth="3" NCoef="0" IVar="-1" Cut="0.0000000000000000e+00" cType="1" res="-7.4545396491885185e-03" rms="3.8041937351226807e-01" purity="2.6284998655319214e-01" nType="-99"/>
          </Node>
          <Node pos="r" depth="2" NCoef="0" IVar="2" Cut="4.8049966430664062e+02" cType="1" res="5.0611481070518494e-02" rms="4.2570921778678894e-01" purity="5.5705928802490234e-01" nType="0">
            <Node pos="l" depth="3" NCoef="0" IVar="-1" Cut="0.0000000000000000e+00" cType="1" res="2.3154211230576038e-03" rms="4.1919207572937012e-01" purity="5.9230142831802368e-01" nType="-99"/>
            <Node pos="r" depth="3" NCoef="0" IVar="-1" Cut="0.0000000000000000e+00" cType="1" res="-8.7027042172849178e-04" rms="4.3901342153549194e-01" purity="4.1720086336135864e-01" nType="-99"/>
          </Node>
        </Node>
        <Node pos="r" depth="1" NCoef="0" IVar="2" Cut="3.1916091918945312e+02" cType="1" res="-1.2219242006540298e-01" rms="3.9106547832489014e-01" purity="2.8314536809921265e-01" nType="0">
          <Node pos="l" depth="2" NCoef="0" IVar="-1" Cut="0.0000000000000000e+00" cType="1" res="-2.7706848923116922e-03" rms="4.0904662013053894e-01" purity="3.5581979155540466e-01" nType="-99"/>
          <Node pos="r" depth="2" NCoef="0" IVar="5" Cut="8.8027961730957031e+01" cType="1" res="-1.6311617195606232e-01" rms="3.7023442983627319e-01" purity="2.2146397829055786e-01" nType="0">
            <Node pos="l" depth="3" NCoef="0" IVar="-1" Cut="0.0000000000000000e+00" cType="1" res="-7.6298965141177177e-03" rms="3.3610275387763977e-01" purity="1.6682592034339905e-01" nType="-99"/>
            <Node pos="r" depth="3" NCoef="0" IVar="-1" Cut="0.0000000000000000e+00" cType="1" res="-1.1149788275361061e-02" rms="3.9724853634834290e-01" purity="2.7301746606826782e-01" nType="-99"/>
          </Node>
        </Node>
      </Node>
    </BinaryTree>
    <BinaryTree type="DecisionTree" boostWeight="1.0000000000000000e+00" itree="137">
      <Node pos="s" depth="0" NCoef="0" IVar="8" Cut="-1.4666697978973389e+00" cType="1" res="1.8872795626521111e-02" rms="4.2288261651992798e-01" purity="5.0478756427764893e-01" nType="0">
        <Node pos="l" depth="1" NCoef="0" IVar="8" Cut="-2.1015870571136475e+00" cType="1" res="-1.2614779174327850e-01" rms="3.7240710854530334e-01" purity="2.3195236921310425e-01" nType="0">
          <Node pos="l" depth="2" NCoef="0" IVar="-1" Cut="0.0000000000000000e+00" cType="1" res="-1.1837683618068695e-02" rms="3.1521794199943542e-01" purity="1.3718277215957642e-01" nType="-99"/>
          <Node pos="r" depth="2" NCoef="0" IVar="1" Cut="3.9276248168945312e+02" cType="1" res="-9.4045147299766541e-02" rms="3.9374491572380066e-01" purity="2.7885213494300842e-01" nType="0">
            <Node pos="l" depth="3" NCoef="0" IVar="-1" Cut="0.0000000000000000e+00" cType="1" res="-6.9188470952212811e-03" rms="3.5702568292617798e-01" purity="1.8813729286193848e-01" nType="-99"/>
            <Node pos="r" depth="3" NCoef="0" IVar="-1" Cut="0.0000000000000000e+00" cType="1" res="-2.7569169178605080e-03" rms="4.3264010548591614e-01" purity="3.8965538144111633e-01" nType="-99"/>
          </Node>
        </Node>
        <Node pos="r" depth="1" NCoef="0" IVar="8" Cut="1.1745735406875610e+00" cType="1" res="3.2608512789011002e-02" rms="4.2479550838470459e-01" purity="5.3062933683395386e-01" nType="0">
          <Node pos="l" depth="2" NCoef="0" IVar="2" Cut="3.4025457763671875e+02" cType="1" res="5.3492724895477295e-02" rms="4.2422267794609070e-01" purity="5.6973505020141602e-01" nType="0">
            <Node pos="l" depth="3" NCoef="0" IVar="-1" Cut="0.0000000000000000e+00" cType="1" res="2.9056069906800985e-03" rms="4.0969732403755188e-01" purity="6.3729143142700195e-01" nType="-99"/>
            <Node pos="r" depth="3" NCoef="0" IVar="-1" Cut="0.0000000000000000e+00" cType="1" res="2.4512188974767923e-04" rms="4.3475401401519775e-01" purity="4.9584019184112549e-01" nType="-99"/>
          </Node>
          <Node pos="r" depth="2" NCoef="0" IVar="8" Cut="1.5615795850753784e+00" cType="1" res="-8.9288845658302307e-02" rms="4.0728995203971863e-01" purity="3.0237641930580139e-01" nType="0">
            <Node pos="l" depth="3" NCoef="0" IVar="-1" Cut="0.0000000000000000e+00" cType="1" res="-1.5307561261579394e-03" rms="4.2887184023857117e-01" purity="3.9070412516593933e-01" nType="-99"/>
            <Node pos="r" depth="3" NCoef="0" IVar="-1" Cut="0.0000000000000000e+00" cType="1" res="-6.5625905990600586e-03" rms="3.8510829210281372e-01" purity="2.3404943943023682e-01" nType="-99"/>
          </Node>
        </Node>
      </Node>
    </BinaryTree>
    <BinaryTree type="DecisionTree" boostWeight="1.0000000000000000e+00" itree="138">
      <Node pos="s" depth="0" NCoef="0" IVar="0" Cut="1.1285432128906250e+03" cType="1" res="1.8397310748696327e-02" rms="4.2481911182403564e-01" purity="5.0254774093627930e-01" nType="0">
        <Node pos="l" depth="1" NCoef="0" IVar="2" Cut="2.3182675170898438e+02" cType="1" res="-6.4479105174541473e-02" rms="4.1239950060844421e-01" purity="2.6404151320457458e-01" nType="0">
          <Node pos="l" depth="2" NCoef="0" IVar="-1" Cut="0.0000000000000000e+00" cType="1" res="6.2994839390739799e-04" rms="4.6081465482711792e-01" purity="3.9237290620803833e-01" nType="-99"/>
          <Node pos="r" depth="2" NCoef="0" IVar="1" Cut="3.2763348388671875e+02" cType="1" res="-1.0323177278041840e-01" rms="3.8156783580780029e-01" purity="2.0404355227947235e-01" nType="0">
            <Node pos="l" depth="3" NCoef="0" IVar="-1" Cut="0.0000000000000000e+00" cType="1" res="-5.5306521244347095e-03" rms="3.5794472694396973e-01" purity="1.7241317033767700e-01" nType="-99"/>
            <Node pos="r" depth="3" NCoef="0" IVar="-1" Cut="0.0000000000000000e+00" cType="1" res="-3.6416877992451191e-03" rms="3.9528581500053406e-01" purity="2.2444598376750946e-01" nType="-99"/>
          </Node>
        </Node>
        <Node pos="r" depth="1" NCoef="0" IVar="2" Cut="3.7131597900390625e+02" cType="1" res="3.9878841489553452e-02" rms="4.2535236477851868e-01" purity="5.6436848640441895e-01" nType="0">
          <Node pos="l" depth="2" NCoef="0" IVar="2" Cut="2.8973910522460938e+02" cType="1" res="9.6607774496078491e-02" rms="4.1089779138565063e-01" purity="6.8252360820770264e-01" nType="0">
            <Node pos="l" depth="3" NCoef="0" IVar="-1" Cut="0.0000000000000000e+00" cType="1" res="4.2442581616342068e-03" rms="3.8501393795013428e-01" purity="7.5837570428848267e-01" nType="-99"/>
            <Node pos="r" depth="3" NCoef="0" IVar="-1" Cut="0.0000000000000000e+00" cType="1" res="1.1678717564791441e-03" rms="4.3045690655708313e-01" purity="5.9607911109924316e-01" nType="-99"/>
          </Node>
          <Node pos="r" depth="2" NCoef="0" IVar="0" Cut="1.7543046875000000e+03" cType="1" res="-2.0388014614582062e-02" rms="4.3210548162460327e-01" purity="4.3884453177452087e-01" nType="0">
            <Node pos="l" depth="3" NCoef="0" IVar="-1" Cut="0.0000000000000000e+00" cType="1" res="-2.7883173897862434e-03" rms="4.1845470666885376e-01" purity="3.4037545323371887e-01" nType="-99"/>
            <Node pos="r" depth="3" NCoef="0" IVar="-1" Cut="0.0000000000000000e+00" cType="1" res="1.6924116062000394e-03" rms="4.4542631506919861e-01" purity="6.0393249988555908e-01" nType="-99"/>
          </Node>
        </Node>
      </Node>
    </BinaryTree>
    <BinaryTree type="DecisionTree" boostWeight="1.0000000000000000e+00" itree="139">
      <Node pos="s" depth="0" NCoef="0" IVar="7" Cut="-1.1999636888504028e+00" cType="1" res="1.6887055709958076e-02" rms="4.2333012819290161e-01" purity="5.0031894445419312e-01" nType="0">
        <Node pos="l" depth="1" NCoef="0" IVar="7" Cut="-1.5047223567962646e+00" cType="1" res="-9.7023293375968933e-02" rms="3.7993237376213074e-01" purity="2.5714227557182312e-01" nType="0">
          <Node pos="l" depth="2" NCoef="0" IVar="5" Cut="1.0233546447753906e+02" cType="1" res="-1.2784069776535034e-01" rms="3.5207837820053101e-01" purity="1.9943316280841827e-01" nType="0">
            <Node pos="l" depth="3" NCoef="0" IVar="-1" Cut="0.0000000000000000e+00" cType="1" res="-9.8808007314801216e-03" rms="2.9545524716377258e-01" purity="1.1353129893541336e-01" nType="-99"/>
            <Node pos="r" depth="3" NCoef="0" IVar="-1" Cut="0.0000000000000000e+00" cType="1" res="-4.2631579563021660e-03" rms="4.3184974789619446e-01" purity="3.4988710284233093e-01" nType="-99"/>
          </Node>
          <Node pos="r" depth="2" NCoef="0" IVar="-1" Cut="0.0000000000000000e+00" cType="1" res="-2.0274063572287560e-03" rms="4.1538944840431213e-01" purity="3.4781700372695923e-01" nType="-99"/>
        </Node>
        <Node pos="r" depth="1" NCoef="0" IVar="7" Cut="1.0856354236602783e+00" cType="1" res="3.2357349991798401e-02" rms="4.2654561996459961e-01" purity="5.3334504365921021e-01" nType="0">
          <Node pos="l" depth="2" NCoef="0" IVar="8" Cut="1.1997592449188232e+00" cType="1" res="5.3644347935914993e-02" rms="4.2970412969589233e-01" purity="5.7956576347351074e-01" nType="0">
            <Node pos="l" depth="3" NCoef="0" IVar="-1" Cut="0.0000000000000000e+00" cType="1" res="2.2090051788836718e-03" rms="4.2695513367652893e-01" purity="6.0786247253417969e-01" nType="-99"/>
            <Node pos="r" depth="3" NCoef="0" IVar="-1" Cut="0.0000000000000000e+00" cType="1" res="-2.7919036801904440e-03" rms="4.3209081888198853e-01" purity="3.5964885354042053e-01" nType="-99"/>
          </Node>
          <Node pos="r" depth="2" NCoef="0" IVar="7" Cut="1.5754088163375854e+00" cType="1" res="-8.0352857708930969e-02" rms="3.9053645730018616e-01" purity="2.8861612081527710e-01" nType="0">
            <Node pos="l" depth="3" NCoef="0" IVar="-1" Cut="0.0000000000000000e+00" cType="1" res="-1.5925730112940073e-03" rms="4.1926646232604980e-01" purity="3.6742573976516724e-01" nType="-99"/>
            <Node pos="r" depth="3" NCoef="0" IVar="-1" Cut="0.0000000000000000e+00" cType="1" res="-7.1629039011895657e-03" rms="3.4906318783760071e-01" purity="1.9902631640434265e-01" nType="-99"/>
          </Node>
        </Node>
      </Node>
    </BinaryTree>
    <BinaryTree type="DecisionTree" boostWeight="1.0000000000000000e+00" itree="140">
      <Node pos="s" depth="0" NCoef="0" IVar="1" Cut="4.5299591064453125e+02" cType="1" res="1.4440370723605156e-02" rms="4.2269456386566162e-01" purity="4.9847352504730225e-01" nType="0">
        <Node pos="l" depth="1" NCoef="0" IVar="2" Cut="3.3919738769531250e+02" cType="1" res="-1.5682358294725418e-02" rms="4.2324605584144592e-01" purity="4.0831905603408813e-01" nType="0">
          <Node pos="l" depth="2" NCoef="0" IVar="0" Cut="1.2353641357421875e+03" cType="1" res="2.7480611577630043e-02" rms="4.3124830722808838e-01" purity="4.8422458767890930e-01" nType="0">
            <Node pos="l" depth="3" NCoef="0" IVar="-1" Cut="0.0000000000000000e+00" cType="1" res="-1.0409995447844267e-03" rms="4.3472886085510254e-01" purity="3.4707996249198914e-01" nType="-99"/>
            <Node pos="r" depth="3" NCoef="0" IVar="-1" Cut="0.0000000000000000e+00" cType="1" res="3.6823702976107597e-03" rms="4.0649625658988953e-01" purity="7.2749519348144531e-01" nType="-99"/>
          </Node>
          <Node pos="r" depth="2" NCoef="0" IVar="2" Cut="5.7780615234375000e+02" cType="1" res="-7.4865892529487610e-02" rms="4.0460368990898132e-01" purity="3.0424022674560547e-01" nType="0">
            <Node pos="l" depth="3" NCoef="0" IVar="-1" Cut="0.0000000000000000e+00" cType="1" res="-2.3548803292214870e-03" rms="4.1416236758232117e-01" purity="3.3236688375473022e-01" nType="-99"/>
            <Node pos="r" depth="3" NCoef="0" IVar="-1" Cut="0.0000000000000000e+00" cType="1" res="-1.7715727910399437e-02" rms="3.1713271141052246e-01" purity="1.4400823414325714e-01" nType="-99"/>
          </Node>
        </Node>
        <Node pos="r" depth="1" NCoef="0" IVar="6" Cut="9.5178794860839844e-01" cType="1" res="7.3378399014472961e-02" rms="4.1534179449081421e-01" purity="6.7486923933029175e-01" nType="0">
          <Node pos="l" depth="2" NCoef="0" IVar="2" Cut="6.0625280761718750e+02" cType="1" res="9.1654680669307709e-02" rms="4.0681737661361694e-01" purity="7.0278161764144897e-01" nType="0">
            <Node pos="l" depth="3" NCoef="0" IVar="-1" Cut="0.0000000000000000e+00" cType="1" res="3.5539555829018354e-03" rms="3.8924333453178406e-01" purity="7.4152475595474243e-01" nType="-99"/>
            <Node pos="r" depth="3" NCoef="0" IVar="-1" Cut="0.0000000000000000e+00" cType="1" res="-2.3121970298234373e-04" rms="4.6449938416481018e-01" purity="5.3089368343353271e-01" nType="-99"/>
          </Node>
          <Node pos="r" depth="2" NCoef="0" IVar="-1" Cut="0.0000000000000000e+00" cType="1" res="-2.0221336744725704e-03" rms="4.5053464174270630e-01" purity="4.7780480980873108e-01" nType="-99"/>
        </Node>
      </Node>
    </BinaryTree>
    <BinaryTree type="DecisionTree" boostWeight="1.0000000000000000e+00" itree="141">
      <Node pos="s" depth="0" NCoef="0" IVar="8" Cut="-1.2000005245208740e+00" cType="1" res="1.2783632613718510e-02" rms="4.2415356636047363e-01" purity="4.9550324678421021e-01" nType="0">
        <Node pos="l" depth="1" NCoef="0" IVar="8" Cut="-1.5809612274169922e+00" cType="1" res="-9.6712768077850342e-02" rms="3.9408004283905029e-01" purity="2.8406855463981628e-01" nType="0">
          <Node pos="l" depth="2" NCoef="0" IVar="4" Cut="1.1277356719970703e+02" cType="1" res="-1.3478092849254608e-01" rms="3.6318063735961914e-01" purity="2.1325334906578064e-01" nType="0">
            <Node pos="l" depth="3" NCoef="0" IVar="-1" Cut="0.0000000000000000e+00" cType="1" res="-5.5449986830353737e-03" rms="3.4760928153991699e-01" purity="1.8730895221233368e-01" nType="-99"/>
            <Node pos="r" depth="3" NCoef="0" IVar="-1" Cut="0.0000000000000000e+00" cType="1" res="-8.7748654186725616e-03" rms="3.7206426262855530e-01" purity="2.3340262472629547e-01" nType="-99"/>
          </Node>
          <Node pos="r" depth="2" NCoef="0" IVar="7" Cut="-1.3209353387355804e-01" cType="1" res="-4.7024261206388474e-02" rms="4.2600473761558533e-01" purity="3.7650012969970703e-01" nType="0">
            <Node pos="l" depth="3" NCoef="0" IVar="-1" Cut="0.0000000000000000e+00" cType="1" res="-1.1757970787584782e-03" rms="4.2450585961341858e-01" purity="3.8646692037582397e-01" nType="-99"/>
            <Node pos="r" depth="3" NCoef="0" IVar="-1" Cut="0.0000000000000000e+00" cType="1" res="-2.9016642365604639e-03" rms="4.2664077877998352e-01" purity="3.6519584059715271e-01" nType="-99"/>
          </Node>
        </Node>
        <Node pos="r" depth="1" NCoef="0" IVar="8" Cut="1.2761862277984619e+00" cType="1" res="2.9170019552111626e-02" rms="4.2605870962142944e-01" purity="5.2714496850967407e-01" nType="0">
          <Node pos="l" depth="2" NCoef="0" IVar="1" Cut="4.2850695800781250e+02" cType="1" res="4.7556001693010330e-02" rms="4.2749762535095215e-01" purity="5.6444841623306274e-01" nType="0">
            <Node pos="l" depth="3" NCoef="0" IVar="-1" Cut="0.0000000000000000e+00" cType="1" res="4.4114334741607308e-04" rms="4.3607556819915771e-01" purity="4.6067425608634949e-01" nType="-99"/>
            <Node pos="r" depth="3" NCoef="0" IVar="-1" Cut="0.0000000000000000e+00" cType="1" res="2.9507465660572052e-03" rms="4.1078576445579529e-01" purity="7.0633578300476074e-01" nType="-99"/>
          </Node>
          <Node pos="r" depth="2" NCoef="0" IVar="8" Cut="1.8567004203796387e+00" cType="1" res="-9.0732894837856293e-02" rms="3.9615043997764587e-01" purity="2.8387299180030823e-01" nType="0">
            <Node pos="l" depth="3" NCoef="0" IVar="-1" Cut="0.0000000000000000e+00" cType="1" res="-1.9643721170723438e-03" rms="4.2349404096603394e-01" purity="3.5111755132675171e-01" nType="-99"/>
            <Node pos="r" depth="3" NCoef="0" IVar="-1" Cut="0.0000000000000000e+00" cType="1" res="-8.8483206927776337e-03" rms="3.4178251028060913e-01" purity="1.8678608536720276e-01" nType="-99"/>
          </Node>
        </Node>
      </Node>
    </BinaryTree>
    <BinaryTree type="DecisionTree" boostWeight="1.0000000000000000e+00" itree="142">
      <Node pos="s" depth="0" NCoef="0" IVar="0" Cut="1.4401011962890625e+03" cType="1" res="1.9958876073360443e-02" rms="4.2338979244232178e-01" purity="5.0560486316680908e-01" nType="0">
        <Node pos="l" depth="1" NCoef="0" IVar="2" Cut="2.5378704833984375e+02" cType="1" res="-1.8232870846986771e-02" rms="4.2718514800071716e-01" purity="4.0485063195228577e-01" nType="0">
          <Node pos="l" depth="2" NCoef="0" IVar="0" Cut="1.1048355712890625e+03" cType="1" res="6.7744247615337372e-02" rms="4.3517184257507324e-01" purity="5.3748834133148193e-01" nType="0">
            <Node pos="l" depth="3" NCoef="0" IVar="-1" Cut="0.0000000000000000e+00" cType="1" res="-6.8714510416612029e-04" rms="4.4294404983520508e-01" purity="3.3938446640968323e-01" nType="-99"/>
            <Node pos="r" depth="3" NCoef="0" IVar="-1" Cut="0.0000000000000000e+00" cType="1" res="4.1184001602232456e-03" rms="4.1189298033714294e-01" purity="7.2131878137588501e-01" nType="-99"/>
          </Node>
          <Node pos="r" depth="2" NCoef="0" IVar="0" Cut="1.2879392089843750e+03" cType="1" res="-5.9706322848796844e-02" rms="4.1698804497718811e-01" purity="3.4086915850639343e-01" nType="0">
            <Node pos="l" depth="3" NCoef="0" IVar="-1" Cut="0.0000000000000000e+00" cType="1" res="-3.4906060900539160e-03" rms="4.0319007635116577e-01" purity="2.6588064432144165e-01" nType="-99"/>
            <Node pos="r" depth="3" NCoef="0" IVar="-1" Cut="0.0000000000000000e+00" cType="1" res="-4.3903183541260660e-04" rms="4.3534404039382935e-01" purity="4.6880862116813660e-01" nType="-99"/>
          </Node>
        </Node>
        <Node pos="r" depth="1" NCoef="0" IVar="2" Cut="5.0823855590820312e+02" cType="1" res="7.0436790585517883e-02" rms="4.1293618083000183e-01" purity="6.3877141475677490e-01" nType="0">
          <Node pos="l" depth="2" NCoef="0" IVar="3" Cut="2.8365158081054688e+02" cType="1" res="1.3017694652080536e-01" rms="3.8183560967445374e-01" purity="7.5301593542098999e-01" nType="0">
            <Node pos="l" depth="3" NCoef="0" IVar="-1" Cut="0.0000000000000000e+00" cType="1" res="4.9060652963817120e-03" rms="3.5070496797561646e-01" purity="8.1298577785491943e-01" nType="-99"/>
            <Node pos="r" depth="3" NCoef="0" IVar="-1" Cut="0.0000000000000000e+00" cType="1" res="1.1579815763980150e-03" rms="4.3501967191696167e-01" purity="6.0361737012863159e-01" nType="-99"/>
          </Node>
          <Node pos="r" depth="2" NCoef="0" IVar="1" Cut="6.0599029541015625e+02" cType="1" res="-3.9468869566917419e-02" rms="4.4423577189445496e-01" purity="4.2859235405921936e-01" nType="0">
            <Node pos="l" depth="3" NCoef="0" IVar="-1" Cut="0.0000000000000000e+00" cType="1" res="-3.8900466170161963e-03" rms="4.3175536394119263e-01" purity="3.4416857361793518e-01" nType="-99"/>
            <Node pos="r" depth="3" NCoef="0" IVar="-1" Cut="0.0000000000000000e+00" cType="1" res="1.6853560227900743e-03" rms="4.5828506350517273e-01" purity="6.2290948629379272e-01" nType="-99"/>
          </Node>
        </Node>
      </Node>
    </BinaryTree>
    <BinaryTree type="DecisionTree" boostWeight="1.0000000000000000e+00" itree="143">
      <Node pos="s" depth="0" NCoef="0" IVar="6" Cut="9.4157654047012329e-01" cType="1" res="1.1241729371249676e-02" rms="4.2288568615913391e-01" purity="4.9466332793235779e-01" nType="0">
        <Node pos="l" depth="1" NCoef="0" IVar="6" Cut="-6.5113109350204468e-01" cType="1" res="2.9650248587131500e-02" rms="4.2507472634315491e-01" purity="5.3149265050888062e-01" nType="0">
          <Node pos="l" depth="2" NCoef="0" IVar="6" Cut="-1.3590066432952881e+00" cType="1" res="-5.5172774940729141e-02" rms="4.1284415125846863e-01" purity="3.7290850281715393e-01" nType="0">
            <Node pos="l" depth="3" NCoef="0" IVar="-1" Cut="0.0000000000000000e+00" cType="1" res="-6.5258261747658253e-03" rms="3.6989501118659973e-01" purity="2.2787731885910034e-01" nType="-99"/>
            <Node pos="r" depth="3" NCoef="0" IVar="-1" Cut="0.0000000000000000e+00" cType="1" res="-8.8404322741553187e-04" rms="4.2829117178916931e-01" purity="4.4285628199577332e-01" nType="-99"/>
          </Node>
          <Node pos="r" depth="2" NCoef="0" IVar="2" Cut="3.3290707397460938e+02" cType="1" res="6.3797801733016968e-02" rms="4.2514899373054504e-01" purity="5.9533447027206421e-01" nType="0">
            <Node pos="l" depth="3" NCoef="0" IVar="-1" Cut="0.0000000000000000e+00" cType="1" res="3.2332157716155052e-03" rms="4.0900522470474243e-01" purity="6.6854649782180786e-01" nType="-99"/>
            <Node pos="r" depth="3" NCoef="0" IVar="-1" Cut="0.0000000000000000e+00" cType="1" res="7.0375856012105942e-04" rms="4.3644985556602478e-01" purity="5.2154213190078735e-01" nType="-99"/>
          </Node>
        </Node>
        <Node pos="r" depth="1" NCoef="0" IVar="0" Cut="1.5047573242187500e+03" cType="1" res="-8.3231925964355469e-02" rms="3.9829844236373901e-01" purity="3.0565303564071655e-01" nType="0">
          <Node pos="l" depth="2" NCoef="0" IVar="2" Cut="2.8160357666015625e+02" cType="1" res="-1.1396774649620056e-01" rms="3.7515544891357422e-01" purity="2.2489564120769501e-01" nType="0">
            <Node pos="l" depth="3" NCoef="0" IVar="-1" Cut="0.0000000000000000e+00" cType="1" res="-2.2510024718940258e-03" rms="4.1796150803565979e-01" purity="3.2247224450111389e-01" nType="-99"/>
            <Node pos="r" depth="3" NCoef="0" IVar="-1" Cut="0.0000000000000000e+00" cType="1" res="-8.8708680123090744e-03" rms="3.3433598279953003e-01" purity="1.5395487844944000e-01" nType="-99"/>
          </Node>
          <Node pos="r" depth="2" NCoef="0" IVar="-1" Cut="0.0000000000000000e+00" cType="1" res="-5.4875324713066220e-04" rms="4.3829748034477234e-01" purity="4.8796790838241577e-01" nType="-99"/>
        </Node>
      </Node>
    </BinaryTree>
    <BinaryTree type="DecisionTree" boostWeight="1.0000000000000000e+00" itree="144">
      <Node pos="s" depth="0" NCoef="0" IVar="9" Cut="1.4666488170623779e+00" cType="1" res="1.4898880384862423e-02" rms="4.2294964194297791e-01" purity="4.9853029847145081e-01" nType="0">
        <Node pos="l" depth="1" NCoef="0" IVar="9" Cut="-1.3776497840881348e+00" cType="1" res="2.8282148763537407e-02" rms="4.2441064119338989e-01" purity="5.2024203538894653e-01" nType="0">
          <Node pos="l" depth="2" NCoef="0" IVar="9" Cut="-1.7839748859405518e+00" cType="1" res="-8.6266562342643738e-02" rms="4.0365409851074219e-01" purity="3.2772526144981384e-01" nType="0">
            <Node pos="l" depth="3" NCoef="0" IVar="-1" Cut="0.0000000000000000e+00" cType="1" res="-6.9976216182112694e-03" rms="3.8079476356506348e-01" purity="2.5127315521240234e-01" nType="-99"/>
            <Node pos="r" depth="3" NCoef="0" IVar="-1" Cut="0.0000000000000000e+00" cType="1" res="-1.4726523077115417e-03" rms="4.2126879096031189e-01" purity="4.1102465987205505e-01" nType="-99"/>
          </Node>
          <Node pos="r" depth="2" NCoef="0" IVar="7" Cut="9.3334478139877319e-01" cType="1" res="4.4218737632036209e-02" rms="4.2477774620056152e-01" purity="5.4702597856521606e-01" nType="0">
            <Node pos="l" depth="3" NCoef="0" IVar="-1" Cut="0.0000000000000000e+00" cType="1" res="1.5173213323578238e-03" rms="4.2505025863647461e-01" purity="5.8276402950286865e-01" nType="-99"/>
            <Node pos="r" depth="3" NCoef="0" IVar="-1" Cut="0.0000000000000000e+00" cType="1" res="-2.0597747061401606e-03" rms="4.1112771630287170e-01" purity="3.6054816842079163e-01" nType="-99"/>
          </Node>
        </Node>
        <Node pos="r" depth="1" NCoef="0" IVar="2" Cut="3.3044860839843750e+02" cType="1" res="-1.1138210445642471e-01" rms="3.8674056529998779e-01" purity="2.9366391897201538e-01" nType="0">
          <Node pos="l" depth="2" NCoef="0" IVar="-1" Cut="0.0000000000000000e+00" cType="1" res="-2.5533856824040413e-03" rms="4.0563845634460449e-01" purity="3.7084969878196716e-01" nType="-99"/>
          <Node pos="r" depth="2" NCoef="0" IVar="9" Cut="1.9110630750656128e+00" cType="1" res="-1.5533994138240814e-01" rms="3.6322453618049622e-01" purity="2.2370649874210358e-01" nType="0">
            <Node pos="l" depth="3" NCoef="0" IVar="-1" Cut="0.0000000000000000e+00" cType="1" res="-7.4776005931198597e-03" rms="3.7195020914077759e-01" purity="2.3960007727146149e-01" nType="-99"/>
            <Node pos="r" depth="3" NCoef="0" IVar="-1" Cut="0.0000000000000000e+00" cType="1" res="-9.2790480703115463e-03" rms="3.5422489047050476e-01" purity="2.0771488547325134e-01" nType="-99"/>
          </Node>
        </Node>
      </Node>
    </BinaryTree>
    <BinaryTree type="DecisionTree" boostWeight="1.0000000000000000e+00" itree="145">
      <Node pos="s" depth="0" NCoef="0" IVar="6" Cut="-1.1643128395080566e+00" cType="1" res="1.5292950905859470e-02" rms="4.2154142260551453e-01" purity="5.0033921003341675e-01" nType="0">
        <Node pos="l" depth="1" NCoef="0" IVar="6" Cut="-1.6173492670059204e+00" cType="1" res="-1.0808401554822922e-01" rms="3.7776076793670654e-01" purity="2.5156518816947937e-01" nType="0">
          <Node pos="l" depth="2" NCoef="0" IVar="-1" Cut="0.0000000000000000e+00" cType="1" res="-8.3670401945710182e-03" rms="3.3923417329788208e-01" purity="1.8048079311847687e-01" nType="-99"/>
          <Node pos="r" depth="2" NCoef="0" IVar="1" Cut="3.8653265380859375e+02" cType="1" res="-7.2760313749313354e-02" rms="4.0206578373908997e-01" purity="3.0762213468551636e-01" nType="0">
            <Node pos="l" depth="3" NCoef="0" IVar="-1" Cut="0.0000000000000000e+00" cType="1" res="-5.5114198476076126e-03" rms="3.6693948507308960e-01" purity="2.0587952435016632e-01" nType="-99"/>
            <Node pos="r" depth="3" NCoef="0" IVar="-1" Cut="0.0000000000000000e+00" cType="1" res="-1.6270357882604003e-03" rms="4.3370145559310913e-01" purity="4.1486710309982300e-01" nType="-99"/>
          </Node>
        </Node>
        <Node pos="r" depth="1" NCoef="0" IVar="6" Cut="7.2333627939224243e-01" cType="1" res="3.0545564368367195e-02" rms="4.2415666580200195e-01" purity="5.3109413385391235e-01" nType="0">
          <Node pos="l" depth="2" NCoef="0" IVar="5" Cut="8.1809501647949219e+01" cType="1" res="6.0048274695873260e-02" rms="4.2432692646980286e-01" purity="5.8833342790603638e-01" nType="0">
            <Node pos="l" depth="3" NCoef="0" IVar="-1" Cut="0.0000000000000000e+00" cType="1" res="-5.1679456373676658e-04" rms="4.3781080842018127e-01" purity="3.4502574801445007e-01" nType="-99"/>
            <Node pos="r" depth="3" NCoef="0" IVar="-1" Cut="0.0000000000000000e+00" cType="1" res="2.6499102823436260e-03" rms="4.1653624176979065e-01" purity="6.7260092496871948e-01" nType="-99"/>
          </Node>
          <Node pos="r" depth="2" NCoef="0" IVar="6" Cut="1.3165946006774902e+00" cType="1" res="-5.7307608425617218e-02" rms="4.1130104660987854e-01" purity="3.6064705252647400e-01" nType="0">
            <Node pos="l" depth="3" NCoef="0" IVar="-1" Cut="0.0000000000000000e+00" cType="1" res="-6.3472479814663529e-04" rms="4.3235123157501221e-01" purity="4.4672462344169617e-01" nType="-99"/>
            <Node pos="r" depth="3" NCoef="0" IVar="-1" Cut="0.0000000000000000e+00" cType="1" res="-5.6547666899859905e-03" rms="3.6964648962020874e-01" purity="2.3207269608974457e-01" nType="-99"/>
          </Node>
        </Node>
      </Node>
    </BinaryTree>
    <BinaryTree type="DecisionTree" boostWeight="1.0000000000000000e+00" itree="146">
      <Node pos="s" depth="0" NCoef="0" IVar="1" Cut="4.3640353393554688e+02" cType="1" res="1.4804684557020664e-02" rms="4.2221826314926147e-01" purity="4.9930539727210999e-01" nType="0">
        <Node pos="l" depth="1" NCoef="0" IVar="2" Cut="6.0412554931640625e+02" cType="1" res="-1.7904305830597878e-02" rms="4.2184114456176758e-01" purity="3.9980575442314148e-01" nType="0">
          <Node pos="l" depth="2" NCoef="0" IVar="1" Cut="3.7794628906250000e+02" cType="1" res="-5.6809769012033939e-03" rms="4.2438262701034546e-01" purity="4.1647866368293762e-01" nType="0">
            <Node pos="l" depth="3" NCoef="0" IVar="-1" Cut="0.0000000000000000e+00" cType="1" res="-1.4831844018772244e-03" rms="4.1787871718406677e-01" purity="3.6617591977119446e-01" nType="-99"/>
            <Node pos="r" depth="3" NCoef="0" IVar="-1" Cut="0.0000000000000000e+00" cType="1" res="2.1982402540743351e-03" rms="4.2965927720069885e-01" purity="5.2505451440811157e-01" nType="-99"/>
          </Node>
          <Node pos="r" depth="2" NCoef="0" IVar="-1" Cut="0.0000000000000000e+00" cType="1" res="-7.3789840098470449e-04" rms="3.0967548489570618e-01" purity="1.1688518524169922e-01" nType="-99"/>
        </Node>
        <Node pos="r" depth="1" NCoef="0" IVar="7" Cut="1.2001789808273315e+00" cType="1" res="6.8522490561008453e-02" rms="4.1731086373329163e-01" purity="6.6271311044692993e-01" nType="0">
          <Node pos="l" depth="2" NCoef="0" IVar="7" Cut="-8.9460361003875732e-01" cType="1" res="8.2474462687969208e-02" rms="4.1268563270568848e-01" purity="6.8928468227386475e-01" nType="0">
            <Node pos="l" depth="3" NCoef="0" IVar="-1" Cut="0.0000000000000000e+00" cType="1" res="-7.6455116504803300e-04" rms="4.4010162353515625e-01" purity="4.9593171477317810e-01" nType="-99"/>
            <Node pos="r" depth="3" NCoef="0" IVar="-1" Cut="0.0000000000000000e+00" cType="1" res="3.1937619205564260e-03" rms="4.0344777703285217e-01" purity="7.2949272394180298e-01" nType="-99"/>
          </Node>
          <Node pos="r" depth="2" NCoef="0" IVar="-1" Cut="0.0000000000000000e+00" cType="1" res="-2.7265765238553286e-03" rms="4.3723908066749573e-01" purity="4.0413805842399597e-01" nType="-99"/>
        </Node>
      </Node>
    </BinaryTree>
    <BinaryTree type="DecisionTree" boostWeight="1.0000000000000000e+00" itree="147">
      <Node pos="s" depth="0" NCoef="0" IVar="9" Cut="1.1999815702438354e+00" cType="1" res="1.5047391876578331e-02" rms="4.2217269539833069e-01" purity="5.0071913003921509e-01" nType="0">
        <Node pos="l" depth="1" NCoef="0" IVar="9" Cut="-1.0856808423995972e+00" cType="1" res="3.2504733651876450e-02" rms="4.2318496108055115e-01" purity="5.2829962968826294e-01" nType="0">
          <Node pos="l" depth="2" NCoef="0" IVar="2" Cut="4.6536947631835938e+02" cType="1" res="-6.4916737377643585e-02" rms="4.0840914845466614e-01" purity="3.6540132761001587e-01" nType="0">
            <Node pos="l" depth="3" NCoef="0" IVar="-1" Cut="0.0000000000000000e+00" cType="1" res="-1.6902423230931163e-03" rms="4.1347095370292664e-01" purity="4.0428963303565979e-01" nType="-99"/>
            <Node pos="r" depth="3" NCoef="0" IVar="-1" Cut="0.0000000000000000e+00" cType="1" res="-1.0652830824255943e-02" rms="3.7706407904624939e-01" purity="2.2511552274227142e-01" nType="-99"/>
          </Node>
          <Node pos="r" depth="2" NCoef="0" IVar="4" Cut="1.0689283752441406e+02" cType="1" res="5.5678918957710266e-02" rms="4.2333638668060303e-01" purity="5.6704914569854736e-01" nType="0">
            <Node pos="l" depth="3" NCoef="0" IVar="-1" Cut="0.0000000000000000e+00" cType="1" res="-7.1834312984719872e-04" rms="4.2975288629531860e-01" purity="3.4212243556976318e-01" nType="-99"/>
            <Node pos="r" depth="3" NCoef="0" IVar="-1" Cut="0.0000000000000000e+00" cType="1" res="2.4944306351244450e-03" rms="4.1893768310546875e-01" purity="6.3298630714416504e-01" nType="-99"/>
          </Node>
        </Node>
        <Node pos="r" depth="1" NCoef="0" IVar="9" Cut="2.1904301643371582e+00" cType="1" res="-9.1281183063983917e-02" rms="3.9981976151466370e-01" purity="3.3273249864578247e-01" nType="0">
          <Node pos="l" depth="2" NCoef="0" IVar="6" Cut="-3.7018322944641113e-01" cType="1" res="-7.0639170706272125e-02" rms="4.0966475009918213e-01" purity="3.6613708734512329e-01" nType="0">
            <Node pos="l" depth="3" NCoef="0" IVar="-1" Cut="0.0000000000000000e+00" cType="1" res="-7.0578199811279774e-03" rms="3.8547062873840332e-01" purity="2.6931986212730408e-01" nType="-99"/>
            <Node pos="r" depth="3" NCoef="0" IVar="-1" Cut="0.0000000000000000e+00" cType="1" res="-1.6506365500390530e-03" rms="4.1576680541038513e-01" purity="4.0589094161987305e-01" nType="-99"/>
          </Node>
          <Node pos="r" depth="2" NCoef="0" IVar="-1" Cut="0.0000000000000000e+00" cType="1" res="-1.1119220405817032e-02" rms="3.3639779686927795e-01" purity="1.8163564801216125e-01" nType="-99"/>
        </Node>
      </Node>
    </BinaryTree>
    <BinaryTree type="DecisionTree" boostWeight="1.0000000000000000e+00" itree="148">
      <Node pos="s" depth="0" NCoef="0" IVar="8" Cut="-1.1999957561492920e+00" cType="1" res="1.4124193228781223e-02" rms="4.2157644033432007e-01" purity="4.9661532044410706e-01" nType="0">
        <Node pos="l" depth="1" NCoef="0" IVar="2" Cut="3.0448956298828125e+02" cType="1" res="-9.7478434443473816e-02" rms="3.8748931884765625e-01" purity="2.8492468595504761e-01" nType="0">
          <Node pos="l" depth="2" NCoef="0" IVar="-1" Cut="0.0000000000000000e+00" cType="1" res="-1.5599802136421204e-03" rms="4.0540367364883423e-01" purity="3.6809888482093811e-01" nType="-99"/>
          <Node pos="r" depth="2" NCoef="0" IVar="8" Cut="-1.8857065439224243e+00" cType="1" res="-1.3709296286106110e-01" rms="3.6928468942642212e-01" purity="2.2653146088123322e-01" nType="0">
            <Node pos="l" depth="3" NCoef="0" IVar="-1" Cut="0.0000000000000000e+00" cType="1" res="-1.3949575833976269e-02" rms="3.0915969610214233e-01" purity="1.3049441576004028e-01" nType="-99"/>
            <Node pos="r" depth="3" NCoef="0" IVar="-1" Cut="0.0000000000000000e+00" cType="1" res="-6.0159452259540558e-03" rms="3.9368036389350891e-01" purity="2.7383297681808472e-01" nType="-99"/>
          </Node>
        </Node>
        <Node pos="r" depth="1" NCoef="0" IVar="8" Cut="1.2761855125427246e+00" cType="1" res="3.0785331502556801e-02" rms="4.2391851544380188e-01" purity="5.2821856737136841e-01" nType="0">
          <Node pos="l" depth="2" NCoef="0" IVar="5" Cut="8.1773971557617188e+01" cType="1" res="4.8127818852663040e-02" rms="4.2475077509880066e-01" purity="5.6519562005996704e-01" nType="0">
            <Node pos="l" depth="3" NCoef="0" IVar="-1" Cut="0.0000000000000000e+00" cType="1" res="-8.6877652211114764e-04" rms="4.2974662780761719e-01" purity="3.2815542817115784e-01" nType="-99"/>
            <Node pos="r" depth="3" NCoef="0" IVar="-1" Cut="0.0000000000000000e+00" cType="1" res="2.3188828490674496e-03" rms="4.2015078663825989e-01" purity="6.4961838722229004e-01" nType="-99"/>
          </Node>
          <Node pos="r" depth="2" NCoef="0" IVar="3" Cut="2.4167887878417969e+02" cType="1" res="-7.9171568155288696e-02" rms="4.0153598785400391e-01" purity="2.9377216100692749e-01" nType="0">
            <Node pos="l" depth="3" NCoef="0" IVar="-1" Cut="0.0000000000000000e+00" cType="1" res="-2.4510889779776335e-03" rms="4.0010312199592590e-01" purity="3.0245122313499451e-01" nType="-99"/>
            <Node pos="r" depth="3" NCoef="0" IVar="-1" Cut="0.0000000000000000e+00" cType="1" res="-8.7105678394436836e-03" rms="3.9740139245986938e-01" purity="2.6681786775588989e-01" nType="-99"/>
          </Node>
        </Node>
      </Node>
    </BinaryTree>
    <BinaryTree type="DecisionTree" boostWeight="1.0000000000000000e+00" itree="149">
      <Node pos="s" depth="0" NCoef="0" IVar="0" Cut="1.4570075683593750e+03" cType="1" res="1.6729163005948067e-02" rms="4.2168694734573364e-01" purity="5.0145906209945679e-01" nType="0">
        <Node pos="l" depth="1" NCoef="0" IVar="2" Cut="2.6218933105468750e+02" cType="1" res="-1.6863973811268806e-02" rms="4.2615261673927307e-01" purity="4.0665847063064575e-01" nType="0">
          <Node pos="l" depth="2" NCoef="0" IVar="0" Cut="1.1128587646484375e+03" cType="1" res="5.1207941025495529e-02" rms="4.3331697583198547e-01" purity="5.2137660980224609e-01" nType="0">
            <Node pos="l" depth="3" NCoef="0" IVar="-1" Cut="0.0000000000000000e+00" cType="1" res="-1.3425223296508193e-03" rms="4.3874433636665344e-01" purity="3.1599888205528259e-01" nType="-99"/>
            <Node pos="r" depth="3" NCoef="0" IVar="-1" Cut="0.0000000000000000e+00" cType="1" res="3.8006918039172888e-03" rms="4.1206777095794678e-01" purity="7.1331006288528442e-01" nType="-99"/>
          </Node>
          <Node pos="r" depth="2" NCoef="0" IVar="1" Cut="3.6525543212890625e+02" cType="1" res="-5.6117862462997437e-02" rms="4.1694405674934387e-01" purity="3.4050589799880981e-01" nType="0">
            <Node pos="l" depth="3" NCoef="0" IVar="-1" Cut="0.0000000000000000e+00" cType="1" res="-3.7490446120500565e-03" rms="3.9666044712066650e-01" purity="2.6550418138504028e-01" nType="-99"/>
            <Node pos="r" depth="3" NCoef="0" IVar="-1" Cut="0.0000000000000000e+00" cType="1" res="-8.8013237109407783e-04" rms="4.3535727262496948e-01" purity="4.2108312249183655e-01" nType="-99"/>
          </Node>
        </Node>
        <Node pos="r" depth="1" NCoef="0" IVar="2" Cut="5.4267517089843750e+02" cType="1" res="6.4821615815162659e-02" rms="4.1045224666595459e-01" purity="6.3717693090438843e-01" nType="0">
          <Node pos="l" depth="2" NCoef="0" IVar="3" Cut="2.6990975952148438e+02" cType="1" res="1.1810036748647690e-01" rms="3.8717103004455566e-01" purity="7.3511058092117310e-01" nType="0">
            <Node pos="l" depth="3" NCoef="0" IVar="-1" Cut="0.0000000000000000e+00" cType="1" res="4.9196430481970310e-03" rms="3.4959590435028076e-01" purity="8.0912744998931885e-01" nType="-99"/>
            <Node pos="r" depth="3" NCoef="0" IVar="-1" Cut="0.0000000000000000e+00" cType="1" res="1.5399869298562407e-03" rms="4.2896705865859985e-01" purity="6.2001472711563110e-01" nType="-99"/>
          </Node>
          <Node pos="r" depth="2" NCoef="0" IVar="1" Cut="6.0599151611328125e+02" cType="1" res="-5.8471541851758957e-02" rms="4.3551492691040039e-01" purity="4.1054740548133850e-01" nType="0">
            <Node pos="l" depth="3" NCoef="0" IVar="-1" Cut="0.0000000000000000e+00" cType="1" res="-7.1137496270239353e-03" rms="4.0859591960906982e-01" purity="2.9359897971153259e-01" nType="-99"/>
            <Node pos="r" depth="3" NCoef="0" IVar="-1" Cut="0.0000000000000000e+00" cType="1" res="1.9689665641635656e-03" rms="4.5714932680130005e-01" purity="6.2996667623519897e-01" nType="-99"/>
          </Node>
        </Node>
      </Node>
    </BinaryTree>
    <BinaryTree type="DecisionTree" boostWeight="1.0000000000000000e+00" itree="150">
      <Node pos="s" depth="0" NCoef="0" IVar="7" Cut="-1.1998959779739380e+00" cType="1" res="1.4311681501567364e-02" rms="4.2098307609558105e-01" purity="4.9830773472785950e-01" nType="0">
        <Node pos="l" depth="1" NCoef="0" IVar="7" Cut="-1.5808434486389160e+00" cType="1" res="-9.7172006964683533e-02" rms="3.7789106369018555e-01" purity="2.5486025214195251e-01" nType="0">
          <Node pos="l" depth="2" NCoef="0" IVar="1" Cut="3.8892202758789062e+02" cType="1" res="-1.3605722784996033e-01" rms="3.4092599153518677e-01" purity="1.8455688655376434e-01" nType="0">
            <Node pos="l" depth="3" NCoef="0" IVar="-1" Cut="0.0000000000000000e+00" cType="1" res="-1.0524165816605091e-02" rms="2.8151708841323853e-01" purity="9.4998776912689209e-02" nType="-99"/>
            <Node pos="r" depth="3" NCoef="0" IVar="-1" Cut="0.0000000000000000e+00" cType="1" res="-4.7968267463147640e-03" rms="4.0042695403099060e-01" purity="2.9714256525039673e-01" nType="-99"/>
          </Node>
          <Node pos="r" depth="2" NCoef="0" IVar="1" Cut="3.9600704956054688e+02" cType="1" res="-5.0043422728776932e-02" rms="4.1346335411071777e-01" purity="3.4006741642951965e-01" nType="0">
            <Node pos="l" depth="3" NCoef="0" IVar="-1" Cut="0.0000000000000000e+00" cType="1" res="-4.1938661597669125e-03" rms="3.7612399458885193e-01" purity="2.3406606912612915e-01" nType="-99"/>
            <Node pos="r" depth="3" NCoef="0" IVar="-1" Cut="0.0000000000000000e+00" cType="1" res="-2.5450388784520328e-04" rms="4.4900855422019958e-01" purity="4.6290084719657898e-01" nType="-99"/>
          </Node>
        </Node>
        <Node pos="r" depth="1" NCoef="0" IVar="7" Cut="8.9523130655288696e-01" cType="1" res="2.9575258493423462e-02" rms="4.2427039146423340e-01" purity="5.3163886070251465e-01" nType="0">
          <Node pos="l" depth="2" NCoef="0" IVar="8" Cut="1.1999379396438599e+00" cType="1" res="5.2735216915607452e-02" rms="4.2570424079895020e-01" purity="5.8388859033584595e-01" nType="0">
            <Node pos="l" depth="3" NCoef="0" IVar="-1" Cut="0.0000000000000000e+00" cType="1" res="2.1570532117038965e-03" rms="4.2296570539474487e-01" purity="6.1224389076232910e-01" nType="-99"/>
            <Node pos="r" depth="3" NCoef="0" IVar="-1" Cut="0.0000000000000000e+00" cType="1" res="-2.7375565841794014e-03" rms="4.2893555760383606e-01" purity="3.5729241371154785e-01" nType="-99"/>
          </Node>
          <Node pos="r" depth="2" NCoef="0" IVar="7" Cut="1.6208100318908691e+00" cType="1" res="-5.8682572096586227e-02" rms="4.0685081481933594e-01" purity="3.3252608776092529e-01" nType="0">
            <Node pos="l" depth="3" NCoef="0" IVar="-1" Cut="0.0000000000000000e+00" cType="1" res="-1.1886151041835546e-03" rms="4.2651420831680298e-01" purity="3.9705210924148560e-01" nType="-99"/>
            <Node pos="r" depth="3" NCoef="0" IVar="-1" Cut="0.0000000000000000e+00" cType="1" res="-7.1270936168730259e-03" rms="3.5520169138908386e-01" purity="1.9911950826644897e-01" nType="-99"/>
          </Node>
        </Node>
      </Node>
    </BinaryTree>
    <BinaryTree type="DecisionTree" boostWeight="1.0000000000000000e+00" itree="151">
      <Node pos="s" depth="0" NCoef="0" IVar="7" Cut="1.4666857719421387e+00" cType="1" res="1.4602154493331909e-02" rms="4.2238482832908630e-01" purity="4.9768042564392090e-01" nType="0">
        <Node pos="l" depth="1" NCoef="0" IVar="7" Cut="-9.7136050462722778e-01" cType="1" res="2.6463631540536880e-02" rms="4.2582482099533081e-01" purity="5.2328473329544067e-01" nType="0">
          <Node pos="l" depth="2" NCoef="0" IVar="7" Cut="-1.5808740854263306e+00" cType="1" res="-6.9050252437591553e-02" rms="3.9786517620086670e-01" purity="3.1822347640991211e-01" nType="0">
            <Node pos="l" depth="3" NCoef="0" IVar="-1" Cut="0.0000000000000000e+00" cType="1" res="-6.8219061940908432e-03" rms="3.4752050042152405e-01" purity="1.9099505245685577e-01" nType="-99"/>
            <Node pos="r" depth="3" NCoef="0" IVar="-1" Cut="0.0000000000000000e+00" cType="1" res="-1.1993739753961563e-03" rms="4.2312559485435486e-01" purity="4.0119716525077820e-01" nType="-99"/>
          </Node>
          <Node pos="r" depth="2" NCoef="0" IVar="2" Cut="5.4261816406250000e+02" cType="1" res="4.8120394349098206e-02" rms="4.2896509170532227e-01" purity="5.6978023052215576e-01" nType="0">
            <Node pos="l" depth="3" NCoef="0" IVar="-1" Cut="0.0000000000000000e+00" cType="1" res="2.0846833940595388e-03" rms="4.2470407485961914e-01" purity="5.9384220838546753e-01" nType="-99"/>
            <Node pos="r" depth="3" NCoef="0" IVar="-1" Cut="0.0000000000000000e+00" cType="1" res="-1.0279347188770771e-03" rms="4.4002521038055420e-01" purity="4.2178127169609070e-01" nType="-99"/>
          </Node>
        </Node>
        <Node pos="r" depth="1" NCoef="0" IVar="7" Cut="1.9111224412918091e+00" cType="1" res="-1.2669441103935242e-01" rms="3.4930008649826050e-01" purity="1.9267632067203522e-01" nType="0">
          <Node pos="l" depth="2" NCoef="0" IVar="-1" Cut="0.0000000000000000e+00" cType="1" res="-5.5024446919560432e-03" rms="3.7828129529953003e-01" purity="2.3306725919246674e-01" nType="-99"/>
          <Node pos="r" depth="2" NCoef="0" IVar="-1" Cut="0.0000000000000000e+00" cType="1" res="-1.0232297703623772e-02" rms="3.0861249566078186e-01" purity="1.4479109644889832e-01" nType="-99"/>
        </Node>
      </Node>
    </BinaryTree>
    <BinaryTree type="DecisionTree" boostWeight="1.0000000000000000e+00" itree="152">
      <Node pos="s" depth="0" NCoef="0" IVar="2" Cut="3.4025875854492188e+02" cType="1" res="1.2081242166459560e-02" rms="4.2182439565658569e-01" purity="4.9365121126174927e-01" nType="0">
        <Node pos="l" depth="1" NCoef="0" IVar="0" Cut="1.1810316162109375e+03" cType="1" res="5.0234168767929077e-02" rms="4.1571608185768127e-01" purity="5.5957412719726562e-01" nType="0">
          <Node pos="l" depth="2" NCoef="0" IVar="2" Cut="2.6010900878906250e+02" cType="1" res="-4.2111970484256744e-02" rms="4.2801624536514282e-01" purity="3.1472122669219971e-01" nType="0">
            <Node pos="l" depth="3" NCoef="0" IVar="-1" Cut="0.0000000000000000e+00" cType="1" res="-4.0243449620902538e-04" rms="4.4401788711547852e-01" purity="3.7067368626594543e-01" nType="-99"/>
            <Node pos="r" depth="3" NCoef="0" IVar="-1" Cut="0.0000000000000000e+00" cType="1" res="-3.3405441790819168e-03" rms="4.0195861458778381e-01" purity="2.4005657434463501e-01" nType="-99"/>
          </Node>
          <Node pos="r" depth="2" NCoef="0" IVar="0" Cut="1.4122824707031250e+03" cType="1" res="1.1886347830295563e-01" rms="3.9250418543815613e-01" purity="7.4154251813888550e-01" nType="0">
            <Node pos="l" depth="3" NCoef="0" IVar="-1" Cut="0.0000000000000000e+00" cType="1" res="2.2279578261077404e-03" rms="4.3795612454414368e-01" purity="6.4466011524200439e-01" nType="-99"/>
            <Node pos="r" depth="3" NCoef="0" IVar="-1" Cut="0.0000000000000000e+00" cType="1" res="5.2882549352943897e-03" rms="3.1582674384117126e-01" purity="8.6678075790405273e-01" nType="-99"/>
          </Node>
        </Node>
        <Node pos="r" depth="1" NCoef="0" IVar="0" Cut="1.5253366699218750e+03" cType="1" res="-2.9259283095598221e-02" rms="4.2449134588241577e-01" purity="4.2222055792808533e-01" nType="0">
          <Node pos="l" depth="2" NCoef="0" IVar="9" Cut="-9.3323898315429688e-01" cType="1" res="-8.4403522312641144e-02" rms="3.9905586838722229e-01" purity="2.7223446965217590e-01" nType="0">
            <Node pos="l" depth="3" NCoef="0" IVar="-1" Cut="0.0000000000000000e+00" cType="1" res="-7.7562322840094566e-03" rms="3.5829243063926697e-01" purity="1.8332515656948090e-01" nType="-99"/>
            <Node pos="r" depth="3" NCoef="0" IVar="-1" Cut="0.0000000000000000e+00" cType="1" res="-2.9383578803390265e-03" rms="4.0872687101364136e-01" purity="2.9888772964477539e-01" nType="-99"/>
          </Node>
          <Node pos="r" depth="2" NCoef="0" IVar="2" Cut="4.7383563232421875e+02" cType="1" res="1.7681859433650970e-02" rms="4.3958178162574768e-01" purity="5.4989516735076904e-01" nType="0">
            <Node pos="l" depth="3" NCoef="0" IVar="-1" Cut="0.0000000000000000e+00" cType="1" res="3.3232728019356728e-03" rms="4.1307160258293152e-01" purity="7.1232366561889648e-01" nType="-99"/>
            <Node pos="r" depth="3" NCoef="0" IVar="-1" Cut="0.0000000000000000e+00" cType="1" res="-9.1002340195700526e-04" rms="4.4650870561599731e-01" purity="4.4326969981193542e-01" nType="-99"/>
          </Node>
        </Node>
      </Node>
    </BinaryTree>
    <BinaryTree type="DecisionTree" boostWeight="1.0000000000000000e+00" itree="153">
      <Node pos="s" depth="0" NCoef="0" IVar="6" Cut="-1.4243018627166748e+00" cType="1" res="1.5411934815347195e-02" rms="4.1961413621902466e-01" purity="5.0064402818679810e-01" nType="0">
        <Node pos="l" depth="1" NCoef="0" IVar="1" Cut="3.7200726318359375e+02" cType="1" res="-1.3261282444000244e-01" rms="3.5338327288627625e-01" purity="2.0805470645427704e-01" nType="0">
          <Node pos="l" depth="2" NCoef="0" IVar="-1" Cut="0.0000000000000000e+00" cType="1" res="-1.1808558367192745e-02" rms="2.7925041317939758e-01" purity="9.4698339700698853e-02" nType="-99"/>
          <Node pos="r" depth="2" NCoef="0" IVar="-1" Cut="0.0000000000000000e+00" cType="1" res="-4.3524778448045254e-03" rms="4.1187584400177002e-01" purity="3.2402876019477844e-01" nType="-99"/>
        </Node>
        <Node pos="r" depth="1" NCoef="0" IVar="6" Cut="9.8936980962753296e-01" cType="1" res="2.6335498318076134e-02" rms="4.2204004526138306e-01" purity="5.2223587036132812e-01" nType="0">
          <Node pos="l" depth="2" NCoef="0" IVar="2" Cut="3.4025112915039062e+02" cType="1" res="4.5639958232641220e-02" rms="4.2393159866333008e-01" purity="5.6373006105422974e-01" nType="0">
            <Node pos="l" depth="3" NCoef="0" IVar="-1" Cut="0.0000000000000000e+00" cType="1" res="2.7222323697060347e-03" rms="4.1159367561340332e-01" purity="6.3724100589752197e-01" nType="-99"/>
            <Node pos="r" depth="3" NCoef="0" IVar="-1" Cut="0.0000000000000000e+00" cType="1" res="-2.3882776076789014e-05" rms="4.3222251534461975e-01" purity="4.8356288671493530e-01" nType="-99"/>
          </Node>
          <Node pos="r" depth="2" NCoef="0" IVar="1" Cut="4.8807974243164062e+02" cType="1" res="-6.9775186479091644e-02" rms="3.9882117509841919e-01" purity="3.1564971804618835e-01" nType="0">
            <Node pos="l" depth="3" NCoef="0" IVar="-1" Cut="0.0000000000000000e+00" cType="1" res="-3.9520421996712685e-03" rms="3.8090154528617859e-01" purity="2.4700304865837097e-01" nType="-99"/>
            <Node pos="r" depth="3" NCoef="0" IVar="-1" Cut="0.0000000000000000e+00" cType="1" res="5.5801850976422429e-04" rms="4.4881591200828552e-01" purity="5.7064473628997803e-01" nType="-99"/>
          </Node>
        </Node>
      </Node>
    </BinaryTree>
    <BinaryTree type="DecisionTree" boostWeight="1.0000000000000000e+00" itree="154">
      <Node pos="s" depth="0" NCoef="0" IVar="9" Cut="-1.7331734895706177e+00" cType="1" res="1.5736693516373634e-02" rms="4.2168197035789490e-01" purity="4.9931016564369202e-01" nType="0">
        <Node pos="l" depth="1" NCoef="0" IVar="9" Cut="-2.0379412174224854e+00" cType="1" res="-1.3077455759048462e-01" rms="3.6880692839622498e-01" purity="2.5315758585929871e-01" nType="0">
          <Node pos="l" depth="2" NCoef="0" IVar="-1" Cut="0.0000000000000000e+00" cType="1" res="-8.7447585538029671e-03" rms="3.4833896160125732e-01" purity="2.1104671061038971e-01" nType="-99"/>
          <Node pos="r" depth="2" NCoef="0" IVar="-1" Cut="0.0000000000000000e+00" cType="1" res="-4.2683235369622707e-03" rms="3.9036795496940613e-01" purity="3.0783367156982422e-01" nType="-99"/>
        </Node>
        <Node pos="r" depth="1" NCoef="0" IVar="2" Cut="5.0808895874023438e+02" cType="1" res="2.5950731709599495e-02" rms="4.2323607206344604e-01" purity="5.1647073030471802e-01" nType="0">
          <Node pos="l" depth="2" NCoef="0" IVar="0" Cut="1.3523771972656250e+03" cType="1" res="4.3819818645715714e-02" rms="4.1982924938201904e-01" purity="5.4448598623275757e-01" nType="0">
            <Node pos="l" depth="3" NCoef="0" IVar="-1" Cut="0.0000000000000000e+00" cType="1" res="-4.1545319254510105e-04" rms="4.3587768077850342e-01" purity="3.9495193958282471e-01" nType="-99"/>
            <Node pos="r" depth="3" NCoef="0" IVar="-1" Cut="0.0000000000000000e+00" cType="1" res="3.5526521969586611e-03" rms="3.8904741406440735e-01" purity="7.2598439455032349e-01" nType="-99"/>
          </Node>
          <Node pos="r" depth="2" NCoef="0" IVar="1" Cut="6.8184692382812500e+02" cType="1" res="-5.9313889592885971e-02" rms="4.2899897694587708e-01" purity="3.8279217481613159e-01" nType="0">
            <Node pos="l" depth="3" NCoef="0" IVar="-1" Cut="0.0000000000000000e+00" cType="1" res="-2.1338204387575388e-03" rms="4.1485896706581116e-01" purity="3.1728765368461609e-01" nType="-99"/>
            <Node pos="r" depth="3" NCoef="0" IVar="-1" Cut="0.0000000000000000e+00" cType="1" res="2.8349971398711205e-03" rms="4.5377635955810547e-01" purity="6.6441333293914795e-01" nType="-99"/>
          </Node>
        </Node>
      </Node>
    </BinaryTree>
    <BinaryTree type="DecisionTree" boostWeight="1.0000000000000000e+00" itree="155">
      <Node pos="s" depth="0" NCoef="0" IVar="2" Cut="3.7131405639648438e+02" cType="1" res="1.5820799395442009e-02" rms="4.2152145504951477e-01" purity="5.0006395578384399e-01" nType="0">
        <Node pos="l" depth="1" NCoef="0" IVar="0" Cut="1.3820811767578125e+03" cType="1" res="4.8178296536207199e-02" rms="4.1637125611305237e-01" purity="5.5768060684204102e-01" nType="0">
          <Node pos="l" depth="2" NCoef="0" IVar="2" Cut="2.8158108520507812e+02" cType="1" res="2.9104289133101702e-03" rms="4.3817725777626038e-01" purity="4.3449836969375610e-01" nType="0">
            <Node pos="l" depth="3" NCoef="0" IVar="-1" Cut="0.0000000000000000e+00" cType="1" res="1.3270365307107568e-03" rms="4.4045290350914001e-01" purity="4.9398070573806763e-01" nType="-99"/>
            <Node pos="r" depth="3" NCoef="0" IVar="-1" Cut="0.0000000000000000e+00" cType="1" res="-2.2378663998097181e-03" rms="4.2761307954788208e-01" purity="3.4029459953308105e-01" nType="-99"/>
          </Node>
          <Node pos="r" depth="2" NCoef="0" IVar="3" Cut="2.6124191284179688e+02" cType="1" res="1.4679665863513947e-01" rms="3.4435376524925232e-01" purity="8.2603943347930908e-01" nType="0">
            <Node pos="l" depth="3" NCoef="0" IVar="-1" Cut="0.0000000000000000e+00" cType="1" res="5.1804985851049423e-03" rms="3.1432253122329712e-01" purity="8.6494636535644531e-01" nType="-99"/>
            <Node pos="r" depth="3" NCoef="0" IVar="-1" Cut="0.0000000000000000e+00" cType="1" res="1.9889324903488159e-03" rms="4.0957242250442505e-01" purity="7.0862078666687012e-01" nType="-99"/>
          </Node>
        </Node>
        <Node pos="r" depth="1" NCoef="0" IVar="5" Cut="1.4066426086425781e+02" cType="1" res="-3.1886503100395203e-02" rms="4.2452690005302429e-01" purity="4.1511505842208862e-01" nType="0">
          <Node pos="l" depth="2" NCoef="0" IVar="1" Cut="6.0599493408203125e+02" cType="1" res="-5.9964030981063843e-02" rms="4.1658976674079895e-01" purity="3.4713497757911682e-01" nType="0">
            <Node pos="l" depth="3" NCoef="0" IVar="-1" Cut="0.0000000000000000e+00" cType="1" res="-1.3432594714686275e-03" rms="4.0573456883430481e-01" purity="2.9747411608695984e-01" nType="-99"/>
            <Node pos="r" depth="3" NCoef="0" IVar="-1" Cut="0.0000000000000000e+00" cType="1" res="1.6609862213954329e-03" rms="4.5557349920272827e-01" purity="6.1856478452682495e-01" nType="-99"/>
          </Node>
          <Node pos="r" depth="2" NCoef="0" IVar="0" Cut="1.7535897216796875e+03" cType="1" res="5.8006722480058670e-02" rms="4.3702676892280579e-01" purity="6.3276058435440063e-01" nType="0">
            <Node pos="l" depth="3" NCoef="0" IVar="-1" Cut="0.0000000000000000e+00" cType="1" res="-1.6866163350641727e-03" rms="4.4987016916275024e-01" purity="4.8641288280487061e-01" nType="-99"/>
            <Node pos="r" depth="3" NCoef="0" IVar="-1" Cut="0.0000000000000000e+00" cType="1" res="2.9769190587103367e-03" rms="4.2628252506256104e-01" purity="6.8740123510360718e-01" nType="-99"/>
          </Node>
        </Node>
      </Node>
    </BinaryTree>
    <BinaryTree type="DecisionTree" boostWeight="1.0000000000000000e+00" itree="156">
      <Node pos="s" depth="0" NCoef="0" IVar="0" Cut="1.1903468017578125e+03" cType="1" res="1.2635554186999798e-02" rms="4.1944366693496704e-01" purity="4.9753415584564209e-01" nType="0">
        <Node pos="l" depth="1" NCoef="0" IVar="2" Cut="2.3732656860351562e+02" cType="1" res="-5.5307783186435699e-02" rms="4.1345396637916565e-01" purity="2.8514933586120605e-01" nType="0">
          <Node pos="l" depth="2" NCoef="0" IVar="-1" Cut="0.0000000000000000e+00" cType="1" res="2.3061592946760356e-04" rms="4.5226711034774780e-01" purity="3.9931631088256836e-01" nType="-99"/>
          <Node pos="r" depth="2" NCoef="0" IVar="1" Cut="3.4550479125976562e+02" cType="1" res="-8.4576472640037537e-02" rms="3.9034447073936462e-01" purity="2.3109403252601624e-01" nType="0">
            <Node pos="l" depth="3" NCoef="0" IVar="-1" Cut="0.0000000000000000e+00" cType="1" res="-5.1441625691950321e-03" rms="3.5268157720565796e-01" purity="1.7593416571617126e-01" nType="-99"/>
            <Node pos="r" depth="3" NCoef="0" IVar="-1" Cut="0.0000000000000000e+00" cType="1" res="-1.7299207393079996e-03" rms="4.2218735814094543e-01" purity="2.8880137205123901e-01" nType="-99"/>
          </Node>
        </Node>
        <Node pos="r" depth="1" NCoef="0" IVar="2" Cut="4.0313281250000000e+02" cType="1" res="3.8675975054502487e-02" rms="4.1880506277084351e-01" purity="5.7893413305282593e-01" nType="0">
          <Node pos="l" depth="2" NCoef="0" IVar="2" Cut="2.8706106567382812e+02" cType="1" res="8.9070208370685577e-02" rms="4.0340852737426758e-01" purity="7.0009028911590576e-01" nType="0">
            <Node pos="l" depth="3" NCoef="0" IVar="-1" Cut="0.0000000000000000e+00" cType="1" res="4.4651376083493233e-03" rms="3.6566698551177979e-01" purity="8.0057960748672485e-01" nType="-99"/>
            <Node pos="r" depth="3" NCoef="0" IVar="-1" Cut="0.0000000000000000e+00" cType="1" res="1.3809439260512590e-03" rms="4.2293900251388550e-01" purity="6.2535363435745239e-01" nType="-99"/>
          </Node>
          <Node pos="r" depth="2" NCoef="0" IVar="0" Cut="1.5620822753906250e+03" cType="1" res="-2.5161370635032654e-02" rms="4.2911726236343384e-01" purity="4.2545863986015320e-01" nType="0">
            <Node pos="l" depth="3" NCoef="0" IVar="-1" Cut="0.0000000000000000e+00" cType="1" res="-4.5482581481337547e-03" rms="3.9129939675331116e-01" purity="2.4556972086429596e-01" nType="-99"/>
            <Node pos="r" depth="3" NCoef="0" IVar="-1" Cut="0.0000000000000000e+00" cType="1" res="4.8314858577214181e-04" rms="4.4571503996849060e-01" purity="5.3233057260513306e-01" nType="-99"/>
          </Node>
        </Node>
      </Node>
    </BinaryTree>
    <BinaryTree type="DecisionTree" boostWeight="1.0000000000000000e+00" itree="157">
      <Node pos="s" depth="0" NCoef="0" IVar="7" Cut="9.3323951959609985e-01" cType="1" res="1.5544510446488857e-02" rms="4.2052000761032104e-01" purity="5.0010573863983154e-01" nType="0">
        <Node pos="l" depth="1" NCoef="0" IVar="7" Cut="-6.6669613122940063e-01" cType="1" res="3.4117665141820908e-02" rms="4.2347979545593262e-01" purity="5.3969800472259521e-01" nType="0">
          <Node pos="l" depth="2" NCoef="0" IVar="9" Cut="-1.1998281478881836e+00" cType="1" res="-4.6632152050733566e-02" rms="4.0818238258361816e-01" purity="3.8015869259834290e-01" nType="0">
            <Node pos="l" depth="3" NCoef="0" IVar="-1" Cut="0.0000000000000000e+00" cType="1" res="-7.6773739419877529e-03" rms="3.5117894411087036e-01" purity="2.1576747298240662e-01" nType="-99"/>
            <Node pos="r" depth="3" NCoef="0" IVar="-1" Cut="0.0000000000000000e+00" cType="1" res="-1.0047724936157465e-03" rms="4.1710883378982544e-01" purity="4.1743823885917664e-01" nType="-99"/>
          </Node>
          <Node pos="r" depth="2" NCoef="0" IVar="8" Cut="-9.3306654691696167e-01" cType="1" res="6.8769097328186035e-02" rms="4.2520081996917725e-01" purity="6.0815966129302979e-01" nType="0">
            <Node pos="l" depth="3" NCoef="0" IVar="-1" Cut="0.0000000000000000e+00" cType="1" res="-9.7020145040005445e-04" rms="4.3502697348594666e-01" purity="4.4953489303588867e-01" nType="-99"/>
            <Node pos="r" depth="3" NCoef="0" IVar="-1" Cut="0.0000000000000000e+00" cType="1" res="2.7915162499994040e-03" rms="4.2080697417259216e-01" purity="6.3934993743896484e-01" nType="-99"/>
          </Node>
        </Node>
        <Node pos="r" depth="1" NCoef="0" IVar="2" Cut="3.2499594116210938e+02" cType="1" res="-7.4279576539993286e-02" rms="3.9372470974922180e-01" purity="3.0862861871719360e-01" nType="0">
          <Node pos="l" depth="2" NCoef="0" IVar="-1" Cut="0.0000000000000000e+00" cType="1" res="-1.2441971339285374e-03" rms="4.1213181614875793e-01" purity="3.8295292854309082e-01" nType="-99"/>
          <Node pos="r" depth="2" NCoef="0" IVar="1" Cut="4.0631030273437500e+02" cType="1" res="-1.1159136891365051e-01" rms="3.7274220585823059e-01" purity="2.4291127920150757e-01" nType="0">
            <Node pos="l" depth="3" NCoef="0" IVar="-1" Cut="0.0000000000000000e+00" cType="1" res="-1.0506654158234596e-02" rms="3.0558049678802490e-01" purity="1.3163647055625916e-01" nType="-99"/>
            <Node pos="r" depth="3" NCoef="0" IVar="-1" Cut="0.0000000000000000e+00" cType="1" res="-3.5594322253018618e-03" rms="4.3144977092742920e-01" purity="3.6434954404830933e-01" nType="-99"/>
          </Node>
        </Node>
      </Node>
    </BinaryTree>
    <BinaryTree type="DecisionTree" boostWeight="1.0000000000000000e+00" itree="158">
      <Node pos="s" depth="0" NCoef="0" IVar="8" Cut="-1.1998884677886963e+00" cType="1" res="1.5283906832337379e-02" rms="4.1835018992424011e-01" purity="5.0076788663864136e-01" nType="0">
        <Node pos="l" depth="1" NCoef="0" IVar="8" Cut="-1.5808844566345215e+00" cType="1" res="-9.6754409372806549e-02" rms="3.8093957304954529e-01" purity="2.8047928214073181e-01" nType="0">
          <Node pos="l" depth="2" NCoef="0" IVar="8" Cut="-2.0452456474304199e+00" cType="1" res="-1.3141572475433350e-01" rms="3.5531121492385864e-01" purity="2.0606963336467743e-01" nType="0">
            <Node pos="l" depth="3" NCoef="0" IVar="-1" Cut="0.0000000000000000e+00" cType="1" res="-1.0776839219033718e-02" rms="3.2568517327308655e-01" purity="1.5054655075073242e-01" nType="-99"/>
            <Node pos="r" depth="3" NCoef="0" IVar="-1" Cut="0.0000000000000000e+00" cType="1" res="-5.6169503368437290e-03" rms="3.7429225444793701e-01" purity="2.4825610220432281e-01" nType="-99"/>
          </Node>
          <Node pos="r" depth="2" NCoef="0" IVar="1" Cut="4.0306057739257812e+02" cType="1" res="-5.2279151976108551e-02" rms="4.0719375014305115e-01" purity="3.7595713138580322e-01" nType="0">
            <Node pos="l" depth="3" NCoef="0" IVar="-1" Cut="0.0000000000000000e+00" cType="1" res="-4.6212282031774521e-03" rms="3.7599655985832214e-01" purity="2.6001009345054626e-01" nType="-99"/>
            <Node pos="r" depth="3" NCoef="0" IVar="-1" Cut="0.0000000000000000e+00" cType="1" res="-1.9531330326572061e-04" rms="4.3713605403900146e-01" purity="5.1509207487106323e-01" nType="-99"/>
          </Node>
        </Node>
        <Node pos="r" depth="1" NCoef="0" IVar="8" Cut="8.9527660608291626e-01" cType="1" res="3.1766220927238464e-02" rms="4.2106714844703674e-01" purity="5.3317528963088989e-01" nType="0">
          <Node pos="l" depth="2" NCoef="0" IVar="5" Cut="7.8951232910156250e+01" cType="1" res="5.6210435926914215e-02" rms="4.2117109894752502e-01" purity="5.8236479759216309e-01" nType="0">
            <Node pos="l" depth="3" NCoef="0" IVar="-1" Cut="0.0000000000000000e+00" cType="1" res="-5.4840894881635904e-04" rms="4.3844810128211975e-01" purity="3.2959380745887756e-01" nType="-99"/>
            <Node pos="r" depth="3" NCoef="0" IVar="-1" Cut="0.0000000000000000e+00" cType="1" res="2.4534142576158047e-03" rms="4.1371852159500122e-01" purity="6.5642714500427246e-01" nType="-99"/>
          </Node>
          <Node pos="r" depth="2" NCoef="0" IVar="8" Cut="1.5302031040191650e+00" cType="1" res="-5.0785101950168610e-02" rms="4.1008445620536804e-01" purity="3.6705589294433594e-01" nType="0">
            <Node pos="l" depth="3" NCoef="0" IVar="-1" Cut="0.0000000000000000e+00" cType="1" res="-4.9122591735795140e-04" rms="4.2505222558975220e-01" purity="4.4828784465789795e-01" nType="-99"/>
            <Node pos="r" depth="3" NCoef="0" IVar="-1" Cut="0.0000000000000000e+00" cType="1" res="-5.3785387426614761e-03" rms="3.7961614131927490e-01" purity="2.4539798498153687e-01" nType="-99"/>
          </Node>
        </Node>
      </Node>
    </BinaryTree>
    <BinaryTree type="DecisionTree" boostWeight="1.0000000000000000e+00" itree="159">
      <Node pos="s" depth="0" NCoef="0" IVar="7" Cut="1.4664276838302612e+00" cType="1" res="1.2598541565239429e-02" rms="4.1819158196449280e-01" purity="4.9845978617668152e-01" nType="0">
        <Node pos="l" depth="1" NCoef="0" IVar="7" Cut="-9.7147601842880249e-01" cType="1" res="2.4182012304663658e-02" rms="4.2180284857749939e-01" purity="5.2424937486648560e-01" nType="0">
          <Node pos="l" depth="2" NCoef="0" IVar="7" Cut="-1.4938790798187256e+00" cType="1" res="-6.6733472049236298e-02" rms="3.9480391144752502e-01" purity="3.1771284341812134e-01" nType="0">
            <Node pos="l" depth="3" NCoef="0" IVar="-1" Cut="0.0000000000000000e+00" cType="1" res="-6.2256203964352608e-03" rms="3.5534998774528503e-01" purity="2.0590898394584656e-01" nType="-99"/>
            <Node pos="r" depth="3" NCoef="0" IVar="-1" Cut="0.0000000000000000e+00" cType="1" res="-1.0691748466342688e-03" rms="4.2102679610252380e-01" purity="4.1165661811828613e-01" nType="-99"/>
          </Node>
          <Node pos="r" depth="2" NCoef="0" IVar="2" Cut="3.5405584716796875e+02" cType="1" res="4.4117335230112076e-02" rms="4.2490258812904358e-01" purity="5.6953740119934082e-01" nType="0">
            <Node pos="l" depth="3" NCoef="0" IVar="-1" Cut="0.0000000000000000e+00" cType="1" res="2.5115329772233963e-03" rms="4.1520425677299500e-01" purity="6.3466817140579224e-01" nType="-99"/>
            <Node pos="r" depth="3" NCoef="0" IVar="-1" Cut="0.0000000000000000e+00" cType="1" res="-6.9167945184744895e-05" rms="4.3219688534736633e-01" purity="4.8740983009338379e-01" nType="-99"/>
          </Node>
        </Node>
        <Node pos="r" depth="1" NCoef="0" IVar="2" Cut="3.2499594116210938e+02" cType="1" res="-1.2497030943632126e-01" rms="3.4400531649589539e-01" purity="1.9217410683631897e-01" nType="0">
          <Node pos="l" depth="2" NCoef="0" IVar="-1" Cut="0.0000000000000000e+00" cType="1" res="-4.2786584235727787e-03" rms="3.7760463356971741e-01" purity="2.5301572680473328e-01" nType="-99"/>
          <Node pos="r" depth="2" NCoef="0" IVar="-1" Cut="0.0000000000000000e+00" cType="1" res="-1.1030782014131546e-02" rms="3.0961850285530090e-01" purity="1.4036017656326294e-01" nType="-99"/>
        </Node>
      </Node>
    </BinaryTree>
    <BinaryTree type="DecisionTree" boostWeight="1.0000000000000000e+00" itree="160">
      <Node pos="s" depth="0" NCoef="0" IVar="9" Cut="1.4666332006454468e+00" cType="1" res="1.5702813863754272e-02" rms="4.1866871714591980e-01" purity="5.0166380405426025e-01" nType="0">
        <Node pos="l" depth="1" NCoef="0" IVar="9" Cut="-1.5808154344558716e+00" cType="1" res="2.9101498425006866e-02" rms="4.1986241936683655e-01" purity="5.2418005466461182e-01" nType="0">
          <Node pos="l" depth="2" NCoef="0" IVar="9" Cut="-1.9871494770050049e+00" cType="1" res="-9.6101991832256317e-02" rms="3.9255902171134949e-01" purity="2.9562947154045105e-01" nType="0">
            <Node pos="l" depth="3" NCoef="0" IVar="-1" Cut="0.0000000000000000e+00" cType="1" res="-7.9245558008551598e-03" rms="3.5893279314041138e-01" purity="2.2446362674236298e-01" nType="-99"/>
            <Node pos="r" depth="3" NCoef="0" IVar="-1" Cut="0.0000000000000000e+00" cType="1" res="-2.1252082660794258e-03" rms="4.1682657599449158e-01" purity="3.6356315016746521e-01" nType="-99"/>
          </Node>
          <Node pos="r" depth="2" NCoef="0" IVar="2" Cut="3.4280386352539062e+02" cType="1" res="4.1895706206560135e-02" rms="4.2045876383781433e-01" purity="5.4753500223159790e-01" nType="0">
            <Node pos="l" depth="3" NCoef="0" IVar="-1" Cut="0.0000000000000000e+00" cType="1" res="2.5617165956646204e-03" rms="4.1090264916419983e-01" purity="6.1476933956146240e-01" nType="-99"/>
            <Node pos="r" depth="3" NCoef="0" IVar="-1" Cut="0.0000000000000000e+00" cType="1" res="-3.6874542274745181e-05" rms="4.2675366997718811e-01" purity="4.7249358892440796e-01" nType="-99"/>
          </Node>
        </Node>
        <Node pos="r" depth="1" NCoef="0" IVar="9" Cut="1.9745506048202515e+00" cType="1" res="-1.0937502235174179e-01" rms="3.8551175594329834e-01" purity="2.9147285223007202e-01" nType="0">
          <Node pos="l" depth="2" NCoef="0" IVar="5" Cut="9.4309234619140625e+01" cType="1" res="-7.5737610459327698e-02" rms="4.0358296036720276e-01" purity="3.4830802679061890e-01" nType="0">
            <Node pos="l" depth="3" NCoef="0" IVar="-1" Cut="0.0000000000000000e+00" cType="1" res="-4.4120615348219872e-03" rms="3.6109378933906555e-01" purity="2.2473353147506714e-01" nType="-99"/>
            <Node pos="r" depth="3" NCoef="0" IVar="-1" Cut="0.0000000000000000e+00" cType="1" res="-2.2881405893713236e-03" rms="4.3995192646980286e-01" purity="4.6707776188850403e-01" nType="-99"/>
          </Node>
          <Node pos="r" depth="2" NCoef="0" IVar="-1" Cut="0.0000000000000000e+00" cType="1" res="-7.9877283424139023e-03" rms="3.5394233465194702e-01" purity="2.1319603919982910e-01" nType="-99"/>
        </Node>
      </Node>
    </BinaryTree>
    <BinaryTree type="DecisionTree" boostWeight="1.0000000000000000e+00" itree="161">
      <Node pos="s" depth="0" NCoef="0" IVar="6" Cut="1.2030628919601440e+00" cType="1" res="1.2325964868068695e-02" rms="4.1850617527961731e-01" purity="4.9784910678863525e-01" nType="0">
        <Node pos="l" depth="1" NCoef="0" IVar="6" Cut="-6.9773352146148682e-01" cType="1" res="2.6090277358889580e-02" rms="4.2072075605392456e-01" purity="5.2695989608764648e-01" nType="0">
          <Node pos="l" depth="2" NCoef="0" IVar="7" Cut="6.6661781072616577e-01" cType="1" res="-5.5845491588115692e-02" rms="4.0582337975502014e-01" purity="3.6691525578498840e-01" nType="0">
            <Node pos="l" depth="3" NCoef="0" IVar="-1" Cut="0.0000000000000000e+00" cType="1" res="-1.2269684812054038e-03" rms="4.1574057936668396e-01" purity="4.1233691573143005e-01" nType="-99"/>
            <Node pos="r" depth="3" NCoef="0" IVar="-1" Cut="0.0000000000000000e+00" cType="1" res="-8.6653688922524452e-03" rms="3.5864025354385376e-01" purity="2.1456266939640045e-01" nType="-99"/>
          </Node>
          <Node pos="r" depth="2" NCoef="0" IVar="2" Cut="4.0312695312500000e+02" cType="1" res="5.3246803581714630e-02" rms="4.2204794287681580e-01" purity="5.8000451326370239e-01" nType="0">
            <Node pos="l" depth="3" NCoef="0" IVar="-1" Cut="0.0000000000000000e+00" cType="1" res="2.5242548435926437e-03" rms="4.1288310289382935e-01" purity="6.3389426469802856e-01" nType="-99"/>
            <Node pos="r" depth="3" NCoef="0" IVar="-1" Cut="0.0000000000000000e+00" cType="1" res="-1.3495846360456198e-04" rms="4.3460521101951599e-01" purity="4.7049039602279663e-01" nType="-99"/>
          </Node>
        </Node>
        <Node pos="r" depth="1" NCoef="0" IVar="6" Cut="1.8873722553253174e+00" cType="1" res="-9.9743984639644623e-02" rms="3.8198557496070862e-01" purity="2.6082727313041687e-01" nType="0">
          <Node pos="l" depth="2" NCoef="0" IVar="1" Cut="3.9404971313476562e+02" cType="1" res="-7.6010763645172119e-02" rms="3.9549398422241211e-01" purity="2.9132461547851562e-01" nType="0">
            <Node pos="l" depth="3" NCoef="0" IVar="-1" Cut="0.0000000000000000e+00" cType="1" res="-6.2693781219422817e-03" rms="3.5396635532379150e-01" purity="1.7759920656681061e-01" nType="-99"/>
            <Node pos="r" depth="3" NCoef="0" IVar="-1" Cut="0.0000000000000000e+00" cType="1" res="-1.3351732632145286e-03" rms="4.3639025092124939e-01" purity="4.2662644386291504e-01" nType="-99"/>
          </Node>
          <Node pos="r" depth="2" NCoef="0" IVar="-1" Cut="0.0000000000000000e+00" cType="1" res="-8.8473614305257797e-03" rms="3.3262035250663757e-01" purity="1.7569978535175323e-01" nType="-99"/>
        </Node>
      </Node>
    </BinaryTree>
    <BinaryTree type="DecisionTree" boostWeight="1.0000000000000000e+00" itree="162">
      <Node pos="s" depth="0" NCoef="0" IVar="6" Cut="9.4931864738464355e-01" cType="1" res="1.1760657653212547e-02" rms="4.1813141107559204e-01" purity="4.9762758612632751e-01" nType="0">
        <Node pos="l" depth="1" NCoef="0" IVar="6" Cut="-8.1223338842391968e-01" cType="1" res="2.9053291305899620e-02" rms="4.2058694362640381e-01" purity="5.3396236896514893e-01" nType="0">
          <Node pos="l" depth="2" NCoef="0" IVar="6" Cut="-1.5504037141799927e+00" cType="1" res="-6.4644150435924530e-02" rms="4.0175744891166687e-01" purity="3.3767738938331604e-01" nType="0">
            <Node pos="l" depth="3" NCoef="0" IVar="-1" Cut="0.0000000000000000e+00" cType="1" res="-7.2130663320422173e-03" rms="3.5108014941215515e-01" purity="1.9392216205596924e-01" nType="-99"/>
            <Node pos="r" depth="3" NCoef="0" IVar="-1" Cut="0.0000000000000000e+00" cType="1" res="-1.4717609155923128e-03" rms="4.1687324643135071e-01" purity="3.9459356665611267e-01" nType="-99"/>
          </Node>
          <Node pos="r" depth="2" NCoef="0" IVar="2" Cut="6.2074816894531250e+02" cType="1" res="5.6856442242860794e-02" rms="4.2203080654144287e-01" purity="5.9220665693283081e-01" nType="0">
            <Node pos="l" depth="3" NCoef="0" IVar="-1" Cut="0.0000000000000000e+00" cType="1" res="2.2660614922642708e-03" rms="4.1800960898399353e-01" purity="6.0978001356124878e-01" nType="-99"/>
            <Node pos="r" depth="3" NCoef="0" IVar="-1" Cut="0.0000000000000000e+00" cType="1" res="-8.9075969299301505e-04" rms="4.4054621458053589e-01" purity="4.1357514262199402e-01" nType="-99"/>
          </Node>
        </Node>
        <Node pos="r" depth="1" NCoef="0" IVar="6" Cut="1.3016372919082642e+00" cType="1" res="-7.8802049160003662e-02" rms="3.9278545975685120e-01" purity="3.0733960866928101e-01" nType="0">
          <Node pos="l" depth="2" NCoef="0" IVar="7" Cut="-1.3304209709167480e-01" cType="1" res="-2.7689754962921143e-02" rms="4.2471727728843689e-01" purity="4.0578815340995789e-01" nType="0">
            <Node pos="l" depth="3" NCoef="0" IVar="-1" Cut="0.0000000000000000e+00" cType="1" res="-3.2057636417448521e-03" rms="4.0729746222496033e-01" purity="3.4415075182914734e-01" nType="-99"/>
            <Node pos="r" depth="3" NCoef="0" IVar="-1" Cut="0.0000000000000000e+00" cType="1" res="6.6640488512348384e-05" rms="4.3291422724723816e-01" purity="4.4515773653984070e-01" nType="-99"/>
          </Node>
          <Node pos="r" depth="2" NCoef="0" IVar="0" Cut="1.4499395751953125e+03" cType="1" res="-1.1883275955915451e-01" rms="3.6081463098526001e-01" purity="2.3023553192615509e-01" nType="0">
            <Node pos="l" depth="3" NCoef="0" IVar="-1" Cut="0.0000000000000000e+00" cType="1" res="-7.8043160028755665e-03" rms="3.2505401968955994e-01" purity="1.4966769516468048e-01" nType="-99"/>
            <Node pos="r" depth="3" NCoef="0" IVar="-1" Cut="0.0000000000000000e+00" cType="1" res="-2.9284816700965166e-03" rms="4.2147919535636902e-01" purity="4.0095892548561096e-01" nType="-99"/>
          </Node>
        </Node>
      </Node>
    </BinaryTree>
    <BinaryTree type="DecisionTree" boostWeight="1.0000000000000000e+00" itree="163">
      <Node pos="s" depth="0" NCoef="0" IVar="8" Cut="-1.4667131900787354e+00" cType="1" res="1.6084687784314156e-02" rms="4.1742968559265137e-01" purity="5.0260961055755615e-01" nType="0">
        <Node pos="l" depth="1" NCoef="0" IVar="0" Cut="1.3251939697265625e+03" cType="1" res="-1.0812453180551529e-01" rms="3.6676135659217834e-01" purity="2.4178422987461090e-01" nType="0">
          <Node pos="l" depth="2" NCoef="0" IVar="-1" Cut="0.0000000000000000e+00" cType="1" res="-7.7220099046826363e-03" rms="3.2169976830482483e-01" purity="1.4831513166427612e-01" nType="-99"/>
          <Node pos="r" depth="2" NCoef="0" IVar="-1" Cut="0.0000000000000000e+00" cType="1" res="-3.6044947337359190e-03" rms="4.1124102473258972e-01" purity="3.5378023982048035e-01" nType="-99"/>
        </Node>
        <Node pos="r" depth="1" NCoef="0" IVar="8" Cut="9.7129160165786743e-01" cType="1" res="2.7781864628195763e-02" rms="4.1999959945678711e-01" purity="5.2717238664627075e-01" nType="0">
          <Node pos="l" depth="2" NCoef="0" IVar="2" Cut="3.4597155761718750e+02" cType="1" res="4.9699347466230392e-02" rms="4.2042133212089539e-01" purity="5.7152956724166870e-01" nType="0">
            <Node pos="l" depth="3" NCoef="0" IVar="-1" Cut="0.0000000000000000e+00" cType="1" res="2.6027176063507795e-03" rms="4.0693068504333496e-01" purity="6.3749462366104126e-01" nType="-99"/>
            <Node pos="r" depth="3" NCoef="0" IVar="-1" Cut="0.0000000000000000e+00" cType="1" res="3.1586294062435627e-04" rms="4.3224158883094788e-01" purity="4.9341124296188354e-01" nType="-99"/>
          </Node>
          <Node pos="r" depth="2" NCoef="0" IVar="6" Cut="-6.2422835826873779e-01" cType="1" res="-6.2889091670513153e-02" rms="4.0586313605308533e-01" purity="3.4367001056671143e-01" nType="0">
            <Node pos="l" depth="3" NCoef="0" IVar="-1" Cut="0.0000000000000000e+00" cType="1" res="-8.9148068800568581e-03" rms="3.4978100657463074e-01" purity="1.9162784516811371e-01" nType="-99"/>
            <Node pos="r" depth="3" NCoef="0" IVar="-1" Cut="0.0000000000000000e+00" cType="1" res="-1.4740893384441733e-03" rms="4.1710653901100159e-01" purity="3.8873606920242310e-01" nType="-99"/>
          </Node>
        </Node>
      </Node>
    </BinaryTree>
    <BinaryTree type="DecisionTree" boostWeight="1.0000000000000000e+00" itree="164">
      <Node pos="s" depth="0" NCoef="0" IVar="7" Cut="9.3328803777694702e-01" cType="1" res="1.8195079639554024e-02" rms="4.1922163963317871e-01" purity="5.0286388397216797e-01" nType="0">
        <Node pos="l" depth="1" NCoef="0" IVar="7" Cut="-6.6664278507232666e-01" cType="1" res="3.5503290593624115e-02" rms="4.2228153347969055e-01" purity="5.4161232709884644e-01" nType="0">
          <Node pos="l" depth="2" NCoef="0" IVar="9" Cut="-1.1994670629501343e+00" cType="1" res="-3.7586271762847900e-02" rms="4.1010099649429321e-01" purity="3.8723048567771912e-01" nType="0">
            <Node pos="l" depth="3" NCoef="0" IVar="-1" Cut="0.0000000000000000e+00" cType="1" res="-6.6002001985907555e-03" rms="3.5587698221206665e-01" purity="2.3378987610340118e-01" nType="-99"/>
            <Node pos="r" depth="3" NCoef="0" IVar="-1" Cut="0.0000000000000000e+00" cType="1" res="-6.9843168603256345e-04" rms="4.1917082667350769e-01" purity="4.2258951067924500e-01" nType="-99"/>
          </Node>
          <Node pos="r" depth="2" NCoef="0" IVar="8" Cut="-9.3337917327880859e-01" cType="1" res="6.7215539515018463e-02" rms="4.2355313897132874e-01" purity="6.0859584808349609e-01" nType="0">
            <Node pos="l" depth="3" NCoef="0" IVar="-1" Cut="0.0000000000000000e+00" cType="1" res="-7.6757615897804499e-04" rms="4.3523189425468445e-01" purity="4.4910550117492676e-01" nType="-99"/>
            <Node pos="r" depth="3" NCoef="0" IVar="-1" Cut="0.0000000000000000e+00" cType="1" res="2.6359318289905787e-03" rms="4.1899275779724121e-01" purity="6.4046323299407959e-01" nType="-99"/>
          </Node>
        </Node>
        <Node pos="r" depth="1" NCoef="0" IVar="7" Cut="1.9999167919158936e+00" cType="1" res="-6.5494053065776825e-02" rms="3.9350238442420959e-01" purity="3.1550633907318115e-01" nType="0">
          <Node pos="l" depth="2" NCoef="0" IVar="6" Cut="-6.1452490091323853e-01" cType="1" res="-4.5745331794023514e-02" rms="4.0824654698371887e-01" purity="3.5423108935356140e-01" nType="0">
            <Node pos="l" depth="3" NCoef="0" IVar="-1" Cut="0.0000000000000000e+00" cType="1" res="-6.1729494482278824e-03" rms="3.7197935581207275e-01" purity="2.3383717238903046e-01" nType="-99"/>
            <Node pos="r" depth="3" NCoef="0" IVar="-1" Cut="0.0000000000000000e+00" cType="1" res="-9.7436323994770646e-04" rms="4.1658386588096619e-01" purity="3.9186903834342957e-01" nType="-99"/>
          </Node>
          <Node pos="r" depth="2" NCoef="0" IVar="-1" Cut="0.0000000000000000e+00" cType="1" res="-1.1235146783292294e-02" rms="2.9155054688453674e-01" purity="1.2420193850994110e-01" nType="-99"/>
        </Node>
      </Node>
    </BinaryTree>
    <BinaryTree type="DecisionTree" boostWeight="1.0000000000000000e+00" itree="165">
      <Node pos="s" depth="0" NCoef="0" IVar="0" Cut="1.4073211669921875e+03" cType="1" res="1.1184691451489925e-02" rms="4.1689708828926086e-01" purity="4.9676793813705444e-01" nType="0">
        <Node pos="l" depth="1" NCoef="0" IVar="2" Cut="2.8068002319335938e+02" cType="1" res="-2.5345854461193085e-02" rms="4.1954734921455383e-01" purity="3.8736391067504883e-01" nType="0">
          <Node pos="l" depth="2" NCoef="0" IVar="0" Cut="1.1470504150390625e+03" cType="1" res="2.4464817717671394e-02" rms="4.3209517002105713e-01" purity="4.8709908127784729e-01" nType="0">
            <Node pos="l" depth="3" NCoef="0" IVar="-1" Cut="0.0000000000000000e+00" cType="1" res="-1.7064828425645828e-03" rms="4.2879575490951538e-01" purity="3.1621059775352478e-01" nType="-99"/>
            <Node pos="r" depth="3" NCoef="0" IVar="-1" Cut="0.0000000000000000e+00" cType="1" res="3.0863967258483171e-03" rms="4.2174556851387024e-01" purity="6.9267898797988892e-01" nType="-99"/>
          </Node>
          <Node pos="r" depth="2" NCoef="0" IVar="9" Cut="1.4666517972946167e+00" cType="1" res="-7.1263127028942108e-02" rms="4.0221065282821655e-01" purity="2.9542446136474609e-01" nType="0">
            <Node pos="l" depth="3" NCoef="0" IVar="-1" Cut="0.0000000000000000e+00" cType="1" res="-2.4597635492682457e-03" rms="4.1164907813072205e-01" purity="3.1604278087615967e-01" nType="-99"/>
            <Node pos="r" depth="3" NCoef="0" IVar="-1" Cut="0.0000000000000000e+00" cType="1" res="-9.2506576329469681e-03" rms="3.0101370811462402e-01" purity="1.3618302345275879e-01" nType="-99"/>
          </Node>
        </Node>
        <Node pos="r" depth="1" NCoef="0" IVar="2" Cut="4.9199591064453125e+02" cType="1" res="5.3333479911088943e-02" rms="4.0979167819023132e-01" purity="6.2299787998199463e-01" nType="0">
          <Node pos="l" depth="2" NCoef="0" IVar="3" Cut="2.9110214233398438e+02" cType="1" res="1.0921029746532440e-01" rms="3.8209766149520874e-01" purity="7.4345725774765015e-01" nType="0">
            <Node pos="l" depth="3" NCoef="0" IVar="-1" Cut="0.0000000000000000e+00" cType="1" res="4.4996463693678379e-03" rms="3.5838595032691956e-01" purity="7.9585832357406616e-01" nType="-99"/>
            <Node pos="r" depth="3" NCoef="0" IVar="-1" Cut="0.0000000000000000e+00" cType="1" res="2.2988957061897963e-04" rms="4.3342870473861694e-01" purity="5.7681286334991455e-01" nType="-99"/>
          </Node>
          <Node pos="r" depth="2" NCoef="0" IVar="1" Cut="6.8551501464843750e+02" cType="1" res="-4.1973438113927841e-02" rms="4.3695139884948730e-01" purity="4.1753497719764709e-01" nType="0">
            <Node pos="l" depth="3" NCoef="0" IVar="-1" Cut="0.0000000000000000e+00" cType="1" res="-3.5159867256879807e-03" rms="4.2899584770202637e-01" purity="3.5946819186210632e-01" nType="-99"/>
            <Node pos="r" depth="3" NCoef="0" IVar="-1" Cut="0.0000000000000000e+00" cType="1" res="2.6478739455342293e-03" rms="4.4679600000381470e-01" purity="6.6195982694625854e-01" nType="-99"/>
          </Node>
        </Node>
      </Node>
    </BinaryTree>
    <BinaryTree type="DecisionTree" boostWeight="1.0000000000000000e+00" itree="166">
      <Node pos="s" depth="0" NCoef="0" IVar="0" Cut="1.4401011962890625e+03" cType="1" res="1.7626401036977768e-02" rms="4.1847541928291321e-01" purity="5.0326824188232422e-01" nType="0">
        <Node pos="l" depth="1" NCoef="0" IVar="2" Cut="2.8263143920898438e+02" cType="1" res="-1.7209755256772041e-02" rms="4.2236298322677612e-01" purity="4.0269994735717773e-01" nType="0">
          <Node pos="l" depth="2" NCoef="0" IVar="0" Cut="1.1657929687500000e+03" cType="1" res="3.3304318785667419e-02" rms="4.3372502923011780e-01" purity="5.0260865688323975e-01" nType="0">
            <Node pos="l" depth="3" NCoef="0" IVar="-1" Cut="0.0000000000000000e+00" cType="1" res="-7.8624015441164374e-04" rms="4.3778312206268311e-01" purity="3.4704831242561340e-01" nType="-99"/>
            <Node pos="r" depth="3" NCoef="0" IVar="-1" Cut="0.0000000000000000e+00" cType="1" res="3.0890197958797216e-03" rms="4.1718745231628418e-01" purity="7.0904403924942017e-01" nType="-99"/>
          </Node>
          <Node pos="r" depth="2" NCoef="0" IVar="1" Cut="3.4436535644531250e+02" cType="1" res="-6.4858578145503998e-02" rms="4.0563279390335083e-01" purity="3.0845829844474792e-01" nType="0">
            <Node pos="l" depth="3" NCoef="0" IVar="-1" Cut="0.0000000000000000e+00" cType="1" res="-5.6684669107198715e-03" rms="3.6470139026641846e-01" purity="2.1773469448089600e-01" nType="-99"/>
            <Node pos="r" depth="3" NCoef="0" IVar="-1" Cut="0.0000000000000000e+00" cType="1" res="-1.4281235635280609e-03" rms="4.2592915892601013e-01" purity="3.6339473724365234e-01" nType="-99"/>
          </Node>
        </Node>
        <Node pos="r" depth="1" NCoef="0" IVar="2" Cut="5.0814547729492188e+02" cType="1" res="6.3441477715969086e-02" rms="4.0881240367889404e-01" purity="6.3553142547607422e-01" nType="0">
          <Node pos="l" depth="2" NCoef="0" IVar="3" Cut="2.8233654785156250e+02" cType="1" res="1.1548867821693420e-01" rms="3.7895032763481140e-01" purity="7.4943256378173828e-01" nType="0">
            <Node pos="l" depth="3" NCoef="0" IVar="-1" Cut="0.0000000000000000e+00" cType="1" res="4.7437213361263275e-03" rms="3.4778359532356262e-01" purity="8.1186687946319580e-01" nType="-99"/>
            <Node pos="r" depth="3" NCoef="0" IVar="-1" Cut="0.0000000000000000e+00" cType="1" res="9.0845010709017515e-04" rms="4.3054896593093872e-01" purity="6.0194569826126099e-01" nType="-99"/>
          </Node>
          <Node pos="r" depth="2" NCoef="0" IVar="1" Cut="5.7280261230468750e+02" cType="1" res="-2.9127854853868484e-02" rms="4.4224420189857483e-01" purity="4.3295085430145264e-01" nType="0">
            <Node pos="l" depth="3" NCoef="0" IVar="-1" Cut="0.0000000000000000e+00" cType="1" res="-1.6401942120864987e-03" rms="4.2374536395072937e-01" purity="3.1679531931877136e-01" nType="-99"/>
            <Node pos="r" depth="3" NCoef="0" IVar="-1" Cut="0.0000000000000000e+00" cType="1" res="2.1958197467029095e-03" rms="4.5545354485511780e-01" purity="6.3366305828094482e-01" nType="-99"/>
          </Node>
        </Node>
      </Node>
    </BinaryTree>
    <BinaryTree type="DecisionTree" boostWeight="1.0000000000000000e+00" itree="167">
      <Node pos="s" depth="0" NCoef="0" IVar="7" Cut="-9.3329852819442749e-01" cType="1" res="1.5707714483141899e-02" rms="4.1672268509864807e-01" purity="5.0374245643615723e-01" nType="0">
        <Node pos="l" depth="1" NCoef="0" IVar="7" Cut="-1.7333323955535889e+00" cType="1" res="-7.0224255323410034e-02" rms="3.9241114258766174e-01" purity="3.1693410873413086e-01" nType="0">
          <Node pos="l" depth="2" NCoef="0" IVar="7" Cut="-2.0888745784759521e+00" cType="1" res="-1.4151319861412048e-01" rms="3.2421669363975525e-01" purity="1.6370370984077454e-01" nType="0">
            <Node pos="l" depth="3" NCoef="0" IVar="-1" Cut="0.0000000000000000e+00" cType="1" res="-1.0016376152634621e-02" rms="3.1055480241775513e-01" purity="1.3984641432762146e-01" nType="-99"/>
            <Node pos="r" depth="3" NCoef="0" IVar="-1" Cut="0.0000000000000000e+00" cType="1" res="-6.3011897727847099e-03" rms="3.3594170212745667e-01" purity="1.8628633022308350e-01" nType="-99"/>
          </Node>
          <Node pos="r" depth="2" NCoef="0" IVar="2" Cut="3.0933056640625000e+02" cType="1" res="-4.0374781936407089e-02" rms="4.1404107213020325e-01" purity="3.8109344244003296e-01" nType="0">
            <Node pos="l" depth="3" NCoef="0" IVar="-1" Cut="0.0000000000000000e+00" cType="1" res="3.2120995456352830e-04" rms="4.2490699887275696e-01" purity="4.5765459537506104e-01" nType="-99"/>
            <Node pos="r" depth="3" NCoef="0" IVar="-1" Cut="0.0000000000000000e+00" cType="1" res="-3.6841318942606449e-03" rms="4.0233644843101501e-01" purity="3.2603254914283752e-01" nType="-99"/>
          </Node>
        </Node>
        <Node pos="r" depth="1" NCoef="0" IVar="7" Cut="8.4446096420288086e-01" cType="1" res="3.3914264291524887e-02" rms="4.1943961381912231e-01" purity="5.4332190752029419e-01" nType="0">
          <Node pos="l" depth="2" NCoef="0" IVar="6" Cut="6.8671059608459473e-01" cType="1" res="6.0363046824932098e-02" rms="4.2045730352401733e-01" purity="6.0421109199523926e-01" nType="0">
            <Node pos="l" depth="3" NCoef="0" IVar="-1" Cut="0.0000000000000000e+00" cType="1" res="2.5842185132205486e-03" rms="4.1551566123962402e-01" purity="6.4266222715377808e-01" nType="-99"/>
            <Node pos="r" depth="3" NCoef="0" IVar="-1" Cut="0.0000000000000000e+00" cType="1" res="-8.2766177365556359e-04" rms="4.2927014827728271e-01" purity="4.5502930879592896e-01" nType="-99"/>
          </Node>
          <Node pos="r" depth="2" NCoef="0" IVar="7" Cut="1.5894255638122559e+00" cType="1" res="-5.4700050503015518e-02" rms="4.0357097983360291e-01" purity="3.3931782841682434e-01" nType="0">
            <Node pos="l" depth="3" NCoef="0" IVar="-1" Cut="0.0000000000000000e+00" cType="1" res="-9.5400761347264051e-04" rms="4.2716592550277710e-01" purity="4.1696736216545105e-01" nType="-99"/>
            <Node pos="r" depth="3" NCoef="0" IVar="-1" Cut="0.0000000000000000e+00" cType="1" res="-7.5389342382550240e-03" rms="3.4139063954353333e-01" purity="1.7978025972843170e-01" nType="-99"/>
          </Node>
        </Node>
      </Node>
    </BinaryTree>
    <BinaryTree type="DecisionTree" boostWeight="1.0000000000000000e+00" itree="168">
      <Node pos="s" depth="0" NCoef="0" IVar="0" Cut="1.4570075683593750e+03" cType="1" res="1.1367108672857285e-02" rms="4.1666737198829651e-01" purity="4.9664616584777832e-01" nType="0">
        <Node pos="l" depth="1" NCoef="0" IVar="2" Cut="2.8752328491210938e+02" cType="1" res="-2.2402707487344742e-02" rms="4.1955810785293579e-01" purity="3.9979436993598938e-01" nType="0">
          <Node pos="l" depth="2" NCoef="0" IVar="0" Cut="1.1754320068359375e+03" cType="1" res="2.8840420767664909e-02" rms="4.3175706267356873e-01" purity="5.0283056497573853e-01" nType="0">
            <Node pos="l" depth="3" NCoef="0" IVar="-1" Cut="0.0000000000000000e+00" cType="1" res="-1.0727926855906844e-03" rms="4.3757301568984985e-01" purity="3.4032413363456726e-01" nType="-99"/>
            <Node pos="r" depth="3" NCoef="0" IVar="-1" Cut="0.0000000000000000e+00" cType="1" res="3.0459607951343060e-03" rms="4.1145879030227661e-01" purity="7.1761983633041382e-01" nType="-99"/>
          </Node>
          <Node pos="r" depth="2" NCoef="0" IVar="6" Cut="-8.5744976997375488e-01" cType="1" res="-7.1374192833900452e-02" rms="4.0149295330047607e-01" purity="3.0132588744163513e-01" nType="0">
            <Node pos="l" depth="3" NCoef="0" IVar="-1" Cut="0.0000000000000000e+00" cType="1" res="-8.0112218856811523e-03" rms="3.3188548684120178e-01" purity="1.5815186500549316e-01" nType="-99"/>
            <Node pos="r" depth="3" NCoef="0" IVar="-1" Cut="0.0000000000000000e+00" cType="1" res="-2.2167284041643143e-03" rms="4.1567316651344299e-01" purity="3.3743378520011902e-01" nType="-99"/>
          </Node>
        </Node>
        <Node pos="r" depth="1" NCoef="0" IVar="2" Cut="5.4267517089843750e+02" cType="1" res="5.9831302613019943e-02" rms="4.0762379765510559e-01" purity="6.3564133644104004e-01" nType="0">
          <Node pos="l" depth="2" NCoef="0" IVar="3" Cut="2.6705639648437500e+02" cType="1" res="1.0719107836484909e-01" rms="3.8394922018051147e-01" purity="7.3322474956512451e-01" nType="0">
            <Node pos="l" depth="3" NCoef="0" IVar="-1" Cut="0.0000000000000000e+00" cType="1" res="4.6251877211034298e-03" rms="3.4723535180091858e-01" purity="8.0834847688674927e-01" nType="-99"/>
            <Node pos="r" depth="3" NCoef="0" IVar="-1" Cut="0.0000000000000000e+00" cType="1" res="1.4003859832882881e-03" rms="4.2474293708801270e-01" purity="6.1981248855590820e-01" nType="-99"/>
          </Node>
          <Node pos="r" depth="2" NCoef="0" IVar="1" Cut="6.0599523925781250e+02" cType="1" res="-4.6075727790594101e-02" rms="4.3798664212226868e-01" purity="4.1742309927940369e-01" nType="0">
            <Node pos="l" depth="3" NCoef="0" IVar="-1" Cut="0.0000000000000000e+00" cType="1" res="-5.0844131037592888e-03" rms="4.1784361004829407e-01" purity="3.1740778684616089e-01" nType="-99"/>
            <Node pos="r" depth="3" NCoef="0" IVar="-1" Cut="0.0000000000000000e+00" cType="1" res="1.5928361099213362e-03" rms="4.6050071716308594e-01" purity="6.1660164594650269e-01" nType="-99"/>
          </Node>
        </Node>
      </Node>
    </BinaryTree>
    <BinaryTree type="DecisionTree" boostWeight="1.0000000000000000e+00" itree="169">
      <Node pos="s" depth="0" NCoef="0" IVar="9" Cut="1.2000054121017456e+00" cType="1" res="1.2897598557174206e-02" rms="4.1894936561584473e-01" purity="4.9722570180892944e-01" nType="0">
        <Node pos="l" depth="1" NCoef="0" IVar="9" Cut="-1.2761317491531372e+00" cType="1" res="2.9496897011995316e-02" rms="4.2007443308830261e-01" purity="5.2479004859924316e-01" nType="0">
          <Node pos="l" depth="2" NCoef="0" IVar="6" Cut="4.3415665626525879e-01" cType="1" res="-6.8880565464496613e-02" rms="4.0110644698143005e-01" purity="3.4250375628471375e-01" nType="0">
            <Node pos="l" depth="3" NCoef="0" IVar="-1" Cut="0.0000000000000000e+00" cType="1" res="-1.8097851425409317e-03" rms="4.0890574455261230e-01" purity="3.8216039538383484e-01" nType="-99"/>
            <Node pos="r" depth="3" NCoef="0" IVar="-1" Cut="0.0000000000000000e+00" cType="1" res="-7.4922852218151093e-03" rms="3.7174466252326965e-01" purity="2.4034792184829712e-01" nType="-99"/>
          </Node>
          <Node pos="r" depth="2" NCoef="0" IVar="0" Cut="1.1904589843750000e+03" cType="1" res="4.7203138470649719e-02" rms="4.2096382379531860e-01" purity="5.5759835243225098e-01" nType="0">
            <Node pos="l" depth="3" NCoef="0" IVar="-1" Cut="0.0000000000000000e+00" cType="1" res="-4.3822167208418250e-04" rms="4.3819105625152588e-01" purity="3.4685581922531128e-01" nType="-99"/>
            <Node pos="r" depth="3" NCoef="0" IVar="-1" Cut="0.0000000000000000e+00" cType="1" res="2.2781570442020893e-03" rms="4.1280534863471985e-01" purity="6.3035500049591064e-01" nType="-99"/>
          </Node>
        </Node>
        <Node pos="r" depth="1" NCoef="0" IVar="9" Cut="1.6571550369262695e+00" cType="1" res="-8.7669469416141510e-02" rms="3.9751303195953369e-01" purity="3.3022716641426086e-01" nType="0">
          <Node pos="l" depth="2" NCoef="0" IVar="6" Cut="4.3060678243637085e-01" cType="1" res="-5.0664480775594711e-02" rms="4.1806238889694214e-01" purity="4.0419158339500427e-01" nType="0">
            <Node pos="l" depth="3" NCoef="0" IVar="-1" Cut="0.0000000000000000e+00" cType="1" res="-1.0415882570669055e-03" rms="4.2776447534561157e-01" purity="4.5040374994277954e-01" nType="-99"/>
            <Node pos="r" depth="3" NCoef="0" IVar="-1" Cut="0.0000000000000000e+00" cType="1" res="-4.1564013808965683e-03" rms="3.9889559149742126e-01" purity="3.2994860410690308e-01" nType="-99"/>
          </Node>
          <Node pos="r" depth="2" NCoef="0" IVar="9" Cut="1.9836748838424683e+00" cType="1" res="-1.2277022749185562e-01" rms="3.7361547350883484e-01" purity="2.6006886363029480e-01" nType="0">
            <Node pos="l" depth="3" NCoef="0" IVar="-1" Cut="0.0000000000000000e+00" cType="1" res="-4.0445527993142605e-03" rms="3.8562816381454468e-01" purity="3.1005829572677612e-01" nType="-99"/>
            <Node pos="r" depth="3" NCoef="0" IVar="-1" Cut="0.0000000000000000e+00" cType="1" res="-7.8616179525852203e-03" rms="3.6247351765632629e-01" purity="2.2047854959964752e-01" nType="-99"/>
          </Node>
        </Node>
      </Node>
    </BinaryTree>
    <BinaryTree type="DecisionTree" boostWeight="1.0000000000000000e+00" itree="170">
      <Node pos="s" depth="0" NCoef="0" IVar="7" Cut="1.2000970840454102e+00" cType="1" res="1.9908558577299118e-02" rms="4.1682472825050354e-01" purity="5.0560241937637329e-01" nType="0">
        <Node pos="l" depth="1" NCoef="0" IVar="7" Cut="-1.0854629278182983e+00" cType="1" res="3.3574491739273071e-02" rms="4.2014399170875549e-01" purity="5.3952854871749878e-01" nType="0">
          <Node pos="l" depth="2" NCoef="0" IVar="3" Cut="2.4076377868652344e+02" cType="1" res="-6.8290889263153076e-02" rms="3.9010980725288391e-01" purity="2.9225119948387146e-01" nType="0">
            <Node pos="l" depth="3" NCoef="0" IVar="-1" Cut="0.0000000000000000e+00" cType="1" res="-1.9031694391742349e-03" rms="3.9113506674766541e-01" purity="3.0281069874763489e-01" nType="-99"/>
            <Node pos="r" depth="3" NCoef="0" IVar="-1" Cut="0.0000000000000000e+00" cType="1" res="-9.3187233433127403e-03" rms="3.7451320886611938e-01" purity="2.5844562053680420e-01" nType="-99"/>
          </Node>
          <Node pos="r" depth="2" NCoef="0" IVar="8" Cut="1.1999346017837524e+00" cType="1" res="5.2757397294044495e-02" rms="4.2282578349113464e-01" purity="5.8609491586685181e-01" nType="0">
            <Node pos="l" depth="3" NCoef="0" IVar="-1" Cut="0.0000000000000000e+00" cType="1" res="2.1522815804928541e-03" rms="4.2034181952476501e-01" purity="6.1468672752380371e-01" nType="-99"/>
            <Node pos="r" depth="3" NCoef="0" IVar="-1" Cut="0.0000000000000000e+00" cType="1" res="-2.3293984122574329e-03" rms="4.2640760540962219e-01" purity="3.6703684926033020e-01" nType="-99"/>
          </Node>
        </Node>
        <Node pos="r" depth="1" NCoef="0" IVar="3" Cut="2.1703042602539062e+02" cType="1" res="-7.9784192144870758e-02" rms="3.7706175446510315e-01" purity="2.5811165571212769e-01" nType="0">
          <Node pos="l" depth="2" NCoef="0" IVar="0" Cut="1.2408308105468750e+03" cType="1" res="-5.2943442016839981e-02" rms="3.7754997611045837e-01" purity="2.6039528846740723e-01" nType="0">
            <Node pos="l" depth="3" NCoef="0" IVar="-1" Cut="0.0000000000000000e+00" cType="1" res="-5.9871459379792213e-03" rms="3.3629062771797180e-01" purity="1.5404525399208069e-01" nType="-99"/>
            <Node pos="r" depth="3" NCoef="0" IVar="-1" Cut="0.0000000000000000e+00" cType="1" res="9.1152891400270164e-05" rms="4.2222154140472412e-01" purity="4.0830245614051819e-01" nType="-99"/>
          </Node>
          <Node pos="r" depth="2" NCoef="0" IVar="-1" Cut="0.0000000000000000e+00" cType="1" res="-7.4661951512098312e-03" rms="3.7023076415061951e-01" purity="2.5351837277412415e-01" nType="-99"/>
        </Node>
      </Node>
    </BinaryTree>
    <BinaryTree type="DecisionTree" boostWeight="1.0000000000000000e+00" itree="171">
      <Node pos="s" depth="0" NCoef="0" IVar="6" Cut="9.4154334068298340e-01" cType="1" res="1.1223901063203812e-02" rms="4.1498237848281860e-01" purity="4.9753296375274658e-01" nType="0">
        <Node pos="l" depth="1" NCoef="0" IVar="6" Cut="-1.0050772428512573e+00" cType="1" res="2.7408959344029427e-02" rms="4.1694831848144531e-01" purity="5.3366214036941528e-01" nType="0">
          <Node pos="l" depth="2" NCoef="0" IVar="8" Cut="9.3340069055557251e-01" cType="1" res="-7.1612097322940826e-02" rms="3.9074334502220154e-01" purity="3.0113178491592407e-01" nType="0">
            <Node pos="l" depth="3" NCoef="0" IVar="-1" Cut="0.0000000000000000e+00" cType="1" res="-2.3915127385407686e-03" rms="4.0038603544235229e-01" purity="3.3419615030288696e-01" nType="-99"/>
            <Node pos="r" depth="3" NCoef="0" IVar="-1" Cut="0.0000000000000000e+00" cType="1" res="-9.5478957518935204e-03" rms="3.3385789394378662e-01" purity="1.5566796064376831e-01" nType="-99"/>
          </Node>
          <Node pos="r" depth="2" NCoef="0" IVar="2" Cut="3.7131823730468750e+02" cType="1" res="4.7698490321636200e-02" rms="4.1923975944519043e-01" purity="5.8130788803100586e-01" nType="0">
            <Node pos="l" depth="3" NCoef="0" IVar="-1" Cut="0.0000000000000000e+00" cType="1" res="2.5296045932918787e-03" rms="4.0805041790008545e-01" purity="6.4673840999603271e-01" nType="-99"/>
            <Node pos="r" depth="3" NCoef="0" IVar="-1" Cut="0.0000000000000000e+00" cType="1" res="-2.0433115423657000e-05" rms="4.3064272403717041e-01" purity="4.8465955257415771e-01" nType="-99"/>
          </Node>
        </Node>
        <Node pos="r" depth="1" NCoef="0" IVar="6" Cut="1.5609260797500610e+00" cType="1" res="-7.4607118964195251e-02" rms="3.9342212677001953e-01" purity="3.0593633651733398e-01" nType="0">
          <Node pos="l" depth="2" NCoef="0" IVar="0" Cut="1.5045092773437500e+03" cType="1" res="-4.1780501604080200e-02" rms="4.1545563936233521e-01" purity="3.6856424808502197e-01" nType="0">
            <Node pos="l" depth="3" NCoef="0" IVar="-1" Cut="0.0000000000000000e+00" cType="1" res="-3.0052938964217901e-03" rms="4.0113383531570435e-01" purity="2.8783297538757324e-01" nType="-99"/>
            <Node pos="r" depth="3" NCoef="0" IVar="-1" Cut="0.0000000000000000e+00" cType="1" res="2.9584634467028081e-04" rms="4.3718695640563965e-01" purity="5.2196234464645386e-01" nType="-99"/>
          </Node>
          <Node pos="r" depth="2" NCoef="0" IVar="9" Cut="1.3334433734416962e-01" cType="1" res="-1.3269577920436859e-01" rms="3.4345600008964539e-01" purity="1.9511255621910095e-01" nType="0">
            <Node pos="l" depth="3" NCoef="0" IVar="-1" Cut="0.0000000000000000e+00" cType="1" res="-5.5261352099478245e-03" rms="3.6308836936950684e-01" purity="2.3209244012832642e-01" nType="-99"/>
            <Node pos="r" depth="3" NCoef="0" IVar="-1" Cut="0.0000000000000000e+00" cType="1" res="-9.6768625080585480e-03" rms="3.1864726543426514e-01" purity="1.5610198676586151e-01" nType="-99"/>
          </Node>
        </Node>
      </Node>
    </BinaryTree>
    <BinaryTree type="DecisionTree" boostWeight="1.0000000000000000e+00" itree="172">
      <Node pos="s" depth="0" NCoef="0" IVar="8" Cut="-1.2000033855438232e+00" cType="1" res="1.5123164281249046e-02" rms="4.1457784175872803e-01" purity="5.0124639272689819e-01" nType="0">
        <Node pos="l" depth="1" NCoef="0" IVar="8" Cut="-2.1142878532409668e+00" cType="1" res="-8.2549490034580231e-02" rms="3.8814073801040649e-01" purity="2.8903254866600037e-01" nType="0">
          <Node pos="l" depth="2" NCoef="0" IVar="-1" Cut="0.0000000000000000e+00" cType="1" res="-8.0637298524379730e-03" rms="3.2550397515296936e-01" purity="1.5111298859119415e-01" nType="-99"/>
          <Node pos="r" depth="2" NCoef="0" IVar="6" Cut="4.2436423897743225e-01" cType="1" res="-6.0759294778108597e-02" rms="4.0172711014747620e-01" purity="3.2870194315910339e-01" nType="0">
            <Node pos="l" depth="3" NCoef="0" IVar="-1" Cut="0.0000000000000000e+00" cType="1" res="-1.7637129640206695e-03" rms="4.1304299235343933e-01" purity="3.6140727996826172e-01" nType="-99"/>
            <Node pos="r" depth="3" NCoef="0" IVar="-1" Cut="0.0000000000000000e+00" cType="1" res="-6.8180668167769909e-03" rms="3.6715757846832275e-01" purity="2.4856269359588623e-01" nType="-99"/>
          </Node>
        </Node>
        <Node pos="r" depth="1" NCoef="0" IVar="8" Cut="1.0856993198394775e+00" cType="1" res="2.9635772109031677e-02" rms="4.1641309857368469e-01" purity="5.3277796506881714e-01" nType="0">
          <Node pos="l" depth="2" NCoef="0" IVar="5" Cut="8.0318153381347656e+01" cType="1" res="4.8795871436595917e-02" rms="4.1664835810661316e-01" purity="5.7746249437332153e-01" nType="0">
            <Node pos="l" depth="3" NCoef="0" IVar="-1" Cut="0.0000000000000000e+00" cType="1" res="-7.6129229273647070e-04" rms="4.2684212327003479e-01" purity="3.2645231485366821e-01" nType="-99"/>
            <Node pos="r" depth="3" NCoef="0" IVar="-1" Cut="0.0000000000000000e+00" cType="1" res="2.2560646757483482e-03" rms="4.1107219457626343e-01" purity="6.5607124567031860e-01" nType="-99"/>
          </Node>
          <Node pos="r" depth="2" NCoef="0" IVar="2" Cut="4.4430120849609375e+02" cType="1" res="-6.1042938381433487e-02" rms="4.0312817692756653e-01" purity="3.2130044698715210e-01" nType="0">
            <Node pos="l" depth="3" NCoef="0" IVar="-1" Cut="0.0000000000000000e+00" cType="1" res="-1.4777270844206214e-03" rms="4.1344356536865234e-01" purity="3.6166375875473022e-01" nType="-99"/>
            <Node pos="r" depth="3" NCoef="0" IVar="-1" Cut="0.0000000000000000e+00" cType="1" res="-1.0062874294817448e-02" rms="3.6173275113105774e-01" purity="2.0310838520526886e-01" nType="-99"/>
          </Node>
        </Node>
      </Node>
    </BinaryTree>
    <BinaryTree type="DecisionTree" boostWeight="1.0000000000000000e+00" itree="173">
      <Node pos="s" depth="0" NCoef="0" IVar="7" Cut="9.3337219953536987e-01" cType="1" res="1.5967147424817085e-02" rms="4.1537073254585266e-01" purity="5.0196319818496704e-01" nType="0">
        <Node pos="l" depth="1" NCoef="0" IVar="7" Cut="-6.6658866405487061e-01" cType="1" res="3.2811988145112991e-02" rms="4.1857090592384338e-01" purity="5.4093557596206665e-01" nType="0">
          <Node pos="l" depth="2" NCoef="0" IVar="7" Cut="-1.2761093378067017e+00" cType="1" res="-3.7989929318428040e-02" rms="4.0452793240547180e-01" purity="3.8763526082038879e-01" nType="0">
            <Node pos="l" depth="3" NCoef="0" IVar="-1" Cut="0.0000000000000000e+00" cType="1" res="-4.7056591138243675e-03" rms="3.6382865905761719e-01" purity="2.4012973904609680e-01" nType="-99"/>
            <Node pos="r" depth="3" NCoef="0" IVar="-1" Cut="0.0000000000000000e+00" cType="1" res="6.4432992076035589e-05" rms="4.2769280076026917e-01" purity="4.9619361758232117e-01" nType="-99"/>
          </Node>
          <Node pos="r" depth="2" NCoef="0" IVar="6" Cut="1.2017580270767212e+00" cType="1" res="6.3240811228752136e-02" rms="4.2081934213638306e-01" purity="6.0682010650634766e-01" nType="0">
            <Node pos="l" depth="3" NCoef="0" IVar="-1" Cut="0.0000000000000000e+00" cType="1" res="2.0079561509191990e-03" rms="4.1948425769805908e-01" purity="6.3311624526977539e-01" nType="-99"/>
            <Node pos="r" depth="3" NCoef="0" IVar="-1" Cut="0.0000000000000000e+00" cType="1" res="-1.9441260956227779e-03" rms="4.1573399305343628e-01" purity="3.5079196095466614e-01" nType="-99"/>
          </Node>
        </Node>
        <Node pos="r" depth="1" NCoef="0" IVar="1" Cut="4.0337396240234375e+02" cType="1" res="-6.6212244331836700e-02" rms="3.8906982541084290e-01" purity="3.1183192133903503e-01" nType="0">
          <Node pos="l" depth="2" NCoef="0" IVar="3" Cut="1.9389888000488281e+02" cType="1" res="-1.0347290337085724e-01" rms="3.5025081038475037e-01" purity="2.0031715929508209e-01" nType="0">
            <Node pos="l" depth="3" NCoef="0" IVar="-1" Cut="0.0000000000000000e+00" cType="1" res="-3.6730112042278051e-03" rms="3.4823668003082275e-01" purity="2.0181496441364288e-01" nType="-99"/>
            <Node pos="r" depth="3" NCoef="0" IVar="-1" Cut="0.0000000000000000e+00" cType="1" res="-8.4651140496134758e-03" rms="3.4916299581527710e-01" purity="1.9824199378490448e-01" nType="-99"/>
          </Node>
          <Node pos="r" depth="2" NCoef="0" IVar="7" Cut="1.3777868747711182e+00" cType="1" res="-1.8849527463316917e-02" rms="4.2877504229545593e-01" purity="4.5358040928840637e-01" nType="0">
            <Node pos="l" depth="3" NCoef="0" IVar="-1" Cut="0.0000000000000000e+00" cType="1" res="6.2313990201801062e-04" rms="4.2782276868820190e-01" purity="5.4881930351257324e-01" nType="-99"/>
            <Node pos="r" depth="3" NCoef="0" IVar="-1" Cut="0.0000000000000000e+00" cType="1" res="-2.7796318754553795e-03" rms="4.2625659704208374e-01" purity="3.4633165597915649e-01" nType="-99"/>
          </Node>
        </Node>
      </Node>
    </BinaryTree>
    <BinaryTree type="DecisionTree" boostWeight="1.0000000000000000e+00" itree="174">
      <Node pos="s" depth="0" NCoef="0" IVar="6" Cut="-1.1820589303970337e+00" cType="1" res="1.2665672227740288e-02" rms="4.1561666131019592e-01" purity="4.9910825490951538e-01" nType="0">
        <Node pos="l" depth="1" NCoef="0" IVar="7" Cut="4.0018647909164429e-01" cType="1" res="-9.5930576324462891e-02" rms="3.7555474042892456e-01" purity="2.5152006745338440e-01" nType="0">
          <Node pos="l" depth="2" NCoef="0" IVar="7" Cut="-3.6136791110038757e-01" cType="1" res="-6.8009838461875916e-02" rms="3.9577785134315491e-01" purity="2.9933053255081177e-01" nType="0">
            <Node pos="l" depth="3" NCoef="0" IVar="-1" Cut="0.0000000000000000e+00" cType="1" res="-5.6357374414801598e-03" rms="3.6574068665504456e-01" purity="2.2025451064109802e-01" nType="-99"/>
            <Node pos="r" depth="3" NCoef="0" IVar="-1" Cut="0.0000000000000000e+00" cType="1" res="-9.2455702542793006e-05" rms="4.2879351973533630e-01" purity="4.1808873414993286e-01" nType="-99"/>
          </Node>
          <Node pos="r" depth="2" NCoef="0" IVar="-1" Cut="0.0000000000000000e+00" cType="1" res="-1.0354832746088505e-02" rms="3.2192662358283997e-01" purity="1.5215939283370972e-01" nType="-99"/>
        </Node>
        <Node pos="r" depth="1" NCoef="0" IVar="6" Cut="9.0358668565750122e-01" cType="1" res="2.5829117745161057e-02" rms="4.1830182075500488e-01" purity="5.2911949157714844e-01" nType="0">
          <Node pos="l" depth="2" NCoef="0" IVar="2" Cut="3.4025875854492188e+02" cType="1" res="4.7251366078853607e-02" rms="4.2001298069953918e-01" purity="5.7892483472824097e-01" nType="0">
            <Node pos="l" depth="3" NCoef="0" IVar="-1" Cut="0.0000000000000000e+00" cType="1" res="2.7504987083375454e-03" rms="4.0646994113922119e-01" purity="6.5522116422653198e-01" nType="-99"/>
            <Node pos="r" depth="3" NCoef="0" IVar="-1" Cut="0.0000000000000000e+00" cType="1" res="8.1896898336708546e-05" rms="4.3000522255897522e-01" purity="4.9547502398490906e-01" nType="-99"/>
          </Node>
          <Node pos="r" depth="2" NCoef="0" IVar="8" Cut="-6.6705310344696045e-01" cType="1" res="-6.5569207072257996e-02" rms="3.9817652106285095e-01" purity="3.1662461161613464e-01" nType="0">
            <Node pos="l" depth="3" NCoef="0" IVar="-1" Cut="0.0000000000000000e+00" cType="1" res="-8.9086359366774559e-03" rms="3.3431869745254517e-01" purity="1.8544359505176544e-01" nType="-99"/>
            <Node pos="r" depth="3" NCoef="0" IVar="-1" Cut="0.0000000000000000e+00" cType="1" res="-1.5533254481852055e-03" rms="4.1278547048568726e-01" purity="3.5914933681488037e-01" nType="-99"/>
          </Node>
        </Node>
      </Node>
    </BinaryTree>
    <BinaryTree type="DecisionTree" boostWeight="1.0000000000000000e+00" itree="175">
      <Node pos="s" depth="0" NCoef="0" IVar="9" Cut="-1.1999410390853882e+00" cType="1" res="1.7437217757105827e-02" rms="4.1542705893516541e-01" purity="5.0548243522644043e-01" nType="0">
        <Node pos="l" depth="1" NCoef="0" IVar="9" Cut="-1.7332694530487061e+00" cType="1" res="-7.6879441738128662e-02" rms="3.9558178186416626e-01" purity="3.3686822652816772e-01" nType="0">
          <Node pos="l" depth="2" NCoef="0" IVar="9" Cut="-2.1904363632202148e+00" cType="1" res="-1.2369219958782196e-01" rms="3.7061196565628052e-01" purity="2.4536509811878204e-01" nType="0">
            <Node pos="l" depth="3" NCoef="0" IVar="-1" Cut="0.0000000000000000e+00" cType="1" res="-8.9426273480057716e-03" rms="3.5434156656265259e-01" purity="1.9344685971736908e-01" nType="-99"/>
            <Node pos="r" depth="3" NCoef="0" IVar="-1" Cut="0.0000000000000000e+00" cType="1" res="-4.8714149743318558e-03" rms="3.8027191162109375e-01" purity="2.8108450770378113e-01" nType="-99"/>
          </Node>
          <Node pos="r" depth="2" NCoef="0" IVar="8" Cut="-6.6764110326766968e-01" cType="1" res="-3.7780657410621643e-02" rms="4.1122385859489441e-01" purity="4.1329312324523926e-01" nType="0">
            <Node pos="l" depth="3" NCoef="0" IVar="-1" Cut="0.0000000000000000e+00" cType="1" res="-4.2705242522060871e-03" rms="3.9405652880668640e-01" purity="3.3324417471885681e-01" nType="-99"/>
            <Node pos="r" depth="3" NCoef="0" IVar="-1" Cut="0.0000000000000000e+00" cType="1" res="-4.1857131873257458e-04" rms="4.1742631793022156e-01" purity="4.5576110482215881e-01" nType="-99"/>
          </Node>
        </Node>
        <Node pos="r" depth="1" NCoef="0" IVar="9" Cut="1.0857359170913696e+00" cType="1" res="3.2460745424032211e-02" rms="4.1653409600257874e-01" purity="5.3234070539474487e-01" nType="0">
          <Node pos="l" depth="2" NCoef="0" IVar="0" Cut="1.1904844970703125e+03" cType="1" res="5.5051229894161224e-02" rms="4.1678664088249207e-01" purity="5.7121205329895020e-01" nType="0">
            <Node pos="l" depth="3" NCoef="0" IVar="-1" Cut="0.0000000000000000e+00" cType="1" res="-3.4760500420816243e-04" rms="4.3789407610893250e-01" purity="3.5053125023841858e-01" nType="-99"/>
            <Node pos="r" depth="3" NCoef="0" IVar="-1" Cut="0.0000000000000000e+00" cType="1" res="2.5189958978444338e-03" rms="4.0713119506835938e-01" purity="6.4531606435775757e-01" nType="-99"/>
          </Node>
          <Node pos="r" depth="2" NCoef="0" IVar="2" Cut="4.4429418945312500e+02" cType="1" res="-6.3372723758220673e-02" rms="4.0157052874565125e-01" purity="3.6744022369384766e-01" nType="0">
            <Node pos="l" depth="3" NCoef="0" IVar="-1" Cut="0.0000000000000000e+00" cType="1" res="-1.4119187835603952e-03" rms="4.0780264139175415e-01" purity="4.1386196017265320e-01" nType="-99"/>
            <Node pos="r" depth="3" NCoef="0" IVar="-1" Cut="0.0000000000000000e+00" cType="1" res="-8.8380677625536919e-03" rms="3.7097981572151184e-01" purity="2.2922074794769287e-01" nType="-99"/>
          </Node>
        </Node>
      </Node>
    </BinaryTree>
    <BinaryTree type="DecisionTree" boostWeight="1.0000000000000000e+00" itree="176">
      <Node pos="s" depth="0" NCoef="0" IVar="7" Cut="-9.3334174156188965e-01" cType="1" res="1.0741612873971462e-02" rms="4.1615521907806396e-01" purity="4.9657174944877625e-01" nType="0">
        <Node pos="l" depth="1" NCoef="0" IVar="7" Cut="-1.7332874536514282e+00" cType="1" res="-7.0820406079292297e-02" rms="3.9052456617355347e-01" purity="3.1049972772598267e-01" nType="0">
          <Node pos="l" depth="2" NCoef="0" IVar="9" Cut="-1.3244116306304932e-01" cType="1" res="-1.3679736852645874e-01" rms="3.2303687930107117e-01" purity="1.6011790931224823e-01" nType="0">
            <Node pos="l" depth="3" NCoef="0" IVar="-1" Cut="0.0000000000000000e+00" cType="1" res="-8.4259528666734695e-03" rms="2.9083916544914246e-01" purity="1.2888559699058533e-01" nType="-99"/>
            <Node pos="r" depth="3" NCoef="0" IVar="-1" Cut="0.0000000000000000e+00" cType="1" res="-6.2966104596853256e-03" rms="3.5296615958213806e-01" purity="1.9336721301078796e-01" nType="-99"/>
          </Node>
          <Node pos="r" depth="2" NCoef="0" IVar="6" Cut="7.2090494632720947e-01" cType="1" res="-4.2496889829635620e-02" rms="4.1293081641197205e-01" purity="3.7505772709846497e-01" nType="0">
            <Node pos="l" depth="3" NCoef="0" IVar="-1" Cut="0.0000000000000000e+00" cType="1" res="-8.0866954522207379e-04" rms="4.2055153846740723e-01" purity="4.1743969917297363e-01" nType="-99"/>
            <Node pos="r" depth="3" NCoef="0" IVar="-1" Cut="0.0000000000000000e+00" cType="1" res="-7.1666724979877472e-03" rms="3.7169989943504333e-01" purity="2.2032685577869415e-01" nType="-99"/>
          </Node>
        </Node>
        <Node pos="r" depth="1" NCoef="0" IVar="7" Cut="8.4430289268493652e-01" cType="1" res="2.7751518413424492e-02" rms="4.1930946707725525e-01" purity="5.3537744283676147e-01" nType="0">
          <Node pos="l" depth="2" NCoef="0" IVar="6" Cut="-1.1920300722122192e+00" cType="1" res="5.2694663405418396e-02" rms="4.2222315073013306e-01" purity="5.9720391035079956e-01" nType="0">
            <Node pos="l" depth="3" NCoef="0" IVar="-1" Cut="0.0000000000000000e+00" cType="1" res="-2.4775147903710604e-03" rms="4.2191001772880554e-01" purity="3.5365679860115051e-01" nType="-99"/>
            <Node pos="r" depth="3" NCoef="0" IVar="-1" Cut="0.0000000000000000e+00" cType="1" res="2.0565255545079708e-03" rms="4.2059791088104248e-01" purity="6.2183785438537598e-01" nType="-99"/>
          </Node>
          <Node pos="r" depth="2" NCoef="0" IVar="8" Cut="-9.3283104896545410e-01" cType="1" res="-5.4508406668901443e-02" rms="3.9864221215248108e-01" purity="3.3147990703582764e-01" nType="0">
            <Node pos="l" depth="3" NCoef="0" IVar="-1" Cut="0.0000000000000000e+00" cType="1" res="-7.8483875840902328e-03" rms="3.4313073754310608e-01" purity="1.8563878536224365e-01" nType="-99"/>
            <Node pos="r" depth="3" NCoef="0" IVar="-1" Cut="0.0000000000000000e+00" cType="1" res="-1.6173169715330005e-03" rms="4.0714225172996521e-01" purity="3.6233627796173096e-01" nType="-99"/>
          </Node>
        </Node>
      </Node>
    </BinaryTree>
    <BinaryTree type="DecisionTree" boostWeight="1.0000000000000000e+00" itree="177">
      <Node pos="s" depth="0" NCoef="0" IVar="8" Cut="1.1999675035476685e+00" cType="1" res="1.4127928763628006e-02" rms="4.1523125767707825e-01" purity="4.9923115968704224e-01" nType="0">
        <Node pos="l" depth="1" NCoef="0" IVar="8" Cut="-1.0857247114181519e+00" cType="1" res="2.8152888640761375e-02" rms="4.1674405336380005e-01" purity="5.3088039159774780e-01" nType="0">
          <Node pos="l" depth="2" NCoef="0" IVar="2" Cut="4.3540893554687500e+02" cType="1" res="-6.3897535204887390e-02" rms="3.9690798521041870e-01" purity="3.2359090447425842e-01" nType="0">
            <Node pos="l" depth="3" NCoef="0" IVar="-1" Cut="0.0000000000000000e+00" cType="1" res="-1.8242185469716787e-03" rms="4.0495318174362183e-01" purity="3.6303037405014038e-01" nType="-99"/>
            <Node pos="r" depth="3" NCoef="0" IVar="-1" Cut="0.0000000000000000e+00" cType="1" res="-8.6623365059494972e-03" rms="3.6852991580963135e-01" purity="2.1687538921833038e-01" nType="-99"/>
          </Node>
          <Node pos="r" depth="2" NCoef="0" IVar="6" Cut="-1.4030132293701172e+00" cType="1" res="4.7637749463319778e-02" rms="4.1823288798332214e-01" purity="5.7475864887237549e-01" nType="0">
            <Node pos="l" depth="3" NCoef="0" IVar="-1" Cut="0.0000000000000000e+00" cType="1" res="-4.4258106499910355e-03" rms="3.8678804039955139e-01" purity="2.7901491522789001e-01" nType="-99"/>
            <Node pos="r" depth="3" NCoef="0" IVar="-1" Cut="0.0000000000000000e+00" cType="1" res="1.6266817692667246e-03" rms="4.1846159100532532e-01" purity="5.9460288286209106e-01" nType="-99"/>
          </Node>
        </Node>
        <Node pos="r" depth="1" NCoef="0" IVar="8" Cut="2.0380632877349854e+00" cType="1" res="-8.0043435096740723e-02" rms="3.9214399456977844e-01" purity="2.8672039508819580e-01" nType="0">
          <Node pos="l" depth="2" NCoef="0" IVar="2" Cut="3.2218600463867188e+02" cType="1" res="-5.4554644972085953e-02" rms="4.0871304273605347e-01" purity="3.2826352119445801e-01" nType="0">
            <Node pos="l" depth="3" NCoef="0" IVar="-1" Cut="0.0000000000000000e+00" cType="1" res="-5.0103408284485340e-04" rms="4.2726904153823853e-01" purity="3.9774227142333984e-01" nType="-99"/>
            <Node pos="r" depth="3" NCoef="0" IVar="-1" Cut="0.0000000000000000e+00" cType="1" res="-4.3993350118398666e-03" rms="3.9033645391464233e-01" purity="2.7338382601737976e-01" nType="-99"/>
          </Node>
          <Node pos="r" depth="2" NCoef="0" IVar="-1" Cut="0.0000000000000000e+00" cType="1" res="-1.0719005949795246e-02" rms="3.2320734858512878e-01" purity="1.5811906754970551e-01" nType="-99"/>
        </Node>
      </Node>
    </BinaryTree>
    <BinaryTree type="DecisionTree" boostWeight="1.0000000000000000e+00" itree="178">
      <Node pos="s" depth="0" NCoef="0" IVar="6" Cut="9.4963049888610840e-01" cType="1" res="1.4872046187520027e-02" rms="4.1768676042556763e-01" purity="4.9859794974327087e-01" nType="0">
        <Node pos="l" depth="1" NCoef="0" IVar="6" Cut="-9.8824781179428101e-01" cType="1" res="3.1957782804965973e-02" rms="4.1970181465148926e-01" purity="5.3686314821243286e-01" nType="0">
          <Node pos="l" depth="2" NCoef="0" IVar="1" Cut="5.1024856567382812e+02" cType="1" res="-6.4826503396034241e-02" rms="3.9004358649253845e-01" purity="3.0446580052375793e-01" nType="0">
            <Node pos="l" depth="3" NCoef="0" IVar="-1" Cut="0.0000000000000000e+00" cType="1" res="-4.2665624059736729e-03" rms="3.7443783879280090e-01" purity="2.4932624399662018e-01" nType="-99"/>
            <Node pos="r" depth="3" NCoef="0" IVar="-1" Cut="0.0000000000000000e+00" cType="1" res="7.3092879028990865e-04" rms="4.4770154356956482e-01" purity="5.6824880838394165e-01" nType="-99"/>
          </Node>
          <Node pos="r" depth="2" NCoef="0" IVar="8" Cut="1.7333263158798218e+00" cType="1" res="5.2578743547201157e-02" rms="4.2290115356445312e-01" purity="5.8637797832489014e-01" nType="0">
            <Node pos="l" depth="3" NCoef="0" IVar="-1" Cut="0.0000000000000000e+00" cType="1" res="2.0341482013463974e-03" rms="4.2274111509323120e-01" purity="6.0360586643218994e-01" nType="-99"/>
            <Node pos="r" depth="3" NCoef="0" IVar="-1" Cut="0.0000000000000000e+00" cType="1" res="-5.2826981991529465e-03" rms="3.9322879910469055e-01" purity="2.6492637395858765e-01" nType="-99"/>
          </Node>
        </Node>
        <Node pos="r" depth="1" NCoef="0" IVar="2" Cut="3.0560714721679688e+02" cType="1" res="-7.2477743029594421e-02" rms="3.9587020874023438e-01" purity="3.0296936631202698e-01" nType="0">
          <Node pos="l" depth="2" NCoef="0" IVar="-1" Cut="0.0000000000000000e+00" cType="1" res="-7.8749802196398377e-04" rms="4.1547280550003052e-01" purity="3.6733180284500122e-01" nType="-99"/>
          <Node pos="r" depth="2" NCoef="0" IVar="3" Cut="2.6481680297851562e+02" cType="1" res="-1.0808864235877991e-01" rms="3.7683576345443726e-01" purity="2.5554546713829041e-01" nType="0">
            <Node pos="l" depth="3" NCoef="0" IVar="-1" Cut="0.0000000000000000e+00" cType="1" res="-4.3264552950859070e-03" rms="3.7110841274261475e-01" purity="2.5239047408103943e-01" nType="-99"/>
            <Node pos="r" depth="3" NCoef="0" IVar="-1" Cut="0.0000000000000000e+00" cType="1" res="-1.0542185977101326e-02" rms="3.8521337509155273e-01" purity="2.6302811503410339e-01" nType="-99"/>
          </Node>
        </Node>
      </Node>
    </BinaryTree>
    <BinaryTree type="DecisionTree" boostWeight="1.0000000000000000e+00" itree="179">
      <Node pos="s" depth="0" NCoef="0" IVar="0" Cut="1.4400944824218750e+03" cType="1" res="1.6415297985076904e-02" rms="4.1535168886184692e-01" purity="5.0146329402923584e-01" nType="0">
        <Node pos="l" depth="1" NCoef="0" IVar="2" Cut="2.5508767700195312e+02" cType="1" res="-1.4412443153560162e-02" rms="4.2058187723159790e-01" purity="4.0288800001144409e-01" nType="0">
          <Node pos="l" depth="2" NCoef="0" IVar="0" Cut="1.0743380126953125e+03" cType="1" res="5.5682662874460220e-02" rms="4.3001100420951843e-01" purity="5.2946770191192627e-01" nType="0">
            <Node pos="l" depth="3" NCoef="0" IVar="-1" Cut="0.0000000000000000e+00" cType="1" res="-1.2416223762556911e-03" rms="4.3201613426208496e-01" purity="3.0715069174766541e-01" nType="-99"/>
            <Node pos="r" depth="3" NCoef="0" IVar="-1" Cut="0.0000000000000000e+00" cType="1" res="3.2334534917026758e-03" rms="4.1867297887802124e-01" purity="6.7939913272857666e-01" nType="-99"/>
          </Node>
          <Node pos="r" depth="2" NCoef="0" IVar="6" Cut="9.4984364509582520e-01" cType="1" res="-5.0243243575096130e-02" rms="4.1108870506286621e-01" purity="3.3818379044532776e-01" nType="0">
            <Node pos="l" depth="3" NCoef="0" IVar="-1" Cut="0.0000000000000000e+00" cType="1" res="-1.3545090332627296e-03" rms="4.2252501845359802e-01" purity="3.7648728489875793e-01" nType="-99"/>
            <Node pos="r" depth="3" NCoef="0" IVar="-1" Cut="0.0000000000000000e+00" cType="1" res="-6.8948641419410706e-03" rms="3.4682208299636841e-01" purity="1.6592337191104889e-01" nType="-99"/>
          </Node>
        </Node>
        <Node pos="r" depth="1" NCoef="0" IVar="2" Cut="4.8564788818359375e+02" cType="1" res="5.7654697448015213e-02" rms="4.0459397435188293e-01" purity="6.3333112001419067e-01" nType="0">
          <Node pos="l" depth="2" NCoef="0" IVar="3" Cut="2.7043994140625000e+02" cType="1" res="1.1229983717203140e-01" rms="3.7411466240882874e-01" purity="7.5919777154922485e-01" nType="0">
            <Node pos="l" depth="3" NCoef="0" IVar="-1" Cut="0.0000000000000000e+00" cType="1" res="4.6897483989596367e-03" rms="3.3864104747772217e-01" purity="8.2559901475906372e-01" nType="-99"/>
            <Node pos="r" depth="3" NCoef="0" IVar="-1" Cut="0.0000000000000000e+00" cType="1" res="1.3478173641487956e-03" rms="4.2296686768531799e-01" purity="6.3491928577423096e-01" nType="-99"/>
          </Node>
          <Node pos="r" depth="2" NCoef="0" IVar="1" Cut="7.0921350097656250e+02" cType="1" res="-2.6728963479399681e-02" rms="4.3429902195930481e-01" purity="4.3896639347076416e-01" nType="0">
            <Node pos="l" depth="3" NCoef="0" IVar="-1" Cut="0.0000000000000000e+00" cType="1" res="-2.6886840350925922e-03" rms="4.2894801497459412e-01" purity="3.8149726390838623e-01" nType="-99"/>
            <Node pos="r" depth="3" NCoef="0" IVar="-1" Cut="0.0000000000000000e+00" cType="1" res="3.1086376402527094e-03" rms="4.3166449666023254e-01" purity="6.9495487213134766e-01" nType="-99"/>
          </Node>
        </Node>
      </Node>
    </BinaryTree>
    <BinaryTree type="DecisionTree" boostWeight="1.0000000000000000e+00" itree="180">
      <Node pos="s" depth="0" NCoef="0" IVar="8" Cut="-9.3334823846817017e-01" cType="1" res="1.4874236658215523e-02" rms="4.1495922207832336e-01" purity="5.0112420320510864e-01" nType="0">
        <Node pos="l" depth="1" NCoef="0" IVar="8" Cut="-1.5555734634399414e+00" cType="1" res="-6.5415263175964355e-02" rms="3.9564147591590881e-01" purity="3.4151878952980042e-01" nType="0">
          <Node pos="l" depth="2" NCoef="0" IVar="4" Cut="1.1840039825439453e+02" cType="1" res="-1.1504466831684113e-01" rms="3.5857400298118591e-01" purity="2.1075041592121124e-01" nType="0">
            <Node pos="l" depth="3" NCoef="0" IVar="-1" Cut="0.0000000000000000e+00" cType="1" res="-5.0376034341752529e-03" rms="3.3744543790817261e-01" purity="1.7999863624572754e-01" nType="-99"/>
            <Node pos="r" depth="3" NCoef="0" IVar="-1" Cut="0.0000000000000000e+00" cType="1" res="-8.8435979560017586e-03" rms="3.7442061305046082e-01" purity="2.3901923000812531e-01" nType="-99"/>
          </Node>
          <Node pos="r" depth="2" NCoef="0" IVar="6" Cut="-8.1817817687988281e-01" cType="1" res="-3.2247357070446014e-02" rms="4.1529491543769836e-01" purity="4.2891278862953186e-01" nType="0">
            <Node pos="l" depth="3" NCoef="0" IVar="-1" Cut="0.0000000000000000e+00" cType="1" res="-5.2261268720030785e-03" rms="3.6835226416587830e-01" purity="2.7793720364570618e-01" nType="-99"/>
            <Node pos="r" depth="3" NCoef="0" IVar="-1" Cut="0.0000000000000000e+00" cType="1" res="-3.3424081630073488e-04" rms="4.2558485269546509e-01" purity="4.7405099868774414e-01" nType="-99"/>
          </Node>
        </Node>
        <Node pos="r" depth="1" NCoef="0" IVar="8" Cut="1.1999677419662476e+00" cType="1" res="3.2841492444276810e-02" rms="4.1704905033111572e-01" purity="5.3684085607528687e-01" nType="0">
          <Node pos="l" depth="2" NCoef="0" IVar="9" Cut="9.3332242965698242e-01" cType="1" res="5.1894985139369965e-02" rms="4.1797533631324768e-01" purity="5.8231031894683838e-01" nType="0">
            <Node pos="l" depth="3" NCoef="0" IVar="-1" Cut="0.0000000000000000e+00" cType="1" res="2.2463004570454359e-03" rms="4.1459420323371887e-01" purity="6.1093425750732422e-01" nType="-99"/>
            <Node pos="r" depth="3" NCoef="0" IVar="-1" Cut="0.0000000000000000e+00" cType="1" res="-9.2618382768705487e-04" rms="4.2365258932113647e-01" purity="4.6046620607376099e-01" nType="-99"/>
          </Node>
          <Node pos="r" depth="2" NCoef="0" IVar="8" Cut="2.0380783081054688e+00" cType="1" res="-6.7315682768821716e-02" rms="3.9739692211151123e-01" purity="2.9782477021217346e-01" nType="0">
            <Node pos="l" depth="3" NCoef="0" IVar="-1" Cut="0.0000000000000000e+00" cType="1" res="-2.0268857479095459e-03" rms="4.1300964355468750e-01" purity="3.3902052044868469e-01" nType="-99"/>
            <Node pos="r" depth="3" NCoef="0" IVar="-1" Cut="0.0000000000000000e+00" cType="1" res="-9.2828348278999329e-03" rms="3.3116683363914490e-01" purity="1.6290515661239624e-01" nType="-99"/>
          </Node>
        </Node>
      </Node>
    </BinaryTree>
    <BinaryTree type="DecisionTree" boostWeight="1.0000000000000000e+00" itree="181">
      <Node pos="s" depth="0" NCoef="0" IVar="0" Cut="1.1285310058593750e+03" cType="1" res="1.9033493474125862e-02" rms="4.1457095742225647e-01" purity="5.0540173053741455e-01" nType="0">
        <Node pos="l" depth="1" NCoef="0" IVar="2" Cut="2.5038702392578125e+02" cType="1" res="-5.3934894502162933e-02" rms="4.0273347496986389e-01" purity="2.6119095087051392e-01" nType="0">
          <Node pos="l" depth="2" NCoef="0" IVar="-1" Cut="0.0000000000000000e+00" cType="1" res="-3.4259850508533418e-04" rms="4.3950766324996948e-01" purity="3.5158601403236389e-01" nType="-99"/>
          <Node pos="r" depth="2" NCoef="0" IVar="4" Cut="9.0891937255859375e+01" cType="1" res="-9.1751977801322937e-02" rms="3.6451810598373413e-01" purity="1.8472534418106079e-01" nType="0">
            <Node pos="l" depth="3" NCoef="0" IVar="-1" Cut="0.0000000000000000e+00" cType="1" res="-3.5418011248111725e-03" rms="3.6309722065925598e-01" purity="1.8032522499561310e-01" nType="-99"/>
            <Node pos="r" depth="3" NCoef="0" IVar="-1" Cut="0.0000000000000000e+00" cType="1" res="-4.8799561336636543e-03" rms="3.6465659737586975e-01" purity="1.8894279003143311e-01" nType="-99"/>
          </Node>
        </Node>
        <Node pos="r" depth="1" NCoef="0" IVar="2" Cut="3.7131597900390625e+02" cType="1" res="3.7592396140098572e-02" rms="4.1548904776573181e-01" purity="5.6751465797424316e-01" nType="0">
          <Node pos="l" depth="2" NCoef="0" IVar="0" Cut="1.4308365478515625e+03" cType="1" res="8.1388287246227264e-02" rms="4.0088084340095520e-01" purity="6.8399977684020996e-01" nType="0">
            <Node pos="l" depth="3" NCoef="0" IVar="-1" Cut="0.0000000000000000e+00" cType="1" res="1.3979536015540361e-03" rms="4.3544057011604309e-01" purity="5.8397990465164185e-01" nType="-99"/>
            <Node pos="r" depth="3" NCoef="0" IVar="-1" Cut="0.0000000000000000e+00" cType="1" res="4.4900411739945412e-03" rms="3.2904154062271118e-01" purity="8.4490042924880981e-01" nType="-99"/>
          </Node>
          <Node pos="r" depth="2" NCoef="0" IVar="1" Cut="5.4808758544921875e+02" cType="1" res="-8.2096047699451447e-03" rms="4.2544019222259521e-01" purity="4.4569385051727295e-01" nType="0">
            <Node pos="l" depth="3" NCoef="0" IVar="-1" Cut="0.0000000000000000e+00" cType="1" res="-1.7373731825500727e-03" rms="4.1661134362220764e-01" purity="3.7018132209777832e-01" nType="-99"/>
            <Node pos="r" depth="3" NCoef="0" IVar="-1" Cut="0.0000000000000000e+00" cType="1" res="2.3902987595647573e-03" rms="4.3847396969795227e-01" purity="6.5533697605133057e-01" nType="-99"/>
          </Node>
        </Node>
      </Node>
    </BinaryTree>
    <BinaryTree type="DecisionTree" boostWeight="1.0000000000000000e+00" itree="182">
      <Node pos="s" depth="0" NCoef="0" IVar="0" Cut="1.1315577392578125e+03" cType="1" res="1.3962693512439728e-02" rms="4.1424635052680969e-01" purity="5.0206756591796875e-01" nType="0">
        <Node pos="l" depth="1" NCoef="0" IVar="2" Cut="2.3388352966308594e+02" cType="1" res="-5.7678025215864182e-02" rms="4.0586912631988525e-01" purity="2.5867247581481934e-01" nType="0">
          <Node pos="l" depth="2" NCoef="0" IVar="-1" Cut="0.0000000000000000e+00" cType="1" res="1.3214109640102834e-04" rms="4.5326247811317444e-01" purity="3.7068194150924683e-01" nType="-99"/>
          <Node pos="r" depth="2" NCoef="0" IVar="1" Cut="3.5221832275390625e+02" cType="1" res="-8.7217487394809723e-02" rms="3.7738353013992310e-01" purity="2.0467521250247955e-01" nType="0">
            <Node pos="l" depth="3" NCoef="0" IVar="-1" Cut="0.0000000000000000e+00" cType="1" res="-4.4593624770641327e-03" rms="3.6074745655059814e-01" purity="1.7871657013893127e-01" nType="-99"/>
            <Node pos="r" depth="3" NCoef="0" IVar="-1" Cut="0.0000000000000000e+00" cType="1" res="-2.5642497930675745e-03" rms="4.0090793371200562e-01" purity="2.4581381678581238e-01" nType="-99"/>
          </Node>
        </Node>
        <Node pos="r" depth="1" NCoef="0" IVar="2" Cut="3.7131823730468750e+02" cType="1" res="3.2643578946590424e-02" rms="4.1437208652496338e-01" purity="5.6553483009338379e-01" nType="0">
          <Node pos="l" depth="2" NCoef="0" IVar="0" Cut="1.3328129882812500e+03" cType="1" res="7.9728133976459503e-02" rms="4.0006166696548462e-01" purity="6.8731355667114258e-01" nType="0">
            <Node pos="l" depth="3" NCoef="0" IVar="-1" Cut="0.0000000000000000e+00" cType="1" res="6.1984825879335403e-04" rms="4.4573751091957092e-01" purity="5.3293901681900024e-01" nType="-99"/>
            <Node pos="r" depth="3" NCoef="0" IVar="-1" Cut="0.0000000000000000e+00" cType="1" res="3.9121159352362156e-03" rms="3.5446080565452576e-01" purity="8.0491852760314941e-01" nType="-99"/>
          </Node>
          <Node pos="r" depth="2" NCoef="0" IVar="0" Cut="1.7630521240234375e+03" cType="1" res="-1.7234101891517639e-02" rms="4.2333704233169556e-01" purity="4.3653187155723572e-01" nType="0">
            <Node pos="l" depth="3" NCoef="0" IVar="-1" Cut="0.0000000000000000e+00" cType="1" res="-2.3000068031251431e-03" rms="4.1133490204811096e-01" purity="3.4453853964805603e-01" nType="-99"/>
            <Node pos="r" depth="3" NCoef="0" IVar="-1" Cut="0.0000000000000000e+00" cType="1" res="1.4318951871246099e-03" rms="4.3783864378929138e-01" purity="5.9983712434768677e-01" nType="-99"/>
          </Node>
        </Node>
      </Node>
    </BinaryTree>
    <BinaryTree type="DecisionTree" boostWeight="1.0000000000000000e+00" itree="183">
      <Node pos="s" depth="0" NCoef="0" IVar="9" Cut="-1.4665119647979736e+00" cType="1" res="1.2340237386524677e-02" rms="4.1315525770187378e-01" purity="4.9968910217285156e-01" nType="0">
        <Node pos="l" depth="1" NCoef="0" IVar="9" Cut="-1.9744321107864380e+00" cType="1" res="-9.9135249853134155e-02" rms="3.8133436441421509e-01" purity="2.8538045287132263e-01" nType="0">
          <Node pos="l" depth="2" NCoef="0" IVar="-1" Cut="0.0000000000000000e+00" cType="1" res="-8.8448338210582733e-03" rms="3.4156790375709534e-01" purity="1.9344332814216614e-01" nType="-99"/>
          <Node pos="r" depth="2" NCoef="0" IVar="7" Cut="-1.3236875832080841e-01" cType="1" res="-5.8755714446306229e-02" rms="4.0279966592788696e-01" purity="3.5165801644325256e-01" nType="0">
            <Node pos="l" depth="3" NCoef="0" IVar="-1" Cut="0.0000000000000000e+00" cType="1" res="-5.0476598553359509e-03" rms="3.7885808944702148e-01" purity="2.9862451553344727e-01" nType="-99"/>
            <Node pos="r" depth="3" NCoef="0" IVar="-1" Cut="0.0000000000000000e+00" cType="1" res="-9.9301547743380070e-04" rms="4.2293420433998108e-01" purity="4.0514868497848511e-01" nType="-99"/>
          </Node>
        </Node>
        <Node pos="r" depth="1" NCoef="0" IVar="9" Cut="1.1746436357498169e+00" cType="1" res="2.4135725572705269e-02" rms="4.1463032364845276e-01" purity="5.2236562967300415e-01" nType="0">
          <Node pos="l" depth="2" NCoef="0" IVar="2" Cut="3.4279699707031250e+02" cType="1" res="4.1760198771953583e-02" rms="4.1597807407379150e-01" purity="5.5513370037078857e-01" nType="0">
            <Node pos="l" depth="3" NCoef="0" IVar="-1" Cut="0.0000000000000000e+00" cType="1" res="2.3694597184658051e-03" rms="4.0534096956253052e-01" purity="6.1878728866577148e-01" nType="-99"/>
            <Node pos="r" depth="3" NCoef="0" IVar="-1" Cut="0.0000000000000000e+00" cType="1" res="1.7192160885315388e-04" rms="4.2456990480422974e-01" purity="4.8335912823677063e-01" nType="-99"/>
          </Node>
          <Node pos="r" depth="2" NCoef="0" IVar="9" Cut="2.1034202575683594e+00" cType="1" res="-6.4918264746665955e-02" rms="3.9593160152435303e-01" purity="3.5679298639297485e-01" nType="0">
            <Node pos="l" depth="3" NCoef="0" IVar="-1" Cut="0.0000000000000000e+00" cType="1" res="-1.6557844355702400e-03" rms="4.0586155652999878e-01" purity="4.0133649110794067e-01" nType="-99"/>
            <Node pos="r" depth="3" NCoef="0" IVar="-1" Cut="0.0000000000000000e+00" cType="1" res="-1.0214558802545071e-02" rms="3.3567509055137634e-01" purity="1.7897380888462067e-01" nType="-99"/>
          </Node>
        </Node>
      </Node>
    </BinaryTree>
    <BinaryTree type="DecisionTree" boostWeight="1.0000000000000000e+00" itree="184">
      <Node pos="s" depth="0" NCoef="0" IVar="9" Cut="1.2000533342361450e+00" cType="1" res="5.4396484047174454e-03" rms="4.1506311297416687e-01" purity="4.8919007182121277e-01" nType="0">
        <Node pos="l" depth="1" NCoef="0" IVar="9" Cut="-1.2760279178619385e+00" cType="1" res="1.9301855936646461e-02" rms="4.1683328151702881e-01" purity="5.1489371061325073e-01" nType="0">
          <Node pos="l" depth="2" NCoef="0" IVar="2" Cut="3.3268646240234375e+02" cType="1" res="-7.5644917786121368e-02" rms="3.9572200179100037e-01" purity="3.2460847496986389e-01" nType="0">
            <Node pos="l" depth="3" NCoef="0" IVar="-1" Cut="0.0000000000000000e+00" cType="1" res="-1.3205924769863486e-03" rms="4.0905427932739258e-01" purity="4.0192529559135437e-01" nType="-99"/>
            <Node pos="r" depth="3" NCoef="0" IVar="-1" Cut="0.0000000000000000e+00" cType="1" res="-7.0233955048024654e-03" rms="3.7684679031372070e-01" purity="2.4731652438640594e-01" nType="-99"/>
          </Node>
          <Node pos="r" depth="2" NCoef="0" IVar="0" Cut="1.5807512207031250e+03" cType="1" res="3.5992268472909927e-02" rms="4.1821309924125671e-01" purity="5.4834336042404175e-01" nType="0">
            <Node pos="l" depth="3" NCoef="0" IVar="-1" Cut="0.0000000000000000e+00" cType="1" res="4.2986852349713445e-04" rms="4.2453306913375854e-01" purity="4.8209241032600403e-01" nType="-99"/>
            <Node pos="r" depth="3" NCoef="0" IVar="-1" Cut="0.0000000000000000e+00" cType="1" res="1.9665695726871490e-03" rms="3.9956384897232056e-01" purity="6.9025880098342896e-01" nType="-99"/>
          </Node>
        </Node>
        <Node pos="r" depth="1" NCoef="0" IVar="2" Cut="3.5405114746093750e+02" cType="1" res="-7.5932659208774567e-02" rms="3.9482086896896362e-01" purity="3.3830752968788147e-01" nType="0">
          <Node pos="l" depth="2" NCoef="0" IVar="-1" Cut="0.0000000000000000e+00" cType="1" res="-1.7695319838821888e-03" rms="4.0621402859687805e-01" purity="4.0450507402420044e-01" nType="-99"/>
          <Node pos="r" depth="2" NCoef="0" IVar="2" Cut="5.0076116943359375e+02" cType="1" res="-1.1594279855489731e-01" rms="3.7631940841674805e-01" purity="2.5574117898941040e-01" nType="0">
            <Node pos="l" depth="3" NCoef="0" IVar="-1" Cut="0.0000000000000000e+00" cType="1" res="-4.5439177192747593e-03" rms="3.7661728262901306e-01" purity="2.8414541482925415e-01" nType="-99"/>
            <Node pos="r" depth="3" NCoef="0" IVar="-1" Cut="0.0000000000000000e+00" cType="1" res="-9.6765132620930672e-03" rms="3.7395539879798889e-01" purity="2.1258988976478577e-01" nType="-99"/>
          </Node>
        </Node>
      </Node>
    </BinaryTree>
    <BinaryTree type="DecisionTree" boostWeight="1.0000000000000000e+00" itree="185">
      <Node pos="s" depth="0" NCoef="0" IVar="9" Cut="1.4666488170623779e+00" cType="1" res="1.6884582117199898e-02" rms="4.1351297497749329e-01" purity="5.0179255008697510e-01" nType="0">
        <Node pos="l" depth="1" NCoef="0" IVar="9" Cut="-9.7132462263107300e-01" cType="1" res="2.8861351311206818e-02" rms="4.1532522439956665e-01" purity="5.2399396896362305e-01" nType="0">
          <Node pos="l" depth="2" NCoef="0" IVar="1" Cut="4.1742849731445312e+02" cType="1" res="-4.1917171329259872e-02" rms="4.0279844403266907e-01" purity="3.8701599836349487e-01" nType="0">
            <Node pos="l" depth="3" NCoef="0" IVar="-1" Cut="0.0000000000000000e+00" cType="1" res="-3.8086760323494673e-03" rms="3.7967777252197266e-01" purity="2.7601033449172974e-01" nType="-99"/>
            <Node pos="r" depth="3" NCoef="0" IVar="-1" Cut="0.0000000000000000e+00" cType="1" res="4.7029429697431624e-04" rms="4.2902690172195435e-01" purity="5.5086511373519897e-01" nType="-99"/>
          </Node>
          <Node pos="r" depth="2" NCoef="0" IVar="6" Cut="1.4773571491241455e+00" cType="1" res="4.7803610563278198e-02" rms="4.1657927632331848e-01" purity="5.6065297126770020e-01" nType="0">
            <Node pos="l" depth="3" NCoef="0" IVar="-1" Cut="0.0000000000000000e+00" cType="1" res="1.8942514434456825e-03" rms="4.1701596975326538e-01" purity="5.8120507001876831e-01" nType="-99"/>
            <Node pos="r" depth="3" NCoef="0" IVar="-1" Cut="0.0000000000000000e+00" cType="1" res="-4.2074015364050865e-03" rms="3.8536313176155090e-01" purity="2.5944682955741882e-01" nType="-99"/>
          </Node>
        </Node>
        <Node pos="r" depth="1" NCoef="0" IVar="2" Cut="3.3262149047851562e+02" cType="1" res="-9.5034189522266388e-02" rms="3.7827315926551819e-01" purity="2.9432758688926697e-01" nType="0">
          <Node pos="l" depth="2" NCoef="0" IVar="-1" Cut="0.0000000000000000e+00" cType="1" res="-2.3743775673210621e-03" rms="3.9242705702781677e-01" purity="3.6938196420669556e-01" nType="-99"/>
          <Node pos="r" depth="2" NCoef="0" IVar="-1" Cut="0.0000000000000000e+00" cType="1" res="-7.4500595219433308e-03" rms="3.5967019200325012e-01" purity="2.1833136677742004e-01" nType="-99"/>
        </Node>
      </Node>
    </BinaryTree>
    <BinaryTree type="DecisionTree" boostWeight="1.0000000000000000e+00" itree="186">
      <Node pos="s" depth="0" NCoef="0" IVar="8" Cut="-9.3334823846817017e-01" cType="1" res="1.4658248052000999e-02" rms="4.1452947258949280e-01" purity="5.0082278251647949e-01" nType="0">
        <Node pos="l" depth="1" NCoef="0" IVar="6" Cut="6.8641436100006104e-01" cType="1" res="-5.7440422475337982e-02" rms="3.9920127391815186e-01" purity="3.4937477111816406e-01" nType="0">
          <Node pos="l" depth="2" NCoef="0" IVar="2" Cut="4.6245001220703125e+02" cType="1" res="-3.9087034761905670e-02" rms="4.0919098258018494e-01" purity="3.8782694935798645e-01" nType="0">
            <Node pos="l" depth="3" NCoef="0" IVar="-1" Cut="0.0000000000000000e+00" cType="1" res="-6.1861472204327583e-04" rms="4.1507512331008911e-01" purity="4.2903801798820496e-01" nType="-99"/>
            <Node pos="r" depth="3" NCoef="0" IVar="-1" Cut="0.0000000000000000e+00" cType="1" res="-8.3089424297213554e-03" rms="3.7510070204734802e-01" purity="2.4059934914112091e-01" nType="-99"/>
          </Node>
          <Node pos="r" depth="2" NCoef="0" IVar="-1" Cut="0.0000000000000000e+00" cType="1" res="-8.0013070255517960e-03" rms="3.5247847437858582e-01" purity="2.0928055047988892e-01" nType="-99"/>
        </Node>
        <Node pos="r" depth="1" NCoef="0" IVar="8" Cut="8.4441572427749634e-01" cType="1" res="3.1043546274304390e-02" rms="4.1619646549224854e-01" purity="5.3524112701416016e-01" nType="0">
          <Node pos="l" depth="2" NCoef="0" IVar="6" Cut="-9.0281289815902710e-01" cType="1" res="5.8439917862415314e-02" rms="4.1689053177833557e-01" purity="5.9322476387023926e-01" nType="0">
            <Node pos="l" depth="3" NCoef="0" IVar="-1" Cut="0.0000000000000000e+00" cType="1" res="-1.2029124191030860e-03" rms="4.1685259342193604e-01" purity="4.0325725078582764e-01" nType="-99"/>
            <Node pos="r" depth="3" NCoef="0" IVar="-1" Cut="0.0000000000000000e+00" cType="1" res="1.9791056402027607e-03" rms="4.1493803262710571e-01" purity="6.2614154815673828e-01" nType="-99"/>
          </Node>
          <Node pos="r" depth="2" NCoef="0" IVar="8" Cut="2.0549921989440918e+00" cType="1" res="-4.8961330205202103e-02" rms="4.0365615487098694e-01" purity="3.6591327190399170e-01" nType="0">
            <Node pos="l" depth="3" NCoef="0" IVar="-1" Cut="0.0000000000000000e+00" cType="1" res="-1.3643489219248295e-03" rms="4.1396617889404297e-01" purity="4.0079978108406067e-01" nType="-99"/>
            <Node pos="r" depth="3" NCoef="0" IVar="-1" Cut="0.0000000000000000e+00" cType="1" res="-8.5406042635440826e-03" rms="3.2625311613082886e-01" purity="1.6917608678340912e-01" nType="-99"/>
          </Node>
        </Node>
      </Node>
    </BinaryTree>
    <BinaryTree type="DecisionTree" boostWeight="1.0000000000000000e+00" itree="187">
      <Node pos="s" depth="0" NCoef="0" IVar="7" Cut="-1.1999617815017700e+00" cType="1" res="1.4774539507925510e-02" rms="4.1356730461120605e-01" purity="4.9983555078506470e-01" nType="0">
        <Node pos="l" depth="1" NCoef="0" IVar="7" Cut="-1.7332916259765625e+00" cType="1" res="-8.1594608724117279e-02" rms="3.7184819579124451e-01" purity="2.4876925349235535e-01" nType="0">
          <Node pos="l" depth="2" NCoef="0" IVar="5" Cut="8.8019454956054688e+01" cType="1" res="-1.3172937929630280e-01" rms="3.2388246059417725e-01" purity="1.5705960988998413e-01" nType="0">
            <Node pos="l" depth="3" NCoef="0" IVar="-1" Cut="0.0000000000000000e+00" cType="1" res="-7.8443353995680809e-03" rms="2.7976021170616150e-01" purity="9.2819720506668091e-02" nType="-99"/>
            <Node pos="r" depth="3" NCoef="0" IVar="-1" Cut="0.0000000000000000e+00" cType="1" res="-7.4897003360092640e-03" rms="3.5994881391525269e-01" purity="2.1856923401355743e-01" nType="-99"/>
          </Node>
          <Node pos="r" depth="2" NCoef="0" IVar="5" Cut="9.9816993713378906e+01" cType="1" res="-4.4574264436960220e-02" rms="3.9960789680480957e-01" purity="3.1648918986320496e-01" nType="0">
            <Node pos="l" depth="3" NCoef="0" IVar="-1" Cut="0.0000000000000000e+00" cType="1" res="-3.9780293591320515e-03" rms="3.6086758971214294e-01" purity="1.9524240493774414e-01" nType="-99"/>
            <Node pos="r" depth="3" NCoef="0" IVar="-1" Cut="0.0000000000000000e+00" cType="1" res="-3.9849703898653388e-04" rms="4.4062221050262451e-01" purity="4.6712470054626465e-01" nType="-99"/>
          </Node>
        </Node>
        <Node pos="r" depth="1" NCoef="0" IVar="7" Cut="1.0857256650924683e+00" cType="1" res="2.8104158118367195e-02" rms="4.1726240515708923e-01" purity="5.3456258773803711e-01" nType="0">
          <Node pos="l" depth="2" NCoef="0" IVar="8" Cut="-1.4666683673858643e+00" cType="1" res="4.5265041291713715e-02" rms="4.2115652561187744e-01" purity="5.8113652467727661e-01" nType="0">
            <Node pos="l" depth="3" NCoef="0" IVar="-1" Cut="0.0000000000000000e+00" cType="1" res="-3.7493063136935234e-03" rms="3.9791274070739746e-01" purity="3.0945792794227600e-01" nType="-99"/>
            <Node pos="r" depth="3" NCoef="0" IVar="-1" Cut="0.0000000000000000e+00" cType="1" res="1.8538171425461769e-03" rms="4.2132085561752319e-01" purity="6.0362428426742554e-01" nType="-99"/>
          </Node>
          <Node pos="r" depth="2" NCoef="0" IVar="7" Cut="1.5755392313003540e+00" cType="1" res="-6.5453745424747467e-02" rms="3.8203370571136475e-01" purity="2.8065040707588196e-01" nType="0">
            <Node pos="l" depth="3" NCoef="0" IVar="-1" Cut="0.0000000000000000e+00" cType="1" res="-1.1132581857964396e-03" rms="4.1552746295928955e-01" purity="3.6976417899131775e-01" nType="-99"/>
            <Node pos="r" depth="3" NCoef="0" IVar="-1" Cut="0.0000000000000000e+00" cType="1" res="-7.1858791634440422e-03" rms="3.3539292216300964e-01" purity="1.8175485730171204e-01" nType="-99"/>
          </Node>
        </Node>
      </Node>
    </BinaryTree>
    <BinaryTree type="DecisionTree" boostWeight="1.0000000000000000e+00" itree="188">
      <Node pos="s" depth="0" NCoef="0" IVar="6" Cut="-9.1657739877700806e-01" cType="1" res="1.2536318972706795e-02" rms="4.1455769538879395e-01" purity="4.9694696068763733e-01" nType="0">
        <Node pos="l" depth="1" NCoef="0" IVar="6" Cut="-1.5359624624252319e+00" cType="1" res="-6.9618351757526398e-02" rms="3.8612410426139832e-01" purity="3.0817753076553345e-01" nType="0">
          <Node pos="l" depth="2" NCoef="0" IVar="1" Cut="3.7063610839843750e+02" cType="1" res="-1.2964260578155518e-01" rms="3.3531922101974487e-01" purity="1.8722788989543915e-01" nType="0">
            <Node pos="l" depth="3" NCoef="0" IVar="-1" Cut="0.0000000000000000e+00" cType="1" res="-1.2583154253661633e-02" rms="2.5165244936943054e-01" purity="7.4643425643444061e-02" nType="-99"/>
            <Node pos="r" depth="3" NCoef="0" IVar="-1" Cut="0.0000000000000000e+00" cType="1" res="-4.6257181093096733e-03" rms="3.9665400981903076e-01" purity="2.9632949829101562e-01" nType="-99"/>
          </Node>
          <Node pos="r" depth="2" NCoef="0" IVar="7" Cut="3.9970499277114868e-01" cType="1" res="-3.8758315145969391e-02" rms="4.0636351704597473e-01" purity="3.7036091089248657e-01" nType="0">
            <Node pos="l" depth="3" NCoef="0" IVar="-1" Cut="0.0000000000000000e+00" cType="1" res="-4.0621648076921701e-04" rms="4.1491416096687317e-01" purity="4.1825214028358459e-01" nType="-99"/>
            <Node pos="r" depth="3" NCoef="0" IVar="-1" Cut="0.0000000000000000e+00" cType="1" res="-5.5528851225972176e-03" rms="3.7803167104721069e-01" purity="2.6067039370536804e-01" nType="-99"/>
          </Node>
        </Node>
        <Node pos="r" depth="1" NCoef="0" IVar="6" Cut="8.5310292243957520e-01" cType="1" res="2.8541428968310356e-02" rms="4.1799795627593994e-01" purity="5.3372240066528320e-01" nType="0">
          <Node pos="l" depth="2" NCoef="0" IVar="9" Cut="-1.7331697940826416e+00" cType="1" res="5.4894540458917618e-02" rms="4.1991674900054932e-01" purity="5.9309369325637817e-01" nType="0">
            <Node pos="l" depth="3" NCoef="0" IVar="-1" Cut="0.0000000000000000e+00" cType="1" res="-4.2033875361084938e-03" rms="4.0309157967567444e-01" purity="3.1312909722328186e-01" nType="-99"/>
            <Node pos="r" depth="3" NCoef="0" IVar="-1" Cut="0.0000000000000000e+00" cType="1" res="2.1211821585893631e-03" rms="4.1917607188224792e-01" purity="6.1006987094879150e-01" nType="-99"/>
          </Node>
          <Node pos="r" depth="2" NCoef="0" IVar="6" Cut="1.5019788742065430e+00" cType="1" res="-6.4499959349632263e-02" rms="3.9741319417953491e-01" purity="3.2410830259323120e-01" nType="0">
            <Node pos="l" depth="3" NCoef="0" IVar="-1" Cut="0.0000000000000000e+00" cType="1" res="-1.3400112511590123e-03" rms="4.2061358690261841e-01" purity="3.8807198405265808e-01" nType="-99"/>
            <Node pos="r" depth="3" NCoef="0" IVar="-1" Cut="0.0000000000000000e+00" cType="1" res="-6.6331825219094753e-03" rms="3.4193381667137146e-01" purity="2.0351712405681610e-01" nType="-99"/>
          </Node>
        </Node>
      </Node>
    </BinaryTree>
    <BinaryTree type="DecisionTree" boostWeight="1.0000000000000000e+00" itree="189">
      <Node pos="s" depth="0" NCoef="0" IVar="1" Cut="4.5299591064453125e+02" cType="1" res="1.7032142728567123e-02" rms="4.1293817758560181e-01" purity="5.0361090898513794e-01" nType="0">
        <Node pos="l" depth="1" NCoef="0" IVar="2" Cut="3.0103292846679688e+02" cType="1" res="-9.5485849305987358e-03" rms="4.1368249058723450e-01" purity="4.1114535927772522e-01" nType="0">
          <Node pos="l" depth="2" NCoef="0" IVar="0" Cut="1.2348183593750000e+03" cType="1" res="3.4632705152034760e-02" rms="4.2422693967819214e-01" purity="4.9719029664993286e-01" nType="0">
            <Node pos="l" depth="3" NCoef="0" IVar="-1" Cut="0.0000000000000000e+00" cType="1" res="-2.9626861214637756e-04" rms="4.3528684973716736e-01" purity="3.7153685092926025e-01" nType="-99"/>
            <Node pos="r" depth="3" NCoef="0" IVar="-1" Cut="0.0000000000000000e+00" cType="1" res="3.7223147228360176e-03" rms="3.8423594832420349e-01" purity="7.6387673616409302e-01" nType="-99"/>
          </Node>
          <Node pos="r" depth="2" NCoef="0" IVar="2" Cut="5.7526025390625000e+02" cType="1" res="-4.5224592089653015e-02" rms="4.0143465995788574e-01" purity="3.4166476130485535e-01" nType="0">
            <Node pos="l" depth="3" NCoef="0" IVar="-1" Cut="0.0000000000000000e+00" cType="1" res="-1.3297200202941895e-03" rms="4.0799209475517273e-01" purity="3.6576586961746216e-01" nType="-99"/>
            <Node pos="r" depth="3" NCoef="0" IVar="-1" Cut="0.0000000000000000e+00" cType="1" res="-1.2653680518269539e-02" rms="3.3503329753875732e-01" purity="1.6885150969028473e-01" nType="-99"/>
          </Node>
        </Node>
        <Node pos="r" depth="1" NCoef="0" IVar="2" Cut="6.0625280761718750e+02" cType="1" res="6.8663954734802246e-02" rms="4.0655207633972168e-01" purity="6.8322104215621948e-01" nType="0">
          <Node pos="l" depth="2" NCoef="0" IVar="5" Cut="7.1725883483886719e+01" cType="1" res="8.7324984371662140e-02" rms="3.9129975438117981e-01" purity="7.2088837623596191e-01" nType="0">
            <Node pos="l" depth="3" NCoef="0" IVar="-1" Cut="0.0000000000000000e+00" cType="1" res="-4.7931526205502450e-04" rms="4.5357316732406616e-01" purity="4.1481181979179382e-01" nType="-99"/>
            <Node pos="r" depth="3" NCoef="0" IVar="-1" Cut="0.0000000000000000e+00" cType="1" res="3.1789138447493315e-03" rms="3.8063850998878479e-01" purity="7.6028060913085938e-01" nType="-99"/>
          </Node>
          <Node pos="r" depth="2" NCoef="0" IVar="1" Cut="5.9870855712890625e+02" cType="1" res="-1.6541369259357452e-02" rms="4.6043258905410767e-01" purity="5.1123380661010742e-01" nType="0">
            <Node pos="l" depth="3" NCoef="0" IVar="-1" Cut="0.0000000000000000e+00" cType="1" res="-5.0540720112621784e-03" rms="4.4519460201263428e-01" purity="3.6681219935417175e-01" nType="-99"/>
            <Node pos="r" depth="3" NCoef="0" IVar="-1" Cut="0.0000000000000000e+00" cType="1" res="1.4889135491102934e-03" rms="4.6081954240798950e-01" purity="6.1606782674789429e-01" nType="-99"/>
          </Node>
        </Node>
      </Node>
    </BinaryTree>
    <BinaryTree type="DecisionTree" boostWeight="1.0000000000000000e+00" itree="190">
      <Node pos="s" depth="0" NCoef="0" IVar="9" Cut="9.3337613344192505e-01" cType="1" res="1.4658883213996887e-02" rms="4.1391345858573914e-01" purity="5.0012093782424927e-01" nType="0">
        <Node pos="l" depth="1" NCoef="0" IVar="9" Cut="-8.4430015087127686e-01" cType="1" res="3.2378610223531723e-02" rms="4.1514971852302551e-01" purity="5.3083759546279907e-01" nType="0">
          <Node pos="l" depth="2" NCoef="0" IVar="2" Cut="3.2479656982421875e+02" cType="1" res="-3.9597745984792709e-02" rms="4.0527245402336121e-01" purity="3.9831233024597168e-01" nType="0">
            <Node pos="l" depth="3" NCoef="0" IVar="-1" Cut="0.0000000000000000e+00" cType="1" res="1.3969333667773753e-04" rms="4.1391777992248535e-01" purity="4.7639375925064087e-01" nType="-99"/>
            <Node pos="r" depth="3" NCoef="0" IVar="-1" Cut="0.0000000000000000e+00" cType="1" res="-3.8352431729435921e-03" rms="3.9311519265174866e-01" purity="3.2724606990814209e-01" nType="-99"/>
          </Node>
          <Node pos="r" depth="2" NCoef="0" IVar="2" Cut="4.7837149047851562e+02" cType="1" res="6.0579054057598114e-02" rms="4.1557097434997559e-01" purity="5.8276110887527466e-01" nType="0">
            <Node pos="l" depth="3" NCoef="0" IVar="-1" Cut="0.0000000000000000e+00" cType="1" res="2.5310737546533346e-03" rms="4.0844559669494629e-01" purity="6.1701607704162598e-01" nType="-99"/>
            <Node pos="r" depth="3" NCoef="0" IVar="-1" Cut="0.0000000000000000e+00" cType="1" res="-2.7053640224039555e-04" rms="4.3499988317489624e-01" purity="4.5306685566902161e-01" nType="-99"/>
          </Node>
        </Node>
        <Node pos="r" depth="1" NCoef="0" IVar="6" Cut="-6.1643922328948975e-01" cType="1" res="-5.5199339985847473e-02" rms="4.0145438909530640e-01" purity="3.7902361154556274e-01" nType="0">
          <Node pos="l" depth="2" NCoef="0" IVar="-1" Cut="0.0000000000000000e+00" cType="1" res="-6.6588548943400383e-03" rms="3.6891660094261169e-01" purity="2.4828656017780304e-01" nType="-99"/>
          <Node pos="r" depth="2" NCoef="0" IVar="6" Cut="6.8353646993637085e-01" cType="1" res="-3.4866027534008026e-02" rms="4.0830662846565247e-01" purity="4.1745567321777344e-01" nType="0">
            <Node pos="l" depth="3" NCoef="0" IVar="-1" Cut="0.0000000000000000e+00" cType="1" res="1.9686542509589344e-04" rms="4.2513749003410339e-01" purity="5.0992327928543091e-01" nType="-99"/>
            <Node pos="r" depth="3" NCoef="0" IVar="-1" Cut="0.0000000000000000e+00" cType="1" res="-5.2498565055429935e-03" rms="3.6999386548995972e-01" purity="2.6658931374549866e-01" nType="-99"/>
          </Node>
        </Node>
      </Node>
    </BinaryTree>
    <BinaryTree type="DecisionTree" boostWeight="1.0000000000000000e+00" itree="191">
      <Node pos="s" depth="0" NCoef="0" IVar="6" Cut="-9.2605620622634888e-01" cType="1" res="1.4453211799263954e-02" rms="4.1272619366645813e-01" purity="4.9985468387603760e-01" nType="0">
        <Node pos="l" depth="1" NCoef="0" IVar="1" Cut="5.1024871826171875e+02" cType="1" res="-6.2961332499980927e-02" rms="3.8741838932037354e-01" purity="3.1284719705581665e-01" nType="0">
          <Node pos="l" depth="2" NCoef="0" IVar="2" Cut="4.4151150512695312e+02" cType="1" res="-8.1446602940559387e-02" rms="3.7161505222320557e-01" purity="2.5600931048393250e-01" nType="0">
            <Node pos="l" depth="3" NCoef="0" IVar="-1" Cut="0.0000000000000000e+00" cType="1" res="-2.8464749921113253e-03" rms="3.8799473643302917e-01" purity="2.9354578256607056e-01" nType="-99"/>
            <Node pos="r" depth="3" NCoef="0" IVar="-1" Cut="0.0000000000000000e+00" cType="1" res="-1.4161230996251106e-02" rms="2.9618909955024719e-01" purity="1.2084165215492249e-01" nType="-99"/>
          </Node>
          <Node pos="r" depth="2" NCoef="0" IVar="-1" Cut="0.0000000000000000e+00" cType="1" res="7.6872203499078751e-04" rms="4.4303283095359802e-01" purity="5.7302844524383545e-01" nType="-99"/>
        </Node>
        <Node pos="r" depth="1" NCoef="0" IVar="6" Cut="6.7042982578277588e-01" cType="1" res="2.9253268614411354e-02" rms="4.1575172543525696e-01" purity="5.3560662269592285e-01" nType="0">
          <Node pos="l" depth="2" NCoef="0" IVar="2" Cut="5.4261816406250000e+02" cType="1" res="5.8726139366626740e-02" rms="4.1625544428825378e-01" purity="6.0148698091506958e-01" nType="0">
            <Node pos="l" depth="3" NCoef="0" IVar="-1" Cut="0.0000000000000000e+00" cType="1" res="2.4305724073201418e-03" rms="4.1137635707855225e-01" purity="6.2826293706893921e-01" nType="-99"/>
            <Node pos="r" depth="3" NCoef="0" IVar="-1" Cut="0.0000000000000000e+00" cType="1" res="-1.5942850150167942e-03" rms="4.3348976969718933e-01" purity="4.3421557545661926e-01" nType="-99"/>
          </Node>
          <Node pos="r" depth="2" NCoef="0" IVar="6" Cut="1.3799684047698975e+00" cType="1" res="-4.5357957482337952e-02" rms="4.0499719977378845e-01" purity="3.6882910132408142e-01" nType="0">
            <Node pos="l" depth="3" NCoef="0" IVar="-1" Cut="0.0000000000000000e+00" cType="1" res="-7.0587359368801117e-04" rms="4.2234054207801819e-01" purity="4.4294145703315735e-01" nType="-99"/>
            <Node pos="r" depth="3" NCoef="0" IVar="-1" Cut="0.0000000000000000e+00" cType="1" res="-4.7324551269412041e-03" rms="3.6387717723846436e-01" purity="2.2693324089050293e-01" nType="-99"/>
          </Node>
        </Node>
      </Node>
    </BinaryTree>
    <BinaryTree type="DecisionTree" boostWeight="1.0000000000000000e+00" itree="192">
      <Node pos="s" depth="0" NCoef="0" IVar="7" Cut="1.1998152732849121e+00" cType="1" res="1.8615722656250000e-02" rms="4.1191309690475464e-01" purity="5.0710517168045044e-01" nType="0">
        <Node pos="l" depth="1" NCoef="0" IVar="7" Cut="-7.0480287075042725e-01" cType="1" res="3.0745422467589378e-02" rms="4.1529256105422974e-01" purity="5.4017758369445801e-01" nType="0">
          <Node pos="l" depth="2" NCoef="0" IVar="8" Cut="1.1998564004898071e+00" cType="1" res="-4.1552644222974777e-02" rms="4.0372574329376221e-01" purity="3.7443140149116516e-01" nType="0">
            <Node pos="l" depth="3" NCoef="0" IVar="-1" Cut="0.0000000000000000e+00" cType="1" res="-1.1544972658157349e-03" rms="4.1054493188858032e-01" purity="4.0327239036560059e-01" nType="-99"/>
            <Node pos="r" depth="3" NCoef="0" IVar="-1" Cut="0.0000000000000000e+00" cType="1" res="-8.9461682364344597e-03" rms="3.3627691864967346e-01" purity="1.7152741551399231e-01" nType="-99"/>
          </Node>
          <Node pos="r" depth="2" NCoef="0" IVar="2" Cut="4.0312799072265625e+02" cType="1" res="5.7017359882593155e-02" rms="4.1631811857223511e-01" purity="6.0040700435638428e-01" nType="0">
            <Node pos="l" depth="3" NCoef="0" IVar="-1" Cut="0.0000000000000000e+00" cType="1" res="2.5736005045473576e-03" rms="4.0578013658523560e-01" purity="6.5017831325531006e-01" nType="-99"/>
            <Node pos="r" depth="3" NCoef="0" IVar="-1" Cut="0.0000000000000000e+00" cType="1" res="3.7077654269523919e-04" rms="4.3344348669052124e-01" purity="4.9784532189369202e-01" nType="-99"/>
          </Node>
        </Node>
        <Node pos="r" depth="1" NCoef="0" IVar="6" Cut="-5.7764732837677002e-01" cType="1" res="-7.3870837688446045e-02" rms="3.7239974737167358e-01" purity="2.5493511557579041e-01" nType="0">
          <Node pos="l" depth="2" NCoef="0" IVar="-1" Cut="0.0000000000000000e+00" cType="1" res="-8.8170804083347321e-03" rms="3.1690576672554016e-01" purity="1.4959873259067535e-01" nType="-99"/>
          <Node pos="r" depth="2" NCoef="0" IVar="0" Cut="1.3358140869140625e+03" cType="1" res="-5.3878135979175568e-02" rms="3.9019450545310974e-01" purity="2.9621320962905884e-01" nType="0">
            <Node pos="l" depth="3" NCoef="0" IVar="-1" Cut="0.0000000000000000e+00" cType="1" res="-5.3126579150557518e-03" rms="3.5713076591491699e-01" purity="1.8591248989105225e-01" nType="-99"/>
            <Node pos="r" depth="3" NCoef="0" IVar="-1" Cut="0.0000000000000000e+00" cType="1" res="-4.3886242201551795e-04" rms="4.2154130339622498e-01" purity="4.2590174078941345e-01" nType="-99"/>
          </Node>
        </Node>
      </Node>
    </BinaryTree>
    <BinaryTree type="DecisionTree" boostWeight="1.0000000000000000e+00" itree="193">
      <Node pos="s" depth="0" NCoef="0" IVar="6" Cut="6.8644517660140991e-01" cType="1" res="1.1860433965921402e-02" rms="4.1130518913269043e-01" purity="4.9953585863113403e-01" nType="0">
        <Node pos="l" depth="1" NCoef="0" IVar="6" Cut="-7.8531229496002197e-01" cType="1" res="3.1245343387126923e-02" rms="4.1301369667053223e-01" purity="5.4188191890716553e-01" nType="0">
          <Node pos="l" depth="2" NCoef="0" IVar="1" Cut="5.1024856567382812e+02" cType="1" res="-4.3370246887207031e-02" rms="3.9787396788597107e-01" purity="3.5846388339996338e-01" nType="0">
            <Node pos="l" depth="3" NCoef="0" IVar="-1" Cut="0.0000000000000000e+00" cType="1" res="-3.1097808387130499e-03" rms="3.8646593689918518e-01" purity="2.9486903548240662e-01" nType="-99"/>
            <Node pos="r" depth="3" NCoef="0" IVar="-1" Cut="0.0000000000000000e+00" cType="1" res="1.6251927008852363e-03" rms="4.2966535687446594e-01" purity="6.2463319301605225e-01" nType="-99"/>
          </Node>
          <Node pos="r" depth="2" NCoef="0" IVar="8" Cut="1.7333182096481323e+00" cType="1" res="5.7601336389780045e-02" rms="4.1503673791885376e-01" purity="6.0666960477828979e-01" nType="0">
            <Node pos="l" depth="3" NCoef="0" IVar="-1" Cut="0.0000000000000000e+00" cType="1" res="1.7945740837603807e-03" rms="4.1477712988853455e-01" purity="6.2385088205337524e-01" nType="-99"/>
            <Node pos="r" depth="3" NCoef="0" IVar="-1" Cut="0.0000000000000000e+00" cType="1" res="-5.4184477776288986e-03" rms="3.8438168168067932e-01" purity="2.6595544815063477e-01" nType="-99"/>
          </Node>
        </Node>
        <Node pos="r" depth="1" NCoef="0" IVar="1" Cut="3.9407318115234375e+02" cType="1" res="-5.1470115780830383e-02" rms="3.9916464686393738e-01" purity="3.6119112372398376e-01" nType="0">
          <Node pos="l" depth="2" NCoef="0" IVar="3" Cut="2.2298367309570312e+02" cType="1" res="-8.8120318949222565e-02" rms="3.6981198191642761e-01" purity="2.4057245254516602e-01" nType="0">
            <Node pos="l" depth="3" NCoef="0" IVar="-1" Cut="0.0000000000000000e+00" cType="1" res="-2.7118138968944550e-03" rms="3.6830231547355652e-01" purity="2.4162787199020386e-01" nType="-99"/>
            <Node pos="r" depth="3" NCoef="0" IVar="-1" Cut="0.0000000000000000e+00" cType="1" res="-8.3595886826515198e-03" rms="3.6830008029937744e-01" purity="2.3793727159500122e-01" nType="-99"/>
          </Node>
          <Node pos="r" depth="2" NCoef="0" IVar="5" Cut="7.9667594909667969e+01" cType="1" res="-1.1469932273030281e-02" rms="4.2532464861869812e-01" purity="4.9283483624458313e-01" nType="0">
            <Node pos="l" depth="3" NCoef="0" IVar="-1" Cut="0.0000000000000000e+00" cType="1" res="-4.5574042014777660e-03" rms="3.9310187101364136e-01" purity="2.3551179468631744e-01" nType="-99"/>
            <Node pos="r" depth="3" NCoef="0" IVar="-1" Cut="0.0000000000000000e+00" cType="1" res="4.9480184679850936e-04" rms="4.3171343207359314e-01" purity="5.7368701696395874e-01" nType="-99"/>
          </Node>
        </Node>
      </Node>
    </BinaryTree>
    <BinaryTree type="DecisionTree" boostWeight="1.0000000000000000e+00" itree="194">
      <Node pos="s" depth="0" NCoef="0" IVar="0" Cut="1.4571070556640625e+03" cType="1" res="1.2222411110997200e-02" rms="4.1299885511398315e-01" purity="4.9792450666427612e-01" nType="0">
        <Node pos="l" depth="1" NCoef="0" IVar="2" Cut="2.5834954833984375e+02" cType="1" res="-1.9411556422710419e-02" rms="4.1703888773918152e-01" purity="4.0124833583831787e-01" nType="0">
          <Node pos="l" depth="2" NCoef="0" IVar="0" Cut="1.0816939697265625e+03" cType="1" res="3.9215110242366791e-02" rms="4.2646807432174683e-01" purity="5.2000516653060913e-01" nType="0">
            <Node pos="l" depth="3" NCoef="0" IVar="-1" Cut="0.0000000000000000e+00" cType="1" res="-1.7362799262627959e-03" rms="4.2579260468482971e-01" purity="2.9503056406974792e-01" nType="-99"/>
            <Node pos="r" depth="3" NCoef="0" IVar="-1" Cut="0.0000000000000000e+00" cType="1" res="2.9516452923417091e-03" rms="4.1683489084243774e-01" purity="6.7951220273971558e-01" nType="-99"/>
          </Node>
          <Node pos="r" depth="2" NCoef="0" IVar="1" Cut="3.6525924682617188e+02" cType="1" res="-4.9846742302179337e-02" rms="4.0875646471977234e-01" purity="3.3959746360778809e-01" nType="0">
            <Node pos="l" depth="3" NCoef="0" IVar="-1" Cut="0.0000000000000000e+00" cType="1" res="-3.7413614336401224e-03" rms="3.8275095820426941e-01" purity="2.5718078017234802e-01" nType="-99"/>
            <Node pos="r" depth="3" NCoef="0" IVar="-1" Cut="0.0000000000000000e+00" cType="1" res="-6.0327164828777313e-04" rms="4.3110916018486023e-01" purity="4.2348796129226685e-01" nType="-99"/>
          </Node>
        </Node>
        <Node pos="r" depth="1" NCoef="0" IVar="2" Cut="5.4268450927734375e+02" cType="1" res="5.7273112237453461e-02" rms="4.0291151404380798e-01" purity="6.3560336828231812e-01" nType="0">
          <Node pos="l" depth="2" NCoef="0" IVar="3" Cut="2.8991839599609375e+02" cType="1" res="9.9908046424388885e-02" rms="3.7998202443122864e-01" purity="7.3343467712402344e-01" nType="0">
            <Node pos="l" depth="3" NCoef="0" IVar="-1" Cut="0.0000000000000000e+00" cType="1" res="4.2487918399274349e-03" rms="3.5384070873260498e-01" purity="7.9311060905456543e-01" nType="-99"/>
            <Node pos="r" depth="3" NCoef="0" IVar="-1" Cut="0.0000000000000000e+00" cType="1" res="6.6474894993007183e-04" rms="4.2651751637458801e-01" purity="5.8700072765350342e-01" nType="-99"/>
          </Node>
          <Node pos="r" depth="2" NCoef="0" IVar="1" Cut="6.0599523925781250e+02" cType="1" res="-3.9282914251089096e-02" rms="4.3537646532058716e-01" purity="4.1404309868812561e-01" nType="0">
            <Node pos="l" depth="3" NCoef="0" IVar="-1" Cut="0.0000000000000000e+00" cType="1" res="-4.7594173811376095e-03" rms="4.1798248887062073e-01" purity="3.0766174197196960e-01" nType="-99"/>
            <Node pos="r" depth="3" NCoef="0" IVar="-1" Cut="0.0000000000000000e+00" cType="1" res="1.5388462925329804e-03" rms="4.5472222566604614e-01" purity="6.2080973386764526e-01" nType="-99"/>
          </Node>
        </Node>
      </Node>
    </BinaryTree>
    <BinaryTree type="DecisionTree" boostWeight="1.0000000000000000e+00" itree="195">
      <Node pos="s" depth="0" NCoef="0" IVar="0" Cut="1.1285175781250000e+03" cType="1" res="1.7669063061475754e-02" rms="4.1058605909347534e-01" purity="5.0506526231765747e-01" nType="0">
        <Node pos="l" depth="1" NCoef="0" IVar="2" Cut="2.3254351806640625e+02" cType="1" res="-5.2280172705650330e-02" rms="4.0145644545555115e-01" purity="2.5965851545333862e-01" nType="0">
          <Node pos="l" depth="2" NCoef="0" IVar="-1" Cut="0.0000000000000000e+00" cType="1" res="1.6431542462669313e-04" rms="4.4283941388130188e-01" purity="3.7274387478828430e-01" nType="-99"/>
          <Node pos="r" depth="2" NCoef="0" IVar="1" Cut="3.3954818725585938e+02" cType="1" res="-7.8727558255195618e-02" rms="3.7768280506134033e-01" purity="2.0681552588939667e-01" nType="0">
            <Node pos="l" depth="3" NCoef="0" IVar="-1" Cut="0.0000000000000000e+00" cType="1" res="-5.0648995675146580e-03" rms="3.4262120723724365e-01" purity="1.6120487451553345e-01" nType="-99"/>
            <Node pos="r" depth="3" NCoef="0" IVar="-1" Cut="0.0000000000000000e+00" cType="1" res="-1.9238513195887208e-03" rms="4.0944135189056396e-01" purity="2.5622406601905823e-01" nType="-99"/>
          </Node>
        </Node>
        <Node pos="r" depth="1" NCoef="0" IVar="2" Cut="3.7131597900390625e+02" cType="1" res="3.5503964871168137e-02" rms="4.1098120808601379e-01" purity="5.6763643026351929e-01" nType="0">
          <Node pos="l" depth="2" NCoef="0" IVar="0" Cut="1.4308259277343750e+03" cType="1" res="7.8961633145809174e-02" rms="3.9814713597297668e-01" purity="6.8645304441452026e-01" nType="0">
            <Node pos="l" depth="3" NCoef="0" IVar="-1" Cut="0.0000000000000000e+00" cType="1" res="1.3730479404330254e-03" rms="4.3585291504859924e-01" purity="5.8087545633316040e-01" nType="-99"/>
            <Node pos="r" depth="3" NCoef="0" IVar="-1" Cut="0.0000000000000000e+00" cType="1" res="4.3096854351460934e-03" rms="3.2364979386329651e-01" purity="8.4932303428649902e-01" nType="-99"/>
          </Node>
          <Node pos="r" depth="2" NCoef="0" IVar="0" Cut="1.7542739257812500e+03" cType="1" res="-1.0991325601935387e-02" rms="4.1932496428489685e-01" purity="4.4051471352577209e-01" nType="0">
            <Node pos="l" depth="3" NCoef="0" IVar="-1" Cut="0.0000000000000000e+00" cType="1" res="-2.1159951575100422e-03" rms="4.0557748079299927e-01" purity="3.4549441933631897e-01" nType="-99"/>
            <Node pos="r" depth="3" NCoef="0" IVar="-1" Cut="0.0000000000000000e+00" cType="1" res="1.6149800503626466e-03" rms="4.3597957491874695e-01" purity="6.0319638252258301e-01" nType="-99"/>
          </Node>
        </Node>
      </Node>
    </BinaryTree>
    <BinaryTree type="DecisionTree" boostWeight="1.0000000000000000e+00" itree="196">
      <Node pos="s" depth="0" NCoef="0" IVar="0" Cut="1.3948435058593750e+03" cType="1" res="1.4355949126183987e-02" rms="4.1006323695182800e-01" purity="5.0300049781799316e-01" nType="0">
        <Node pos="l" depth="1" NCoef="0" IVar="2" Cut="3.0194277954101562e+02" cType="1" res="-2.2828638553619385e-02" rms="4.1569235920906067e-01" purity="3.8297045230865479e-01" nType="0">
          <Node pos="l" depth="2" NCoef="0" IVar="0" Cut="1.1115732421875000e+03" cType="1" res="1.2746046297252178e-02" rms="4.2885085940361023e-01" purity="4.6867778897285461e-01" nType="0">
            <Node pos="l" depth="3" NCoef="0" IVar="-1" Cut="0.0000000000000000e+00" cType="1" res="-2.0872107706964016e-03" rms="4.1641825437545776e-01" purity="2.7983972430229187e-01" nType="-99"/>
            <Node pos="r" depth="3" NCoef="0" IVar="-1" Cut="0.0000000000000000e+00" cType="1" res="2.0023121032863855e-03" rms="4.3181249499320984e-01" purity="6.2777519226074219e-01" nType="-99"/>
          </Node>
          <Node pos="r" depth="2" NCoef="0" IVar="6" Cut="6.8641436100006104e-01" cType="1" res="-7.2599261999130249e-02" rms="3.9115849137306213e-01" purity="2.6306191086769104e-01" nType="0">
            <Node pos="l" depth="3" NCoef="0" IVar="-1" Cut="0.0000000000000000e+00" cType="1" res="-2.2712969221174717e-03" rms="4.1027817130088806e-01" purity="3.0292725563049316e-01" nType="-99"/>
            <Node pos="r" depth="3" NCoef="0" IVar="-1" Cut="0.0000000000000000e+00" cType="1" res="-7.3711653240025043e-03" rms="3.2587695121765137e-01" purity="1.5198473632335663e-01" nType="-99"/>
          </Node>
        </Node>
        <Node pos="r" depth="1" NCoef="0" IVar="2" Cut="4.8561459350585938e+02" cType="1" res="5.4179154336452484e-02" rms="4.0013378858566284e-01" purity="6.3154792785644531e-01" nType="0">
          <Node pos="l" depth="2" NCoef="0" IVar="3" Cut="2.6869638061523438e+02" cType="1" res="1.0179506987333298e-01" rms="3.7248393893241882e-01" purity="7.5195914506912231e-01" nType="0">
            <Node pos="l" depth="3" NCoef="0" IVar="-1" Cut="0.0000000000000000e+00" cType="1" res="4.3401177972555161e-03" rms="3.4293496608734131e-01" purity="8.1285029649734497e-01" nType="-99"/>
            <Node pos="r" depth="3" NCoef="0" IVar="-1" Cut="0.0000000000000000e+00" cType="1" res="1.1737346649169922e-03" rms="4.1629418730735779e-01" purity="6.3156962394714355e-01" nType="-99"/>
          </Node>
          <Node pos="r" depth="2" NCoef="0" IVar="1" Cut="6.8288226318359375e+02" cType="1" res="-2.7610488235950470e-02" rms="4.3152955174446106e-01" purity="4.2471808195114136e-01" nType="0">
            <Node pos="l" depth="3" NCoef="0" IVar="-1" Cut="0.0000000000000000e+00" cType="1" res="-2.7195347938686609e-03" rms="4.2373389005661011e-01" purity="3.6618334054946899e-01" nType="-99"/>
            <Node pos="r" depth="3" NCoef="0" IVar="-1" Cut="0.0000000000000000e+00" cType="1" res="2.4442591238766909e-03" rms="4.4541937112808228e-01" purity="6.6493123769760132e-01" nType="-99"/>
          </Node>
        </Node>
      </Node>
    </BinaryTree>
    <BinaryTree type="DecisionTree" boostWeight="1.0000000000000000e+00" itree="197">
      <Node pos="s" depth="0" NCoef="0" IVar="9" Cut="1.4666399955749512e+00" cType="1" res="1.3594780117273331e-02" rms="4.1130441427230835e-01" purity="5.0024890899658203e-01" nType="0">
        <Node pos="l" depth="1" NCoef="0" IVar="9" Cut="-1.3777303695678711e+00" cType="1" res="2.5557046756148338e-02" rms="4.1307115554809570e-01" purity="5.2324080467224121e-01" nType="0">
          <Node pos="l" depth="2" NCoef="0" IVar="8" Cut="6.6652810573577881e-01" cType="1" res="-6.1791498214006424e-02" rms="3.9931467175483704e-01" purity="3.2513868808746338e-01" nType="0">
            <Node pos="l" depth="3" NCoef="0" IVar="-1" Cut="0.0000000000000000e+00" cType="1" res="-2.0947230514138937e-03" rms="4.0676277875900269e-01" purity="3.5137167572975159e-01" nType="-99"/>
            <Node pos="r" depth="3" NCoef="0" IVar="-1" Cut="0.0000000000000000e+00" cType="1" res="-6.6774520091712475e-03" rms="3.6806818842887878e-01" purity="2.3605723679065704e-01" nType="-99"/>
          </Node>
          <Node pos="r" depth="2" NCoef="0" IVar="6" Cut="-1.1820416450500488e+00" cType="1" res="3.7798039615154266e-02" rms="4.1349104046821594e-01" purity="5.5100274085998535e-01" nType="0">
            <Node pos="l" depth="3" NCoef="0" IVar="-1" Cut="0.0000000000000000e+00" cType="1" res="-2.9170585330575705e-03" rms="3.8862437009811401e-01" purity="3.0236563086509705e-01" nType="-99"/>
            <Node pos="r" depth="3" NCoef="0" IVar="-1" Cut="0.0000000000000000e+00" cType="1" res="1.6970469150692225e-03" rms="4.1464054584503174e-01" purity="5.7840639352798462e-01" nType="-99"/>
          </Node>
        </Node>
        <Node pos="r" depth="1" NCoef="0" IVar="9" Cut="1.9745805263519287e+00" cType="1" res="-9.7855508327484131e-02" rms="3.7662637233734131e-01" purity="2.8603768348693848e-01" nType="0">
          <Node pos="l" depth="2" NCoef="0" IVar="4" Cut="1.3587538146972656e+02" cType="1" res="-7.0346206426620483e-02" rms="3.9345264434814453e-01" purity="3.4439864754676819e-01" nType="0">
            <Node pos="l" depth="3" NCoef="0" IVar="-1" Cut="0.0000000000000000e+00" cType="1" res="-4.0729995816946030e-03" rms="3.6525779962539673e-01" purity="2.4055172502994537e-01" nType="-99"/>
            <Node pos="r" depth="3" NCoef="0" IVar="-1" Cut="0.0000000000000000e+00" cType="1" res="-2.1370842587202787e-03" rms="4.1977110505104065e-01" purity="4.5107817649841309e-01" nType="-99"/>
          </Node>
          <Node pos="r" depth="2" NCoef="0" IVar="-1" Cut="0.0000000000000000e+00" cType="1" res="-7.1455668658018112e-03" rms="3.4929928183555603e-01" purity="2.0745828747749329e-01" nType="-99"/>
        </Node>
      </Node>
    </BinaryTree>
    <BinaryTree type="DecisionTree" boostWeight="1.0000000000000000e+00" itree="198">
      <Node pos="s" depth="0" NCoef="0" IVar="0" Cut="1.1903520507812500e+03" cType="1" res="1.5111580491065979e-02" rms="4.1114321351051331e-01" purity="5.0211888551712036e-01" nType="0">
        <Node pos="l" depth="1" NCoef="0" IVar="2" Cut="2.5599162292480469e+02" cType="1" res="-3.7826582789421082e-02" rms="4.1112697124481201e-01" purity="2.9535847902297974e-01" nType="0">
          <Node pos="l" depth="2" NCoef="0" IVar="0" Cut="1.0230755615234375e+03" cType="1" res="-2.2046836093068123e-03" rms="4.3982401490211487e-01" purity="3.8638624548912048e-01" nType="0">
            <Node pos="l" depth="3" NCoef="0" IVar="-1" Cut="0.0000000000000000e+00" cType="1" res="-2.2045297082513571e-03" rms="4.1292458772659302e-01" purity="2.5862568616867065e-01" nType="-99"/>
            <Node pos="r" depth="3" NCoef="0" IVar="-1" Cut="0.0000000000000000e+00" cType="1" res="1.2709060683846474e-03" rms="4.5549699664115906e-01" purity="4.8712280392646790e-01" nType="-99"/>
          </Node>
          <Node pos="r" depth="2" NCoef="0" IVar="0" Cut="1.0788890380859375e+03" cType="1" res="-6.7140594124794006e-02" rms="3.8344007730484009e-01" purity="2.2044982016086578e-01" nType="0">
            <Node pos="l" depth="3" NCoef="0" IVar="-1" Cut="0.0000000000000000e+00" cType="1" res="-4.3374709784984589e-03" rms="3.5468009114265442e-01" purity="1.6853883862495422e-01" nType="-99"/>
            <Node pos="r" depth="3" NCoef="0" IVar="-1" Cut="0.0000000000000000e+00" cType="1" res="-2.1145327482372522e-03" rms="4.0436884760856628e-01" purity="2.6238265633583069e-01" nType="-99"/>
          </Node>
        </Node>
        <Node pos="r" depth="1" NCoef="0" IVar="2" Cut="4.0313281250000000e+02" cType="1" res="3.5263482481241226e-02" rms="4.0935426950454712e-01" purity="5.8082604408264160e-01" nType="0">
          <Node pos="l" depth="2" NCoef="0" IVar="2" Cut="2.8706039428710938e+02" cType="1" res="7.5577989220619202e-02" rms="3.9403098821640015e-01" purity="6.9865727424621582e-01" nType="0">
            <Node pos="l" depth="3" NCoef="0" IVar="-1" Cut="0.0000000000000000e+00" cType="1" res="4.0272963233292103e-03" rms="3.5767495632171631e-01" purity="8.0225986242294312e-01" nType="-99"/>
            <Node pos="r" depth="3" NCoef="0" IVar="-1" Cut="0.0000000000000000e+00" cType="1" res="1.1636065319180489e-03" rms="4.1403490304946899e-01" purity="6.2178564071655273e-01" nType="-99"/>
          </Node>
          <Node pos="r" depth="2" NCoef="0" IVar="7" Cut="9.3322730064392090e-01" cType="1" res="-1.7198663204908371e-02" rms="4.2275714874267578e-01" purity="4.2748978734016418e-01" nType="0">
            <Node pos="l" depth="3" NCoef="0" IVar="-1" Cut="0.0000000000000000e+00" cType="1" res="1.3027854947722517e-05" rms="4.3009597063064575e-01" purity="4.6932792663574219e-01" nType="-99"/>
            <Node pos="r" depth="3" NCoef="0" IVar="-1" Cut="0.0000000000000000e+00" cType="1" res="-6.5037366002798080e-03" rms="3.7135505676269531e-01" purity="2.1696728467941284e-01" nType="-99"/>
          </Node>
        </Node>
      </Node>
    </BinaryTree>
    <BinaryTree type="DecisionTree" boostWeight="1.0000000000000000e+00" itree="199">
      <Node pos="s" depth="0" NCoef="0" IVar="1" Cut="4.2850576782226562e+02" cType="1" res="1.1415418237447739e-02" rms="4.1143554449081421e-01" purity="4.9588915705680847e-01" nType="0">
        <Node pos="l" depth="1" NCoef="0" IVar="2" Cut="2.4640583801269531e+02" cType="1" res="-1.6138790175318718e-02" rms="4.1084897518157959e-01" purity="3.8976863026618958e-01" nType="0">
          <Node pos="l" depth="2" NCoef="0" IVar="0" Cut="1.0403074951171875e+03" cType="1" res="5.3971268236637115e-02" rms="4.2835834622383118e-01" purity="5.0364166498184204e-01" nType="0">
            <Node pos="l" depth="3" NCoef="0" IVar="-1" Cut="0.0000000000000000e+00" cType="1" res="-1.9644852727651596e-04" rms="4.3523052334785461e-01" purity="3.2647031545639038e-01" nType="-99"/>
            <Node pos="r" depth="3" NCoef="0" IVar="-1" Cut="0.0000000000000000e+00" cType="1" res="2.9275664128363132e-03" rms="4.1840127110481262e-01" purity="6.2932372093200684e-01" nType="-99"/>
          </Node>
          <Node pos="r" depth="2" NCoef="0" IVar="1" Cut="3.6731268310546875e+02" cType="1" res="-3.6203347146511078e-02" rms="4.0346294641494751e-01" purity="3.5717970132827759e-01" nType="0">
            <Node pos="l" depth="3" NCoef="0" IVar="-1" Cut="0.0000000000000000e+00" cType="1" res="-1.8190124537795782e-03" rms="3.9385533332824707e-01" purity="3.1390908360481262e-01" nType="-99"/>
            <Node pos="r" depth="3" NCoef="0" IVar="-1" Cut="0.0000000000000000e+00" cType="1" res="3.5226697218604386e-04" rms="4.1567051410675049e-01" purity="4.3169397115707397e-01" nType="-99"/>
          </Node>
        </Node>
        <Node pos="r" depth="1" NCoef="0" IVar="3" Cut="3.4211151123046875e+02" cType="1" res="5.2335064858198166e-02" rms="4.0889307856559753e-01" purity="6.5348452329635620e-01" nType="0">
          <Node pos="l" depth="2" NCoef="0" IVar="0" Cut="1.3568337402343750e+03" cType="1" res="6.6052921116352081e-02" rms="4.0169471502304077e-01" purity="6.7078435420989990e-01" nType="0">
            <Node pos="l" depth="3" NCoef="0" IVar="-1" Cut="0.0000000000000000e+00" cType="1" res="1.0558733629295602e-04" rms="4.4334587454795837e-01" purity="5.1585984230041504e-01" nType="-99"/>
            <Node pos="r" depth="3" NCoef="0" IVar="-1" Cut="0.0000000000000000e+00" cType="1" res="2.9297657310962677e-03" rms="3.8473752140998840e-01" purity="7.2185260057449341e-01" nType="-99"/>
          </Node>
          <Node pos="r" depth="2" NCoef="0" IVar="-1" Cut="0.0000000000000000e+00" cType="1" res="-2.6141451671719551e-03" rms="4.4883286952972412e-01" purity="5.0744795799255371e-01" nType="-99"/>
        </Node>
      </Node>
    </BinaryTree>
    <BinaryTree type="DecisionTree" boostWeight="1.0000000000000000e+00" itree="200">
      <Node pos="s" depth="0" NCoef="0" IVar="6" Cut="-1.1920300722122192e+00" cType="1" res="9.3928659334778786e-03" rms="4.1126775741577148e-01" purity="4.9551331996917725e-01" nType="0">
        <Node pos="l" depth="1" NCoef="0" IVar="6" Cut="-1.5721770524978638e+00" cType="1" res="-9.0331070125102997e-02" rms="3.6768546700477600e-01" purity="2.4313744902610779e-01" nType="0">
          <Node pos="l" depth="2" NCoef="0" IVar="1" Cut="3.7063687133789062e+02" cType="1" res="-1.2947297096252441e-01" rms="3.3428725600242615e-01" purity="1.7615121603012085e-01" nType="0">
            <Node pos="l" depth="3" NCoef="0" IVar="-1" Cut="0.0000000000000000e+00" cType="1" res="-1.2274211272597313e-02" rms="2.7755460143089294e-01" purity="8.6888499557971954e-02" nType="-99"/>
            <Node pos="r" depth="3" NCoef="0" IVar="-1" Cut="0.0000000000000000e+00" cType="1" res="-6.5233763307332993e-03" rms="3.8194933533668518e-01" purity="2.6451084017753601e-01" nType="-99"/>
          </Node>
          <Node pos="r" depth="2" NCoef="0" IVar="7" Cut="-1.3395482301712036e-01" cType="1" res="-5.4019838571548462e-02" rms="3.9268559217453003e-01" purity="3.0527940392494202e-01" nType="0">
            <Node pos="l" depth="3" NCoef="0" IVar="-1" Cut="0.0000000000000000e+00" cType="1" res="-1.3425728539004922e-03" rms="4.0221375226974487e-01" purity="3.2761323451995850e-01" nType="-99"/>
            <Node pos="r" depth="3" NCoef="0" IVar="-1" Cut="0.0000000000000000e+00" cType="1" res="-3.8091852329671383e-03" rms="3.8090524077415466e-01" purity="2.8190898895263672e-01" nType="-99"/>
          </Node>
        </Node>
        <Node pos="r" depth="1" NCoef="0" IVar="6" Cut="1.0888029336929321e+00" cType="1" res="2.1074606105685234e-02" rms="4.1450756788253784e-01" purity="5.2507686614990234e-01" nType="0">
          <Node pos="l" depth="2" NCoef="0" IVar="2" Cut="6.0625183105468750e+02" cType="1" res="3.6160241812467575e-02" rms="4.1799530386924744e-01" purity="5.6567335128784180e-01" nType="0">
            <Node pos="l" depth="3" NCoef="0" IVar="-1" Cut="0.0000000000000000e+00" cType="1" res="1.7428733408451080e-03" rms="4.1434851288795471e-01" purity="5.8678567409515381e-01" nType="-99"/>
            <Node pos="r" depth="3" NCoef="0" IVar="-1" Cut="0.0000000000000000e+00" cType="1" res="-5.9331738157197833e-04" rms="4.2861747741699219e-01" purity="3.7867882847785950e-01" nType="-99"/>
          </Node>
          <Node pos="r" depth="2" NCoef="0" IVar="6" Cut="1.5775485038757324e+00" cType="1" res="-6.6778033971786499e-02" rms="3.8192135095596313e-01" purity="2.8865945339202881e-01" nType="0">
            <Node pos="l" depth="3" NCoef="0" IVar="-1" Cut="0.0000000000000000e+00" cType="1" res="-1.4872782630845904e-03" rms="4.0177690982818604e-01" purity="3.5005402565002441e-01" nType="-99"/>
            <Node pos="r" depth="3" NCoef="0" IVar="-1" Cut="0.0000000000000000e+00" cType="1" res="-6.2822229228913784e-03" rms="3.4848845005035400e-01" purity="2.0618821680545807e-01" nType="-99"/>
          </Node>
        </Node>
      </Node>
    </BinaryTree>
    <BinaryTree type="DecisionTree" boostWeight="1.0000000000000000e+00" itree="201">
      <Node pos="s" depth="0" NCoef="0" IVar="9" Cut="1.4666941165924072e+00" cType="1" res="1.9368398934602737e-02" rms="4.1373825073242188e-01" purity="5.0452768802642822e-01" nType="0">
        <Node pos="l" depth="1" NCoef="0" IVar="9" Cut="-1.1744632720947266e+00" cType="1" res="3.0613243579864502e-02" rms="4.1529035568237305e-01" purity="5.2780061960220337e-01" nType="0">
          <Node pos="l" depth="2" NCoef="0" IVar="2" Cut="4.5779388427734375e+02" cType="1" res="-6.1651058495044708e-02" rms="3.9703172445297241e-01" purity="3.4285718202590942e-01" nType="0">
            <Node pos="l" depth="3" NCoef="0" IVar="-1" Cut="0.0000000000000000e+00" cType="1" res="-1.8269723514094949e-03" rms="4.0649428963661194e-01" purity="3.8195189833641052e-01" nType="-99"/>
            <Node pos="r" depth="3" NCoef="0" IVar="-1" Cut="0.0000000000000000e+00" cType="1" res="-9.4303172081708908e-03" rms="3.5483908653259277e-01" purity="2.1021659672260284e-01" nType="-99"/>
          </Node>
          <Node pos="r" depth="2" NCoef="0" IVar="8" Cut="1.1998859643936157e+00" cType="1" res="4.8080954700708389e-02" rms="4.1636201739311218e-01" purity="5.6281459331512451e-01" nType="0">
            <Node pos="l" depth="3" NCoef="0" IVar="-1" Cut="0.0000000000000000e+00" cType="1" res="2.0385845564305782e-03" rms="4.1565206646919250e-01" purity="5.9204351902008057e-01" nType="-99"/>
            <Node pos="r" depth="3" NCoef="0" IVar="-1" Cut="0.0000000000000000e+00" cType="1" res="-1.7145427409559488e-03" rms="4.1092872619628906e-01" purity="3.4984257817268372e-01" nType="-99"/>
          </Node>
        </Node>
        <Node pos="r" depth="1" NCoef="0" IVar="9" Cut="1.9746111631393433e+00" cType="1" res="-8.3898745477199554e-02" rms="3.8410568237304688e-01" purity="2.9080089926719666e-01" nType="0">
          <Node pos="l" depth="2" NCoef="0" IVar="6" Cut="1.9392344355583191e-01" cType="1" res="-5.7229526340961456e-02" rms="4.0170094370841980e-01" purity="3.4402772784233093e-01" nType="0">
            <Node pos="l" depth="3" NCoef="0" IVar="-1" Cut="0.0000000000000000e+00" cType="1" res="-3.3692936412990093e-03" rms="4.0092915296554565e-01" purity="3.2953131198883057e-01" nType="-99"/>
            <Node pos="r" depth="3" NCoef="0" IVar="-1" Cut="0.0000000000000000e+00" cType="1" res="-1.7654842231422663e-03" rms="4.0166893601417542e-01" purity="3.5862642526626587e-01" nType="-99"/>
          </Node>
          <Node pos="r" depth="2" NCoef="0" IVar="-1" Cut="0.0000000000000000e+00" cType="1" res="-6.6120037809014320e-03" rms="3.5592368245124817e-01" purity="2.1916013956069946e-01" nType="-99"/>
        </Node>
      </Node>
    </BinaryTree>
    <BinaryTree type="DecisionTree" boostWeight="1.0000000000000000e+00" itree="202">
      <Node pos="s" depth="0" NCoef="0" IVar="0" Cut="1.4630610351562500e+03" cType="1" res="1.4124434441328049e-02" rms="4.1208609938621521e-01" purity="5.0124907493591309e-01" nType="0">
        <Node pos="l" depth="1" NCoef="0" IVar="2" Cut="2.9328390502929688e+02" cType="1" res="-1.4398339204490185e-02" rms="4.1646885871887207e-01" purity="4.0689602494239807e-01" nType="0">
          <Node pos="l" depth="2" NCoef="0" IVar="0" Cut="1.1157342529296875e+03" cType="1" res="2.9662666842341423e-02" rms="4.2605099081993103e-01" purity="5.0689208507537842e-01" nType="0">
            <Node pos="l" depth="3" NCoef="0" IVar="-1" Cut="0.0000000000000000e+00" cType="1" res="-1.7175913089886308e-03" rms="4.2362332344055176e-01" purity="2.8824543952941895e-01" nType="-99"/>
            <Node pos="r" depth="3" NCoef="0" IVar="-1" Cut="0.0000000000000000e+00" cType="1" res="2.5991629809141159e-03" rms="4.1955220699310303e-01" purity="6.7641258239746094e-01" nType="-99"/>
          </Node>
          <Node pos="r" depth="2" NCoef="0" IVar="1" Cut="3.4119647216796875e+02" cType="1" res="-6.1708163470029831e-02" rms="4.0056854486465454e-01" purity="2.9952684044837952e-01" nType="0">
            <Node pos="l" depth="3" NCoef="0" IVar="-1" Cut="0.0000000000000000e+00" cType="1" res="-5.7110358029603958e-03" rms="3.5330227017402649e-01" purity="1.9728536903858185e-01" nType="-99"/>
            <Node pos="r" depth="3" NCoef="0" IVar="-1" Cut="0.0000000000000000e+00" cType="1" res="-1.3565797125920653e-03" rms="4.2167133092880249e-01" purity="3.5576197504997253e-01" nType="-99"/>
          </Node>
        </Node>
        <Node pos="r" depth="1" NCoef="0" IVar="2" Cut="5.0837344360351562e+02" cType="1" res="5.5186327546834946e-02" rms="4.0215659141540527e-01" purity="6.3708138465881348e-01" nType="0">
          <Node pos="l" depth="2" NCoef="0" IVar="3" Cut="2.8282205200195312e+02" cType="1" res="1.0417692363262177e-01" rms="3.7345302104949951e-01" purity="7.5695031881332397e-01" nType="0">
            <Node pos="l" depth="3" NCoef="0" IVar="-1" Cut="0.0000000000000000e+00" cType="1" res="4.3990677222609520e-03" rms="3.4213334321975708e-01" purity="8.1995826959609985e-01" nType="-99"/>
            <Node pos="r" depth="3" NCoef="0" IVar="-1" Cut="0.0000000000000000e+00" cType="1" res="9.7897718660533428e-04" rms="4.2697587609291077e-01" purity="6.1208730936050415e-01" nType="-99"/>
          </Node>
          <Node pos="r" depth="2" NCoef="0" IVar="1" Cut="6.3030120849609375e+02" cType="1" res="-3.0014494433999062e-02" rms="4.3475797772407532e-01" purity="4.2861416935920715e-01" nType="0">
            <Node pos="l" depth="3" NCoef="0" IVar="-1" Cut="0.0000000000000000e+00" cType="1" res="-1.3249780749902129e-03" rms="4.2465585470199585e-01" purity="3.4356629848480225e-01" nType="-99"/>
            <Node pos="r" depth="3" NCoef="0" IVar="-1" Cut="0.0000000000000000e+00" cType="1" res="1.9250910263508558e-03" rms="4.4568938016891479e-01" purity="6.4535784721374512e-01" nType="-99"/>
          </Node>
        </Node>
      </Node>
    </BinaryTree>
    <BinaryTree type="DecisionTree" boostWeight="1.0000000000000000e+00" itree="203">
      <Node pos="s" depth="0" NCoef="0" IVar="7" Cut="-9.3329852819442749e-01" cType="1" res="1.5219404362142086e-02" rms="4.1079232096672058e-01" purity="5.0244253873825073e-01" nType="0">
        <Node pos="l" depth="1" NCoef="0" IVar="2" Cut="4.7390847778320312e+02" cType="1" res="-5.9982299804687500e-02" rms="3.8606831431388855e-01" purity="3.2077798247337341e-01" nType="0">
          <Node pos="l" depth="2" NCoef="0" IVar="0" Cut="1.2679772949218750e+03" cType="1" res="-4.1063353419303894e-02" rms="3.9489695429801941e-01" purity="3.5479959845542908e-01" nType="0">
            <Node pos="l" depth="3" NCoef="0" IVar="-1" Cut="0.0000000000000000e+00" cType="1" res="-4.3734307400882244e-03" rms="3.6076796054840088e-01" purity="2.0331902801990509e-01" nType="-99"/>
            <Node pos="r" depth="3" NCoef="0" IVar="-1" Cut="0.0000000000000000e+00" cType="1" res="4.3531606206670403e-04" rms="4.2470878362655640e-01" purity="5.2873837947845459e-01" nType="-99"/>
          </Node>
          <Node pos="r" depth="2" NCoef="0" IVar="-1" Cut="0.0000000000000000e+00" cType="1" res="-1.0763767175376415e-02" rms="3.3754554390907288e-01" purity="1.8343657255172729e-01" nType="-99"/>
        </Node>
        <Node pos="r" depth="1" NCoef="0" IVar="7" Cut="8.4446680545806885e-01" cType="1" res="3.1106635928153992e-02" rms="4.1408377885818481e-01" purity="5.4082131385803223e-01" nType="0">
          <Node pos="l" depth="2" NCoef="0" IVar="8" Cut="-1.2000046968460083e+00" cType="1" res="5.4279081523418427e-02" rms="4.1711238026618958e-01" purity="6.0188627243041992e-01" nType="0">
            <Node pos="l" depth="3" NCoef="0" IVar="-1" Cut="0.0000000000000000e+00" cType="1" res="-1.7860447987914085e-03" rms="4.2240935564041138e-01" purity="3.8179358839988708e-01" nType="-99"/>
            <Node pos="r" depth="3" NCoef="0" IVar="-1" Cut="0.0000000000000000e+00" cType="1" res="1.8212259747087955e-03" rms="4.1478592157363892e-01" purity="6.3010215759277344e-01" nType="-99"/>
          </Node>
          <Node pos="r" depth="2" NCoef="0" IVar="2" Cut="3.3269390869140625e+02" cType="1" res="-4.5452430844306946e-02" rms="3.9435133337974548e-01" purity="3.3906975388526917e-01" nType="0">
            <Node pos="l" depth="3" NCoef="0" IVar="-1" Cut="0.0000000000000000e+00" cType="1" res="-3.7719256943091750e-04" rms="4.0578386187553406e-01" purity="4.0944984555244446e-01" nType="-99"/>
            <Node pos="r" depth="3" NCoef="0" IVar="-1" Cut="0.0000000000000000e+00" cType="1" res="-4.7382628545165062e-03" rms="3.7899938225746155e-01" purity="2.6780065894126892e-01" nType="-99"/>
          </Node>
        </Node>
      </Node>
    </BinaryTree>
    <BinaryTree type="DecisionTree" boostWeight="1.0000000000000000e+00" itree="204">
      <Node pos="s" depth="0" NCoef="0" IVar="0" Cut="1.4073211669921875e+03" cType="1" res="1.6487348824739456e-02" rms="4.0912067890167236e-01" purity="5.0483006238937378e-01" nType="0">
        <Node pos="l" depth="1" NCoef="0" IVar="2" Cut="2.8263516235351562e+02" cType="1" res="-1.7187086865305901e-02" rms="4.1540586948394775e-01" purity="3.9051401615142822e-01" nType="0">
          <Node pos="l" depth="2" NCoef="0" IVar="0" Cut="1.0602923583984375e+03" cType="1" res="2.5768833234906197e-02" rms="4.2625805735588074e-01" purity="4.9272000789642334e-01" nType="0">
            <Node pos="l" depth="3" NCoef="0" IVar="-1" Cut="0.0000000000000000e+00" cType="1" res="-2.3373838048428297e-03" rms="4.0894582867622375e-01" purity="2.5999629497528076e-01" nType="-99"/>
            <Node pos="r" depth="3" NCoef="0" IVar="-1" Cut="0.0000000000000000e+00" cType="1" res="2.1478333510458469e-03" rms="4.2869839072227478e-01" purity="6.1749351024627686e-01" nType="-99"/>
          </Node>
          <Node pos="r" depth="2" NCoef="0" IVar="9" Cut="-1.1998385190963745e+00" cType="1" res="-5.8358076959848404e-02" rms="4.0042984485626221e-01" purity="2.9255494475364685e-01" nType="0">
            <Node pos="l" depth="3" NCoef="0" IVar="-1" Cut="0.0000000000000000e+00" cType="1" res="-8.3452425897121429e-03" rms="3.2291683554649353e-01" purity="1.5704862773418427e-01" nType="-99"/>
            <Node pos="r" depth="3" NCoef="0" IVar="-1" Cut="0.0000000000000000e+00" cType="1" res="-1.7458752263337374e-03" rms="4.1239154338836670e-01" purity="3.1990426778793335e-01" nType="-99"/>
          </Node>
        </Node>
        <Node pos="r" depth="1" NCoef="0" IVar="2" Cut="4.7998303222656250e+02" cType="1" res="5.4710175842046738e-02" rms="3.9843359589576721e-01" purity="6.3458663225173950e-01" nType="0">
          <Node pos="l" depth="2" NCoef="0" IVar="3" Cut="2.6397305297851562e+02" cType="1" res="1.0313798487186432e-01" rms="3.6895132064819336e-01" purity="7.6236516237258911e-01" nType="0">
            <Node pos="l" depth="3" NCoef="0" IVar="-1" Cut="0.0000000000000000e+00" cType="1" res="4.5795505866408348e-03" rms="3.3552482724189758e-01" purity="8.2823103666305542e-01" nType="-99"/>
            <Node pos="r" depth="3" NCoef="0" IVar="-1" Cut="0.0000000000000000e+00" cType="1" res="1.2270967708900571e-03" rms="4.1361850500106812e-01" purity="6.4349609613418579e-01" nType="-99"/>
          </Node>
          <Node pos="r" depth="2" NCoef="0" IVar="1" Cut="6.7099951171875000e+02" cType="1" res="-2.2559665143489838e-02" rms="4.3027341365814209e-01" purity="4.3070745468139648e-01" nType="0">
            <Node pos="l" depth="3" NCoef="0" IVar="-1" Cut="0.0000000000000000e+00" cType="1" res="-2.4781187530606985e-03" rms="4.2313644289970398e-01" purity="3.6683586239814758e-01" nType="-99"/>
            <Node pos="r" depth="3" NCoef="0" IVar="-1" Cut="0.0000000000000000e+00" cType="1" res="2.4913679808378220e-03" rms="4.3965062499046326e-01" purity="6.7255258560180664e-01" nType="-99"/>
          </Node>
        </Node>
      </Node>
    </BinaryTree>
    <BinaryTree type="DecisionTree" boostWeight="1.0000000000000000e+00" itree="205">
      <Node pos="s" depth="0" NCoef="0" IVar="7" Cut="-9.3328660726547241e-01" cType="1" res="1.4412654563784599e-02" rms="4.1056594252586365e-01" purity="5.0151783227920532e-01" nType="0">
        <Node pos="l" depth="1" NCoef="0" IVar="6" Cut="4.2580541968345642e-01" cType="1" res="-6.4214810729026794e-02" rms="3.8338837027549744e-01" purity="3.1140616536140442e-01" nType="0">
          <Node pos="l" depth="2" NCoef="0" IVar="6" Cut="-1.0814210176467896e+00" cType="1" res="-3.9782013744115829e-02" rms="3.9661279320716858e-01" purity="3.5633236169815063e-01" nType="0">
            <Node pos="l" depth="3" NCoef="0" IVar="-1" Cut="0.0000000000000000e+00" cType="1" res="-7.5869304127991199e-03" rms="3.1088146567344666e-01" purity="1.6597621142864227e-01" nType="-99"/>
            <Node pos="r" depth="3" NCoef="0" IVar="-1" Cut="0.0000000000000000e+00" cType="1" res="-6.3927756855264306e-04" rms="4.1821619868278503e-01" purity="4.1872337460517883e-01" nType="-99"/>
          </Node>
          <Node pos="r" depth="2" NCoef="0" IVar="7" Cut="-1.4666777849197388e+00" cType="1" res="-1.1725740879774094e-01" rms="3.4710744023323059e-01" purity="2.1387320756912231e-01" nType="0">
            <Node pos="l" depth="3" NCoef="0" IVar="-1" Cut="0.0000000000000000e+00" cType="1" res="-8.8484892621636391e-03" rms="3.1456297636032104e-01" purity="1.4656826853752136e-01" nType="-99"/>
            <Node pos="r" depth="3" NCoef="0" IVar="-1" Cut="0.0000000000000000e+00" cType="1" res="-5.1908968016505241e-03" rms="3.7686255574226379e-01" purity="2.8215414285659790e-01" nType="-99"/>
          </Node>
        </Node>
        <Node pos="r" depth="1" NCoef="0" IVar="7" Cut="8.4443122148513794e-01" cType="1" res="3.0940039083361626e-02" rms="4.1415858268737793e-01" purity="5.4147905111312866e-01" nType="0">
          <Node pos="l" depth="2" NCoef="0" IVar="9" Cut="1.2000730037689209e+00" cType="1" res="5.2613567560911179e-02" rms="4.1723033785820007e-01" purity="6.0126990079879761e-01" nType="0">
            <Node pos="l" depth="3" NCoef="0" IVar="-1" Cut="0.0000000000000000e+00" cType="1" res="2.1706251427531242e-03" rms="4.1451984643936157e-01" purity="6.2524330615997314e-01" nType="-99"/>
            <Node pos="r" depth="3" NCoef="0" IVar="-1" Cut="0.0000000000000000e+00" cType="1" res="-1.4224548358470201e-03" rms="4.2483580112457275e-01" purity="4.3605569005012512e-01" nType="-99"/>
          </Node>
          <Node pos="r" depth="2" NCoef="0" IVar="6" Cut="-6.2813687324523926e-01" cType="1" res="-3.9358898997306824e-02" rms="3.9595246315002441e-01" purity="3.4754499793052673e-01" nType="0">
            <Node pos="l" depth="3" NCoef="0" IVar="-1" Cut="0.0000000000000000e+00" cType="1" res="-6.4409552142024040e-03" rms="3.5634866356849670e-01" purity="2.1402943134307861e-01" nType="-99"/>
            <Node pos="r" depth="3" NCoef="0" IVar="-1" Cut="0.0000000000000000e+00" cType="1" res="-7.9037679824978113e-04" rms="4.0575158596038818e-01" purity="3.9024388790130615e-01" nType="-99"/>
          </Node>
        </Node>
      </Node>
    </BinaryTree>
    <BinaryTree type="DecisionTree" boostWeight="1.0000000000000000e+00" itree="206">
      <Node pos="s" depth="0" NCoef="0" IVar="7" Cut="9.3336993455886841e-01" cType="1" res="1.2282560579478741e-02" rms="4.1203871369361877e-01" purity="4.9597248435020447e-01" nType="0">
        <Node pos="l" depth="1" NCoef="0" IVar="7" Cut="-6.6659152507781982e-01" cType="1" res="2.7024347335100174e-02" rms="4.1648566722869873e-01" purity="5.3564667701721191e-01" nType="0">
          <Node pos="l" depth="2" NCoef="0" IVar="7" Cut="-1.4792712926864624e+00" cType="1" res="-3.5283960402011871e-02" rms="4.0219190716743469e-01" purity="3.7991127371788025e-01" nType="0">
            <Node pos="l" depth="3" NCoef="0" IVar="-1" Cut="0.0000000000000000e+00" cType="1" res="-5.5087036453187466e-03" rms="3.4779664874076843e-01" purity="2.0114012062549591e-01" nType="-99"/>
            <Node pos="r" depth="3" NCoef="0" IVar="-1" Cut="0.0000000000000000e+00" cType="1" res="-3.4005218185484409e-04" rms="4.2205402255058289e-01" purity="4.6140596270561218e-01" nType="-99"/>
          </Node>
          <Node pos="r" depth="2" NCoef="0" IVar="6" Cut="7.0222574472427368e-01" cType="1" res="5.3334183990955353e-02" rms="4.1960692405700684e-01" purity="6.0140633583068848e-01" nType="0">
            <Node pos="l" depth="3" NCoef="0" IVar="-1" Cut="0.0000000000000000e+00" cType="1" res="2.2566192783415318e-03" rms="4.1495457291603088e-01" purity="6.3770478963851929e-01" nType="-99"/>
            <Node pos="r" depth="3" NCoef="0" IVar="-1" Cut="0.0000000000000000e+00" cType="1" res="-1.2923793110530823e-04" rms="4.3128991127014160e-01" purity="4.6970689296722412e-01" nType="-99"/>
          </Node>
        </Node>
        <Node pos="r" depth="1" NCoef="0" IVar="3" Cut="2.3765444946289062e+02" cType="1" res="-5.8676209300756454e-02" rms="3.8204717636108398e-01" purity="3.0500298738479614e-01" nType="0">
          <Node pos="l" depth="2" NCoef="0" IVar="0" Cut="1.3639448242187500e+03" cType="1" res="-3.8392439484596252e-02" rms="3.8087296485900879e-01" purity="3.0996465682983398e-01" nType="0">
            <Node pos="l" depth="3" NCoef="0" IVar="-1" Cut="0.0000000000000000e+00" cType="1" res="-4.1624605655670166e-03" rms="3.5860645771026611e-01" purity="2.0930443704128265e-01" nType="-99"/>
            <Node pos="r" depth="3" NCoef="0" IVar="-1" Cut="0.0000000000000000e+00" cType="1" res="2.1370521280914545e-03" rms="4.1124063730239868e-01" purity="5.3417158126831055e-01" nType="-99"/>
          </Node>
          <Node pos="r" depth="2" NCoef="0" IVar="-1" Cut="0.0000000000000000e+00" cType="1" res="-6.5034837462007999e-03" rms="3.7961244583129883e-01" purity="2.9115077853202820e-01" nType="-99"/>
        </Node>
      </Node>
    </BinaryTree>
    <BinaryTree type="DecisionTree" boostWeight="1.0000000000000000e+00" itree="207">
      <Node pos="s" depth="0" NCoef="0" IVar="6" Cut="-9.2584341764450073e-01" cType="1" res="1.3912290334701538e-02" rms="4.1036322712898254e-01" purity="5.0161975622177124e-01" nType="0">
        <Node pos="l" depth="1" NCoef="0" IVar="0" Cut="1.5683608398437500e+03" cType="1" res="-6.4678736031055450e-02" rms="3.8864621520042419e-01" purity="3.0251839756965637e-01" nType="0">
          <Node pos="l" depth="2" NCoef="0" IVar="3" Cut="2.0184860229492188e+02" cType="1" res="-8.5516624152660370e-02" rms="3.7432023882865906e-01" purity="2.3869766294956207e-01" nType="0">
            <Node pos="l" depth="3" NCoef="0" IVar="-1" Cut="0.0000000000000000e+00" cType="1" res="-2.8731042984873056e-03" rms="3.7918043136596680e-01" purity="2.3981069028377533e-01" nType="-99"/>
            <Node pos="r" depth="3" NCoef="0" IVar="-1" Cut="0.0000000000000000e+00" cType="1" res="-8.1428103148937225e-03" rms="3.5616400837898254e-01" purity="2.3624834418296814e-01" nType="-99"/>
          </Node>
          <Node pos="r" depth="2" NCoef="0" IVar="-1" Cut="0.0000000000000000e+00" cType="1" res="-1.5063729370012879e-04" rms="4.2196410894393921e-01" purity="4.8937085270881653e-01" nType="-99"/>
        </Node>
        <Node pos="r" depth="1" NCoef="0" IVar="6" Cut="6.7081218957901001e-01" cType="1" res="2.8741097077727318e-02" rms="4.1265812516212463e-01" purity="5.3918683528900146e-01" nType="0">
          <Node pos="l" depth="2" NCoef="0" IVar="2" Cut="6.0625183105468750e+02" cType="1" res="5.1987461745738983e-02" rms="4.1390496492385864e-01" purity="6.0046601295471191e-01" nType="0">
            <Node pos="l" depth="3" NCoef="0" IVar="-1" Cut="0.0000000000000000e+00" cType="1" res="2.0991915371268988e-03" rms="4.1008362174034119e-01" purity="6.1806899309158325e-01" nType="-99"/>
            <Node pos="r" depth="3" NCoef="0" IVar="-1" Cut="0.0000000000000000e+00" cType="1" res="-2.2043862845748663e-03" rms="4.3520835041999817e-01" purity="4.3448030948638916e-01" nType="-99"/>
          </Node>
          <Node pos="r" depth="2" NCoef="0" IVar="7" Cut="-6.6671746969223022e-01" cType="1" res="-2.9735911637544632e-02" rms="4.0362769365310669e-01" purity="3.8503688573837280e-01" nType="0">
            <Node pos="l" depth="3" NCoef="0" IVar="-1" Cut="0.0000000000000000e+00" cType="1" res="-5.5600437335669994e-03" rms="3.6810430884361267e-01" purity="2.4250917136669159e-01" nType="-99"/>
            <Node pos="r" depth="3" NCoef="0" IVar="-1" Cut="0.0000000000000000e+00" cType="1" res="-3.6234979052096605e-04" rms="4.1182368993759155e-01" purity="4.2909780144691467e-01" nType="-99"/>
          </Node>
        </Node>
      </Node>
    </BinaryTree>
    <BinaryTree type="DecisionTree" boostWeight="1.0000000000000000e+00" itree="208">
      <Node pos="s" depth="0" NCoef="0" IVar="9" Cut="1.4665384292602539e+00" cType="1" res="2.1027935668826103e-02" rms="4.1062134504318237e-01" purity="5.0863063335418701e-01" nType="0">
        <Node pos="l" depth="1" NCoef="0" IVar="9" Cut="-9.7136515378952026e-01" cType="1" res="3.1762305647134781e-02" rms="4.1235554218292236e-01" purity="5.3076046705245972e-01" nType="0">
          <Node pos="l" depth="2" NCoef="0" IVar="2" Cut="4.7257806396484375e+02" cType="1" res="-3.9529539644718170e-02" rms="4.0088441967964172e-01" purity="3.8218152523040771e-01" nType="0">
            <Node pos="l" depth="3" NCoef="0" IVar="-1" Cut="0.0000000000000000e+00" cType="1" res="-8.5771374870091677e-04" rms="4.0527477860450745e-01" purity="4.1910791397094727e-01" nType="-99"/>
            <Node pos="r" depth="3" NCoef="0" IVar="-1" Cut="0.0000000000000000e+00" cType="1" res="-7.6817958615720272e-03" rms="3.7399688363075256e-01" purity="2.3714487254619598e-01" nType="-99"/>
          </Node>
          <Node pos="r" depth="2" NCoef="0" IVar="8" Cut="-1.2000291347503662e+00" cType="1" res="5.0728578120470047e-02" rms="4.1328805685043335e-01" purity="5.7028800249099731e-01" nType="0">
            <Node pos="l" depth="3" NCoef="0" IVar="-1" Cut="0.0000000000000000e+00" cType="1" res="-2.0368543919175863e-03" rms="4.0779954195022583e-01" purity="3.4802308678627014e-01" nType="-99"/>
            <Node pos="r" depth="3" NCoef="0" IVar="-1" Cut="0.0000000000000000e+00" cType="1" res="2.0761818159371614e-03" rms="4.1243460774421692e-01" purity="5.9807878732681274e-01" nType="-99"/>
          </Node>
        </Node>
        <Node pos="r" depth="1" NCoef="0" IVar="9" Cut="2.1648972034454346e+00" cType="1" res="-8.2162126898765564e-02" rms="3.7833100557327271e-01" purity="2.9589498043060303e-01" nType="0">
          <Node pos="l" depth="2" NCoef="0" IVar="3" Cut="1.8870622253417969e+02" cType="1" res="-5.9852514415979385e-02" rms="3.9164832234382629e-01" purity="3.3737620711326599e-01" nType="0">
            <Node pos="l" depth="3" NCoef="0" IVar="-1" Cut="0.0000000000000000e+00" cType="1" res="-1.4354654122143984e-03" rms="3.8659846782684326e-01" purity="3.0653709173202515e-01" nType="-99"/>
            <Node pos="r" depth="3" NCoef="0" IVar="-1" Cut="0.0000000000000000e+00" cType="1" res="-4.0645860135555267e-03" rms="3.9482697844505310e-01" purity="3.6569160223007202e-01" nType="-99"/>
          </Node>
          <Node pos="r" depth="2" NCoef="0" IVar="-1" Cut="0.0000000000000000e+00" cType="1" res="-8.3414185792207718e-03" rms="3.3484202623367310e-01" purity="1.8898989260196686e-01" nType="-99"/>
        </Node>
      </Node>
    </BinaryTree>
    <BinaryTree type="DecisionTree" boostWeight="1.0000000000000000e+00" itree="209">
      <Node pos="s" depth="0" NCoef="0" IVar="6" Cut="-1.1820279359817505e+00" cType="1" res="1.0868345387279987e-02" rms="4.0867984294891357e-01" purity="5.0014108419418335e-01" nType="0">
        <Node pos="l" depth="1" NCoef="0" IVar="7" Cut="4.0053215622901917e-01" cType="1" res="-8.1028550863265991e-02" rms="3.6679238080978394e-01" purity="2.5225514173507690e-01" nType="0">
          <Node pos="l" depth="2" NCoef="0" IVar="2" Cut="3.7846752929687500e+02" cType="1" res="-6.0504060238599777e-02" rms="3.8157042860984802e-01" purity="2.9134204983711243e-01" nType="0">
            <Node pos="l" depth="3" NCoef="0" IVar="-1" Cut="0.0000000000000000e+00" cType="1" res="-1.1913982452824712e-03" rms="4.0040299296379089e-01" purity="3.4748297929763794e-01" nType="-99"/>
            <Node pos="r" depth="3" NCoef="0" IVar="-1" Cut="0.0000000000000000e+00" cType="1" res="-8.0093881115317345e-03" rms="3.3899050951004028e-01" purity="1.9338943064212799e-01" nType="-99"/>
          </Node>
          <Node pos="r" depth="2" NCoef="0" IVar="-1" Cut="0.0000000000000000e+00" cType="1" res="-7.9464288428425789e-03" rms="3.3200392127037048e-01" purity="1.7508022487163544e-01" nType="-99"/>
        </Node>
        <Node pos="r" depth="1" NCoef="0" IVar="7" Cut="-1.4666526317596436e+00" cType="1" res="2.1733127534389496e-02" rms="4.1199886798858643e-01" purity="5.2944815158843994e-01" nType="0">
          <Node pos="l" depth="2" NCoef="0" IVar="1" Cut="3.9799932861328125e+02" cType="1" res="-9.1312155127525330e-02" rms="3.6145824193954468e-01" purity="2.2609926760196686e-01" nType="0">
            <Node pos="l" depth="3" NCoef="0" IVar="-1" Cut="0.0000000000000000e+00" cType="1" res="-7.7639245428144932e-03" rms="3.0758228898048401e-01" purity="1.2950323522090912e-01" nType="-99"/>
            <Node pos="r" depth="3" NCoef="0" IVar="-1" Cut="0.0000000000000000e+00" cType="1" res="-2.4017142131924629e-03" rms="4.1805464029312134e-01" purity="3.5152626037597656e-01" nType="-99"/>
          </Node>
          <Node pos="r" depth="2" NCoef="0" IVar="7" Cut="7.6819759607315063e-01" cType="1" res="3.0844405293464661e-02" rms="4.1446441411972046e-01" purity="5.5389761924743652e-01" nType="0">
            <Node pos="l" depth="3" NCoef="0" IVar="-1" Cut="0.0000000000000000e+00" cType="1" res="1.7592932563275099e-03" rms="4.1545537114143372e-01" purity="6.0789048671722412e-01" nType="-99"/>
            <Node pos="r" depth="3" NCoef="0" IVar="-1" Cut="0.0000000000000000e+00" cType="1" res="-1.7782471841201186e-03" rms="4.0295132994651794e-01" purity="3.7046700716018677e-01" nType="-99"/>
          </Node>
        </Node>
      </Node>
    </BinaryTree>
    <BinaryTree type="DecisionTree" boostWeight="1.0000000000000000e+00" itree="210">
      <Node pos="s" depth="0" NCoef="0" IVar="7" Cut="-1.4663877487182617e+00" cType="1" res="1.6474293544888496e-02" rms="4.0809905529022217e-01" purity="5.0612568855285645e-01" nType="0">
        <Node pos="l" depth="1" NCoef="0" IVar="3" Cut="1.6766204833984375e+02" cType="1" res="-9.6828192472457886e-02" rms="3.4058696031570435e-01" purity="1.9886802136898041e-01" nType="0">
          <Node pos="l" depth="2" NCoef="0" IVar="-1" Cut="0.0000000000000000e+00" cType="1" res="-3.8079062942415476e-03" rms="3.3273535966873169e-01" purity="1.7758224904537201e-01" nType="-99"/>
          <Node pos="r" depth="2" NCoef="0" IVar="-1" Cut="0.0000000000000000e+00" cType="1" res="-7.5211701914668083e-03" rms="3.4347552061080933e-01" purity="2.1360854804515839e-01" nType="-99"/>
        </Node>
        <Node pos="r" depth="1" NCoef="0" IVar="7" Cut="9.7154170274734497e-01" cType="1" res="2.5912877172231674e-02" rms="4.1182154417037964e-01" purity="5.3172159194946289e-01" nType="0">
          <Node pos="l" depth="2" NCoef="0" IVar="6" Cut="6.8399143218994141e-01" cType="1" res="4.1785091161727905e-02" rms="4.1514283418655396e-01" purity="5.7842791080474854e-01" nType="0">
            <Node pos="l" depth="3" NCoef="0" IVar="-1" Cut="0.0000000000000000e+00" cType="1" res="2.0032278262078762e-03" rms="4.1144922375679016e-01" purity="6.1789554357528687e-01" nType="-99"/>
            <Node pos="r" depth="3" NCoef="0" IVar="-1" Cut="0.0000000000000000e+00" cType="1" res="-8.4382120985537767e-04" rms="4.2217648029327393e-01" purity="4.3598008155822754e-01" nType="-99"/>
          </Node>
          <Node pos="r" depth="2" NCoef="0" IVar="3" Cut="2.5590449523925781e+02" cType="1" res="-4.9827534705400467e-02" rms="3.8671940565109253e-01" purity="3.0884426832199097e-01" nType="0">
            <Node pos="l" depth="3" NCoef="0" IVar="-1" Cut="0.0000000000000000e+00" cType="1" res="-1.2467245105654001e-03" rms="3.8703209161758423e-01" purity="3.2415640354156494e-01" nType="-99"/>
            <Node pos="r" depth="3" NCoef="0" IVar="-1" Cut="0.0000000000000000e+00" cType="1" res="-9.3780318275094032e-03" rms="3.7134426832199097e-01" purity="2.4664004147052765e-01" nType="-99"/>
          </Node>
        </Node>
      </Node>
    </BinaryTree>
    <BinaryTree type="DecisionTree" boostWeight="1.0000000000000000e+00" itree="211">
      <Node pos="s" depth="0" NCoef="0" IVar="9" Cut="-1.7332689762115479e+00" cType="1" res="9.8662218078970909e-03" rms="4.0980622172355652e-01" purity="4.9748072028160095e-01" nType="0">
        <Node pos="l" depth="1" NCoef="0" IVar="5" Cut="9.3145729064941406e+01" cType="1" res="-1.1930539458990097e-01" rms="3.5292688012123108e-01" purity="2.3158182203769684e-01" nType="0">
          <Node pos="l" depth="2" NCoef="0" IVar="-1" Cut="0.0000000000000000e+00" cType="1" res="-7.0970398373901844e-03" rms="3.1856700778007507e-01" purity="1.5564036369323730e-01" nType="-99"/>
          <Node pos="r" depth="2" NCoef="0" IVar="-1" Cut="0.0000000000000000e+00" cType="1" res="-6.5891118720173836e-03" rms="3.9000466465950012e-01" purity="3.2416823506355286e-01" nType="-99"/>
        </Node>
        <Node pos="r" depth="1" NCoef="0" IVar="9" Cut="1.0730012655258179e+00" cType="1" res="1.8417607992887497e-02" rms="4.1186830401420593e-01" purity="5.1508367061614990e-01" nType="0">
          <Node pos="l" depth="2" NCoef="0" IVar="7" Cut="-1.4666252136230469e+00" cType="1" res="3.3480096608400345e-02" rms="4.1369134187698364e-01" purity="5.4769176244735718e-01" nType="0">
            <Node pos="l" depth="3" NCoef="0" IVar="-1" Cut="0.0000000000000000e+00" cType="1" res="-4.2632194235920906e-03" rms="3.7047091126441956e-01" purity="2.3048166930675507e-01" nType="-99"/>
            <Node pos="r" depth="3" NCoef="0" IVar="-1" Cut="0.0000000000000000e+00" cType="1" res="1.4904781710356474e-03" rms="4.1568738222122192e-01" purity="5.7332545518875122e-01" nType="-99"/>
          </Node>
          <Node pos="r" depth="2" NCoef="0" IVar="9" Cut="1.9775934219360352e+00" cType="1" res="-4.8283636569976807e-02" rms="3.9688423275947571e-01" purity="3.7068533897399902e-01" nType="0">
            <Node pos="l" depth="3" NCoef="0" IVar="-1" Cut="0.0000000000000000e+00" cType="1" res="-1.1167299235239625e-03" rms="4.0761968493461609e-01" purity="4.1756898164749146e-01" nType="-99"/>
            <Node pos="r" depth="3" NCoef="0" IVar="-1" Cut="0.0000000000000000e+00" cType="1" res="-6.3758222386240959e-03" rms="3.5204970836639404e-01" purity="2.1781443059444427e-01" nType="-99"/>
          </Node>
        </Node>
      </Node>
    </BinaryTree>
    <BinaryTree type="DecisionTree" boostWeight="1.0000000000000000e+00" itree="212">
      <Node pos="s" depth="0" NCoef="0" IVar="0" Cut="1.4400944824218750e+03" cType="1" res="1.4451009221374989e-02" rms="4.1050210595130920e-01" purity="5.0063633918762207e-01" nType="0">
        <Node pos="l" depth="1" NCoef="0" IVar="2" Cut="2.8068051147460938e+02" cType="1" res="-1.2093308381736279e-02" rms="4.1748639941215515e-01" purity="4.0259200334548950e-01" nType="0">
          <Node pos="l" depth="2" NCoef="0" IVar="0" Cut="1.1352927246093750e+03" cType="1" res="3.1816147267818451e-02" rms="4.2768275737762451e-01" purity="5.0600856542587280e-01" nType="0">
            <Node pos="l" depth="3" NCoef="0" IVar="-1" Cut="0.0000000000000000e+00" cType="1" res="-1.1124854208901525e-03" rms="4.2901912331581116e-01" purity="3.1538620591163635e-01" nType="-99"/>
            <Node pos="r" depth="3" NCoef="0" IVar="-1" Cut="0.0000000000000000e+00" cType="1" res="2.8118928894400597e-03" rms="4.1727033257484436e-01" purity="7.0172387361526489e-01" nType="-99"/>
          </Node>
          <Node pos="r" depth="2" NCoef="0" IVar="1" Cut="3.6164187622070312e+02" cType="1" res="-5.0321735441684723e-02" rms="4.0453949570655823e-01" purity="3.1255555152893066e-01" nType="0">
            <Node pos="l" depth="3" NCoef="0" IVar="-1" Cut="0.0000000000000000e+00" cType="1" res="-3.8054792676120996e-03" rms="3.7733823060989380e-01" purity="2.3832233250141144e-01" nType="-99"/>
            <Node pos="r" depth="3" NCoef="0" IVar="-1" Cut="0.0000000000000000e+00" cType="1" res="-7.9019012628123164e-04" rms="4.2755639553070068e-01" purity="3.8575959205627441e-01" nType="-99"/>
          </Node>
        </Node>
        <Node pos="r" depth="1" NCoef="0" IVar="2" Cut="4.7842797851562500e+02" cType="1" res="5.0019361078739166e-02" rms="3.9818823337554932e-01" purity="6.3201200962066650e-01" nType="0">
          <Node pos="l" depth="2" NCoef="0" IVar="3" Cut="2.8483013916015625e+02" cType="1" res="1.0250360518693924e-01" rms="3.6517024040222168e-01" purity="7.7095377445220947e-01" nType="0">
            <Node pos="l" depth="3" NCoef="0" IVar="-1" Cut="0.0000000000000000e+00" cType="1" res="4.2396141216158867e-03" rms="3.4004458785057068e-01" purity="8.2377928495407104e-01" nType="-99"/>
            <Node pos="r" depth="3" NCoef="0" IVar="-1" Cut="0.0000000000000000e+00" cType="1" res="1.0108337737619877e-03" rms="4.1399550437927246e-01" purity="6.3452571630477905e-01" nType="-99"/>
          </Node>
          <Node pos="r" depth="2" NCoef="0" IVar="1" Cut="5.7280139160156250e+02" cType="1" res="-2.7229333296418190e-02" rms="4.3084731698036194e-01" purity="4.2751127481460571e-01" nType="0">
            <Node pos="l" depth="3" NCoef="0" IVar="-1" Cut="0.0000000000000000e+00" cType="1" res="-3.7455239798873663e-03" rms="4.1430008411407471e-01" purity="3.2769286632537842e-01" nType="-99"/>
            <Node pos="r" depth="3" NCoef="0" IVar="-1" Cut="0.0000000000000000e+00" cType="1" res="1.6272128559648991e-03" rms="4.5079544186592102e-01" purity="6.1827629804611206e-01" nType="-99"/>
          </Node>
        </Node>
      </Node>
    </BinaryTree>
    <BinaryTree type="DecisionTree" boostWeight="1.0000000000000000e+00" itree="213">
      <Node pos="s" depth="0" NCoef="0" IVar="6" Cut="-1.1820279359817505e+00" cType="1" res="1.4767250046133995e-02" rms="4.0954098105430603e-01" purity="5.0173467397689819e-01" nType="0">
        <Node pos="l" depth="1" NCoef="0" IVar="8" Cut="-9.3254256248474121e-01" cType="1" res="-7.3725327849388123e-02" rms="3.6976626515388489e-01" purity="2.5582712888717651e-01" nType="0">
          <Node pos="l" depth="2" NCoef="0" IVar="-1" Cut="0.0000000000000000e+00" cType="1" res="-9.5557644963264465e-03" rms="3.0442771315574646e-01" purity="1.4091341197490692e-01" nType="-99"/>
          <Node pos="r" depth="2" NCoef="0" IVar="8" Cut="4.8916053771972656e-01" cType="1" res="-5.4547913372516632e-02" rms="3.8792121410369873e-01" purity="2.9545292258262634e-01" nType="0">
            <Node pos="l" depth="3" NCoef="0" IVar="-1" Cut="0.0000000000000000e+00" cType="1" res="-9.5760991098359227e-04" rms="4.1156706213951111e-01" purity="3.5819143056869507e-01" nType="-99"/>
            <Node pos="r" depth="3" NCoef="0" IVar="-1" Cut="0.0000000000000000e+00" cType="1" res="-6.6023599356412888e-03" rms="3.4598189592361450e-01" purity="2.0574188232421875e-01" nType="-99"/>
          </Node>
        </Node>
        <Node pos="r" depth="1" NCoef="0" IVar="6" Cut="9.0366220474243164e-01" cType="1" res="2.5457244366407394e-02" rms="4.1280505061149597e-01" purity="5.3144055604934692e-01" nType="0">
          <Node pos="l" depth="2" NCoef="0" IVar="2" Cut="6.0625183105468750e+02" cType="1" res="4.2997054755687714e-02" rms="4.1534870862960815e-01" purity="5.8051425218582153e-01" nType="0">
            <Node pos="l" depth="3" NCoef="0" IVar="-1" Cut="0.0000000000000000e+00" cType="1" res="1.8258393974974751e-03" rms="4.1207385063171387e-01" purity="5.9766733646392822e-01" nType="-99"/>
            <Node pos="r" depth="3" NCoef="0" IVar="-1" Cut="0.0000000000000000e+00" cType="1" res="-2.5976574979722500e-03" rms="4.3231165409088135e-01" purity="4.1702342033386230e-01" nType="-99"/>
          </Node>
          <Node pos="r" depth="2" NCoef="0" IVar="1" Cut="5.0966293334960938e+02" cType="1" res="-4.7425650060176849e-02" rms="3.9378225803375244e-01" purity="3.2752534747123718e-01" nType="0">
            <Node pos="l" depth="3" NCoef="0" IVar="-1" Cut="0.0000000000000000e+00" cType="1" res="-3.1740609556436539e-03" rms="3.8151803612709045e-01" purity="2.6477453112602234e-01" nType="-99"/>
            <Node pos="r" depth="3" NCoef="0" IVar="-1" Cut="0.0000000000000000e+00" cType="1" res="1.5314860502257943e-03" rms="4.3321654200553894e-01" purity="6.1144310235977173e-01" nType="-99"/>
          </Node>
        </Node>
      </Node>
    </BinaryTree>
    <BinaryTree type="DecisionTree" boostWeight="1.0000000000000000e+00" itree="214">
      <Node pos="s" depth="0" NCoef="0" IVar="0" Cut="1.1315699462890625e+03" cType="1" res="1.2160737998783588e-02" rms="4.1030392050743103e-01" purity="4.9822467565536499e-01" nType="0">
        <Node pos="l" depth="1" NCoef="0" IVar="2" Cut="2.3388352966308594e+02" cType="1" res="-4.9280952662229538e-02" rms="4.0367659926414490e-01" purity="2.5803267955780029e-01" nType="0">
          <Node pos="l" depth="2" NCoef="0" IVar="-1" Cut="0.0000000000000000e+00" cType="1" res="6.3955102814361453e-04" rms="4.4773027300834656e-01" purity="3.8490802049636841e-01" nType="-99"/>
          <Node pos="r" depth="2" NCoef="0" IVar="6" Cut="-1.0738682746887207e-01" cType="1" res="-8.1932552158832550e-02" rms="3.7591683864593506e-01" purity="1.9578436017036438e-01" nType="0">
            <Node pos="l" depth="3" NCoef="0" IVar="-1" Cut="0.0000000000000000e+00" cType="1" res="-4.6107699163258076e-03" rms="3.6067605018615723e-01" purity="1.6992467641830444e-01" nType="-99"/>
            <Node pos="r" depth="3" NCoef="0" IVar="-1" Cut="0.0000000000000000e+00" cType="1" res="-2.8018672019243240e-03" rms="3.8774213194847107e-01" purity="2.1794226765632629e-01" nType="-99"/>
          </Node>
        </Node>
        <Node pos="r" depth="1" NCoef="0" IVar="2" Cut="3.7131823730468750e+02" cType="1" res="2.8119601309299469e-02" rms="4.1050609946250916e-01" purity="5.6061214208602905e-01" nType="0">
          <Node pos="l" depth="2" NCoef="0" IVar="0" Cut="1.3191838378906250e+03" cType="1" res="6.7839153110980988e-02" rms="3.9459639787673950e-01" purity="6.8333476781845093e-01" nType="0">
            <Node pos="l" depth="3" NCoef="0" IVar="-1" Cut="0.0000000000000000e+00" cType="1" res="4.7406426165252924e-04" rms="4.4076943397521973e-01" purity="5.2377390861511230e-01" nType="-99"/>
            <Node pos="r" depth="3" NCoef="0" IVar="-1" Cut="0.0000000000000000e+00" cType="1" res="3.5070730373263359e-03" rms="3.5296842455863953e-01" purity="7.9764550924301147e-01" nType="-99"/>
          </Node>
          <Node pos="r" depth="2" NCoef="0" IVar="0" Cut="1.7630314941406250e+03" cType="1" res="-1.2936865910887718e-02" rms="4.2242035269737244e-01" purity="4.3375879526138306e-01" nType="0">
            <Node pos="l" depth="3" NCoef="0" IVar="-1" Cut="0.0000000000000000e+00" cType="1" res="-9.0814323630183935e-04" rms="4.1194686293601990e-01" purity="3.4447342157363892e-01" nType="-99"/>
            <Node pos="r" depth="3" NCoef="0" IVar="-1" Cut="0.0000000000000000e+00" cType="1" res="1.5638873446732759e-03" rms="4.3548780679702759e-01" purity="5.9817451238632202e-01" nType="-99"/>
          </Node>
        </Node>
      </Node>
    </BinaryTree>
    <BinaryTree type="DecisionTree" boostWeight="1.0000000000000000e+00" itree="215">
      <Node pos="s" depth="0" NCoef="0" IVar="6" Cut="1.4723951816558838e+00" cType="1" res="1.5222178772091866e-02" rms="4.0865153074264526e-01" purity="5.0258833169937134e-01" nType="0">
        <Node pos="l" depth="1" NCoef="0" IVar="6" Cut="-7.5229412317276001e-01" cType="1" res="2.3684315383434296e-02" rms="4.1151019930839539e-01" purity="5.2365058660507202e-01" nType="0">
          <Node pos="l" depth="2" NCoef="0" IVar="9" Cut="1.2000172138214111e+00" cType="1" res="-3.5240802913904190e-02" rms="3.9560174942016602e-01" purity="3.6723205447196960e-01" nType="0">
            <Node pos="l" depth="3" NCoef="0" IVar="-1" Cut="0.0000000000000000e+00" cType="1" res="-8.5946585750207305e-04" rms="4.0170714259147644e-01" purity="3.9494660496711731e-01" nType="-99"/>
            <Node pos="r" depth="3" NCoef="0" IVar="-1" Cut="0.0000000000000000e+00" cType="1" res="-8.2029858604073524e-03" rms="3.3661088347434998e-01" purity="1.8284907937049866e-01" nType="-99"/>
          </Node>
          <Node pos="r" depth="2" NCoef="0" IVar="8" Cut="-1.7333552837371826e+00" cType="1" res="4.0844481438398361e-02" rms="4.1445657610893250e-01" purity="5.6920284032821655e-01" nType="0">
            <Node pos="l" depth="3" NCoef="0" IVar="-1" Cut="0.0000000000000000e+00" cType="1" res="-5.3300592117011547e-03" rms="3.7491792440414429e-01" purity="2.4237243831157684e-01" nType="-99"/>
            <Node pos="r" depth="3" NCoef="0" IVar="-1" Cut="0.0000000000000000e+00" cType="1" res="1.4379067579284310e-03" rms="4.1501215100288391e-01" purity="5.8616489171981812e-01" nType="-99"/>
          </Node>
        </Node>
        <Node pos="r" depth="1" NCoef="0" IVar="8" Cut="3.9901107549667358e-01" cType="1" res="-1.0129181295633316e-01" rms="3.4663006663322449e-01" purity="2.1258428692817688e-01" nType="0">
          <Node pos="l" depth="2" NCoef="0" IVar="-1" Cut="0.0000000000000000e+00" cType="1" res="-4.1968314908444881e-03" rms="3.6838826537132263e-01" purity="2.5524404644966125e-01" nType="-99"/>
          <Node pos="r" depth="2" NCoef="0" IVar="-1" Cut="0.0000000000000000e+00" cType="1" res="-9.4435196369886398e-03" rms="3.0786347389221191e-01" purity="1.4937426149845123e-01" nType="-99"/>
        </Node>
      </Node>
    </BinaryTree>
    <BinaryTree type="DecisionTree" boostWeight="1.0000000000000000e+00" itree="216">
      <Node pos="s" depth="0" NCoef="0" IVar="2" Cut="4.9193942260742188e+02" cType="1" res="1.2411896139383316e-02" rms="4.0970999002456665e-01" purity="5.0068420171737671e-01" nType="0">
        <Node pos="l" depth="1" NCoef="0" IVar="0" Cut="1.3534830322265625e+03" cType="1" res="2.7706395834684372e-02" rms="4.0656533837318420e-01" purity="5.3258955478668213e-01" nType="0">
          <Node pos="l" depth="2" NCoef="0" IVar="2" Cut="2.6951065063476562e+02" cType="1" res="-1.7871869727969170e-02" rms="4.2018356919288635e-01" purity="3.8141331076622009e-01" nType="0">
            <Node pos="l" depth="3" NCoef="0" IVar="-1" Cut="0.0000000000000000e+00" cType="1" res="9.3607319286093116e-04" rms="4.3387618660926819e-01" purity="4.8318600654602051e-01" nType="-99"/>
            <Node pos="r" depth="3" NCoef="0" IVar="-1" Cut="0.0000000000000000e+00" cType="1" res="-2.3865669500082731e-03" rms="4.0419319272041321e-01" purity="2.9471090435981750e-01" nType="-99"/>
          </Node>
          <Node pos="r" depth="2" NCoef="0" IVar="3" Cut="2.6941256713867188e+02" cType="1" res="8.6471177637577057e-02" rms="3.8032546639442444e-01" purity="7.2750335931777954e-01" nType="0">
            <Node pos="l" depth="3" NCoef="0" IVar="-1" Cut="0.0000000000000000e+00" cType="1" res="3.8086483255028725e-03" rms="3.5899716615676880e-01" purity="7.8223401308059692e-01" nType="-99"/>
            <Node pos="r" depth="3" NCoef="0" IVar="-1" Cut="0.0000000000000000e+00" cType="1" res="5.3751585073769093e-04" rms="4.1648265719413757e-01" purity="6.0159516334533691e-01" nType="-99"/>
          </Node>
        </Node>
        <Node pos="r" depth="1" NCoef="0" IVar="0" Cut="2.0205490722656250e+03" cType="1" res="-5.2068796008825302e-02" rms="4.1658160090446472e-01" purity="3.6617329716682434e-01" nType="0">
          <Node pos="l" depth="2" NCoef="0" IVar="1" Cut="3.7020541381835938e+02" cType="1" res="-8.7945736944675446e-02" rms="3.9294451475143433e-01" purity="2.7056974172592163e-01" nType="0">
            <Node pos="l" depth="3" NCoef="0" IVar="-1" Cut="0.0000000000000000e+00" cType="1" res="-9.4836135394871235e-04" rms="3.1787833571434021e-01" purity="1.3441388309001923e-01" nType="-99"/>
            <Node pos="r" depth="3" NCoef="0" IVar="-1" Cut="0.0000000000000000e+00" cType="1" res="-2.6607345789670944e-03" rms="4.2380124330520630e-01" purity="3.4290865063667297e-01" nType="-99"/>
          </Node>
          <Node pos="r" depth="2" NCoef="0" IVar="3" Cut="3.3771478271484375e+02" cType="1" res="3.1544435769319534e-02" rms="4.5622807741165161e-01" purity="5.8898276090621948e-01" nType="0">
            <Node pos="l" depth="3" NCoef="0" IVar="-1" Cut="0.0000000000000000e+00" cType="1" res="3.2131765037775040e-03" rms="4.3848013877868652e-01" purity="6.6789108514785767e-01" nType="-99"/>
            <Node pos="r" depth="3" NCoef="0" IVar="-1" Cut="0.0000000000000000e+00" cType="1" res="-1.5988914528861642e-03" rms="4.6188175678253174e-01" purity="5.1252526044845581e-01" nType="-99"/>
          </Node>
        </Node>
      </Node>
    </BinaryTree>
    <BinaryTree type="DecisionTree" boostWeight="1.0000000000000000e+00" itree="217">
      <Node pos="s" depth="0" NCoef="0" IVar="6" Cut="9.5060586929321289e-01" cType="1" res="1.2141211889684200e-02" rms="4.1029596328735352e-01" purity="4.9979281425476074e-01" nType="0">
        <Node pos="l" depth="1" NCoef="0" IVar="6" Cut="-8.1047928333282471e-01" cType="1" res="2.6178311556577682e-02" rms="4.1313269734382629e-01" purity="5.3770262002944946e-01" nType="0">
          <Node pos="l" depth="2" NCoef="0" IVar="8" Cut="9.3314749002456665e-01" cType="1" res="-4.1094720363616943e-02" rms="4.0045720338821411e-01" purity="3.4703168272972107e-01" nType="0">
            <Node pos="l" depth="3" NCoef="0" IVar="-1" Cut="0.0000000000000000e+00" cType="1" res="-1.0763123864308000e-03" rms="4.0853330492973328e-01" purity="3.8101190328598022e-01" nType="-99"/>
            <Node pos="r" depth="3" NCoef="0" IVar="-1" Cut="0.0000000000000000e+00" cType="1" res="-7.4289813637733459e-03" rms="3.5073077678680420e-01" purity="1.8834708631038666e-01" nType="-99"/>
          </Node>
          <Node pos="r" depth="2" NCoef="0" IVar="2" Cut="6.1988806152343750e+02" cType="1" res="4.6247474849224091e-02" rms="4.1473153233528137e-01" purity="5.9458434581756592e-01" nType="0">
            <Node pos="l" depth="3" NCoef="0" IVar="-1" Cut="0.0000000000000000e+00" cType="1" res="1.9336570985615253e-03" rms="4.1096496582031250e-01" purity="6.1169242858886719e-01" nType="-99"/>
            <Node pos="r" depth="3" NCoef="0" IVar="-1" Cut="0.0000000000000000e+00" cType="1" res="-7.4228772427886724e-04" rms="4.3688470125198364e-01" purity="4.2166465520858765e-01" nType="-99"/>
          </Node>
        </Node>
        <Node pos="r" depth="1" NCoef="0" IVar="3" Cut="2.4745379638671875e+02" cType="1" res="-6.1860505491495132e-02" rms="3.8666978478431702e-01" purity="2.9993724822998047e-01" nType="0">
          <Node pos="l" depth="2" NCoef="0" IVar="0" Cut="1.3195443115234375e+03" cType="1" res="-4.1342314332723618e-02" rms="3.8519316911697388e-01" purity="3.0335712432861328e-01" nType="0">
            <Node pos="l" depth="3" NCoef="0" IVar="-1" Cut="0.0000000000000000e+00" cType="1" res="-3.9721820503473282e-03" rms="3.6170813441276550e-01" purity="1.9435074925422668e-01" nType="-99"/>
            <Node pos="r" depth="3" NCoef="0" IVar="-1" Cut="0.0000000000000000e+00" cType="1" res="7.5602577999234200e-04" rms="4.1545692086219788e-01" purity="4.9038603901863098e-01" nType="-99"/>
          </Node>
          <Node pos="r" depth="2" NCoef="0" IVar="-1" Cut="0.0000000000000000e+00" cType="1" res="-7.5227385386824608e-03" rms="3.8395884633064270e-01" purity="2.8885948657989502e-01" nType="-99"/>
        </Node>
      </Node>
    </BinaryTree>
    <BinaryTree type="DecisionTree" boostWeight="1.0000000000000000e+00" itree="218">
      <Node pos="s" depth="0" NCoef="0" IVar="7" Cut="-9.3329852819442749e-01" cType="1" res="1.3244180008769035e-02" rms="4.0830555558204651e-01" purity="5.0368875265121460e-01" nType="0">
        <Node pos="l" depth="1" NCoef="0" IVar="0" Cut="1.6864171142578125e+03" cType="1" res="-6.1780069023370743e-02" rms="3.8533204793930054e-01" purity="3.1019276380538940e-01" nType="0">
          <Node pos="l" depth="2" NCoef="0" IVar="2" Cut="3.0173199462890625e+02" cType="1" res="-7.6489306986331940e-02" rms="3.7468540668487549e-01" purity="2.7184748649597168e-01" nType="0">
            <Node pos="l" depth="3" NCoef="0" IVar="-1" Cut="0.0000000000000000e+00" cType="1" res="-1.3787657953798771e-03" rms="4.0565088391304016e-01" purity="3.6797767877578735e-01" nType="-99"/>
            <Node pos="r" depth="3" NCoef="0" IVar="-1" Cut="0.0000000000000000e+00" cType="1" res="-7.6367324218153954e-03" rms="3.3988472819328308e-01" purity="1.8479891121387482e-01" nType="-99"/>
          </Node>
          <Node pos="r" depth="2" NCoef="0" IVar="-1" Cut="0.0000000000000000e+00" cType="1" res="3.7608406273648143e-04" rms="4.2617219686508179e-01" purity="4.9640822410583496e-01" nType="-99"/>
        </Node>
        <Node pos="r" depth="1" NCoef="0" IVar="7" Cut="8.4446096420288086e-01" cType="1" res="2.9045835137367249e-02" rms="4.1124010086059570e-01" purity="5.4444295167922974e-01" nType="0">
          <Node pos="l" depth="2" NCoef="0" IVar="8" Cut="1.1999679803848267e+00" cType="1" res="5.0913762301206589e-02" rms="4.1409522294998169e-01" purity="6.0593485832214355e-01" nType="0">
            <Node pos="l" depth="3" NCoef="0" IVar="-1" Cut="0.0000000000000000e+00" cType="1" res="2.0764535292983055e-03" rms="4.1102713346481323e-01" purity="6.3456308841705322e-01" nType="-99"/>
            <Node pos="r" depth="3" NCoef="0" IVar="-1" Cut="0.0000000000000000e+00" cType="1" res="-1.9944715313613415e-03" rms="4.2526680231094360e-01" purity="3.7611699104309082e-01" nType="-99"/>
          </Node>
          <Node pos="r" depth="2" NCoef="0" IVar="3" Cut="2.7577938842773438e+02" cType="1" res="-4.4255316257476807e-02" rms="3.9273867011070251e-01" purity="3.3832266926765442e-01" nType="0">
            <Node pos="l" depth="3" NCoef="0" IVar="-1" Cut="0.0000000000000000e+00" cType="1" res="-1.2697447091341019e-03" rms="3.9310100674629211e-01" purity="3.5035735368728638e-01" nType="-99"/>
            <Node pos="r" depth="3" NCoef="0" IVar="-1" Cut="0.0000000000000000e+00" cType="1" res="-8.5365064442157745e-03" rms="3.7892264127731323e-01" purity="2.7231004834175110e-01" nType="-99"/>
          </Node>
        </Node>
      </Node>
    </BinaryTree>
    <BinaryTree type="DecisionTree" boostWeight="1.0000000000000000e+00" itree="219">
      <Node pos="s" depth="0" NCoef="0" IVar="0" Cut="1.4630610351562500e+03" cType="1" res="1.2867191806435585e-02" rms="4.0797504782676697e-01" purity="5.0138050317764282e-01" nType="0">
        <Node pos="l" depth="1" NCoef="0" IVar="2" Cut="2.8263143920898438e+02" cType="1" res="-1.2948017567396164e-02" rms="4.1357511281967163e-01" purity="4.0986070036888123e-01" nType="0">
          <Node pos="l" depth="2" NCoef="0" IVar="0" Cut="1.2735589599609375e+03" cType="1" res="3.6882344633340836e-02" rms="4.2385551333427429e-01" purity="5.2278763055801392e-01" nType="0">
            <Node pos="l" depth="3" NCoef="0" IVar="-1" Cut="0.0000000000000000e+00" cType="1" res="2.2412213729694486e-04" rms="4.3884581327438354e-01" purity="4.2749375104904175e-01" nType="-99"/>
            <Node pos="r" depth="3" NCoef="0" IVar="-1" Cut="0.0000000000000000e+00" cType="1" res="3.7940018810331821e-03" rms="3.6007681488990784e-01" purity="8.0917924642562866e-01" nType="-99"/>
          </Node>
          <Node pos="r" depth="2" NCoef="0" IVar="2" Cut="4.2427993774414062e+02" cType="1" res="-5.7802863419055939e-02" rms="3.9880794286727905e-01" purity="3.0820935964584351e-01" nType="0">
            <Node pos="l" depth="3" NCoef="0" IVar="-1" Cut="0.0000000000000000e+00" cType="1" res="-1.7787591787055135e-03" rms="4.1439557075500488e-01" purity="3.5593408346176147e-01" nType="-99"/>
            <Node pos="r" depth="3" NCoef="0" IVar="-1" Cut="0.0000000000000000e+00" cType="1" res="-6.0363481752574444e-03" rms="3.4207573533058167e-01" purity="1.5920850634574890e-01" nType="-99"/>
          </Node>
        </Node>
        <Node pos="r" depth="1" NCoef="0" IVar="2" Cut="5.0814547729492188e+02" cType="1" res="5.0762899219989777e-02" rms="3.9657983183860779e-01" purity="6.3572800159454346e-01" nType="0">
          <Node pos="l" depth="2" NCoef="0" IVar="3" Cut="2.8447027587890625e+02" cType="1" res="9.7537457942962646e-02" rms="3.6633872985839844e-01" purity="7.5828737020492554e-01" nType="0">
            <Node pos="l" depth="3" NCoef="0" IVar="-1" Cut="0.0000000000000000e+00" cType="1" res="4.2243129573762417e-03" rms="3.3866131305694580e-01" purity="8.1818306446075439e-01" nType="-99"/>
            <Node pos="r" depth="3" NCoef="0" IVar="-1" Cut="0.0000000000000000e+00" cType="1" res="9.7035558428615332e-04" rms="4.1549879312515259e-01" purity="6.1785644292831421e-01" nType="-99"/>
          </Node>
          <Node pos="r" depth="2" NCoef="0" IVar="0" Cut="1.7630101318359375e+03" cType="1" res="-3.0674228444695473e-02" rms="4.3243858218193054e-01" purity="4.2234522104263306e-01" nType="0">
            <Node pos="l" depth="3" NCoef="0" IVar="-1" Cut="0.0000000000000000e+00" cType="1" res="-1.2981850886717439e-03" rms="3.9230391383171082e-01" purity="2.4483345448970795e-01" nType="-99"/>
            <Node pos="r" depth="3" NCoef="0" IVar="-1" Cut="0.0000000000000000e+00" cType="1" res="4.0885448106564581e-04" rms="4.4941532611846924e-01" purity="5.2742481231689453e-01" nType="-99"/>
          </Node>
        </Node>
      </Node>
    </BinaryTree>
    <BinaryTree type="DecisionTree" boostWeight="1.0000000000000000e+00" itree="220">
      <Node pos="s" depth="0" NCoef="0" IVar="8" Cut="-9.3333840370178223e-01" cType="1" res="1.0219700634479523e-02" rms="4.0728634595870972e-01" purity="4.9740254878997803e-01" nType="0">
        <Node pos="l" depth="1" NCoef="0" IVar="7" Cut="6.6613686084747314e-01" cType="1" res="-5.8993373066186905e-02" rms="3.8852700591087341e-01" purity="3.4467867016792297e-01" nType="0">
          <Node pos="l" depth="2" NCoef="0" IVar="7" Cut="-8.1931453943252563e-01" cType="1" res="-4.1142277419567108e-02" rms="3.9664974808692932e-01" purity="3.8493782281875610e-01" nType="0">
            <Node pos="l" depth="3" NCoef="0" IVar="-1" Cut="0.0000000000000000e+00" cType="1" res="-5.2782157436013222e-03" rms="3.4622776508331299e-01" purity="2.3525017499923706e-01" nType="-99"/>
            <Node pos="r" depth="3" NCoef="0" IVar="-1" Cut="0.0000000000000000e+00" cType="1" res="-5.2652740851044655e-04" rms="4.1917437314987183e-01" purity="4.6720567345619202e-01" nType="-99"/>
          </Node>
          <Node pos="r" depth="2" NCoef="0" IVar="-1" Cut="0.0000000000000000e+00" cType="1" res="-6.5489518456161022e-03" rms="3.5272327065467834e-01" purity="2.0739883184432983e-01" nType="-99"/>
        </Node>
        <Node pos="r" depth="1" NCoef="0" IVar="8" Cut="8.4443104267120361e-01" cType="1" res="2.5958074256777763e-02" rms="4.0980464220046997e-01" purity="5.3213047981262207e-01" nType="0">
          <Node pos="l" depth="2" NCoef="0" IVar="0" Cut="1.4631605224609375e+03" cType="1" res="5.1848240196704865e-02" rms="4.1196700930595398e-01" purity="5.9033501148223877e-01" nType="0">
            <Node pos="l" depth="3" NCoef="0" IVar="-1" Cut="0.0000000000000000e+00" cType="1" res="8.3350879140198231e-04" rms="4.3045511841773987e-01" purity="4.9018135666847229e-01" nType="-99"/>
            <Node pos="r" depth="3" NCoef="0" IVar="-1" Cut="0.0000000000000000e+00" cType="1" res="2.9489821754395962e-03" rms="3.8546863198280334e-01" purity="7.1297168731689453e-01" nType="-99"/>
          </Node>
          <Node pos="r" depth="2" NCoef="0" IVar="7" Cut="-6.6671532392501831e-01" cType="1" res="-4.7204632312059402e-02" rms="3.9455214142799377e-01" purity="3.6765089631080627e-01" nType="0">
            <Node pos="l" depth="3" NCoef="0" IVar="-1" Cut="0.0000000000000000e+00" cType="1" res="-6.6760969348251820e-03" rms="3.4726473689079285e-01" purity="2.1647565066814423e-01" nType="-99"/>
            <Node pos="r" depth="3" NCoef="0" IVar="-1" Cut="0.0000000000000000e+00" cType="1" res="-1.1312942951917648e-03" rms="4.0448260307312012e-01" purity="4.1014501452445984e-01" nType="-99"/>
          </Node>
        </Node>
      </Node>
    </BinaryTree>
    <BinaryTree type="DecisionTree" boostWeight="1.0000000000000000e+00" itree="221">
      <Node pos="s" depth="0" NCoef="0" IVar="0" Cut="1.4631870117187500e+03" cType="1" res="9.6014142036437988e-03" rms="4.0933752059936523e-01" purity="4.9741593003273010e-01" nType="0">
        <Node pos="l" depth="1" NCoef="0" IVar="2" Cut="2.5522276306152344e+02" cType="1" res="-1.6831638291478157e-02" rms="4.1489857435226440e-01" purity="4.0499123930931091e-01" nType="0">
          <Node pos="l" depth="2" NCoef="0" IVar="0" Cut="1.1474437255859375e+03" cType="1" res="4.1210439056158066e-02" rms="4.2430961132049561e-01" purity="5.2796691656112671e-01" nType="0">
            <Node pos="l" depth="3" NCoef="0" IVar="-1" Cut="0.0000000000000000e+00" cType="1" res="-4.8120119026862085e-04" rms="4.3882328271865845e-01" purity="3.5531964898109436e-01" nType="-99"/>
            <Node pos="r" depth="3" NCoef="0" IVar="-1" Cut="0.0000000000000000e+00" cType="1" res="3.1973854638636112e-03" rms="3.9597746729850769e-01" purity="7.3997658491134644e-01" nType="-99"/>
          </Node>
          <Node pos="r" depth="2" NCoef="0" IVar="6" Cut="1.2030272483825684e+00" cType="1" res="-4.4843506067991257e-02" rms="4.0733119845390320e-01" purity="3.4564155340194702e-01" nType="0">
            <Node pos="l" depth="3" NCoef="0" IVar="-1" Cut="0.0000000000000000e+00" cType="1" res="-1.2773778289556503e-03" rms="4.1867712140083313e-01" purity="3.7747305631637573e-01" nType="-99"/>
            <Node pos="r" depth="3" NCoef="0" IVar="-1" Cut="0.0000000000000000e+00" cType="1" res="-9.1352751478552818e-03" rms="3.0249047279357910e-01" purity="1.2288700789213181e-01" nType="-99"/>
          </Node>
        </Node>
        <Node pos="r" depth="1" NCoef="0" IVar="2" Cut="5.4276824951171875e+02" cType="1" res="4.8570849001407623e-02" rms="3.9780777692794800e-01" purity="6.3367486000061035e-01" nType="0">
          <Node pos="l" depth="2" NCoef="0" IVar="3" Cut="2.4731338500976562e+02" cType="1" res="8.5182875394821167e-02" rms="3.7562233209609985e-01" purity="7.3140013217926025e-01" nType="0">
            <Node pos="l" depth="3" NCoef="0" IVar="-1" Cut="0.0000000000000000e+00" cType="1" res="4.5360312797129154e-03" rms="3.3149567246437073e-01" purity="8.1994664669036865e-01" nType="-99"/>
            <Node pos="r" depth="3" NCoef="0" IVar="-1" Cut="0.0000000000000000e+00" cType="1" res="1.3965513790026307e-03" rms="4.0852466225624084e-01" purity="6.4485418796539307e-01" nType="-99"/>
          </Node>
          <Node pos="r" depth="2" NCoef="0" IVar="1" Cut="6.3031414794921875e+02" cType="1" res="-3.0090671032667160e-02" rms="4.3133464455604553e-01" purity="4.2371049523353577e-01" nType="0">
            <Node pos="l" depth="3" NCoef="0" IVar="-1" Cut="0.0000000000000000e+00" cType="1" res="-3.9120484143495560e-03" rms="4.1893491148948669e-01" purity="3.2546761631965637e-01" nType="-99"/>
            <Node pos="r" depth="3" NCoef="0" IVar="-1" Cut="0.0000000000000000e+00" cType="1" res="1.9432957051321864e-03" rms="4.4395318627357483e-01" purity="6.4630228281021118e-01" nType="-99"/>
          </Node>
        </Node>
      </Node>
    </BinaryTree>
    <BinaryTree type="DecisionTree" boostWeight="1.0000000000000000e+00" itree="222">
      <Node pos="s" depth="0" NCoef="0" IVar="0" Cut="1.4400817871093750e+03" cType="1" res="1.1398249305784702e-02" rms="4.0994083881378174e-01" purity="4.9769431352615356e-01" nType="0">
        <Node pos="l" depth="1" NCoef="0" IVar="2" Cut="2.5509422302246094e+02" cType="1" res="-1.4352306723594666e-02" rms="4.1506847739219666e-01" purity="3.9880228042602539e-01" nType="0">
          <Node pos="l" depth="2" NCoef="0" IVar="0" Cut="1.1352861328125000e+03" cType="1" res="3.6871530115604401e-02" rms="4.2321237921714783e-01" purity="5.2043223381042480e-01" nType="0">
            <Node pos="l" depth="3" NCoef="0" IVar="-1" Cut="0.0000000000000000e+00" cType="1" res="-8.1017840420827270e-04" rms="4.3719601631164551e-01" purity="3.3778539299964905e-01" nType="-99"/>
            <Node pos="r" depth="3" NCoef="0" IVar="-1" Cut="0.0000000000000000e+00" cType="1" res="3.0506015755236149e-03" rms="3.9587566256523132e-01" purity="7.3313337564468384e-01" nType="-99"/>
          </Node>
          <Node pos="r" depth="2" NCoef="0" IVar="1" Cut="3.4254568481445312e+02" cType="1" res="-3.9217542856931686e-02" rms="4.0874925255775452e-01" purity="3.3976027369499207e-01" nType="0">
            <Node pos="l" depth="3" NCoef="0" IVar="-1" Cut="0.0000000000000000e+00" cType="1" res="-3.6976702976971865e-03" rms="3.7469029426574707e-01" purity="2.4583122134208679e-01" nType="-99"/>
            <Node pos="r" depth="3" NCoef="0" IVar="-1" Cut="0.0000000000000000e+00" cType="1" res="-5.9879937907680869e-04" rms="4.2583677172660828e-01" purity="3.9517873525619507e-01" nType="-99"/>
          </Node>
        </Node>
        <Node pos="r" depth="1" NCoef="0" IVar="2" Cut="5.0815478515625000e+02" cType="1" res="4.5941542834043503e-02" rms="4.0036723017692566e-01" purity="6.3035392761230469e-01" nType="0">
          <Node pos="l" depth="2" NCoef="0" IVar="3" Cut="3.0324740600585938e+02" cType="1" res="8.4656797349452972e-02" rms="3.7555646896362305e-01" purity="7.4435222148895264e-01" nType="0">
            <Node pos="l" depth="3" NCoef="0" IVar="-1" Cut="0.0000000000000000e+00" cType="1" res="3.6424091085791588e-03" rms="3.5683137178421021e-01" purity="7.9066735506057739e-01" nType="-99"/>
            <Node pos="r" depth="3" NCoef="0" IVar="-1" Cut="0.0000000000000000e+00" cType="1" res="1.6078509361250326e-05" rms="4.2694747447967529e-01" purity="5.7455682754516602e-01" nType="-99"/>
          </Node>
          <Node pos="r" depth="2" NCoef="0" IVar="0" Cut="2.0191844482421875e+03" cType="1" res="-2.4003664031624794e-02" rms="4.3298280239105225e-01" purity="4.2439797520637512e-01" nType="0">
            <Node pos="l" depth="3" NCoef="0" IVar="-1" Cut="0.0000000000000000e+00" cType="1" res="-4.0430589579045773e-03" rms="4.1501140594482422e-01" purity="3.0546376109123230e-01" nType="-99"/>
            <Node pos="r" depth="3" NCoef="0" IVar="-1" Cut="0.0000000000000000e+00" cType="1" res="1.8014719244092703e-03" rms="4.4881787896156311e-01" purity="6.1312252283096313e-01" nType="-99"/>
          </Node>
        </Node>
      </Node>
    </BinaryTree>
    <BinaryTree type="DecisionTree" boostWeight="1.0000000000000000e+00" itree="223">
      <Node pos="s" depth="0" NCoef="0" IVar="1" Cut="4.2366845703125000e+02" cType="1" res="1.0948108509182930e-02" rms="4.0709698200225830e-01" purity="4.9839824438095093e-01" nType="0">
        <Node pos="l" depth="1" NCoef="0" IVar="1" Cut="3.4122476196289062e+02" cType="1" res="-1.8833050504326820e-02" rms="4.0520706772804260e-01" purity="3.8532671332359314e-01" nType="0">
          <Node pos="l" depth="2" NCoef="0" IVar="2" Cut="3.4393371582031250e+02" cType="1" res="-5.8147493749856949e-02" rms="3.9028725028038025e-01" purity="3.1512242555618286e-01" nType="0">
            <Node pos="l" depth="3" NCoef="0" IVar="-1" Cut="0.0000000000000000e+00" cType="1" res="-1.2703823158517480e-03" rms="4.0895059704780579e-01" purity="3.7526792287826538e-01" nType="-99"/>
            <Node pos="r" depth="3" NCoef="0" IVar="-1" Cut="0.0000000000000000e+00" cType="1" res="-5.6894929148256779e-03" rms="3.5470482707023621e-01" purity="2.1873572468757629e-01" nType="-99"/>
          </Node>
          <Node pos="r" depth="2" NCoef="0" IVar="2" Cut="2.9280487060546875e+02" cType="1" res="1.0499336756765842e-02" rms="4.1356298327445984e-01" purity="4.3770596385002136e-01" nType="0">
            <Node pos="l" depth="3" NCoef="0" IVar="-1" Cut="0.0000000000000000e+00" cType="1" res="1.8230627756565809e-03" rms="4.2232307791709900e-01" purity="5.3728055953979492e-01" nType="-99"/>
            <Node pos="r" depth="3" NCoef="0" IVar="-1" Cut="0.0000000000000000e+00" cType="1" res="-9.1913976939395070e-04" rms="4.0456542372703552e-01" purity="3.6901590228080750e-01" nType="-99"/>
          </Node>
        </Node>
        <Node pos="r" depth="1" NCoef="0" IVar="2" Cut="6.6213262939453125e+02" cType="1" res="5.1614414900541306e-02" rms="4.0615192055702209e-01" purity="6.5279793739318848e-01" nType="0">
          <Node pos="l" depth="2" NCoef="0" IVar="6" Cut="1.2166417837142944e+00" cType="1" res="6.5419822931289673e-02" rms="3.9719754457473755e-01" purity="6.7908537387847900e-01" nType="0">
            <Node pos="l" depth="3" NCoef="0" IVar="-1" Cut="0.0000000000000000e+00" cType="1" res="2.5556934997439384e-03" rms="3.9260324835777283e-01" purity="7.0124977827072144e-01" nType="-99"/>
            <Node pos="r" depth="3" NCoef="0" IVar="-1" Cut="0.0000000000000000e+00" cType="1" res="-1.6278765397146344e-03" rms="4.3161007761955261e-01" purity="4.2971193790435791e-01" nType="-99"/>
          </Node>
          <Node pos="r" depth="2" NCoef="0" IVar="0" Cut="2.2511457519531250e+03" cType="1" res="-4.4921863824129105e-02" rms="4.5233714580535889e-01" purity="4.6897962689399719e-01" nType="0">
            <Node pos="l" depth="3" NCoef="0" IVar="-1" Cut="0.0000000000000000e+00" cType="1" res="-4.4728373177349567e-03" rms="4.4328895211219788e-01" purity="3.5810106992721558e-01" nType="-99"/>
            <Node pos="r" depth="3" NCoef="0" IVar="-1" Cut="0.0000000000000000e+00" cType="1" res="1.1758631444536150e-04" rms="4.5653143525123596e-01" purity="5.8388775587081909e-01" nType="-99"/>
          </Node>
        </Node>
      </Node>
    </BinaryTree>
    <BinaryTree type="DecisionTree" boostWeight="1.0000000000000000e+00" itree="224">
      <Node pos="s" depth="0" NCoef="0" IVar="8" Cut="-9.3333190679550171e-01" cType="1" res="7.1839424781501293e-03" rms="4.0882423520088196e-01" purity="4.9594312906265259e-01" nType="0">
        <Node pos="l" depth="1" NCoef="0" IVar="2" Cut="3.5405584716796875e+02" cType="1" res="-6.0903944075107574e-02" rms="3.9068660140037537e-01" purity="3.4170275926589966e-01" nType="0">
          <Node pos="l" depth="2" NCoef="0" IVar="0" Cut="1.2766743164062500e+03" cType="1" res="-3.4638907760381699e-02" rms="4.0260434150695801e-01" purity="4.0720361471176147e-01" nType="0">
            <Node pos="l" depth="3" NCoef="0" IVar="-1" Cut="0.0000000000000000e+00" cType="1" res="-3.2145697623491287e-03" rms="3.9073297381401062e-01" purity="2.6778838038444519e-01" nType="-99"/>
            <Node pos="r" depth="3" NCoef="0" IVar="-1" Cut="0.0000000000000000e+00" cType="1" res="9.9339871667325497e-04" rms="4.1516470909118652e-01" purity="6.5461987257003784e-01" nType="-99"/>
          </Node>
          <Node pos="r" depth="2" NCoef="0" IVar="9" Cut="-6.6685372591018677e-01" cType="1" res="-9.3346208333969116e-02" rms="3.7289899587631226e-01" purity="2.6079690456390381e-01" nType="0">
            <Node pos="l" depth="3" NCoef="0" IVar="-1" Cut="0.0000000000000000e+00" cType="1" res="-9.1590126976370811e-03" rms="3.3217972517013550e-01" purity="1.8495750427246094e-01" nType="-99"/>
            <Node pos="r" depth="3" NCoef="0" IVar="-1" Cut="0.0000000000000000e+00" cType="1" res="-3.9059645496308804e-03" rms="3.9212679862976074e-01" purity="3.0259889364242554e-01" nType="-99"/>
          </Node>
        </Node>
        <Node pos="r" depth="1" NCoef="0" IVar="8" Cut="1.1999942064285278e+00" cType="1" res="2.2624827921390533e-02" rms="4.1126155853271484e-01" purity="5.3092151880264282e-01" nType="0">
          <Node pos="l" depth="2" NCoef="0" IVar="6" Cut="9.3671518564224243e-01" cType="1" res="3.7432029843330383e-02" rms="4.1259059309959412e-01" purity="5.7429444789886475e-01" nType="0">
            <Node pos="l" depth="3" NCoef="0" IVar="-1" Cut="0.0000000000000000e+00" cType="1" res="1.2445928296074271e-03" rms="4.1124662756919861e-01" purity="6.0978561639785767e-01" nType="-99"/>
            <Node pos="r" depth="3" NCoef="0" IVar="-1" Cut="0.0000000000000000e+00" cType="1" res="-1.7800927162170410e-03" rms="4.1167882084846497e-01" purity="3.6597943305969238e-01" nType="-99"/>
          </Node>
          <Node pos="r" depth="2" NCoef="0" IVar="8" Cut="1.8095289468765259e+00" cType="1" res="-5.4405447095632553e-02" rms="3.9543122053146362e-01" purity="3.0528628826141357e-01" nType="0">
            <Node pos="l" depth="3" NCoef="0" IVar="-1" Cut="0.0000000000000000e+00" cType="1" res="-9.1729796258732677e-04" rms="4.2134097218513489e-01" purity="3.7298297882080078e-01" nType="-99"/>
            <Node pos="r" depth="3" NCoef="0" IVar="-1" Cut="0.0000000000000000e+00" cType="1" res="-6.5822843462228775e-03" rms="3.4419596195220947e-01" purity="1.9896718859672546e-01" nType="-99"/>
          </Node>
        </Node>
      </Node>
    </BinaryTree>
    <BinaryTree type="DecisionTree" boostWeight="1.0000000000000000e+00" itree="225">
      <Node pos="s" depth="0" NCoef="0" IVar="0" Cut="1.3948308105468750e+03" cType="1" res="1.6339855268597603e-02" rms="4.0850943326950073e-01" purity="5.0582128763198853e-01" nType="0">
        <Node pos="l" depth="1" NCoef="0" IVar="2" Cut="2.7667083740234375e+02" cType="1" res="-1.3213691301643848e-02" rms="4.1565778851509094e-01" purity="3.9060953259468079e-01" nType="0">
          <Node pos="l" depth="2" NCoef="0" IVar="0" Cut="1.1398814697265625e+03" cType="1" res="3.2695647329092026e-02" rms="4.3015548586845398e-01" purity="4.9893209338188171e-01" nType="0">
            <Node pos="l" depth="3" NCoef="0" IVar="-1" Cut="0.0000000000000000e+00" cType="1" res="-4.9546710215508938e-04" rms="4.3684679269790649e-01" purity="3.3673992753028870e-01" nType="-99"/>
            <Node pos="r" depth="3" NCoef="0" IVar="-1" Cut="0.0000000000000000e+00" cType="1" res="2.5670879986137152e-03" rms="4.1543948650360107e-01" purity="6.9372534751892090e-01" nType="-99"/>
          </Node>
          <Node pos="r" depth="2" NCoef="0" IVar="1" Cut="3.6138833618164062e+02" cType="1" res="-5.3386628627777100e-02" rms="3.9822492003440857e-01" purity="2.9582199454307556e-01" nType="0">
            <Node pos="l" depth="3" NCoef="0" IVar="-1" Cut="0.0000000000000000e+00" cType="1" res="-3.8477408234030008e-03" rms="3.6869308352470398e-01" purity="2.3023372888565063e-01" nType="-99"/>
            <Node pos="r" depth="3" NCoef="0" IVar="-1" Cut="0.0000000000000000e+00" cType="1" res="-9.2329492326825857e-04" rms="4.2631283402442932e-01" purity="3.6780279874801636e-01" nType="-99"/>
          </Node>
        </Node>
        <Node pos="r" depth="1" NCoef="0" IVar="2" Cut="4.7843731689453125e+02" cType="1" res="4.7975864261388779e-02" rms="3.9829331636428833e-01" purity="6.2915122509002686e-01" nType="0">
          <Node pos="l" depth="2" NCoef="0" IVar="3" Cut="2.3134994506835938e+02" cType="1" res="9.1073922812938690e-02" rms="3.7036028504371643e-01" purity="7.5534093379974365e-01" nType="0">
            <Node pos="l" depth="3" NCoef="0" IVar="-1" Cut="0.0000000000000000e+00" cType="1" res="4.5422366820275784e-03" rms="3.2489368319511414e-01" purity="8.3867371082305908e-01" nType="-99"/>
            <Node pos="r" depth="3" NCoef="0" IVar="-1" Cut="0.0000000000000000e+00" cType="1" res="1.7815747996792197e-03" rms="3.9985194802284241e-01" purity="6.8564951419830322e-01" nType="-99"/>
          </Node>
          <Node pos="r" depth="2" NCoef="0" IVar="0" Cut="1.9330054931640625e+03" cType="1" res="-2.1772669628262520e-02" rms="4.3071383237838745e-01" purity="4.2492979764938354e-01" nType="0">
            <Node pos="l" depth="3" NCoef="0" IVar="-1" Cut="0.0000000000000000e+00" cType="1" res="-1.3408446684479713e-03" rms="4.1120618581771851e-01" purity="3.1039506196975708e-01" nType="-99"/>
            <Node pos="r" depth="3" NCoef="0" IVar="-1" Cut="0.0000000000000000e+00" cType="1" res="1.4056777581572533e-03" rms="4.5020848512649536e-01" purity="5.9154403209686279e-01" nType="-99"/>
          </Node>
        </Node>
      </Node>
    </BinaryTree>
    <BinaryTree type="DecisionTree" boostWeight="1.0000000000000000e+00" itree="226">
      <Node pos="s" depth="0" NCoef="0" IVar="6" Cut="6.8644517660140991e-01" cType="1" res="6.6730962134897709e-03" rms="4.0935906767845154e-01" purity="4.9367982149124146e-01" nType="0">
        <Node pos="l" depth="1" NCoef="0" IVar="6" Cut="-7.8531271219253540e-01" cType="1" res="2.3675862699747086e-02" rms="4.1108158230781555e-01" purity="5.3518790006637573e-01" nType="0">
          <Node pos="l" depth="2" NCoef="0" IVar="6" Cut="-1.4394291639328003e+00" cType="1" res="-4.2983379215002060e-02" rms="3.9148199558258057e-01" purity="3.5496047139167786e-01" nType="0">
            <Node pos="l" depth="3" NCoef="0" IVar="-1" Cut="0.0000000000000000e+00" cType="1" res="-5.7163196615874767e-03" rms="3.4809911251068115e-01" purity="2.1270076930522919e-01" nType="-99"/>
            <Node pos="r" depth="3" NCoef="0" IVar="-1" Cut="0.0000000000000000e+00" cType="1" res="-7.2582816937938333e-04" rms="4.0823602676391602e-01" purity="4.2338144779205322e-01" nType="-99"/>
          </Node>
          <Node pos="r" depth="2" NCoef="0" IVar="9" Cut="1.4666476249694824e+00" cType="1" res="4.6961814165115356e-02" rms="4.1519695520401001e-01" purity="5.9814637899398804e-01" nType="0">
            <Node pos="l" depth="3" NCoef="0" IVar="-1" Cut="0.0000000000000000e+00" cType="1" res="1.5830346383154392e-03" rms="4.1447862982749939e-01" purity="6.1859035491943359e-01" nType="-99"/>
            <Node pos="r" depth="3" NCoef="0" IVar="-1" Cut="0.0000000000000000e+00" cType="1" res="-1.9256414379924536e-03" rms="4.0943288803100586e-01" purity="3.8302692770957947e-01" nType="-99"/>
          </Node>
        </Node>
        <Node pos="r" depth="1" NCoef="0" IVar="6" Cut="1.3908840417861938e+00" cType="1" res="-5.0869721919298172e-02" rms="3.9812368154525757e-01" purity="3.5320332646369934e-01" nType="0">
          <Node pos="l" depth="2" NCoef="0" IVar="7" Cut="-6.6586279869079590e-01" cType="1" res="-2.6992997154593468e-02" rms="4.1864508390426636e-01" purity="4.2506912350654602e-01" nType="0">
            <Node pos="l" depth="3" NCoef="0" IVar="-1" Cut="0.0000000000000000e+00" cType="1" res="-4.4564520940184593e-03" rms="3.8544169068336487e-01" purity="2.8404659032821655e-01" nType="-99"/>
            <Node pos="r" depth="3" NCoef="0" IVar="-1" Cut="0.0000000000000000e+00" cType="1" res="-3.1571538420394063e-04" rms="4.2629963159561157e-01" purity="4.6719571948051453e-01" nType="-99"/>
          </Node>
          <Node pos="r" depth="2" NCoef="0" IVar="3" Cut="2.0628157043457031e+02" cType="1" res="-9.8380036652088165e-02" rms="3.4893989562988281e-01" purity="2.1020342409610748e-01" nType="0">
            <Node pos="l" depth="3" NCoef="0" IVar="-1" Cut="0.0000000000000000e+00" cType="1" res="-4.4278195127844810e-03" rms="3.4179913997650146e-01" purity="1.8584446609020233e-01" nType="-99"/>
            <Node pos="r" depth="3" NCoef="0" IVar="-1" Cut="0.0000000000000000e+00" cType="1" res="-7.3888180777430534e-03" rms="3.5664594173431396e-01" purity="2.4575835466384888e-01" nType="-99"/>
          </Node>
        </Node>
      </Node>
    </BinaryTree>
    <BinaryTree type="DecisionTree" boostWeight="1.0000000000000000e+00" itree="227">
      <Node pos="s" depth="0" NCoef="0" IVar="0" Cut="1.4400817871093750e+03" cType="1" res="1.3543745502829552e-02" rms="4.0683495998382568e-01" purity="5.0162446498870850e-01" nType="0">
        <Node pos="l" depth="1" NCoef="0" IVar="2" Cut="2.8263467407226562e+02" cType="1" res="-1.4054189436137676e-02" rms="4.1332936286926270e-01" purity="3.9792975783348083e-01" nType="0">
          <Node pos="l" depth="2" NCoef="0" IVar="0" Cut="1.1048151855468750e+03" cType="1" res="2.4361243471503258e-02" rms="4.2531204223632812e-01" purity="5.0239878892898560e-01" nType="0">
            <Node pos="l" depth="3" NCoef="0" IVar="-1" Cut="0.0000000000000000e+00" cType="1" res="-1.6897600144147873e-03" rms="4.2155751585960388e-01" purity="2.8986352682113647e-01" nType="-99"/>
            <Node pos="r" depth="3" NCoef="0" IVar="-1" Cut="0.0000000000000000e+00" cType="1" res="2.1734205074608326e-03" rms="4.2178443074226379e-01" purity="6.6093969345092773e-01" nType="-99"/>
          </Node>
          <Node pos="r" depth="2" NCoef="0" IVar="8" Cut="1.4665610790252686e+00" cType="1" res="-4.9204308539628983e-02" rms="3.9882367849349976e-01" purity="3.0234065651893616e-01" nType="0">
            <Node pos="l" depth="3" NCoef="0" IVar="-1" Cut="0.0000000000000000e+00" cType="1" res="-1.7233277903869748e-03" rms="4.0801861882209778e-01" purity="3.2522168755531311e-01" nType="-99"/>
            <Node pos="r" depth="3" NCoef="0" IVar="-1" Cut="0.0000000000000000e+00" cType="1" res="-9.5236049965023994e-03" rms="3.0207085609436035e-01" purity="1.1536128818988800e-01" nType="-99"/>
          </Node>
        </Node>
        <Node pos="r" depth="1" NCoef="0" IVar="2" Cut="5.0814547729492188e+02" cType="1" res="4.9538839608430862e-02" rms="3.9532074332237244e-01" purity="6.3687020540237427e-01" nType="0">
          <Node pos="l" depth="2" NCoef="0" IVar="3" Cut="3.0303649902343750e+02" cType="1" res="9.3035101890563965e-02" rms="3.6993390321731567e-01" purity="7.5485557317733765e-01" nType="0">
            <Node pos="l" depth="3" NCoef="0" IVar="-1" Cut="0.0000000000000000e+00" cType="1" res="3.8915588520467281e-03" rms="3.4882774949073792e-01" purity="8.0351722240447998e-01" nType="-99"/>
            <Node pos="r" depth="3" NCoef="0" IVar="-1" Cut="0.0000000000000000e+00" cType="1" res="5.7527850003680214e-05" rms="4.2822772264480591e-01" purity="5.7154583930969238e-01" nType="-99"/>
          </Node>
          <Node pos="r" depth="2" NCoef="0" IVar="1" Cut="7.0920129394531250e+02" cType="1" res="-3.1689975410699844e-02" rms="4.2711558938026428e-01" purity="4.1653376817703247e-01" nType="0">
            <Node pos="l" depth="3" NCoef="0" IVar="-1" Cut="0.0000000000000000e+00" cType="1" res="-3.4558493643999100e-03" rms="4.1863191127777100e-01" purity="3.4699448943138123e-01" nType="-99"/>
            <Node pos="r" depth="3" NCoef="0" IVar="-1" Cut="0.0000000000000000e+00" cType="1" res="2.9054528567939997e-03" rms="4.3384498357772827e-01" purity="6.9439703226089478e-01" nType="-99"/>
          </Node>
        </Node>
      </Node>
    </BinaryTree>
    <BinaryTree type="DecisionTree" boostWeight="1.0000000000000000e+00" itree="228">
      <Node pos="s" depth="0" NCoef="0" IVar="7" Cut="-6.6659772396087646e-01" cType="1" res="1.6124768182635307e-02" rms="4.0687009692192078e-01" purity="5.0310343503952026e-01" nType="0">
        <Node pos="l" depth="1" NCoef="0" IVar="1" Cut="4.1791174316406250e+02" cType="1" res="-3.7537116557359695e-02" rms="3.9370903372764587e-01" purity="3.7684869766235352e-01" nType="0">
          <Node pos="l" depth="2" NCoef="0" IVar="2" Cut="2.8657342529296875e+02" cType="1" res="-6.5312363207340240e-02" rms="3.7278082966804504e-01" purity="2.6888412237167358e-01" nType="0">
            <Node pos="l" depth="3" NCoef="0" IVar="-1" Cut="0.0000000000000000e+00" cType="1" res="-1.0469221742823720e-03" rms="4.0404796600341797e-01" purity="3.5481625795364380e-01" nType="-99"/>
            <Node pos="r" depth="3" NCoef="0" IVar="-1" Cut="0.0000000000000000e+00" cType="1" res="-5.6524807587265968e-03" rms="3.4704941511154175e-01" purity="2.0939610898494720e-01" nType="-99"/>
          </Node>
          <Node pos="r" depth="2" NCoef="0" IVar="8" Cut="-6.6699326038360596e-01" cType="1" res="4.8235063441097736e-03" rms="4.2011982202529907e-01" purity="5.4150772094726562e-01" nType="0">
            <Node pos="l" depth="3" NCoef="0" IVar="-1" Cut="0.0000000000000000e+00" cType="1" res="-2.5680025573819876e-03" rms="4.0432447195053101e-01" purity="4.4286543130874634e-01" nType="-99"/>
            <Node pos="r" depth="3" NCoef="0" IVar="-1" Cut="0.0000000000000000e+00" cType="1" res="1.1152161750942469e-03" rms="4.2385277152061462e-01" purity="5.8273690938949585e-01" nType="-99"/>
          </Node>
        </Node>
        <Node pos="r" depth="1" NCoef="0" IVar="7" Cut="6.5400654077529907e-01" cType="1" res="3.3562012016773224e-02" rms="4.0954521298408508e-01" purity="5.4412949085235596e-01" nType="0">
          <Node pos="l" depth="2" NCoef="0" IVar="2" Cut="6.0625280761718750e+02" cType="1" res="6.0371760278940201e-02" rms="4.1043305397033691e-01" purity="6.1974316835403442e-01" nType="0">
            <Node pos="l" depth="3" NCoef="0" IVar="-1" Cut="0.0000000000000000e+00" cType="1" res="2.3175296373665333e-03" rms="4.0611031651496887e-01" purity="6.3509798049926758e-01" nType="-99"/>
            <Node pos="r" depth="3" NCoef="0" IVar="-1" Cut="0.0000000000000000e+00" cType="1" res="-1.3800791930407286e-03" rms="4.3943351507186890e-01" purity="4.7047302126884460e-01" nType="-99"/>
          </Node>
          <Node pos="r" depth="2" NCoef="0" IVar="8" Cut="-9.3327099084854126e-01" cType="1" res="-2.1009648218750954e-02" rms="4.0224903821945190e-01" purity="3.9021673798561096e-01" nType="0">
            <Node pos="l" depth="3" NCoef="0" IVar="-1" Cut="0.0000000000000000e+00" cType="1" res="-5.2646365948021412e-03" rms="3.5860568284988403e-01" purity="2.2685657441616058e-01" nType="-99"/>
            <Node pos="r" depth="3" NCoef="0" IVar="-1" Cut="0.0000000000000000e+00" cType="1" res="-1.8181782797910273e-04" rms="4.0869820117950439e-01" purity="4.2394313216209412e-01" nType="-99"/>
          </Node>
        </Node>
      </Node>
    </BinaryTree>
    <BinaryTree type="DecisionTree" boostWeight="1.0000000000000000e+00" itree="229">
      <Node pos="s" depth="0" NCoef="0" IVar="7" Cut="1.4666144847869873e+00" cType="1" res="1.6547987237572670e-02" rms="4.0922915935516357e-01" purity="5.0449949502944946e-01" nType="0">
        <Node pos="l" depth="1" NCoef="0" IVar="7" Cut="-7.6819521188735962e-01" cType="1" res="2.5023665279150009e-02" rms="4.1315171122550964e-01" purity="5.2947890758514404e-01" nType="0">
          <Node pos="l" depth="2" NCoef="0" IVar="8" Cut="9.3347305059432983e-01" cType="1" res="-3.2468356192111969e-02" rms="3.9704632759094238e-01" purity="3.6534997820854187e-01" nType="0">
            <Node pos="l" depth="3" NCoef="0" IVar="-1" Cut="0.0000000000000000e+00" cType="1" res="-7.3586869984865189e-04" rms="4.0443995594978333e-01" purity="3.9698442816734314e-01" nType="-99"/>
            <Node pos="r" depth="3" NCoef="0" IVar="-1" Cut="0.0000000000000000e+00" cType="1" res="-6.4320666715502739e-03" rms="3.4947419166564941e-01" purity="2.1118444204330444e-01" nType="-99"/>
          </Node>
          <Node pos="r" depth="2" NCoef="0" IVar="8" Cut="-1.4666895866394043e+00" cType="1" res="4.3008621782064438e-02" rms="4.1643583774566650e-01" purity="5.8082258701324463e-01" nType="0">
            <Node pos="l" depth="3" NCoef="0" IVar="-1" Cut="0.0000000000000000e+00" cType="1" res="-3.0001350678503513e-03" rms="4.0833956003189087e-01" purity="3.1411436200141907e-01" nType="-99"/>
            <Node pos="r" depth="3" NCoef="0" IVar="-1" Cut="0.0000000000000000e+00" cType="1" res="1.7917332006618381e-03" rms="4.1591918468475342e-01" purity="6.0208624601364136e-01" nType="-99"/>
          </Node>
        </Node>
        <Node pos="r" depth="1" NCoef="0" IVar="7" Cut="1.9745270013809204e+00" cType="1" res="-8.6300365626811981e-02" rms="3.4187012910842896e-01" purity="2.0138645172119141e-01" nType="0">
          <Node pos="l" depth="2" NCoef="0" IVar="-1" Cut="0.0000000000000000e+00" cType="1" res="-3.6881498526781797e-03" rms="3.6403155326843262e-01" purity="2.4495355784893036e-01" nType="-99"/>
          <Node pos="r" depth="2" NCoef="0" IVar="-1" Cut="0.0000000000000000e+00" cType="1" res="-8.8163800537586212e-03" rms="3.0337291955947876e-01" purity="1.3712359964847565e-01" nType="-99"/>
        </Node>
      </Node>
    </BinaryTree>
    <BinaryTree type="DecisionTree" boostWeight="1.0000000000000000e+00" itree="230">
      <Node pos="s" depth="0" NCoef="0" IVar="8" Cut="1.1999874114990234e+00" cType="1" res="1.3641279190778732e-02" rms="4.0789753198623657e-01" purity="5.0060373544692993e-01" nType="0">
        <Node pos="l" depth="1" NCoef="0" IVar="8" Cut="-1.0857349634170532e+00" cType="1" res="2.5393059477210045e-02" rms="4.1002511978149414e-01" purity="5.3133565187454224e-01" nType="0">
          <Node pos="l" depth="2" NCoef="0" IVar="6" Cut="7.1298444271087646e-01" cType="1" res="-5.4900553077459335e-02" rms="3.8663849234580994e-01" purity="3.1658169627189636e-01" nType="0">
            <Node pos="l" depth="3" NCoef="0" IVar="-1" Cut="0.0000000000000000e+00" cType="1" res="-1.6522731166332960e-03" rms="4.0140902996063232e-01" purity="3.5675057768821716e-01" nType="-99"/>
            <Node pos="r" depth="3" NCoef="0" IVar="-1" Cut="0.0000000000000000e+00" cType="1" res="-8.8475923985242844e-03" rms="3.1525555253028870e-01" purity="1.6598372161388397e-01" nType="-99"/>
          </Node>
          <Node pos="r" depth="2" NCoef="0" IVar="6" Cut="-1.4581344127655029e+00" cType="1" res="4.2520321905612946e-02" rms="4.1282713413238525e-01" purity="5.7714444398880005e-01" nType="0">
            <Node pos="l" depth="3" NCoef="0" IVar="-1" Cut="0.0000000000000000e+00" cType="1" res="-3.4485321957617998e-03" rms="3.7784308195114136e-01" purity="2.7843213081359863e-01" nType="-99"/>
            <Node pos="r" depth="3" NCoef="0" IVar="-1" Cut="0.0000000000000000e+00" cType="1" res="1.4620827278122306e-03" rms="4.1383498907089233e-01" purity="5.9540414810180664e-01" nType="-99"/>
          </Node>
        </Node>
        <Node pos="r" depth="1" NCoef="0" IVar="8" Cut="2.0380797386169434e+00" cType="1" res="-6.6402904689311981e-02" rms="3.8364014029502869e-01" purity="2.9128083586692810e-01" nType="0">
          <Node pos="l" depth="2" NCoef="0" IVar="6" Cut="-3.2596629858016968e-01" cType="1" res="-4.9130093306303024e-02" rms="3.9669835567474365e-01" purity="3.2853266596794128e-01" nType="0">
            <Node pos="l" depth="3" NCoef="0" IVar="-1" Cut="0.0000000000000000e+00" cType="1" res="-4.9910922534763813e-03" rms="3.6763471364974976e-01" purity="2.5313314795494080e-01" nType="-99"/>
            <Node pos="r" depth="3" NCoef="0" IVar="-1" Cut="0.0000000000000000e+00" cType="1" res="-1.1903028935194016e-03" rms="4.0764871239662170e-01" purity="3.6328729987144470e-01" nType="-99"/>
          </Node>
          <Node pos="r" depth="2" NCoef="0" IVar="-1" Cut="0.0000000000000000e+00" cType="1" res="-8.2167098298668861e-03" rms="3.3353650569915771e-01" purity="1.7413321137428284e-01" nType="-99"/>
        </Node>
      </Node>
    </BinaryTree>
    <BinaryTree type="DecisionTree" boostWeight="1.0000000000000000e+00" itree="231">
      <Node pos="s" depth="0" NCoef="0" IVar="8" Cut="9.3331509828567505e-01" cType="1" res="1.6135009005665779e-02" rms="4.0706494450569153e-01" purity="5.0494021177291870e-01" nType="0">
        <Node pos="l" depth="1" NCoef="0" IVar="8" Cut="-1.0222345590591431e+00" cType="1" res="2.9993467032909393e-02" rms="4.0820190310478210e-01" purity="5.3948247432708740e-01" nType="0">
          <Node pos="l" depth="2" NCoef="0" IVar="6" Cut="6.8641436100006104e-01" cType="1" res="-4.4997941702604294e-02" rms="3.9474490284919739e-01" purity="3.4302493929862976e-01" nType="0">
            <Node pos="l" depth="3" NCoef="0" IVar="-1" Cut="0.0000000000000000e+00" cType="1" res="-1.1547614121809602e-03" rms="4.0510964393615723e-01" purity="3.8571807742118835e-01" nType="-99"/>
            <Node pos="r" depth="3" NCoef="0" IVar="-1" Cut="0.0000000000000000e+00" cType="1" res="-7.5015495531260967e-03" rms="3.4688207507133484e-01" purity="1.8968789279460907e-01" nType="-99"/>
          </Node>
          <Node pos="r" depth="2" NCoef="0" IVar="7" Cut="9.3329304456710815e-01" cType="1" res="4.9646846950054169e-02" rms="4.0939038991928101e-01" purity="5.9096914529800415e-01" nType="0">
            <Node pos="l" depth="3" NCoef="0" IVar="-1" Cut="0.0000000000000000e+00" cType="1" res="2.1083911415189505e-03" rms="4.0894034504890442e-01" purity="6.2691766023635864e-01" nType="-99"/>
            <Node pos="r" depth="3" NCoef="0" IVar="-1" Cut="0.0000000000000000e+00" cType="1" res="-7.8343704808503389e-04" rms="4.0500268340110779e-01" purity="3.9616277813911438e-01" nType="-99"/>
          </Node>
        </Node>
        <Node pos="r" depth="1" NCoef="0" IVar="9" Cut="-9.3321323394775391e-01" cType="1" res="-4.3633434921503067e-02" rms="3.9661526679992676e-01" purity="3.5596677660942078e-01" nType="0">
          <Node pos="l" depth="2" NCoef="0" IVar="-1" Cut="0.0000000000000000e+00" cType="1" res="-8.1031611189246178e-03" rms="3.5374614596366882e-01" purity="2.1179281175136566e-01" nType="-99"/>
          <Node pos="r" depth="2" NCoef="0" IVar="9" Cut="8.4447908401489258e-01" cType="1" res="-2.8412614017724991e-02" rms="4.0286388993263245e-01" purity="3.8462021946907043e-01" nType="0">
            <Node pos="l" depth="3" NCoef="0" IVar="-1" Cut="0.0000000000000000e+00" cType="1" res="-1.9192562831449322e-05" rms="4.1574832797050476e-01" purity="4.4649526476860046e-01" nType="-99"/>
            <Node pos="r" depth="3" NCoef="0" IVar="-1" Cut="0.0000000000000000e+00" cType="1" res="-4.0235742926597595e-03" rms="3.7436529994010925e-01" purity="2.7661547064781189e-01" nType="-99"/>
          </Node>
        </Node>
      </Node>
    </BinaryTree>
    <BinaryTree type="DecisionTree" boostWeight="1.0000000000000000e+00" itree="232">
      <Node pos="s" depth="0" NCoef="0" IVar="8" Cut="-9.3333506584167480e-01" cType="1" res="1.1923100799322128e-02" rms="4.0767168998718262e-01" purity="4.9907544255256653e-01" nType="0">
        <Node pos="l" depth="1" NCoef="0" IVar="3" Cut="2.7310433959960938e+02" cType="1" res="-4.7165114432573318e-02" rms="3.9814430475234985e-01" purity="3.5065805912017822e-01" nType="0">
          <Node pos="l" depth="2" NCoef="0" IVar="1" Cut="4.9779977416992188e+02" cType="1" res="-3.1422063708305359e-02" rms="3.9572650194168091e-01" purity="3.6369410157203674e-01" nType="0">
            <Node pos="l" depth="3" NCoef="0" IVar="-1" Cut="0.0000000000000000e+00" cType="1" res="-2.1832769270986319e-03" rms="3.8910555839538574e-01" purity="3.0989795923233032e-01" nType="-99"/>
            <Node pos="r" depth="3" NCoef="0" IVar="-1" Cut="0.0000000000000000e+00" cType="1" res="1.4155331300571561e-03" rms="4.1765245795249939e-01" purity="6.0829657316207886e-01" nType="-99"/>
          </Node>
          <Node pos="r" depth="2" NCoef="0" IVar="-1" Cut="0.0000000000000000e+00" cType="1" res="-8.7433522567152977e-03" rms="4.0042495727539062e-01" purity="2.8054863214492798e-01" nType="-99"/>
        </Node>
        <Node pos="r" depth="1" NCoef="0" IVar="8" Cut="1.1999942064285278e+00" cType="1" res="2.5475777685642242e-02" rms="4.0862286090850830e-01" purity="5.3311699628829956e-01" nType="0">
          <Node pos="l" depth="2" NCoef="0" IVar="6" Cut="6.7064237594604492e-01" cType="1" res="3.9321348071098328e-02" rms="4.1084256768226624e-01" purity="5.7592427730560303e-01" nType="0">
            <Node pos="l" depth="3" NCoef="0" IVar="-1" Cut="0.0000000000000000e+00" cType="1" res="1.3135345652699471e-03" rms="4.0762662887573242e-01" purity="6.1423265933990479e-01" nType="-99"/>
            <Node pos="r" depth="3" NCoef="0" IVar="-1" Cut="0.0000000000000000e+00" cType="1" res="-5.7501299306750298e-04" rms="4.1717788577079773e-01" purity="4.4432780146598816e-01" nType="-99"/>
          </Node>
          <Node pos="r" depth="2" NCoef="0" IVar="6" Cut="-6.5116810798645020e-01" cType="1" res="-4.6770997345447540e-02" rms="3.8892316818237305e-01" purity="3.0974653363227844e-01" nType="0">
            <Node pos="l" depth="3" NCoef="0" IVar="-1" Cut="0.0000000000000000e+00" cType="1" res="-7.2419582866132259e-03" rms="3.3334887027740479e-01" purity="1.7570519447326660e-01" nType="-99"/>
            <Node pos="r" depth="3" NCoef="0" IVar="-1" Cut="0.0000000000000000e+00" cType="1" res="-1.2948166113346815e-03" rms="4.0192714333534241e-01" purity="3.4894409775733948e-01" nType="-99"/>
          </Node>
        </Node>
      </Node>
    </BinaryTree>
    <BinaryTree type="DecisionTree" boostWeight="1.0000000000000000e+00" itree="233">
      <Node pos="s" depth="0" NCoef="0" IVar="0" Cut="1.4570075683593750e+03" cType="1" res="1.2115343473851681e-02" rms="4.0518000721931458e-01" purity="5.0071525573730469e-01" nType="0">
        <Node pos="l" depth="1" NCoef="0" IVar="2" Cut="2.8263095092773438e+02" cType="1" res="-1.1853776872158051e-02" rms="4.1035950183868408e-01" purity="4.0528011322021484e-01" nType="0">
          <Node pos="l" depth="2" NCoef="0" IVar="0" Cut="1.0815756835937500e+03" cType="1" res="3.4851815551519394e-02" rms="4.1962245106697083e-01" purity="5.1848918199539185e-01" nType="0">
            <Node pos="l" depth="3" NCoef="0" IVar="-1" Cut="0.0000000000000000e+00" cType="1" res="-1.7000144580379128e-03" rms="4.1554069519042969e-01" purity="2.8043559193611145e-01" nType="-99"/>
            <Node pos="r" depth="3" NCoef="0" IVar="-1" Cut="0.0000000000000000e+00" cType="1" res="2.5049152318388224e-03" rms="4.1545456647872925e-01" purity="6.6403019428253174e-01" nType="-99"/>
          </Node>
          <Node pos="r" depth="2" NCoef="0" IVar="7" Cut="-6.6689813137054443e-01" cType="1" res="-5.3913448005914688e-02" rms="3.9716258645057678e-01" purity="3.0333223938941956e-01" nType="0">
            <Node pos="l" depth="3" NCoef="0" IVar="-1" Cut="0.0000000000000000e+00" cType="1" res="-5.2325241267681122e-03" rms="3.5355675220489502e-01" purity="2.0268444716930389e-01" nType="-99"/>
            <Node pos="r" depth="3" NCoef="0" IVar="-1" Cut="0.0000000000000000e+00" cType="1" res="-1.5924508916214108e-03" rms="4.1103121638298035e-01" purity="3.4051162004470825e-01" nType="-99"/>
          </Node>
        </Node>
        <Node pos="r" depth="1" NCoef="0" IVar="2" Cut="5.4273535156250000e+02" cType="1" res="4.6019330620765686e-02" rms="3.9526420831680298e-01" purity="6.3570696115493774e-01" nType="0">
          <Node pos="l" depth="2" NCoef="0" IVar="3" Cut="3.1510244750976562e+02" cType="1" res="8.1300280988216400e-02" rms="3.7444770336151123e-01" purity="7.3428112268447876e-01" nType="0">
            <Node pos="l" depth="3" NCoef="0" IVar="-1" Cut="0.0000000000000000e+00" cType="1" res="3.5255930852144957e-03" rms="3.5863757133483887e-01" purity="7.7840530872344971e-01" nType="-99"/>
            <Node pos="r" depth="3" NCoef="0" IVar="-1" Cut="0.0000000000000000e+00" cType="1" res="-2.6111339684575796e-04" rms="4.2318671941757202e-01" purity="5.4984062910079956e-01" nType="-99"/>
          </Node>
          <Node pos="r" depth="2" NCoef="0" IVar="1" Cut="6.0599151611328125e+02" cType="1" res="-3.3253617584705353e-02" rms="4.2796531319618225e-01" purity="4.1422018408775330e-01" nType="0">
            <Node pos="l" depth="3" NCoef="0" IVar="-1" Cut="0.0000000000000000e+00" cType="1" res="-1.3079337077215314e-03" rms="4.0865451097488403e-01" purity="3.0997151136398315e-01" nType="-99"/>
            <Node pos="r" depth="3" NCoef="0" IVar="-1" Cut="0.0000000000000000e+00" cType="1" res="1.6130679287016392e-03" rms="4.5302471518516541e-01" purity="6.2593555450439453e-01" nType="-99"/>
          </Node>
        </Node>
      </Node>
    </BinaryTree>
    <BinaryTree type="DecisionTree" boostWeight="1.0000000000000000e+00" itree="234">
      <Node pos="s" depth="0" NCoef="0" IVar="8" Cut="1.4666552543640137e+00" cType="1" res="1.1666518636047840e-02" rms="4.0692132711410522e-01" purity="4.9893420934677124e-01" nType="0">
        <Node pos="l" depth="1" NCoef="0" IVar="8" Cut="-9.7142916917800903e-01" cType="1" res="2.0562998950481415e-02" rms="4.0941742062568665e-01" purity="5.2343410253524780e-01" nType="0">
          <Node pos="l" depth="2" NCoef="0" IVar="8" Cut="-2.0163364410400391e+00" cType="1" res="-3.9069112390279770e-02" rms="3.9518281817436218e-01" purity="3.5122835636138916e-01" nType="0">
            <Node pos="l" depth="3" NCoef="0" IVar="-1" Cut="0.0000000000000000e+00" cType="1" res="-7.5264144688844681e-03" rms="3.2740384340286255e-01" purity="1.6190324723720551e-01" nType="-99"/>
            <Node pos="r" depth="3" NCoef="0" IVar="-1" Cut="0.0000000000000000e+00" cType="1" res="-9.3710416695103049e-04" rms="4.0729644894599915e-01" purity="3.9507696032524109e-01" nType="-99"/>
          </Node>
          <Node pos="r" depth="2" NCoef="0" IVar="0" Cut="1.1315577392578125e+03" cType="1" res="3.5283744335174561e-02" rms="4.1152814030647278e-01" purity="5.6594473123550415e-01" nType="0">
            <Node pos="l" depth="3" NCoef="0" IVar="-1" Cut="0.0000000000000000e+00" cType="1" res="-1.1962740682065487e-03" rms="4.2262777686119080e-01" purity="3.0509939789772034e-01" nType="-99"/>
            <Node pos="r" depth="3" NCoef="0" IVar="-1" Cut="0.0000000000000000e+00" cType="1" res="1.4912683982402086e-03" rms="4.0737825632095337e-01" purity="6.2530905008316040e-01" nType="-99"/>
          </Node>
        </Node>
        <Node pos="r" depth="1" NCoef="0" IVar="6" Cut="-1.2027725577354431e-01" cType="1" res="-8.0479517579078674e-02" rms="3.6765354871749878e-01" purity="2.4517454206943512e-01" nType="0">
          <Node pos="l" depth="2" NCoef="0" IVar="-1" Cut="0.0000000000000000e+00" cType="1" res="-7.7706058509647846e-03" rms="3.3089360594749451e-01" purity="1.9433684647083282e-01" nType="-99"/>
          <Node pos="r" depth="2" NCoef="0" IVar="6" Cut="7.1399456262588501e-01" cType="1" res="-5.1522675901651382e-02" rms="3.8737577199935913e-01" purity="2.7882310748100281e-01" nType="0">
            <Node pos="l" depth="3" NCoef="0" IVar="-1" Cut="0.0000000000000000e+00" cType="1" res="-1.1429409496486187e-03" rms="4.1771787405014038e-01" purity="3.5889542102813721e-01" nType="-99"/>
            <Node pos="r" depth="3" NCoef="0" IVar="-1" Cut="0.0000000000000000e+00" cType="1" res="-4.2740623466670513e-03" rms="3.5282227396965027e-01" purity="1.9899499416351318e-01" nType="-99"/>
          </Node>
        </Node>
      </Node>
    </BinaryTree>
    <BinaryTree type="DecisionTree" boostWeight="1.0000000000000000e+00" itree="235">
      <Node pos="s" depth="0" NCoef="0" IVar="1" Cut="4.3640158081054688e+02" cType="1" res="6.7941844463348389e-03" rms="4.0488088130950928e-01" purity="4.9568367004394531e-01" nType="0">
        <Node pos="l" depth="1" NCoef="0" IVar="1" Cut="3.3897268676757812e+02" cType="1" res="-1.5422062017023563e-02" rms="4.0402349829673767e-01" purity="3.9814946055412292e-01" nType="0">
          <Node pos="l" depth="2" NCoef="0" IVar="2" Cut="4.8515774536132812e+02" cType="1" res="-6.1217192560434341e-02" rms="3.8809460401535034e-01" purity="3.1577929854393005e-01" nType="0">
            <Node pos="l" depth="3" NCoef="0" IVar="-1" Cut="0.0000000000000000e+00" cType="1" res="-2.0449492149055004e-03" rms="3.9628875255584717e-01" purity="3.4103959798812866e-01" nType="-99"/>
            <Node pos="r" depth="3" NCoef="0" IVar="-1" Cut="0.0000000000000000e+00" cType="1" res="-1.1208556825295091e-03" rms="3.0071142315864563e-01" purity="1.1692047119140625e-01" nType="-99"/>
          </Node>
          <Node pos="r" depth="2" NCoef="0" IVar="2" Cut="3.3920147705078125e+02" cType="1" res="1.3141662813723087e-02" rms="4.1107296943664551e-01" purity="4.4952607154846191e-01" nType="0">
            <Node pos="l" depth="3" NCoef="0" IVar="-1" Cut="0.0000000000000000e+00" cType="1" res="1.6260816482827067e-03" rms="4.1783502697944641e-01" purity="5.3400409221649170e-01" nType="-99"/>
            <Node pos="r" depth="3" NCoef="0" IVar="-1" Cut="0.0000000000000000e+00" cType="1" res="-1.5984498895704746e-03" rms="3.9727178215980530e-01" purity="3.3760091662406921e-01" nType="-99"/>
          </Node>
        </Node>
        <Node pos="r" depth="1" NCoef="0" IVar="3" Cut="3.2050012207031250e+02" cType="1" res="4.3662000447511673e-02" rms="4.0361011028289795e-01" purity="6.5754145383834839e-01" nType="0">
          <Node pos="l" depth="2" NCoef="0" IVar="9" Cut="1.4668028354644775e+00" cType="1" res="5.6657474488019943e-02" rms="3.9579552412033081e-01" purity="6.7554217576980591e-01" nType="0">
            <Node pos="l" depth="3" NCoef="0" IVar="-1" Cut="0.0000000000000000e+00" cType="1" res="2.2774119861423969e-03" rms="3.9239180088043213e-01" purity="6.9577640295028687e-01" nType="-99"/>
            <Node pos="r" depth="3" NCoef="0" IVar="-1" Cut="0.0000000000000000e+00" cType="1" res="-2.0421873778104782e-03" rms="4.1674262285232544e-01" purity="4.5008680224418640e-01" nType="-99"/>
          </Node>
          <Node pos="r" depth="2" NCoef="0" IVar="0" Cut="2.1994687500000000e+03" cType="1" res="-3.4662142395973206e-02" rms="4.3977215886116028e-01" purity="5.4905045032501221e-01" nType="0">
            <Node pos="l" depth="3" NCoef="0" IVar="-1" Cut="0.0000000000000000e+00" cType="1" res="-2.7951472438871861e-03" rms="4.3128749728202820e-01" purity="5.1066297292709351e-01" nType="-99"/>
            <Node pos="r" depth="3" NCoef="0" IVar="-1" Cut="0.0000000000000000e+00" cType="1" res="-1.8918355635832995e-04" rms="4.4715464115142822e-01" purity="5.9158891439437866e-01" nType="-99"/>
          </Node>
        </Node>
      </Node>
    </BinaryTree>
    <BinaryTree type="DecisionTree" boostWeight="1.0000000000000000e+00" itree="236">
      <Node pos="s" depth="0" NCoef="0" IVar="8" Cut="1.1999232769012451e+00" cType="1" res="9.2083942145109177e-03" rms="4.0735122561454773e-01" purity="4.9625998735427856e-01" nType="0">
        <Node pos="l" depth="1" NCoef="0" IVar="8" Cut="-8.9527499675750732e-01" cType="1" res="2.0556766539812088e-02" rms="4.1007283329963684e-01" purity="5.2729624509811401e-01" nType="0">
          <Node pos="l" depth="2" NCoef="0" IVar="8" Cut="-1.5301879644393921e+00" cType="1" res="-3.5805780440568924e-02" rms="3.9505419135093689e-01" purity="3.6574739217758179e-01" nType="0">
            <Node pos="l" depth="3" NCoef="0" IVar="-1" Cut="0.0000000000000000e+00" cType="1" res="-4.7329743392765522e-03" rms="3.6108046770095825e-01" purity="2.2859121859073639e-01" nType="-99"/>
            <Node pos="r" depth="3" NCoef="0" IVar="-1" Cut="0.0000000000000000e+00" cType="1" res="-2.3782972129993141e-04" rms="4.1255709528923035e-01" purity="4.5345333218574524e-01" nType="-99"/>
          </Node>
          <Node pos="r" depth="2" NCoef="0" IVar="7" Cut="-1.1998630762100220e+00" cType="1" res="3.7546720355749130e-02" rms="4.1298726201057434e-01" purity="5.7599371671676636e-01" nType="0">
            <Node pos="l" depth="3" NCoef="0" IVar="-1" Cut="0.0000000000000000e+00" cType="1" res="-2.6829831767827272e-03" rms="3.9275610446929932e-01" purity="3.1010067462921143e-01" nType="-99"/>
            <Node pos="r" depth="3" NCoef="0" IVar="-1" Cut="0.0000000000000000e+00" cType="1" res="1.6619787784293294e-03" rms="4.1388902068138123e-01" purity="6.0655283927917480e-01" nType="-99"/>
          </Node>
        </Node>
        <Node pos="r" depth="1" NCoef="0" IVar="7" Cut="-6.6690820455551147e-01" cType="1" res="-6.6998526453971863e-02" rms="3.7989899516105652e-01" purity="2.8784424066543579e-01" nType="0">
          <Node pos="l" depth="2" NCoef="0" IVar="-1" Cut="0.0000000000000000e+00" cType="1" res="-8.1499544903635979e-03" rms="3.2174867391586304e-01" purity="1.7184972763061523e-01" nType="-99"/>
          <Node pos="r" depth="2" NCoef="0" IVar="9" Cut="6.6690778732299805e-01" cType="1" res="-4.9489375203847885e-02" rms="3.9454224705696106e-01" purity="3.2376962900161743e-01" nType="0">
            <Node pos="l" depth="3" NCoef="0" IVar="-1" Cut="0.0000000000000000e+00" cType="1" res="-1.0658337268978357e-03" rms="4.0986400842666626e-01" purity="3.6908710002899170e-01" nType="-99"/>
            <Node pos="r" depth="3" NCoef="0" IVar="-1" Cut="0.0000000000000000e+00" cType="1" res="-4.9116415902972221e-03" rms="3.6267831921577454e-01" purity="2.4619129300117493e-01" nType="-99"/>
          </Node>
        </Node>
      </Node>
    </BinaryTree>
    <BinaryTree type="DecisionTree" boostWeight="1.0000000000000000e+00" itree="237">
      <Node pos="s" depth="0" NCoef="0" IVar="9" Cut="-1.7332624197006226e+00" cType="1" res="8.3803078159689903e-03" rms="4.0676754713058472e-01" purity="4.9573642015457153e-01" nType="0">
        <Node pos="l" depth="1" NCoef="0" IVar="9" Cut="-2.0380198955535889e+00" cType="1" res="-1.0213183611631393e-01" rms="3.6403831839561462e-01" purity="2.4449037015438080e-01" nType="0">
          <Node pos="l" depth="2" NCoef="0" IVar="-1" Cut="0.0000000000000000e+00" cType="1" res="-8.6857769638299942e-03" rms="3.4633347392082214e-01" purity="1.9098235666751862e-01" nType="-99"/>
          <Node pos="r" depth="2" NCoef="0" IVar="-1" Cut="0.0000000000000000e+00" cType="1" res="-3.4576253965497017e-03" rms="3.8194480538368225e-01" purity="3.1149426102638245e-01" nType="-99"/>
        </Node>
        <Node pos="r" depth="1" NCoef="0" IVar="9" Cut="1.0730255842208862e+00" cType="1" res="1.5787996351718903e-02" rms="4.0840426087379456e-01" purity="5.1257753372192383e-01" nType="0">
          <Node pos="l" depth="2" NCoef="0" IVar="0" Cut="1.4570202636718750e+03" cType="1" res="2.9829131439328194e-02" rms="4.0951308608055115e-01" purity="5.4501444101333618e-01" nType="0">
            <Node pos="l" depth="3" NCoef="0" IVar="-1" Cut="0.0000000000000000e+00" cType="1" res="2.0892579050268978e-04" rms="4.2192518711090088e-01" purity="4.4927814602851868e-01" nType="-99"/>
            <Node pos="r" depth="3" NCoef="0" IVar="-1" Cut="0.0000000000000000e+00" cType="1" res="2.2924973163753748e-03" rms="3.9010998606681824e-01" purity="6.7235964536666870e-01" nType="-99"/>
          </Node>
          <Node pos="r" depth="2" NCoef="0" IVar="9" Cut="2.0598516464233398e+00" cType="1" res="-4.8003818839788437e-02" rms="3.9712548255920410e-01" purity="3.6520987749099731e-01" nType="0">
            <Node pos="l" depth="3" NCoef="0" IVar="-1" Cut="0.0000000000000000e+00" cType="1" res="-1.2762183323502541e-03" rms="4.0606713294982910e-01" purity="4.0297621488571167e-01" nType="-99"/>
            <Node pos="r" depth="3" NCoef="0" IVar="-1" Cut="0.0000000000000000e+00" cType="1" res="-8.1602130085229874e-03" rms="3.4462845325469971e-01" purity="2.0140981674194336e-01" nType="-99"/>
          </Node>
        </Node>
      </Node>
    </BinaryTree>
    <BinaryTree type="DecisionTree" boostWeight="1.0000000000000000e+00" itree="238">
      <Node pos="s" depth="0" NCoef="0" IVar="9" Cut="-1.4665119647979736e+00" cType="1" res="1.5547559596598148e-02" rms="4.0565887093544006e-01" purity="5.0566345453262329e-01" nType="0">
        <Node pos="l" depth="1" NCoef="0" IVar="6" Cut="4.1896915435791016e-01" cType="1" res="-7.4762664735317230e-02" rms="3.7238702178001404e-01" purity="2.9898759722709656e-01" nType="0">
          <Node pos="l" depth="2" NCoef="0" IVar="6" Cut="-7.8742486238479614e-01" cType="1" res="-5.3368031978607178e-02" rms="3.8513609766960144e-01" purity="3.3718538284301758e-01" nType="0">
            <Node pos="l" depth="3" NCoef="0" IVar="-1" Cut="0.0000000000000000e+00" cType="1" res="-7.4085285887122154e-03" rms="3.3349880576133728e-01" purity="1.9440892338752747e-01" nType="-99"/>
            <Node pos="r" depth="3" NCoef="0" IVar="-1" Cut="0.0000000000000000e+00" cType="1" res="-1.0654593352228403e-03" rms="4.1079699993133545e-01" purity="4.2395323514938354e-01" nType="-99"/>
          </Node>
          <Node pos="r" depth="2" NCoef="0" IVar="-1" Cut="0.0000000000000000e+00" cType="1" res="-7.4633317999541759e-03" rms="3.3801078796386719e-01" purity="2.1510556340217590e-01" nType="-99"/>
        </Node>
        <Node pos="r" depth="1" NCoef="0" IVar="9" Cut="1.1746480464935303e+00" cType="1" res="2.5106992572546005e-02" rms="4.0785366296768188e-01" purity="5.2754038572311401e-01" nType="0">
          <Node pos="l" depth="2" NCoef="0" IVar="2" Cut="5.4262469482421875e+02" cType="1" res="4.0588494390249252e-02" rms="4.0981462597846985e-01" purity="5.6172829866409302e-01" nType="0">
            <Node pos="l" depth="3" NCoef="0" IVar="-1" Cut="0.0000000000000000e+00" cType="1" res="1.8206102540716529e-03" rms="4.0612438321113586e-01" purity="5.8460438251495361e-01" nType="-99"/>
            <Node pos="r" depth="3" NCoef="0" IVar="-1" Cut="0.0000000000000000e+00" cType="1" res="-5.2099616732448339e-04" rms="4.2469760775566101e-01" purity="4.2516440153121948e-01" nType="-99"/>
          </Node>
          <Node pos="r" depth="2" NCoef="0" IVar="2" Cut="4.8049917602539062e+02" cType="1" res="-5.4626211524009705e-02" rms="3.8793662190437317e-01" purity="3.5146471858024597e-01" nType="0">
            <Node pos="l" depth="3" NCoef="0" IVar="-1" Cut="0.0000000000000000e+00" cType="1" res="-1.5307419234886765e-03" rms="3.9352226257324219e-01" purity="3.8963627815246582e-01" nType="-99"/>
            <Node pos="r" depth="3" NCoef="0" IVar="-1" Cut="0.0000000000000000e+00" cType="1" res="-9.5535656437277794e-03" rms="3.5405227541923523e-01" purity="1.9517809152603149e-01" nType="-99"/>
          </Node>
        </Node>
      </Node>
    </BinaryTree>
    <BinaryTree type="DecisionTree" boostWeight="1.0000000000000000e+00" itree="239">
      <Node pos="s" depth="0" NCoef="0" IVar="8" Cut="-1.4667510986328125e+00" cType="1" res="1.2539897114038467e-02" rms="4.0696278214454651e-01" purity="4.9983012676239014e-01" nType="0">
        <Node pos="l" depth="1" NCoef="0" IVar="9" Cut="1.3344247639179230e-01" cType="1" res="-8.1344015896320343e-02" rms="3.5986351966857910e-01" purity="2.3524767160415649e-01" nType="0">
          <Node pos="l" depth="2" NCoef="0" IVar="9" Cut="-8.4428864717483521e-01" cType="1" res="-5.8948256075382233e-02" rms="3.7123253941535950e-01" purity="2.6163524389266968e-01" nType="0">
            <Node pos="l" depth="3" NCoef="0" IVar="-1" Cut="0.0000000000000000e+00" cType="1" res="-6.6209984943270683e-03" rms="3.3192619681358337e-01" purity="1.7861410975456238e-01" nType="-99"/>
            <Node pos="r" depth="3" NCoef="0" IVar="-1" Cut="0.0000000000000000e+00" cType="1" res="-8.6914421990513802e-04" rms="4.0242689847946167e-01" purity="3.4358420968055725e-01" nType="-99"/>
          </Node>
          <Node pos="r" depth="2" NCoef="0" IVar="-1" Cut="0.0000000000000000e+00" cType="1" res="-7.9383067786693573e-03" rms="3.3637359738349915e-01" purity="1.9058397412300110e-01" nType="-99"/>
        </Node>
        <Node pos="r" depth="1" NCoef="0" IVar="8" Cut="1.3775109052658081e+00" cType="1" res="2.1419137716293335e-02" rms="4.1002690792083740e-01" purity="5.2485346794128418e-01" nType="0">
          <Node pos="l" depth="2" NCoef="0" IVar="6" Cut="-6.5983796119689941e-01" cType="1" res="3.1749408692121506e-02" rms="4.1246372461318970e-01" purity="5.5628424882888794e-01" nType="0">
            <Node pos="l" depth="3" NCoef="0" IVar="-1" Cut="0.0000000000000000e+00" cType="1" res="-8.4347929805517197e-04" rms="4.1603389382362366e-01" purity="4.2517772316932678e-01" nType="-99"/>
            <Node pos="r" depth="3" NCoef="0" IVar="-1" Cut="0.0000000000000000e+00" cType="1" res="1.6351923113688827e-03" rms="4.1021448373794556e-01" purity="5.9418791532516479e-01" nType="-99"/>
          </Node>
          <Node pos="r" depth="2" NCoef="0" IVar="8" Cut="2.1224372386932373e+00" cType="1" res="-6.0503207147121429e-02" rms="3.8035514950752258e-01" purity="2.7559763193130493e-01" nType="0">
            <Node pos="l" depth="3" NCoef="0" IVar="-1" Cut="0.0000000000000000e+00" cType="1" res="-2.1125206258147955e-03" rms="3.9369320869445801e-01" purity="3.1152960658073425e-01" nType="-99"/>
            <Node pos="r" depth="3" NCoef="0" IVar="-1" Cut="0.0000000000000000e+00" cType="1" res="-6.7074117250740528e-03" rms="3.3596342802047729e-01" purity="1.7514285445213318e-01" nType="-99"/>
          </Node>
        </Node>
      </Node>
    </BinaryTree>
    <BinaryTree type="DecisionTree" boostWeight="1.0000000000000000e+00" itree="240">
      <Node pos="s" depth="0" NCoef="0" IVar="9" Cut="-1.7331736087799072e+00" cType="1" res="9.8215779289603233e-03" rms="4.0575194358825684e-01" purity="4.9917304515838623e-01" nType="0">
        <Node pos="l" depth="1" NCoef="0" IVar="9" Cut="-2.1903071403503418e+00" cType="1" res="-1.0154039412736893e-01" rms="3.5990357398986816e-01" purity="2.4315564334392548e-01" nType="0">
          <Node pos="l" depth="2" NCoef="0" IVar="-1" Cut="0.0000000000000000e+00" cType="1" res="-8.8440263643860817e-03" rms="3.2731145620346069e-01" purity="1.7487245798110962e-01" nType="-99"/>
          <Node pos="r" depth="2" NCoef="0" IVar="-1" Cut="0.0000000000000000e+00" cType="1" res="-3.8327618967741728e-03" rms="3.7784910202026367e-01" purity="2.8885394334793091e-01" nType="-99"/>
        </Node>
        <Node pos="r" depth="1" NCoef="0" IVar="6" Cut="-9.2584341764450073e-01" cType="1" res="1.7419114708900452e-02" rms="4.0758529305458069e-01" purity="5.1663953065872192e-01" nType="0">
          <Node pos="l" depth="2" NCoef="0" IVar="1" Cut="5.1024856567382812e+02" cType="1" res="-5.0644967705011368e-02" rms="3.8302370905876160e-01" purity="3.2203018665313721e-01" nType="0">
            <Node pos="l" depth="3" NCoef="0" IVar="-1" Cut="0.0000000000000000e+00" cType="1" res="-3.6471041385084391e-03" rms="3.6885705590248108e-01" purity="2.5850662589073181e-01" nType="-99"/>
            <Node pos="r" depth="3" NCoef="0" IVar="-1" Cut="0.0000000000000000e+00" cType="1" res="1.2558633461594582e-03" rms="4.3034464120864868e-01" purity="6.0594475269317627e-01" nType="-99"/>
          </Node>
          <Node pos="r" depth="2" NCoef="0" IVar="6" Cut="6.7081397771835327e-01" cType="1" res="2.9810886830091476e-02" rms="4.1068741679191589e-01" purity="5.5207020044326782e-01" nType="0">
            <Node pos="l" depth="3" NCoef="0" IVar="-1" Cut="0.0000000000000000e+00" cType="1" res="1.4451892348006368e-03" rms="4.1093325614929199e-01" purity="6.1254233121871948e-01" nType="-99"/>
            <Node pos="r" depth="3" NCoef="0" IVar="-1" Cut="0.0000000000000000e+00" cType="1" res="-9.9535530898720026e-04" rms="4.0526345372200012e-01" purity="3.9486134052276611e-01" nType="-99"/>
          </Node>
        </Node>
      </Node>
    </BinaryTree>
    <BinaryTree type="DecisionTree" boostWeight="1.0000000000000000e+00" itree="241">
      <Node pos="s" depth="0" NCoef="0" IVar="2" Cut="3.4025112915039062e+02" cType="1" res="1.1301100254058838e-02" rms="4.0590062737464905e-01" purity="5.0056082010269165e-01" nType="0">
        <Node pos="l" depth="1" NCoef="0" IVar="0" Cut="1.2823182373046875e+03" cType="1" res="3.9162717759609222e-02" rms="4.0083834528923035e-01" purity="5.6751799583435059e-01" nType="0">
          <Node pos="l" depth="2" NCoef="0" IVar="3" Cut="2.0080287170410156e+02" cType="1" res="-7.6092607341706753e-03" rms="4.2924851179122925e-01" purity="3.9295247197151184e-01" nType="0">
            <Node pos="l" depth="3" NCoef="0" IVar="-1" Cut="0.0000000000000000e+00" cType="1" res="3.7990469718351960e-04" rms="4.2920473217964172e-01" purity="4.0170317888259888e-01" nType="-99"/>
            <Node pos="r" depth="3" NCoef="0" IVar="-1" Cut="0.0000000000000000e+00" cType="1" res="-3.1239890959113836e-03" rms="4.2181685566902161e-01" purity="3.5774701833724976e-01" nType="-99"/>
          </Node>
          <Node pos="r" depth="2" NCoef="0" IVar="3" Cut="2.4178733825683594e+02" cType="1" res="1.0241630673408508e-01" rms="3.4902548789978027e-01" purity="8.0359727144241333e-01" nType="0">
            <Node pos="l" depth="3" NCoef="0" IVar="-1" Cut="0.0000000000000000e+00" cType="1" res="4.1221212595701218e-03" rms="3.3041971921920776e-01" purity="8.3694046735763550e-01" nType="-99"/>
            <Node pos="r" depth="3" NCoef="0" IVar="-1" Cut="0.0000000000000000e+00" cType="1" res="1.1750307166948915e-03" rms="3.8557276129722595e-01" purity="7.1418935060501099e-01" nType="-99"/>
          </Node>
        </Node>
        <Node pos="r" depth="1" NCoef="0" IVar="0" Cut="1.7685134277343750e+03" cType="1" res="-1.8321955576539040e-02" rms="4.0913879871368408e-01" purity="4.2937058210372925e-01" nType="0">
          <Node pos="l" depth="2" NCoef="0" IVar="2" Cut="6.1893334960937500e+02" cType="1" res="-4.9149677157402039e-02" rms="4.0022391080856323e-01" purity="3.4134188294410706e-01" nType="0">
            <Node pos="l" depth="3" NCoef="0" IVar="-1" Cut="0.0000000000000000e+00" cType="1" res="-1.8029799684882164e-03" rms="4.0496498346328735e-01" purity="3.5923945903778076e-01" nType="-99"/>
            <Node pos="r" depth="3" NCoef="0" IVar="-1" Cut="0.0000000000000000e+00" cType="1" res="-1.1611132649704814e-03" rms="3.1748613715171814e-01" purity="1.3062390685081482e-01" nType="-99"/>
          </Node>
          <Node pos="r" depth="2" NCoef="0" IVar="2" Cut="6.0739599609375000e+02" cType="1" res="5.0304789096117020e-02" rms="4.2027580738067627e-01" purity="6.2533450126647949e-01" nType="0">
            <Node pos="l" depth="3" NCoef="0" IVar="-1" Cut="0.0000000000000000e+00" cType="1" res="3.5711119417101145e-03" rms="3.9055958390235901e-01" purity="7.3758429288864136e-01" nType="-99"/>
            <Node pos="r" depth="3" NCoef="0" IVar="-1" Cut="0.0000000000000000e+00" cType="1" res="-7.7990454155951738e-04" rms="4.4410777091979980e-01" purity="4.8808887600898743e-01" nType="-99"/>
          </Node>
        </Node>
      </Node>
    </BinaryTree>
    <BinaryTree type="DecisionTree" boostWeight="1.0000000000000000e+00" itree="242">
      <Node pos="s" depth="0" NCoef="0" IVar="8" Cut="-1.2000033855438232e+00" cType="1" res="1.2608539313077927e-02" rms="4.0492001175880432e-01" purity="4.9901956319808960e-01" nType="0">
        <Node pos="l" depth="1" NCoef="0" IVar="3" Cut="2.0067483520507812e+02" cType="1" res="-6.5117500722408295e-02" rms="3.7856051325798035e-01" purity="2.8060877323150635e-01" nType="0">
          <Node pos="l" depth="2" NCoef="0" IVar="8" Cut="-1.7333585023880005e+00" cType="1" res="-3.8442913442850113e-02" rms="3.7368619441986084e-01" purity="2.7623748779296875e-01" nType="0">
            <Node pos="l" depth="3" NCoef="0" IVar="-1" Cut="0.0000000000000000e+00" cType="1" res="-3.3844655845314264e-03" rms="3.4874656796455383e-01" purity="2.0897871255874634e-01" nType="-99"/>
            <Node pos="r" depth="3" NCoef="0" IVar="-1" Cut="0.0000000000000000e+00" cType="1" res="-7.1031221887096763e-04" rms="3.9426419138908386e-01" purity="3.3911949396133423e-01" nType="-99"/>
          </Node>
          <Node pos="r" depth="2" NCoef="0" IVar="8" Cut="-1.6571519374847412e+00" cType="1" res="-1.0223303735256195e-01" rms="3.8215494155883789e-01" purity="2.8669109940528870e-01" nType="0">
            <Node pos="l" depth="3" NCoef="0" IVar="-1" Cut="0.0000000000000000e+00" cType="1" res="-8.8162887841463089e-03" rms="3.5509848594665527e-01" purity="2.0411959290504456e-01" nType="-99"/>
            <Node pos="r" depth="3" NCoef="0" IVar="-1" Cut="0.0000000000000000e+00" cType="1" res="-3.9046627935022116e-03" rms="4.0409415960311890e-01" purity="3.6466893553733826e-01" nType="-99"/>
          </Node>
        </Node>
        <Node pos="r" depth="1" NCoef="0" IVar="8" Cut="1.2761802673339844e+00" cType="1" res="2.4176901206374168e-02" rms="4.0743219852447510e-01" purity="5.3152680397033691e-01" nType="0">
          <Node pos="l" depth="2" NCoef="0" IVar="0" Cut="1.1315646972656250e+03" cType="1" res="3.5965248942375183e-02" rms="4.0960463881492615e-01" purity="5.6928086280822754e-01" nType="0">
            <Node pos="l" depth="3" NCoef="0" IVar="-1" Cut="0.0000000000000000e+00" cType="1" res="-1.0562287643551826e-03" rms="4.2668136954307556e-01" purity="3.1179213523864746e-01" nType="-99"/>
            <Node pos="r" depth="3" NCoef="0" IVar="-1" Cut="0.0000000000000000e+00" cType="1" res="1.7927760491147637e-03" rms="4.0417560935020447e-01" purity="6.2835246324539185e-01" nType="-99"/>
          </Node>
          <Node pos="r" depth="2" NCoef="0" IVar="7" Cut="-6.6682749986648560e-01" cType="1" res="-5.0698727369308472e-02" rms="3.8501691818237305e-01" purity="2.9172527790069580e-01" nType="0">
            <Node pos="l" depth="3" NCoef="0" IVar="-1" Cut="0.0000000000000000e+00" cType="1" res="-8.8527658954262733e-03" rms="3.0665278434753418e-01" purity="1.5332622826099396e-01" nType="-99"/>
            <Node pos="r" depth="3" NCoef="0" IVar="-1" Cut="0.0000000000000000e+00" cType="1" res="-1.3937007170170546e-03" rms="4.0278217196464539e-01" purity="3.3210766315460205e-01" nType="-99"/>
          </Node>
        </Node>
      </Node>
    </BinaryTree>
    <BinaryTree type="DecisionTree" boostWeight="1.0000000000000000e+00" itree="243">
      <Node pos="s" depth="0" NCoef="0" IVar="6" Cut="6.7081058025360107e-01" cType="1" res="8.7221674621105194e-03" rms="4.0504902601242065e-01" purity="4.9566140770912170e-01" nType="0">
        <Node pos="l" depth="1" NCoef="0" IVar="6" Cut="-8.1179732084274292e-01" cType="1" res="2.5486059486865997e-02" rms="4.0701809525489807e-01" purity="5.3778594732284546e-01" nType="0">
          <Node pos="l" depth="2" NCoef="0" IVar="1" Cut="5.1025064086914062e+02" cType="1" res="-4.4107135385274887e-02" rms="3.8822877407073975e-01" purity="3.3864036202430725e-01" nType="0">
            <Node pos="l" depth="3" NCoef="0" IVar="-1" Cut="0.0000000000000000e+00" cType="1" res="-3.0656647868454456e-03" rms="3.7549540400505066e-01" purity="2.7948942780494690e-01" nType="-99"/>
            <Node pos="r" depth="3" NCoef="0" IVar="-1" Cut="0.0000000000000000e+00" cType="1" res="1.0883321519941092e-03" rms="4.3261563777923584e-01" purity="6.0137695074081421e-01" nType="-99"/>
          </Node>
          <Node pos="r" depth="2" NCoef="0" IVar="7" Cut="-1.4665257930755615e+00" cType="1" res="4.9133047461509705e-02" rms="4.1053143143653870e-01" purity="6.0545343160629272e-01" nType="0">
            <Node pos="l" depth="3" NCoef="0" IVar="-1" Cut="0.0000000000000000e+00" cType="1" res="-3.7913427222520113e-03" rms="3.8347434997558594e-01" purity="2.6424655318260193e-01" nType="-99"/>
            <Node pos="r" depth="3" NCoef="0" IVar="-1" Cut="0.0000000000000000e+00" cType="1" res="2.0027169957756996e-03" rms="4.1094967722892761e-01" purity="6.2916779518127441e-01" nType="-99"/>
          </Node>
        </Node>
        <Node pos="r" depth="1" NCoef="0" IVar="1" Cut="5.8220666503906250e+02" cType="1" res="-4.5099515467882156e-02" rms="3.9386788010597229e-01" purity="3.6041754484176636e-01" nType="0">
          <Node pos="l" depth="2" NCoef="0" IVar="2" Cut="2.5902731323242188e+02" cType="1" res="-5.5623400956392288e-02" rms="3.8951945304870605e-01" purity="3.2380029559135437e-01" nType="0">
            <Node pos="l" depth="3" NCoef="0" IVar="-1" Cut="0.0000000000000000e+00" cType="1" res="-2.2981603979133070e-04" rms="4.1010531783103943e-01" purity="4.1764119267463684e-01" nType="-99"/>
            <Node pos="r" depth="3" NCoef="0" IVar="-1" Cut="0.0000000000000000e+00" cType="1" res="-3.6553840618580580e-03" rms="3.8068002462387085e-01" purity="2.9150217771530151e-01" nType="-99"/>
          </Node>
          <Node pos="r" depth="2" NCoef="0" IVar="-1" Cut="0.0000000000000000e+00" cType="1" res="1.3629415770992637e-03" rms="4.1802546381950378e-01" purity="6.6155242919921875e-01" nType="-99"/>
        </Node>
      </Node>
    </BinaryTree>
    <BinaryTree type="DecisionTree" boostWeight="1.0000000000000000e+00" itree="244">
      <Node pos="s" depth="0" NCoef="0" IVar="7" Cut="-1.4666166305541992e+00" cType="1" res="1.6135977581143379e-02" rms="4.0704077482223511e-01" purity="5.0318747758865356e-01" nType="0">
        <Node pos="l" depth="1" NCoef="0" IVar="1" Cut="3.9799288940429688e+02" cType="1" res="-8.3303272724151611e-02" rms="3.3993643522262573e-01" purity="1.9989302754402161e-01" nType="0">
          <Node pos="l" depth="2" NCoef="0" IVar="-1" Cut="0.0000000000000000e+00" cType="1" res="-7.9841995611786842e-03" rms="2.8450739383697510e-01" purity="1.0846478492021561e-01" nType="-99"/>
          <Node pos="r" depth="2" NCoef="0" IVar="-1" Cut="0.0000000000000000e+00" cType="1" res="-2.4231101851910353e-03" rms="4.0408593416213989e-01" purity="3.3142212033271790e-01" nType="-99"/>
        </Node>
        <Node pos="r" depth="1" NCoef="0" IVar="7" Cut="1.3776830434799194e+00" cType="1" res="2.4719778448343277e-02" rms="4.1119566559791565e-01" purity="5.2936846017837524e-01" nType="0">
          <Node pos="l" depth="2" NCoef="0" IVar="6" Cut="1.4691741466522217e+00" cType="1" res="3.4278005361557007e-02" rms="4.1480961441993713e-01" purity="5.6123226881027222e-01" nType="0">
            <Node pos="l" depth="3" NCoef="0" IVar="-1" Cut="0.0000000000000000e+00" cType="1" res="1.4610253274440765e-03" rms="4.1542086005210876e-01" purity="5.8108162879943848e-01" nType="-99"/>
            <Node pos="r" depth="3" NCoef="0" IVar="-1" Cut="0.0000000000000000e+00" cType="1" res="-3.6457232199609280e-03" rms="3.8963463902473450e-01" purity="2.5829127430915833e-01" nType="-99"/>
          </Node>
          <Node pos="r" depth="2" NCoef="0" IVar="3" Cut="2.2309814453125000e+02" cType="1" res="-6.4959906041622162e-02" rms="3.6355781555175781e-01" purity="2.3040750622749329e-01" nType="0">
            <Node pos="l" depth="3" NCoef="0" IVar="-1" Cut="0.0000000000000000e+00" cType="1" res="-2.3277008440345526e-03" rms="3.6471784114837646e-01" purity="2.3546268045902252e-01" nType="-99"/>
            <Node pos="r" depth="3" NCoef="0" IVar="-1" Cut="0.0000000000000000e+00" cType="1" res="-8.1498520448803902e-03" rms="3.5407510399818420e-01" purity="2.1836477518081665e-01" nType="-99"/>
          </Node>
        </Node>
      </Node>
    </BinaryTree>
    <BinaryTree type="DecisionTree" boostWeight="1.0000000000000000e+00" itree="245">
      <Node pos="s" depth="0" NCoef="0" IVar="2" Cut="5.0809222412109375e+02" cType="1" res="8.6939772590994835e-03" rms="4.0530607104301453e-01" purity="4.9608871340751648e-01" nType="0">
        <Node pos="l" depth="1" NCoef="0" IVar="0" Cut="1.2591342773437500e+03" cType="1" res="2.1009152755141258e-02" rms="4.0261217951774597e-01" purity="5.2340841293334961e-01" nType="0">
          <Node pos="l" depth="2" NCoef="0" IVar="2" Cut="2.4396707153320312e+02" cType="1" res="-3.1377095729112625e-02" rms="4.1236114501953125e-01" purity="3.2563892006874084e-01" nType="0">
            <Node pos="l" depth="3" NCoef="0" IVar="-1" Cut="0.0000000000000000e+00" cType="1" res="4.1852160939015448e-04" rms="4.3613076210021973e-01" purity="4.2754712700843811e-01" nType="-99"/>
            <Node pos="r" depth="3" NCoef="0" IVar="-1" Cut="0.0000000000000000e+00" cType="1" res="-2.1585912909358740e-03" rms="3.9841654896736145e-01" purity="2.7536228299140930e-01" nType="-99"/>
          </Node>
          <Node pos="r" depth="2" NCoef="0" IVar="2" Cut="2.8803176879882812e+02" cType="1" res="6.0472283512353897e-02" rms="3.9049547910690308e-01" purity="6.7239028215408325e-01" nType="0">
            <Node pos="l" depth="3" NCoef="0" IVar="-1" Cut="0.0000000000000000e+00" cType="1" res="4.1931765154004097e-03" rms="3.2476237416267395e-01" purity="8.4611070156097412e-01" nType="-99"/>
            <Node pos="r" depth="3" NCoef="0" IVar="-1" Cut="0.0000000000000000e+00" cType="1" res="1.2074531987309456e-03" rms="4.1162458062171936e-01" purity="6.0005515813827515e-01" nType="-99"/>
          </Node>
        </Node>
        <Node pos="r" depth="1" NCoef="0" IVar="0" Cut="2.0128310546875000e+03" cType="1" res="-4.9217220395803452e-02" rms="4.1284468770027161e-01" purity="3.6761987209320068e-01" nType="0">
          <Node pos="l" depth="2" NCoef="0" IVar="2" Cut="5.9587579345703125e+02" cType="1" res="-8.4658697247505188e-02" rms="3.8870164752006531e-01" purity="2.6346406340599060e-01" nType="0">
            <Node pos="l" depth="3" NCoef="0" IVar="-1" Cut="0.0000000000000000e+00" cType="1" res="-1.4168191701173782e-03" rms="4.0682536363601685e-01" purity="3.2741758227348328e-01" nType="-99"/>
            <Node pos="r" depth="3" NCoef="0" IVar="-1" Cut="0.0000000000000000e+00" cType="1" res="-1.0867429664358497e-03" rms="3.5775282979011536e-01" purity="1.9331765174865723e-01" nType="-99"/>
          </Node>
          <Node pos="r" depth="2" NCoef="0" IVar="3" Cut="3.4075033569335938e+02" cType="1" res="2.4486189708113670e-02" rms="4.5015546679496765e-01" purity="5.8422029018402100e-01" nType="0">
            <Node pos="l" depth="3" NCoef="0" IVar="-1" Cut="0.0000000000000000e+00" cType="1" res="2.9537996742874384e-03" rms="4.3407768011093140e-01" purity="6.6803264617919922e-01" nType="-99"/>
            <Node pos="r" depth="3" NCoef="0" IVar="-1" Cut="0.0000000000000000e+00" cType="1" res="-2.2600607480853796e-03" rms="4.5431894063949585e-01" purity="4.9178770184516907e-01" nType="-99"/>
          </Node>
        </Node>
      </Node>
    </BinaryTree>
    <BinaryTree type="DecisionTree" boostWeight="1.0000000000000000e+00" itree="246">
      <Node pos="s" depth="0" NCoef="0" IVar="7" Cut="6.6663879156112671e-01" cType="1" res="1.1842921376228333e-02" rms="4.0535220503807068e-01" purity="5.0030994415283203e-01" nType="0">
        <Node pos="l" depth="1" NCoef="0" IVar="7" Cut="-6.5394514799118042e-01" cType="1" res="2.8042202815413475e-02" rms="4.0701192617416382e-01" purity="5.4261428117752075e-01" nType="0">
          <Node pos="l" depth="2" NCoef="0" IVar="6" Cut="6.8396174907684326e-01" cType="1" res="-2.3303806781768799e-02" rms="3.9276838302612305e-01" purity="3.9562535285949707e-01" nType="0">
            <Node pos="l" depth="3" NCoef="0" IVar="-1" Cut="0.0000000000000000e+00" cType="1" res="-2.0289923122618347e-04" rms="4.0065124630928040e-01" purity="4.4205042719841003e-01" nType="-99"/>
            <Node pos="r" depth="3" NCoef="0" IVar="-1" Cut="0.0000000000000000e+00" cType="1" res="-5.1251403056085110e-03" rms="3.5708054900169373e-01" purity="2.3532308638095856e-01" nType="-99"/>
          </Node>
          <Node pos="r" depth="2" NCoef="0" IVar="9" Cut="-1.7329266071319580e+00" cType="1" res="5.4139088839292526e-02" rms="4.1161581873893738e-01" purity="6.1732220649719238e-01" nType="0">
            <Node pos="l" depth="3" NCoef="0" IVar="-1" Cut="0.0000000000000000e+00" cType="1" res="-2.7993416879326105e-03" rms="4.2055037617683411e-01" purity="3.6348381638526917e-01" nType="-99"/>
            <Node pos="r" depth="3" NCoef="0" IVar="-1" Cut="0.0000000000000000e+00" cType="1" res="2.0669274963438511e-03" rms="4.1017732024192810e-01" purity="6.3168853521347046e-01" nType="-99"/>
          </Node>
        </Node>
        <Node pos="r" depth="1" NCoef="0" IVar="6" Cut="-3.6131113767623901e-01" cType="1" res="-3.8324881345033646e-02" rms="3.9598658680915833e-01" purity="3.6929678916931152e-01" nType="0">
          <Node pos="l" depth="2" NCoef="0" IVar="3" Cut="2.0156706237792969e+02" cType="1" res="-8.5159294307231903e-02" rms="3.6960569024085999e-01" purity="2.7003231644630432e-01" nType="0">
            <Node pos="l" depth="3" NCoef="0" IVar="-1" Cut="0.0000000000000000e+00" cType="1" res="-2.6789137627929449e-03" rms="3.6350739002227783e-01" purity="2.6367700099945068e-01" nType="-99"/>
            <Node pos="r" depth="3" NCoef="0" IVar="-1" Cut="0.0000000000000000e+00" cType="1" res="-7.5494758784770966e-03" rms="3.7221491336822510e-01" purity="2.7779921889305115e-01" nType="-99"/>
          </Node>
          <Node pos="r" depth="2" NCoef="0" IVar="7" Cut="1.5809019804000854e+00" cType="1" res="-1.6783434897661209e-02" rms="4.0573641657829285e-01" purity="4.1495338082313538e-01" nType="0">
            <Node pos="l" depth="3" NCoef="0" IVar="-1" Cut="0.0000000000000000e+00" cType="1" res="2.1772741456516087e-04" rms="4.1981717944145203e-01" purity="4.8205488920211792e-01" nType="-99"/>
            <Node pos="r" depth="3" NCoef="0" IVar="-1" Cut="0.0000000000000000e+00" cType="1" res="-6.0274372808635235e-03" rms="3.4711712598800659e-01" purity="2.0003852248191833e-01" nType="-99"/>
          </Node>
        </Node>
      </Node>
    </BinaryTree>
    <BinaryTree type="DecisionTree" boostWeight="1.0000000000000000e+00" itree="247">
      <Node pos="s" depth="0" NCoef="0" IVar="9" Cut="-1.7331736087799072e+00" cType="1" res="1.1220877058804035e-02" rms="4.0500271320343018e-01" purity="4.9986392259597778e-01" nType="0">
        <Node pos="l" depth="1" NCoef="0" IVar="9" Cut="-2.0379276275634766e+00" cType="1" res="-1.0678683221340179e-01" rms="3.5235697031021118e-01" purity="2.2749151289463043e-01" nType="0">
          <Node pos="l" depth="2" NCoef="0" IVar="-1" Cut="0.0000000000000000e+00" cType="1" res="-8.5685001686215401e-03" rms="3.4209743142127991e-01" purity="1.9177159667015076e-01" nType="-99"/>
          <Node pos="r" depth="2" NCoef="0" IVar="-1" Cut="0.0000000000000000e+00" cType="1" res="-4.5346994884312153e-03" rms="3.6414128541946411e-01" purity="2.7321738004684448e-01" nType="-99"/>
        </Node>
        <Node pos="r" depth="1" NCoef="0" IVar="9" Cut="1.5047675371170044e+00" cType="1" res="1.9054122269153595e-02" rms="4.0704804658889771e-01" purity="5.1794373989105225e-01" nType="0">
          <Node pos="l" depth="2" NCoef="0" IVar="6" Cut="-9.2584401369094849e-01" cType="1" res="2.9452992603182793e-02" rms="4.0885052084922791e-01" purity="5.4246437549591064e-01" nType="0">
            <Node pos="l" depth="3" NCoef="0" IVar="-1" Cut="0.0000000000000000e+00" cType="1" res="-1.7637005075812340e-03" rms="3.9229249954223633e-01" purity="3.4862691164016724e-01" nType="-99"/>
            <Node pos="r" depth="3" NCoef="0" IVar="-1" Cut="0.0000000000000000e+00" cType="1" res="1.5065623447299004e-03" rms="4.1058981418609619e-01" purity="5.7839030027389526e-01" nType="-99"/>
          </Node>
          <Node pos="r" depth="2" NCoef="0" IVar="6" Cut="-3.7018322944641113e-01" cType="1" res="-7.7340081334114075e-02" rms="3.7651231884956360e-01" purity="2.9064574837684631e-01" nType="0">
            <Node pos="l" depth="3" NCoef="0" IVar="-1" Cut="0.0000000000000000e+00" cType="1" res="-6.8284249864518642e-03" rms="3.5223543643951416e-01" purity="2.2617788612842560e-01" nType="-99"/>
            <Node pos="r" depth="3" NCoef="0" IVar="-1" Cut="0.0000000000000000e+00" cType="1" res="-2.7682951185852289e-03" rms="3.8586762547492981e-01" purity="3.1982147693634033e-01" nType="-99"/>
          </Node>
        </Node>
      </Node>
    </BinaryTree>
    <BinaryTree type="DecisionTree" boostWeight="1.0000000000000000e+00" itree="248">
      <Node pos="s" depth="0" NCoef="0" IVar="6" Cut="1.4722341299057007e+00" cType="1" res="1.2689326889812946e-02" rms="4.0584182739257812e-01" purity="5.0099658966064453e-01" nType="0">
        <Node pos="l" depth="1" NCoef="0" IVar="6" Cut="-9.5464032888412476e-01" cType="1" res="2.0081792026758194e-02" rms="4.0866640210151672e-01" purity="5.2178037166595459e-01" nType="0">
          <Node pos="l" depth="2" NCoef="0" IVar="6" Cut="-1.8213582038879395e+00" cType="1" res="-4.7110982239246368e-02" rms="3.8281273841857910e-01" purity="3.0751907825469971e-01" nType="0">
            <Node pos="l" depth="3" NCoef="0" IVar="-1" Cut="0.0000000000000000e+00" cType="1" res="-7.1758017875254154e-03" rms="3.2291647791862488e-01" purity="1.8128943443298340e-01" nType="-99"/>
            <Node pos="r" depth="3" NCoef="0" IVar="-1" Cut="0.0000000000000000e+00" cType="1" res="-1.4720776816830039e-03" rms="3.9481282234191895e-01" purity="3.3887323737144470e-01" nType="-99"/>
          </Node>
          <Node pos="r" depth="2" NCoef="0" IVar="2" Cut="3.5404525756835938e+02" cType="1" res="3.3399369567632675e-02" rms="4.1230049729347229e-01" purity="5.6424683332443237e-01" nType="0">
            <Node pos="l" depth="3" NCoef="0" IVar="-1" Cut="0.0000000000000000e+00" cType="1" res="2.0110055338591337e-03" rms="4.0330290794372559e-01" purity="6.3040369749069214e-01" nType="-99"/>
            <Node pos="r" depth="3" NCoef="0" IVar="-1" Cut="0.0000000000000000e+00" cType="1" res="3.3700689527904615e-05" rms="4.2096096277236938e-01" purity="4.8195543885231018e-01" nType="-99"/>
          </Node>
        </Node>
        <Node pos="r" depth="1" NCoef="0" IVar="3" Cut="2.0878858947753906e+02" cType="1" res="-9.0446673333644867e-02" rms="3.4815329313278198e-01" purity="2.1103104948997498e-01" nType="0">
          <Node pos="l" depth="2" NCoef="0" IVar="-1" Cut="0.0000000000000000e+00" cType="1" res="-3.9384937845170498e-03" rms="3.3722975850105286e-01" purity="1.9594746828079224e-01" nType="-99"/>
          <Node pos="r" depth="2" NCoef="0" IVar="-1" Cut="0.0000000000000000e+00" cType="1" res="-7.5872228480875492e-03" rms="3.6337283253669739e-01" purity="2.3573458194732666e-01" nType="-99"/>
        </Node>
      </Node>
    </BinaryTree>
    <BinaryTree type="DecisionTree" boostWeight="1.0000000000000000e+00" itree="249">
      <Node pos="s" depth="0" NCoef="0" IVar="0" Cut="1.1188837890625000e+03" cType="1" res="7.2409710846841335e-03" rms="4.0210816264152527e-01" purity="4.9587255716323853e-01" nType="0">
        <Node pos="l" depth="1" NCoef="0" IVar="2" Cut="2.3516152954101562e+02" cType="1" res="-4.9879439175128937e-02" rms="3.9254042506217957e-01" purity="2.4689708650112152e-01" nType="0">
          <Node pos="l" depth="2" NCoef="0" IVar="-1" Cut="0.0000000000000000e+00" cType="1" res="1.7494404164608568e-04" rms="4.4051966071128845e-01" purity="3.6044922471046448e-01" nType="-99"/>
          <Node pos="r" depth="2" NCoef="0" IVar="1" Cut="3.3955166625976562e+02" cType="1" res="-7.8372023999691010e-02" rms="3.6167466640472412e-01" purity="1.8747477233409882e-01" nType="0">
            <Node pos="l" depth="3" NCoef="0" IVar="-1" Cut="0.0000000000000000e+00" cType="1" res="-5.1489868201315403e-03" rms="3.3606314659118652e-01" purity="1.4870706200599670e-01" nType="-99"/>
            <Node pos="r" depth="3" NCoef="0" IVar="-1" Cut="0.0000000000000000e+00" cType="1" res="-2.4967193603515625e-03" rms="3.8584068417549133e-01" purity="2.2880716621875763e-01" nType="-99"/>
          </Node>
        </Node>
        <Node pos="r" depth="1" NCoef="0" IVar="2" Cut="3.5405114746093750e+02" cType="1" res="2.0558053627610207e-02" rms="4.0314453840255737e-01" purity="5.5391877889633179e-01" nType="0">
          <Node pos="l" depth="2" NCoef="0" IVar="0" Cut="1.2769843750000000e+03" cType="1" res="6.3006542623043060e-02" rms="3.8978999853134155e-01" purity="6.8554931879043579e-01" nType="0">
            <Node pos="l" depth="3" NCoef="0" IVar="-1" Cut="0.0000000000000000e+00" cType="1" res="2.5169012951664627e-04" rms="4.4226190447807312e-01" purity="4.9350407719612122e-01" nType="-99"/>
            <Node pos="r" depth="3" NCoef="0" IVar="-1" Cut="0.0000000000000000e+00" cType="1" res="3.1567781697958708e-03" rms="3.5450044274330139e-01" purity="7.8973895311355591e-01" nType="-99"/>
          </Node>
          <Node pos="r" depth="2" NCoef="0" IVar="0" Cut="1.7260422363281250e+03" cType="1" res="-1.6608063131570816e-02" rms="4.1089910268783569e-01" purity="4.3866869807243347e-01" nType="0">
            <Node pos="l" depth="3" NCoef="0" IVar="-1" Cut="0.0000000000000000e+00" cType="1" res="-2.1809397730976343e-03" rms="4.0103831887245178e-01" purity="3.4227928519248962e-01" nType="-99"/>
            <Node pos="r" depth="3" NCoef="0" IVar="-1" Cut="0.0000000000000000e+00" cType="1" res="4.4355166028253734e-04" rms="4.2212650179862976e-01" purity="5.9444284439086914e-01" nType="-99"/>
          </Node>
        </Node>
      </Node>
    </BinaryTree>
    <BinaryTree type="DecisionTree" boostWeight="1.0000000000000000e+00" itree="250">
      <Node pos="s" depth="0" NCoef="0" IVar="6" Cut="6.8825209140777588e-01" cType="1" res="9.4159999862313271e-03" rms="4.0324839949607849e-01" purity="4.9721089005470276e-01" nType="0">
        <Node pos="l" depth="1" NCoef="0" IVar="6" Cut="-6.1878895759582520e-01" cType="1" res="2.4036686867475510e-02" rms="4.0425461530685425e-01" purity="5.3776985406875610e-01" nType="0">
          <Node pos="l" depth="2" NCoef="0" IVar="0" Cut="1.7845273437500000e+03" cType="1" res="-3.2425258308649063e-02" rms="3.9520454406738281e-01" purity="3.8033744692802429e-01" nType="0">
            <Node pos="l" depth="3" NCoef="0" IVar="-1" Cut="0.0000000000000000e+00" cType="1" res="-2.2840693127363920e-03" rms="3.8843637704849243e-01" purity="3.4060761332511902e-01" nType="-99"/>
            <Node pos="r" depth="3" NCoef="0" IVar="-1" Cut="0.0000000000000000e+00" cType="1" res="2.0136598031967878e-03" rms="4.2072468996047974e-01" purity="6.0850840806961060e-01" nType="-99"/>
          </Node>
          <Node pos="r" depth="2" NCoef="0" IVar="7" Cut="1.4665682315826416e+00" cType="1" res="5.1242176443338394e-02" rms="4.0574839711189270e-01" purity="6.1362659931182861e-01" nType="0">
            <Node pos="l" depth="3" NCoef="0" IVar="-1" Cut="0.0000000000000000e+00" cType="1" res="2.0274796988815069e-03" rms="4.0612161159515381e-01" purity="6.3604778051376343e-01" nType="-99"/>
            <Node pos="r" depth="3" NCoef="0" IVar="-1" Cut="0.0000000000000000e+00" cType="1" res="-3.7307511083781719e-03" rms="3.8036727905273438e-01" purity="2.7303227782249451e-01" nType="-99"/>
          </Node>
        </Node>
        <Node pos="r" depth="1" NCoef="0" IVar="6" Cut="1.3920511007308960e+00" cType="1" res="-3.9123900234699249e-02" rms="3.9603775739669800e-01" purity="3.6255735158920288e-01" nType="0">
          <Node pos="l" depth="2" NCoef="0" IVar="2" Cut="3.1789636230468750e+02" cType="1" res="-1.8917025998234749e-02" rms="4.1332986950874329e-01" purity="4.3452587723731995e-01" nType="0">
            <Node pos="l" depth="3" NCoef="0" IVar="-1" Cut="0.0000000000000000e+00" cType="1" res="8.5924501763656735e-04" rms="4.1862863302230835e-01" purity="5.1221716403961182e-01" nType="-99"/>
            <Node pos="r" depth="3" NCoef="0" IVar="-1" Cut="0.0000000000000000e+00" cType="1" res="-2.5374018587172031e-03" rms="4.0576809644699097e-01" purity="3.7178245186805725e-01" nType="-99"/>
          </Node>
          <Node pos="r" depth="2" NCoef="0" IVar="3" Cut="1.9753005981445312e+02" cType="1" res="-7.8161507844924927e-02" rms="3.5706430673599243e-01" purity="2.2352157533168793e-01" nType="0">
            <Node pos="l" depth="3" NCoef="0" IVar="-1" Cut="0.0000000000000000e+00" cType="1" res="-2.4108008947223425e-03" rms="3.4578070044517517e-01" purity="1.9940948486328125e-01" nType="-99"/>
            <Node pos="r" depth="3" NCoef="0" IVar="-1" Cut="0.0000000000000000e+00" cType="1" res="-6.1736381612718105e-03" rms="3.6948010325431824e-01" purity="2.5581383705139160e-01" nType="-99"/>
          </Node>
        </Node>
      </Node>
    </BinaryTree>
    <BinaryTree type="DecisionTree" boostWeight="1.0000000000000000e+00" itree="251">
      <Node pos="s" depth="0" NCoef="0" IVar="8" Cut="-1.7333276271820068e+00" cType="1" res="1.3677350245416164e-02" rms="4.0519544482231140e-01" purity="5.0286930799484253e-01" nType="0">
        <Node pos="l" depth="1" NCoef="0" IVar="9" Cut="-1.3275054097175598e-01" cType="1" res="-9.9896043539047241e-02" rms="3.4347075223922729e-01" purity="1.8746796250343323e-01" nType="0">
          <Node pos="l" depth="2" NCoef="0" IVar="-1" Cut="0.0000000000000000e+00" cType="1" res="-4.7715245746076107e-03" rms="3.5884496569633484e-01" purity="2.0678602159023285e-01" nType="-99"/>
          <Node pos="r" depth="2" NCoef="0" IVar="-1" Cut="0.0000000000000000e+00" cType="1" res="-7.9557914286851883e-03" rms="3.2301950454711914e-01" purity="1.6549587249755859e-01" nType="-99"/>
        </Node>
        <Node pos="r" depth="1" NCoef="0" IVar="8" Cut="8.5714405775070190e-01" cType="1" res="2.0486038178205490e-02" rms="4.0759545564651489e-01" purity="5.2177757024765015e-01" nType="0">
          <Node pos="l" depth="2" NCoef="0" IVar="6" Cut="6.7011469602584839e-01" cType="1" res="3.6594625562429428e-02" rms="4.0862658619880676e-01" purity="5.6546258926391602e-01" nType="0">
            <Node pos="l" depth="3" NCoef="0" IVar="-1" Cut="0.0000000000000000e+00" cType="1" res="1.7587427282705903e-03" rms="4.0734645724296570e-01" purity="6.0142952203750610e-01" nType="-99"/>
            <Node pos="r" depth="3" NCoef="0" IVar="-1" Cut="0.0000000000000000e+00" cType="1" res="-5.3715723333880305e-04" rms="4.0936791896820068e-01" purity="4.3542334437370300e-01" nType="-99"/>
          </Node>
          <Node pos="r" depth="2" NCoef="0" IVar="3" Cut="2.6497088623046875e+02" cType="1" res="-3.6022435873746872e-02" rms="3.9884600043296814e-01" purity="3.6853185296058655e-01" nType="0">
            <Node pos="l" depth="3" NCoef="0" IVar="-1" Cut="0.0000000000000000e+00" cType="1" res="-9.6270604990422726e-04" rms="3.9580306410789490e-01" purity="3.7477755546569824e-01" nType="-99"/>
            <Node pos="r" depth="3" NCoef="0" IVar="-1" Cut="0.0000000000000000e+00" cType="1" res="-5.6152096949517727e-03" rms="4.0622404217720032e-01" purity="3.4119716286659241e-01" nType="-99"/>
          </Node>
        </Node>
      </Node>
    </BinaryTree>
    <BinaryTree type="DecisionTree" boostWeight="1.0000000000000000e+00" itree="252">
      <Node pos="s" depth="0" NCoef="0" IVar="7" Cut="-9.3329662084579468e-01" cType="1" res="1.1054383590817451e-02" rms="4.0481671690940857e-01" purity="4.9973008036613464e-01" nType="0">
        <Node pos="l" depth="1" NCoef="0" IVar="0" Cut="1.3909628906250000e+03" cType="1" res="-5.2408151328563690e-02" rms="3.8346427679061890e-01" purity="3.1214329600334167e-01" nType="0">
          <Node pos="l" depth="2" NCoef="0" IVar="3" Cut="1.5406427001953125e+02" cType="1" res="-7.9631499946117401e-02" rms="3.6133611202239990e-01" purity="2.1142113208770752e-01" nType="0">
            <Node pos="l" depth="3" NCoef="0" IVar="-1" Cut="0.0000000000000000e+00" cType="1" res="-2.2198548540472984e-03" rms="3.4644767642021179e-01" purity="2.0477990806102753e-01" nType="-99"/>
            <Node pos="r" depth="3" NCoef="0" IVar="-1" Cut="0.0000000000000000e+00" cType="1" res="-5.5732280015945435e-03" rms="3.6930814385414124e-01" purity="2.1661880612373352e-01" nType="-99"/>
          </Node>
          <Node pos="r" depth="2" NCoef="0" IVar="3" Cut="2.5232049560546875e+02" cType="1" res="-1.4249340631067753e-02" rms="4.0945252776145935e-01" purity="4.5332497358322144e-01" nType="0">
            <Node pos="l" depth="3" NCoef="0" IVar="-1" Cut="0.0000000000000000e+00" cType="1" res="1.3887187233194709e-03" rms="4.1124165058135986e-01" purity="5.2500706911087036e-01" nType="-99"/>
            <Node pos="r" depth="3" NCoef="0" IVar="-1" Cut="0.0000000000000000e+00" cType="1" res="-3.7203771062195301e-03" rms="3.9951425790786743e-01" purity="3.6805227398872375e-01" nType="-99"/>
          </Node>
        </Node>
        <Node pos="r" depth="1" NCoef="0" IVar="7" Cut="8.4441334009170532e-01" cType="1" res="2.4484550580382347e-02" rms="4.0792876482009888e-01" purity="5.3942787647247314e-01" nType="0">
          <Node pos="l" depth="2" NCoef="0" IVar="2" Cut="3.4598187255859375e+02" cType="1" res="4.2809773236513138e-02" rms="4.1110852360725403e-01" purity="6.0195600986480713e-01" nType="0">
            <Node pos="l" depth="3" NCoef="0" IVar="-1" Cut="0.0000000000000000e+00" cType="1" res="2.2746883332729340e-03" rms="3.9741790294647217e-01" purity="6.6616046428680420e-01" nType="-99"/>
            <Node pos="r" depth="3" NCoef="0" IVar="-1" Cut="0.0000000000000000e+00" cType="1" res="4.6197668416425586e-04" rms="4.2461541295051575e-01" purity="5.2636820077896118e-01" nType="-99"/>
          </Node>
          <Node pos="r" depth="2" NCoef="0" IVar="3" Cut="2.8328842163085938e+02" cType="1" res="-3.4708365797996521e-02" rms="3.9166948199272156e-01" purity="3.3745372295379639e-01" nType="0">
            <Node pos="l" depth="3" NCoef="0" IVar="-1" Cut="0.0000000000000000e+00" cType="1" res="-8.9147948892787099e-04" rms="3.9108732342720032e-01" purity="3.4862637519836426e-01" nType="-99"/>
            <Node pos="r" depth="3" NCoef="0" IVar="-1" Cut="0.0000000000000000e+00" cType="1" res="-8.8166231289505959e-03" rms="3.8340815901756287e-01" purity="2.6628312468528748e-01" nType="-99"/>
          </Node>
        </Node>
      </Node>
    </BinaryTree>
    <BinaryTree type="DecisionTree" boostWeight="1.0000000000000000e+00" itree="253">
      <Node pos="s" depth="0" NCoef="0" IVar="1" Cut="4.5299798583984375e+02" cType="1" res="8.2753375172615051e-03" rms="4.0252259373664856e-01" purity="4.9814534187316895e-01" nType="0">
        <Node pos="l" depth="1" NCoef="0" IVar="2" Cut="4.5257968139648438e+02" cType="1" res="-1.1641187593340874e-02" rms="4.0410602092742920e-01" purity="4.0594121813774109e-01" nType="0">
          <Node pos="l" depth="2" NCoef="0" IVar="0" Cut="1.3382501220703125e+03" cType="1" res="5.3575206547975540e-03" rms="4.1042745113372803e-01" purity="4.4641330838203430e-01" nType="0">
            <Node pos="l" depth="3" NCoef="0" IVar="-1" Cut="0.0000000000000000e+00" cType="1" res="-8.7456556502729654e-04" rms="4.1156592965126038e-01" purity="3.4773740172386169e-01" nType="-99"/>
            <Node pos="r" depth="3" NCoef="0" IVar="-1" Cut="0.0000000000000000e+00" cType="1" res="2.4808468297123909e-03" rms="4.0023690462112427e-01" purity="6.7410564422607422e-01" nType="-99"/>
          </Node>
          <Node pos="r" depth="2" NCoef="0" IVar="2" Cut="6.0653314208984375e+02" cType="1" res="-8.8482461869716644e-02" rms="3.6443805694580078e-01" purity="2.2299027442932129e-01" nType="0">
            <Node pos="l" depth="3" NCoef="0" IVar="-1" Cut="0.0000000000000000e+00" cType="1" res="-3.6751716397702694e-03" rms="3.7757965922355652e-01" purity="2.5584074854850769e-01" nType="-99"/>
            <Node pos="r" depth="3" NCoef="0" IVar="-1" Cut="0.0000000000000000e+00" cType="1" res="-1.4551911735907197e-03" rms="3.1585311889648438e-01" purity="1.3765458762645721e-01" nType="-99"/>
          </Node>
        </Node>
        <Node pos="r" depth="1" NCoef="0" IVar="9" Cut="1.2000390291213989e+00" cType="1" res="4.7257613390684128e-02" rms="3.9652049541473389e-01" purity="6.7861497402191162e-01" nType="0">
          <Node pos="l" depth="2" NCoef="0" IVar="9" Cut="-1.4665153026580811e+00" cType="1" res="5.8784484863281250e-02" rms="3.9119067788124084e-01" purity="7.0137995481491089e-01" nType="0">
            <Node pos="l" depth="3" NCoef="0" IVar="-1" Cut="0.0000000000000000e+00" cType="1" res="-1.8427578033879399e-03" rms="4.1442155838012695e-01" purity="4.7871223092079163e-01" nType="-99"/>
            <Node pos="r" depth="3" NCoef="0" IVar="-1" Cut="0.0000000000000000e+00" cType="1" res="2.4143960326910019e-03" rms="3.8702073693275452e-01" purity="7.2494274377822876e-01" nType="-99"/>
          </Node>
          <Node pos="r" depth="2" NCoef="0" IVar="-1" Cut="0.0000000000000000e+00" cType="1" res="-1.8048951169475913e-03" rms="4.2488205432891846e-01" purity="5.0478583574295044e-01" nType="-99"/>
        </Node>
      </Node>
    </BinaryTree>
    <BinaryTree type="DecisionTree" boostWeight="1.0000000000000000e+00" itree="254">
      <Node pos="s" depth="0" NCoef="0" IVar="2" Cut="6.0625183105468750e+02" cType="1" res="1.1478764936327934e-02" rms="4.0747472643852234e-01" purity="4.9940657615661621e-01" nType="0">
        <Node pos="l" depth="1" NCoef="0" IVar="1" Cut="3.7642391967773438e+02" cType="1" res="1.9593849778175354e-02" rms="4.0531587600708008e-01" purity="5.1256942749023438e-01" nType="0">
          <Node pos="l" depth="2" NCoef="0" IVar="6" Cut="-1.4581344127655029e+00" cType="1" res="-2.3208906874060631e-02" rms="4.0547558665275574e-01" purity="3.6758846044540405e-01" nType="0">
            <Node pos="l" depth="3" NCoef="0" IVar="-1" Cut="0.0000000000000000e+00" cType="1" res="-7.8389216214418411e-03" rms="2.8545457124710083e-01" purity="1.1133462190628052e-01" nType="-99"/>
            <Node pos="r" depth="3" NCoef="0" IVar="-1" Cut="0.0000000000000000e+00" cType="1" res="-6.0136307729408145e-04" rms="4.1369000077247620e-01" purity="3.9052602648735046e-01" nType="-99"/>
          </Node>
          <Node pos="r" depth="2" NCoef="0" IVar="0" Cut="1.5882084960937500e+03" cType="1" res="5.3678587079048157e-02" rms="4.0194174647331238e-01" purity="6.2802070379257202e-01" nType="0">
            <Node pos="l" depth="3" NCoef="0" IVar="-1" Cut="0.0000000000000000e+00" cType="1" res="1.0725697502493858e-03" rms="4.1791778802871704e-01" purity="5.5560964345932007e-01" nType="-99"/>
            <Node pos="r" depth="3" NCoef="0" IVar="-1" Cut="0.0000000000000000e+00" cType="1" res="3.4565676469355822e-03" rms="3.6403366923332214e-01" purity="7.6992136240005493e-01" nType="-99"/>
          </Node>
        </Node>
        <Node pos="r" depth="1" NCoef="0" IVar="1" Cut="5.7280334472656250e+02" cType="1" res="-6.5990790724754333e-02" rms="4.1970989108085632e-01" purity="3.7374949455261230e-01" nType="0">
          <Node pos="l" depth="2" NCoef="0" IVar="2" Cut="6.8737744140625000e+02" cType="1" res="-1.2030986696481705e-01" rms="3.8243272900581360e-01" purity="2.3427143692970276e-01" nType="0">
            <Node pos="l" depth="3" NCoef="0" IVar="-1" Cut="0.0000000000000000e+00" cType="1" res="-4.6006757766008377e-03" rms="3.8409465551376343e-01" purity="2.6690167188644409e-01" nType="-99"/>
            <Node pos="r" depth="3" NCoef="0" IVar="-1" Cut="0.0000000000000000e+00" cType="1" res="-1.3037788448855281e-03" rms="3.7486293911933899e-01" purity="2.0483352243900299e-01" nType="-99"/>
          </Node>
          <Node pos="r" depth="2" NCoef="0" IVar="-1" Cut="0.0000000000000000e+00" cType="1" res="4.9312209011986852e-04" rms="4.5774868130683899e-01" purity="5.7981604337692261e-01" nType="-99"/>
        </Node>
      </Node>
    </BinaryTree>
    <BinaryTree type="DecisionTree" boostWeight="1.0000000000000000e+00" itree="255">
      <Node pos="s" depth="0" NCoef="0" IVar="0" Cut="1.1285175781250000e+03" cType="1" res="1.3181255199015141e-02" rms="4.0332612395286560e-01" purity="5.0352758169174194e-01" nType="0">
        <Node pos="l" depth="1" NCoef="0" IVar="7" Cut="-6.6696012020111084e-01" cType="1" res="-4.4518362730741501e-02" rms="3.9689427614212036e-01" purity="2.5347810983657837e-01" nType="0">
          <Node pos="l" depth="2" NCoef="0" IVar="-1" Cut="0.0000000000000000e+00" cType="1" res="-4.4882926158607006e-03" rms="3.4213751554489136e-01" purity="1.6199098527431488e-01" nType="-99"/>
          <Node pos="r" depth="2" NCoef="0" IVar="1" Cut="3.4051971435546875e+02" cType="1" res="-2.8230579569935799e-02" rms="4.1554936766624451e-01" purity="2.8985133767127991e-01" nType="0">
            <Node pos="l" depth="3" NCoef="0" IVar="-1" Cut="0.0000000000000000e+00" cType="1" res="-2.1350234746932983e-03" rms="3.9715078473091125e-01" purity="2.4964991211891174e-01" nType="-99"/>
            <Node pos="r" depth="3" NCoef="0" IVar="-1" Cut="0.0000000000000000e+00" cType="1" res="-3.6270641430746764e-05" rms="4.3297266960144043e-01" purity="3.3345675468444824e-01" nType="-99"/>
          </Node>
        </Node>
        <Node pos="r" depth="1" NCoef="0" IVar="2" Cut="3.7131597900390625e+02" cType="1" res="2.7839601039886475e-02" rms="4.0363207459449768e-01" purity="5.6705152988433838e-01" nType="0">
          <Node pos="l" depth="2" NCoef="0" IVar="2" Cut="2.9789648437500000e+02" cType="1" res="6.0602001845836639e-02" rms="3.8895118236541748e-01" purity="6.8440079689025879e-01" nType="0">
            <Node pos="l" depth="3" NCoef="0" IVar="-1" Cut="0.0000000000000000e+00" cType="1" res="3.1034846324473619e-03" rms="3.7331089377403259e-01" purity="7.5169545412063599e-01" nType="-99"/>
            <Node pos="r" depth="3" NCoef="0" IVar="-1" Cut="0.0000000000000000e+00" cType="1" res="3.5800144542008638e-04" rms="4.0431407094001770e-01" purity="5.9027433395385742e-01" nType="-99"/>
          </Node>
          <Node pos="r" depth="2" NCoef="0" IVar="0" Cut="1.7542302246093750e+03" cType="1" res="-7.4138916097581387e-03" rms="4.1598272323608398e-01" purity="4.4077974557876587e-01" nType="0">
            <Node pos="l" depth="3" NCoef="0" IVar="-1" Cut="0.0000000000000000e+00" cType="1" res="-1.7244504997506738e-03" rms="4.0434139966964722e-01" purity="3.4402698278427124e-01" nType="-99"/>
            <Node pos="r" depth="3" NCoef="0" IVar="-1" Cut="0.0000000000000000e+00" cType="1" res="1.4334846055135131e-03" rms="4.3051716685295105e-01" purity="6.0160261392593384e-01" nType="-99"/>
          </Node>
        </Node>
      </Node>
    </BinaryTree>
    <BinaryTree type="DecisionTree" boostWeight="1.0000000000000000e+00" itree="256">
      <Node pos="s" depth="0" NCoef="0" IVar="9" Cut="9.3347162008285522e-01" cType="1" res="1.3396770693361759e-02" rms="4.0534102916717529e-01" purity="5.0177311897277832e-01" nType="0">
        <Node pos="l" depth="1" NCoef="0" IVar="9" Cut="-8.4413576126098633e-01" cType="1" res="2.7040431275963783e-02" rms="4.0651908516883850e-01" purity="5.3127044439315796e-01" nType="0">
          <Node pos="l" depth="2" NCoef="0" IVar="9" Cut="-1.9614644050598145e+00" cType="1" res="-2.4605032056570053e-02" rms="4.0134763717651367e-01" purity="4.0208524465560913e-01" nType="0">
            <Node pos="l" depth="3" NCoef="0" IVar="-1" Cut="0.0000000000000000e+00" cType="1" res="-5.5518220178782940e-03" rms="3.4966588020324707e-01" purity="2.2775582969188690e-01" nType="-99"/>
            <Node pos="r" depth="3" NCoef="0" IVar="-1" Cut="0.0000000000000000e+00" cType="1" res="-3.6075749085284770e-04" rms="4.1107231378555298e-01" purity="4.4366064667701721e-01" nType="-99"/>
          </Node>
          <Node pos="r" depth="2" NCoef="0" IVar="0" Cut="1.4630854492187500e+03" cType="1" res="4.7155603766441345e-02" rms="4.0674501657485962e-01" purity="5.8158624172210693e-01" nType="0">
            <Node pos="l" depth="3" NCoef="0" IVar="-1" Cut="0.0000000000000000e+00" cType="1" res="7.7360327122732997e-04" rms="4.2344942688941956e-01" purity="4.8426902294158936e-01" nType="-99"/>
            <Node pos="r" depth="3" NCoef="0" IVar="-1" Cut="0.0000000000000000e+00" cType="1" res="2.8257886879146099e-03" rms="3.8226550817489624e-01" purity="7.0431107282638550e-01" nType="-99"/>
          </Node>
        </Node>
        <Node pos="r" depth="1" NCoef="0" IVar="2" Cut="3.5404525756835938e+02" cType="1" res="-4.0027972310781479e-02" rms="3.9619842171669006e-01" purity="3.8627007603645325e-01" nType="0">
          <Node pos="l" depth="2" NCoef="0" IVar="0" Cut="1.2722241210937500e+03" cType="1" res="-1.4540082775056362e-02" rms="4.0319266915321350e-01" purity="4.5003235340118408e-01" nType="0">
            <Node pos="l" depth="3" NCoef="0" IVar="-1" Cut="0.0000000000000000e+00" cType="1" res="-1.9794404506683350e-03" rms="4.0344470739364624e-01" purity="3.0412268638610840e-01" nType="-99"/>
            <Node pos="r" depth="3" NCoef="0" IVar="-1" Cut="0.0000000000000000e+00" cType="1" res="1.3685630401596427e-03" rms="3.9681413769721985e-01" purity="6.8987351655960083e-01" nType="-99"/>
          </Node>
          <Node pos="r" depth="2" NCoef="0" IVar="1" Cut="4.2728958129882812e+02" cType="1" res="-7.3882371187210083e-02" rms="3.8410639762878418e-01" purity="3.0157750844955444e-01" nType="0">
            <Node pos="l" depth="3" NCoef="0" IVar="-1" Cut="0.0000000000000000e+00" cType="1" res="-6.7910216748714447e-03" rms="3.3613526821136475e-01" purity="1.7784082889556885e-01" nType="-99"/>
            <Node pos="r" depth="3" NCoef="0" IVar="-1" Cut="0.0000000000000000e+00" cType="1" res="-2.0467094145715237e-03" rms="4.3164581060409546e-01" purity="4.4570925831794739e-01" nType="-99"/>
          </Node>
        </Node>
      </Node>
    </BinaryTree>
    <BinaryTree type="DecisionTree" boostWeight="1.0000000000000000e+00" itree="257">
      <Node pos="s" depth="0" NCoef="0" IVar="9" Cut="1.4666661024093628e+00" cType="1" res="1.2910467572510242e-02" rms="4.0554887056350708e-01" purity="5.0288861989974976e-01" nType="0">
        <Node pos="l" depth="1" NCoef="0" IVar="9" Cut="-1.1745506525039673e+00" cType="1" res="2.1742813289165497e-02" rms="4.0750780701637268e-01" purity="5.2504462003707886e-01" nType="0">
          <Node pos="l" depth="2" NCoef="0" IVar="9" Cut="-1.9485388994216919e+00" cType="1" res="-4.2432893067598343e-02" rms="3.9427277445793152e-01" purity="3.5229495167732239e-01" nType="0">
            <Node pos="l" depth="3" NCoef="0" IVar="-1" Cut="0.0000000000000000e+00" cType="1" res="-6.6228206269443035e-03" rms="3.4702786803245544e-01" purity="2.2195188701152802e-01" nType="-99"/>
            <Node pos="r" depth="3" NCoef="0" IVar="-1" Cut="0.0000000000000000e+00" cType="1" res="-8.7694235844537616e-04" rms="4.0967011451721191e-01" purity="4.0541034936904907e-01" nType="-99"/>
          </Node>
          <Node pos="r" depth="2" NCoef="0" IVar="7" Cut="6.6658371686935425e-01" cType="1" res="3.4235481172800064e-02" rms="4.0886491537094116e-01" purity="5.5867266654968262e-01" nType="0">
            <Node pos="l" depth="3" NCoef="0" IVar="-1" Cut="0.0000000000000000e+00" cType="1" res="1.8028363119810820e-03" rms="4.0820994973182678e-01" purity="5.9930181503295898e-01" nType="-99"/>
            <Node pos="r" depth="3" NCoef="0" IVar="-1" Cut="0.0000000000000000e+00" cType="1" res="-7.9264986561611295e-04" rms="4.0655487775802612e-01" purity="4.2582646012306213e-01" nType="-99"/>
          </Node>
        </Node>
        <Node pos="r" depth="1" NCoef="0" IVar="7" Cut="-3.9900141954421997e-01" cType="1" res="-6.7518964409828186e-02" rms="3.7787145376205444e-01" purity="3.0113080143928528e-01" nType="0">
          <Node pos="l" depth="2" NCoef="0" IVar="-1" Cut="0.0000000000000000e+00" cType="1" res="-6.3900435343384743e-03" rms="3.4713134169578552e-01" purity="2.3010544478893280e-01" nType="-99"/>
          <Node pos="r" depth="2" NCoef="0" IVar="9" Cut="1.8476259708404541e+00" cType="1" res="-4.7566860914230347e-02" rms="3.8866141438484192e-01" purity="3.3170500397682190e-01" nType="0">
            <Node pos="l" depth="3" NCoef="0" IVar="-1" Cut="0.0000000000000000e+00" cType="1" res="-3.4608138957992196e-04" rms="4.0180823206901550e-01" purity="4.2054760456085205e-01" nType="-99"/>
            <Node pos="r" depth="3" NCoef="0" IVar="-1" Cut="0.0000000000000000e+00" cType="1" res="-4.3927826918661594e-03" rms="3.7379691004753113e-01" purity="2.5576868653297424e-01" nType="-99"/>
          </Node>
        </Node>
      </Node>
    </BinaryTree>
    <BinaryTree type="DecisionTree" boostWeight="1.0000000000000000e+00" itree="258">
      <Node pos="s" depth="0" NCoef="0" IVar="6" Cut="-9.1661351919174194e-01" cType="1" res="1.0304857045412064e-02" rms="4.0217250585556030e-01" purity="5.0118052959442139e-01" nType="0">
        <Node pos="l" depth="1" NCoef="0" IVar="3" Cut="2.5335934448242188e+02" cType="1" res="-5.5413693189620972e-02" rms="3.8050547242164612e-01" purity="3.0137085914611816e-01" nType="0">
          <Node pos="l" depth="2" NCoef="0" IVar="0" Cut="1.4629047851562500e+03" cType="1" res="-3.6758009344339371e-02" rms="3.7651643157005310e-01" purity="3.0722725391387939e-01" nType="0">
            <Node pos="l" depth="3" NCoef="0" IVar="-1" Cut="0.0000000000000000e+00" cType="1" res="-2.9802231583744287e-03" rms="3.7079271674156189e-01" purity="2.3504739999771118e-01" nType="-99"/>
            <Node pos="r" depth="3" NCoef="0" IVar="-1" Cut="0.0000000000000000e+00" cType="1" res="1.1073100613430142e-03" rms="3.8824933767318726e-01" purity="5.5156105756759644e-01" nType="-99"/>
          </Node>
          <Node pos="r" depth="2" NCoef="0" IVar="-1" Cut="0.0000000000000000e+00" cType="1" res="-7.9706450924277306e-03" rms="3.8716572523117065e-01" purity="2.8009423613548279e-01" nType="-99"/>
        </Node>
        <Node pos="r" depth="1" NCoef="0" IVar="6" Cut="6.7606198787689209e-01" cType="1" res="2.2833023220300674e-02" rms="4.0496328473091125e-01" purity="5.3927099704742432e-01" nType="0">
          <Node pos="l" depth="2" NCoef="0" IVar="2" Cut="6.0625183105468750e+02" cType="1" res="4.4029146432876587e-02" rms="4.0573868155479431e-01" purity="6.0516464710235596e-01" nType="0">
            <Node pos="l" depth="3" NCoef="0" IVar="-1" Cut="0.0000000000000000e+00" cType="1" res="1.9054585136473179e-03" rms="4.0151658654212952e-01" purity="6.2383002042770386e-01" nType="-99"/>
            <Node pos="r" depth="3" NCoef="0" IVar="-1" Cut="0.0000000000000000e+00" cType="1" res="-2.3700327146798372e-03" rms="4.3160542845726013e-01" purity="4.2862033843994141e-01" nType="-99"/>
          </Node>
          <Node pos="r" depth="2" NCoef="0" IVar="1" Cut="4.9123822021484375e+02" cType="1" res="-2.9940301552414894e-02" rms="3.9815390110015869e-01" purity="3.7521144747734070e-01" nType="0">
            <Node pos="l" depth="3" NCoef="0" IVar="-1" Cut="0.0000000000000000e+00" cType="1" res="-1.9512518774718046e-03" rms="3.9088514447212219e-01" purity="3.0821540951728821e-01" nType="-99"/>
            <Node pos="r" depth="3" NCoef="0" IVar="-1" Cut="0.0000000000000000e+00" cType="1" res="9.3618757091462612e-04" rms="4.1844245791435242e-01" purity="6.1508321762084961e-01" nType="-99"/>
          </Node>
        </Node>
      </Node>
    </BinaryTree>
    <BinaryTree type="DecisionTree" boostWeight="1.0000000000000000e+00" itree="259">
      <Node pos="s" depth="0" NCoef="0" IVar="0" Cut="1.1903468017578125e+03" cType="1" res="1.1191545985639095e-02" rms="4.0314242243766785e-01" purity="5.0128459930419922e-01" nType="0">
        <Node pos="l" depth="1" NCoef="0" IVar="2" Cut="2.5598806762695312e+02" cType="1" res="-3.1986996531486511e-02" rms="4.0812662243843079e-01" purity="2.8841155767440796e-01" nType="0">
          <Node pos="l" depth="2" NCoef="0" IVar="3" Cut="1.4974732971191406e+02" cType="1" res="-1.4914672356098890e-03" rms="4.3672993779182434e-01" purity="3.8137677311897278e-01" nType="0">
            <Node pos="l" depth="3" NCoef="0" IVar="-1" Cut="0.0000000000000000e+00" cType="1" res="1.4688826631754637e-03" rms="4.3127718567848206e-01" purity="3.9086276292800903e-01" nType="-99"/>
            <Node pos="r" depth="3" NCoef="0" IVar="-1" Cut="0.0000000000000000e+00" cType="1" res="-1.2344558490440249e-03" rms="4.3849468231201172e-01" purity="3.7326014041900635e-01" nType="-99"/>
          </Node>
          <Node pos="r" depth="2" NCoef="0" IVar="0" Cut="1.0975722656250000e+03" cType="1" res="-5.7558245956897736e-02" rms="3.8061806559562683e-01" purity="2.1045795083045959e-01" nType="0">
            <Node pos="l" depth="3" NCoef="0" IVar="-1" Cut="0.0000000000000000e+00" cType="1" res="-3.7797139957547188e-03" rms="3.5082522034645081e-01" purity="1.6365756094455719e-01" nType="-99"/>
            <Node pos="r" depth="3" NCoef="0" IVar="-1" Cut="0.0000000000000000e+00" cType="1" res="-1.6756049590185285e-03" rms="4.1050133109092712e-01" purity="2.6274874806404114e-01" nType="-99"/>
          </Node>
        </Node>
        <Node pos="r" depth="1" NCoef="0" IVar="2" Cut="4.0315579223632812e+02" cType="1" res="2.7528220787644386e-02" rms="4.0002709627151489e-01" purity="5.8182549476623535e-01" nType="0">
          <Node pos="l" depth="2" NCoef="0" IVar="3" Cut="2.2691723632812500e+02" cType="1" res="6.1176538467407227e-02" rms="3.8564687967300415e-01" purity="7.0347809791564941e-01" nType="0">
            <Node pos="l" depth="3" NCoef="0" IVar="-1" Cut="0.0000000000000000e+00" cType="1" res="3.0106643680483103e-03" rms="3.7446692585945129e-01" purity="7.4024689197540283e-01" nType="-99"/>
            <Node pos="r" depth="3" NCoef="0" IVar="-1" Cut="0.0000000000000000e+00" cType="1" res="5.8985344367101789e-04" rms="3.9742839336395264e-01" purity="6.4831382036209106e-01" nType="-99"/>
          </Node>
          <Node pos="r" depth="2" NCoef="0" IVar="0" Cut="1.9338530273437500e+03" cType="1" res="-1.5823576599359512e-02" rms="4.1381141543388367e-01" purity="4.2509081959724426e-01" nType="0">
            <Node pos="l" depth="3" NCoef="0" IVar="-1" Cut="0.0000000000000000e+00" cType="1" res="-2.1996430587023497e-03" rms="4.0388441085815430e-01" purity="3.4342452883720398e-01" nType="-99"/>
            <Node pos="r" depth="3" NCoef="0" IVar="-1" Cut="0.0000000000000000e+00" cType="1" res="1.8918209243565798e-03" rms="4.2988428473472595e-01" purity="6.3226830959320068e-01" nType="-99"/>
          </Node>
        </Node>
      </Node>
    </BinaryTree>
    <BinaryTree type="DecisionTree" boostWeight="1.0000000000000000e+00" itree="260">
      <Node pos="s" depth="0" NCoef="0" IVar="2" Cut="5.4261816406250000e+02" cType="1" res="9.6890395507216454e-03" rms="4.0326222777366638e-01" purity="4.9919736385345459e-01" nType="0">
        <Node pos="l" depth="1" NCoef="0" IVar="0" Cut="1.4904504394531250e+03" cType="1" res="2.0477751269936562e-02" rms="4.0129014849662781e-01" purity="5.2121496200561523e-01" nType="0">
          <Node pos="l" depth="2" NCoef="0" IVar="2" Cut="2.8157577514648438e+02" cType="1" res="-5.1234322600066662e-03" rms="4.1044753789901733e-01" purity="4.2915835976600647e-01" nType="0">
            <Node pos="l" depth="3" NCoef="0" IVar="-1" Cut="0.0000000000000000e+00" cType="1" res="1.2530521489679813e-03" rms="4.1597670316696167e-01" purity="5.3275650739669800e-01" nType="-99"/>
            <Node pos="r" depth="3" NCoef="0" IVar="-1" Cut="0.0000000000000000e+00" cType="1" res="-1.8365271389484406e-03" rms="4.0194579958915710e-01" purity="3.3741545677185059e-01" nType="-99"/>
          </Node>
          <Node pos="r" depth="2" NCoef="0" IVar="3" Cut="2.8991839599609375e+02" cType="1" res="8.1302188336849213e-02" rms="3.7164014577865601e-01" purity="7.3992723226547241e-01" nType="0">
            <Node pos="l" depth="3" NCoef="0" IVar="-1" Cut="0.0000000000000000e+00" cType="1" res="3.8162465207278728e-03" rms="3.4449368715286255e-01" purity="8.0540651082992554e-01" nType="-99"/>
            <Node pos="r" depth="3" NCoef="0" IVar="-1" Cut="0.0000000000000000e+00" cType="1" res="6.0131831560283899e-04" rms="4.1888570785522461e-01" purity="5.9310513734817505e-01" nType="-99"/>
          </Node>
        </Node>
        <Node pos="r" depth="1" NCoef="0" IVar="1" Cut="6.3030249023437500e+02" cType="1" res="-5.7308573275804520e-02" rms="4.0897661447525024e-01" purity="3.6246854066848755e-01" nType="0">
          <Node pos="l" depth="2" NCoef="0" IVar="2" Cut="6.9667572021484375e+02" cType="1" res="-9.4564504921436310e-02" rms="3.8769730925559998e-01" purity="2.6398777961730957e-01" nType="0">
            <Node pos="l" depth="3" NCoef="0" IVar="-1" Cut="0.0000000000000000e+00" cType="1" res="-3.1791781075298786e-03" rms="3.8889208436012268e-01" purity="2.8708428144454956e-01" nType="-99"/>
            <Node pos="r" depth="3" NCoef="0" IVar="-1" Cut="0.0000000000000000e+00" cType="1" res="-1.5012822113931179e-03" rms="3.7030303478240967e-01" purity="2.1337758004665375e-01" nType="-99"/>
          </Node>
          <Node pos="r" depth="2" NCoef="0" IVar="-1" Cut="0.0000000000000000e+00" cType="1" res="1.4454417396336794e-03" rms="4.4640994071960449e-01" purity="6.2976002693176270e-01" nType="-99"/>
        </Node>
      </Node>
    </BinaryTree>
    <BinaryTree type="DecisionTree" boostWeight="1.0000000000000000e+00" itree="261">
      <Node pos="s" depth="0" NCoef="0" IVar="7" Cut="-1.1999948024749756e+00" cType="1" res="1.1056892573833466e-02" rms="4.0257319808006287e-01" purity="5.0225168466567993e-01" nType="0">
        <Node pos="l" depth="1" NCoef="0" IVar="7" Cut="-1.9619085788726807e+00" cType="1" res="-6.2255721539258957e-02" rms="3.6528116464614868e-01" purity="2.5218439102172852e-01" nType="0">
          <Node pos="l" depth="2" NCoef="0" IVar="-1" Cut="0.0000000000000000e+00" cType="1" res="-8.3149615675210953e-03" rms="3.1101781129837036e-01" purity="1.3756410777568817e-01" nType="-99"/>
          <Node pos="r" depth="2" NCoef="0" IVar="6" Cut="-5.8175796270370483e-01" cType="1" res="-4.2903974652290344e-02" rms="3.8187685608863831e-01" purity="2.9519867897033691e-01" nType="0">
            <Node pos="l" depth="3" NCoef="0" IVar="-1" Cut="0.0000000000000000e+00" cType="1" res="-4.3705431744456291e-03" rms="3.4610715508460999e-01" purity="2.1130676567554474e-01" nType="-99"/>
            <Node pos="r" depth="3" NCoef="0" IVar="-1" Cut="0.0000000000000000e+00" cType="1" res="-1.0907022515311837e-03" rms="3.9696711301803589e-01" purity="3.3653950691223145e-01" nType="-99"/>
          </Node>
        </Node>
        <Node pos="r" depth="1" NCoef="0" IVar="7" Cut="1.6570551395416260e+00" cType="1" res="2.1165154874324799e-02" rms="4.0641123056411743e-01" purity="5.3673070669174194e-01" nType="0">
          <Node pos="l" depth="2" NCoef="0" IVar="2" Cut="6.0626110839843750e+02" cType="1" res="2.8690209612250328e-02" rms="4.1033384203910828e-01" purity="5.6095600128173828e-01" nType="0">
            <Node pos="l" depth="3" NCoef="0" IVar="-1" Cut="0.0000000000000000e+00" cType="1" res="1.3483384391292930e-03" rms="4.0782335400581360e-01" purity="5.7592242956161499e-01" nType="-99"/>
            <Node pos="r" depth="3" NCoef="0" IVar="-1" Cut="0.0000000000000000e+00" cType="1" res="-8.0824847100302577e-04" rms="4.2422497272491455e-01" purity="4.2402663826942444e-01" nType="-99"/>
          </Node>
          <Node pos="r" depth="2" NCoef="0" IVar="7" Cut="2.0380048751831055e+00" cType="1" res="-9.0756453573703766e-02" rms="3.2272469997406006e-01" purity="1.7642283439636230e-01" nType="0">
            <Node pos="l" depth="3" NCoef="0" IVar="-1" Cut="0.0000000000000000e+00" cType="1" res="-4.0514804422855377e-03" rms="3.4519591927528381e-01" purity="2.1832861006259918e-01" nType="-99"/>
            <Node pos="r" depth="3" NCoef="0" IVar="-1" Cut="0.0000000000000000e+00" cType="1" res="-9.0432567521929741e-03" rms="2.9412755370140076e-01" purity="1.3189484179019928e-01" nType="-99"/>
          </Node>
        </Node>
      </Node>
    </BinaryTree>
    <BinaryTree type="DecisionTree" boostWeight="1.0000000000000000e+00" itree="262">
      <Node pos="s" depth="0" NCoef="0" IVar="8" Cut="-9.3336772918701172e-01" cType="1" res="9.8266676068305969e-03" rms="4.0287500619888306e-01" purity="5.0077146291732788e-01" nType="0">
        <Node pos="l" depth="1" NCoef="0" IVar="6" Cut="4.2225715517997742e-01" cType="1" res="-4.7623090445995331e-02" rms="3.8624289631843567e-01" purity="3.4484180808067322e-01" nType="0">
          <Node pos="l" depth="2" NCoef="0" IVar="2" Cut="4.0317947387695312e+02" cType="1" res="-2.8812415897846222e-02" rms="3.9908626675605774e-01" purity="3.8483572006225586e-01" nType="0">
            <Node pos="l" depth="3" NCoef="0" IVar="-1" Cut="0.0000000000000000e+00" cType="1" res="-3.0116253765299916e-04" rms="4.0519168972969055e-01" purity="4.4054552912712097e-01" nType="-99"/>
            <Node pos="r" depth="3" NCoef="0" IVar="-1" Cut="0.0000000000000000e+00" cType="1" res="-4.7654416412115097e-03" rms="3.8181221485137939e-01" purity="2.6660427451133728e-01" nType="-99"/>
          </Node>
          <Node pos="r" depth="2" NCoef="0" IVar="8" Cut="-1.4668040275573730e+00" cType="1" res="-9.3449071049690247e-02" rms="3.4878304600715637e-01" purity="2.4740970134735107e-01" nType="0">
            <Node pos="l" depth="3" NCoef="0" IVar="-1" Cut="0.0000000000000000e+00" cType="1" res="-8.2772560417652130e-03" rms="3.1316071748733521e-01" purity="1.7108531296253204e-01" nType="-99"/>
            <Node pos="r" depth="3" NCoef="0" IVar="-1" Cut="0.0000000000000000e+00" cType="1" res="-4.2078550904989243e-03" rms="3.8032841682434082e-01" purity="3.2337963581085205e-01" nType="-99"/>
          </Node>
        </Node>
        <Node pos="r" depth="1" NCoef="0" IVar="8" Cut="1.0221613645553589e+00" cType="1" res="2.2871876135468483e-02" rms="4.0542435646057129e-01" purity="5.3617864847183228e-01" nType="0">
          <Node pos="l" depth="2" NCoef="0" IVar="9" Cut="1.4666039943695068e+00" cType="1" res="3.9276771247386932e-02" rms="4.0648505091667175e-01" purity="5.8787220716476440e-01" nType="0">
            <Node pos="l" depth="3" NCoef="0" IVar="-1" Cut="0.0000000000000000e+00" cType="1" res="1.6744127497076988e-03" rms="4.0613678097724915e-01" purity="6.0820138454437256e-01" nType="-99"/>
            <Node pos="r" depth="3" NCoef="0" IVar="-1" Cut="0.0000000000000000e+00" cType="1" res="-2.1323964465409517e-03" rms="3.9985167980194092e-01" purity="3.6899942159652710e-01" nType="-99"/>
          </Node>
          <Node pos="r" depth="2" NCoef="0" IVar="8" Cut="2.1226656436920166e+00" cType="1" res="-3.8939259946346283e-02" rms="3.9533451199531555e-01" purity="3.4140521287918091e-01" nType="0">
            <Node pos="l" depth="3" NCoef="0" IVar="-1" Cut="0.0000000000000000e+00" cType="1" res="-1.0498273186385632e-03" rms="4.0804338455200195e-01" purity="3.7677824497222900e-01" nType="-99"/>
            <Node pos="r" depth="3" NCoef="0" IVar="-1" Cut="0.0000000000000000e+00" cType="1" res="-7.5591560453176498e-03" rms="3.0883431434631348e-01" purity="1.5734796226024628e-01" nType="-99"/>
          </Node>
        </Node>
      </Node>
    </BinaryTree>
    <BinaryTree type="DecisionTree" boostWeight="1.0000000000000000e+00" itree="263">
      <Node pos="s" depth="0" NCoef="0" IVar="0" Cut="1.5806380615234375e+03" cType="1" res="8.6684012785553932e-03" rms="4.0307274460792542e-01" purity="4.9785602092742920e-01" nType="0">
        <Node pos="l" depth="1" NCoef="0" IVar="2" Cut="3.2552133178710938e+02" cType="1" res="-8.9314850047230721e-03" rms="4.0531378984451294e-01" purity="4.3472734093666077e-01" nType="0">
          <Node pos="l" depth="2" NCoef="0" IVar="0" Cut="1.1345797119140625e+03" cType="1" res="1.9990541040897369e-02" rms="4.1138225793838501e-01" purity="5.2022057771682739e-01" nType="0">
            <Node pos="l" depth="3" NCoef="0" IVar="-1" Cut="0.0000000000000000e+00" cType="1" res="-1.3288435293361545e-03" rms="4.1523730754852295e-01" purity="2.8902193903923035e-01" nType="-99"/>
            <Node pos="r" depth="3" NCoef="0" IVar="-1" Cut="0.0000000000000000e+00" cType="1" res="1.8347445875406265e-03" rms="4.0479171276092529e-01" purity="6.7830431461334229e-01" nType="-99"/>
          </Node>
          <Node pos="r" depth="2" NCoef="0" IVar="7" Cut="-6.6687631607055664e-01" cType="1" res="-5.2540890872478485e-02" rms="3.9197358489036560e-01" purity="3.0581820011138916e-01" nType="0">
            <Node pos="l" depth="3" NCoef="0" IVar="-1" Cut="0.0000000000000000e+00" cType="1" res="-5.9796189889311790e-03" rms="3.4305199980735779e-01" purity="1.9170472025871277e-01" nType="-99"/>
            <Node pos="r" depth="3" NCoef="0" IVar="-1" Cut="0.0000000000000000e+00" cType="1" res="-1.6146104317158461e-03" rms="4.0725678205490112e-01" purity="3.4797224402427673e-01" nType="-99"/>
          </Node>
        </Node>
        <Node pos="r" depth="1" NCoef="0" IVar="2" Cut="6.0661163330078125e+02" cType="1" res="5.0966992974281311e-02" rms="3.9443626999855042e-01" purity="6.4957612752914429e-01" nType="0">
          <Node pos="l" depth="2" NCoef="0" IVar="3" Cut="2.9208004760742188e+02" cType="1" res="8.7856821715831757e-02" rms="3.7271878123283386e-01" purity="7.3607391119003296e-01" nType="0">
            <Node pos="l" depth="3" NCoef="0" IVar="-1" Cut="0.0000000000000000e+00" cType="1" res="4.3692071922123432e-03" rms="3.3961477875709534e-01" purity="8.1487363576889038e-01" nType="-99"/>
            <Node pos="r" depth="3" NCoef="0" IVar="-1" Cut="0.0000000000000000e+00" cType="1" res="8.0321473069489002e-04" rms="4.1463434696197510e-01" purity="6.0218513011932373e-01" nType="-99"/>
          </Node>
          <Node pos="r" depth="2" NCoef="0" IVar="1" Cut="6.0607495117187500e+02" cType="1" res="-4.0861938148736954e-02" rms="4.3038693070411682e-01" purity="4.3425938487052917e-01" nType="0">
            <Node pos="l" depth="3" NCoef="0" IVar="-1" Cut="0.0000000000000000e+00" cType="1" res="-5.4179388098418713e-03" rms="4.0670222043991089e-01" purity="3.0061632394790649e-01" nType="-99"/>
            <Node pos="r" depth="3" NCoef="0" IVar="-1" Cut="0.0000000000000000e+00" cType="1" res="1.0740885045379400e-03" rms="4.5042702555656433e-01" purity="6.2083995342254639e-01" nType="-99"/>
          </Node>
        </Node>
      </Node>
    </BinaryTree>
    <BinaryTree type="DecisionTree" boostWeight="1.0000000000000000e+00" itree="264">
      <Node pos="s" depth="0" NCoef="0" IVar="0" Cut="1.5806496582031250e+03" cType="1" res="1.2339197099208832e-02" rms="4.0238654613494873e-01" purity="5.0222283601760864e-01" nType="0">
        <Node pos="l" depth="1" NCoef="0" IVar="2" Cut="3.2551797485351562e+02" cType="1" res="-4.9050399102270603e-03" rms="4.0514403581619263e-01" purity="4.3788799643516541e-01" nType="0">
          <Node pos="l" depth="2" NCoef="0" IVar="0" Cut="1.1717573242187500e+03" cType="1" res="2.2616812959313393e-02" rms="4.0895926952362061e-01" purity="5.2262794971466064e-01" nType="0">
            <Node pos="l" depth="3" NCoef="0" IVar="-1" Cut="0.0000000000000000e+00" cType="1" res="-1.1076865484938025e-03" rms="4.1975134611129761e-01" purity="3.1350234150886536e-01" nType="-99"/>
            <Node pos="r" depth="3" NCoef="0" IVar="-1" Cut="0.0000000000000000e+00" cType="1" res="2.2179328370839357e-03" rms="3.9381220936775208e-01" purity="7.0901566743850708e-01" nType="-99"/>
          </Node>
          <Node pos="r" depth="2" NCoef="0" IVar="2" Cut="5.5413848876953125e+02" cType="1" res="-4.5817587524652481e-02" rms="3.9588463306427002e-01" purity="3.1191790103912354e-01" nType="0">
            <Node pos="l" depth="3" NCoef="0" IVar="-1" Cut="0.0000000000000000e+00" cType="1" res="-1.6898409230634570e-03" rms="4.0484064817428589e-01" purity="3.3339041471481323e-01" nType="-99"/>
            <Node pos="r" depth="3" NCoef="0" IVar="-1" Cut="0.0000000000000000e+00" cType="1" res="-1.2999500147998333e-02" rms="2.7589604258537292e-01" purity="9.4933271408081055e-02" nType="-99"/>
          </Node>
        </Node>
        <Node pos="r" depth="1" NCoef="0" IVar="2" Cut="6.0630877685546875e+02" cType="1" res="5.3469479084014893e-02" rms="3.9268669486045837e-01" purity="6.5567189455032349e-01" nType="0">
          <Node pos="l" depth="2" NCoef="0" IVar="3" Cut="3.1710119628906250e+02" cType="1" res="8.7708756327629089e-02" rms="3.6890584230422974e-01" purity="7.4106228351593018e-01" nType="0">
            <Node pos="l" depth="3" NCoef="0" IVar="-1" Cut="0.0000000000000000e+00" cType="1" res="4.2200502939522266e-03" rms="3.4136787056922913e-01" purity="8.0571055412292480e-01" nType="-99"/>
            <Node pos="r" depth="3" NCoef="0" IVar="-1" Cut="0.0000000000000000e+00" cType="1" res="-1.5542942855972797e-04" rms="4.2154702544212341e-01" purity="5.6564480066299438e-01" nType="-99"/>
          </Node>
          <Node pos="r" depth="2" NCoef="0" IVar="1" Cut="6.3031457519531250e+02" cType="1" res="-3.2983545213937759e-02" rms="4.3531495332717896e-01" purity="4.4006392359733582e-01" nType="0">
            <Node pos="l" depth="3" NCoef="0" IVar="-1" Cut="0.0000000000000000e+00" cType="1" res="-4.7279791906476021e-03" rms="4.2060580849647522e-01" purity="3.1630644202232361e-01" nType="-99"/>
            <Node pos="r" depth="3" NCoef="0" IVar="-1" Cut="0.0000000000000000e+00" cType="1" res="1.5142422635108232e-03" rms="4.4576281309127808e-01" purity="6.3824957609176636e-01" nType="-99"/>
          </Node>
        </Node>
      </Node>
    </BinaryTree>
    <BinaryTree type="DecisionTree" boostWeight="1.0000000000000000e+00" itree="265">
      <Node pos="s" depth="0" NCoef="0" IVar="6" Cut="-6.5973436832427979e-01" cType="1" res="8.6188791319727898e-03" rms="4.0246480703353882e-01" purity="4.9836045503616333e-01" nType="0">
        <Node pos="l" depth="1" NCoef="0" IVar="0" Cut="1.7855917968750000e+03" cType="1" res="-3.9591822773218155e-02" rms="3.9125511050224304e-01" purity="3.6916103959083557e-01" nType="0">
          <Node pos="l" depth="2" NCoef="0" IVar="7" Cut="6.6671276092529297e-01" cType="1" res="-5.4094765335321426e-02" rms="3.8537201285362244e-01" purity="3.2828608155250549e-01" nType="0">
            <Node pos="l" depth="3" NCoef="0" IVar="-1" Cut="0.0000000000000000e+00" cType="1" res="-1.6831299290060997e-03" rms="3.9806321263313293e-01" purity="3.6987981200218201e-01" nType="-99"/>
            <Node pos="r" depth="3" NCoef="0" IVar="-1" Cut="0.0000000000000000e+00" cType="1" res="-6.9741890765726566e-03" rms="3.3518898487091064e-01" purity="1.9091343879699707e-01" nType="-99"/>
          </Node>
          <Node pos="r" depth="2" NCoef="0" IVar="-1" Cut="0.0000000000000000e+00" cType="1" res="1.4734897995367646e-03" rms="4.1309499740600586e-01" purity="5.9311848878860474e-01" nType="-99"/>
        </Node>
        <Node pos="r" depth="1" NCoef="0" IVar="6" Cut="6.5814495086669922e-01" cType="1" res="2.3508183658123016e-02" rms="4.0470516681671143e-01" purity="5.3826218843460083e-01" nType="0">
          <Node pos="l" depth="2" NCoef="0" IVar="2" Cut="6.6214196777343750e+02" cType="1" res="4.7996614128351212e-02" rms="4.0586286783218384e-01" purity="6.1190825700759888e-01" nType="0">
            <Node pos="l" depth="3" NCoef="0" IVar="-1" Cut="0.0000000000000000e+00" cType="1" res="2.0383214578032494e-03" rms="4.0221080183982849e-01" purity="6.2637954950332642e-01" nType="-99"/>
            <Node pos="r" depth="3" NCoef="0" IVar="-1" Cut="0.0000000000000000e+00" cType="1" res="-6.1006983742117882e-04" rms="4.3343281745910645e-01" purity="4.2442944645881653e-01" nType="-99"/>
          </Node>
          <Node pos="r" depth="2" NCoef="0" IVar="8" Cut="-1.2000614404678345e+00" cType="1" res="-2.8258284553885460e-02" rms="3.9730983972549438e-01" purity="3.8258069753646851e-01" nType="0">
            <Node pos="l" depth="3" NCoef="0" IVar="-1" Cut="0.0000000000000000e+00" cType="1" res="-7.7445325441658497e-03" rms="3.1568601727485657e-01" purity="1.5805596113204956e-01" nType="-99"/>
            <Node pos="r" depth="3" NCoef="0" IVar="-1" Cut="0.0000000000000000e+00" cType="1" res="-7.1603833930566907e-04" rms="4.0623426437377930e-01" purity="4.1421449184417725e-01" nType="-99"/>
          </Node>
        </Node>
      </Node>
    </BinaryTree>
    <BinaryTree type="DecisionTree" boostWeight="1.0000000000000000e+00" itree="266">
      <Node pos="s" depth="0" NCoef="0" IVar="8" Cut="1.4666454792022705e+00" cType="1" res="1.2078780680894852e-02" rms="4.0272635221481323e-01" purity="5.0517135858535767e-01" nType="0">
        <Node pos="l" depth="1" NCoef="0" IVar="8" Cut="-9.7143745422363281e-01" cType="1" res="2.0093981176614761e-02" rms="4.0487661957740784e-01" purity="5.2961695194244385e-01" nType="0">
          <Node pos="l" depth="2" NCoef="0" IVar="1" Cut="5.2073553466796875e+02" cType="1" res="-3.4196063876152039e-02" rms="3.8751795887947083e-01" purity="3.6005043983459473e-01" nType="0">
            <Node pos="l" depth="3" NCoef="0" IVar="-1" Cut="0.0000000000000000e+00" cType="1" res="-2.4117324501276016e-03" rms="3.7847751379013062e-01" purity="3.0806714296340942e-01" nType="-99"/>
            <Node pos="r" depth="3" NCoef="0" IVar="-1" Cut="0.0000000000000000e+00" cType="1" res="1.4329036930575967e-03" rms="4.2015969753265381e-01" purity="6.0359168052673340e-01" nType="-99"/>
          </Node>
          <Node pos="r" depth="2" NCoef="0" IVar="6" Cut="1.4688304662704468e+00" cType="1" res="3.3463705331087112e-02" rms="4.0793117880821228e-01" purity="5.7137519121170044e-01" nType="0">
            <Node pos="l" depth="3" NCoef="0" IVar="-1" Cut="0.0000000000000000e+00" cType="1" res="1.2207878753542900e-03" rms="4.0900400280952454e-01" purity="5.9132015705108643e-01" nType="-99"/>
            <Node pos="r" depth="3" NCoef="0" IVar="-1" Cut="0.0000000000000000e+00" cType="1" res="-3.1969903502613306e-03" rms="3.7742850184440613e-01" purity="2.7329427003860474e-01" nType="-99"/>
          </Node>
        </Node>
        <Node pos="r" depth="1" NCoef="0" IVar="6" Cut="-1.2243665009737015e-01" cType="1" res="-7.3221124708652496e-02" rms="3.6843973398208618e-01" purity="2.4501521885395050e-01" nType="0">
          <Node pos="l" depth="2" NCoef="0" IVar="-1" Cut="0.0000000000000000e+00" cType="1" res="-7.4384938925504684e-03" rms="3.3729016780853271e-01" purity="1.9021776318550110e-01" nType="-99"/>
          <Node pos="r" depth="2" NCoef="0" IVar="6" Cut="7.1114462614059448e-01" cType="1" res="-4.2370498180389404e-02" rms="3.8559618592262268e-01" purity="2.8305247426033020e-01" nType="0">
            <Node pos="l" depth="3" NCoef="0" IVar="-1" Cut="0.0000000000000000e+00" cType="1" res="-1.0478186886757612e-03" rms="4.1631135344505310e-01" purity="3.6749905347824097e-01" nType="-99"/>
            <Node pos="r" depth="3" NCoef="0" IVar="-1" Cut="0.0000000000000000e+00" cType="1" res="-4.1791447438299656e-03" rms="3.5285052657127380e-01" purity="2.0250870287418365e-01" nType="-99"/>
          </Node>
        </Node>
      </Node>
    </BinaryTree>
    <BinaryTree type="DecisionTree" boostWeight="1.0000000000000000e+00" itree="267">
      <Node pos="s" depth="0" NCoef="0" IVar="9" Cut="1.4666407108306885e+00" cType="1" res="1.3932320289313793e-02" rms="4.0401893854141235e-01" purity="5.0670033693313599e-01" nType="0">
        <Node pos="l" depth="1" NCoef="0" IVar="7" Cut="-6.6672521829605103e-01" cType="1" res="2.2644078359007835e-02" rms="4.0600216388702393e-01" purity="5.2900654077529907e-01" nType="0">
          <Node pos="l" depth="2" NCoef="0" IVar="3" Cut="2.6241241455078125e+02" cType="1" res="-2.1608857437968254e-02" rms="3.9781108498573303e-01" purity="4.0229976177215576e-01" nType="0">
            <Node pos="l" depth="3" NCoef="0" IVar="-1" Cut="0.0000000000000000e+00" cType="1" res="-2.6927341241389513e-04" rms="3.9556214213371277e-01" purity="4.0699309110641479e-01" nType="-99"/>
            <Node pos="r" depth="3" NCoef="0" IVar="-1" Cut="0.0000000000000000e+00" cType="1" res="-4.4940989464521408e-03" rms="4.0094456076622009e-01" purity="3.8305059075355530e-01" nType="-99"/>
          </Node>
          <Node pos="r" depth="2" NCoef="0" IVar="7" Cut="6.5378928184509277e-01" cType="1" res="3.7478908896446228e-02" rms="4.0763756632804871e-01" purity="5.7148218154907227e-01" nType="0">
            <Node pos="l" depth="3" NCoef="0" IVar="-1" Cut="0.0000000000000000e+00" cType="1" res="2.0162540022283792e-03" rms="4.0736478567123413e-01" purity="6.4069885015487671e-01" nType="-99"/>
            <Node pos="r" depth="3" NCoef="0" IVar="-1" Cut="0.0000000000000000e+00" cType="1" res="-3.6345465923659503e-04" rms="4.0437197685241699e-01" purity="4.2591020464897156e-01" nType="-99"/>
          </Node>
        </Node>
        <Node pos="r" depth="1" NCoef="0" IVar="9" Cut="1.9745808839797974e+00" cType="1" res="-6.7837633192539215e-02" rms="3.7517216801643372e-01" purity="2.9733085632324219e-01" nType="0">
          <Node pos="l" depth="2" NCoef="0" IVar="7" Cut="4.0049722790718079e-01" cType="1" res="-4.3787579983472824e-02" rms="3.9080157876014709e-01" purity="3.5323661565780640e-01" nType="0">
            <Node pos="l" depth="3" NCoef="0" IVar="-1" Cut="0.0000000000000000e+00" cType="1" res="-1.2266606790944934e-03" rms="4.0347272157669067e-01" purity="4.0469211339950562e-01" nType="-99"/>
            <Node pos="r" depth="3" NCoef="0" IVar="-1" Cut="0.0000000000000000e+00" cType="1" res="-3.0094832181930542e-03" rms="3.7312641739845276e-01" purity="2.8861126303672791e-01" nType="-99"/>
          </Node>
          <Node pos="r" depth="2" NCoef="0" IVar="-1" Cut="0.0000000000000000e+00" cType="1" res="-6.2814312987029552e-03" rms="3.4906381368637085e-01" purity="2.1825532615184784e-01" nType="-99"/>
        </Node>
      </Node>
    </BinaryTree>
    <BinaryTree type="DecisionTree" boostWeight="1.0000000000000000e+00" itree="268">
      <Node pos="s" depth="0" NCoef="0" IVar="0" Cut="1.4630738525390625e+03" cType="1" res="9.9815046414732933e-03" rms="4.0234956145286560e-01" purity="5.0143790245056152e-01" nType="0">
        <Node pos="l" depth="1" NCoef="0" IVar="2" Cut="2.3109620666503906e+02" cType="1" res="-1.0393958538770676e-02" rms="4.0935647487640381e-01" purity="4.0974763035774231e-01" nType="0">
          <Node pos="l" depth="2" NCoef="0" IVar="-1" Cut="0.0000000000000000e+00" cType="1" res="1.8804611172527075e-03" rms="4.1496023535728455e-01" purity="5.4728937149047852e-01" nType="-99"/>
          <Node pos="r" depth="2" NCoef="0" IVar="9" Cut="9.3351674079895020e-01" cType="1" res="-2.4988271296024323e-02" rms="4.0666130185127258e-01" purity="3.7869438529014587e-01" nType="0">
            <Node pos="l" depth="3" NCoef="0" IVar="-1" Cut="0.0000000000000000e+00" cType="1" res="-4.6334834769368172e-04" rms="4.1391000151634216e-01" purity="4.0627342462539673e-01" nType="-99"/>
            <Node pos="r" depth="3" NCoef="0" IVar="-1" Cut="0.0000000000000000e+00" cType="1" res="-3.2788529060781002e-03" rms="3.7672594189643860e-01" purity="2.8233349323272705e-01" nType="-99"/>
          </Node>
        </Node>
        <Node pos="r" depth="1" NCoef="0" IVar="2" Cut="4.7999237060546875e+02" cType="1" res="4.0141969919204712e-02" rms="3.8979747891426086e-01" purity="6.3716101646423340e-01" nType="0">
          <Node pos="l" depth="2" NCoef="0" IVar="3" Cut="3.2702416992187500e+02" cType="1" res="8.7105326354503632e-02" rms="3.5410225391387939e-01" purity="7.7971625328063965e-01" nType="0">
            <Node pos="l" depth="3" NCoef="0" IVar="-1" Cut="0.0000000000000000e+00" cType="1" res="3.6043338477611542e-03" rms="3.3877894282341003e-01" purity="8.1447094678878784e-01" nType="-99"/>
            <Node pos="r" depth="3" NCoef="0" IVar="-1" Cut="0.0000000000000000e+00" cType="1" res="-7.5026811100542545e-04" rms="4.2706048488616943e-01" purity="5.5156248807907104e-01" nType="-99"/>
          </Node>
          <Node pos="r" depth="2" NCoef="0" IVar="0" Cut="2.0629748535156250e+03" cType="1" res="-2.7442058548331261e-02" rms="4.2709875106811523e-01" purity="4.3201264739036560e-01" nType="0">
            <Node pos="l" depth="3" NCoef="0" IVar="-1" Cut="0.0000000000000000e+00" cType="1" res="-2.8405634220689535e-03" rms="4.1630417108535767e-01" purity="3.5128426551818848e-01" nType="-99"/>
            <Node pos="r" depth="3" NCoef="0" IVar="-1" Cut="0.0000000000000000e+00" cType="1" res="9.4994215760380030e-04" rms="4.4389846920967102e-01" purity="6.0024780035018921e-01" nType="-99"/>
          </Node>
        </Node>
      </Node>
    </BinaryTree>
    <BinaryTree type="DecisionTree" boostWeight="1.0000000000000000e+00" itree="269">
      <Node pos="s" depth="0" NCoef="0" IVar="8" Cut="1.4665566682815552e+00" cType="1" res="1.0874417610466480e-02" rms="4.0262070298194885e-01" purity="5.0060558319091797e-01" nType="0">
        <Node pos="l" depth="1" NCoef="0" IVar="8" Cut="-9.7149968147277832e-01" cType="1" res="1.8900131806731224e-02" rms="4.0547096729278564e-01" purity="5.2453011274337769e-01" nType="0">
          <Node pos="l" depth="2" NCoef="0" IVar="8" Cut="-1.7551441192626953e+00" cType="1" res="-4.3336141854524612e-02" rms="3.8810884952545166e-01" purity="3.4022197127342224e-01" nType="0">
            <Node pos="l" depth="3" NCoef="0" IVar="-1" Cut="0.0000000000000000e+00" cType="1" res="-6.9218869321048260e-03" rms="3.3563023805618286e-01" purity="1.8327774107456207e-01" nType="-99"/>
            <Node pos="r" depth="3" NCoef="0" IVar="-1" Cut="0.0000000000000000e+00" cType="1" res="-8.3541771164163947e-04" rms="4.0688115358352661e-01" purity="4.0960705280303955e-01" nType="-99"/>
          </Node>
          <Node pos="r" depth="2" NCoef="0" IVar="0" Cut="1.1200681152343750e+03" cType="1" res="3.4152224659919739e-02" rms="4.0816840529441833e-01" purity="5.6969803571701050e-01" nType="0">
            <Node pos="l" depth="3" NCoef="0" IVar="-1" Cut="0.0000000000000000e+00" cType="1" res="-9.3729957006871700e-04" rms="4.2662784457206726e-01" purity="3.0790537595748901e-01" nType="-99"/>
            <Node pos="r" depth="3" NCoef="0" IVar="-1" Cut="0.0000000000000000e+00" cType="1" res="1.6409775707870722e-03" rms="4.0329441428184509e-01" purity="6.2255185842514038e-01" nType="-99"/>
          </Node>
        </Node>
        <Node pos="r" depth="1" NCoef="0" IVar="6" Cut="-3.2685288786888123e-01" cType="1" res="-7.4681125581264496e-02" rms="3.5992181301116943e-01" purity="2.4556590616703033e-01" nType="0">
          <Node pos="l" depth="2" NCoef="0" IVar="-1" Cut="0.0000000000000000e+00" cType="1" res="-9.1694891452789307e-03" rms="3.3054506778717041e-01" purity="1.6243918240070343e-01" nType="-99"/>
          <Node pos="r" depth="2" NCoef="0" IVar="8" Cut="1.8474988937377930e+00" cType="1" res="-5.0783015787601471e-02" rms="3.7152758240699768e-01" purity="2.8735250234603882e-01" nType="0">
            <Node pos="l" depth="3" NCoef="0" IVar="-1" Cut="0.0000000000000000e+00" cType="1" res="-3.6342980456538498e-04" rms="3.9329531788825989e-01" purity="3.7391430139541626e-01" nType="-99"/>
            <Node pos="r" depth="3" NCoef="0" IVar="-1" Cut="0.0000000000000000e+00" cType="1" res="-5.7273558340966702e-03" rms="3.4447526931762695e-01" purity="2.0466153323650360e-01" nType="-99"/>
          </Node>
        </Node>
      </Node>
    </BinaryTree>
    <BinaryTree type="DecisionTree" boostWeight="1.0000000000000000e+00" itree="270">
      <Node pos="s" depth="0" NCoef="0" IVar="0" Cut="1.5806380615234375e+03" cType="1" res="9.9064335227012634e-03" rms="4.0356341004371643e-01" purity="5.0183111429214478e-01" nType="0">
        <Node pos="l" depth="1" NCoef="0" IVar="2" Cut="2.6219033813476562e+02" cType="1" res="-7.9005304723978043e-03" rms="4.0717619657516479e-01" purity="4.3805328011512756e-01" nType="0">
          <Node pos="l" depth="2" NCoef="0" IVar="0" Cut="1.2088121337890625e+03" cType="1" res="4.3048512190580368e-02" rms="4.1186097264289856e-01" purity="5.5563002824783325e-01" nType="0">
            <Node pos="l" depth="3" NCoef="0" IVar="-1" Cut="0.0000000000000000e+00" cType="1" res="-1.2901029549539089e-04" rms="4.3727540969848633e-01" purity="3.8658857345581055e-01" nType="-99"/>
            <Node pos="r" depth="3" NCoef="0" IVar="-1" Cut="0.0000000000000000e+00" cType="1" res="3.4981842618435621e-03" rms="3.5805219411849976e-01" purity="8.1432366371154785e-01" nType="-99"/>
          </Node>
          <Node pos="r" depth="2" NCoef="0" IVar="3" Cut="2.5027009582519531e+02" cType="1" res="-3.3489439636468887e-02" rms="4.0237644314765930e-01" purity="3.7900093197822571e-01" nType="0">
            <Node pos="l" depth="3" NCoef="0" IVar="-1" Cut="0.0000000000000000e+00" cType="1" res="-8.9834287064149976e-04" rms="4.0112850069999695e-01" purity="3.8406366109848022e-01" nType="-99"/>
            <Node pos="r" depth="3" NCoef="0" IVar="-1" Cut="0.0000000000000000e+00" cType="1" res="-4.7752475365996361e-03" rms="4.0329512953758240e-01" purity="3.5525596141815186e-01" nType="-99"/>
          </Node>
        </Node>
        <Node pos="r" depth="1" NCoef="0" IVar="2" Cut="6.0636901855468750e+02" cType="1" res="5.2648108452558517e-02" rms="3.9146524667739868e-01" purity="6.5491575002670288e-01" nType="0">
          <Node pos="l" depth="2" NCoef="0" IVar="3" Cut="3.1856326293945312e+02" cType="1" res="8.8190943002700806e-02" rms="3.6848670244216919e-01" purity="7.4321192502975464e-01" nType="0">
            <Node pos="l" depth="3" NCoef="0" IVar="-1" Cut="0.0000000000000000e+00" cType="1" res="3.9773271419107914e-03" rms="3.4314277768135071e-01" purity="8.0197107791900635e-01" nType="-99"/>
            <Node pos="r" depth="3" NCoef="0" IVar="-1" Cut="0.0000000000000000e+00" cType="1" res="3.9562187157571316e-04" rms="4.2244639992713928e-01" purity="5.7702618837356567e-01" nType="-99"/>
          </Node>
          <Node pos="r" depth="2" NCoef="0" IVar="1" Cut="6.8552648925781250e+02" cType="1" res="-3.7068258970975876e-02" rms="4.3137672543525696e-01" purity="4.3204051256179810e-01" nType="0">
            <Node pos="l" depth="3" NCoef="0" IVar="-1" Cut="0.0000000000000000e+00" cType="1" res="-4.5727421529591084e-03" rms="4.1790440678596497e-01" purity="3.2772275805473328e-01" nType="-99"/>
            <Node pos="r" depth="3" NCoef="0" IVar="-1" Cut="0.0000000000000000e+00" cType="1" res="2.2527105174958706e-03" rms="4.3985348939895630e-01" purity="6.7446416616439819e-01" nType="-99"/>
          </Node>
        </Node>
      </Node>
    </BinaryTree>
    <BinaryTree type="DecisionTree" boostWeight="1.0000000000000000e+00" itree="271">
      <Node pos="s" depth="0" NCoef="0" IVar="7" Cut="1.4666714668273926e+00" cType="1" res="1.0844498872756958e-02" rms="4.0139520168304443e-01" purity="5.0056058168411255e-01" nType="0">
        <Node pos="l" depth="1" NCoef="0" IVar="7" Cut="-7.6823389530181885e-01" cType="1" res="1.8418692052364349e-02" rms="4.0516346693038940e-01" purity="5.2608877420425415e-01" nType="0">
          <Node pos="l" depth="2" NCoef="0" IVar="9" Cut="9.3338322639465332e-01" cType="1" res="-3.7752285599708557e-02" rms="3.8948765397071838e-01" purity="3.5123547911643982e-01" nType="0">
            <Node pos="l" depth="3" NCoef="0" IVar="-1" Cut="0.0000000000000000e+00" cType="1" res="-9.8115368746221066e-04" rms="3.9763116836547852e-01" purity="3.7962880730628967e-01" nType="-99"/>
            <Node pos="r" depth="3" NCoef="0" IVar="-1" Cut="0.0000000000000000e+00" cType="1" res="-7.1372697129845619e-03" rms="3.4021791815757751e-01" purity="2.2017626464366913e-01" nType="-99"/>
          </Node>
          <Node pos="r" depth="2" NCoef="0" IVar="9" Cut="-1.7328041791915894e+00" cType="1" res="3.5452041774988174e-02" rms="4.0827435255050659e-01" purity="5.7911151647567749e-01" nType="0">
            <Node pos="l" depth="3" NCoef="0" IVar="-1" Cut="0.0000000000000000e+00" cType="1" res="-3.7273108027875423e-03" rms="3.9654609560966492e-01" purity="3.2325163483619690e-01" nType="-99"/>
            <Node pos="r" depth="3" NCoef="0" IVar="-1" Cut="0.0000000000000000e+00" cType="1" res="1.4834651956334710e-03" rms="4.0796846151351929e-01" purity="5.9362363815307617e-01" nType="-99"/>
          </Node>
        </Node>
        <Node pos="r" depth="1" NCoef="0" IVar="7" Cut="1.9111224412918091e+00" cType="1" res="-7.8397139906883240e-02" rms="3.4156671166419983e-01" purity="1.9977898895740509e-01" nType="0">
          <Node pos="l" depth="2" NCoef="0" IVar="-1" Cut="0.0000000000000000e+00" cType="1" res="-2.9051117599010468e-03" rms="3.7256222963333130e-01" purity="2.4887947738170624e-01" nType="-99"/>
          <Node pos="r" depth="2" NCoef="0" IVar="-1" Cut="0.0000000000000000e+00" cType="1" res="-9.0974457561969757e-03" rms="2.9629558324813843e-01" purity="1.4052127301692963e-01" nType="-99"/>
        </Node>
      </Node>
    </BinaryTree>
    <BinaryTree type="DecisionTree" boostWeight="1.0000000000000000e+00" itree="272">
      <Node pos="s" depth="0" NCoef="0" IVar="9" Cut="-1.1999508142471313e+00" cType="1" res="1.2617583386600018e-02" rms="4.0241187810897827e-01" purity="5.0400036573410034e-01" nType="0">
        <Node pos="l" depth="1" NCoef="0" IVar="2" Cut="4.6536669921875000e+02" cType="1" res="-5.3289044648408890e-02" rms="3.8262534141540527e-01" purity="3.3721539378166199e-01" nType="0">
          <Node pos="l" depth="2" NCoef="0" IVar="1" Cut="3.5155157470703125e+02" cType="1" res="-3.7424299865961075e-02" rms="3.9146003127098083e-01" purity="3.7472960352897644e-01" nType="0">
            <Node pos="l" depth="3" NCoef="0" IVar="-1" Cut="0.0000000000000000e+00" cType="1" res="-4.7397771850228310e-03" rms="3.5648334026336670e-01" purity="2.1592499315738678e-01" nType="-99"/>
            <Node pos="r" depth="3" NCoef="0" IVar="-1" Cut="0.0000000000000000e+00" cType="1" res="-4.8914126818999648e-04" rms="4.0863898396492004e-01" purity="4.6937179565429688e-01" nType="-99"/>
          </Node>
          <Node pos="r" depth="2" NCoef="0" IVar="-1" Cut="0.0000000000000000e+00" cType="1" res="-8.7849395349621773e-03" rms="3.4250301122665405e-01" purity="2.0087553560733795e-01" nType="-99"/>
        </Node>
        <Node pos="r" depth="1" NCoef="0" IVar="9" Cut="1.0857028961181641e+00" cType="1" res="2.3192126303911209e-02" rms="4.0449824929237366e-01" purity="5.3076058626174927e-01" nType="0">
          <Node pos="l" depth="2" NCoef="0" IVar="8" Cut="1.7332007884979248e+00" cType="1" res="3.6894641816616058e-02" rms="4.0580755472183228e-01" purity="5.6921184062957764e-01" nType="0">
            <Node pos="l" depth="3" NCoef="0" IVar="-1" Cut="0.0000000000000000e+00" cType="1" res="1.3165979180485010e-03" rms="4.0638899803161621e-01" purity="5.8603751659393311e-01" nType="-99"/>
            <Node pos="r" depth="3" NCoef="0" IVar="-1" Cut="0.0000000000000000e+00" cType="1" res="-4.5231357216835022e-03" rms="3.7453508377075195e-01" purity="2.4002477526664734e-01" nType="-99"/>
          </Node>
          <Node pos="r" depth="2" NCoef="0" IVar="9" Cut="2.1469111442565918e+00" cType="1" res="-3.4226559102535248e-02" rms="3.9381381869316101e-01" purity="3.6963489651679993e-01" nType="0">
            <Node pos="l" depth="3" NCoef="0" IVar="-1" Cut="0.0000000000000000e+00" cType="1" res="-8.0505450023338199e-04" rms="4.0360707044601440e-01" purity="4.0585261583328247e-01" nType="-99"/>
            <Node pos="r" depth="3" NCoef="0" IVar="-1" Cut="0.0000000000000000e+00" cType="1" res="-7.6353666372597218e-03" rms="3.2854929566383362e-01" purity="1.8653966486454010e-01" nType="-99"/>
          </Node>
        </Node>
      </Node>
    </BinaryTree>
    <BinaryTree type="DecisionTree" boostWeight="1.0000000000000000e+00" itree="273">
      <Node pos="s" depth="0" NCoef="0" IVar="7" Cut="-6.6659843921661377e-01" cType="1" res="1.0611153207719326e-02" rms="4.0225380659103394e-01" purity="5.0144827365875244e-01" nType="0">
        <Node pos="l" depth="1" NCoef="0" IVar="7" Cut="-1.6824218034744263e+00" cType="1" res="-3.4384459257125854e-02" rms="3.8833650946617126e-01" purity="3.7469762563705444e-01" nType="0">
          <Node pos="l" depth="2" NCoef="0" IVar="9" Cut="-1.3391052186489105e-01" cType="1" res="-8.7492845952510834e-02" rms="3.2029834389686584e-01" purity="1.8240401148796082e-01" nType="0">
            <Node pos="l" depth="3" NCoef="0" IVar="-1" Cut="0.0000000000000000e+00" cType="1" res="-7.6487632468342781e-03" rms="3.0098530650138855e-01" purity="1.5205141901969910e-01" nType="-99"/>
            <Node pos="r" depth="3" NCoef="0" IVar="-1" Cut="0.0000000000000000e+00" cType="1" res="-4.3384265154600143e-03" rms="3.3886691927909851e-01" purity="2.1440227329730988e-01" nType="-99"/>
          </Node>
          <Node pos="r" depth="2" NCoef="0" IVar="2" Cut="3.3695733642578125e+02" cType="1" res="-1.8603706732392311e-02" rms="4.0502420067787170e-01" purity="4.3183621764183044e-01" nType="0">
            <Node pos="l" depth="3" NCoef="0" IVar="-1" Cut="0.0000000000000000e+00" cType="1" res="4.9349840264767408e-04" rms="4.0484896302223206e-01" purity="5.0734007358551025e-01" nType="-99"/>
            <Node pos="r" depth="3" NCoef="0" IVar="-1" Cut="0.0000000000000000e+00" cType="1" res="-2.5922546628862619e-03" rms="4.0253785252571106e-01" purity="3.5265833139419556e-01" nType="-99"/>
          </Node>
        </Node>
        <Node pos="r" depth="1" NCoef="0" IVar="7" Cut="8.1903260946273804e-01" cType="1" res="2.5088267400860786e-02" rms="4.0557029843330383e-01" purity="5.4222965240478516e-01" nType="0">
          <Node pos="l" depth="2" NCoef="0" IVar="9" Cut="-1.7329722642898560e+00" cType="1" res="4.6396818011999130e-02" rms="4.0933009982109070e-01" purity="6.1397820711135864e-01" nType="0">
            <Node pos="l" depth="3" NCoef="0" IVar="-1" Cut="0.0000000000000000e+00" cType="1" res="-3.4092536661773920e-03" rms="4.0032771229743958e-01" purity="3.5644590854644775e-01" nType="-99"/>
            <Node pos="r" depth="3" NCoef="0" IVar="-1" Cut="0.0000000000000000e+00" cType="1" res="1.8136508297175169e-03" rms="4.0882122516632080e-01" purity="6.2795287370681763e-01" nType="-99"/>
          </Node>
          <Node pos="r" depth="2" NCoef="0" IVar="3" Cut="2.4585543823242188e+02" cType="1" res="-3.3583771437406540e-02" rms="3.8904806971549988e-01" purity="3.4467363357543945e-01" nType="0">
            <Node pos="l" depth="3" NCoef="0" IVar="-1" Cut="0.0000000000000000e+00" cType="1" res="-6.9058098597452044e-04" rms="3.8724106550216675e-01" purity="3.5176280140876770e-01" nType="-99"/>
            <Node pos="r" depth="3" NCoef="0" IVar="-1" Cut="0.0000000000000000e+00" cType="1" res="-5.3219906985759735e-03" rms="3.8919463753700256e-01" purity="3.2155868411064148e-01" nType="-99"/>
          </Node>
        </Node>
      </Node>
    </BinaryTree>
    <BinaryTree type="DecisionTree" boostWeight="1.0000000000000000e+00" itree="274">
      <Node pos="s" depth="0" NCoef="0" IVar="8" Cut="1.1998962163925171e+00" cType="1" res="9.6999434754252434e-03" rms="4.0004786849021912e-01" purity="5.0048035383224487e-01" nType="0">
        <Node pos="l" depth="1" NCoef="0" IVar="8" Cut="-8.9528858661651611e-01" cType="1" res="1.9626099616289139e-02" rms="4.0293386578559875e-01" purity="5.3285825252532959e-01" nType="0">
          <Node pos="l" depth="2" NCoef="0" IVar="3" Cut="2.4268443298339844e+02" cType="1" res="-3.8715884089469910e-02" rms="3.8590204715728760e-01" purity="3.6041966080665588e-01" nType="0">
            <Node pos="l" depth="3" NCoef="0" IVar="-1" Cut="0.0000000000000000e+00" cType="1" res="-9.5375219825655222e-04" rms="3.8426056504249573e-01" purity="3.6515587568283081e-01" nType="-99"/>
            <Node pos="r" depth="3" NCoef="0" IVar="-1" Cut="0.0000000000000000e+00" cType="1" res="-5.4491194896399975e-03" rms="3.8563331961631775e-01" purity="3.4631440043449402e-01" nType="-99"/>
          </Node>
          <Node pos="r" depth="2" NCoef="0" IVar="2" Cut="5.4261865234375000e+02" cType="1" res="3.6402203142642975e-02" rms="4.0615120530128479e-01" purity="5.8244264125823975e-01" nType="0">
            <Node pos="l" depth="3" NCoef="0" IVar="-1" Cut="0.0000000000000000e+00" cType="1" res="1.6453741118311882e-03" rms="4.0152475237846375e-01" purity="6.0418212413787842e-01" nType="-99"/>
            <Node pos="r" depth="3" NCoef="0" IVar="-1" Cut="0.0000000000000000e+00" cType="1" res="-4.0830965735949576e-04" rms="4.2802873253822327e-01" purity="4.5140400528907776e-01" nType="-99"/>
          </Node>
        </Node>
        <Node pos="r" depth="1" NCoef="0" IVar="7" Cut="-6.6676342487335205e-01" cType="1" res="-5.6663747876882553e-02" rms="3.7347260117530823e-01" purity="2.8400990366935730e-01" nType="0">
          <Node pos="l" depth="2" NCoef="0" IVar="-1" Cut="0.0000000000000000e+00" cType="1" res="-9.0179247781634331e-03" rms="3.0000481009483337e-01" purity="1.3763765990734100e-01" nType="-99"/>
          <Node pos="r" depth="2" NCoef="0" IVar="6" Cut="-3.8696926832199097e-01" cType="1" res="-3.7661988288164139e-02" rms="3.9034777879714966e-01" purity="3.2685789465904236e-01" nType="0">
            <Node pos="l" depth="3" NCoef="0" IVar="-1" Cut="0.0000000000000000e+00" cType="1" res="-5.6561399251222610e-03" rms="3.5557720065116882e-01" purity="2.2800619900226593e-01" nType="-99"/>
            <Node pos="r" depth="3" NCoef="0" IVar="-1" Cut="0.0000000000000000e+00" cType="1" res="-5.9912394499406219e-04" rms="4.0153619647026062e-01" purity="3.6814326047897339e-01" nType="-99"/>
          </Node>
        </Node>
      </Node>
    </BinaryTree>
    <BinaryTree type="DecisionTree" boostWeight="1.0000000000000000e+00" itree="275">
      <Node pos="s" depth="0" NCoef="0" IVar="8" Cut="1.1998864412307739e+00" cType="1" res="8.1505840644240379e-03" rms="4.0154722332954407e-01" purity="4.9591815471649170e-01" nType="0">
        <Node pos="l" depth="1" NCoef="0" IVar="8" Cut="-1.0857567787170410e+00" cType="1" res="1.8004767596721649e-02" rms="4.0412828326225281e-01" purity="5.2799659967422485e-01" nType="0">
          <Node pos="l" depth="2" NCoef="0" IVar="2" Cut="3.5405114746093750e+02" cType="1" res="-4.7363016754388809e-02" rms="3.8161548972129822e-01" purity="3.1602925062179565e-01" nType="0">
            <Node pos="l" depth="3" NCoef="0" IVar="-1" Cut="0.0000000000000000e+00" cType="1" res="-9.9262199364602566e-04" rms="3.9777192473411560e-01" purity="3.8213819265365601e-01" nType="-99"/>
            <Node pos="r" depth="3" NCoef="0" IVar="-1" Cut="0.0000000000000000e+00" cType="1" res="-5.1992558874189854e-03" rms="3.5691091418266296e-01" purity="2.2986508905887604e-01" nType="-99"/>
          </Node>
          <Node pos="r" depth="2" NCoef="0" IVar="0" Cut="1.1200750732421875e+03" cType="1" res="3.2189939171075821e-02" rms="4.0746760368347168e-01" purity="5.7399463653564453e-01" nType="0">
            <Node pos="l" depth="3" NCoef="0" IVar="-1" Cut="0.0000000000000000e+00" cType="1" res="-7.4630952440202236e-04" rms="4.3133842945098877e-01" purity="3.0979087948799133e-01" nType="-99"/>
            <Node pos="r" depth="3" NCoef="0" IVar="-1" Cut="0.0000000000000000e+00" cType="1" res="1.6010622493922710e-03" rms="4.0118789672851562e-01" purity="6.3096731901168823e-01" nType="-99"/>
          </Node>
        </Node>
        <Node pos="r" depth="1" NCoef="0" IVar="3" Cut="2.4024148559570312e+02" cType="1" res="-5.7598784565925598e-02" rms="3.7735185027122498e-01" purity="2.8188356757164001e-01" nType="0">
          <Node pos="l" depth="2" NCoef="0" IVar="8" Cut="1.8094002008438110e+00" cType="1" res="-4.0170591324567795e-02" rms="3.7675574421882629e-01" purity="2.8126123547554016e-01" nType="0">
            <Node pos="l" depth="3" NCoef="0" IVar="-1" Cut="0.0000000000000000e+00" cType="1" res="-6.3238089205697179e-04" rms="3.9963674545288086e-01" purity="3.4790545701980591e-01" nType="-99"/>
            <Node pos="r" depth="3" NCoef="0" IVar="-1" Cut="0.0000000000000000e+00" cType="1" res="-4.6930592507123947e-03" rms="3.3588874340057373e-01" purity="1.8119274079799652e-01" nType="-99"/>
          </Node>
          <Node pos="r" depth="2" NCoef="0" IVar="-1" Cut="0.0000000000000000e+00" cType="1" res="-6.8561518564820290e-03" rms="3.7441921234130859e-01" purity="2.8371629118919373e-01" nType="-99"/>
        </Node>
      </Node>
    </BinaryTree>
    <BinaryTree type="DecisionTree" boostWeight="1.0000000000000000e+00" itree="276">
      <Node pos="s" depth="0" NCoef="0" IVar="9" Cut="-1.1999505758285522e+00" cType="1" res="9.2500736936926842e-03" rms="3.9981812238693237e-01" purity="5.0229978561401367e-01" nType="0">
        <Node pos="l" depth="1" NCoef="0" IVar="9" Cut="-2.1142272949218750e+00" cType="1" res="-5.3159639239311218e-02" rms="3.8074487447738647e-01" purity="3.3535310626029968e-01" nType="0">
          <Node pos="l" depth="2" NCoef="0" IVar="-1" Cut="0.0000000000000000e+00" cType="1" res="-8.3409072831273079e-03" rms="3.2274401187896729e-01" purity="1.8574629724025726e-01" nType="-99"/>
          <Node pos="r" depth="2" NCoef="0" IVar="1" Cut="3.9765875244140625e+02" cType="1" res="-3.5783208906650543e-02" rms="3.9322796463966370e-01" purity="3.7596341967582703e-01" nType="0">
            <Node pos="l" depth="3" NCoef="0" IVar="-1" Cut="0.0000000000000000e+00" cType="1" res="-3.6698691546916962e-03" rms="3.6639437079429626e-01" purity="2.5291833281517029e-01" nType="-99"/>
            <Node pos="r" depth="3" NCoef="0" IVar="-1" Cut="0.0000000000000000e+00" cType="1" res="-4.9871641749632545e-06" rms="4.1867825388908386e-01" purity="5.1516622304916382e-01" nType="-99"/>
          </Node>
        </Node>
        <Node pos="r" depth="1" NCoef="0" IVar="9" Cut="8.9523625373840332e-01" cType="1" res="1.9495686516165733e-02" rms="4.0193811058998108e-01" purity="5.2970689535140991e-01" nType="0">
          <Node pos="l" depth="2" NCoef="0" IVar="0" Cut="1.1903520507812500e+03" cType="1" res="3.7571094930171967e-02" rms="4.0266957879066467e-01" purity="5.7559859752655029e-01" nType="0">
            <Node pos="l" depth="3" NCoef="0" IVar="-1" Cut="0.0000000000000000e+00" cType="1" res="-4.6057091094553471e-04" rms="4.3114531040191650e-01" purity="3.4360641241073608e-01" nType="-99"/>
            <Node pos="r" depth="3" NCoef="0" IVar="-1" Cut="0.0000000000000000e+00" cType="1" res="1.9343692110851407e-03" rms="3.9188593626022339e-01" purity="6.4913845062255859e-01" nType="-99"/>
          </Node>
          <Node pos="r" depth="2" NCoef="0" IVar="2" Cut="3.5405114746093750e+02" cType="1" res="-3.7094969302415848e-02" rms="3.9431741833686829e-01" purity="3.8602843880653381e-01" nType="0">
            <Node pos="l" depth="3" NCoef="0" IVar="-1" Cut="0.0000000000000000e+00" cType="1" res="-3.5615064552985132e-04" rms="4.0101367235183716e-01" purity="4.5569568872451782e-01" nType="-99"/>
            <Node pos="r" depth="3" NCoef="0" IVar="-1" Cut="0.0000000000000000e+00" cType="1" res="-4.0834206156432629e-03" rms="3.8271430134773254e-01" purity="2.9780626296997070e-01" nType="-99"/>
          </Node>
        </Node>
      </Node>
    </BinaryTree>
    <BinaryTree type="DecisionTree" boostWeight="1.0000000000000000e+00" itree="277">
      <Node pos="s" depth="0" NCoef="0" IVar="9" Cut="-9.3328028917312622e-01" cType="1" res="8.8086966425180435e-03" rms="4.0173724293708801e-01" purity="4.9869093298912048e-01" nType="0">
        <Node pos="l" depth="1" NCoef="0" IVar="2" Cut="3.4280041503906250e+02" cType="1" res="-3.9306104183197021e-02" rms="3.8950791954994202e-01" purity="3.7901854515075684e-01" nType="0">
          <Node pos="l" depth="2" NCoef="0" IVar="0" Cut="1.1844957275390625e+03" cType="1" res="-1.0989881120622158e-02" rms="3.9632248878479004e-01" purity="4.5354700088500977e-01" nType="0">
            <Node pos="l" depth="3" NCoef="0" IVar="-1" Cut="0.0000000000000000e+00" cType="1" res="-2.5991371367126703e-03" rms="3.8486856222152710e-01" purity="2.4077820777893066e-01" nType="-99"/>
            <Node pos="r" depth="3" NCoef="0" IVar="-1" Cut="0.0000000000000000e+00" cType="1" res="9.1159029398113489e-04" rms="4.0309569239616394e-01" purity="6.4887779951095581e-01" nType="-99"/>
          </Node>
          <Node pos="r" depth="2" NCoef="0" IVar="0" Cut="1.7238750000000000e+03" cType="1" res="-7.0663571357727051e-02" rms="3.7936121225357056e-01" purity="2.9648554325103760e-01" nType="0">
            <Node pos="l" depth="3" NCoef="0" IVar="-1" Cut="0.0000000000000000e+00" cType="1" res="-5.3882445208728313e-03" rms="3.5737022757530212e-01" purity="2.2511026263237000e-01" nType="-99"/>
            <Node pos="r" depth="3" NCoef="0" IVar="-1" Cut="0.0000000000000000e+00" cType="1" res="-1.3877344317734241e-03" rms="4.2759373784065247e-01" purity="4.7762715816497803e-01" nType="-99"/>
          </Node>
        </Node>
        <Node pos="r" depth="1" NCoef="0" IVar="9" Cut="8.4446185827255249e-01" cType="1" res="2.0897962152957916e-02" rms="4.0385177731513977e-01" purity="5.2875959873199463e-01" nType="0">
          <Node pos="l" depth="2" NCoef="0" IVar="0" Cut="1.1903520507812500e+03" cType="1" res="4.1164308786392212e-02" rms="4.0446862578392029e-01" purity="5.7948774099349976e-01" nType="0">
            <Node pos="l" depth="3" NCoef="0" IVar="-1" Cut="0.0000000000000000e+00" cType="1" res="-8.0561294453218579e-05" rms="4.3345078825950623e-01" purity="3.5308334231376648e-01" nType="-99"/>
            <Node pos="r" depth="3" NCoef="0" IVar="-1" Cut="0.0000000000000000e+00" cType="1" res="1.5226536197587848e-03" rms="3.9402464032173157e-01" purity="6.5008521080017090e-01" nType="-99"/>
          </Node>
          <Node pos="r" depth="2" NCoef="0" IVar="2" Cut="4.6522128295898438e+02" cType="1" res="-3.1406037509441376e-02" rms="3.9750942587852478e-01" purity="3.9783903956413269e-01" nType="0">
            <Node pos="l" depth="3" NCoef="0" IVar="-1" Cut="0.0000000000000000e+00" cType="1" res="-5.7509104954078794e-04" rms="4.0208330750465393e-01" purity="4.3740323185920715e-01" nType="-99"/>
            <Node pos="r" depth="3" NCoef="0" IVar="-1" Cut="0.0000000000000000e+00" cType="1" res="-6.5033920109272003e-03" rms="3.7343445420265198e-01" purity="2.5331860780715942e-01" nType="-99"/>
          </Node>
        </Node>
      </Node>
    </BinaryTree>
    <BinaryTree type="DecisionTree" boostWeight="1.0000000000000000e+00" itree="278">
      <Node pos="s" depth="0" NCoef="0" IVar="0" Cut="1.4630804443359375e+03" cType="1" res="8.9581711217761040e-03" rms="4.0105095505714417e-01" purity="4.9921330809593201e-01" nType="0">
        <Node pos="l" depth="1" NCoef="0" IVar="2" Cut="2.8752328491210938e+02" cType="1" res="-1.3315567746758461e-02" rms="4.0786266326904297e-01" purity="4.0278288722038269e-01" nType="0">
          <Node pos="l" depth="2" NCoef="0" IVar="0" Cut="1.1473459472656250e+03" cType="1" res="2.4588046595454216e-02" rms="4.1668421030044556e-01" purity="5.0950121879577637e-01" nType="0">
            <Node pos="l" depth="3" NCoef="0" IVar="-1" Cut="0.0000000000000000e+00" cType="1" res="-1.0014740983024240e-03" rms="4.2458719015121460e-01" purity="3.2105961441993713e-01" nType="-99"/>
            <Node pos="r" depth="3" NCoef="0" IVar="-1" Cut="0.0000000000000000e+00" cType="1" res="2.5463246274739504e-03" rms="4.0118181705474854e-01" purity="7.1311694383621216e-01" nType="-99"/>
          </Node>
          <Node pos="r" depth="2" NCoef="0" IVar="3" Cut="2.3329374694824219e+02" cType="1" res="-4.9887474626302719e-02" rms="3.9573982357978821e-01" purity="2.9981395602226257e-01" nType="0">
            <Node pos="l" depth="3" NCoef="0" IVar="-1" Cut="0.0000000000000000e+00" cType="1" res="-1.5872562071308494e-03" rms="3.9522618055343628e-01" purity="3.0405384302139282e-01" nType="-99"/>
            <Node pos="r" depth="3" NCoef="0" IVar="-1" Cut="0.0000000000000000e+00" cType="1" res="-6.0275970026850700e-03" rms="3.9246362447738647e-01" purity="2.8172940015792847e-01" nType="-99"/>
          </Node>
        </Node>
        <Node pos="r" depth="1" NCoef="0" IVar="2" Cut="5.4273535156250000e+02" cType="1" res="4.1200198233127594e-02" rms="3.8872626423835754e-01" purity="6.3879978656768799e-01" nType="0">
          <Node pos="l" depth="2" NCoef="0" IVar="3" Cut="2.4985884094238281e+02" cType="1" res="7.3744602501392365e-02" rms="3.6796522140502930e-01" purity="7.3802834749221802e-01" nType="0">
            <Node pos="l" depth="3" NCoef="0" IVar="-1" Cut="0.0000000000000000e+00" cType="1" res="4.1512344032526016e-03" rms="3.2855492830276489e-01" purity="8.2603502273559570e-01" nType="-99"/>
            <Node pos="r" depth="3" NCoef="0" IVar="-1" Cut="0.0000000000000000e+00" cType="1" res="1.1540927225723863e-03" rms="3.9955121278762817e-01" purity="6.4797908067703247e-01" nType="-99"/>
          </Node>
          <Node pos="r" depth="2" NCoef="0" IVar="1" Cut="6.3030993652343750e+02" cType="1" res="-3.1216511502861977e-02" rms="4.2244985699653625e-01" purity="4.1799992322921753e-01" nType="0">
            <Node pos="l" depth="3" NCoef="0" IVar="-1" Cut="0.0000000000000000e+00" cType="1" res="-4.3727019801735878e-03" rms="4.0506806969642639e-01" purity="3.0830514430999756e-01" nType="-99"/>
            <Node pos="r" depth="3" NCoef="0" IVar="-1" Cut="0.0000000000000000e+00" cType="1" res="1.9257483072578907e-03" rms="4.4305390119552612e-01" purity="6.5491122007369995e-01" nType="-99"/>
          </Node>
        </Node>
      </Node>
    </BinaryTree>
    <BinaryTree type="DecisionTree" boostWeight="1.0000000000000000e+00" itree="279">
      <Node pos="s" depth="0" NCoef="0" IVar="2" Cut="5.0809405517578125e+02" cType="1" res="1.1411366984248161e-02" rms="4.0328156948089600e-01" purity="5.0047290325164795e-01" nType="0">
        <Node pos="l" depth="1" NCoef="0" IVar="0" Cut="1.5355101318359375e+03" cType="1" res="2.3713858798146248e-02" rms="4.0082502365112305e-01" purity="5.2911055088043213e-01" nType="0">
          <Node pos="l" depth="2" NCoef="0" IVar="2" Cut="2.5869006347656250e+02" cType="1" res="2.2234804928302765e-03" rms="4.1209551692008972e-01" purity="4.4815701246261597e-01" nType="0">
            <Node pos="l" depth="3" NCoef="0" IVar="-1" Cut="0.0000000000000000e+00" cType="1" res="1.7553507350385189e-03" rms="4.1324019432067871e-01" purity="5.5607807636260986e-01" nType="-99"/>
            <Node pos="r" depth="3" NCoef="0" IVar="-1" Cut="0.0000000000000000e+00" cType="1" res="-9.9779304582625628e-04" rms="4.0918931365013123e-01" purity="3.9086288213729858e-01" nType="-99"/>
          </Node>
          <Node pos="r" depth="2" NCoef="0" IVar="3" Cut="2.6415945434570312e+02" cType="1" res="9.0441115200519562e-02" rms="3.5542410612106323e-01" purity="7.8046971559524536e-01" nType="0">
            <Node pos="l" depth="3" NCoef="0" IVar="-1" Cut="0.0000000000000000e+00" cType="1" res="4.7053722664713860e-03" rms="3.0591478943824768e-01" purity="8.6749398708343506e-01" nType="-99"/>
            <Node pos="r" depth="3" NCoef="0" IVar="-1" Cut="0.0000000000000000e+00" cType="1" res="1.4517764793708920e-03" rms="4.0021786093711853e-01" purity="6.7718011140823364e-01" nType="-99"/>
          </Node>
        </Node>
        <Node pos="r" depth="1" NCoef="0" IVar="1" Cut="5.5701464843750000e+02" cType="1" res="-4.7775391489267349e-02" rms="4.0976580977439880e-01" purity="3.6269846558570862e-01" nType="0">
          <Node pos="l" depth="2" NCoef="0" IVar="2" Cut="6.7850079345703125e+02" cType="1" res="-8.1671975553035736e-02" rms="3.8264495134353638e-01" purity="2.5196510553359985e-01" nType="0">
            <Node pos="l" depth="3" NCoef="0" IVar="-1" Cut="0.0000000000000000e+00" cType="1" res="-3.0507447663694620e-03" rms="3.8676783442497253e-01" purity="2.7591991424560547e-01" nType="-99"/>
            <Node pos="r" depth="3" NCoef="0" IVar="-1" Cut="0.0000000000000000e+00" cType="1" res="-1.3724628370255232e-03" rms="3.5672998428344727e-01" purity="1.8716271221637726e-01" nType="-99"/>
          </Node>
          <Node pos="r" depth="2" NCoef="0" IVar="3" Cut="2.4670126342773438e+02" cType="1" res="1.9986867904663086e-02" rms="4.5164310932159424e-01" purity="5.8406424522399902e-01" nType="0">
            <Node pos="l" depth="3" NCoef="0" IVar="-1" Cut="0.0000000000000000e+00" cType="1" res="2.5883386842906475e-03" rms="4.4140434265136719e-01" purity="6.2099570035934448e-01" nType="-99"/>
            <Node pos="r" depth="3" NCoef="0" IVar="-1" Cut="0.0000000000000000e+00" cType="1" res="-1.8808174645528197e-03" rms="4.5226874947547913e-01" purity="5.4643756151199341e-01" nType="-99"/>
          </Node>
        </Node>
      </Node>
    </BinaryTree>
    <BinaryTree type="DecisionTree" boostWeight="1.0000000000000000e+00" itree="280">
      <Node pos="s" depth="0" NCoef="0" IVar="2" Cut="6.0625183105468750e+02" cType="1" res="1.0938029736280441e-02" rms="4.0071499347686768e-01" purity="5.0280737876892090e-01" nType="0">
        <Node pos="l" depth="1" NCoef="0" IVar="0" Cut="1.5525422363281250e+03" cType="1" res="1.9764730706810951e-02" rms="3.9904466271400452e-01" purity="5.1761335134506226e-01" nType="0">
          <Node pos="l" depth="2" NCoef="0" IVar="2" Cut="2.5803692626953125e+02" cType="1" res="-2.5297484826296568e-03" rms="4.0718808770179749e-01" purity="4.4059851765632629e-01" nType="0">
            <Node pos="l" depth="3" NCoef="0" IVar="-1" Cut="0.0000000000000000e+00" cType="1" res="1.5405373414978385e-03" rms="4.0990221500396729e-01" purity="5.5458277463912964e-01" nType="-99"/>
            <Node pos="r" depth="3" NCoef="0" IVar="-1" Cut="0.0000000000000000e+00" cType="1" res="-1.0610891040414572e-03" rms="4.0403029322624207e-01" purity="3.8652941584587097e-01" nType="-99"/>
          </Node>
          <Node pos="r" depth="2" NCoef="0" IVar="3" Cut="2.7278353881835938e+02" cType="1" res="8.2966342568397522e-02" rms="3.6772394180297852e-01" purity="7.3593908548355103e-01" nType="0">
            <Node pos="l" depth="3" NCoef="0" IVar="-1" Cut="0.0000000000000000e+00" cType="1" res="4.2709424160420895e-03" rms="3.2637849450111389e-01" purity="8.2150411605834961e-01" nType="-99"/>
            <Node pos="r" depth="3" NCoef="0" IVar="-1" Cut="0.0000000000000000e+00" cType="1" res="1.3628024607896805e-03" rms="4.0758913755416870e-01" purity="6.3214236497879028e-01" nType="-99"/>
          </Node>
        </Node>
        <Node pos="r" depth="1" NCoef="0" IVar="1" Cut="6.0599224853515625e+02" cType="1" res="-7.2467826306819916e-02" rms="4.0682014822959900e-01" purity="3.6290165781974792e-01" nType="0">
          <Node pos="l" depth="2" NCoef="0" IVar="2" Cut="6.9282824707031250e+02" cType="1" res="-1.3475014269351959e-01" rms="3.6894825100898743e-01" purity="2.1599330008029938e-01" nType="0">
            <Node pos="l" depth="3" NCoef="0" IVar="-1" Cut="0.0000000000000000e+00" cType="1" res="-4.9053989350795746e-03" rms="3.7717807292938232e-01" purity="2.5448763370513916e-01" nType="-99"/>
            <Node pos="r" depth="3" NCoef="0" IVar="-1" Cut="0.0000000000000000e+00" cType="1" res="-8.7015447206795216e-04" rms="3.5104030370712280e-01" purity="1.8100434541702271e-01" nType="-99"/>
          </Node>
          <Node pos="r" depth="2" NCoef="0" IVar="-1" Cut="0.0000000000000000e+00" cType="1" res="1.2584837386384606e-03" rms="4.4566261768341064e-01" purity="6.2454563379287720e-01" nType="-99"/>
        </Node>
      </Node>
    </BinaryTree>
    <BinaryTree type="DecisionTree" boostWeight="1.0000000000000000e+00" itree="281">
      <Node pos="s" depth="0" NCoef="0" IVar="0" Cut="1.4630738525390625e+03" cType="1" res="8.9562367647886276e-03" rms="4.0185552835464478e-01" purity="4.9917167425155640e-01" nType="0">
        <Node pos="l" depth="1" NCoef="0" IVar="2" Cut="2.8804547119140625e+02" cType="1" res="-1.2617040425539017e-02" rms="4.0984499454498291e-01" purity="4.0339177846908569e-01" nType="0">
          <Node pos="l" depth="2" NCoef="0" IVar="0" Cut="1.1788691406250000e+03" cType="1" res="2.2693788632750511e-02" rms="4.2056447267532349e-01" purity="5.0892406702041626e-01" nType="0">
            <Node pos="l" depth="3" NCoef="0" IVar="-1" Cut="0.0000000000000000e+00" cType="1" res="-5.2954937564209104e-04" rms="4.2911723256111145e-01" purity="3.4656158089637756e-01" nType="-99"/>
            <Node pos="r" depth="3" NCoef="0" IVar="-1" Cut="0.0000000000000000e+00" cType="1" res="2.2606742568314075e-03" rms="4.0370669960975647e-01" purity="7.2429484128952026e-01" nType="-99"/>
          </Node>
          <Node pos="r" depth="2" NCoef="0" IVar="3" Cut="1.9146150207519531e+02" cType="1" res="-4.7261316329240799e-02" rms="3.9599984884262085e-01" purity="2.9985165596008301e-01" nType="0">
            <Node pos="l" depth="3" NCoef="0" IVar="-1" Cut="0.0000000000000000e+00" cType="1" res="-1.2005307944491506e-03" rms="3.9307701587677002e-01" purity="2.8992640972137451e-01" nType="-99"/>
            <Node pos="r" depth="3" NCoef="0" IVar="-1" Cut="0.0000000000000000e+00" cType="1" res="-3.7959644105285406e-03" rms="3.9842927455902100e-01" purity="3.1570699810981750e-01" nType="-99"/>
          </Node>
        </Node>
        <Node pos="r" depth="1" NCoef="0" IVar="2" Cut="5.4268450927734375e+02" cType="1" res="4.0486622601747513e-02" rms="3.8773086667060852e-01" purity="6.3915854692459106e-01" nType="0">
          <Node pos="l" depth="2" NCoef="0" IVar="3" Cut="2.7005307006835938e+02" cType="1" res="7.1704894304275513e-02" rms="3.6671355366706848e-01" purity="7.3918569087982178e-01" nType="0">
            <Node pos="l" depth="3" NCoef="0" IVar="-1" Cut="0.0000000000000000e+00" cType="1" res="3.8003600202500820e-03" rms="3.3175772428512573e-01" purity="8.1627786159515381e-01" nType="-99"/>
            <Node pos="r" depth="3" NCoef="0" IVar="-1" Cut="0.0000000000000000e+00" cType="1" res="6.7075982224196196e-04" rms="4.1103684902191162e-01" purity="6.1514240503311157e-01" nType="-99"/>
          </Node>
          <Node pos="r" depth="2" NCoef="0" IVar="1" Cut="6.3030249023437500e+02" cType="1" res="-3.0344862490892410e-02" rms="4.2318275570869446e-01" purity="4.1220602393150330e-01" nType="0">
            <Node pos="l" depth="3" NCoef="0" IVar="-1" Cut="0.0000000000000000e+00" cType="1" res="-3.9428672753274441e-03" rms="4.0782588720321655e-01" purity="3.1037408113479614e-01" nType="-99"/>
            <Node pos="r" depth="3" NCoef="0" IVar="-1" Cut="0.0000000000000000e+00" cType="1" res="1.6027821693569422e-03" rms="4.4537743926048279e-01" purity="6.4247304201126099e-01" nType="-99"/>
          </Node>
        </Node>
      </Node>
    </BinaryTree>
    <BinaryTree type="DecisionTree" boostWeight="1.0000000000000000e+00" itree="282">
      <Node pos="s" depth="0" NCoef="0" IVar="6" Cut="1.2030628919601440e+00" cType="1" res="7.2254119440913200e-03" rms="4.0116128325462341e-01" purity="4.9722400307655334e-01" nType="0">
        <Node pos="l" depth="1" NCoef="0" IVar="6" Cut="-6.9773840904235840e-01" cType="1" res="1.5441866591572762e-02" rms="4.0441319346427917e-01" purity="5.2545315027236938e-01" nType="0">
          <Node pos="l" depth="2" NCoef="0" IVar="6" Cut="-1.3946965932846069e+00" cType="1" res="-3.4262601286172867e-02" rms="3.8771215081214905e-01" purity="3.6608949303627014e-01" nType="0">
            <Node pos="l" depth="3" NCoef="0" IVar="-1" Cut="0.0000000000000000e+00" cType="1" res="-4.4690473005175591e-03" rms="3.4830552339553833e-01" purity="2.2323746979236603e-01" nType="-99"/>
            <Node pos="r" depth="3" NCoef="0" IVar="-1" Cut="0.0000000000000000e+00" cType="1" res="-6.3033134210854769e-04" rms="4.0415465831756592e-01" purity="4.3598407506942749e-01" nType="-99"/>
          </Node>
          <Node pos="r" depth="2" NCoef="0" IVar="0" Cut="1.1036948242187500e+03" cType="1" res="3.2145049422979355e-02" rms="4.0851745009422302e-01" purity="5.7900726795196533e-01" nType="0">
            <Node pos="l" depth="3" NCoef="0" IVar="-1" Cut="0.0000000000000000e+00" cType="1" res="-1.1652880348265171e-03" rms="4.3395212292671204e-01" purity="3.1924927234649658e-01" nType="-99"/>
            <Node pos="r" depth="3" NCoef="0" IVar="-1" Cut="0.0000000000000000e+00" cType="1" res="1.6141230007633567e-03" rms="4.0261495113372803e-01" purity="6.2663149833679199e-01" nType="-99"/>
          </Node>
        </Node>
        <Node pos="r" depth="1" NCoef="0" IVar="2" Cut="3.0352774047851562e+02" cType="1" res="-6.0779854655265808e-02" rms="3.6614850163459778e-01" purity="2.6357927918434143e-01" nType="0">
          <Node pos="l" depth="2" NCoef="0" IVar="-1" Cut="0.0000000000000000e+00" cType="1" res="-7.6533353421837091e-04" rms="3.9090517163276672e-01" purity="3.3564645051956177e-01" nType="-99"/>
          <Node pos="r" depth="2" NCoef="0" IVar="4" Cut="1.3201605224609375e+02" cType="1" res="-9.2394948005676270e-02" rms="3.4278765320777893e-01" purity="2.0879694819450378e-01" nType="0">
            <Node pos="l" depth="3" NCoef="0" IVar="-1" Cut="0.0000000000000000e+00" cType="1" res="-5.8353380300104618e-03" rms="3.1111362576484680e-01" purity="1.4347748458385468e-01" nType="-99"/>
            <Node pos="r" depth="3" NCoef="0" IVar="-1" Cut="0.0000000000000000e+00" cType="1" res="-6.9737881422042847e-03" rms="3.6800444126129150e-01" purity="2.6835688948631287e-01" nType="-99"/>
          </Node>
        </Node>
      </Node>
    </BinaryTree>
    <BinaryTree type="DecisionTree" boostWeight="1.0000000000000000e+00" itree="283">
      <Node pos="s" depth="0" NCoef="0" IVar="1" Cut="4.6515139770507812e+02" cType="1" res="1.1190029792487621e-02" rms="4.0125873684883118e-01" purity="5.0162547826766968e-01" nType="0">
        <Node pos="l" depth="1" NCoef="0" IVar="2" Cut="6.0412554931640625e+02" cType="1" res="-4.9359034746885300e-03" rms="4.0377911925315857e-01" purity="4.1708832979202271e-01" nType="0">
          <Node pos="l" depth="2" NCoef="0" IVar="0" Cut="1.5361365966796875e+03" cType="1" res="2.0331561099737883e-03" rms="4.0633660554885864e-01" purity="4.3130704760551453e-01" nType="0">
            <Node pos="l" depth="3" NCoef="0" IVar="-1" Cut="0.0000000000000000e+00" cType="1" res="-5.1808159332722425e-04" rms="4.0692439675331116e-01" purity="3.8850659132003784e-01" nType="-99"/>
            <Node pos="r" depth="3" NCoef="0" IVar="-1" Cut="0.0000000000000000e+00" cType="1" res="2.8346793260425329e-03" rms="3.9514169096946716e-01" purity="6.4884305000305176e-01" nType="-99"/>
          </Node>
          <Node pos="r" depth="2" NCoef="0" IVar="-1" Cut="0.0000000000000000e+00" cType="1" res="-1.2506626080721617e-03" rms="3.3213368058204651e-01" purity="1.6550023853778839e-01" nType="-99"/>
        </Node>
        <Node pos="r" depth="1" NCoef="0" IVar="3" Cut="3.3714654541015625e+02" cType="1" res="4.7200106084346771e-02" rms="3.9319235086441040e-01" purity="6.9040143489837646e-01" nType="0">
          <Node pos="l" depth="2" NCoef="0" IVar="0" Cut="2.0254949951171875e+03" cType="1" res="6.1024826020002365e-02" rms="3.8428112864494324e-01" purity="7.1149873733520508e-01" nType="0">
            <Node pos="l" depth="3" NCoef="0" IVar="-1" Cut="0.0000000000000000e+00" cType="1" res="1.8673865124583244e-03" rms="3.8392677903175354e-01" purity="7.0216912031173706e-01" nType="-99"/>
            <Node pos="r" depth="3" NCoef="0" IVar="-1" Cut="0.0000000000000000e+00" cType="1" res="3.9095426909625530e-03" rms="3.7955784797668457e-01" purity="7.7135610580444336e-01" nType="-99"/>
          </Node>
          <Node pos="r" depth="2" NCoef="0" IVar="-1" Cut="0.0000000000000000e+00" cType="1" res="-2.2863214835524559e-03" rms="4.3970656394958496e-01" purity="5.3774636983871460e-01" nType="-99"/>
        </Node>
      </Node>
    </BinaryTree>
    <BinaryTree type="DecisionTree" boostWeight="1.0000000000000000e+00" itree="284">
      <Node pos="s" depth="0" NCoef="0" IVar="8" Cut="1.1999832391738892e+00" cType="1" res="1.2085392139852047e-02" rms="4.0091821551322937e-01" purity="5.0421345233917236e-01" nType="0">
        <Node pos="l" depth="1" NCoef="0" IVar="8" Cut="-8.9521467685699463e-01" cType="1" res="2.1520931273698807e-02" rms="4.0311983227729797e-01" purity="5.3541690111160278e-01" nType="0">
          <Node pos="l" depth="2" NCoef="0" IVar="7" Cut="6.6627454757690430e-01" cType="1" res="-2.4707300588488579e-02" rms="3.8816496729850769e-01" purity="3.7531548738479614e-01" nType="0">
            <Node pos="l" depth="3" NCoef="0" IVar="-1" Cut="0.0000000000000000e+00" cType="1" res="-2.7469953056424856e-04" rms="3.9616715908050537e-01" purity="4.1836208105087280e-01" nType="-99"/>
            <Node pos="r" depth="3" NCoef="0" IVar="-1" Cut="0.0000000000000000e+00" cType="1" res="-4.6064630150794983e-03" rms="3.5320255160331726e-01" purity="2.3137940466403961e-01" nType="-99"/>
          </Node>
          <Node pos="r" depth="2" NCoef="0" IVar="2" Cut="6.1755902099609375e+02" cType="1" res="3.5210799425840378e-02" rms="4.0643531084060669e-01" purity="5.8282876014709473e-01" nType="0">
            <Node pos="l" depth="3" NCoef="0" IVar="-1" Cut="0.0000000000000000e+00" cType="1" res="1.5243089292198420e-03" rms="4.0326663851737976e-01" purity="5.9626889228820801e-01" nType="-99"/>
            <Node pos="r" depth="3" NCoef="0" IVar="-1" Cut="0.0000000000000000e+00" cType="1" res="-2.1065233740955591e-03" rms="4.3016961216926575e-01" purity="4.3907001614570618e-01" nType="-99"/>
          </Node>
        </Node>
        <Node pos="r" depth="1" NCoef="0" IVar="3" Cut="2.4036206054687500e+02" cType="1" res="-5.2509728819131851e-02" rms="3.7925574183464050e-01" purity="2.9059690237045288e-01" nType="0">
          <Node pos="l" depth="2" NCoef="0" IVar="1" Cut="3.9720361328125000e+02" cType="1" res="-3.4919563680887222e-02" rms="3.7474301457405090e-01" purity="2.9858908057212830e-01" nType="0">
            <Node pos="l" depth="3" NCoef="0" IVar="-1" Cut="0.0000000000000000e+00" cType="1" res="-3.2823313958942890e-03" rms="3.4581440687179565e-01" purity="2.0362873375415802e-01" nType="-99"/>
            <Node pos="r" depth="3" NCoef="0" IVar="-1" Cut="0.0000000000000000e+00" cType="1" res="9.4815164629835635e-05" rms="4.1015565395355225e-01" purity="4.3585470318794250e-01" nType="-99"/>
          </Node>
          <Node pos="r" depth="2" NCoef="0" IVar="-1" Cut="0.0000000000000000e+00" cType="1" res="-7.9946918413043022e-03" rms="3.8796070218086243e-01" purity="2.6538461446762085e-01" nType="-99"/>
        </Node>
      </Node>
    </BinaryTree>
    <BinaryTree type="DecisionTree" boostWeight="1.0000000000000000e+00" itree="285">
      <Node pos="s" depth="0" NCoef="0" IVar="7" Cut="1.2000453472137451e+00" cType="1" res="9.9317375570535660e-03" rms="4.0134912729263306e-01" purity="5.0048810243606567e-01" nType="0">
        <Node pos="l" depth="1" NCoef="0" IVar="7" Cut="-1.0856096744537354e+00" cType="1" res="1.9269969314336777e-02" rms="4.0527531504631042e-01" purity="5.3382545709609985e-01" nType="0">
          <Node pos="l" depth="2" NCoef="0" IVar="3" Cut="2.2644700622558594e+02" cType="1" res="-4.9328804016113281e-02" rms="3.6996459960937500e-01" purity="2.7863529324531555e-01" nType="0">
            <Node pos="l" depth="3" NCoef="0" IVar="-1" Cut="0.0000000000000000e+00" cType="1" res="-1.4941706322133541e-03" rms="3.6904323101043701e-01" purity="2.7806612849235535e-01" nType="-99"/>
            <Node pos="r" depth="3" NCoef="0" IVar="-1" Cut="0.0000000000000000e+00" cType="1" res="-6.0195345431566238e-03" rms="3.6767673492431641e-01" purity="2.8001841902732849e-01" nType="-99"/>
          </Node>
          <Node pos="r" depth="2" NCoef="0" IVar="8" Cut="9.3283724784851074e-01" cType="1" res="3.2305691391229630e-02" rms="4.1034841537475586e-01" purity="5.8231884241104126e-01" nType="0">
            <Node pos="l" depth="3" NCoef="0" IVar="-1" Cut="0.0000000000000000e+00" cType="1" res="1.5634255250915885e-03" rms="4.0717288851737976e-01" purity="6.1558711528778076e-01" nType="-99"/>
            <Node pos="r" depth="3" NCoef="0" IVar="-1" Cut="0.0000000000000000e+00" cType="1" res="-9.8414893727749586e-04" rms="4.2048415541648865e-01" purity="4.2533865571022034e-01" nType="-99"/>
          </Node>
        </Node>
        <Node pos="r" depth="1" NCoef="0" IVar="7" Cut="1.8857393264770508e+00" cType="1" res="-6.0553655028343201e-02" rms="3.6269879341125488e-01" purity="2.4885599315166473e-01" nType="0">
          <Node pos="l" depth="2" NCoef="0" IVar="6" Cut="4.6047306060791016e-01" cType="1" res="-4.2141791433095932e-02" rms="3.8340011239051819e-01" purity="2.9630720615386963e-01" nType="0">
            <Node pos="l" depth="3" NCoef="0" IVar="-1" Cut="0.0000000000000000e+00" cType="1" res="-1.0035425657406449e-03" rms="3.9889773726463318e-01" purity="3.3598524332046509e-01" nType="-99"/>
            <Node pos="r" depth="3" NCoef="0" IVar="-1" Cut="0.0000000000000000e+00" cType="1" res="-4.3155499733984470e-03" rms="3.5392972826957703e-01" purity="2.3190797865390778e-01" nType="-99"/>
          </Node>
          <Node pos="r" depth="2" NCoef="0" IVar="-1" Cut="0.0000000000000000e+00" cType="1" res="-7.4192523024976254e-03" rms="3.1014162302017212e-01" purity="1.4722260832786560e-01" nType="-99"/>
        </Node>
      </Node>
    </BinaryTree>
    <BinaryTree type="DecisionTree" boostWeight="1.0000000000000000e+00" itree="286">
      <Node pos="s" depth="0" NCoef="0" IVar="9" Cut="1.2000294923782349e+00" cType="1" res="8.6922869086265564e-03" rms="4.0201058983802795e-01" purity="5.0007981061935425e-01" nType="0">
        <Node pos="l" depth="1" NCoef="0" IVar="9" Cut="-1.2760168313980103e+00" cType="1" res="1.8506931141018867e-02" rms="4.0359961986541748e-01" purity="5.2665448188781738e-01" nType="0">
          <Node pos="l" depth="2" NCoef="0" IVar="2" Cut="3.3629077148437500e+02" cType="1" res="-5.0367489457130432e-02" rms="3.8440489768981934e-01" purity="3.2739377021789551e-01" nType="0">
            <Node pos="l" depth="3" NCoef="0" IVar="-1" Cut="0.0000000000000000e+00" cType="1" res="-5.5039720609784126e-04" rms="4.0071049332618713e-01" purity="4.1432929039001465e-01" nType="-99"/>
            <Node pos="r" depth="3" NCoef="0" IVar="-1" Cut="0.0000000000000000e+00" cType="1" res="-5.7818563655018806e-03" rms="3.6180600523948669e-01" purity="2.3449739813804626e-01" nType="-99"/>
          </Node>
          <Node pos="r" depth="2" NCoef="0" IVar="2" Cut="5.4261865234375000e+02" cType="1" res="3.0278505757451057e-02" rms="4.0562111139297485e-01" purity="5.6071084737777710e-01" nType="0">
            <Node pos="l" depth="3" NCoef="0" IVar="-1" Cut="0.0000000000000000e+00" cType="1" res="1.4513861387968063e-03" rms="4.0195372700691223e-01" purity="5.8303815126419067e-01" nType="-99"/>
            <Node pos="r" depth="3" NCoef="0" IVar="-1" Cut="0.0000000000000000e+00" cType="1" res="-3.2097203074954450e-04" rms="4.2180037498474121e-01" purity="4.3031585216522217e-01" nType="-99"/>
          </Node>
        </Node>
        <Node pos="r" depth="1" NCoef="0" IVar="7" Cut="-6.6642820835113525e-01" cType="1" res="-5.0896983593702316e-02" rms="3.8691657781600952e-01" purity="3.3873268961906433e-01" nType="0">
          <Node pos="l" depth="2" NCoef="0" IVar="-1" Cut="0.0000000000000000e+00" cType="1" res="-8.4978090599179268e-03" rms="3.1760790944099426e-01" purity="2.0790313184261322e-01" nType="-99"/>
          <Node pos="r" depth="2" NCoef="0" IVar="7" Cut="4.8902857303619385e-01" cType="1" res="-3.1535230576992035e-02" rms="4.0185987949371338e-01" purity="3.7494650483131409e-01" nType="0">
            <Node pos="l" depth="3" NCoef="0" IVar="-1" Cut="0.0000000000000000e+00" cType="1" res="-1.6088290067273192e-05" rms="4.2733120918273926e-01" purity="4.7305244207382202e-01" nType="-99"/>
            <Node pos="r" depth="3" NCoef="0" IVar="-1" Cut="0.0000000000000000e+00" cType="1" res="-2.9783523641526699e-03" rms="3.7404775619506836e-01" purity="2.8289952874183655e-01" nType="-99"/>
          </Node>
        </Node>
      </Node>
    </BinaryTree>
    <BinaryTree type="DecisionTree" boostWeight="1.0000000000000000e+00" itree="287">
      <Node pos="s" depth="0" NCoef="0" IVar="7" Cut="9.3334478139877319e-01" cType="1" res="1.0215720161795616e-02" rms="4.0132603049278259e-01" purity="5.0324642658233643e-01" nType="0">
        <Node pos="l" depth="1" NCoef="0" IVar="7" Cut="-8.4441465139389038e-01" cType="1" res="2.1916236728429794e-02" rms="4.0450933575630188e-01" purity="5.4380279779434204e-01" nType="0">
          <Node pos="l" depth="2" NCoef="0" IVar="9" Cut="9.3325680494308472e-01" cType="1" res="-3.5589799284934998e-02" rms="3.8103589415550232e-01" purity="3.4731352329254150e-01" nType="0">
            <Node pos="l" depth="3" NCoef="0" IVar="-1" Cut="0.0000000000000000e+00" cType="1" res="-1.0910150595009327e-03" rms="3.8776683807373047e-01" purity="3.7243872880935669e-01" nType="-99"/>
            <Node pos="r" depth="3" NCoef="0" IVar="-1" Cut="0.0000000000000000e+00" cType="1" res="-6.1347135342657566e-03" rms="3.4193915128707886e-01" purity="2.2872257232666016e-01" nType="-99"/>
          </Node>
          <Node pos="r" depth="2" NCoef="0" IVar="6" Cut="1.4783238172531128e+00" cType="1" res="3.9781276136636734e-02" rms="4.0988993644714355e-01" purity="6.0484492778778076e-01" nType="0">
            <Node pos="l" depth="3" NCoef="0" IVar="-1" Cut="0.0000000000000000e+00" cType="1" res="1.3701029820367694e-03" rms="4.1007056832313538e-01" purity="6.2371623516082764e-01" nType="-99"/>
            <Node pos="r" depth="3" NCoef="0" IVar="-1" Cut="0.0000000000000000e+00" cType="1" res="-3.4192977473139763e-03" rms="3.8959389925003052e-01" purity="2.8521046042442322e-01" nType="-99"/>
          </Node>
        </Node>
        <Node pos="r" depth="1" NCoef="0" IVar="7" Cut="1.6444510221481323e+00" cType="1" res="-4.6916920691728592e-02" rms="3.8026866316795349e-01" purity="3.0521312355995178e-01" nType="0">
          <Node pos="l" depth="2" NCoef="0" IVar="2" Cut="4.6537228393554688e+02" cType="1" res="-2.6492033153772354e-02" rms="4.0196740627288818e-01" purity="3.7461173534393311e-01" nType="0">
            <Node pos="l" depth="3" NCoef="0" IVar="-1" Cut="0.0000000000000000e+00" cType="1" res="-3.3610971877351403e-04" rms="4.0935167670249939e-01" purity="4.1689148545265198e-01" nType="-99"/>
            <Node pos="r" depth="3" NCoef="0" IVar="-1" Cut="0.0000000000000000e+00" cType="1" res="-6.5380563028156757e-03" rms="3.6729988455772400e-01" purity="2.2444854676723480e-01" nType="-99"/>
          </Node>
          <Node pos="r" depth="2" NCoef="0" IVar="3" Cut="1.9002774047851562e+02" cType="1" res="-8.8283888995647430e-02" rms="3.2813292741775513e-01" purity="1.6465860605239868e-01" nType="0">
            <Node pos="l" depth="3" NCoef="0" IVar="-1" Cut="0.0000000000000000e+00" cType="1" res="-5.2497400902211666e-03" rms="3.2123118638992310e-01" purity="1.3715896010398865e-01" nType="-99"/>
            <Node pos="r" depth="3" NCoef="0" IVar="-1" Cut="0.0000000000000000e+00" cType="1" res="-7.3489006608724594e-03" rms="3.3414864540100098e-01" purity="1.9495984911918640e-01" nType="-99"/>
          </Node>
        </Node>
      </Node>
    </BinaryTree>
    <BinaryTree type="DecisionTree" boostWeight="1.0000000000000000e+00" itree="288">
      <Node pos="s" depth="0" NCoef="0" IVar="6" Cut="6.7084026336669922e-01" cType="1" res="9.0439869090914726e-03" rms="4.0013623237609863e-01" purity="5.0206494331359863e-01" nType="0">
        <Node pos="l" depth="1" NCoef="0" IVar="6" Cut="-6.4704442024230957e-01" cType="1" res="2.4238698184490204e-02" rms="4.0098464488983154e-01" purity="5.4491096735000610e-01" nType="0">
          <Node pos="l" depth="2" NCoef="0" IVar="1" Cut="5.3484582519531250e+02" cType="1" res="-1.8322434276342392e-02" rms="3.9470955729484558e-01" purity="3.9624908566474915e-01" nType="0">
            <Node pos="l" depth="3" NCoef="0" IVar="-1" Cut="0.0000000000000000e+00" cType="1" res="-1.4658700674772263e-03" rms="3.8975334167480469e-01" purity="3.4505164623260498e-01" nType="-99"/>
            <Node pos="r" depth="3" NCoef="0" IVar="-1" Cut="0.0000000000000000e+00" cType="1" res="1.6668604221194983e-03" rms="4.1305252909660339e-01" purity="6.5780258178710938e-01" nType="-99"/>
          </Node>
          <Node pos="r" depth="2" NCoef="0" IVar="7" Cut="-1.4666193723678589e+00" cType="1" res="4.4350434094667435e-02" rms="4.0235263109207153e-01" purity="6.1515933275222778e-01" nType="0">
            <Node pos="l" depth="3" NCoef="0" IVar="-1" Cut="0.0000000000000000e+00" cType="1" res="-3.0804784037172794e-03" rms="3.7077119946479797e-01" purity="2.8012582659721375e-01" nType="-99"/>
            <Node pos="r" depth="3" NCoef="0" IVar="-1" Cut="0.0000000000000000e+00" cType="1" res="1.8559872405603528e-03" rms="4.0340948104858398e-01" purity="6.3853394985198975e-01" nType="-99"/>
          </Node>
        </Node>
        <Node pos="r" depth="1" NCoef="0" IVar="6" Cut="1.3804831504821777e+00" cType="1" res="-3.9904732257127762e-02" rms="3.9342057704925537e-01" purity="3.6403927206993103e-01" nType="0">
          <Node pos="l" depth="2" NCoef="0" IVar="2" Cut="4.4563290405273438e+02" cType="1" res="-1.9687276333570480e-02" rms="4.1377142071723938e-01" purity="4.3614861369132996e-01" nType="0">
            <Node pos="l" depth="3" NCoef="0" IVar="-1" Cut="0.0000000000000000e+00" cType="1" res="-1.7552835925016552e-04" rms="4.1575884819030762e-01" purity="4.7504281997680664e-01" nType="-99"/>
            <Node pos="r" depth="3" NCoef="0" IVar="-1" Cut="0.0000000000000000e+00" cType="1" res="-3.5343947820365429e-03" rms="4.0495780110359192e-01" purity="3.2497087121009827e-01" nType="-99"/>
          </Node>
          <Node pos="r" depth="2" NCoef="0" IVar="9" Cut="3.9955827593803406e-01" cType="1" res="-8.0531843006610870e-02" rms="3.4539479017257690e-01" purity="2.1913506090641022e-01" nType="0">
            <Node pos="l" depth="3" NCoef="0" IVar="-1" Cut="0.0000000000000000e+00" cType="1" res="-2.6704010087996721e-03" rms="3.6909830570220947e-01" purity="2.6718527078628540e-01" nType="-99"/>
            <Node pos="r" depth="3" NCoef="0" IVar="-1" Cut="0.0000000000000000e+00" cType="1" res="-8.7738540023565292e-03" rms="3.0271211266517639e-01" purity="1.4932714402675629e-01" nType="-99"/>
          </Node>
        </Node>
      </Node>
    </BinaryTree>
    <BinaryTree type="DecisionTree" boostWeight="1.0000000000000000e+00" itree="289">
      <Node pos="s" depth="0" NCoef="0" IVar="0" Cut="1.4570202636718750e+03" cType="1" res="1.2503793463110924e-02" rms="4.0124922990798950e-01" purity="5.0423783063888550e-01" nType="0">
        <Node pos="l" depth="1" NCoef="0" IVar="2" Cut="2.6218933105468750e+02" cType="1" res="-9.4607155770063400e-03" rms="4.0891119837760925e-01" purity="4.0677100419998169e-01" nType="0">
          <Node pos="l" depth="2" NCoef="0" IVar="0" Cut="1.0816030273437500e+03" cType="1" res="2.9669111594557762e-02" rms="4.1653653979301453e-01" purity="5.2077537775039673e-01" nType="0">
            <Node pos="l" depth="3" NCoef="0" IVar="-1" Cut="0.0000000000000000e+00" cType="1" res="-1.4678618172183633e-03" rms="4.1849264502525330e-01" purity="2.8930974006652832e-01" nType="-99"/>
            <Node pos="r" depth="3" NCoef="0" IVar="-1" Cut="0.0000000000000000e+00" cType="1" res="2.3743635974824429e-03" rms="4.0922230482101440e-01" purity="6.7770695686340332e-01" nType="-99"/>
          </Node>
          <Node pos="r" depth="2" NCoef="0" IVar="1" Cut="3.4287149047851562e+02" cType="1" res="-3.2537784427404404e-02" rms="4.0256762504577637e-01" purity="3.3953616023063660e-01" nType="0">
            <Node pos="l" depth="3" NCoef="0" IVar="-1" Cut="0.0000000000000000e+00" cType="1" res="-3.0562817119061947e-03" rms="3.7285947799682617e-01" purity="2.4874866008758545e-01" nType="-99"/>
            <Node pos="r" depth="3" NCoef="0" IVar="-1" Cut="0.0000000000000000e+00" cType="1" res="-6.4865144668146968e-04" rms="4.1792160272598267e-01" purity="3.9230087399482727e-01" nType="-99"/>
          </Node>
        </Node>
        <Node pos="r" depth="1" NCoef="0" IVar="2" Cut="5.4268450927734375e+02" cType="1" res="4.3203901499509811e-02" rms="3.8821119070053101e-01" purity="6.4046859741210938e-01" nType="0">
          <Node pos="l" depth="2" NCoef="0" IVar="3" Cut="2.6691308593750000e+02" cType="1" res="7.2718113660812378e-02" rms="3.6933958530426025e-01" purity="7.3885965347290039e-01" nType="0">
            <Node pos="l" depth="3" NCoef="0" IVar="-1" Cut="0.0000000000000000e+00" cType="1" res="3.6470764316618443e-03" rms="3.3827948570251465e-01" purity="8.1094676256179810e-01" nType="-99"/>
            <Node pos="r" depth="3" NCoef="0" IVar="-1" Cut="0.0000000000000000e+00" cType="1" res="1.0977542260661721e-03" rms="4.0660312771797180e-01" purity="6.3295972347259521e-01" nType="-99"/>
          </Node>
          <Node pos="r" depth="2" NCoef="0" IVar="1" Cut="6.8552935791015625e+02" cType="1" res="-2.4730436503887177e-02" rms="4.2070668935775757e-01" purity="4.1399696469306946e-01" nType="0">
            <Node pos="l" depth="3" NCoef="0" IVar="-1" Cut="0.0000000000000000e+00" cType="1" res="-3.1041523907333612e-03" rms="4.0994966030120850e-01" purity="3.3322742581367493e-01" nType="-99"/>
            <Node pos="r" depth="3" NCoef="0" IVar="-1" Cut="0.0000000000000000e+00" cType="1" res="2.1422447171062231e-03" rms="4.3930414319038391e-01" purity="6.6987586021423340e-01" nType="-99"/>
          </Node>
        </Node>
      </Node>
    </BinaryTree>
    <BinaryTree type="DecisionTree" boostWeight="1.0000000000000000e+00" itree="290">
      <Node pos="s" depth="0" NCoef="0" IVar="6" Cut="9.3695157766342163e-01" cType="1" res="9.6792075783014297e-03" rms="4.0032577514648438e-01" purity="5.0048339366912842e-01" nType="0">
        <Node pos="l" depth="1" NCoef="0" IVar="6" Cut="-6.5971845388412476e-01" cType="1" res="1.9795596599578857e-02" rms="4.0256714820861816e-01" purity="5.3769987821578979e-01" nType="0">
          <Node pos="l" depth="2" NCoef="0" IVar="1" Cut="5.1024871826171875e+02" cType="1" res="-2.8755869716405869e-02" rms="3.8986185193061829e-01" purity="3.7983885407447815e-01" nType="0">
            <Node pos="l" depth="3" NCoef="0" IVar="-1" Cut="0.0000000000000000e+00" cType="1" res="-2.1987971849739552e-03" rms="3.8271865248680115e-01" purity="3.1616795063018799e-01" nType="-99"/>
            <Node pos="r" depth="3" NCoef="0" IVar="-1" Cut="0.0000000000000000e+00" cType="1" res="1.2573641724884510e-03" rms="4.1184011101722717e-01" purity="6.4121222496032715e-01" nType="-99"/>
          </Node>
          <Node pos="r" depth="2" NCoef="0" IVar="2" Cut="6.0627319335937500e+02" cType="1" res="3.9253223687410355e-02" rms="4.0592107176780701e-01" purity="6.0096472501754761e-01" nType="0">
            <Node pos="l" depth="3" NCoef="0" IVar="-1" Cut="0.0000000000000000e+00" cType="1" res="1.7458065412938595e-03" rms="4.0243721008300781e-01" purity="6.2055194377899170e-01" nType="-99"/>
            <Node pos="r" depth="3" NCoef="0" IVar="-1" Cut="0.0000000000000000e+00" cType="1" res="-5.9435033472254872e-04" rms="4.2640012502670288e-01" purity="4.2431959509849548e-01" nType="-99"/>
          </Node>
        </Node>
        <Node pos="r" depth="1" NCoef="0" IVar="3" Cut="1.8596209716796875e+02" cType="1" res="-4.2105913162231445e-02" rms="3.8450387120246887e-01" purity="3.0997478961944580e-01" nType="0">
          <Node pos="l" depth="2" NCoef="0" IVar="0" Cut="1.2413337402343750e+03" cType="1" res="-7.3322560638189316e-03" rms="3.8005492091178894e-01" purity="2.7719309926033020e-01" nType="0">
            <Node pos="l" depth="3" NCoef="0" IVar="-1" Cut="0.0000000000000000e+00" cType="1" res="-2.0382276270538568e-03" rms="3.5761123895645142e-01" purity="1.8515148758888245e-01" nType="-99"/>
            <Node pos="r" depth="3" NCoef="0" IVar="-1" Cut="0.0000000000000000e+00" cType="1" res="1.6172620235010982e-03" rms="4.1334885358810425e-01" purity="4.4522243738174438e-01" nType="-99"/>
          </Node>
          <Node pos="r" depth="2" NCoef="0" IVar="0" Cut="1.5857733154296875e+03" cType="1" res="-7.3384530842304230e-02" rms="3.8579374551773071e-01" purity="3.3946174383163452e-01" nType="0">
            <Node pos="l" depth="3" NCoef="0" IVar="-1" Cut="0.0000000000000000e+00" cType="1" res="-7.0979772135615349e-03" rms="3.5920158028602600e-01" purity="2.3700970411300659e-01" nType="-99"/>
            <Node pos="r" depth="3" NCoef="0" IVar="-1" Cut="0.0000000000000000e+00" cType="1" res="-7.1303315053228289e-05" rms="4.1219374537467957e-01" purity="4.9281087517738342e-01" nType="-99"/>
          </Node>
        </Node>
      </Node>
    </BinaryTree>
    <BinaryTree type="DecisionTree" boostWeight="1.0000000000000000e+00" itree="291">
      <Node pos="s" depth="0" NCoef="0" IVar="2" Cut="6.6213214111328125e+02" cType="1" res="6.8812342360615730e-03" rms="4.0202856063842773e-01" purity="4.9667742848396301e-01" nType="0">
        <Node pos="l" depth="1" NCoef="0" IVar="0" Cut="1.6751005859375000e+03" cType="1" res="1.3887859880924225e-02" rms="4.0028685331344604e-01" purity="5.0644165277481079e-01" nType="0">
          <Node pos="l" depth="2" NCoef="0" IVar="2" Cut="2.8802722167968750e+02" cType="1" res="-3.6343447864055634e-03" rms="4.0442687273025513e-01" purity="4.5491960644721985e-01" nType="0">
            <Node pos="l" depth="3" NCoef="0" IVar="-1" Cut="0.0000000000000000e+00" cType="1" res="1.1714699212461710e-03" rms="4.0694183111190796e-01" purity="5.5287361145019531e-01" nType="-99"/>
            <Node pos="r" depth="3" NCoef="0" IVar="-1" Cut="0.0000000000000000e+00" cType="1" res="-1.3879506150260568e-03" rms="4.0036049485206604e-01" purity="3.8030165433883667e-01" nType="-99"/>
          </Node>
          <Node pos="r" depth="2" NCoef="0" IVar="3" Cut="3.2310360717773438e+02" cType="1" res="9.4266965985298157e-02" rms="3.7024009227752686e-01" purity="7.4278712272644043e-01" nType="0">
            <Node pos="l" depth="3" NCoef="0" IVar="-1" Cut="0.0000000000000000e+00" cType="1" res="4.2065260931849480e-03" rms="3.3783912658691406e-01" purity="8.0777871608734131e-01" nType="-99"/>
            <Node pos="r" depth="3" NCoef="0" IVar="-1" Cut="0.0000000000000000e+00" cType="1" res="1.2318149674683809e-03" rms="4.2605933547019958e-01" purity="6.0147237777709961e-01" nType="-99"/>
          </Node>
        </Node>
        <Node pos="r" depth="1" NCoef="0" IVar="1" Cut="6.3031463623046875e+02" cType="1" res="-8.7670080363750458e-02" rms="4.1337853670120239e-01" purity="3.6491370201110840e-01" nType="0">
          <Node pos="l" depth="2" NCoef="0" IVar="-1" Cut="0.0000000000000000e+00" cType="1" res="-9.1967236949130893e-04" rms="3.7060225009918213e-01" purity="2.1478897333145142e-01" nType="-99"/>
          <Node pos="r" depth="2" NCoef="0" IVar="-1" Cut="0.0000000000000000e+00" cType="1" res="8.8953349040821195e-04" rms="4.5321282744407654e-01" purity="6.1456304788589478e-01" nType="-99"/>
        </Node>
      </Node>
    </BinaryTree>
    <BinaryTree type="DecisionTree" boostWeight="1.0000000000000000e+00" itree="292">
      <Node pos="s" depth="0" NCoef="0" IVar="9" Cut="1.4666687250137329e+00" cType="1" res="1.0411253198981285e-02" rms="3.9866548776626587e-01" purity="5.0443530082702637e-01" nType="0">
        <Node pos="l" depth="1" NCoef="0" IVar="9" Cut="-9.7131401300430298e-01" cType="1" res="1.8348613753914833e-02" rms="4.0065231919288635e-01" purity="5.2661979198455811e-01" nType="0">
          <Node pos="l" depth="2" NCoef="0" IVar="9" Cut="-1.9290893077850342e+00" cType="1" res="-3.5304479300975800e-02" rms="3.8857701420783997e-01" purity="3.7997925281524658e-01" nType="0">
            <Node pos="l" depth="3" NCoef="0" IVar="-1" Cut="0.0000000000000000e+00" cType="1" res="-6.2700607813894749e-03" rms="3.5116690397262573e-01" purity="2.1940800547599792e-01" nType="-99"/>
            <Node pos="r" depth="3" NCoef="0" IVar="-1" Cut="0.0000000000000000e+00" cType="1" res="-7.8533362830057740e-04" rms="3.9748108386993408e-01" purity="4.2841950058937073e-01" nType="-99"/>
          </Node>
          <Node pos="r" depth="2" NCoef="0" IVar="2" Cut="6.0625952148437500e+02" cType="1" res="3.2626807689666748e-02" rms="4.0260219573974609e-01" purity="5.6564384698867798e-01" nType="0">
            <Node pos="l" depth="3" NCoef="0" IVar="-1" Cut="0.0000000000000000e+00" cType="1" res="1.5032186638563871e-03" rms="3.9969483017921448e-01" purity="5.8149123191833496e-01" nType="-99"/>
            <Node pos="r" depth="3" NCoef="0" IVar="-1" Cut="0.0000000000000000e+00" cType="1" res="-6.7972351098433137e-04" rms="4.2031714320182800e-01" purity="4.1791188716888428e-01" nType="-99"/>
          </Node>
        </Node>
        <Node pos="r" depth="1" NCoef="0" IVar="0" Cut="1.3222603759765625e+03" cType="1" res="-6.2421638518571854e-02" rms="3.7212771177291870e-01" purity="3.0087122321128845e-01" nType="0">
          <Node pos="l" depth="2" NCoef="0" IVar="-1" Cut="0.0000000000000000e+00" cType="1" res="-4.1954643093049526e-03" rms="3.5081368684768677e-01" purity="2.0005585253238678e-01" nType="-99"/>
          <Node pos="r" depth="2" NCoef="0" IVar="-1" Cut="0.0000000000000000e+00" cType="1" res="-1.8191651906818151e-03" rms="3.9349606633186340e-01" purity="4.1570895910263062e-01" nType="-99"/>
        </Node>
      </Node>
    </BinaryTree>
    <BinaryTree type="DecisionTree" boostWeight="1.0000000000000000e+00" itree="293">
      <Node pos="s" depth="0" NCoef="0" IVar="8" Cut="1.7331843376159668e+00" cType="1" res="1.4336565509438515e-02" rms="4.0148672461509705e-01" purity="5.0567853450775146e-01" nType="0">
        <Node pos="l" depth="1" NCoef="0" IVar="8" Cut="-1.0730593204498291e+00" cType="1" res="2.0212279632687569e-02" rms="4.0418967604637146e-01" purity="5.2407461404800415e-01" nType="0">
          <Node pos="l" depth="2" NCoef="0" IVar="3" Cut="2.5009501647949219e+02" cType="1" res="-4.1315540671348572e-02" rms="3.8370653986930847e-01" purity="3.2197999954223633e-01" nType="0">
            <Node pos="l" depth="3" NCoef="0" IVar="-1" Cut="0.0000000000000000e+00" cType="1" res="-1.3574021868407726e-03" rms="3.8133779168128967e-01" purity="3.2717415690422058e-01" nType="-99"/>
            <Node pos="r" depth="3" NCoef="0" IVar="-1" Cut="0.0000000000000000e+00" cType="1" res="-5.7093934156000614e-03" rms="3.8807368278503418e-01" purity="3.0342924594879150e-01" nType="-99"/>
          </Node>
          <Node pos="r" depth="2" NCoef="0" IVar="7" Cut="1.4666014909744263e+00" cType="1" res="3.2149072736501694e-02" rms="4.0696847438812256e-01" purity="5.6328219175338745e-01" nType="0">
            <Node pos="l" depth="3" NCoef="0" IVar="-1" Cut="0.0000000000000000e+00" cType="1" res="1.3955623144283891e-03" rms="4.0873163938522339e-01" purity="5.8722603321075439e-01" nType="-99"/>
            <Node pos="r" depth="3" NCoef="0" IVar="-1" Cut="0.0000000000000000e+00" cType="1" res="-2.6112075429409742e-03" rms="3.7475135922431946e-01" purity="2.6058474183082581e-01" nType="-99"/>
          </Node>
        </Node>
        <Node pos="r" depth="1" NCoef="0" IVar="8" Cut="2.0379412174224854e+00" cType="1" res="-8.2180254161357880e-02" rms="3.3990764617919922e-01" purity="2.0349764823913574e-01" nType="0">
          <Node pos="l" depth="2" NCoef="0" IVar="-1" Cut="0.0000000000000000e+00" cType="1" res="-3.3050603233277798e-03" rms="3.6406019330024719e-01" purity="2.5221943855285645e-01" nType="-99"/>
          <Node pos="r" depth="2" NCoef="0" IVar="-1" Cut="0.0000000000000000e+00" cType="1" res="-6.9079659879207611e-03" rms="3.1820210814476013e-01" purity="1.6457661986351013e-01" nType="-99"/>
        </Node>
      </Node>
    </BinaryTree>
    <BinaryTree type="DecisionTree" boostWeight="1.0000000000000000e+00" itree="294">
      <Node pos="s" depth="0" NCoef="0" IVar="7" Cut="-1.4665675163269043e+00" cType="1" res="1.0030329227447510e-02" rms="4.0006121993064880e-01" purity="5.0171321630477905e-01" nType="0">
        <Node pos="l" depth="1" NCoef="0" IVar="3" Cut="2.1182403564453125e+02" cType="1" res="-7.2573348879814148e-02" rms="3.3013373613357544e-01" purity="2.0473675429821014e-01" nType="0">
          <Node pos="l" depth="2" NCoef="0" IVar="-1" Cut="0.0000000000000000e+00" cType="1" res="-3.2284618355333805e-03" rms="3.3109959959983826e-01" purity="1.9645631313323975e-01" nType="-99"/>
          <Node pos="r" depth="2" NCoef="0" IVar="-1" Cut="0.0000000000000000e+00" cType="1" res="-6.6302795894443989e-03" rms="3.2528913021087646e-01" purity="2.2005411982536316e-01" nType="-99"/>
        </Node>
        <Node pos="r" depth="1" NCoef="0" IVar="7" Cut="7.6831197738647461e-01" cType="1" res="1.7287531867623329e-02" rms="4.0482440590858459e-01" purity="5.2780431509017944e-01" nType="0">
          <Node pos="l" depth="2" NCoef="0" IVar="2" Cut="3.7132150268554688e+02" cType="1" res="3.1657483428716660e-02" rms="4.0799155831336975e-01" purity="5.8000648021697998e-01" nType="0">
            <Node pos="l" depth="3" NCoef="0" IVar="-1" Cut="0.0000000000000000e+00" cType="1" res="1.8098795553669333e-03" rms="3.9719697833061218e-01" purity="6.4158368110656738e-01" nType="-99"/>
            <Node pos="r" depth="3" NCoef="0" IVar="-1" Cut="0.0000000000000000e+00" cType="1" res="2.8772874429705553e-06" rms="4.2210099101066589e-01" purity="4.8536166548728943e-01" nType="-99"/>
          </Node>
          <Node pos="r" depth="2" NCoef="0" IVar="3" Cut="2.8331896972656250e+02" cType="1" res="-2.9728803783655167e-02" rms="3.9060711860656738e-01" purity="3.5700657963752747e-01" nType="0">
            <Node pos="l" depth="3" NCoef="0" IVar="-1" Cut="0.0000000000000000e+00" cType="1" res="-7.9464801819995046e-04" rms="3.9272841811180115e-01" purity="3.6718621850013733e-01" nType="-99"/>
            <Node pos="r" depth="3" NCoef="0" IVar="-1" Cut="0.0000000000000000e+00" cType="1" res="-6.4069163054227829e-03" rms="3.6828264594078064e-01" purity="2.9638808965682983e-01" nType="-99"/>
          </Node>
        </Node>
      </Node>
    </BinaryTree>
    <BinaryTree type="DecisionTree" boostWeight="1.0000000000000000e+00" itree="295">
      <Node pos="s" depth="0" NCoef="0" IVar="0" Cut="1.4630610351562500e+03" cType="1" res="9.2207649722695351e-03" rms="3.9970836043357849e-01" purity="5.0324809551239014e-01" nType="0">
        <Node pos="l" depth="1" NCoef="0" IVar="2" Cut="2.8030688476562500e+02" cType="1" res="-1.3337181881070137e-02" rms="4.0502715110778809e-01" purity="4.0925097465515137e-01" nType="0">
          <Node pos="l" depth="2" NCoef="0" IVar="0" Cut="1.0841770019531250e+03" cType="1" res="2.4529211223125458e-02" rms="4.1505157947540283e-01" purity="5.2233815193176270e-01" nType="0">
            <Node pos="l" depth="3" NCoef="0" IVar="-1" Cut="0.0000000000000000e+00" cType="1" res="-1.1375518515706062e-03" rms="4.1778782010078430e-01" purity="2.9189142584800720e-01" nType="-99"/>
            <Node pos="r" depth="3" NCoef="0" IVar="-1" Cut="0.0000000000000000e+00" cType="1" res="1.8628772813826799e-03" rms="4.1003295779228210e-01" purity="6.6397809982299805e-01" nType="-99"/>
          </Node>
          <Node pos="r" depth="2" NCoef="0" IVar="3" Cut="1.7286404418945312e+02" cType="1" res="-4.6055633574724197e-02" rms="3.9323577284812927e-01" purity="3.1153804063796997e-01" nType="0">
            <Node pos="l" depth="3" NCoef="0" IVar="-1" Cut="0.0000000000000000e+00" cType="1" res="-8.2614750135689974e-04" rms="3.8820707798004150e-01" purity="2.9695990681648254e-01" nType="-99"/>
            <Node pos="r" depth="3" NCoef="0" IVar="-1" Cut="0.0000000000000000e+00" cType="1" res="-3.7297245580703020e-03" rms="3.9651569724082947e-01" purity="3.2765185832977295e-01" nType="-99"/>
          </Node>
        </Node>
        <Node pos="r" depth="1" NCoef="0" IVar="2" Cut="5.0815478515625000e+02" cType="1" res="4.2198579758405685e-02" rms="3.8945859670639038e-01" purity="6.4066392183303833e-01" nType="0">
          <Node pos="l" depth="2" NCoef="0" IVar="3" Cut="2.2115501403808594e+02" cType="1" res="7.2964131832122803e-02" rms="3.6286595463752747e-01" purity="7.5762510299682617e-01" nType="0">
            <Node pos="l" depth="3" NCoef="0" IVar="-1" Cut="0.0000000000000000e+00" cType="1" res="4.4762482866644859e-03" rms="3.0711111426353455e-01" purity="8.5534006357192993e-01" nType="-99"/>
            <Node pos="r" depth="3" NCoef="0" IVar="-1" Cut="0.0000000000000000e+00" cType="1" res="1.7472385661676526e-03" rms="3.8477817177772522e-01" purity="7.0921701192855835e-01" nType="-99"/>
          </Node>
          <Node pos="r" depth="2" NCoef="0" IVar="0" Cut="2.0629511718750000e+03" cType="1" res="-1.1267401278018951e-02" rms="4.2654713988304138e-01" purity="4.3740269541740417e-01" nType="0">
            <Node pos="l" depth="3" NCoef="0" IVar="-1" Cut="0.0000000000000000e+00" cType="1" res="-2.2335785906761885e-03" rms="4.1526421904563904e-01" purity="3.3979004621505737e-01" nType="-99"/>
            <Node pos="r" depth="3" NCoef="0" IVar="-1" Cut="0.0000000000000000e+00" cType="1" res="1.4558825641870499e-03" rms="4.4108200073242188e-01" purity="6.1159574985504150e-01" nType="-99"/>
          </Node>
        </Node>
      </Node>
    </BinaryTree>
    <BinaryTree type="DecisionTree" boostWeight="1.0000000000000000e+00" itree="296">
      <Node pos="s" depth="0" NCoef="0" IVar="6" Cut="-9.2582744359970093e-01" cType="1" res="1.0127605870366096e-02" rms="4.0118926763534546e-01" purity="5.0110226869583130e-01" nType="0">
        <Node pos="l" depth="1" NCoef="0" IVar="6" Cut="-1.5467559099197388e+00" cType="1" res="-4.8069741576910019e-02" rms="3.7551307678222656e-01" purity="3.0231353640556335e-01" nType="0">
          <Node pos="l" depth="2" NCoef="0" IVar="5" Cut="9.2907386779785156e+01" cType="1" res="-9.1577656567096710e-02" rms="3.3116880059242249e-01" purity="1.8824172019958496e-01" nType="0">
            <Node pos="l" depth="3" NCoef="0" IVar="-1" Cut="0.0000000000000000e+00" cType="1" res="-5.3154751658439636e-03" rms="2.9567015171051025e-01" purity="1.2543398141860962e-01" nType="-99"/>
            <Node pos="r" depth="3" NCoef="0" IVar="-1" Cut="0.0000000000000000e+00" cType="1" res="-6.4842561259865761e-03" rms="3.6308249831199646e-01" purity="2.5571176409721375e-01" nType="-99"/>
          </Node>
          <Node pos="r" depth="2" NCoef="0" IVar="7" Cut="4.0047901868820190e-01" cType="1" res="-2.5024794042110443e-02" rms="3.9506313204765320e-01" purity="3.6273428797721863e-01" nType="0">
            <Node pos="l" depth="3" NCoef="0" IVar="-1" Cut="0.0000000000000000e+00" cType="1" res="2.6030636945506558e-05" rms="4.0513226389884949e-01" purity="4.1924864053726196e-01" nType="-99"/>
            <Node pos="r" depth="3" NCoef="0" IVar="-1" Cut="0.0000000000000000e+00" cType="1" res="-5.2876891568303108e-03" rms="3.6471647024154663e-01" purity="2.3498296737670898e-01" nType="-99"/>
          </Node>
        </Node>
        <Node pos="r" depth="1" NCoef="0" IVar="2" Cut="6.0625231933593750e+02" cType="1" res="2.1131472662091255e-02" rms="4.0492233633995056e-01" purity="5.3868895769119263e-01" nType="0">
          <Node pos="l" depth="2" NCoef="0" IVar="0" Cut="1.5504436035156250e+03" cType="1" res="2.9569435864686966e-02" rms="4.0294063091278076e-01" purity="5.5452752113342285e-01" nType="0">
            <Node pos="l" depth="3" NCoef="0" IVar="-1" Cut="0.0000000000000000e+00" cType="1" res="4.0402758168056607e-04" rms="4.1563388705253601e-01" purity="4.7972768545150757e-01" nType="-99"/>
            <Node pos="r" depth="3" NCoef="0" IVar="-1" Cut="0.0000000000000000e+00" cType="1" res="2.9564278665930033e-03" rms="3.6160692572593689e-01" purity="7.5606465339660645e-01" nType="-99"/>
          </Node>
          <Node pos="r" depth="2" NCoef="0" IVar="1" Cut="5.5701464843750000e+02" cType="1" res="-5.8986101299524307e-02" rms="4.1481080651283264e-01" purity="3.8830354809761047e-01" nType="0">
            <Node pos="l" depth="3" NCoef="0" IVar="-1" Cut="0.0000000000000000e+00" cType="1" res="-1.3517389306798577e-03" rms="3.7507086992263794e-01" purity="2.1839384734630585e-01" nType="-99"/>
            <Node pos="r" depth="3" NCoef="0" IVar="-1" Cut="0.0000000000000000e+00" cType="1" res="6.3880631932988763e-04" rms="4.4634413719177246e-01" purity="5.9464895725250244e-01" nType="-99"/>
          </Node>
        </Node>
      </Node>
    </BinaryTree>
    <BinaryTree type="DecisionTree" boostWeight="1.0000000000000000e+00" itree="297">
      <Node pos="s" depth="0" NCoef="0" IVar="8" Cut="-1.7333366870880127e+00" cType="1" res="1.3055870309472084e-02" rms="3.9978215098381042e-01" purity="5.0818550586700439e-01" nType="0">
        <Node pos="l" depth="1" NCoef="0" IVar="8" Cut="-2.0381047725677490e+00" cType="1" res="-9.0103916823863983e-02" rms="3.3663973212242126e-01" purity="1.9733773171901703e-01" nType="0">
          <Node pos="l" depth="2" NCoef="0" IVar="-1" Cut="0.0000000000000000e+00" cType="1" res="-8.4385294467210770e-03" rms="3.1927576661109924e-01" purity="1.5526920557022095e-01" nType="-99"/>
          <Node pos="r" depth="2" NCoef="0" IVar="-1" Cut="0.0000000000000000e+00" cType="1" res="-3.7973003927618265e-03" rms="3.5486423969268799e-01" purity="2.4716112017631531e-01" nType="-99"/>
        </Node>
        <Node pos="r" depth="1" NCoef="0" IVar="7" Cut="9.3326783180236816e-01" cType="1" res="1.9110439345240593e-02" rms="4.0236008167266846e-01" purity="5.2642953395843506e-01" nType="0">
          <Node pos="l" depth="2" NCoef="0" IVar="7" Cut="-6.6668492555618286e-01" cType="1" res="2.9658321291208267e-02" rms="4.0604457259178162e-01" purity="5.6573444604873657e-01" nType="0">
            <Node pos="l" depth="3" NCoef="0" IVar="-1" Cut="0.0000000000000000e+00" cType="1" res="-8.5809687152504921e-04" rms="3.9752495288848877e-01" purity="4.0705549716949463e-01" nType="-99"/>
            <Node pos="r" depth="3" NCoef="0" IVar="-1" Cut="0.0000000000000000e+00" cType="1" res="1.7597228288650513e-03" rms="4.0777820348739624e-01" purity="6.3120234012603760e-01" nType="-99"/>
          </Node>
          <Node pos="r" depth="2" NCoef="0" IVar="3" Cut="2.5382514953613281e+02" cType="1" res="-3.3193845301866531e-02" rms="3.7925747036933899e-01" purity="3.3152601122856140e-01" nType="0">
            <Node pos="l" depth="3" NCoef="0" IVar="-1" Cut="0.0000000000000000e+00" cType="1" res="-7.6503114541992545e-04" rms="3.7911024689674377e-01" purity="3.4153926372528076e-01" nType="-99"/>
            <Node pos="r" depth="3" NCoef="0" IVar="-1" Cut="0.0000000000000000e+00" cType="1" res="-5.9815370477735996e-03" rms="3.7277969717979431e-01" purity="2.9452353715896606e-01" nType="-99"/>
          </Node>
        </Node>
      </Node>
    </BinaryTree>
    <BinaryTree type="DecisionTree" boostWeight="1.0000000000000000e+00" itree="298">
      <Node pos="s" depth="0" NCoef="0" IVar="6" Cut="-1.1820416450500488e+00" cType="1" res="9.8417242988944054e-03" rms="4.0098282694816589e-01" purity="5.0089883804321289e-01" nType="0">
        <Node pos="l" depth="1" NCoef="0" IVar="4" Cut="1.2813650512695312e+02" cType="1" res="-5.9278115630149841e-02" rms="3.6207205057144165e-01" purity="2.5494915246963501e-01" nType="0">
          <Node pos="l" depth="2" NCoef="0" IVar="-1" Cut="0.0000000000000000e+00" cType="1" res="-1.9663714338093996e-03" rms="3.4758245944976807e-01" purity="1.9273348152637482e-01" nType="-99"/>
          <Node pos="r" depth="2" NCoef="0" IVar="6" Cut="-1.5509095191955566e+00" cType="1" res="-8.7609045207500458e-02" rms="3.7329417467117310e-01" purity="3.1478664278984070e-01" nType="0">
            <Node pos="l" depth="3" NCoef="0" IVar="-1" Cut="0.0000000000000000e+00" cType="1" res="-6.8496586754918098e-03" rms="3.4861814975738525e-01" purity="2.5076016783714294e-01" nType="-99"/>
            <Node pos="r" depth="3" NCoef="0" IVar="-1" Cut="0.0000000000000000e+00" cType="1" res="-2.4255139287561178e-03" rms="3.9366680383682251e-01" purity="3.7752735614776611e-01" nType="-99"/>
          </Node>
        </Node>
        <Node pos="r" depth="1" NCoef="0" IVar="6" Cut="9.0363031625747681e-01" cType="1" res="1.8191101029515266e-02" rms="4.0463188290596008e-01" purity="5.3060847520828247e-01" nType="0">
          <Node pos="l" depth="2" NCoef="0" IVar="7" Cut="1.4665691852569580e+00" cType="1" res="3.0744561925530434e-02" rms="4.0675520896911621e-01" purity="5.8188885450363159e-01" nType="0">
            <Node pos="l" depth="3" NCoef="0" IVar="-1" Cut="0.0000000000000000e+00" cType="1" res="1.3538931962102652e-03" rms="4.0839454531669617e-01" purity="6.0482096672058105e-01" nType="-99"/>
            <Node pos="r" depth="3" NCoef="0" IVar="-1" Cut="0.0000000000000000e+00" cType="1" res="-3.2129962928593159e-03" rms="3.7203499674797058e-01" purity="2.6172825694084167e-01" nType="-99"/>
          </Node>
          <Node pos="r" depth="2" NCoef="0" IVar="3" Cut="2.5603024291992188e+02" cType="1" res="-3.3990103751420975e-02" rms="3.9139202237129211e-01" purity="3.1745052337646484e-01" nType="0">
            <Node pos="l" depth="3" NCoef="0" IVar="-1" Cut="0.0000000000000000e+00" cType="1" res="-6.3033984042704105e-04" rms="3.9130824804306030e-01" purity="3.2684525847434998e-01" nType="-99"/>
            <Node pos="r" depth="3" NCoef="0" IVar="-1" Cut="0.0000000000000000e+00" cType="1" res="-6.9636423140764236e-03" rms="3.8170519471168518e-01" purity="2.8197330236434937e-01" nType="-99"/>
          </Node>
        </Node>
      </Node>
    </BinaryTree>
    <BinaryTree type="DecisionTree" boostWeight="1.0000000000000000e+00" itree="299">
      <Node pos="s" depth="0" NCoef="0" IVar="0" Cut="1.4570269775390625e+03" cType="1" res="4.7280993312597275e-03" rms="3.9831364154815674e-01" purity="4.9486649036407471e-01" nType="0">
        <Node pos="l" depth="1" NCoef="0" IVar="2" Cut="2.2761241149902344e+02" cType="1" res="-1.5174483880400658e-02" rms="4.0485191345214844e-01" purity="3.9776471257209778e-01" nType="0">
          <Node pos="l" depth="2" NCoef="0" IVar="-1" Cut="0.0000000000000000e+00" cType="1" res="2.0124742295593023e-03" rms="4.2079356312751770e-01" purity="5.4397225379943848e-01" nType="-99"/>
          <Node pos="r" depth="2" NCoef="0" IVar="3" Cut="2.3270625305175781e+02" cType="1" res="-2.9577922075986862e-02" rms="4.0005692839622498e-01" purity="3.6884957551956177e-01" nType="0">
            <Node pos="l" depth="3" NCoef="0" IVar="-1" Cut="0.0000000000000000e+00" cType="1" res="-7.5005082180723548e-04" rms="3.9972254633903503e-01" purity="3.7507405877113342e-01" nType="-99"/>
            <Node pos="r" depth="3" NCoef="0" IVar="-1" Cut="0.0000000000000000e+00" cType="1" res="-4.7490536235272884e-03" rms="3.9615282416343689e-01" purity="3.3407318592071533e-01" nType="-99"/>
          </Node>
        </Node>
        <Node pos="r" depth="1" NCoef="0" IVar="2" Cut="3.7143399047851562e+02" cType="1" res="3.3074211329221725e-02" rms="3.8704898953437805e-01" purity="6.3316303491592407e-01" nType="0">
          <Node pos="l" depth="2" NCoef="0" IVar="3" Cut="2.5312023925781250e+02" cType="1" res="9.0962909162044525e-02" rms="3.1143003702163696e-01" purity="8.5494631528854370e-01" nType="0">
            <Node pos="l" depth="3" NCoef="0" IVar="-1" Cut="0.0000000000000000e+00" cType="1" res="4.4196406379342079e-03" rms="2.7405714988708496e-01" purity="8.9980906248092651e-01" nType="-99"/>
            <Node pos="r" depth="3" NCoef="0" IVar="-1" Cut="0.0000000000000000e+00" cType="1" res="1.6357252607122064e-03" rms="3.6970105767250061e-01" purity="7.6611238718032837e-01" nType="-99"/>
          </Node>
          <Node pos="r" depth="2" NCoef="0" IVar="3" Cut="3.4091088867187500e+02" cType="1" res="2.4075517430901527e-03" rms="4.1841584444046021e-01" purity="5.1567274332046509e-01" nType="0">
            <Node pos="l" depth="3" NCoef="0" IVar="-1" Cut="0.0000000000000000e+00" cType="1" res="9.7507075406610966e-04" rms="4.1556268930435181e-01" purity="5.3999906778335571e-01" nType="-99"/>
            <Node pos="r" depth="3" NCoef="0" IVar="-1" Cut="0.0000000000000000e+00" cType="1" res="-2.9353438876569271e-03" rms="4.2029911279678345e-01" purity="4.4699427485466003e-01" nType="-99"/>
          </Node>
        </Node>
      </Node>
    </BinaryTree>
    <BinaryTree type="DecisionTree" boostWeight="1.0000000000000000e+00" itree="300">
      <Node pos="s" depth="0" NCoef="0" IVar="8" Cut="-9.3333190679550171e-01" cType="1" res="9.8556969314813614e-03" rms="4.0006431937217712e-01" purity="5.0156325101852417e-01" nType="0">
        <Node pos="l" depth="1" NCoef="0" IVar="1" Cut="5.0611221313476562e+02" cType="1" res="-4.5865535736083984e-02" rms="3.8348448276519775e-01" purity="3.4116804599761963e-01" nType="0">
          <Node pos="l" depth="2" NCoef="0" IVar="7" Cut="6.6646128892898560e-01" cType="1" res="-5.7460263371467590e-02" rms="3.7276288866996765e-01" purity="2.8718775510787964e-01" nType="0">
            <Node pos="l" depth="3" NCoef="0" IVar="-1" Cut="0.0000000000000000e+00" cType="1" res="-2.1864369045943022e-03" rms="3.8529300689697266e-01" purity="3.2262694835662842e-01" nType="-99"/>
            <Node pos="r" depth="3" NCoef="0" IVar="-1" Cut="0.0000000000000000e+00" cType="1" res="-7.2929942980408669e-03" rms="3.2206049561500549e-01" purity="1.6648752987384796e-01" nType="-99"/>
          </Node>
          <Node pos="r" depth="2" NCoef="0" IVar="-1" Cut="0.0000000000000000e+00" cType="1" res="9.5763185527175665e-05" rms="4.2177343368530273e-01" purity="5.6563371419906616e-01" nType="-99"/>
        </Node>
        <Node pos="r" depth="1" NCoef="0" IVar="8" Cut="8.4445285797119141e-01" cType="1" res="2.2511849179863930e-02" rms="4.0266212821006775e-01" purity="5.3799432516098022e-01" nType="0">
          <Node pos="l" depth="2" NCoef="0" IVar="7" Cut="1.2000297307968140e+00" cType="1" res="3.9045907557010651e-02" rms="4.0422996878623962e-01" purity="5.9454894065856934e-01" nType="0">
            <Node pos="l" depth="3" NCoef="0" IVar="-1" Cut="0.0000000000000000e+00" cType="1" res="1.3771043159067631e-03" rms="4.0525704622268677e-01" purity="6.2493413686752319e-01" nType="-99"/>
            <Node pos="r" depth="3" NCoef="0" IVar="-1" Cut="0.0000000000000000e+00" cType="1" res="-1.7033190233632922e-03" rms="3.8708519935607910e-01" purity="3.2445034384727478e-01" nType="-99"/>
          </Node>
          <Node pos="r" depth="2" NCoef="0" IVar="7" Cut="-6.6676342487335205e-01" cType="1" res="-2.5078795850276947e-02" rms="3.9426356554031372e-01" purity="3.7521108984947205e-01" nType="0">
            <Node pos="l" depth="3" NCoef="0" IVar="-1" Cut="0.0000000000000000e+00" cType="1" res="-4.8281019553542137e-03" rms="3.5499218106269836e-01" purity="2.3785009980201721e-01" nType="-99"/>
            <Node pos="r" depth="3" NCoef="0" IVar="-1" Cut="0.0000000000000000e+00" cType="1" res="-4.0718750096857548e-04" rms="4.0328496694564819e-01" purity="4.1405329108238220e-01" nType="-99"/>
          </Node>
        </Node>
      </Node>
    </BinaryTree>
    <BinaryTree type="DecisionTree" boostWeight="1.0000000000000000e+00" itree="301">
      <Node pos="s" depth="0" NCoef="0" IVar="6" Cut="6.7084026336669922e-01" cType="1" res="7.8628854826092720e-03" rms="3.9968356490135193e-01" purity="4.9894222617149353e-01" nType="0">
        <Node pos="l" depth="1" NCoef="0" IVar="6" Cut="-4.8231539130210876e-01" cType="1" res="2.1091401576995850e-02" rms="4.0142285823822021e-01" purity="5.3898912668228149e-01" nType="0">
          <Node pos="l" depth="2" NCoef="0" IVar="1" Cut="5.5456597900390625e+02" cType="1" res="-2.0372530445456505e-02" rms="3.9425241947174072e-01" purity="4.1546243429183960e-01" nType="0">
            <Node pos="l" depth="3" NCoef="0" IVar="-1" Cut="0.0000000000000000e+00" cType="1" res="-1.5977721195667982e-03" rms="3.8862517476081848e-01" purity="3.6818403005599976e-01" nType="-99"/>
            <Node pos="r" depth="3" NCoef="0" IVar="-1" Cut="0.0000000000000000e+00" cType="1" res="2.0340897608548403e-03" rms="4.1607663035392761e-01" purity="6.8539184331893921e-01" nType="-99"/>
          </Node>
          <Node pos="r" depth="2" NCoef="0" IVar="0" Cut="1.1038247070312500e+03" cType="1" res="4.7617036849260330e-02" rms="4.0371614694595337e-01" purity="6.1801260709762573e-01" nType="0">
            <Node pos="l" depth="3" NCoef="0" IVar="-1" Cut="0.0000000000000000e+00" cType="1" res="-5.6107441196218133e-04" rms="4.4276127219200134e-01" purity="3.5451465845108032e-01" nType="-99"/>
            <Node pos="r" depth="3" NCoef="0" IVar="-1" Cut="0.0000000000000000e+00" cType="1" res="2.1326704882085323e-03" rms="3.9548745751380920e-01" purity="6.6384482383728027e-01" nType="-99"/>
          </Node>
        </Node>
        <Node pos="r" depth="1" NCoef="0" IVar="6" Cut="1.4818537235260010e+00" cType="1" res="-3.4666083753108978e-02" rms="3.9101922512054443e-01" purity="3.7019363045692444e-01" nType="0">
          <Node pos="l" depth="2" NCoef="0" IVar="8" Cut="-6.6672509908676147e-01" cType="1" res="-1.7304193228483200e-02" rms="4.0750029683113098e-01" purity="4.3051761388778687e-01" nType="0">
            <Node pos="l" depth="3" NCoef="0" IVar="-1" Cut="0.0000000000000000e+00" cType="1" res="-3.7824399769306183e-03" rms="3.8734883069992065e-01" purity="2.9859396815299988e-01" nType="-99"/>
            <Node pos="r" depth="3" NCoef="0" IVar="-1" Cut="0.0000000000000000e+00" cType="1" res="-1.3768164535576943e-05" rms="4.1200941801071167e-01" purity="4.7104099392890930e-01" nType="-99"/>
          </Node>
          <Node pos="r" depth="2" NCoef="0" IVar="6" Cut="1.9211505651473999e+00" cType="1" res="-7.9028747975826263e-02" rms="3.4136557579040527e-01" purity="2.1605528891086578e-01" nType="0">
            <Node pos="l" depth="3" NCoef="0" IVar="-1" Cut="0.0000000000000000e+00" cType="1" res="-3.4457405563443899e-03" rms="3.5289388895034790e-01" purity="2.3994117975234985e-01" nType="-99"/>
            <Node pos="r" depth="3" NCoef="0" IVar="-1" Cut="0.0000000000000000e+00" cType="1" res="-6.7387465387582779e-03" rms="3.2274606823921204e-01" purity="1.8313480913639069e-01" nType="-99"/>
          </Node>
        </Node>
      </Node>
    </BinaryTree>
    <BinaryTree type="DecisionTree" boostWeight="1.0000000000000000e+00" itree="302">
      <Node pos="s" depth="0" NCoef="0" IVar="9" Cut="-9.3320178985595703e-01" cType="1" res="6.9294725544750690e-03" rms="3.9979460835456848e-01" purity="4.9835476279258728e-01" nType="0">
        <Node pos="l" depth="1" NCoef="0" IVar="1" Cut="4.1742504882812500e+02" cType="1" res="-3.7246387451887131e-02" rms="3.8437595963478088e-01" purity="3.8073495030403137e-01" nType="0">
          <Node pos="l" depth="2" NCoef="0" IVar="1" Cut="3.3914279174804688e+02" cType="1" res="-6.0023117810487747e-02" rms="3.6745923757553101e-01" purity="2.6942941546440125e-01" nType="0">
            <Node pos="l" depth="3" NCoef="0" IVar="-1" Cut="0.0000000000000000e+00" cType="1" res="-4.8346957191824913e-03" rms="3.4219968318939209e-01" purity="2.1200825273990631e-01" nType="-99"/>
            <Node pos="r" depth="3" NCoef="0" IVar="-1" Cut="0.0000000000000000e+00" cType="1" res="-1.7698404844850302e-03" rms="3.8459366559982300e-01" purity="3.1528216600418091e-01" nType="-99"/>
          </Node>
          <Node pos="r" depth="2" NCoef="0" IVar="9" Cut="-1.6442861557006836e+00" cType="1" res="-3.5526317078620195e-03" rms="4.0577930212020874e-01" purity="5.4539000988006592e-01" nType="0">
            <Node pos="l" depth="3" NCoef="0" IVar="-1" Cut="0.0000000000000000e+00" cType="1" res="-3.0140329618006945e-03" rms="3.9616078138351440e-01" purity="4.0088620781898499e-01" nType="-99"/>
            <Node pos="r" depth="3" NCoef="0" IVar="-1" Cut="0.0000000000000000e+00" cType="1" res="9.6571457106620073e-04" rms="4.0754657983779907e-01" purity="6.1474066972732544e-01" nType="-99"/>
          </Node>
        </Node>
        <Node pos="r" depth="1" NCoef="0" IVar="9" Cut="1.2000402212142944e+00" cType="1" res="1.8137648701667786e-02" rms="4.0284317731857300e-01" purity="5.2819687128067017e-01" nType="0">
          <Node pos="l" depth="2" NCoef="0" IVar="2" Cut="4.7390521240234375e+02" cType="1" res="3.2301373779773712e-02" rms="4.0524992346763611e-01" purity="5.6843328475952148e-01" nType="0">
            <Node pos="l" depth="3" NCoef="0" IVar="-1" Cut="0.0000000000000000e+00" cType="1" res="1.6403864137828350e-03" rms="3.9971151947975159e-01" purity="6.0330569744110107e-01" nType="-99"/>
            <Node pos="r" depth="3" NCoef="0" IVar="-1" Cut="0.0000000000000000e+00" cType="1" res="-3.7032022373750806e-04" rms="4.2125588655471802e-01" purity="4.4042003154754639e-01" nType="-99"/>
          </Node>
          <Node pos="r" depth="2" NCoef="0" IVar="9" Cut="1.8095488548278809e+00" cType="1" res="-4.6872589737176895e-02" rms="3.8497880101203918e-01" purity="3.4351536631584167e-01" nType="0">
            <Node pos="l" depth="3" NCoef="0" IVar="-1" Cut="0.0000000000000000e+00" cType="1" res="-1.0832314146682620e-03" rms="4.0362706780433655e-01" purity="4.0726679563522339e-01" nType="-99"/>
            <Node pos="r" depth="3" NCoef="0" IVar="-1" Cut="0.0000000000000000e+00" cType="1" res="-4.7346004284918308e-03" rms="3.5153007507324219e-01" purity="2.4616844952106476e-01" nType="-99"/>
          </Node>
        </Node>
      </Node>
    </BinaryTree>
    <BinaryTree type="DecisionTree" boostWeight="1.0000000000000000e+00" itree="303">
      <Node pos="s" depth="0" NCoef="0" IVar="7" Cut="1.2000254392623901e+00" cType="1" res="9.0035991743206978e-03" rms="3.9735394716262817e-01" purity="5.0166940689086914e-01" nType="0">
        <Node pos="l" depth="1" NCoef="0" IVar="7" Cut="-7.0470929145812988e-01" cType="1" res="1.7820594832301140e-02" rms="4.0208113193511963e-01" purity="5.3557062149047852e-01" nType="0">
          <Node pos="l" depth="2" NCoef="0" IVar="0" Cut="1.5371994628906250e+03" cType="1" res="-2.6413248851895332e-02" rms="3.8709565997123718e-01" purity="3.7807941436767578e-01" nType="0">
            <Node pos="l" depth="3" NCoef="0" IVar="-1" Cut="0.0000000000000000e+00" cType="1" res="-2.1617866586893797e-03" rms="3.8100478053092957e-01" purity="3.0670300126075745e-01" nType="-99"/>
            <Node pos="r" depth="3" NCoef="0" IVar="-1" Cut="0.0000000000000000e+00" cType="1" res="7.3422398418188095e-04" rms="3.9794602990150452e-01" purity="5.5021929740905762e-01" nType="-99"/>
          </Node>
          <Node pos="r" depth="2" NCoef="0" IVar="2" Cut="6.6214117431640625e+02" cType="1" res="3.4193243831396103e-02" rms="4.0626871585845947e-01" purity="5.9386408329010010e-01" nType="0">
            <Node pos="l" depth="3" NCoef="0" IVar="-1" Cut="0.0000000000000000e+00" cType="1" res="1.5030078357085586e-03" rms="4.0303957462310791e-01" purity="6.0569685697555542e-01" nType="-99"/>
            <Node pos="r" depth="3" NCoef="0" IVar="-1" Cut="0.0000000000000000e+00" cType="1" res="-6.2182487454265356e-04" rms="4.3503096699714661e-01" purity="4.4146916270256042e-01" nType="-99"/>
          </Node>
        </Node>
        <Node pos="r" depth="1" NCoef="0" IVar="2" Cut="3.2048275756835938e+02" cType="1" res="-5.6967578828334808e-02" rms="3.5310080647468567e-01" purity="2.4801167845726013e-01" nType="0">
          <Node pos="l" depth="2" NCoef="0" IVar="-1" Cut="0.0000000000000000e+00" cType="1" res="-1.1030355235561728e-03" rms="3.7905335426330566e-01" purity="3.3086630702018738e-01" nType="-99"/>
          <Node pos="r" depth="2" NCoef="0" IVar="3" Cut="1.8909353637695312e+02" cType="1" res="-8.7587527930736542e-02" rms="3.2524564862251282e-01" purity="1.7430225014686584e-01" nType="0">
            <Node pos="l" depth="3" NCoef="0" IVar="-1" Cut="0.0000000000000000e+00" cType="1" res="-4.7319428995251656e-03" rms="3.0795153975486755e-01" purity="1.5109042823314667e-01" nType="-99"/>
            <Node pos="r" depth="3" NCoef="0" IVar="-1" Cut="0.0000000000000000e+00" cType="1" res="-8.5657313466072083e-03" rms="3.3738276362419128e-01" purity="1.9341394305229187e-01" nType="-99"/>
          </Node>
        </Node>
      </Node>
    </BinaryTree>
    <BinaryTree type="DecisionTree" boostWeight="1.0000000000000000e+00" itree="304">
      <Node pos="s" depth="0" NCoef="0" IVar="8" Cut="9.3331807851791382e-01" cType="1" res="1.1276784352958202e-02" rms="3.9986765384674072e-01" purity="5.0306129455566406e-01" nType="0">
        <Node pos="l" depth="1" NCoef="0" IVar="8" Cut="-1.0222408771514893e+00" cType="1" res="2.2458517923951149e-02" rms="4.0135812759399414e-01" purity="5.3829443454742432e-01" nType="0">
          <Node pos="l" depth="2" NCoef="0" IVar="6" Cut="6.8828827142715454e-01" cType="1" res="-2.2271722555160522e-02" rms="3.8920482993125916e-01" purity="3.4949234127998352e-01" nType="0">
            <Node pos="l" depth="3" NCoef="0" IVar="-1" Cut="0.0000000000000000e+00" cType="1" res="-3.6343111423775554e-04" rms="3.9944460988044739e-01" purity="3.8893446326255798e-01" nType="-99"/>
            <Node pos="r" depth="3" NCoef="0" IVar="-1" Cut="0.0000000000000000e+00" cType="1" res="-5.0240368582308292e-03" rms="3.4588637948036194e-01" purity="2.1030765771865845e-01" nType="-99"/>
          </Node>
          <Node pos="r" depth="2" NCoef="0" IVar="7" Cut="-6.6664850711822510e-01" cType="1" res="3.4239977598190308e-02" rms="4.0367460250854492e-01" purity="5.8802288770675659e-01" nType="0">
            <Node pos="l" depth="3" NCoef="0" IVar="-1" Cut="0.0000000000000000e+00" cType="1" res="-3.6436392110772431e-04" rms="4.0951848030090332e-01" purity="4.6169432997703552e-01" nType="-99"/>
            <Node pos="r" depth="3" NCoef="0" IVar="-1" Cut="0.0000000000000000e+00" cType="1" res="1.6571237938478589e-03" rms="4.0107217431068420e-01" purity="6.2505930662155151e-01" nType="-99"/>
          </Node>
        </Node>
        <Node pos="r" depth="1" NCoef="0" IVar="6" Cut="-3.8586959242820740e-01" cType="1" res="-3.7339333444833755e-02" rms="3.8960850238800049e-01" purity="3.4987410902976990e-01" nType="0">
          <Node pos="l" depth="2" NCoef="0" IVar="4" Cut="1.3248983764648438e+02" cType="1" res="-7.3593527078628540e-02" rms="3.6694213747978210e-01" purity="2.6669147610664368e-01" nType="0">
            <Node pos="l" depth="3" NCoef="0" IVar="-1" Cut="0.0000000000000000e+00" cType="1" res="-2.6776040904223919e-03" rms="3.5428872704505920e-01" purity="2.1571290493011475e-01" nType="-99"/>
            <Node pos="r" depth="3" NCoef="0" IVar="-1" Cut="0.0000000000000000e+00" cType="1" res="-5.7899854145944118e-03" rms="3.7791648507118225e-01" purity="3.2386663556098938e-01" nType="-99"/>
          </Node>
          <Node pos="r" depth="2" NCoef="0" IVar="6" Cut="8.2755976915359497e-01" cType="1" res="-2.1627731621265411e-02" rms="3.9800745248794556e-01" purity="3.8592326641082764e-01" nType="0">
            <Node pos="l" depth="3" NCoef="0" IVar="-1" Cut="0.0000000000000000e+00" cType="1" res="2.4096280685625970e-04" rms="4.1891300678253174e-01" purity="4.7529354691505432e-01" nType="-99"/>
            <Node pos="r" depth="3" NCoef="0" IVar="-1" Cut="0.0000000000000000e+00" cType="1" res="-4.6000215224921703e-03" rms="3.4996229410171509e-01" purity="2.1970391273498535e-01" nType="-99"/>
          </Node>
        </Node>
      </Node>
    </BinaryTree>
    <BinaryTree type="DecisionTree" boostWeight="1.0000000000000000e+00" itree="305">
      <Node pos="s" depth="0" NCoef="0" IVar="9" Cut="-9.3317157030105591e-01" cType="1" res="1.2563563883304596e-02" rms="3.9917483925819397e-01" purity="5.0510215759277344e-01" nType="0">
        <Node pos="l" depth="1" NCoef="0" IVar="2" Cut="3.2890386962890625e+02" cType="1" res="-3.4285623580217361e-02" rms="3.8433092832565308e-01" purity="3.7990751862525940e-01" nType="0">
          <Node pos="l" depth="2" NCoef="0" IVar="3" Cut="1.8500357055664062e+02" cType="1" res="-2.8852184768766165e-03" rms="3.9581519365310669e-01" purity="4.5922091603279114e-01" nType="0">
            <Node pos="l" depth="3" NCoef="0" IVar="-1" Cut="0.0000000000000000e+00" cType="1" res="5.6237529497593641e-04" rms="4.0015918016433716e-01" purity="3.9767593145370483e-01" nType="-99"/>
            <Node pos="r" depth="3" NCoef="0" IVar="-1" Cut="0.0000000000000000e+00" cType="1" res="-9.7838998772203922e-04" rms="3.8943812251091003e-01" purity="5.3521537780761719e-01" nType="-99"/>
          </Node>
          <Node pos="r" depth="2" NCoef="0" IVar="9" Cut="-1.8220341205596924e+00" cType="1" res="-6.4071118831634521e-02" rms="3.7066042423248291e-01" purity="3.0467310547828674e-01" nType="0">
            <Node pos="l" depth="3" NCoef="0" IVar="-1" Cut="0.0000000000000000e+00" cType="1" res="-7.8304512426257133e-03" rms="3.0938553810119629e-01" purity="1.7085847258567810e-01" nType="-99"/>
            <Node pos="r" depth="3" NCoef="0" IVar="-1" Cut="0.0000000000000000e+00" cType="1" res="-2.3511592298746109e-03" rms="3.9000713825225830e-01" purity="3.5558229684829712e-01" nType="-99"/>
          </Node>
        </Node>
        <Node pos="r" depth="1" NCoef="0" IVar="9" Cut="8.4451884031295776e-01" cType="1" res="2.4441696703433990e-02" rms="4.0198472142219543e-01" purity="5.3684401512145996e-01" nType="0">
          <Node pos="l" depth="2" NCoef="0" IVar="0" Cut="1.1320112304687500e+03" cType="1" res="4.2147226631641388e-02" rms="4.0220582485198975e-01" purity="5.8759099245071411e-01" nType="0">
            <Node pos="l" depth="3" NCoef="0" IVar="-1" Cut="0.0000000000000000e+00" cType="1" res="-1.8381615518592298e-04" rms="4.3301165103912354e-01" purity="3.3221730589866638e-01" nType="-99"/>
            <Node pos="r" depth="3" NCoef="0" IVar="-1" Cut="0.0000000000000000e+00" cType="1" res="1.9121734658256173e-03" rms="3.9448735117912292e-01" purity="6.4281541109085083e-01" nType="-99"/>
          </Node>
          <Node pos="r" depth="2" NCoef="0" IVar="6" Cut="-6.3382112979888916e-01" cType="1" res="-2.0972553640604019e-02" rms="3.9783057570457458e-01" purity="4.0667918324470520e-01" nType="0">
            <Node pos="l" depth="3" NCoef="0" IVar="-1" Cut="0.0000000000000000e+00" cType="1" res="-3.9607663638889790e-03" rms="3.6485722661018372e-01" purity="2.7568078041076660e-01" nType="-99"/>
            <Node pos="r" depth="3" NCoef="0" IVar="-1" Cut="0.0000000000000000e+00" cType="1" res="-2.7359940577298403e-04" rms="4.0540838241577148e-01" purity="4.4334369897842407e-01" nType="-99"/>
          </Node>
        </Node>
      </Node>
    </BinaryTree>
    <BinaryTree type="DecisionTree" boostWeight="1.0000000000000000e+00" itree="306">
      <Node pos="s" depth="0" NCoef="0" IVar="9" Cut="-1.4665119647979736e+00" cType="1" res="8.6362296715378761e-03" rms="3.9901447296142578e-01" purity="5.0005120038986206e-01" nType="0">
        <Node pos="l" depth="1" NCoef="0" IVar="6" Cut="1.8026874959468842e-01" cType="1" res="-6.4404465258121490e-02" rms="3.6831843852996826e-01" purity="2.9135906696319580e-01" nType="0">
          <Node pos="l" depth="2" NCoef="0" IVar="9" Cut="-1.8474544286727905e+00" cType="1" res="-4.3369319289922714e-02" rms="3.8041767477989197e-01" purity="3.2587587833404541e-01" nType="0">
            <Node pos="l" depth="3" NCoef="0" IVar="-1" Cut="0.0000000000000000e+00" cType="1" res="-3.4932526759803295e-03" rms="3.6119344830513000e-01" purity="2.6819032430648804e-01" nType="-99"/>
            <Node pos="r" depth="3" NCoef="0" IVar="-1" Cut="0.0000000000000000e+00" cType="1" res="-5.1730748964473605e-04" rms="4.0130603313446045e-01" purity="3.9949822425842285e-01" nType="-99"/>
          </Node>
          <Node pos="r" depth="2" NCoef="0" IVar="-1" Cut="0.0000000000000000e+00" cType="1" res="-6.9586322642862797e-03" rms="3.4394007921218872e-01" purity="2.3289318382740021e-01" nType="-99"/>
        </Node>
        <Node pos="r" depth="1" NCoef="0" IVar="9" Cut="1.1746480464935303e+00" cType="1" res="1.6382619738578796e-02" rms="4.0135371685028076e-01" purity="5.2218413352966309e-01" nType="0">
          <Node pos="l" depth="2" NCoef="0" IVar="6" Cut="-1.1672945022583008e+00" cType="1" res="2.7987930923700333e-02" rms="4.0387237071990967e-01" purity="5.5677050352096558e-01" nType="0">
            <Node pos="l" depth="3" NCoef="0" IVar="-1" Cut="0.0000000000000000e+00" cType="1" res="-2.1976162679493427e-03" rms="3.7865877151489258e-01" purity="2.9446119070053101e-01" nType="-99"/>
            <Node pos="r" depth="3" NCoef="0" IVar="-1" Cut="0.0000000000000000e+00" cType="1" res="1.3208049349486828e-03" rms="4.0581417083740234e-01" purity="5.8643203973770142e-01" nType="-99"/>
          </Node>
          <Node pos="r" depth="2" NCoef="0" IVar="9" Cut="2.0260319709777832e+00" cType="1" res="-4.2848806828260422e-02" rms="3.8280287384986877e-01" purity="3.4566175937652588e-01" nType="0">
            <Node pos="l" depth="3" NCoef="0" IVar="-1" Cut="0.0000000000000000e+00" cType="1" res="-1.0113731259480119e-03" rms="3.9549574255943298e-01" purity="3.9712506532669067e-01" nType="-99"/>
            <Node pos="r" depth="3" NCoef="0" IVar="-1" Cut="0.0000000000000000e+00" cType="1" res="-7.5297313742339611e-03" rms="3.3302703499794006e-01" purity="1.8665041029453278e-01" nType="-99"/>
          </Node>
        </Node>
      </Node>
    </BinaryTree>
    <BinaryTree type="DecisionTree" boostWeight="1.0000000000000000e+00" itree="307">
      <Node pos="s" depth="0" NCoef="0" IVar="6" Cut="-6.3836371898651123e-01" cType="1" res="1.6957115381956100e-02" rms="4.0128466486930847e-01" purity="5.0795435905456543e-01" nType="0">
        <Node pos="l" depth="1" NCoef="0" IVar="3" Cut="2.3370866394042969e+02" cType="1" res="-2.5170773267745972e-02" rms="3.9406776428222656e-01" purity="3.8560441136360168e-01" nType="0">
          <Node pos="l" depth="2" NCoef="0" IVar="0" Cut="1.4228582763671875e+03" cType="1" res="-9.4796130433678627e-03" rms="3.9201059937477112e-01" purity="3.7410569190979004e-01" nType="0">
            <Node pos="l" depth="3" NCoef="0" IVar="-1" Cut="0.0000000000000000e+00" cType="1" res="-1.3642967678606510e-03" rms="3.9314496517181396e-01" purity="2.9600408673286438e-01" nType="-99"/>
            <Node pos="r" depth="3" NCoef="0" IVar="-1" Cut="0.0000000000000000e+00" cType="1" res="2.0551769994199276e-03" rms="3.8221901655197144e-01" purity="6.0938650369644165e-01" nType="-99"/>
          </Node>
          <Node pos="r" depth="2" NCoef="0" IVar="0" Cut="1.6163803710937500e+03" cType="1" res="-6.1035890132188797e-02" rms="3.9640450477600098e-01" purity="4.1188687086105347e-01" nType="0">
            <Node pos="l" depth="3" NCoef="0" IVar="-1" Cut="0.0000000000000000e+00" cType="1" res="-6.0775894671678543e-03" rms="3.7710553407669067e-01" purity="3.0277889966964722e-01" nType="-99"/>
            <Node pos="r" depth="3" NCoef="0" IVar="-1" Cut="0.0000000000000000e+00" cType="1" res="-1.1342477519065142e-03" rms="4.0857425332069397e-01" purity="5.0215733051300049e-01" nType="-99"/>
          </Node>
        </Node>
        <Node pos="r" depth="1" NCoef="0" IVar="6" Cut="1.3262346982955933e+00" cType="1" res="3.0480530112981796e-02" rms="4.0264046192169189e-01" purity="5.4722976684570312e-01" nType="0">
          <Node pos="l" depth="2" NCoef="0" IVar="2" Cut="6.3790734863281250e+02" cType="1" res="4.0612317621707916e-02" rms="4.0643233060836792e-01" purity="5.8608770370483398e-01" nType="0">
            <Node pos="l" depth="3" NCoef="0" IVar="-1" Cut="0.0000000000000000e+00" cType="1" res="1.7391731962561607e-03" rms="4.0357849001884460e-01" purity="5.9960716962814331e-01" nType="-99"/>
            <Node pos="r" depth="3" NCoef="0" IVar="-1" Cut="0.0000000000000000e+00" cType="1" res="-1.7641958547756076e-03" rms="4.2966094613075256e-01" purity="4.3282344937324524e-01" nType="-99"/>
          </Node>
          <Node pos="r" depth="2" NCoef="0" IVar="9" Cut="6.6685658693313599e-01" cType="1" res="-4.7500237822532654e-02" rms="3.6281663179397583e-01" purity="2.4815407395362854e-01" nType="0">
            <Node pos="l" depth="3" NCoef="0" IVar="-1" Cut="0.0000000000000000e+00" cType="1" res="-1.9266657764092088e-03" rms="3.7637585401535034e-01" purity="2.7907216548919678e-01" nType="-99"/>
            <Node pos="r" depth="3" NCoef="0" IVar="-1" Cut="0.0000000000000000e+00" cType="1" res="-4.5114583335816860e-03" rms="3.3539378643035889e-01" purity="1.9156378507614136e-01" nType="-99"/>
          </Node>
        </Node>
      </Node>
    </BinaryTree>
    <BinaryTree type="DecisionTree" boostWeight="1.0000000000000000e+00" itree="308">
      <Node pos="s" depth="0" NCoef="0" IVar="2" Cut="6.0625183105468750e+02" cType="1" res="1.0701037012040615e-02" rms="4.0093389153480530e-01" purity="5.0134837627410889e-01" nType="0">
        <Node pos="l" depth="1" NCoef="0" IVar="0" Cut="1.7031323242187500e+03" cType="1" res="1.8266022205352783e-02" rms="3.9887240529060364e-01" purity="5.1573544740676880e-01" nType="0">
          <Node pos="l" depth="2" NCoef="0" IVar="2" Cut="2.7738269042968750e+02" cType="1" res="4.8207193613052368e-03" rms="4.0364104509353638e-01" purity="4.7172302007675171e-01" nType="0">
            <Node pos="l" depth="3" NCoef="0" IVar="-1" Cut="0.0000000000000000e+00" cType="1" res="1.4336361782625318e-03" rms="4.0185314416885376e-01" purity="5.7050383090972900e-01" nType="-99"/>
            <Node pos="r" depth="3" NCoef="0" IVar="-1" Cut="0.0000000000000000e+00" cType="1" res="-7.8101997496560216e-04" rms="4.0311661362648010e-01" purity="4.0952488780021667e-01" nType="-99"/>
          </Node>
          <Node pos="r" depth="2" NCoef="0" IVar="3" Cut="3.0545956420898438e+02" cType="1" res="9.6417926251888275e-02" rms="3.6013397574424744e-01" purity="7.7156168222427368e-01" nType="0">
            <Node pos="l" depth="3" NCoef="0" IVar="-1" Cut="0.0000000000000000e+00" cType="1" res="4.6144528314471245e-03" rms="3.1435537338256836e-01" purity="8.5237461328506470e-01" nType="-99"/>
            <Node pos="r" depth="3" NCoef="0" IVar="-1" Cut="0.0000000000000000e+00" cType="1" res="1.5402196440845728e-03" rms="4.1592529416084290e-01" purity="6.4494055509567261e-01" nType="-99"/>
          </Node>
        </Node>
        <Node pos="r" depth="1" NCoef="0" IVar="1" Cut="6.3030371093750000e+02" cType="1" res="-5.9007842093706131e-02" rms="4.1298240423202515e-01" purity="3.6877584457397461e-01" nType="0">
          <Node pos="l" depth="2" NCoef="0" IVar="2" Cut="7.0290954589843750e+02" cType="1" res="-1.0893039405345917e-01" rms="3.8157051801681519e-01" purity="2.4280655384063721e-01" nType="0">
            <Node pos="l" depth="3" NCoef="0" IVar="-1" Cut="0.0000000000000000e+00" cType="1" res="-4.1937790811061859e-03" rms="3.7600019574165344e-01" purity="2.6194861531257629e-01" nType="-99"/>
            <Node pos="r" depth="3" NCoef="0" IVar="-1" Cut="0.0000000000000000e+00" cType="1" res="-7.1644556010141969e-04" rms="3.8077387213706970e-01" purity="2.2365070879459381e-01" nType="-99"/>
          </Node>
          <Node pos="r" depth="2" NCoef="0" IVar="-1" Cut="0.0000000000000000e+00" cType="1" res="1.4125939924269915e-03" rms="4.5427778363227844e-01" purity="6.2940788269042969e-01" nType="-99"/>
        </Node>
      </Node>
    </BinaryTree>
    <BinaryTree type="DecisionTree" boostWeight="1.0000000000000000e+00" itree="309">
      <Node pos="s" depth="0" NCoef="0" IVar="2" Cut="4.0312695312500000e+02" cType="1" res="7.1040177717804909e-03" rms="3.9950942993164062e-01" purity="4.9906176328659058e-01" nType="0">
        <Node pos="l" depth="1" NCoef="0" IVar="0" Cut="1.2804448242187500e+03" cType="1" res="2.3413239046931267e-02" rms="3.9601311087608337e-01" purity="5.4815673828125000e-01" nType="0">
          <Node pos="l" depth="2" NCoef="0" IVar="2" Cut="2.2901899719238281e+02" cType="1" res="-1.6542233526706696e-02" rms="4.1977038979530334e-01" purity="3.6067894101142883e-01" nType="0">
            <Node pos="l" depth="3" NCoef="0" IVar="-1" Cut="0.0000000000000000e+00" cType="1" res="1.3797441497445107e-03" rms="4.3725514411926270e-01" purity="4.7062045335769653e-01" nType="-99"/>
            <Node pos="r" depth="3" NCoef="0" IVar="-1" Cut="0.0000000000000000e+00" cType="1" res="-1.3397999573498964e-03" rms="4.1279271245002747e-01" purity="3.2670691609382629e-01" nType="-99"/>
          </Node>
          <Node pos="r" depth="2" NCoef="0" IVar="3" Cut="2.1371125793457031e+02" cType="1" res="6.6444687545299530e-02" rms="3.6384409666061401e-01" purity="7.5006765127182007e-01" nType="0">
            <Node pos="l" depth="3" NCoef="0" IVar="-1" Cut="0.0000000000000000e+00" cType="1" res="3.9110663346946239e-03" rms="3.3775246143341064e-01" purity="8.1715178489685059e-01" nType="-99"/>
            <Node pos="r" depth="3" NCoef="0" IVar="-1" Cut="0.0000000000000000e+00" cType="1" res="9.5042766770347953e-04" rms="3.7878206372261047e-01" purity="6.9486516714096069e-01" nType="-99"/>
          </Node>
        </Node>
        <Node pos="r" depth="1" NCoef="0" IVar="0" Cut="2.1140546875000000e+03" cType="1" res="-2.6481950655579567e-02" rms="4.0454888343811035e-01" purity="3.9795926213264465e-01" nType="0">
          <Node pos="l" depth="2" NCoef="0" IVar="2" Cut="6.5383404541015625e+02" cType="1" res="-4.1492741554975510e-02" rms="3.9722928404808044e-01" purity="3.4921026229858398e-01" nType="0">
            <Node pos="l" depth="3" NCoef="0" IVar="-1" Cut="0.0000000000000000e+00" cType="1" res="-1.4570824569091201e-03" rms="3.9936703443527222e-01" purity="3.6811810731887817e-01" nType="-99"/>
            <Node pos="r" depth="3" NCoef="0" IVar="-1" Cut="0.0000000000000000e+00" cType="1" res="-1.1324627557769418e-03" rms="3.7517407536506653e-01" purity="2.3371833562850952e-01" nType="-99"/>
          </Node>
          <Node pos="r" depth="2" NCoef="0" IVar="3" Cut="3.4575900268554688e+02" cType="1" res="4.8560589551925659e-02" rms="4.3155643343925476e-01" purity="6.4166718721389771e-01" nType="0">
            <Node pos="l" depth="3" NCoef="0" IVar="-1" Cut="0.0000000000000000e+00" cType="1" res="3.6106728948652744e-03" rms="4.1691333055496216e-01" purity="7.1347171068191528e-01" nType="-99"/>
            <Node pos="r" depth="3" NCoef="0" IVar="-1" Cut="0.0000000000000000e+00" cType="1" res="-2.7651470736600459e-04" rms="4.3650305271148682e-01" purity="5.7845115661621094e-01" nType="-99"/>
          </Node>
        </Node>
      </Node>
    </BinaryTree>
    <BinaryTree type="DecisionTree" boostWeight="1.0000000000000000e+00" itree="310">
      <Node pos="s" depth="0" NCoef="0" IVar="9" Cut="1.2000336647033691e+00" cType="1" res="8.8169928640127182e-03" rms="4.0024176239967346e-01" purity="4.9818611145019531e-01" nType="0">
        <Node pos="l" depth="1" NCoef="0" IVar="2" Cut="8.0937719726562500e+02" cType="1" res="1.7741287127137184e-02" rms="4.0216413140296936e-01" purity="5.2433323860168457e-01" nType="0">
          <Node pos="l" depth="2" NCoef="0" IVar="0" Cut="1.7213576660156250e+03" cType="1" res="2.1985312923789024e-02" rms="4.0088823437690735e-01" purity="5.2796268463134766e-01" nType="0">
            <Node pos="l" depth="3" NCoef="0" IVar="-1" Cut="0.0000000000000000e+00" cType="1" res="3.3596393768675625e-04" rms="4.0335932374000549e-01" purity="4.8747646808624268e-01" nType="-99"/>
            <Node pos="r" depth="3" NCoef="0" IVar="-1" Cut="0.0000000000000000e+00" cType="1" res="3.0262954533100128e-03" rms="3.8312199711799622e-01" purity="7.1517419815063477e-01" nType="-99"/>
          </Node>
          <Node pos="r" depth="2" NCoef="0" IVar="-1" Cut="0.0000000000000000e+00" cType="1" res="-4.0811224607750773e-04" rms="4.1924962401390076e-01" purity="4.1828340291976929e-01" nType="-99"/>
        </Node>
        <Node pos="r" depth="1" NCoef="0" IVar="9" Cut="1.9619110822677612e+00" cType="1" res="-4.5064330101013184e-02" rms="3.8405254483222961e-01" purity="3.4031999111175537e-01" nType="0">
          <Node pos="l" depth="2" NCoef="0" IVar="7" Cut="3.9955314993858337e-01" cType="1" res="-2.6725590229034424e-02" rms="3.9885142445564270e-01" purity="3.9260256290435791e-01" nType="0">
            <Node pos="l" depth="3" NCoef="0" IVar="-1" Cut="0.0000000000000000e+00" cType="1" res="-4.2420820682309568e-04" rms="4.0946531295776367e-01" purity="4.4639992713928223e-01" nType="-99"/>
            <Node pos="r" depth="3" NCoef="0" IVar="-1" Cut="0.0000000000000000e+00" cType="1" res="-2.3705246858298779e-03" rms="3.8384103775024414e-01" purity="3.2448792457580566e-01" nType="-99"/>
          </Node>
          <Node pos="r" depth="2" NCoef="0" IVar="-1" Cut="0.0000000000000000e+00" cType="1" res="-4.8104538582265377e-03" rms="3.4367161989212036e-01" purity="2.1934989094734192e-01" nType="-99"/>
        </Node>
      </Node>
    </BinaryTree>
    <BinaryTree type="DecisionTree" boostWeight="1.0000000000000000e+00" itree="311">
      <Node pos="s" depth="0" NCoef="0" IVar="0" Cut="1.5806253662109375e+03" cType="1" res="8.9947832748293877e-03" rms="4.0116891264915466e-01" purity="5.0155574083328247e-01" nType="0">
        <Node pos="l" depth="1" NCoef="0" IVar="2" Cut="2.9040802001953125e+02" cType="1" res="-6.0771708376705647e-03" rms="4.0416258573532104e-01" purity="4.4031819701194763e-01" nType="0">
          <Node pos="l" depth="2" NCoef="0" IVar="0" Cut="1.2460264892578125e+03" cType="1" res="2.6999078691005707e-02" rms="4.0990701317787170e-01" purity="5.4278409481048584e-01" nType="0">
            <Node pos="l" depth="3" NCoef="0" IVar="-1" Cut="0.0000000000000000e+00" cType="1" res="-3.0414655338972807e-04" rms="4.3453171849250793e-01" purity="3.9073327183723450e-01" nType="-99"/>
            <Node pos="r" depth="3" NCoef="0" IVar="-1" Cut="0.0000000000000000e+00" cType="1" res="2.9475647024810314e-03" rms="3.5530391335487366e-01" purity="8.0538314580917358e-01" nType="-99"/>
          </Node>
          <Node pos="r" depth="2" NCoef="0" IVar="1" Cut="3.2382357788085938e+02" cType="1" res="-3.4970872104167938e-02" rms="3.9682716131210327e-01" purity="3.5080930590629578e-01" nType="0">
            <Node pos="l" depth="3" NCoef="0" IVar="-1" Cut="0.0000000000000000e+00" cType="1" res="-4.5523792505264282e-03" rms="3.4818446636199951e-01" purity="2.1217726171016693e-01" nType="-99"/>
            <Node pos="r" depth="3" NCoef="0" IVar="-1" Cut="0.0000000000000000e+00" cType="1" res="-9.6740451408550143e-04" rms="4.0710547566413879e-01" purity="3.8551416993141174e-01" nType="-99"/>
          </Node>
        </Node>
        <Node pos="r" depth="1" NCoef="0" IVar="2" Cut="6.0661163330078125e+02" cType="1" res="4.5582164078950882e-02" rms="3.9140003919601440e-01" purity="6.5021067857742310e-01" nType="0">
          <Node pos="l" depth="2" NCoef="0" IVar="3" Cut="2.9828851318359375e+02" cType="1" res="7.6614648103713989e-02" rms="3.7107184529304504e-01" purity="7.3821389675140381e-01" nType="0">
            <Node pos="l" depth="3" NCoef="0" IVar="-1" Cut="0.0000000000000000e+00" cType="1" res="3.7810103967785835e-03" rms="3.3984732627868652e-01" purity="8.1022477149963379e-01" nType="-99"/>
            <Node pos="r" depth="3" NCoef="0" IVar="-1" Cut="0.0000000000000000e+00" cType="1" res="9.2174671590328217e-04" rms="4.1899511218070984e-01" purity="6.0120493173599243e-01" nType="-99"/>
          </Node>
          <Node pos="r" depth="2" NCoef="0" IVar="0" Cut="1.9337597656250000e+03" cType="1" res="-3.3911541104316711e-02" rms="4.2908301949501038e-01" purity="4.2477899789810181e-01" nType="0">
            <Node pos="l" depth="3" NCoef="0" IVar="-1" Cut="0.0000000000000000e+00" cType="1" res="-9.1572189703583717e-03" rms="3.7693065404891968e-01" purity="2.1531149744987488e-01" nType="-99"/>
            <Node pos="r" depth="3" NCoef="0" IVar="-1" Cut="0.0000000000000000e+00" cType="1" res="4.9277103971689939e-04" rms="4.4999513030052185e-01" purity="5.4657751321792603e-01" nType="-99"/>
          </Node>
        </Node>
      </Node>
    </BinaryTree>
    <BinaryTree type="DecisionTree" boostWeight="1.0000000000000000e+00" itree="312">
      <Node pos="s" depth="0" NCoef="0" IVar="2" Cut="5.4261865234375000e+02" cType="1" res="6.9391168653964996e-03" rms="3.9765927195549011e-01" purity="4.9775150418281555e-01" nType="0">
        <Node pos="l" depth="1" NCoef="0" IVar="0" Cut="1.5355200195312500e+03" cType="1" res="1.7328808084130287e-02" rms="3.9692756533622742e-01" purity="5.2116018533706665e-01" nType="0">
          <Node pos="l" depth="2" NCoef="0" IVar="2" Cut="2.8157778930664062e+02" cType="1" res="-2.7071854565292597e-03" rms="4.0685859322547913e-01" purity="4.3990910053253174e-01" nType="0">
            <Node pos="l" depth="3" NCoef="0" IVar="-1" Cut="0.0000000000000000e+00" cType="1" res="1.0875833686441183e-03" rms="4.0935504436492920e-01" purity="5.3978544473648071e-01" nType="-99"/>
            <Node pos="r" depth="3" NCoef="0" IVar="-1" Cut="0.0000000000000000e+00" cType="1" res="-1.3784214388579130e-03" rms="4.0259149670600891e-01" purity="3.5670980811119080e-01" nType="-99"/>
          </Node>
          <Node pos="r" depth="2" NCoef="0" IVar="3" Cut="2.7783004760742188e+02" cType="1" res="7.6284959912300110e-02" rms="3.5973057150840759e-01" purity="7.6024246215820312e-01" nType="0">
            <Node pos="l" depth="3" NCoef="0" IVar="-1" Cut="0.0000000000000000e+00" cType="1" res="4.1104475967586040e-03" rms="3.1878861784934998e-01" purity="8.4423536062240601e-01" nType="-99"/>
            <Node pos="r" depth="3" NCoef="0" IVar="-1" Cut="0.0000000000000000e+00" cType="1" res="8.3951163105666637e-04" rms="4.0809926390647888e-01" purity="6.3312631845474243e-01" nType="-99"/>
          </Node>
        </Node>
        <Node pos="r" depth="1" NCoef="0" IVar="1" Cut="6.0599444580078125e+02" cType="1" res="-5.8153927326202393e-02" rms="3.9605814218521118e-01" purity="3.5109221935272217e-01" nType="0">
          <Node pos="l" depth="2" NCoef="0" IVar="2" Cut="6.7662963867187500e+02" cType="1" res="-9.1459296643733978e-02" rms="3.6768087744712830e-01" purity="2.4494539201259613e-01" nType="0">
            <Node pos="l" depth="3" NCoef="0" IVar="-1" Cut="0.0000000000000000e+00" cType="1" res="-3.3293659798800945e-03" rms="3.7055110931396484e-01" purity="2.7032309770584106e-01" nType="-99"/>
            <Node pos="r" depth="3" NCoef="0" IVar="-1" Cut="0.0000000000000000e+00" cType="1" res="-1.4600394060835242e-03" rms="3.5152503848075867e-01" purity="1.9863951206207275e-01" nType="-99"/>
          </Node>
          <Node pos="r" depth="2" NCoef="0" IVar="-1" Cut="0.0000000000000000e+00" cType="1" res="7.5637083500623703e-04" rms="4.4755205512046814e-01" purity="6.0917830467224121e-01" nType="-99"/>
        </Node>
      </Node>
    </BinaryTree>
    <BinaryTree type="DecisionTree" boostWeight="1.0000000000000000e+00" itree="313">
      <Node pos="s" depth="0" NCoef="0" IVar="7" Cut="-6.6663515567779541e-01" cType="1" res="3.0452860519289970e-03" rms="3.9824596047401428e-01" purity="4.9346882104873657e-01" nType="0">
        <Node pos="l" depth="1" NCoef="0" IVar="3" Cut="2.6074639892578125e+02" cType="1" res="-3.8116507232189178e-02" rms="3.8280522823333740e-01" purity="3.6582481861114502e-01" nType="0">
          <Node pos="l" depth="2" NCoef="0" IVar="0" Cut="1.5924989013671875e+03" cType="1" res="-2.4975113570690155e-02" rms="3.7844938039779663e-01" purity="3.7057337164878845e-01" nType="0">
            <Node pos="l" depth="3" NCoef="0" IVar="-1" Cut="0.0000000000000000e+00" cType="1" res="-2.0525846630334854e-03" rms="3.7600857019424438e-01" purity="3.1932866573333740e-01" nType="-99"/>
            <Node pos="r" depth="3" NCoef="0" IVar="-1" Cut="0.0000000000000000e+00" cType="1" res="2.8613384347409010e-03" rms="3.7580144405364990e-01" purity="6.6708493232727051e-01" nType="-99"/>
          </Node>
          <Node pos="r" depth="2" NCoef="0" IVar="-1" Cut="0.0000000000000000e+00" cType="1" res="-5.4166456684470177e-03" rms="3.9571669697761536e-01" purity="3.4616896510124207e-01" nType="-99"/>
        </Node>
        <Node pos="r" depth="1" NCoef="0" IVar="7" Cut="6.5398377180099487e-01" cType="1" res="1.6525676473975182e-02" rms="4.0225967764854431e-01" purity="5.3527188301086426e-01" nType="0">
          <Node pos="l" depth="2" NCoef="0" IVar="2" Cut="5.4261816406250000e+02" cType="1" res="3.5684797912836075e-02" rms="4.0643948316574097e-01" purity="6.0947120189666748e-01" nType="0">
            <Node pos="l" depth="3" NCoef="0" IVar="-1" Cut="0.0000000000000000e+00" cType="1" res="1.6358840512111783e-03" rms="4.0128147602081299e-01" purity="6.3428574800491333e-01" nType="-99"/>
            <Node pos="r" depth="3" NCoef="0" IVar="-1" Cut="0.0000000000000000e+00" cType="1" res="-3.3526323386467993e-04" rms="4.3155300617218018e-01" purity="4.5939406752586365e-01" nType="-99"/>
          </Node>
          <Node pos="r" depth="2" NCoef="0" IVar="0" Cut="1.4074639892578125e+03" cType="1" res="-2.2114684805274010e-02" rms="3.9084807038307190e-01" purity="3.8562574982643127e-01" nType="0">
            <Node pos="l" depth="3" NCoef="0" IVar="-1" Cut="0.0000000000000000e+00" cType="1" res="-2.2204509004950523e-03" rms="3.7997648119926453e-01" purity="2.8447714447975159e-01" nType="-99"/>
            <Node pos="r" depth="3" NCoef="0" IVar="-1" Cut="0.0000000000000000e+00" cType="1" res="3.9278747863136232e-04" rms="4.0276598930358887e-01" purity="5.2046853303909302e-01" nType="-99"/>
          </Node>
        </Node>
      </Node>
    </BinaryTree>
    <BinaryTree type="DecisionTree" boostWeight="1.0000000000000000e+00" itree="314">
      <Node pos="s" depth="0" NCoef="0" IVar="0" Cut="1.4375306396484375e+03" cType="1" res="7.7165877446532249e-03" rms="3.9798051118850708e-01" purity="4.9996238946914673e-01" nType="0">
        <Node pos="l" depth="1" NCoef="0" IVar="2" Cut="2.2649284362792969e+02" cType="1" res="-1.3102151453495026e-02" rms="4.0498366951942444e-01" purity="3.9782819151878357e-01" nType="0">
          <Node pos="l" depth="2" NCoef="0" IVar="-1" Cut="0.0000000000000000e+00" cType="1" res="1.8932513194158673e-03" rms="4.1268801689147949e-01" purity="5.5231308937072754e-01" nType="-99"/>
          <Node pos="r" depth="2" NCoef="0" IVar="2" Cut="3.5263412475585938e+02" cType="1" res="-2.7276556938886642e-02" rms="4.0192565321922302e-01" purity="3.6668059229850769e-01" nType="0">
            <Node pos="l" depth="3" NCoef="0" IVar="-1" Cut="0.0000000000000000e+00" cType="1" res="-3.2522209221497178e-04" rms="4.1778430342674255e-01" purity="4.3817239999771118e-01" nType="-99"/>
            <Node pos="r" depth="3" NCoef="0" IVar="-1" Cut="0.0000000000000000e+00" cType="1" res="-3.8418462499976158e-03" rms="3.6151906847953796e-01" purity="2.1041975915431976e-01" nType="-99"/>
          </Node>
        </Node>
        <Node pos="r" depth="1" NCoef="0" IVar="2" Cut="5.0815478515625000e+02" cType="1" res="3.4660160541534424e-02" rms="3.8707101345062256e-01" purity="6.3214433193206787e-01" nType="0">
          <Node pos="l" depth="2" NCoef="0" IVar="3" Cut="2.6082345581054688e+02" cType="1" res="6.6048413515090942e-02" rms="3.6632102727890015e-01" purity="7.4900442361831665e-01" nType="0">
            <Node pos="l" depth="3" NCoef="0" IVar="-1" Cut="0.0000000000000000e+00" cType="1" res="3.5566738806664944e-03" rms="3.3354082703590393e-01" purity="8.2226288318634033e-01" nType="-99"/>
            <Node pos="r" depth="3" NCoef="0" IVar="-1" Cut="0.0000000000000000e+00" cType="1" res="6.8696972448378801e-04" rms="4.0415042638778687e-01" purity="6.4326143264770508e-01" nType="-99"/>
          </Node>
          <Node pos="r" depth="2" NCoef="0" IVar="0" Cut="2.0143685302734375e+03" cType="1" res="-2.2162519395351410e-02" rms="4.1606733202934265e-01" purity="4.2059040069580078e-01" nType="0">
            <Node pos="l" depth="3" NCoef="0" IVar="-1" Cut="0.0000000000000000e+00" cType="1" res="-1.1334724258631468e-03" rms="3.9904439449310303e-01" purity="3.0639809370040894e-01" nType="-99"/>
            <Node pos="r" depth="3" NCoef="0" IVar="-1" Cut="0.0000000000000000e+00" cType="1" res="1.4363023219630122e-03" rms="4.3554657697677612e-01" purity="6.0794317722320557e-01" nType="-99"/>
          </Node>
        </Node>
      </Node>
    </BinaryTree>
    <BinaryTree type="DecisionTree" boostWeight="1.0000000000000000e+00" itree="315">
      <Node pos="s" depth="0" NCoef="0" IVar="0" Cut="1.1148408203125000e+03" cType="1" res="6.3896272331476212e-03" rms="3.9696928858757019e-01" purity="4.9704027175903320e-01" nType="0">
        <Node pos="l" depth="1" NCoef="0" IVar="1" Cut="3.3965444946289062e+02" cType="1" res="-5.2970629185438156e-02" rms="3.8736516237258911e-01" purity="2.3997741937637329e-01" nType="0">
          <Node pos="l" depth="2" NCoef="0" IVar="-1" Cut="0.0000000000000000e+00" cType="1" res="-3.7386654876172543e-03" rms="3.6233082413673401e-01" purity="1.9831098616123199e-01" nType="-99"/>
          <Node pos="r" depth="2" NCoef="0" IVar="-1" Cut="0.0000000000000000e+00" cType="1" res="-9.6381077310070395e-04" rms="4.1041356325149536e-01" purity="2.8469851613044739e-01" nType="-99"/>
        </Node>
        <Node pos="r" depth="1" NCoef="0" IVar="2" Cut="3.3919467163085938e+02" cType="1" res="2.0120754837989807e-02" rms="3.9789882302284241e-01" purity="5.5650365352630615e-01" nType="0">
          <Node pos="l" depth="2" NCoef="0" IVar="3" Cut="1.9748818969726562e+02" cType="1" res="5.6101411581039429e-02" rms="3.8418227434158325e-01" purity="6.9656580686569214e-01" nType="0">
            <Node pos="l" depth="3" NCoef="0" IVar="-1" Cut="0.0000000000000000e+00" cType="1" res="3.1260980758816004e-03" rms="3.8844180107116699e-01" purity="7.1337008476257324e-01" nType="-99"/>
            <Node pos="r" depth="3" NCoef="0" IVar="-1" Cut="0.0000000000000000e+00" cType="1" res="8.8415306527167559e-04" rms="3.7743330001831055e-01" purity="6.8254268169403076e-01" nType="-99"/>
          </Node>
          <Node pos="r" depth="2" NCoef="0" IVar="0" Cut="1.7144986572265625e+03" cType="1" res="-7.2991754859685898e-03" rms="4.0590658783912659e-01" purity="4.4976586103439331e-01" nType="0">
            <Node pos="l" depth="3" NCoef="0" IVar="-1" Cut="0.0000000000000000e+00" cType="1" res="-1.6047820681706071e-03" rms="3.9695775508880615e-01" purity="3.5721784830093384e-01" nType="-99"/>
            <Node pos="r" depth="3" NCoef="0" IVar="-1" Cut="0.0000000000000000e+00" cType="1" res="1.4758324250578880e-03" rms="4.1727939248085022e-01" purity="6.1217600107192993e-01" nType="-99"/>
          </Node>
        </Node>
      </Node>
    </BinaryTree>
    <BinaryTree type="DecisionTree" boostWeight="1.0000000000000000e+00" itree="316">
      <Node pos="s" depth="0" NCoef="0" IVar="8" Cut="1.1999802589416504e+00" cType="1" res="7.3821814730763435e-03" rms="3.9954084157943726e-01" purity="4.9841505289077759e-01" nType="0">
        <Node pos="l" depth="1" NCoef="0" IVar="8" Cut="-1.4666777849197388e+00" cType="1" res="1.6145505011081696e-02" rms="4.0198174118995667e-01" purity="5.3090560436248779e-01" nType="0">
          <Node pos="l" depth="2" NCoef="0" IVar="7" Cut="3.9927706122398376e-01" cType="1" res="-5.8613725006580353e-02" rms="3.6092495918273926e-01" purity="2.3963786661624908e-01" nType="0">
            <Node pos="l" depth="3" NCoef="0" IVar="-1" Cut="0.0000000000000000e+00" cType="1" res="-2.2294232621788979e-03" rms="3.7711319327354431e-01" purity="2.7457541227340698e-01" nType="-99"/>
            <Node pos="r" depth="3" NCoef="0" IVar="-1" Cut="0.0000000000000000e+00" cType="1" res="-6.5495544113218784e-03" rms="3.1932318210601807e-01" purity="1.6429656744003296e-01" nType="-99"/>
          </Node>
          <Node pos="r" depth="2" NCoef="0" IVar="2" Cut="6.0625280761718750e+02" cType="1" res="2.4332160130143166e-02" rms="4.0538907051086426e-01" purity="5.6280136108398438e-01" nType="0">
            <Node pos="l" depth="3" NCoef="0" IVar="-1" Cut="0.0000000000000000e+00" cType="1" res="1.1853829491883516e-03" rms="4.0250942111015320e-01" purity="5.7796323299407959e-01" nType="-99"/>
            <Node pos="r" depth="3" NCoef="0" IVar="-1" Cut="0.0000000000000000e+00" cType="1" res="-7.0431461790576577e-04" rms="4.2505523562431335e-01" purity="4.1991567611694336e-01" nType="-99"/>
          </Node>
        </Node>
        <Node pos="r" depth="1" NCoef="0" IVar="6" Cut="-5.4509777575731277e-02" cType="1" res="-5.0947435200214386e-02" rms="3.7775284051895142e-01" purity="2.8215500712394714e-01" nType="0">
          <Node pos="l" depth="2" NCoef="0" IVar="9" Cut="1.3373337686061859e-01" cType="1" res="-8.3273619413375854e-02" rms="3.5960915684700012e-01" purity="2.3983278870582581e-01" nType="0">
            <Node pos="l" depth="3" NCoef="0" IVar="-1" Cut="0.0000000000000000e+00" cType="1" res="-3.4607884008437395e-03" rms="3.7342798709869385e-01" purity="2.6995214819908142e-01" nType="-99"/>
            <Node pos="r" depth="3" NCoef="0" IVar="-1" Cut="0.0000000000000000e+00" cType="1" res="-6.8026683293282986e-03" rms="3.4222546219825745e-01" purity="2.0643450319766998e-01" nType="-99"/>
          </Node>
          <Node pos="r" depth="2" NCoef="0" IVar="6" Cut="8.9669030904769897e-01" cType="1" res="-2.7747612446546555e-02" rms="3.8860061764717102e-01" purity="3.1252875924110413e-01" nType="0">
            <Node pos="l" depth="3" NCoef="0" IVar="-1" Cut="0.0000000000000000e+00" cType="1" res="-1.3354601105675101e-04" rms="4.1652715206146240e-01" purity="4.1063651442527771e-01" nType="-99"/>
            <Node pos="r" depth="3" NCoef="0" IVar="-1" Cut="0.0000000000000000e+00" cType="1" res="-4.1647120378911495e-03" rms="3.4220927953720093e-01" purity="1.7354132235050201e-01" nType="-99"/>
          </Node>
        </Node>
      </Node>
    </BinaryTree>
    <BinaryTree type="DecisionTree" boostWeight="1.0000000000000000e+00" itree="317">
      <Node pos="s" depth="0" NCoef="0" IVar="9" Cut="1.2000404596328735e+00" cType="1" res="6.5264222212135792e-03" rms="3.9855039119720459e-01" purity="4.9837398529052734e-01" nType="0">
        <Node pos="l" depth="1" NCoef="0" IVar="9" Cut="-1.2760406732559204e+00" cType="1" res="1.5528376214206219e-02" rms="4.0040186047554016e-01" purity="5.2573478221893311e-01" nType="0">
          <Node pos="l" depth="2" NCoef="0" IVar="9" Cut="-2.0016384124755859e+00" cType="1" res="-4.3041151016950607e-02" rms="3.8561064004898071e-01" purity="3.3251640200614929e-01" nType="0">
            <Node pos="l" depth="3" NCoef="0" IVar="-1" Cut="0.0000000000000000e+00" cType="1" res="-6.5501378849148750e-03" rms="3.4512707591056824e-01" purity="2.1030509471893311e-01" nType="-99"/>
            <Node pos="r" depth="3" NCoef="0" IVar="-1" Cut="0.0000000000000000e+00" cType="1" res="-1.1064838618040085e-03" rms="3.9991229772567749e-01" purity="3.8429677486419678e-01" nType="-99"/>
          </Node>
          <Node pos="r" depth="2" NCoef="0" IVar="0" Cut="1.3946723632812500e+03" cType="1" res="2.5628512725234032e-02" rms="4.0203601121902466e-01" purity="5.5905473232269287e-01" nType="0">
            <Node pos="l" depth="3" NCoef="0" IVar="-1" Cut="0.0000000000000000e+00" cType="1" res="9.3733462563250214e-05" rms="4.2001241445541382e-01" purity="4.4001656770706177e-01" nType="-99"/>
            <Node pos="r" depth="3" NCoef="0" IVar="-1" Cut="0.0000000000000000e+00" cType="1" res="1.3911331770941615e-03" rms="3.8251024484634399e-01" purity="6.7426413297653198e-01" nType="-99"/>
          </Node>
        </Node>
        <Node pos="r" depth="1" NCoef="0" IVar="3" Cut="2.4495077514648438e+02" cType="1" res="-4.8790544271469116e-02" rms="3.8235414028167725e-01" purity="3.3024191856384277e-01" nType="0">
          <Node pos="l" depth="2" NCoef="0" IVar="9" Cut="1.7333698272705078e+00" cType="1" res="-3.3730793744325638e-02" rms="3.8044178485870361e-01" purity="3.3447918295860291e-01" nType="0">
            <Node pos="l" depth="3" NCoef="0" IVar="-1" Cut="0.0000000000000000e+00" cType="1" res="-3.2884828397072852e-04" rms="4.0146076679229736e-01" purity="4.1475665569305420e-01" nType="-99"/>
            <Node pos="r" depth="3" NCoef="0" IVar="-1" Cut="0.0000000000000000e+00" cType="1" res="-3.3513130620121956e-03" rms="3.5293114185333252e-01" purity="2.4403844773769379e-01" nType="-99"/>
          </Node>
          <Node pos="r" depth="2" NCoef="0" IVar="-1" Cut="0.0000000000000000e+00" cType="1" res="-6.0952976346015930e-03" rms="3.8447681069374084e-01" purity="3.1684246659278870e-01" nType="-99"/>
        </Node>
      </Node>
    </BinaryTree>
    <BinaryTree type="DecisionTree" boostWeight="1.0000000000000000e+00" itree="318">
      <Node pos="s" depth="0" NCoef="0" IVar="0" Cut="1.5806380615234375e+03" cType="1" res="1.0033815167844296e-02" rms="3.9868882298469543e-01" purity="5.0466990470886230e-01" nType="0">
        <Node pos="l" depth="1" NCoef="0" IVar="3" Cut="2.4534466552734375e+02" cType="1" res="-3.5894976463168859e-03" rms="4.0304073691368103e-01" purity="4.4240006804466248e-01" nType="0">
          <Node pos="l" depth="2" NCoef="0" IVar="0" Cut="1.2832646484375000e+03" cType="1" res="8.3672245964407921e-03" rms="4.0237942337989807e-01" purity="4.5389121770858765e-01" nType="0">
            <Node pos="l" depth="3" NCoef="0" IVar="-1" Cut="0.0000000000000000e+00" cType="1" res="-5.9295695973560214e-04" rms="4.1261187195777893e-01" purity="3.5023334622383118e-01" nType="-99"/>
            <Node pos="r" depth="3" NCoef="0" IVar="-1" Cut="0.0000000000000000e+00" cType="1" res="1.7593547236174345e-03" rms="3.8262793421745300e-01" purity="6.1962229013442993e-01" nType="-99"/>
          </Node>
          <Node pos="r" depth="2" NCoef="0" IVar="3" Cut="2.6975909423828125e+02" cType="1" res="-8.0548793077468872e-02" rms="3.9878231287002563e-01" purity="3.6843779683113098e-01" nType="0">
            <Node pos="l" depth="3" NCoef="0" IVar="-1" Cut="0.0000000000000000e+00" cType="1" res="-2.4006564635783434e-03" rms="4.0666800737380981e-01" purity="4.5065054297447205e-01" nType="-99"/>
            <Node pos="r" depth="3" NCoef="0" IVar="-1" Cut="0.0000000000000000e+00" cType="1" res="-5.9386957436800003e-03" rms="3.9072322845458984e-01" purity="3.0277356505393982e-01" nType="-99"/>
          </Node>
        </Node>
        <Node pos="r" depth="1" NCoef="0" IVar="2" Cut="6.0657928466796875e+02" cType="1" res="4.2171355336904526e-02" rms="3.8633072376251221e-01" purity="6.5156507492065430e-01" nType="0">
          <Node pos="l" depth="2" NCoef="0" IVar="3" Cut="3.1710119628906250e+02" cType="1" res="7.1705631911754608e-02" rms="3.6393111944198608e-01" purity="7.4122601747512817e-01" nType="0">
            <Node pos="l" depth="3" NCoef="0" IVar="-1" Cut="0.0000000000000000e+00" cType="1" res="3.6137385759502649e-03" rms="3.3839806914329529e-01" purity="8.0288767814636230e-01" nType="-99"/>
            <Node pos="r" depth="3" NCoef="0" IVar="-1" Cut="0.0000000000000000e+00" cType="1" res="1.7506537551525980e-04" rms="4.1655799746513367e-01" purity="5.7845467329025269e-01" nType="-99"/>
          </Node>
          <Node pos="r" depth="2" NCoef="0" IVar="1" Cut="6.0600360107421875e+02" cType="1" res="-3.0800933018326759e-02" rms="4.2812836170196533e-01" purity="4.3003395199775696e-01" nType="0">
            <Node pos="l" depth="3" NCoef="0" IVar="-1" Cut="0.0000000000000000e+00" cType="1" res="-1.0200911201536655e-03" rms="4.0487009286880493e-01" purity="2.8687021136283875e-01" nType="-99"/>
            <Node pos="r" depth="3" NCoef="0" IVar="-1" Cut="0.0000000000000000e+00" cType="1" res="1.5083487378433347e-03" rms="4.4794309139251709e-01" purity="6.3340812921524048e-01" nType="-99"/>
          </Node>
        </Node>
      </Node>
    </BinaryTree>
    <BinaryTree type="DecisionTree" boostWeight="1.0000000000000000e+00" itree="319">
      <Node pos="s" depth="0" NCoef="0" IVar="0" Cut="1.7854975585937500e+03" cType="1" res="3.9273551665246487e-03" rms="3.9766925573348999e-01" purity="4.9504008889198303e-01" nType="0">
        <Node pos="l" depth="1" NCoef="0" IVar="2" Cut="6.0964941406250000e+02" cType="1" res="-6.0768090188503265e-03" rms="3.9705881476402283e-01" purity="4.6258780360221863e-01" nType="0">
          <Node pos="l" depth="2" NCoef="0" IVar="1" Cut="3.6129061889648438e+02" cType="1" res="-2.8186134295538068e-04" rms="3.9901378750801086e-01" purity="4.7577822208404541e-01" nType="0">
            <Node pos="l" depth="3" NCoef="0" IVar="-1" Cut="0.0000000000000000e+00" cType="1" res="-1.3646514853462577e-03" rms="3.9391240477561951e-01" purity="3.4486368298530579e-01" nType="-99"/>
            <Node pos="r" depth="3" NCoef="0" IVar="-1" Cut="0.0000000000000000e+00" cType="1" res="8.3374965470284224e-04" rms="4.0111497044563293e-01" purity="5.6670218706130981e-01" nType="-99"/>
          </Node>
          <Node pos="r" depth="2" NCoef="0" IVar="-1" Cut="0.0000000000000000e+00" cType="1" res="-6.8677670788019896e-04" rms="3.0562505125999451e-01" purity="1.1880235373973846e-01" nType="-99"/>
        </Node>
        <Node pos="r" depth="1" NCoef="0" IVar="2" Cut="7.1426708984375000e+02" cType="1" res="5.6141190230846405e-02" rms="3.9676713943481445e-01" purity="6.6441553831100464e-01" nType="0">
          <Node pos="l" depth="2" NCoef="0" IVar="3" Cut="3.3807363891601562e+02" cType="1" res="9.5192521810531616e-02" rms="3.7444794178009033e-01" purity="7.3985952138900757e-01" nType="0">
            <Node pos="l" depth="3" NCoef="0" IVar="-1" Cut="0.0000000000000000e+00" cType="1" res="4.4079804793000221e-03" rms="3.4419959783554077e-01" purity="8.0954277515411377e-01" nType="-99"/>
            <Node pos="r" depth="3" NCoef="0" IVar="-1" Cut="0.0000000000000000e+00" cType="1" res="8.7314262054860592e-04" rms="4.1971492767333984e-01" purity="5.9946173429489136e-01" nType="-99"/>
          </Node>
          <Node pos="r" depth="2" NCoef="0" IVar="-1" Cut="0.0000000000000000e+00" cType="1" res="-1.9866491202265024e-03" rms="4.3418818712234497e-01" purity="4.6217691898345947e-01" nType="-99"/>
        </Node>
      </Node>
    </BinaryTree>
    <BinaryTree type="DecisionTree" boostWeight="1.0000000000000000e+00" itree="320">
      <Node pos="s" depth="0" NCoef="0" IVar="0" Cut="1.4630610351562500e+03" cType="1" res="7.0888116024434566e-03" rms="3.9841231703758240e-01" purity="4.9937602877616882e-01" nType="0">
        <Node pos="l" depth="1" NCoef="0" IVar="2" Cut="2.3109620666503906e+02" cType="1" res="-1.1019445955753326e-02" rms="4.0537670254707336e-01" purity="4.0469747781753540e-01" nType="0">
          <Node pos="l" depth="2" NCoef="0" IVar="-1" Cut="0.0000000000000000e+00" cType="1" res="1.8305996200069785e-03" rms="4.1825938224792480e-01" purity="5.4577887058258057e-01" nType="-99"/>
          <Node pos="r" depth="2" NCoef="0" IVar="1" Cut="3.4436633300781250e+02" cType="1" res="-2.5581460446119308e-02" rms="4.0094926953315735e-01" purity="3.7234529852867126e-01" nType="0">
            <Node pos="l" depth="3" NCoef="0" IVar="-1" Cut="0.0000000000000000e+00" cType="1" res="-2.8693764470517635e-03" rms="3.7346890568733215e-01" purity="2.6477515697479248e-01" nType="-99"/>
            <Node pos="r" depth="3" NCoef="0" IVar="-1" Cut="0.0000000000000000e+00" cType="1" res="-1.8244978855364025e-04" rms="4.1492331027984619e-01" purity="4.3596231937408447e-01" nType="-99"/>
          </Node>
        </Node>
        <Node pos="r" depth="1" NCoef="0" IVar="2" Cut="6.6219451904296875e+02" cType="1" res="3.3274322748184204e-02" rms="3.8662341237068176e-01" purity="6.3628637790679932e-01" nType="0">
          <Node pos="l" depth="2" NCoef="0" IVar="2" Cut="4.4213665771484375e+02" cType="1" res="5.2529603242874146e-02" rms="3.7593442201614380e-01" purity="6.8580788373947144e-01" nType="0">
            <Node pos="l" depth="3" NCoef="0" IVar="-1" Cut="0.0000000000000000e+00" cType="1" res="3.0125565826892853e-03" rms="3.4059727191925049e-01" purity="8.0536961555480957e-01" nType="-99"/>
            <Node pos="r" depth="3" NCoef="0" IVar="-1" Cut="0.0000000000000000e+00" cType="1" res="4.7010942944325507e-04" rms="4.2185416817665100e-01" purity="4.9947166442871094e-01" nType="-99"/>
          </Node>
          <Node pos="r" depth="2" NCoef="0" IVar="1" Cut="6.3032098388671875e+02" cType="1" res="-6.0702994465827942e-02" rms="4.2263227701187134e-01" purity="3.9459201693534851e-01" nType="0">
            <Node pos="l" depth="3" NCoef="0" IVar="-1" Cut="0.0000000000000000e+00" cType="1" res="-6.9699663436040282e-04" rms="3.9412879943847656e-01" purity="2.4814316630363464e-01" nType="-99"/>
            <Node pos="r" depth="3" NCoef="0" IVar="-1" Cut="0.0000000000000000e+00" cType="1" res="1.0860286420211196e-03" rms="4.4894918799400330e-01" purity="6.3014686107635498e-01" nType="-99"/>
          </Node>
        </Node>
      </Node>
    </BinaryTree>
    <BinaryTree type="DecisionTree" boostWeight="1.0000000000000000e+00" itree="321">
      <Node pos="s" depth="0" NCoef="0" IVar="0" Cut="1.1905270996093750e+03" cType="1" res="6.2063457444310188e-03" rms="3.9696392416954041e-01" purity="4.9920600652694702e-01" nType="0">
        <Node pos="l" depth="1" NCoef="0" IVar="2" Cut="2.3715187072753906e+02" cType="1" res="-3.2029878348112106e-02" rms="3.9970460534095764e-01" purity="2.8552699089050293e-01" nType="0">
          <Node pos="l" depth="2" NCoef="0" IVar="-1" Cut="0.0000000000000000e+00" cType="1" res="2.6896409690380096e-04" rms="4.3417164683341980e-01" purity="3.9864522218704224e-01" nType="-99"/>
          <Node pos="r" depth="2" NCoef="0" IVar="3" Cut="1.6127973937988281e+02" cType="1" res="-5.0908416509628296e-02" rms="3.8064289093017578e-01" purity="2.3131309449672699e-01" nType="0">
            <Node pos="l" depth="3" NCoef="0" IVar="-1" Cut="0.0000000000000000e+00" cType="1" res="-1.5520969172939658e-03" rms="3.8190522789955139e-01" purity="2.3162876069545746e-01" nType="-99"/>
            <Node pos="r" depth="3" NCoef="0" IVar="-1" Cut="0.0000000000000000e+00" cType="1" res="-3.5615481901913881e-03" rms="3.7621906399726868e-01" purity="2.3070958256721497e-01" nType="-99"/>
          </Node>
        </Node>
        <Node pos="r" depth="1" NCoef="0" IVar="3" Cut="2.4900003051757812e+02" cType="1" res="2.0901897922158241e-02" rms="3.9492189884185791e-01" purity="5.8133053779602051e-01" nType="0">
          <Node pos="l" depth="2" NCoef="0" IVar="2" Cut="3.2219790649414062e+02" cType="1" res="4.1575592011213303e-02" rms="3.8662523031234741e-01" purity="6.1302351951599121e-01" nType="0">
            <Node pos="l" depth="3" NCoef="0" IVar="-1" Cut="0.0000000000000000e+00" cType="1" res="2.8676043730229139e-03" rms="3.5655713081359863e-01" purity="7.8443408012390137e-01" nType="-99"/>
            <Node pos="r" depth="3" NCoef="0" IVar="-1" Cut="0.0000000000000000e+00" cType="1" res="3.7257239455357194e-04" rms="4.0646612644195557e-01" purity="4.7413015365600586e-01" nType="-99"/>
          </Node>
          <Node pos="r" depth="2" NCoef="0" IVar="0" Cut="1.5624761962890625e+03" cType="1" res="-1.6663977876305580e-02" rms="4.0688812732696533e-01" purity="5.2374172210693359e-01" nType="0">
            <Node pos="l" depth="3" NCoef="0" IVar="-1" Cut="0.0000000000000000e+00" cType="1" res="-3.9136139675974846e-03" rms="4.0402880311012268e-01" purity="3.7320914864540100e-01" nType="-99"/>
            <Node pos="r" depth="3" NCoef="0" IVar="-1" Cut="0.0000000000000000e+00" cType="1" res="3.4425218473188579e-04" rms="4.0560424327850342e-01" purity="5.8826756477355957e-01" nType="-99"/>
          </Node>
        </Node>
      </Node>
    </BinaryTree>
    <BinaryTree type="DecisionTree" boostWeight="1.0000000000000000e+00" itree="322">
      <Node pos="s" depth="0" NCoef="0" IVar="8" Cut="-9.3333190679550171e-01" cType="1" res="4.5464173890650272e-03" rms="3.9794164896011353e-01" purity="4.9540889263153076e-01" nType="0">
        <Node pos="l" depth="1" NCoef="0" IVar="8" Cut="-2.0888850688934326e+00" cType="1" res="-3.8885656744241714e-02" rms="3.8194069266319275e-01" purity="3.4848043322563171e-01" nType="0">
          <Node pos="l" depth="2" NCoef="0" IVar="-1" Cut="0.0000000000000000e+00" cType="1" res="-7.3521705344319344e-03" rms="3.0099448561668396e-01" purity="1.3723522424697876e-01" nType="-99"/>
          <Node pos="r" depth="2" NCoef="0" IVar="2" Cut="4.2628353881835938e+02" cType="1" res="-2.5360323488712311e-02" rms="3.9364039897918701e-01" purity="3.8762649893760681e-01" nType="0">
            <Node pos="l" depth="3" NCoef="0" IVar="-1" Cut="0.0000000000000000e+00" cType="1" res="-3.5293254768475890e-04" rms="3.9990416169166565e-01" purity="4.3820899724960327e-01" nType="-99"/>
            <Node pos="r" depth="3" NCoef="0" IVar="-1" Cut="0.0000000000000000e+00" cType="1" res="-4.6029840596020222e-03" rms="3.7341055274009705e-01" purity="2.5672602653503418e-01" nType="-99"/>
          </Node>
        </Node>
        <Node pos="r" depth="1" NCoef="0" IVar="8" Cut="6.6666752099990845e-01" cType="1" res="1.4668171294033527e-02" rms="4.0090358257293701e-01" purity="5.2965021133422852e-01" nType="0">
          <Node pos="l" depth="2" NCoef="0" IVar="0" Cut="1.1152744140625000e+03" cType="1" res="3.3971786499023438e-02" rms="4.0327328443527222e-01" purity="5.9118723869323730e-01" nType="0">
            <Node pos="l" depth="3" NCoef="0" IVar="-1" Cut="0.0000000000000000e+00" cType="1" res="-5.9941201470792294e-04" rms="4.3416884541511536e-01" purity="3.2711547613143921e-01" nType="-99"/>
            <Node pos="r" depth="3" NCoef="0" IVar="-1" Cut="0.0000000000000000e+00" cType="1" res="1.6321028815582395e-03" rms="3.9629468321800232e-01" purity="6.4224016666412354e-01" nType="-99"/>
          </Node>
          <Node pos="r" depth="2" NCoef="0" IVar="9" Cut="1.2001010179519653e+00" cType="1" res="-2.5745324790477753e-02" rms="3.9283663034439087e-01" purity="4.0081807971000671e-01" nType="0">
            <Node pos="l" depth="3" NCoef="0" IVar="-1" Cut="0.0000000000000000e+00" cType="1" res="-5.9441424673423171e-04" rms="3.9944139122962952e-01" purity="4.3654906749725342e-01" nType="-99"/>
            <Node pos="r" depth="3" NCoef="0" IVar="-1" Cut="0.0000000000000000e+00" cType="1" res="-5.1326788961887360e-03" rms="3.5703852772712708e-01" purity="2.4104630947113037e-01" nType="-99"/>
          </Node>
        </Node>
      </Node>
    </BinaryTree>
    <BinaryTree type="DecisionTree" boostWeight="1.0000000000000000e+00" itree="323">
      <Node pos="s" depth="0" NCoef="0" IVar="7" Cut="-6.6661459207534790e-01" cType="1" res="1.0635876096785069e-02" rms="3.9741471409797668e-01" purity="5.0219315290451050e-01" nType="0">
        <Node pos="l" depth="1" NCoef="0" IVar="2" Cut="5.7004113769531250e+02" cType="1" res="-3.0446376651525497e-02" rms="3.8323956727981567e-01" purity="3.7562152743339539e-01" nType="0">
          <Node pos="l" depth="2" NCoef="0" IVar="0" Cut="1.7030604248046875e+03" cType="1" res="-2.0417613908648491e-02" rms="3.8588348031044006e-01" purity="3.9537823200225830e-01" nType="0">
            <Node pos="l" depth="3" NCoef="0" IVar="-1" Cut="0.0000000000000000e+00" cType="1" res="-1.5525968046858907e-03" rms="3.8393715023994446e-01" purity="3.5259610414505005e-01" nType="-99"/>
            <Node pos="r" depth="3" NCoef="0" IVar="-1" Cut="0.0000000000000000e+00" cType="1" res="2.7142700273543596e-03" rms="3.8641592860221863e-01" purity="7.1705162525177002e-01" nType="-99"/>
          </Node>
          <Node pos="r" depth="2" NCoef="0" IVar="-1" Cut="0.0000000000000000e+00" cType="1" res="-8.6462851613759995e-03" rms="3.5100516676902771e-01" purity="2.1673284471035004e-01" nType="-99"/>
        </Node>
        <Node pos="r" depth="1" NCoef="0" IVar="7" Cut="6.5393674373626709e-01" cType="1" res="2.3953385651111603e-02" rms="4.0100023150444031e-01" purity="5.4322361946105957e-01" nType="0">
          <Node pos="l" depth="2" NCoef="0" IVar="6" Cut="1.2026580572128296e+00" cType="1" res="4.3901640921831131e-02" rms="4.0492129325866699e-01" purity="6.1830848455429077e-01" nType="0">
            <Node pos="l" depth="3" NCoef="0" IVar="-1" Cut="0.0000000000000000e+00" cType="1" res="1.8053503008559346e-03" rms="4.0397903323173523e-01" purity="6.4385211467742920e-01" nType="-99"/>
            <Node pos="r" depth="3" NCoef="0" IVar="-1" Cut="0.0000000000000000e+00" cType="1" res="-1.1940265540033579e-03" rms="4.0743449330329895e-01" purity="3.6668217182159424e-01" nType="-99"/>
          </Node>
          <Node pos="r" depth="2" NCoef="0" IVar="0" Cut="1.3332235107421875e+03" cType="1" res="-1.6260778531432152e-02" rms="3.8988634943962097e-01" purity="3.9185810089111328e-01" nType="0">
            <Node pos="l" depth="3" NCoef="0" IVar="-1" Cut="0.0000000000000000e+00" cType="1" res="-2.2539738565683365e-03" rms="3.8238352537155151e-01" purity="2.6257264614105225e-01" nType="-99"/>
            <Node pos="r" depth="3" NCoef="0" IVar="-1" Cut="0.0000000000000000e+00" cType="1" res="4.1567659354768693e-04" rms="3.9504656195640564e-01" purity="5.1363301277160645e-01" nType="-99"/>
          </Node>
        </Node>
      </Node>
    </BinaryTree>
    <BinaryTree type="DecisionTree" boostWeight="1.0000000000000000e+00" itree="324">
      <Node pos="s" depth="0" NCoef="0" IVar="9" Cut="1.2000390291213989e+00" cType="1" res="7.4675325304269791e-03" rms="3.9936390519142151e-01" purity="4.9714827537536621e-01" nType="0">
        <Node pos="l" depth="1" NCoef="0" IVar="9" Cut="-8.9513027667999268e-01" cType="1" res="1.6008343547582626e-02" rms="4.0111002326011658e-01" purity="5.2449959516525269e-01" nType="0">
          <Node pos="l" depth="2" NCoef="0" IVar="3" Cut="2.4112457275390625e+02" cType="1" res="-2.3132396861910820e-02" rms="3.9083471894264221e-01" purity="3.9630603790283203e-01" nType="0">
            <Node pos="l" depth="3" NCoef="0" IVar="-1" Cut="0.0000000000000000e+00" cType="1" res="-2.8777055558748543e-04" rms="3.8597533106803894e-01" purity="3.9907151460647583e-01" nType="-99"/>
            <Node pos="r" depth="3" NCoef="0" IVar="-1" Cut="0.0000000000000000e+00" cType="1" res="-3.9058134425431490e-03" rms="4.0041351318359375e-01" purity="3.8852202892303467e-01" nType="-99"/>
          </Node>
          <Node pos="r" depth="2" NCoef="0" IVar="2" Cut="7.1392669677734375e+02" cType="1" res="2.8951035812497139e-02" rms="4.0361613035202026e-01" purity="5.6688946485519409e-01" nType="0">
            <Node pos="l" depth="3" NCoef="0" IVar="-1" Cut="0.0000000000000000e+00" cType="1" res="1.3119226787239313e-03" rms="4.0114483237266541e-01" purity="5.7454538345336914e-01" nType="-99"/>
            <Node pos="r" depth="3" NCoef="0" IVar="-1" Cut="0.0000000000000000e+00" cType="1" res="-6.0327339451760054e-04" rms="4.3285945057868958e-01" purity="4.2971789836883545e-01" nType="-99"/>
          </Node>
        </Node>
        <Node pos="r" depth="1" NCoef="0" IVar="3" Cut="2.0229229736328125e+02" cType="1" res="-4.3613847345113754e-02" rms="3.8481989502906799e-01" purity="3.3356344699859619e-01" nType="0">
          <Node pos="l" depth="2" NCoef="0" IVar="9" Cut="1.7334655523300171e+00" cType="1" res="-1.6832470893859863e-02" rms="3.8575178384780884e-01" purity="3.1267073750495911e-01" nType="0">
            <Node pos="l" depth="3" NCoef="0" IVar="-1" Cut="0.0000000000000000e+00" cType="1" res="3.4473167033866048e-04" rms="4.1499906778335571e-01" purity="3.8206827640533447e-01" nType="-99"/>
            <Node pos="r" depth="3" NCoef="0" IVar="-1" Cut="0.0000000000000000e+00" cType="1" res="-2.4187562521547079e-03" rms="3.4795731306076050e-01" purity="2.3477986454963684e-01" nType="-99"/>
          </Node>
          <Node pos="r" depth="2" NCoef="0" IVar="0" Cut="1.5371831054687500e+03" cType="1" res="-7.7477671205997467e-02" rms="3.8095235824584961e-01" purity="3.5998126864433289e-01" nType="0">
            <Node pos="l" depth="3" NCoef="0" IVar="-1" Cut="0.0000000000000000e+00" cType="1" res="-6.8468917161226273e-03" rms="3.5445314645767212e-01" purity="2.6519629359245300e-01" nType="-99"/>
            <Node pos="r" depth="3" NCoef="0" IVar="-1" Cut="0.0000000000000000e+00" cType="1" res="-1.6839617164805532e-03" rms="4.0149351954460144e-01" purity="4.5568728446960449e-01" nType="-99"/>
          </Node>
        </Node>
      </Node>
    </BinaryTree>
    <BinaryTree type="DecisionTree" boostWeight="1.0000000000000000e+00" itree="325">
      <Node pos="s" depth="0" NCoef="0" IVar="6" Cut="-1.4580757617950439e+00" cType="1" res="6.4057470299303532e-03" rms="3.9690855145454407e-01" purity="4.9902433156967163e-01" nType="0">
        <Node pos="l" depth="1" NCoef="0" IVar="9" Cut="-3.9959663152694702e-01" cType="1" res="-7.8428037464618683e-02" rms="3.3146640658378601e-01" purity="2.0061187446117401e-01" nType="0">
          <Node pos="l" depth="2" NCoef="0" IVar="-1" Cut="0.0000000000000000e+00" cType="1" res="-1.0304450988769531e-02" rms="2.8211304545402527e-01" purity="1.4028783142566681e-01" nType="-99"/>
          <Node pos="r" depth="2" NCoef="0" IVar="-1" Cut="0.0000000000000000e+00" cType="1" res="-2.7048643678426743e-03" rms="3.6045706272125244e-01" purity="2.4494870007038116e-01" nType="-99"/>
        </Node>
        <Node pos="r" depth="1" NCoef="0" IVar="6" Cut="7.7215623855590820e-01" cType="1" res="1.2302595190703869e-02" rms="4.0039318799972534e-01" purity="5.1976716518402100e-01" nType="0">
          <Node pos="l" depth="2" NCoef="0" IVar="2" Cut="5.4261816406250000e+02" cType="1" res="2.4407064542174339e-02" rms="4.0297663211822510e-01" purity="5.6712770462036133e-01" nType="0">
            <Node pos="l" depth="3" NCoef="0" IVar="-1" Cut="0.0000000000000000e+00" cType="1" res="1.2739301891997457e-03" rms="3.9983770251274109e-01" purity="5.9331786632537842e-01" nType="-99"/>
            <Node pos="r" depth="3" NCoef="0" IVar="-1" Cut="0.0000000000000000e+00" cType="1" res="-1.7105725128203630e-03" rms="4.1699689626693726e-01" purity="4.0436470508575439e-01" nType="-99"/>
          </Node>
          <Node pos="r" depth="2" NCoef="0" IVar="3" Cut="2.7341763305664062e+02" cType="1" res="-2.9910657554864883e-02" rms="3.8830888271331787e-01" purity="3.5460150241851807e-01" nType="0">
            <Node pos="l" depth="3" NCoef="0" IVar="-1" Cut="0.0000000000000000e+00" cType="1" res="-6.2830297974869609e-04" rms="3.8669204711914062e-01" purity="3.6367601156234741e-01" nType="-99"/>
            <Node pos="r" depth="3" NCoef="0" IVar="-1" Cut="0.0000000000000000e+00" cType="1" res="-6.5725366584956646e-03" rms="3.8678675889968872e-01" purity="3.0977806448936462e-01" nType="-99"/>
          </Node>
        </Node>
      </Node>
    </BinaryTree>
    <BinaryTree type="DecisionTree" boostWeight="1.0000000000000000e+00" itree="326">
      <Node pos="s" depth="0" NCoef="0" IVar="0" Cut="1.7602282714843750e+03" cType="1" res="5.3731948137283325e-03" rms="3.9810052514076233e-01" purity="4.9740305542945862e-01" nType="0">
        <Node pos="l" depth="1" NCoef="0" IVar="2" Cut="3.1629589843750000e+02" cType="1" res="-5.0375992432236671e-03" rms="3.9790710806846619e-01" purity="4.6216613054275513e-01" nType="0">
          <Node pos="l" depth="2" NCoef="0" IVar="0" Cut="1.3030061035156250e+03" cType="1" res="2.2613946348428726e-02" rms="3.9866375923156738e-01" purity="5.4877835512161255e-01" nType="0">
            <Node pos="l" depth="3" NCoef="0" IVar="-1" Cut="0.0000000000000000e+00" cType="1" res="-3.5671907244250178e-04" rms="4.2383244633674622e-01" purity="4.0765443444252014e-01" nType="-99"/>
            <Node pos="r" depth="3" NCoef="0" IVar="-1" Cut="0.0000000000000000e+00" cType="1" res="3.2413376029580832e-03" rms="3.3460935950279236e-01" purity="8.2758569717407227e-01" nType="-99"/>
          </Node>
          <Node pos="r" depth="2" NCoef="0" IVar="1" Cut="3.5732266235351562e+02" cType="1" res="-3.5277660936117172e-02" rms="3.9486742019653320e-01" purity="3.6744597554206848e-01" nType="0">
            <Node pos="l" depth="3" NCoef="0" IVar="-1" Cut="0.0000000000000000e+00" cType="1" res="-1.7782297218218446e-03" rms="3.5940626263618469e-01" purity="2.4257537722587585e-01" nType="-99"/>
            <Node pos="r" depth="3" NCoef="0" IVar="-1" Cut="0.0000000000000000e+00" cType="1" res="-6.1232195002958179e-04" rms="4.1313782334327698e-01" purity="4.4213843345642090e-01" nType="-99"/>
          </Node>
        </Node>
        <Node pos="r" depth="1" NCoef="0" IVar="2" Cut="6.3950213623046875e+02" cType="1" res="5.5403508245944977e-02" rms="3.9522144198417664e-01" purity="6.6673833131790161e-01" nType="0">
          <Node pos="l" depth="2" NCoef="0" IVar="3" Cut="3.2389294433593750e+02" cType="1" res="9.4663701951503754e-02" rms="3.6471295356750488e-01" purity="7.6458036899566650e-01" nType="0">
            <Node pos="l" depth="3" NCoef="0" IVar="-1" Cut="0.0000000000000000e+00" cType="1" res="4.4830492697656155e-03" rms="3.2459899783134460e-01" purity="8.4494876861572266e-01" nType="-99"/>
            <Node pos="r" depth="3" NCoef="0" IVar="-1" Cut="0.0000000000000000e+00" cType="1" res="1.0403993073850870e-03" rms="4.1896620392799377e-01" purity="6.2030649185180664e-01" nType="-99"/>
          </Node>
          <Node pos="r" depth="2" NCoef="0" IVar="1" Cut="6.0617028808593750e+02" cType="1" res="-1.8583972007036209e-02" rms="4.3762218952178955e-01" purity="4.8235085606575012e-01" nType="0">
            <Node pos="l" depth="3" NCoef="0" IVar="-1" Cut="0.0000000000000000e+00" cType="1" res="-5.7383659295737743e-03" rms="4.1798186302185059e-01" purity="3.0893838405609131e-01" nType="-99"/>
            <Node pos="r" depth="3" NCoef="0" IVar="-1" Cut="0.0000000000000000e+00" cType="1" res="1.6142028616741300e-03" rms="4.4343200325965881e-01" purity="6.4131540060043335e-01" nType="-99"/>
          </Node>
        </Node>
      </Node>
    </BinaryTree>
    <BinaryTree type="DecisionTree" boostWeight="1.0000000000000000e+00" itree="327">
      <Node pos="s" depth="0" NCoef="0" IVar="6" Cut="6.8399143218994141e-01" cType="1" res="6.6572274081408978e-03" rms="3.9672464132308960e-01" purity="5.0072270631790161e-01" nType="0">
        <Node pos="l" depth="1" NCoef="0" IVar="6" Cut="-7.8948229551315308e-01" cType="1" res="2.0200472325086594e-02" rms="3.9796057343482971e-01" purity="5.4254215955734253e-01" nType="0">
          <Node pos="l" depth="2" NCoef="0" IVar="0" Cut="1.4574510498046875e+03" cType="1" res="-3.4378793090581894e-02" rms="3.7938269972801208e-01" purity="3.4835347533226013e-01" nType="0">
            <Node pos="l" depth="3" NCoef="0" IVar="-1" Cut="0.0000000000000000e+00" cType="1" res="-2.7998653240501881e-03" rms="3.6781683564186096e-01" purity="2.5211679935455322e-01" nType="-99"/>
            <Node pos="r" depth="3" NCoef="0" IVar="-1" Cut="0.0000000000000000e+00" cType="1" res="2.2672322302241810e-05" rms="3.9601373672485352e-01" purity="5.1341158151626587e-01" nType="-99"/>
          </Node>
          <Node pos="r" depth="2" NCoef="0" IVar="7" Cut="-1.4660547971725464e+00" cType="1" res="3.9122804999351501e-02" rms="4.0247800946235657e-01" purity="6.0986632108688354e-01" nType="0">
            <Node pos="l" depth="3" NCoef="0" IVar="-1" Cut="0.0000000000000000e+00" cType="1" res="-2.1867561154067516e-03" rms="3.7521767616271973e-01" purity="3.0072164535522461e-01" nType="-99"/>
            <Node pos="r" depth="3" NCoef="0" IVar="-1" Cut="0.0000000000000000e+00" cType="1" res="1.6497693723067641e-03" rms="4.0369835495948792e-01" purity="6.3236147165298462e-01" nType="-99"/>
          </Node>
        </Node>
        <Node pos="r" depth="1" NCoef="0" IVar="0" Cut="1.2675756835937500e+03" cType="1" res="-3.7585210055112839e-02" rms="3.8939097523689270e-01" purity="3.6410877108573914e-01" nType="0">
          <Node pos="l" depth="2" NCoef="0" IVar="3" Cut="1.5228694152832031e+02" cType="1" res="-7.0179887115955353e-02" rms="3.6514362692832947e-01" purity="2.0092391967773438e-01" nType="0">
            <Node pos="l" depth="3" NCoef="0" IVar="-1" Cut="0.0000000000000000e+00" cType="1" res="-1.9695123191922903e-03" rms="3.6768868565559387e-01" purity="1.9652508199214935e-01" nType="-99"/>
            <Node pos="r" depth="3" NCoef="0" IVar="-1" Cut="0.0000000000000000e+00" cType="1" res="-4.7612492926418781e-03" rms="3.5947403311729431e-01" purity="2.0511704683303833e-01" nType="-99"/>
          </Node>
          <Node pos="r" depth="2" NCoef="0" IVar="3" Cut="2.6692868041992188e+02" cType="1" res="-1.5137759037315845e-02" rms="4.0371966361999512e-01" purity="4.7649168968200684e-01" nType="0">
            <Node pos="l" depth="3" NCoef="0" IVar="-1" Cut="0.0000000000000000e+00" cType="1" res="5.8545795036479831e-04" rms="4.0515971183776855e-01" purity="5.2494329214096069e-01" nType="-99"/>
            <Node pos="r" depth="3" NCoef="0" IVar="-1" Cut="0.0000000000000000e+00" cType="1" res="-4.4065294787287712e-03" rms="3.9296162128448486e-01" purity="3.7241438031196594e-01" nType="-99"/>
          </Node>
        </Node>
      </Node>
    </BinaryTree>
    <BinaryTree type="DecisionTree" boostWeight="1.0000000000000000e+00" itree="328">
      <Node pos="s" depth="0" NCoef="0" IVar="1" Cut="4.2366726684570312e+02" cType="1" res="9.4602014869451523e-03" rms="3.9665660262107849e-01" purity="5.0573420524597168e-01" nType="0">
        <Node pos="l" depth="1" NCoef="0" IVar="2" Cut="5.9228570556640625e+02" cType="1" res="-1.1083287186920643e-02" rms="3.9534062147140503e-01" purity="3.9124253392219543e-01" nType="0">
          <Node pos="l" depth="2" NCoef="0" IVar="1" Cut="3.8244403076171875e+02" cType="1" res="-2.3582126013934612e-03" rms="3.9906328916549683e-01" purity="4.0853515267372131e-01" nType="0">
            <Node pos="l" depth="3" NCoef="0" IVar="-1" Cut="0.0000000000000000e+00" cType="1" res="-8.5826514987275004e-04" rms="3.9603495597839355e-01" purity="3.7122511863708496e-01" nType="-99"/>
            <Node pos="r" depth="3" NCoef="0" IVar="-1" Cut="0.0000000000000000e+00" cType="1" res="1.9783272873610258e-03" rms="4.0356147289276123e-01" purity="5.2584737539291382e-01" nType="-99"/>
          </Node>
          <Node pos="r" depth="2" NCoef="0" IVar="-1" Cut="0.0000000000000000e+00" cType="1" res="-7.3014391819015145e-04" rms="2.9077816009521484e-01" purity="1.0291179269552231e-01" nType="-99"/>
        </Node>
        <Node pos="r" depth="1" NCoef="0" IVar="3" Cut="3.4256942749023438e+02" cType="1" res="3.7531141191720963e-02" rms="3.9673161506652832e-01" purity="6.6217738389968872e-01" nType="0">
          <Node pos="l" depth="2" NCoef="0" IVar="0" Cut="2.1241694335937500e+03" cType="1" res="4.5453462749719620e-02" rms="3.9100196957588196e-01" purity="6.7639732360839844e-01" nType="0">
            <Node pos="l" depth="3" NCoef="0" IVar="-1" Cut="0.0000000000000000e+00" cType="1" res="1.4161503640934825e-03" rms="3.9148309826850891e-01" purity="6.6765338182449341e-01" nType="-99"/>
            <Node pos="r" depth="3" NCoef="0" IVar="-1" Cut="0.0000000000000000e+00" cType="1" res="4.2714388109743595e-03" rms="3.7370228767395020e-01" purity="7.8197950124740601e-01" nType="-99"/>
          </Node>
          <Node pos="r" depth="2" NCoef="0" IVar="-1" Cut="0.0000000000000000e+00" cType="1" res="-9.9143804982304573e-04" rms="4.3415042757987976e-01" purity="5.5046647787094116e-01" nType="-99"/>
        </Node>
      </Node>
    </BinaryTree>
    <BinaryTree type="DecisionTree" boostWeight="1.0000000000000000e+00" itree="329">
      <Node pos="s" depth="0" NCoef="0" IVar="7" Cut="9.3336492776870728e-01" cType="1" res="5.3276238031685352e-03" rms="3.9595887064933777e-01" purity="4.9963074922561646e-01" nType="0">
        <Node pos="l" depth="1" NCoef="0" IVar="7" Cut="-6.6659796237945557e-01" cType="1" res="1.4605659060180187e-02" rms="3.9948168396949768e-01" purity="5.3968292474746704e-01" nType="0">
          <Node pos="l" depth="2" NCoef="0" IVar="9" Cut="1.2000976800918579e+00" cType="1" res="-2.1339830011129379e-02" rms="3.8427907228469849e-01" purity="3.9000734686851501e-01" nType="0">
            <Node pos="l" depth="3" NCoef="0" IVar="-1" Cut="0.0000000000000000e+00" cType="1" res="-5.3013511933386326e-04" rms="3.8920298218727112e-01" purity="4.1375514864921570e-01" nType="-99"/>
            <Node pos="r" depth="3" NCoef="0" IVar="-1" Cut="0.0000000000000000e+00" cType="1" res="-6.7005562596023083e-03" rms="3.3862757682800293e-01" purity="2.1819986402988434e-01" nType="-99"/>
          </Node>
          <Node pos="r" depth="2" NCoef="0" IVar="8" Cut="-9.3335980176925659e-01" cType="1" res="3.0318101868033409e-02" rms="4.0494728088378906e-01" purity="6.0510891675949097e-01" nType="0">
            <Node pos="l" depth="3" NCoef="0" IVar="-1" Cut="0.0000000000000000e+00" cType="1" res="-8.5550942458212376e-04" rms="4.1171744465827942e-01" purity="4.4821316003799438e-01" nType="-99"/>
            <Node pos="r" depth="3" NCoef="0" IVar="-1" Cut="0.0000000000000000e+00" cType="1" res="1.4325550291687250e-03" rms="4.0294677019119263e-01" purity="6.3499003648757935e-01" nType="-99"/>
          </Node>
        </Node>
        <Node pos="r" depth="1" NCoef="0" IVar="3" Cut="2.0718728637695312e+02" cType="1" res="-3.9269316941499710e-02" rms="3.7538170814514160e-01" purity="3.0711090564727783e-01" nType="0">
          <Node pos="l" depth="2" NCoef="0" IVar="9" Cut="-3.9962917566299438e-01" cType="1" res="-1.1501238681375980e-02" rms="3.7439742684364319e-01" purity="3.0190005898475647e-01" nType="0">
            <Node pos="l" depth="3" NCoef="0" IVar="-1" Cut="0.0000000000000000e+00" cType="1" res="-2.9166459571570158e-03" rms="3.4150692820549011e-01" purity="2.4618743360042572e-01" nType="-99"/>
            <Node pos="r" depth="3" NCoef="0" IVar="-1" Cut="0.0000000000000000e+00" cType="1" res="3.3882650313898921e-04" rms="3.8701960444450378e-01" purity="3.2711800932884216e-01" nType="-99"/>
          </Node>
          <Node pos="r" depth="2" NCoef="0" IVar="3" Cut="2.7659689331054688e+02" cType="1" res="-8.1672571599483490e-02" rms="3.7291139364242554e-01" purity="3.1506821513175964e-01" nType="0">
            <Node pos="l" depth="3" NCoef="0" IVar="-1" Cut="0.0000000000000000e+00" cType="1" res="-2.7085018809884787e-03" rms="3.8213333487510681e-01" purity="3.7127959728240967e-01" nType="-99"/>
            <Node pos="r" depth="3" NCoef="0" IVar="-1" Cut="0.0000000000000000e+00" cType="1" res="-8.6078699678182602e-03" rms="3.5245516896247864e-01" purity="2.2479160130023956e-01" nType="-99"/>
          </Node>
        </Node>
      </Node>
    </BinaryTree>
    <BinaryTree type="DecisionTree" boostWeight="1.0000000000000000e+00" itree="330">
      <Node pos="s" depth="0" NCoef="0" IVar="0" Cut="1.5806380615234375e+03" cType="1" res="7.0991879329085350e-03" rms="3.9862743020057678e-01" purity="5.0007700920104980e-01" nType="0">
        <Node pos="l" depth="1" NCoef="0" IVar="2" Cut="2.9413897705078125e+02" cType="1" res="-5.6352550163865089e-03" rms="4.0254399180412292e-01" purity="4.3781244754791260e-01" nType="0">
          <Node pos="l" depth="2" NCoef="0" IVar="0" Cut="1.2832622070312500e+03" cType="1" res="2.8309233486652374e-02" rms="4.0455803275108337e-01" purity="5.4704803228378296e-01" nType="0">
            <Node pos="l" depth="3" NCoef="0" IVar="-1" Cut="0.0000000000000000e+00" cType="1" res="-2.0954910723958164e-05" rms="4.2799156904220581e-01" purity="4.2025560140609741e-01" nType="-99"/>
            <Node pos="r" depth="3" NCoef="0" IVar="-1" Cut="0.0000000000000000e+00" cType="1" res="3.2337203156203032e-03" rms="3.3745604753494263e-01" purity="8.3123141527175903e-01" nType="-99"/>
          </Node>
          <Node pos="r" depth="2" NCoef="0" IVar="4" Cut="1.5386079406738281e+02" cType="1" res="-3.7154622375965118e-02" rms="3.9808151125907898e-01" purity="3.3638104796409607e-01" nType="0">
            <Node pos="l" depth="3" NCoef="0" IVar="-1" Cut="0.0000000000000000e+00" cType="1" res="-1.2053634272888303e-03" rms="3.9440345764160156e-01" purity="3.0997452139854431e-01" nType="-99"/>
            <Node pos="r" depth="3" NCoef="0" IVar="-1" Cut="0.0000000000000000e+00" cType="1" res="-3.5521027166396379e-03" rms="4.0718856453895569e-01" purity="4.1910952329635620e-01" nType="-99"/>
          </Node>
        </Node>
        <Node pos="r" depth="1" NCoef="0" IVar="2" Cut="6.0668743896484375e+02" cType="1" res="3.7840474396944046e-02" rms="3.8728865981101990e-01" purity="6.5038537979125977e-01" nType="0">
          <Node pos="l" depth="2" NCoef="0" IVar="3" Cut="3.2323486328125000e+02" cType="1" res="6.6374942660331726e-02" rms="3.6841890215873718e-01" purity="7.3843085765838623e-01" nType="0">
            <Node pos="l" depth="3" NCoef="0" IVar="-1" Cut="0.0000000000000000e+00" cType="1" res="3.3891606144607067e-03" rms="3.4624832868576050e-01" purity="7.9570168256759644e-01" nType="-99"/>
            <Node pos="r" depth="3" NCoef="0" IVar="-1" Cut="0.0000000000000000e+00" cType="1" res="-2.3735614377073944e-04" rms="4.2101582884788513e-01" purity="5.6343865394592285e-01" nType="-99"/>
          </Node>
          <Node pos="r" depth="2" NCoef="0" IVar="1" Cut="6.0600360107421875e+02" cType="1" res="-3.5127531737089157e-02" rms="4.2314487695693970e-01" purity="4.2523652315139771e-01" nType="0">
            <Node pos="l" depth="3" NCoef="0" IVar="-1" Cut="0.0000000000000000e+00" cType="1" res="-6.0472986660897732e-03" rms="3.9655914902687073e-01" purity="2.7535730600357056e-01" nType="-99"/>
            <Node pos="r" depth="3" NCoef="0" IVar="-1" Cut="0.0000000000000000e+00" cType="1" res="1.2010143836960196e-03" rms="4.4616866111755371e-01" purity="6.2386161088943481e-01" nType="-99"/>
          </Node>
        </Node>
      </Node>
    </BinaryTree>
    <BinaryTree type="DecisionTree" boostWeight="1.0000000000000000e+00" itree="331">
      <Node pos="s" depth="0" NCoef="0" IVar="0" Cut="1.1903264160156250e+03" cType="1" res="5.3222682327032089e-03" rms="3.9565125107765198e-01" purity="4.9990811944007874e-01" nType="0">
        <Node pos="l" depth="1" NCoef="0" IVar="6" Cut="-3.7387809157371521e-01" cType="1" res="-3.1073860824108124e-02" rms="3.9744555950164795e-01" purity="2.8965032100677490e-01" nType="0">
          <Node pos="l" depth="2" NCoef="0" IVar="5" Cut="7.4671707153320312e+01" cType="1" res="-6.6267289221286774e-02" rms="3.6271473765373230e-01" purity="2.1233919262886047e-01" nType="0">
            <Node pos="l" depth="3" NCoef="0" IVar="-1" Cut="0.0000000000000000e+00" cType="1" res="-4.3525435030460358e-03" rms="3.2525831460952759e-01" purity="1.4452989399433136e-01" nType="-99"/>
            <Node pos="r" depth="3" NCoef="0" IVar="-1" Cut="0.0000000000000000e+00" cType="1" res="-2.5781274307519197e-03" rms="3.9082023501396179e-01" purity="2.6823186874389648e-01" nType="-99"/>
          </Node>
          <Node pos="r" depth="2" NCoef="0" IVar="6" Cut="6.8400198221206665e-01" cType="1" res="-1.1891284957528114e-02" rms="4.1389620304107666e-01" purity="3.3178961277008057e-01" nType="0">
            <Node pos="l" depth="3" NCoef="0" IVar="-1" Cut="0.0000000000000000e+00" cType="1" res="5.6558038340881467e-04" rms="4.4475710391998291e-01" purity="4.3014168739318848e-01" nType="-99"/>
            <Node pos="r" depth="3" NCoef="0" IVar="-1" Cut="0.0000000000000000e+00" cType="1" res="-2.7788935694843531e-03" rms="3.6335045099258423e-01" purity="1.9574350118637085e-01" nType="-99"/>
          </Node>
        </Node>
        <Node pos="r" depth="1" NCoef="0" IVar="2" Cut="4.0318698120117188e+02" cType="1" res="1.9039155915379524e-02" rms="3.9410173892974854e-01" purity="5.7914954423904419e-01" nType="0">
          <Node pos="l" depth="2" NCoef="0" IVar="3" Cut="2.1098274230957031e+02" cType="1" res="4.4331677258014679e-02" rms="3.8130477070808411e-01" purity="6.9731599092483521e-01" nType="0">
            <Node pos="l" depth="3" NCoef="0" IVar="-1" Cut="0.0000000000000000e+00" cType="1" res="2.7027977630496025e-03" rms="3.7917810678482056e-01" purity="7.3089170455932617e-01" nType="-99"/>
            <Node pos="r" depth="3" NCoef="0" IVar="-1" Cut="0.0000000000000000e+00" cType="1" res="5.6776712881401181e-04" rms="3.8066637516021729e-01" purity="6.6725116968154907e-01" nType="-99"/>
          </Node>
          <Node pos="r" depth="2" NCoef="0" IVar="0" Cut="1.9338247070312500e+03" cType="1" res="-1.3593735173344612e-02" rms="4.0771138668060303e-01" purity="4.2668899893760681e-01" nType="0">
            <Node pos="l" depth="3" NCoef="0" IVar="-1" Cut="0.0000000000000000e+00" cType="1" res="-1.0618488304316998e-03" rms="3.9851370453834534e-01" purity="3.4941780567169189e-01" nType="-99"/>
            <Node pos="r" depth="3" NCoef="0" IVar="-1" Cut="0.0000000000000000e+00" cType="1" res="1.6089667333289981e-03" rms="4.2496326565742493e-01" purity="6.2435305118560791e-01" nType="-99"/>
          </Node>
        </Node>
      </Node>
    </BinaryTree>
    <BinaryTree type="DecisionTree" boostWeight="1.0000000000000000e+00" itree="332">
      <Node pos="s" depth="0" NCoef="0" IVar="9" Cut="1.2000390291213989e+00" cType="1" res="7.1513224393129349e-03" rms="3.9701104164123535e-01" purity="4.9929505586624146e-01" nType="0">
        <Node pos="l" depth="1" NCoef="0" IVar="9" Cut="-1.2760627269744873e+00" cType="1" res="1.6104666516184807e-02" rms="3.9932635426521301e-01" purity="5.2629142999649048e-01" nType="0">
          <Node pos="l" depth="2" NCoef="0" IVar="3" Cut="2.1734614562988281e+02" cType="1" res="-5.0632968544960022e-02" rms="3.7916007637977600e-01" purity="3.1530812382698059e-01" nType="0">
            <Node pos="l" depth="3" NCoef="0" IVar="-1" Cut="0.0000000000000000e+00" cType="1" res="-1.5507386997342110e-03" rms="3.7357383966445923e-01" purity="3.0817395448684692e-01" nType="-99"/>
            <Node pos="r" depth="3" NCoef="0" IVar="-1" Cut="0.0000000000000000e+00" cType="1" res="-5.2215508185327053e-03" rms="3.8612601161003113e-01" purity="3.2839831709861755e-01" nType="-99"/>
          </Node>
          <Node pos="r" depth="2" NCoef="0" IVar="7" Cut="6.6671025753021240e-01" cType="1" res="2.7461266145110130e-02" rms="4.0155464410781860e-01" purity="5.6219404935836792e-01" nType="0">
            <Node pos="l" depth="3" NCoef="0" IVar="-1" Cut="0.0000000000000000e+00" cType="1" res="1.2104844208806753e-03" rms="4.0072643756866455e-01" purity="6.0147303342819214e-01" nType="-99"/>
            <Node pos="r" depth="3" NCoef="0" IVar="-1" Cut="0.0000000000000000e+00" cType="1" res="-6.5165141131728888e-04" rms="4.0153044462203979e-01" purity="4.2782622575759888e-01" nType="-99"/>
          </Node>
        </Node>
        <Node pos="r" depth="1" NCoef="0" IVar="6" Cut="-6.3386672735214233e-01" cType="1" res="-4.6574104577302933e-02" rms="3.7840023636817932e-01" purity="3.3730039000511169e-01" nType="0">
          <Node pos="l" depth="2" NCoef="0" IVar="-1" Cut="0.0000000000000000e+00" cType="1" res="-6.4586242660880089e-03" rms="3.3155530691146851e-01" purity="2.0903481543064117e-01" nType="-99"/>
          <Node pos="r" depth="2" NCoef="0" IVar="6" Cut="1.0009313821792603e+00" cType="1" res="-3.3716443926095963e-02" rms="3.8950544595718384e-01" purity="3.7311071157455444e-01" nType="0">
            <Node pos="l" depth="3" NCoef="0" IVar="-1" Cut="0.0000000000000000e+00" cType="1" res="-6.1370537150651217e-04" rms="4.0875649452209473e-01" purity="4.4561186432838440e-01" nType="-99"/>
            <Node pos="r" depth="3" NCoef="0" IVar="-1" Cut="0.0000000000000000e+00" cType="1" res="-5.5672810412943363e-03" rms="3.2482698559761047e-01" purity="1.7184747755527496e-01" nType="-99"/>
          </Node>
        </Node>
      </Node>
    </BinaryTree>
    <BinaryTree type="DecisionTree" boostWeight="1.0000000000000000e+00" itree="333">
      <Node pos="s" depth="0" NCoef="0" IVar="7" Cut="-1.1998686790466309e+00" cType="1" res="7.4720438569784164e-03" rms="3.9983740448951721e-01" purity="4.9733349680900574e-01" nType="0">
        <Node pos="l" depth="1" NCoef="0" IVar="3" Cut="1.6638189697265625e+02" cType="1" res="-5.1666457206010818e-02" rms="3.6288881301879883e-01" purity="2.4990920722484589e-01" nType="0">
          <Node pos="l" depth="2" NCoef="0" IVar="-1" Cut="0.0000000000000000e+00" cType="1" res="-2.8846770874224603e-05" rms="3.6447051167488098e-01" purity="2.2587363421916962e-01" nType="-99"/>
          <Node pos="r" depth="2" NCoef="0" IVar="0" Cut="1.4887175292968750e+03" cType="1" res="-8.4813013672828674e-02" rms="3.5797691345214844e-01" purity="2.6546600461006165e-01" nType="0">
            <Node pos="l" depth="3" NCoef="0" IVar="-1" Cut="0.0000000000000000e+00" cType="1" res="-5.7011172175407410e-03" rms="3.3713304996490479e-01" purity="1.9012898206710815e-01" nType="-99"/>
            <Node pos="r" depth="3" NCoef="0" IVar="-1" Cut="0.0000000000000000e+00" cType="1" res="-2.7941260486841202e-03" rms="3.8279420137405396e-01" purity="3.7067788839340210e-01" nType="-99"/>
          </Node>
        </Node>
        <Node pos="r" depth="1" NCoef="0" IVar="6" Cut="1.4806548357009888e+00" cType="1" res="1.5602767467498779e-02" rms="4.0397721529006958e-01" purity="5.3135091066360474e-01" nType="0">
          <Node pos="l" depth="2" NCoef="0" IVar="2" Cut="4.9194824218750000e+02" cType="1" res="2.1359605714678764e-02" rms="4.0616282820701599e-01" purity="5.5140829086303711e-01" nType="0">
            <Node pos="l" depth="3" NCoef="0" IVar="-1" Cut="0.0000000000000000e+00" cType="1" res="1.2393922079354525e-03" rms="4.0261772274971008e-01" purity="5.8466523885726929e-01" nType="-99"/>
            <Node pos="r" depth="3" NCoef="0" IVar="-1" Cut="0.0000000000000000e+00" cType="1" res="-1.2666650582104921e-03" rms="4.1746219992637634e-01" purity="4.1005432605743408e-01" nType="-99"/>
          </Node>
          <Node pos="r" depth="2" NCoef="0" IVar="8" Cut="1.3240759074687958e-01" cType="1" res="-7.0985168218612671e-02" rms="3.5856592655181885e-01" purity="2.2967097163200378e-01" nType="0">
            <Node pos="l" depth="3" NCoef="0" IVar="-1" Cut="0.0000000000000000e+00" cType="1" res="-2.8080623596906662e-03" rms="3.7913268804550171e-01" purity="2.5671273469924927e-01" nType="-99"/>
            <Node pos="r" depth="3" NCoef="0" IVar="-1" Cut="0.0000000000000000e+00" cType="1" res="-5.4954574443399906e-03" rms="3.3559557795524597e-01" purity="2.0266872644424438e-01" nType="-99"/>
          </Node>
        </Node>
      </Node>
    </BinaryTree>
    <BinaryTree type="DecisionTree" boostWeight="1.0000000000000000e+00" itree="334">
      <Node pos="s" depth="0" NCoef="0" IVar="9" Cut="9.3339902162551880e-01" cType="1" res="8.5207093507051468e-03" rms="3.9885285496711731e-01" purity="5.0082015991210938e-01" nType="0">
        <Node pos="l" depth="1" NCoef="0" IVar="9" Cut="-1.7331370115280151e+00" cType="1" res="1.9757056608796120e-02" rms="3.9994761347770691e-01" purity="5.3279006481170654e-01" nType="0">
          <Node pos="l" depth="2" NCoef="0" IVar="9" Cut="-2.0378921031951904e+00" cType="1" res="-6.4015485346317291e-02" rms="3.6014336347579956e-01" purity="2.5381410121917725e-01" nType="0">
            <Node pos="l" depth="3" NCoef="0" IVar="-1" Cut="0.0000000000000000e+00" cType="1" res="-5.2058687433600426e-03" rms="3.4346866607666016e-01" purity="2.1190156042575836e-01" nType="-99"/>
            <Node pos="r" depth="3" NCoef="0" IVar="-1" Cut="0.0000000000000000e+00" cType="1" res="-2.2248073946684599e-03" rms="3.8033708930015564e-01" purity="3.1025564670562744e-01" nType="-99"/>
          </Node>
          <Node pos="r" depth="2" NCoef="0" IVar="8" Cut="-9.3336772918701172e-01" cType="1" res="2.7239384129643440e-02" rms="4.0246438980102539e-01" purity="5.5770748853683472e-01" nType="0">
            <Node pos="l" depth="3" NCoef="0" IVar="-1" Cut="0.0000000000000000e+00" cType="1" res="-6.9982407148927450e-04" rms="3.9811635017395020e-01" purity="4.0587005019187927e-01" nType="-99"/>
            <Node pos="r" depth="3" NCoef="0" IVar="-1" Cut="0.0000000000000000e+00" cType="1" res="1.3735442189499736e-03" rms="4.0281939506530762e-01" purity="5.9229183197021484e-01" nType="-99"/>
          </Node>
        </Node>
        <Node pos="r" depth="1" NCoef="0" IVar="7" Cut="-6.6572386026382446e-01" cType="1" res="-3.7103723734617233e-02" rms="3.9107355475425720e-01" purity="3.7100869417190552e-01" nType="0">
          <Node pos="l" depth="2" NCoef="0" IVar="-1" Cut="0.0000000000000000e+00" cType="1" res="-5.4138810373842716e-03" rms="3.5216662287712097e-01" purity="2.4787712097167969e-01" nType="-99"/>
          <Node pos="r" depth="2" NCoef="0" IVar="9" Cut="2.0000150203704834e+00" cType="1" res="-2.2913979366421700e-02" rms="4.0014424920082092e-01" purity="4.0548753738403320e-01" nType="0">
            <Node pos="l" depth="3" NCoef="0" IVar="-1" Cut="0.0000000000000000e+00" cType="1" res="-3.7239215453155339e-04" rms="4.0684181451797485e-01" purity="4.4635474681854248e-01" nType="-99"/>
            <Node pos="r" depth="3" NCoef="0" IVar="-1" Cut="0.0000000000000000e+00" cType="1" res="-4.4229249469935894e-03" rms="3.6475273966789246e-01" purity="2.3358297348022461e-01" nType="-99"/>
          </Node>
        </Node>
      </Node>
    </BinaryTree>
    <BinaryTree type="DecisionTree" boostWeight="1.0000000000000000e+00" itree="335">
      <Node pos="s" depth="0" NCoef="0" IVar="7" Cut="1.4664443731307983e+00" cType="1" res="4.0594083257019520e-03" rms="3.9694216847419739e-01" purity="4.9585327506065369e-01" nType="0">
        <Node pos="l" depth="1" NCoef="0" IVar="7" Cut="-7.6827806234359741e-01" cType="1" res="1.0100483894348145e-02" rms="4.0095624327659607e-01" purity="5.2104097604751587e-01" nType="0">
          <Node pos="l" depth="2" NCoef="0" IVar="9" Cut="1.2000138759613037e+00" cType="1" res="-2.9413351789116859e-02" rms="3.8173046708106995e-01" purity="3.5729831457138062e-01" nType="0">
            <Node pos="l" depth="3" NCoef="0" IVar="-1" Cut="0.0000000000000000e+00" cType="1" res="-8.7329628877341747e-04" rms="3.8945758342742920e-01" purity="3.8031226396560669e-01" nType="-99"/>
            <Node pos="r" depth="3" NCoef="0" IVar="-1" Cut="0.0000000000000000e+00" cType="1" res="-7.6815709471702576e-03" rms="3.1029334664344788e-01" purity="1.9094407558441162e-01" nType="-99"/>
          </Node>
          <Node pos="r" depth="2" NCoef="0" IVar="6" Cut="1.2027406692504883e+00" cType="1" res="2.2407054901123047e-02" rms="4.0597388148307800e-01" purity="5.7203865051269531e-01" nType="0">
            <Node pos="l" depth="3" NCoef="0" IVar="-1" Cut="0.0000000000000000e+00" cType="1" res="9.1924745356664062e-04" rms="4.0630435943603516e-01" purity="6.0048794746398926e-01" nType="-99"/>
            <Node pos="r" depth="3" NCoef="0" IVar="-1" Cut="0.0000000000000000e+00" cType="1" res="-1.9644836429506540e-03" rms="3.9701288938522339e-01" purity="3.1492903828620911e-01" nType="-99"/>
          </Node>
        </Node>
        <Node pos="r" depth="1" NCoef="0" IVar="0" Cut="1.3931634521484375e+03" cType="1" res="-6.6908694803714752e-02" rms="3.3833810687065125e-01" purity="1.9995841383934021e-01" nType="0">
          <Node pos="l" depth="2" NCoef="0" IVar="-1" Cut="0.0000000000000000e+00" cType="1" res="-6.0918093658983707e-03" rms="2.9973167181015015e-01" purity="1.3105952739715576e-01" nType="-99"/>
          <Node pos="r" depth="2" NCoef="0" IVar="-1" Cut="0.0000000000000000e+00" cType="1" res="-1.9272743957117200e-03" rms="3.9432975649833679e-01" purity="3.1936204433441162e-01" nType="-99"/>
        </Node>
      </Node>
    </BinaryTree>
    <BinaryTree type="DecisionTree" boostWeight="1.0000000000000000e+00" itree="336">
      <Node pos="s" depth="0" NCoef="0" IVar="8" Cut="-1.4667458534240723e+00" cType="1" res="6.3695758581161499e-03" rms="3.9726990461349487e-01" purity="4.9761930108070374e-01" nType="0">
        <Node pos="l" depth="1" NCoef="0" IVar="8" Cut="-2.0381410121917725e+00" cType="1" res="-6.5670594573020935e-02" rms="3.5133767127990723e-01" purity="2.2773647308349609e-01" nType="0">
          <Node pos="l" depth="2" NCoef="0" IVar="-1" Cut="0.0000000000000000e+00" cType="1" res="-9.4252908602356911e-03" rms="2.9764074087142944e-01" purity="1.3382096588611603e-01" nType="-99"/>
          <Node pos="r" depth="2" NCoef="0" IVar="7" Cut="-1.3159134984016418e-01" cType="1" res="-3.5926058888435364e-02" rms="3.7633347511291504e-01" purity="2.8317832946777344e-01" nType="0">
            <Node pos="l" depth="3" NCoef="0" IVar="-1" Cut="0.0000000000000000e+00" cType="1" res="-1.3520976062864065e-03" rms="3.7436118721961975e-01" purity="2.8520661592483521e-01" nType="-99"/>
            <Node pos="r" depth="3" NCoef="0" IVar="-1" Cut="0.0000000000000000e+00" cType="1" res="-2.8288047760725021e-03" rms="3.7796100974082947e-01" purity="2.8100752830505371e-01" nType="-99"/>
          </Node>
        </Node>
        <Node pos="r" depth="1" NCoef="0" IVar="8" Cut="7.6803314685821533e-01" cType="1" res="1.3051265850663185e-02" rms="4.0060779452323914e-01" purity="5.2265083789825439e-01" nType="0">
          <Node pos="l" depth="2" NCoef="0" IVar="7" Cut="-1.1999186277389526e+00" cType="1" res="2.7206905186176300e-02" rms="4.0246650576591492e-01" purity="5.6949841976165771e-01" nType="0">
            <Node pos="l" depth="3" NCoef="0" IVar="-1" Cut="0.0000000000000000e+00" cType="1" res="-1.6220707911998034e-03" rms="3.8726004958152771e-01" purity="3.1080552935600281e-01" nType="-99"/>
            <Node pos="r" depth="3" NCoef="0" IVar="-1" Cut="0.0000000000000000e+00" cType="1" res="1.3035108568146825e-03" rms="4.0373671054840088e-01" purity="6.0251170396804810e-01" nType="-99"/>
          </Node>
          <Node pos="r" depth="2" NCoef="0" IVar="2" Cut="3.2499594116210938e+02" cType="1" res="-2.8388489037752151e-02" rms="3.9218994975090027e-01" purity="3.8550731539726257e-01" nType="0">
            <Node pos="l" depth="3" NCoef="0" IVar="-1" Cut="0.0000000000000000e+00" cType="1" res="8.6168256530072540e-05" rms="4.0264552831649780e-01" purity="4.5762994885444641e-01" nType="-99"/>
            <Node pos="r" depth="3" NCoef="0" IVar="-1" Cut="0.0000000000000000e+00" cType="1" res="-3.1752039212733507e-03" rms="3.8043487071990967e-01" purity="3.2050564885139465e-01" nType="-99"/>
          </Node>
        </Node>
      </Node>
    </BinaryTree>
    <BinaryTree type="DecisionTree" boostWeight="1.0000000000000000e+00" itree="337">
      <Node pos="s" depth="0" NCoef="0" IVar="9" Cut="1.2000404596328735e+00" cType="1" res="6.4896601252257824e-03" rms="3.9751458168029785e-01" purity="4.9767166376113892e-01" nType="0">
        <Node pos="l" depth="1" NCoef="0" IVar="9" Cut="-8.9510512351989746e-01" cType="1" res="1.5440991148352623e-02" rms="4.0007939934730530e-01" purity="5.2509570121765137e-01" nType="0">
          <Node pos="l" depth="2" NCoef="0" IVar="9" Cut="-1.9835025072097778e+00" cType="1" res="-3.3310141414403915e-02" rms="3.8665637373924255e-01" purity="3.8186666369438171e-01" nType="0">
            <Node pos="l" depth="3" NCoef="0" IVar="-1" Cut="0.0000000000000000e+00" cType="1" res="-6.1799762770533562e-03" rms="3.4191673994064331e-01" purity="1.9174507260322571e-01" nType="-99"/>
            <Node pos="r" depth="3" NCoef="0" IVar="-1" Cut="0.0000000000000000e+00" cType="1" res="-9.3450606800615788e-04" rms="3.9511665701866150e-01" purity="4.2588397860527039e-01" nType="-99"/>
          </Node>
          <Node pos="r" depth="2" NCoef="0" IVar="7" Cut="9.3338823318481445e-01" cType="1" res="3.0875038355588913e-02" rms="4.0300890803337097e-01" purity="5.7044041156768799e-01" nType="0">
            <Node pos="l" depth="3" NCoef="0" IVar="-1" Cut="0.0000000000000000e+00" cType="1" res="1.5207021497189999e-03" rms="4.0289869904518127e-01" purity="6.0953235626220703e-01" nType="-99"/>
            <Node pos="r" depth="3" NCoef="0" IVar="-1" Cut="0.0000000000000000e+00" cType="1" res="-1.1533204233273864e-03" rms="3.9899212121963501e-01" purity="3.6114379763603210e-01" nType="-99"/>
          </Node>
        </Node>
        <Node pos="r" depth="1" NCoef="0" IVar="3" Cut="2.4353300476074219e+02" cType="1" res="-4.6755675226449966e-02" rms="3.7754175066947937e-01" purity="3.3454465866088867e-01" nType="0">
          <Node pos="l" depth="2" NCoef="0" IVar="9" Cut="2.0381126403808594e+00" cType="1" res="-2.9360245913267136e-02" rms="3.7919354438781738e-01" purity="3.4338349103927612e-01" nType="0">
            <Node pos="l" depth="3" NCoef="0" IVar="-1" Cut="0.0000000000000000e+00" cType="1" res="-6.8548036506399512e-04" rms="3.9240238070487976e-01" purity="3.8663509488105774e-01" nType="-99"/>
            <Node pos="r" depth="3" NCoef="0" IVar="-1" Cut="0.0000000000000000e+00" cType="1" res="-4.1431197896599770e-03" rms="3.3497300744056702e-01" purity="2.1867673099040985e-01" nType="-99"/>
          </Node>
          <Node pos="r" depth="2" NCoef="0" IVar="-1" Cut="0.0000000000000000e+00" cType="1" res="-6.5107592381536961e-03" rms="3.6658796668052673e-01" purity="3.0604770779609680e-01" nType="-99"/>
        </Node>
      </Node>
    </BinaryTree>
    <BinaryTree type="DecisionTree" boostWeight="1.0000000000000000e+00" itree="338">
      <Node pos="s" depth="0" NCoef="0" IVar="6" Cut="-1.4580614566802979e+00" cType="1" res="1.0589621029794216e-02" rms="3.9875018596649170e-01" purity="5.0323909521102905e-01" nType="0">
        <Node pos="l" depth="1" NCoef="0" IVar="4" Cut="1.2435540771484375e+02" cType="1" res="-6.8711295723915100e-02" rms="3.4572950005531311e-01" purity="2.2021980583667755e-01" nType="0">
          <Node pos="l" depth="2" NCoef="0" IVar="-1" Cut="0.0000000000000000e+00" cType="1" res="-1.9422601908445358e-03" rms="3.2897418737411499e-01" purity="1.6997767984867096e-01" nType="-99"/>
          <Node pos="r" depth="2" NCoef="0" IVar="-1" Cut="0.0000000000000000e+00" cType="1" res="-5.0415606237947941e-03" rms="3.5601013898849487e-01" purity="2.6390165090560913e-01" nType="-99"/>
        </Node>
        <Node pos="r" depth="1" NCoef="0" IVar="6" Cut="1.3804368972778320e+00" cType="1" res="1.6255456954240799e-02" rms="4.0167218446731567e-01" purity="5.2346003055572510e-01" nType="0">
          <Node pos="l" depth="2" NCoef="0" IVar="7" Cut="-1.4666252136230469e+00" cType="1" res="2.3344393819570541e-02" rms="4.0544620156288147e-01" purity="5.5103898048400879e-01" nType="0">
            <Node pos="l" depth="3" NCoef="0" IVar="-1" Cut="0.0000000000000000e+00" cType="1" res="-2.5487933307886124e-03" rms="3.6661046743392944e-01" purity="2.4977597594261169e-01" nType="-99"/>
            <Node pos="r" depth="3" NCoef="0" IVar="-1" Cut="0.0000000000000000e+00" cType="1" res="1.1028602020815015e-03" rms="4.0787944197654724e-01" purity="5.7507282495498657e-01" nType="-99"/>
          </Node>
          <Node pos="r" depth="2" NCoef="0" IVar="9" Cut="4.0022936463356018e-01" cType="1" res="-5.9859316796064377e-02" rms="3.4971600770950317e-01" purity="2.2734124958515167e-01" nType="0">
            <Node pos="l" depth="3" NCoef="0" IVar="-1" Cut="0.0000000000000000e+00" cType="1" res="-1.9676038064062595e-03" rms="3.6738589406013489e-01" purity="2.6720899343490601e-01" nType="-99"/>
            <Node pos="r" depth="3" NCoef="0" IVar="-1" Cut="0.0000000000000000e+00" cType="1" res="-4.9697472713887691e-03" rms="3.2118713855743408e-01" purity="1.7300704121589661e-01" nType="-99"/>
          </Node>
        </Node>
      </Node>
    </BinaryTree>
    <BinaryTree type="DecisionTree" boostWeight="1.0000000000000000e+00" itree="339">
      <Node pos="s" depth="0" NCoef="0" IVar="9" Cut="1.2000533342361450e+00" cType="1" res="7.1807978674769402e-03" rms="3.9730203151702881e-01" purity="5.0130474567413330e-01" nType="0">
        <Node pos="l" depth="1" NCoef="0" IVar="9" Cut="-1.4664809703826904e+00" cType="1" res="1.5318838879466057e-02" rms="4.0001919865608215e-01" purity="5.2780699729919434e-01" nType="0">
          <Node pos="l" depth="2" NCoef="0" IVar="6" Cut="4.2228454351425171e-01" cType="1" res="-4.7905348241329193e-02" rms="3.7446179986000061e-01" purity="2.9905855655670166e-01" nType="0">
            <Node pos="l" depth="3" NCoef="0" IVar="-1" Cut="0.0000000000000000e+00" cType="1" res="-1.5348547603935003e-03" rms="3.8270264863967896e-01" purity="3.3646684885025024e-01" nType="-99"/>
            <Node pos="r" depth="3" NCoef="0" IVar="-1" Cut="0.0000000000000000e+00" cType="1" res="-6.3078682869672775e-03" rms="3.5090905427932739e-01" purity="2.1027392148971558e-01" nType="-99"/>
          </Node>
          <Node pos="r" depth="2" NCoef="0" IVar="0" Cut="1.1905270996093750e+03" cType="1" res="2.3418439552187920e-02" rms="4.0245920419692993e-01" purity="5.5711174011230469e-01" nType="0">
            <Node pos="l" depth="3" NCoef="0" IVar="-1" Cut="0.0000000000000000e+00" cType="1" res="-3.7809324567206204e-04" rms="4.2524173855781555e-01" purity="3.3834975957870483e-01" nType="-99"/>
            <Node pos="r" depth="3" NCoef="0" IVar="-1" Cut="0.0000000000000000e+00" cType="1" res="1.0871117701753974e-03" rms="3.9389801025390625e-01" purity="6.3036602735519409e-01" nType="-99"/>
          </Node>
        </Node>
        <Node pos="r" depth="1" NCoef="0" IVar="6" Cut="-3.5262551903724670e-01" cType="1" res="-4.2909525334835052e-02" rms="3.7629461288452148e-01" purity="3.3818092942237854e-01" nType="0">
          <Node pos="l" depth="2" NCoef="0" IVar="-1" Cut="0.0000000000000000e+00" cType="1" res="-5.0860997289419174e-03" rms="3.4782299399375916e-01" purity="2.5034111738204956e-01" nType="-99"/>
          <Node pos="r" depth="2" NCoef="0" IVar="6" Cut="9.9809491634368896e-01" cType="1" res="-2.4251980707049370e-02" rms="3.8644021749496460e-01" purity="3.7607252597808838e-01" nType="0">
            <Node pos="l" depth="3" NCoef="0" IVar="-1" Cut="0.0000000000000000e+00" cType="1" res="-2.6796650490723550e-04" rms="4.0705078840255737e-01" purity="4.6252721548080444e-01" nType="-99"/>
            <Node pos="r" depth="3" NCoef="0" IVar="-1" Cut="0.0000000000000000e+00" cType="1" res="-3.8767799269407988e-03" rms="3.3378696441650391e-01" purity="1.8753831088542938e-01" nType="-99"/>
          </Node>
        </Node>
      </Node>
    </BinaryTree>
    <BinaryTree type="DecisionTree" boostWeight="1.0000000000000000e+00" itree="340">
      <Node pos="s" depth="0" NCoef="0" IVar="6" Cut="-1.1820416450500488e+00" cType="1" res="1.1223396286368370e-02" rms="3.9642602205276489e-01" purity="5.0507277250289917e-01" nType="0">
        <Node pos="l" depth="1" NCoef="0" IVar="4" Cut="1.2416834259033203e+02" cType="1" res="-4.9915168434381485e-02" rms="3.6150801181793213e-01" purity="2.5844019651412964e-01" nType="0">
          <Node pos="l" depth="2" NCoef="0" IVar="-1" Cut="0.0000000000000000e+00" cType="1" res="-1.2314639752730727e-03" rms="3.4334433078765869e-01" purity="1.9500529766082764e-01" nType="-99"/>
          <Node pos="r" depth="2" NCoef="0" IVar="6" Cut="-1.5509076118469238e+00" cType="1" res="-7.6888643205165863e-02" rms="3.7486898899078369e-01" purity="3.1484803557395935e-01" nType="0">
            <Node pos="l" depth="3" NCoef="0" IVar="-1" Cut="0.0000000000000000e+00" cType="1" res="-7.5293118134140968e-03" rms="3.3910191059112549e-01" purity="2.2749786078929901e-01" nType="-99"/>
            <Node pos="r" depth="3" NCoef="0" IVar="-1" Cut="0.0000000000000000e+00" cType="1" res="-1.5101062599569559e-03" rms="3.9971804618835449e-01" purity="3.9397910237312317e-01" nType="-99"/>
          </Node>
        </Node>
        <Node pos="r" depth="1" NCoef="0" IVar="7" Cut="1.2000080347061157e+00" cType="1" res="1.8552133813500404e-02" rms="3.9978027343750000e-01" purity="5.3463685512542725e-01" nType="0">
          <Node pos="l" depth="2" NCoef="0" IVar="7" Cut="-1.0856876373291016e+00" cType="1" res="2.6776865124702454e-02" rms="4.0288901329040527e-01" purity="5.6743407249450684e-01" nType="0">
            <Node pos="l" depth="3" NCoef="0" IVar="-1" Cut="0.0000000000000000e+00" cType="1" res="-2.0000657532364130e-03" rms="3.7776398658752441e-01" purity="3.0321538448333740e-01" nType="-99"/>
            <Node pos="r" depth="3" NCoef="0" IVar="-1" Cut="0.0000000000000000e+00" cType="1" res="1.3945158571004868e-03" rms="4.0613198280334473e-01" purity="6.1443805694580078e-01" nType="-99"/>
          </Node>
          <Node pos="r" depth="2" NCoef="0" IVar="7" Cut="1.9619140625000000e+00" cType="1" res="-4.5972615480422974e-02" rms="3.6817657947540283e-01" purity="2.7733528614044189e-01" nType="0">
            <Node pos="l" depth="3" NCoef="0" IVar="-1" Cut="0.0000000000000000e+00" cType="1" res="-1.4848167775198817e-03" rms="3.8714259862899780e-01" purity="3.2069483399391174e-01" nType="-99"/>
            <Node pos="r" depth="3" NCoef="0" IVar="-1" Cut="0.0000000000000000e+00" cType="1" res="-6.5640849061310291e-03" rms="3.0836966633796692e-01" purity="1.6346544027328491e-01" nType="-99"/>
          </Node>
        </Node>
      </Node>
    </BinaryTree>
    <BinaryTree type="DecisionTree" boostWeight="1.0000000000000000e+00" itree="341">
      <Node pos="s" depth="0" NCoef="0" IVar="8" Cut="9.3330079317092896e-01" cType="1" res="9.1801136732101440e-03" rms="3.9861735701560974e-01" purity="4.9814847111701965e-01" nType="0">
        <Node pos="l" depth="1" NCoef="0" IVar="8" Cut="-6.6669368743896484e-01" cType="1" res="1.9928682595491409e-02" rms="3.9980870485305786e-01" purity="5.3396791219711304e-01" nType="0">
          <Node pos="l" depth="2" NCoef="0" IVar="3" Cut="2.3158680725097656e+02" cType="1" res="-1.9599227234721184e-02" rms="3.9578700065612793e-01" purity="4.0008056163787842e-01" nType="0">
            <Node pos="l" depth="3" NCoef="0" IVar="-1" Cut="0.0000000000000000e+00" cType="1" res="-1.4440299128182232e-04" rms="3.9295971393585205e-01" purity="3.9545118808746338e-01" nType="-99"/>
            <Node pos="r" depth="3" NCoef="0" IVar="-1" Cut="0.0000000000000000e+00" cType="1" res="-3.0480544082820415e-03" rms="3.9971247315406799e-01" purity="4.1090661287307739e-01" nType="-99"/>
          </Node>
          <Node pos="r" depth="2" NCoef="0" IVar="2" Cut="6.2839337158203125e+02" cType="1" res="3.8611739873886108e-02" rms="4.0033957362174988e-01" purity="5.9725040197372437e-01" nType="0">
            <Node pos="l" depth="3" NCoef="0" IVar="-1" Cut="0.0000000000000000e+00" cType="1" res="1.7410456202924252e-03" rms="3.9688885211944580e-01" purity="6.1203187704086304e-01" nType="-99"/>
            <Node pos="r" depth="3" NCoef="0" IVar="-1" Cut="0.0000000000000000e+00" cType="1" res="-2.8404899057932198e-04" rms="4.2475867271423340e-01" purity="4.4747266173362732e-01" nType="-99"/>
          </Node>
        </Node>
        <Node pos="r" depth="1" NCoef="0" IVar="6" Cut="1.2193835973739624e+00" cType="1" res="-3.7529010325670242e-02" rms="3.8997238874435425e-01" purity="3.4249094128608704e-01" nType="0">
          <Node pos="l" depth="2" NCoef="0" IVar="8" Cut="1.8222231864929199e+00" cType="1" res="-2.7192533016204834e-02" rms="4.0366509556770325e-01" purity="3.8001215457916260e-01" nType="0">
            <Node pos="l" depth="3" NCoef="0" IVar="-1" Cut="0.0000000000000000e+00" cType="1" res="-4.4443496153689921e-04" rms="4.1820335388183594e-01" purity="4.3732535839080811e-01" nType="-99"/>
            <Node pos="r" depth="3" NCoef="0" IVar="-1" Cut="0.0000000000000000e+00" cType="1" res="-4.8596784472465515e-03" rms="3.5521835088729858e-01" purity="2.1786040067672729e-01" nType="-99"/>
          </Node>
          <Node pos="r" depth="2" NCoef="0" IVar="-1" Cut="0.0000000000000000e+00" cType="1" res="-6.7887404002249241e-03" rms="2.9482498764991760e-01" purity="1.3128626346588135e-01" nType="-99"/>
        </Node>
      </Node>
    </BinaryTree>
    <BinaryTree type="DecisionTree" boostWeight="1.0000000000000000e+00" itree="342">
      <Node pos="s" depth="0" NCoef="0" IVar="9" Cut="1.4666398763656616e+00" cType="1" res="8.3016464486718178e-03" rms="3.9818894863128662e-01" purity="4.9989879131317139e-01" nType="0">
        <Node pos="l" depth="1" NCoef="0" IVar="2" Cut="3.4597100830078125e+02" cType="1" res="1.4783210121095181e-02" rms="4.0039324760437012e-01" purity="5.2288842201232910e-01" nType="0">
          <Node pos="l" depth="2" NCoef="0" IVar="0" Cut="1.2574132080078125e+03" cType="1" res="3.2591067254543304e-02" rms="3.9419433474540710e-01" purity="5.8335864543914795e-01" nType="0">
            <Node pos="l" depth="3" NCoef="0" IVar="-1" Cut="0.0000000000000000e+00" cType="1" res="-7.0276269980240613e-05" rms="4.2896702885627747e-01" purity="3.9380422234535217e-01" nType="-99"/>
            <Node pos="r" depth="3" NCoef="0" IVar="-1" Cut="0.0000000000000000e+00" cType="1" res="2.6776869781315327e-03" rms="3.4710323810577393e-01" purity="7.9585623741149902e-01" nType="-99"/>
          </Node>
          <Node pos="r" depth="2" NCoef="0" IVar="0" Cut="1.8414747314453125e+03" cType="1" res="-5.7138730771839619e-03" rms="4.0644684433937073e-01" purity="4.5328629016876221e-01" nType="0">
            <Node pos="l" depth="3" NCoef="0" IVar="-1" Cut="0.0000000000000000e+00" cType="1" res="-1.1901474790647626e-03" rms="4.0191069245338440e-01" purity="3.8488796353340149e-01" nType="-99"/>
            <Node pos="r" depth="3" NCoef="0" IVar="-1" Cut="0.0000000000000000e+00" cType="1" res="1.6975147882476449e-03" rms="4.1434958577156067e-01" purity="6.4383268356323242e-01" nType="-99"/>
          </Node>
        </Node>
        <Node pos="r" depth="1" NCoef="0" IVar="9" Cut="1.9110665321350098e+00" cType="1" res="-5.1831517368555069e-02" rms="3.7177565693855286e-01" purity="2.8661119937896729e-01" nType="0">
          <Node pos="l" depth="2" NCoef="0" IVar="-1" Cut="0.0000000000000000e+00" cType="1" res="-1.3806123752146959e-03" rms="3.9453563094139099e-01" purity="3.5198575258255005e-01" nType="-99"/>
          <Node pos="r" depth="2" NCoef="0" IVar="-1" Cut="0.0000000000000000e+00" cType="1" res="-4.6867653727531433e-03" rms="3.4413689374923706e-01" purity="2.1742112934589386e-01" nType="-99"/>
        </Node>
      </Node>
    </BinaryTree>
    <BinaryTree type="DecisionTree" boostWeight="1.0000000000000000e+00" itree="343">
      <Node pos="s" depth="0" NCoef="0" IVar="8" Cut="-9.3333774805068970e-01" cType="1" res="9.3128522858023643e-03" rms="3.9755630493164062e-01" purity="5.0379639863967896e-01" nType="0">
        <Node pos="l" depth="1" NCoef="0" IVar="7" Cut="6.6627454757690430e-01" cType="1" res="-3.4295011311769485e-02" rms="3.8420134782791138e-01" purity="3.4854793548583984e-01" nType="0">
          <Node pos="l" depth="2" NCoef="0" IVar="2" Cut="3.0890985107421875e+02" cType="1" res="-1.8569132313132286e-02" rms="3.9348730444908142e-01" purity="3.8642665743827820e-01" nType="0">
            <Node pos="l" depth="3" NCoef="0" IVar="-1" Cut="0.0000000000000000e+00" cType="1" res="6.4822082640603185e-04" rms="4.0263640880584717e-01" purity="4.6115702390670776e-01" nType="-99"/>
            <Node pos="r" depth="3" NCoef="0" IVar="-1" Cut="0.0000000000000000e+00" cType="1" res="-2.4747501593083143e-03" rms="3.8436484336853027e-01" purity="3.2969617843627930e-01" nType="-99"/>
          </Node>
          <Node pos="r" depth="2" NCoef="0" IVar="-1" Cut="0.0000000000000000e+00" cType="1" res="-5.2723675034940243e-03" rms="3.4458774328231812e-01" purity="2.1721076965332031e-01" nType="-99"/>
        </Node>
        <Node pos="r" depth="1" NCoef="0" IVar="8" Cut="8.4443581104278564e-01" cType="1" res="1.9081272184848785e-02" rms="3.9983534812927246e-01" purity="5.3857296705245972e-01" nType="0">
          <Node pos="l" depth="2" NCoef="0" IVar="2" Cut="4.9194268798828125e+02" cType="1" res="3.4767460078001022e-02" rms="4.0171518921852112e-01" purity="5.9610670804977417e-01" nType="0">
            <Node pos="l" depth="3" NCoef="0" IVar="-1" Cut="0.0000000000000000e+00" cType="1" res="1.6368910437449813e-03" rms="3.9472007751464844e-01" purity="6.2753915786743164e-01" nType="-99"/>
            <Node pos="r" depth="3" NCoef="0" IVar="-1" Cut="0.0000000000000000e+00" cType="1" res="-4.9619871424511075e-04" rms="4.2818847298622131e-01" purity="4.5727917551994324e-01" nType="-99"/>
          </Node>
          <Node pos="r" depth="2" NCoef="0" IVar="2" Cut="3.7131695556640625e+02" cType="1" res="-2.5212647393345833e-02" rms="3.9109686017036438e-01" purity="3.7611180543899536e-01" nType="0">
            <Node pos="l" depth="3" NCoef="0" IVar="-1" Cut="0.0000000000000000e+00" cType="1" res="-2.3254573170561343e-04" rms="4.0043583512306213e-01" purity="4.3564906716346741e-01" nType="-99"/>
            <Node pos="r" depth="3" NCoef="0" IVar="-1" Cut="0.0000000000000000e+00" cType="1" res="-3.4011981915682554e-03" rms="3.7453153729438782e-01" purity="2.8575450181961060e-01" nType="-99"/>
          </Node>
        </Node>
      </Node>
    </BinaryTree>
    <BinaryTree type="DecisionTree" boostWeight="1.0000000000000000e+00" itree="344">
      <Node pos="s" depth="0" NCoef="0" IVar="2" Cut="6.0625183105468750e+02" cType="1" res="6.6189528442919254e-03" rms="3.9709234237670898e-01" purity="4.9924576282501221e-01" nType="0">
        <Node pos="l" depth="1" NCoef="0" IVar="0" Cut="1.2502233886718750e+03" cType="1" res="1.3667927123606205e-02" rms="3.9577573537826538e-01" purity="5.1305532455444336e-01" nType="0">
          <Node pos="l" depth="2" NCoef="0" IVar="3" Cut="1.5538505554199219e+02" cType="1" res="-2.5151839479804039e-02" rms="4.0595600008964539e-01" purity="3.1956842541694641e-01" nType="0">
            <Node pos="l" depth="3" NCoef="0" IVar="-1" Cut="0.0000000000000000e+00" cType="1" res="-2.0295428112149239e-04" rms="3.9953133463859558e-01" purity="3.0571240186691284e-01" nType="-99"/>
            <Node pos="r" depth="3" NCoef="0" IVar="-1" Cut="0.0000000000000000e+00" cType="1" res="-1.8638469045981765e-03" rms="4.1192728281021118e-01" purity="3.3534097671508789e-01" nType="-99"/>
          </Node>
          <Node pos="r" depth="2" NCoef="0" IVar="2" Cut="2.7738760375976562e+02" cType="1" res="3.7759516388177872e-02" rms="3.8737261295318604e-01" purity="6.3313347101211548e-01" nType="0">
            <Node pos="l" depth="3" NCoef="0" IVar="-1" Cut="0.0000000000000000e+00" cType="1" res="3.6139134317636490e-03" rms="3.1649583578109741e-01" purity="8.5375499725341797e-01" nType="-99"/>
            <Node pos="r" depth="3" NCoef="0" IVar="-1" Cut="0.0000000000000000e+00" cType="1" res="8.4559997776523232e-04" rms="4.0305295586585999e-01" purity="5.7238268852233887e-01" nType="-99"/>
          </Node>
        </Node>
        <Node pos="r" depth="1" NCoef="0" IVar="1" Cut="5.5701171875000000e+02" cType="1" res="-6.2532149255275726e-02" rms="4.0330359339714050e-01" purity="3.6377277970314026e-01" nType="0">
          <Node pos="l" depth="2" NCoef="0" IVar="-1" Cut="0.0000000000000000e+00" cType="1" res="-1.1606513522565365e-02" rms="3.5072112083435059e-01" purity="1.8551318347454071e-01" nType="-99"/>
          <Node pos="r" depth="2" NCoef="0" IVar="-1" Cut="0.0000000000000000e+00" cType="1" res="3.9028839091770351e-04" rms="4.4815310835838318e-01" purity="5.8034753799438477e-01" nType="-99"/>
        </Node>
      </Node>
    </BinaryTree>
    <BinaryTree type="DecisionTree" boostWeight="1.0000000000000000e+00" itree="345">
      <Node pos="s" depth="0" NCoef="0" IVar="9" Cut="1.4666407108306885e+00" cType="1" res="9.4358427450060844e-03" rms="3.9700680971145630e-01" purity="5.0244754552841187e-01" nType="0">
        <Node pos="l" depth="1" NCoef="0" IVar="7" Cut="-1.4665789604187012e+00" cType="1" res="1.5821225941181183e-02" rms="3.9984193444252014e-01" purity="5.2434599399566650e-01" nType="0">
          <Node pos="l" depth="2" NCoef="0" IVar="6" Cut="1.6044117510318756e-01" cType="1" res="-5.0808474421501160e-02" rms="3.5622665286064148e-01" purity="2.1461975574493408e-01" nType="0">
            <Node pos="l" depth="3" NCoef="0" IVar="-1" Cut="0.0000000000000000e+00" cType="1" res="-1.8980661407113075e-03" rms="3.6501923203468323e-01" purity="2.4494360387325287e-01" nType="-99"/>
            <Node pos="r" depth="3" NCoef="0" IVar="-1" Cut="0.0000000000000000e+00" cType="1" res="-5.6438748724758625e-03" rms="3.4174317121505737e-01" purity="1.7135490477085114e-01" nType="-99"/>
          </Node>
          <Node pos="r" depth="2" NCoef="0" IVar="2" Cut="3.4597155761718750e+02" cType="1" res="2.1524993702769279e-02" rms="4.0284472703933716e-01" purity="5.5085974931716919e-01" nType="0">
            <Node pos="l" depth="3" NCoef="0" IVar="-1" Cut="0.0000000000000000e+00" cType="1" res="1.4971909113228321e-03" rms="3.9266434311866760e-01" purity="6.1488568782806396e-01" nType="-99"/>
            <Node pos="r" depth="3" NCoef="0" IVar="-1" Cut="0.0000000000000000e+00" cType="1" res="-5.5343507483485155e-06" rms="4.1308963298797607e-01" purity="4.7778657078742981e-01" nType="-99"/>
          </Node>
        </Node>
        <Node pos="r" depth="1" NCoef="0" IVar="9" Cut="1.9745690822601318e+00" cType="1" res="-5.1667273044586182e-02" rms="3.6314231157302856e-01" purity="2.9289650917053223e-01" nType="0">
          <Node pos="l" depth="2" NCoef="0" IVar="8" Cut="1.3284476101398468e-01" cType="1" res="-2.8706602752208710e-02" rms="3.8147437572479248e-01" purity="3.6019328236579895e-01" nType="0">
            <Node pos="l" depth="3" NCoef="0" IVar="-1" Cut="0.0000000000000000e+00" cType="1" res="-2.6606642641127110e-03" rms="3.8731232285499573e-01" purity="3.4193778038024902e-01" nType="-99"/>
            <Node pos="r" depth="3" NCoef="0" IVar="-1" Cut="0.0000000000000000e+00" cType="1" res="-4.0397018892690539e-04" rms="3.7506836652755737e-01" purity="3.7622395157814026e-01" nType="-99"/>
          </Node>
          <Node pos="r" depth="2" NCoef="0" IVar="-1" Cut="0.0000000000000000e+00" cType="1" res="-5.2591147832572460e-03" rms="3.3378753066062927e-01" purity="2.0050407946109772e-01" nType="-99"/>
        </Node>
      </Node>
    </BinaryTree>
    <BinaryTree type="DecisionTree" boostWeight="1.0000000000000000e+00" itree="346">
      <Node pos="s" depth="0" NCoef="0" IVar="6" Cut="-9.0282946825027466e-01" cType="1" res="7.2318781167268753e-03" rms="3.9712217450141907e-01" purity="5.0099015235900879e-01" nType="0">
        <Node pos="l" depth="1" NCoef="0" IVar="1" Cut="5.1024856567382812e+02" cType="1" res="-4.1466955095529556e-02" rms="3.7803804874420166e-01" purity="3.0903682112693787e-01" nType="0">
          <Node pos="l" depth="2" NCoef="0" IVar="7" Cut="3.9958643913269043e-01" cType="1" res="-5.3328111767768860e-02" rms="3.6256426572799683e-01" purity="2.5142291188240051e-01" nType="0">
            <Node pos="l" depth="3" NCoef="0" IVar="-1" Cut="0.0000000000000000e+00" cType="1" res="-1.9092907896265388e-03" rms="3.7782639265060425e-01" purity="2.9176142811775208e-01" nType="-99"/>
            <Node pos="r" depth="3" NCoef="0" IVar="-1" Cut="0.0000000000000000e+00" cType="1" res="-5.9816786088049412e-03" rms="3.2541924715042114e-01" purity="1.6557987034320831e-01" nType="-99"/>
          </Node>
          <Node pos="r" depth="2" NCoef="0" IVar="-1" Cut="0.0000000000000000e+00" cType="1" res="4.8423229600302875e-04" rms="4.3812233209609985e-01" purity="5.7375615835189819e-01" nType="-99"/>
        </Node>
        <Node pos="r" depth="1" NCoef="0" IVar="6" Cut="1.3892033100128174e+00" cType="1" res="1.6952082514762878e-02" rms="4.0011361241340637e-01" purity="5.3930371999740601e-01" nType="0">
          <Node pos="l" depth="2" NCoef="0" IVar="2" Cut="4.0312747192382812e+02" cType="1" res="2.4137077853083611e-02" rms="4.0385758876800537e-01" purity="5.7195115089416504e-01" nType="0">
            <Node pos="l" depth="3" NCoef="0" IVar="-1" Cut="0.0000000000000000e+00" cType="1" res="1.4047420118004084e-03" rms="3.9562925696372986e-01" purity="6.2749093770980835e-01" nType="-99"/>
            <Node pos="r" depth="3" NCoef="0" IVar="-1" Cut="0.0000000000000000e+00" cType="1" res="-1.4070465113036335e-04" rms="4.1829815506935120e-01" purity="4.6085226535797119e-01" nType="-99"/>
          </Node>
          <Node pos="r" depth="2" NCoef="0" IVar="9" Cut="6.6718930006027222e-01" cType="1" res="-4.9890134483575821e-02" rms="3.5656708478927612e-01" purity="2.3558369278907776e-01" nType="0">
            <Node pos="l" depth="3" NCoef="0" IVar="-1" Cut="0.0000000000000000e+00" cType="1" res="-1.3722509611397982e-03" rms="3.7941342592239380e-01" purity="2.8050199151039124e-01" nType="-99"/>
            <Node pos="r" depth="3" NCoef="0" IVar="-1" Cut="0.0000000000000000e+00" cType="1" res="-6.7240446805953979e-03" rms="2.9973885416984558e-01" purity="1.4484089612960815e-01" nType="-99"/>
          </Node>
        </Node>
      </Node>
    </BinaryTree>
    <BinaryTree type="DecisionTree" boostWeight="1.0000000000000000e+00" itree="347">
      <Node pos="s" depth="0" NCoef="0" IVar="6" Cut="1.4691376686096191e+00" cType="1" res="6.3863769173622131e-03" rms="3.9566835761070251e-01" purity="5.0068378448486328e-01" nType="0">
        <Node pos="l" depth="1" NCoef="0" IVar="6" Cut="-7.6113235950469971e-01" cType="1" res="1.1918836273252964e-02" rms="3.9867395162582397e-01" purity="5.2212947607040405e-01" nType="0">
          <Node pos="l" depth="2" NCoef="0" IVar="8" Cut="6.6691529750823975e-01" cType="1" res="-3.2308295369148254e-02" rms="3.8184934854507446e-01" purity="3.5178050398826599e-01" nType="0">
            <Node pos="l" depth="3" NCoef="0" IVar="-1" Cut="0.0000000000000000e+00" cType="1" res="-8.0250296741724014e-04" rms="3.8847911357879639e-01" purity="3.8904988765716553e-01" nType="-99"/>
            <Node pos="r" depth="3" NCoef="0" IVar="-1" Cut="0.0000000000000000e+00" cType="1" res="-5.2541140466928482e-03" rms="3.5520127415657043e-01" purity="2.3050692677497864e-01" nType="-99"/>
          </Node>
          <Node pos="r" depth="2" NCoef="0" IVar="7" Cut="-1.4666526317596436e+00" cType="1" res="2.4176901206374168e-02" rms="4.0235334634780884e-01" purity="5.6934374570846558e-01" nType="0">
            <Node pos="l" depth="3" NCoef="0" IVar="-1" Cut="0.0000000000000000e+00" cType="1" res="-3.6032691132277250e-03" rms="3.5859805345535278e-01" purity="2.4244022369384766e-01" nType="-99"/>
            <Node pos="r" depth="3" NCoef="0" IVar="-1" Cut="0.0000000000000000e+00" cType="1" res="9.5844041788950562e-04" rms="4.0465319156646729e-01" purity="5.9291875362396240e-01" nType="-99"/>
          </Node>
        </Node>
        <Node pos="r" depth="1" NCoef="0" IVar="3" Cut="1.9786482238769531e+02" cType="1" res="-6.9696113467216492e-02" rms="3.4279912710189819e-01" purity="2.0576196908950806e-01" nType="0">
          <Node pos="l" depth="2" NCoef="0" IVar="-1" Cut="0.0000000000000000e+00" cType="1" res="-2.5149665307253599e-03" rms="3.4070217609405518e-01" purity="1.8918345868587494e-01" nType="-99"/>
          <Node pos="r" depth="2" NCoef="0" IVar="-1" Cut="0.0000000000000000e+00" cType="1" res="-6.4043565653264523e-03" rms="3.4182220697402954e-01" purity="2.2699886560440063e-01" nType="-99"/>
        </Node>
      </Node>
    </BinaryTree>
    <BinaryTree type="DecisionTree" boostWeight="1.0000000000000000e+00" itree="348">
      <Node pos="s" depth="0" NCoef="0" IVar="7" Cut="9.3314772844314575e-01" cType="1" res="7.7624791301786900e-03" rms="3.9773637056350708e-01" purity="4.9890354275703430e-01" nType="0">
        <Node pos="l" depth="1" NCoef="0" IVar="7" Cut="-6.6671913862228394e-01" cType="1" res="1.6547095030546188e-02" rms="4.0118873119354248e-01" purity="5.3866511583328247e-01" nType="0">
          <Node pos="l" depth="2" NCoef="0" IVar="3" Cut="2.6354040527343750e+02" cType="1" res="-1.4592837542295456e-02" rms="3.8996827602386475e-01" purity="3.8799297809600830e-01" nType="0">
            <Node pos="l" depth="3" NCoef="0" IVar="-1" Cut="0.0000000000000000e+00" cType="1" res="1.3608242443297058e-04" rms="3.8811933994293213e-01" purity="4.0119701623916626e-01" nType="-99"/>
            <Node pos="r" depth="3" NCoef="0" IVar="-1" Cut="0.0000000000000000e+00" cType="1" res="-5.8355475775897503e-03" rms="3.8846218585968018e-01" purity="3.2882395386695862e-01" nType="-99"/>
          </Node>
          <Node pos="r" depth="2" NCoef="0" IVar="8" Cut="-1.1999756097793579e+00" cType="1" res="2.9811065644025803e-02" rms="4.0514764189720154e-01" purity="6.0284346342086792e-01" nType="0">
            <Node pos="l" depth="3" NCoef="0" IVar="-1" Cut="0.0000000000000000e+00" cType="1" res="-1.5696104383096099e-03" rms="4.0848916769027710e-01" purity="3.7663757801055908e-01" nType="-99"/>
            <Node pos="r" depth="3" NCoef="0" IVar="-1" Cut="0.0000000000000000e+00" cType="1" res="1.1154669336974621e-03" rms="4.0402996540069580e-01" purity="6.3095712661743164e-01" nType="-99"/>
          </Node>
        </Node>
        <Node pos="r" depth="1" NCoef="0" IVar="3" Cut="2.0657308959960938e+02" cType="1" res="-3.4449655562639236e-02" rms="3.7787276506423950e-01" purity="3.0784010887145996e-01" nType="0">
          <Node pos="l" depth="2" NCoef="0" IVar="2" Cut="3.1122521972656250e+02" cType="1" res="-1.4572896994650364e-02" rms="3.7207201123237610e-01" purity="2.9474195837974548e-01" nType="0">
            <Node pos="l" depth="3" NCoef="0" IVar="-1" Cut="0.0000000000000000e+00" cType="1" res="4.4804622302763164e-04" rms="3.9340662956237793e-01" purity="3.6615216732025146e-01" nType="-99"/>
            <Node pos="r" depth="3" NCoef="0" IVar="-1" Cut="0.0000000000000000e+00" cType="1" res="-2.4410092737525702e-03" rms="3.4534680843353271e-01" purity="2.1702861785888672e-01" nType="-99"/>
          </Node>
          <Node pos="r" depth="2" NCoef="0" IVar="3" Cut="2.7601016235351562e+02" cType="1" res="-6.4991660416126251e-02" rms="3.8461980223655701e-01" purity="3.2796633243560791e-01" nType="0">
            <Node pos="l" depth="3" NCoef="0" IVar="-1" Cut="0.0000000000000000e+00" cType="1" res="-2.0552976056933403e-03" rms="3.9824756979942322e-01" purity="3.7911123037338257e-01" nType="-99"/>
            <Node pos="r" depth="3" NCoef="0" IVar="-1" Cut="0.0000000000000000e+00" cType="1" res="-6.9649713113903999e-03" rms="3.5963293910026550e-01" purity="2.4902188777923584e-01" nType="-99"/>
          </Node>
        </Node>
      </Node>
    </BinaryTree>
    <BinaryTree type="DecisionTree" boostWeight="1.0000000000000000e+00" itree="349">
      <Node pos="s" depth="0" NCoef="0" IVar="7" Cut="-1.4665899276733398e+00" cType="1" res="4.8019639216363430e-03" rms="3.9650890231132507e-01" purity="4.9554955959320068e-01" nType="0">
        <Node pos="l" depth="1" NCoef="0" IVar="3" Cut="1.6724383544921875e+02" cType="1" res="-6.5200611948966980e-02" rms="3.3144581317901611e-01" purity="1.9205150008201599e-01" nType="0">
          <Node pos="l" depth="2" NCoef="0" IVar="-1" Cut="0.0000000000000000e+00" cType="1" res="-2.1349196322262287e-03" rms="3.2227918505668640e-01" purity="1.7150285840034485e-01" nType="-99"/>
          <Node pos="r" depth="2" NCoef="0" IVar="-1" Cut="0.0000000000000000e+00" cType="1" res="-6.0090580955147743e-03" rms="3.3603265881538391e-01" purity="2.0715792477130890e-01" nType="-99"/>
        </Node>
        <Node pos="r" depth="1" NCoef="0" IVar="7" Cut="7.6822555065155029e-01" cType="1" res="1.0735063813626766e-02" rms="4.0097761154174805e-01" purity="5.2127265930175781e-01" nType="0">
          <Node pos="l" depth="2" NCoef="0" IVar="0" Cut="1.1904844970703125e+03" cType="1" res="2.3810610175132751e-02" rms="4.0537619590759277e-01" purity="5.7617676258087158e-01" nType="0">
            <Node pos="l" depth="3" NCoef="0" IVar="-1" Cut="0.0000000000000000e+00" cType="1" res="-4.2395701166242361e-04" rms="4.3824428319931030e-01" purity="3.6466553807258606e-01" nType="-99"/>
            <Node pos="r" depth="3" NCoef="0" IVar="-1" Cut="0.0000000000000000e+00" cType="1" res="1.4075931394472718e-03" rms="3.9307361841201782e-01" purity="6.4673763513565063e-01" nType="-99"/>
          </Node>
          <Node pos="r" depth="2" NCoef="0" IVar="0" Cut="1.3327927246093750e+03" cType="1" res="-3.1321231275796890e-02" rms="3.8347935676574707e-01" purity="3.4467869997024536e-01" nType="0">
            <Node pos="l" depth="3" NCoef="0" IVar="-1" Cut="0.0000000000000000e+00" cType="1" res="-2.8617535717785358e-03" rms="3.6946770548820496e-01" purity="2.3127073049545288e-01" nType="-99"/>
            <Node pos="r" depth="3" NCoef="0" IVar="-1" Cut="0.0000000000000000e+00" cType="1" res="-3.5190151538699865e-04" rms="3.9621722698211670e-01" purity="4.6330827474594116e-01" nType="-99"/>
          </Node>
        </Node>
      </Node>
    </BinaryTree>
    <BinaryTree type="DecisionTree" boostWeight="1.0000000000000000e+00" itree="350">
      <Node pos="s" depth="0" NCoef="0" IVar="6" Cut="-1.4474785327911377e+00" cType="1" res="1.0739375837147236e-02" rms="3.9605021476745605e-01" purity="5.0339835882186890e-01" nType="0">
        <Node pos="l" depth="1" NCoef="0" IVar="8" Cut="-3.9719933271408081e-01" cType="1" res="-7.5424104928970337e-02" rms="3.3230921626091003e-01" purity="2.0405882596969604e-01" nType="0">
          <Node pos="l" depth="2" NCoef="0" IVar="-1" Cut="0.0000000000000000e+00" cType="1" res="-9.3984240666031837e-03" rms="2.7718350291252136e-01" purity="1.3299012184143066e-01" nType="-99"/>
          <Node pos="r" depth="2" NCoef="0" IVar="-1" Cut="0.0000000000000000e+00" cType="1" res="-2.8037838637828827e-03" rms="3.6278247833251953e-01" purity="2.5205519795417786e-01" nType="-99"/>
        </Node>
        <Node pos="r" depth="1" NCoef="0" IVar="7" Cut="-1.7333185672760010e+00" cType="1" res="1.6760671511292458e-02" rms="3.9943093061447144e-01" purity="5.2431684732437134e-01" nType="0">
          <Node pos="l" depth="2" NCoef="0" IVar="-1" Cut="0.0000000000000000e+00" cType="1" res="-5.2416571415960789e-03" rms="3.2957485318183899e-01" purity="1.7617994546890259e-01" nType="-99"/>
          <Node pos="r" depth="2" NCoef="0" IVar="7" Cut="8.5705918073654175e-01" cType="1" res="2.1353108808398247e-02" rms="4.0209460258483887e-01" purity="5.4190951585769653e-01" nType="0">
            <Node pos="l" depth="3" NCoef="0" IVar="-1" Cut="0.0000000000000000e+00" cType="1" res="1.2011161306872964e-03" rms="4.0388301014900208e-01" purity="5.8849382400512695e-01" nType="-99"/>
            <Node pos="r" depth="3" NCoef="0" IVar="-1" Cut="0.0000000000000000e+00" cType="1" res="-1.0062694782391191e-03" rms="3.9183542132377625e-01" purity="3.5191676020622253e-01" nType="-99"/>
          </Node>
        </Node>
      </Node>
    </BinaryTree>
    <BinaryTree type="DecisionTree" boostWeight="1.0000000000000000e+00" itree="351">
      <Node pos="s" depth="0" NCoef="0" IVar="9" Cut="1.4666661024093628e+00" cType="1" res="7.7471630647778511e-03" rms="3.9542105793952942e-01" purity="5.0143152475357056e-01" nType="0">
        <Node pos="l" depth="1" NCoef="0" IVar="9" Cut="-1.5808891057968140e+00" cType="1" res="1.4486962929368019e-02" rms="3.9846697449684143e-01" purity="5.2356564998626709e-01" nType="0">
          <Node pos="l" depth="2" NCoef="0" IVar="6" Cut="4.1803959012031555e-01" cType="1" res="-5.9113539755344391e-02" rms="3.5900312662124634e-01" purity="2.7297297120094299e-01" nType="0">
            <Node pos="l" depth="3" NCoef="0" IVar="-1" Cut="0.0000000000000000e+00" cType="1" res="-2.3338980972766876e-03" rms="3.6792945861816406e-01" purity="3.0677956342697144e-01" nType="-99"/>
            <Node pos="r" depth="3" NCoef="0" IVar="-1" Cut="0.0000000000000000e+00" cType="1" res="-6.7945267073810101e-03" rms="3.3482933044433594e-01" purity="1.9672845304012299e-01" nType="-99"/>
          </Node>
          <Node pos="r" depth="2" NCoef="0" IVar="7" Cut="6.6671025753021240e-01" cType="1" res="2.1850438788533211e-02" rms="4.0146034955978394e-01" purity="5.4863655567169189e-01" nType="0">
            <Node pos="l" depth="3" NCoef="0" IVar="-1" Cut="0.0000000000000000e+00" cType="1" res="1.3080247445032001e-03" rms="4.0149238705635071e-01" purity="5.8879315853118896e-01" nType="-99"/>
            <Node pos="r" depth="3" NCoef="0" IVar="-1" Cut="0.0000000000000000e+00" cType="1" res="-7.9905928578227758e-04" rms="3.9874550700187683e-01" purity="4.1555598378181458e-01" nType="-99"/>
          </Node>
        </Node>
        <Node pos="r" depth="1" NCoef="0" IVar="9" Cut="2.1015841960906982e+00" cType="1" res="-5.5937718600034714e-02" rms="3.5919907689094543e-01" purity="2.9228493571281433e-01" nType="0">
          <Node pos="l" depth="2" NCoef="0" IVar="6" Cut="-6.0700993984937668e-02" cType="1" res="-3.3412266522645950e-02" rms="3.7377700209617615e-01" purity="3.4835007786750793e-01" nType="0">
            <Node pos="l" depth="3" NCoef="0" IVar="-1" Cut="0.0000000000000000e+00" cType="1" res="-3.1017900910228491e-03" rms="3.6153900623321533e-01" purity="3.1964686512947083e-01" nType="-99"/>
            <Node pos="r" depth="3" NCoef="0" IVar="-1" Cut="0.0000000000000000e+00" cType="1" res="-5.5104272905737162e-04" rms="3.8058355450630188e-01" purity="3.6833363771438599e-01" nType="-99"/>
          </Node>
          <Node pos="r" depth="2" NCoef="0" IVar="-1" Cut="0.0000000000000000e+00" cType="1" res="-8.5076857358217239e-03" rms="3.1677839159965515e-01" purity="1.6230702400207520e-01" nType="-99"/>
        </Node>
      </Node>
    </BinaryTree>
    <BinaryTree type="DecisionTree" boostWeight="1.0000000000000000e+00" itree="352">
      <Node pos="s" depth="0" NCoef="0" IVar="8" Cut="1.4666540622711182e+00" cType="1" res="7.9821515828371048e-03" rms="3.9616766571998596e-01" purity="4.9886548519134521e-01" nType="0">
        <Node pos="l" depth="1" NCoef="0" IVar="8" Cut="-1.5809532403945923e+00" cType="1" res="1.4964355155825615e-02" rms="3.9890745282173157e-01" purity="5.2393680810928345e-01" nType="0">
          <Node pos="l" depth="2" NCoef="0" IVar="4" Cut="1.1840039825439453e+02" cType="1" res="-5.4150588810443878e-02" rms="3.5261130332946777e-01" purity="2.2637555003166199e-01" nType="0">
            <Node pos="l" depth="3" NCoef="0" IVar="-1" Cut="0.0000000000000000e+00" cType="1" res="-1.0017111198976636e-03" rms="3.3568727970123291e-01" purity="1.8856047093868256e-01" nType="-99"/>
            <Node pos="r" depth="3" NCoef="0" IVar="-1" Cut="0.0000000000000000e+00" cType="1" res="-5.1650810055434704e-03" rms="3.6398318409919739e-01" purity="2.6171979308128357e-01" nType="-99"/>
          </Node>
          <Node pos="r" depth="2" NCoef="0" IVar="6" Cut="6.7056101560592651e-01" cType="1" res="2.1094648167490959e-02" rms="4.0218389034271240e-01" purity="5.5032962560653687e-01" nType="0">
            <Node pos="l" depth="3" NCoef="0" IVar="-1" Cut="0.0000000000000000e+00" cType="1" res="1.2151408009231091e-03" rms="4.0174975991249084e-01" purity="5.8868902921676636e-01" nType="-99"/>
            <Node pos="r" depth="3" NCoef="0" IVar="-1" Cut="0.0000000000000000e+00" cType="1" res="-6.6530954791232944e-04" rms="4.0149527788162231e-01" purity="4.2167392373085022e-01" nType="-99"/>
          </Node>
        </Node>
        <Node pos="r" depth="1" NCoef="0" IVar="8" Cut="1.7841143608093262e+00" cType="1" res="-6.4932182431221008e-02" rms="3.5829478502273560e-01" purity="2.3704878985881805e-01" nType="0">
          <Node pos="l" depth="2" NCoef="0" IVar="-1" Cut="0.0000000000000000e+00" cType="1" res="-1.3423438649624586e-03" rms="3.9730477333068848e-01" purity="3.1808537244796753e-01" nType="-99"/>
          <Node pos="r" depth="2" NCoef="0" IVar="7" Cut="1.3372313976287842e-01" cType="1" res="-9.1690093278884888e-02" rms="3.2687318325042725e-01" purity="1.8276710808277130e-01" nType="0">
            <Node pos="l" depth="3" NCoef="0" IVar="-1" Cut="0.0000000000000000e+00" cType="1" res="-4.8897271044552326e-03" rms="3.3918568491935730e-01" purity="2.1146310865879059e-01" nType="-99"/>
            <Node pos="r" depth="3" NCoef="0" IVar="-1" Cut="0.0000000000000000e+00" cType="1" res="-8.1096794456243515e-03" rms="3.1314519047737122e-01" purity="1.5348871052265167e-01" nType="-99"/>
          </Node>
        </Node>
      </Node>
    </BinaryTree>
    <BinaryTree type="DecisionTree" boostWeight="1.0000000000000000e+00" itree="353">
      <Node pos="s" depth="0" NCoef="0" IVar="2" Cut="6.0625183105468750e+02" cType="1" res="5.3553343750536442e-03" rms="3.9658251404762268e-01" purity="4.9741181731224060e-01" nType="0">
        <Node pos="l" depth="1" NCoef="0" IVar="0" Cut="1.2515799560546875e+03" cType="1" res="1.1805579997599125e-02" rms="3.9599362015724182e-01" purity="5.1096779108047485e-01" nType="0">
          <Node pos="l" depth="2" NCoef="0" IVar="2" Cut="2.3868928527832031e+02" cType="1" res="-2.3229785263538361e-02" rms="4.0777727961540222e-01" purity="3.2018482685089111e-01" nType="0">
            <Node pos="l" depth="3" NCoef="0" IVar="-1" Cut="0.0000000000000000e+00" cType="1" res="5.1650230307132006e-04" rms="4.3927276134490967e-01" purity="4.3509632349014282e-01" nType="-99"/>
            <Node pos="r" depth="3" NCoef="0" IVar="-1" Cut="0.0000000000000000e+00" cType="1" res="-1.7751974519342184e-03" rms="3.9270561933517456e-01" purity="2.7177441120147705e-01" nType="-99"/>
          </Node>
          <Node pos="r" depth="2" NCoef="0" IVar="2" Cut="2.7739804077148438e+02" cType="1" res="3.3629462122917175e-02" rms="3.8687241077423096e-01" purity="6.2980836629867554e-01" nType="0">
            <Node pos="l" depth="3" NCoef="0" IVar="-1" Cut="0.0000000000000000e+00" cType="1" res="3.3815754577517509e-03" rms="3.2248494029045105e-01" purity="8.4556365013122559e-01" nType="-99"/>
            <Node pos="r" depth="3" NCoef="0" IVar="-1" Cut="0.0000000000000000e+00" cType="1" res="7.6167366933077574e-04" rms="4.0100017189979553e-01" purity="5.7210153341293335e-01" nType="-99"/>
          </Node>
        </Node>
        <Node pos="r" depth="1" NCoef="0" IVar="1" Cut="6.3031463623046875e+02" cType="1" res="-5.6396719068288803e-02" rms="3.9690616726875305e-01" purity="3.6763224005699158e-01" nType="0">
          <Node pos="l" depth="2" NCoef="0" IVar="2" Cut="6.9282922363281250e+02" cType="1" res="-9.3808732926845551e-02" rms="3.6998757719993591e-01" purity="2.4029782414436340e-01" nType="0">
            <Node pos="l" depth="3" NCoef="0" IVar="-1" Cut="0.0000000000000000e+00" cType="1" res="-1.9219882087782025e-03" rms="3.7919184565544128e-01" purity="2.8161790966987610e-01" nType="-99"/>
            <Node pos="r" depth="3" NCoef="0" IVar="-1" Cut="0.0000000000000000e+00" cType="1" res="-1.3491107150912285e-02" rms="3.4840661287307739e-01" purity="1.9782033562660217e-01" nType="-99"/>
          </Node>
          <Node pos="r" depth="2" NCoef="0" IVar="-1" Cut="0.0000000000000000e+00" cType="1" res="6.1673560412600636e-04" rms="4.3624493479728699e-01" purity="6.2123578786849976e-01" nType="-99"/>
        </Node>
      </Node>
    </BinaryTree>
    <BinaryTree type="DecisionTree" boostWeight="1.0000000000000000e+00" itree="354">
      <Node pos="s" depth="0" NCoef="0" IVar="0" Cut="1.4002912597656250e+03" cType="1" res="9.5815472304821014e-03" rms="3.9777788519859314e-01" purity="5.0276196002960205e-01" nType="0">
        <Node pos="l" depth="1" NCoef="0" IVar="2" Cut="2.5295907592773438e+02" cType="1" res="-8.7766908109188080e-03" rms="4.0794545412063599e-01" purity="3.9382293820381165e-01" nType="0">
          <Node pos="l" depth="2" NCoef="0" IVar="0" Cut="1.1144451904296875e+03" cType="1" res="3.0206054449081421e-02" rms="4.2081442475318909e-01" purity="5.1277750730514526e-01" nType="0">
            <Node pos="l" depth="3" NCoef="0" IVar="-1" Cut="0.0000000000000000e+00" cType="1" res="-3.4165976103395224e-05" rms="4.3262532353401184e-01" purity="3.4716048836708069e-01" nType="-99"/>
            <Node pos="r" depth="3" NCoef="0" IVar="-1" Cut="0.0000000000000000e+00" cType="1" res="2.1018350962549448e-03" rms="4.0418803691864014e-01" purity="6.9983917474746704e-01" nType="-99"/>
          </Node>
          <Node pos="r" depth="2" NCoef="0" IVar="3" Cut="1.7735299682617188e+02" cType="1" res="-2.7942912653088570e-02" rms="4.0007662773132324e-01" purity="3.3533781766891479e-01" nType="0">
            <Node pos="l" depth="3" NCoef="0" IVar="-1" Cut="0.0000000000000000e+00" cType="1" res="-3.8408802356570959e-04" rms="3.9956757426261902e-01" purity="3.1290230154991150e-01" nType="-99"/>
            <Node pos="r" depth="3" NCoef="0" IVar="-1" Cut="0.0000000000000000e+00" cType="1" res="-2.3537660017609596e-03" rms="3.9934909343719482e-01" purity="3.6504331231117249e-01" nType="-99"/>
          </Node>
        </Node>
        <Node pos="r" depth="1" NCoef="0" IVar="2" Cut="4.9199591064453125e+02" cType="1" res="3.0419943854212761e-02" rms="3.8485252857208252e-01" purity="6.2641847133636475e-01" nType="0">
          <Node pos="l" depth="2" NCoef="0" IVar="3" Cut="2.5108271789550781e+02" cType="1" res="5.6174319237470627e-02" rms="3.6347648501396179e-01" purity="7.4321705102920532e-01" nType="0">
            <Node pos="l" depth="3" NCoef="0" IVar="-1" Cut="0.0000000000000000e+00" cType="1" res="3.3333566971123219e-03" rms="3.3142736554145813e-01" purity="8.1827616691589355e-01" nType="-99"/>
            <Node pos="r" depth="3" NCoef="0" IVar="-1" Cut="0.0000000000000000e+00" cType="1" res="5.1674083806574345e-04" rms="3.9889112114906311e-01" purity="6.4098650217056274e-01" nType="-99"/>
          </Node>
          <Node pos="r" depth="2" NCoef="0" IVar="0" Cut="1.9433773193359375e+03" cType="1" res="-1.5232003293931484e-02" rms="4.1618084907531738e-01" purity="4.1938251256942749e-01" nType="0">
            <Node pos="l" depth="3" NCoef="0" IVar="-1" Cut="0.0000000000000000e+00" cType="1" res="-3.0292053706943989e-03" rms="3.9567449688911438e-01" purity="3.0185219645500183e-01" nType="-99"/>
            <Node pos="r" depth="3" NCoef="0" IVar="-1" Cut="0.0000000000000000e+00" cType="1" res="1.2425653403624892e-03" rms="4.3902519345283508e-01" purity="5.8650261163711548e-01" nType="-99"/>
          </Node>
        </Node>
      </Node>
    </BinaryTree>
    <BinaryTree type="DecisionTree" boostWeight="1.0000000000000000e+00" itree="355">
      <Node pos="s" depth="0" NCoef="0" IVar="2" Cut="4.0312747192382812e+02" cType="1" res="6.8538053892552853e-03" rms="3.9617863297462463e-01" purity="4.9899625778198242e-01" nType="0">
        <Node pos="l" depth="1" NCoef="0" IVar="0" Cut="1.2975468750000000e+03" cType="1" res="2.1452104672789574e-02" rms="3.9405411481857300e-01" purity="5.4933327436447144e-01" nType="0">
          <Node pos="l" depth="2" NCoef="0" IVar="2" Cut="2.3869146728515625e+02" cType="1" res="-8.2193277776241302e-03" rms="4.2057594656944275e-01" purity="3.7457311153411865e-01" nType="0">
            <Node pos="l" depth="3" NCoef="0" IVar="-1" Cut="0.0000000000000000e+00" cType="1" res="1.3260915875434875e-03" rms="4.3495035171508789e-01" purity="4.8009386658668518e-01" nType="-99"/>
            <Node pos="r" depth="3" NCoef="0" IVar="-1" Cut="0.0000000000000000e+00" cType="1" res="-1.1789844138547778e-03" rms="4.1229155659675598e-01" purity="3.2662689685821533e-01" nType="-99"/>
          </Node>
          <Node pos="r" depth="2" NCoef="0" IVar="3" Cut="2.3272622680664062e+02" cType="1" res="5.7158619165420532e-02" rms="3.5629239678382874e-01" purity="7.5963926315307617e-01" nType="0">
            <Node pos="l" depth="3" NCoef="0" IVar="-1" Cut="0.0000000000000000e+00" cType="1" res="3.4570998977869749e-03" rms="3.2816368341445923e-01" purity="8.2276326417922974e-01" nType="-99"/>
            <Node pos="r" depth="3" NCoef="0" IVar="-1" Cut="0.0000000000000000e+00" cType="1" res="2.4793442571535707e-04" rms="3.8617250323295593e-01" purity="6.7207837104797363e-01" nType="-99"/>
          </Node>
        </Node>
        <Node pos="r" depth="1" NCoef="0" IVar="0" Cut="1.7131928710937500e+03" cType="1" res="-2.2670894861221313e-02" rms="3.9881104230880737e-01" purity="3.9719066023826599e-01" nType="0">
          <Node pos="l" depth="2" NCoef="0" IVar="1" Cut="3.5681927490234375e+02" cType="1" res="-5.7875949889421463e-02" rms="3.7657535076141357e-01" purity="2.6348063349723816e-01" nType="0">
            <Node pos="l" depth="3" NCoef="0" IVar="-1" Cut="0.0000000000000000e+00" cType="1" res="-6.5538198687136173e-03" rms="3.3169007301330566e-01" purity="1.6101464629173279e-01" nType="-99"/>
            <Node pos="r" depth="3" NCoef="0" IVar="-1" Cut="0.0000000000000000e+00" cType="1" res="-1.9776844419538975e-03" rms="4.0038904547691345e-01" purity="3.2582017779350281e-01" nType="-99"/>
          </Node>
          <Node pos="r" depth="2" NCoef="0" IVar="2" Cut="5.9657989501953125e+02" cType="1" res="2.2562492638826370e-02" rms="4.2138373851776123e-01" purity="5.6898862123489380e-01" nType="0">
            <Node pos="l" depth="3" NCoef="0" IVar="-1" Cut="0.0000000000000000e+00" cType="1" res="2.4478193372488022e-03" rms="4.0423837304115295e-01" purity="6.8017697334289551e-01" nType="-99"/>
            <Node pos="r" depth="3" NCoef="0" IVar="-1" Cut="0.0000000000000000e+00" cType="1" res="-8.6562527576461434e-04" rms="4.3316382169723511e-01" purity="4.6107017993927002e-01" nType="-99"/>
          </Node>
        </Node>
      </Node>
    </BinaryTree>
    <BinaryTree type="DecisionTree" boostWeight="1.0000000000000000e+00" itree="356">
      <Node pos="s" depth="0" NCoef="0" IVar="8" Cut="9.3332177400588989e-01" cType="1" res="7.1196258068084717e-03" rms="3.9600205421447754e-01" purity="5.0112342834472656e-01" nType="0">
        <Node pos="l" depth="1" NCoef="0" IVar="7" Cut="1.2001239061355591e+00" cType="1" res="1.7260279506444931e-02" rms="3.9764738082885742e-01" purity="5.3707426786422729e-01" nType="0">
          <Node pos="l" depth="2" NCoef="0" IVar="8" Cut="-1.5555615425109863e+00" cType="1" res="2.5249028578400612e-02" rms="4.0075069665908813e-01" purity="5.6883853673934937e-01" nType="0">
            <Node pos="l" depth="3" NCoef="0" IVar="-1" Cut="0.0000000000000000e+00" cType="1" res="-2.7018277905881405e-03" rms="3.6446219682693481e-01" purity="2.5487443804740906e-01" nType="-99"/>
            <Node pos="r" depth="3" NCoef="0" IVar="-1" Cut="0.0000000000000000e+00" cType="1" res="1.2298353249207139e-03" rms="4.0349209308624268e-01" purity="6.0042232275009155e-01" nType="-99"/>
          </Node>
          <Node pos="r" depth="2" NCoef="0" IVar="9" Cut="6.6671597957611084e-01" cType="1" res="-5.2218742668628693e-02" rms="3.6220493912696838e-01" purity="2.6081699132919312e-01" nType="0">
            <Node pos="l" depth="3" NCoef="0" IVar="-1" Cut="0.0000000000000000e+00" cType="1" res="-1.8657799810171127e-03" rms="3.7759739160537720e-01" purity="2.9649272561073303e-01" nType="-99"/>
            <Node pos="r" depth="3" NCoef="0" IVar="-1" Cut="0.0000000000000000e+00" cType="1" res="-5.5305813439190388e-03" rms="3.2857301831245422e-01" purity="1.9341577589511871e-01" nType="-99"/>
          </Node>
        </Node>
        <Node pos="r" depth="1" NCoef="0" IVar="8" Cut="1.8222131729125977e+00" cType="1" res="-3.7895318120718002e-02" rms="3.8540655374526978e-01" purity="3.4153524041175842e-01" nType="0">
          <Node pos="l" depth="2" NCoef="0" IVar="9" Cut="-6.6627055406570435e-01" cType="1" res="-1.9526075571775436e-02" rms="4.0026879310607910e-01" purity="4.0324464440345764e-01" nType="0">
            <Node pos="l" depth="3" NCoef="0" IVar="-1" Cut="0.0000000000000000e+00" cType="1" res="-3.8633381482213736e-03" rms="3.7568292021751404e-01" purity="3.1682965159416199e-01" nType="-99"/>
            <Node pos="r" depth="3" NCoef="0" IVar="-1" Cut="0.0000000000000000e+00" cType="1" res="-1.7435102199669927e-04" rms="4.0625852346420288e-01" purity="4.2982214689254761e-01" nType="-99"/>
          </Node>
          <Node pos="r" depth="2" NCoef="0" IVar="-1" Cut="0.0000000000000000e+00" cType="1" res="-6.8328226916491985e-03" rms="3.3453989028930664e-01" purity="1.6725988686084747e-01" nType="-99"/>
        </Node>
      </Node>
    </BinaryTree>
    <BinaryTree type="DecisionTree" boostWeight="1.0000000000000000e+00" itree="357">
      <Node pos="s" depth="0" NCoef="0" IVar="6" Cut="9.4157654047012329e-01" cType="1" res="4.4878027401864529e-03" rms="3.9627751708030701e-01" purity="4.9576082825660706e-01" nType="0">
        <Node pos="l" depth="1" NCoef="0" IVar="6" Cut="-1.3589978218078613e+00" cType="1" res="1.3417766429483891e-02" rms="3.9884874224662781e-01" purity="5.3212803602218628e-01" nType="0">
          <Node pos="l" depth="2" NCoef="0" IVar="3" Cut="1.8036654663085938e+02" cType="1" res="-5.5898092687129974e-02" rms="3.4965309500694275e-01" purity="2.2314739227294922e-01" nType="0">
            <Node pos="l" depth="3" NCoef="0" IVar="-1" Cut="0.0000000000000000e+00" cType="1" res="-1.1805862886831164e-03" rms="3.5400092601776123e-01" purity="1.9882348179817200e-01" nType="-99"/>
            <Node pos="r" depth="3" NCoef="0" IVar="-1" Cut="0.0000000000000000e+00" cType="1" res="-5.5171181447803974e-03" rms="3.4246146678924561e-01" purity="2.4431283771991730e-01" nType="-99"/>
          </Node>
          <Node pos="r" depth="2" NCoef="0" IVar="2" Cut="4.9193994140625000e+02" cType="1" res="2.0636484026908875e-02" rms="4.0294253826141357e-01" purity="5.6430596113204956e-01" nType="0">
            <Node pos="l" depth="3" NCoef="0" IVar="-1" Cut="0.0000000000000000e+00" cType="1" res="1.1870692251250148e-03" rms="3.9869832992553711e-01" purity="5.9997427463531494e-01" nType="-99"/>
            <Node pos="r" depth="3" NCoef="0" IVar="-1" Cut="0.0000000000000000e+00" cType="1" res="-5.1624129991978407e-04" rms="4.1718283295631409e-01" purity="4.1729635000228882e-01" nType="-99"/>
          </Node>
        </Node>
        <Node pos="r" depth="1" NCoef="0" IVar="6" Cut="1.2955192327499390e+00" cType="1" res="-4.2298737913370132e-02" rms="3.7910103797912598e-01" purity="3.0522319674491882e-01" nType="0">
          <Node pos="l" depth="2" NCoef="0" IVar="7" Cut="-1.3284346461296082e-01" cType="1" res="-1.1046351864933968e-02" rms="4.1199129819869995e-01" purity="4.0264040231704712e-01" nType="0">
            <Node pos="l" depth="3" NCoef="0" IVar="-1" Cut="0.0000000000000000e+00" cType="1" res="-2.8809050563722849e-03" rms="3.9367038011550903e-01" purity="3.2639864087104797e-01" nType="-99"/>
            <Node pos="r" depth="3" NCoef="0" IVar="-1" Cut="0.0000000000000000e+00" cType="1" res="6.3955230871215463e-04" rms="4.2063587903976440e-01" purity="4.4923353195190430e-01" nType="-99"/>
          </Node>
          <Node pos="r" depth="2" NCoef="0" IVar="0" Cut="1.4678162841796875e+03" cType="1" res="-6.6543005406856537e-02" rms="3.4955328702926636e-01" purity="2.2965106368064880e-01" nType="0">
            <Node pos="l" depth="3" NCoef="0" IVar="-1" Cut="0.0000000000000000e+00" cType="1" res="-5.7066148146986961e-03" rms="3.2478752732276917e-01" purity="1.5143889188766479e-01" nType="-99"/>
            <Node pos="r" depth="3" NCoef="0" IVar="-1" Cut="0.0000000000000000e+00" cType="1" res="-1.4894766500219703e-03" rms="3.9613637328147888e-01" purity="4.0103378891944885e-01" nType="-99"/>
          </Node>
        </Node>
      </Node>
    </BinaryTree>
    <BinaryTree type="DecisionTree" boostWeight="1.0000000000000000e+00" itree="358">
      <Node pos="s" depth="0" NCoef="0" IVar="0" Cut="1.7855158691406250e+03" cType="1" res="7.3047131299972534e-03" rms="3.9547571539878845e-01" purity="5.0223153829574585e-01" nType="0">
        <Node pos="l" depth="1" NCoef="0" IVar="2" Cut="3.5575906372070312e+02" cType="1" res="-5.9612700715661049e-04" rms="3.9526078104972839e-01" purity="4.7218102216720581e-01" nType="0">
          <Node pos="l" depth="2" NCoef="0" IVar="0" Cut="1.3162346191406250e+03" cType="1" res="1.9712435081601143e-02" rms="3.9629215002059937e-01" purity="5.4664063453674316e-01" nType="0">
            <Node pos="l" depth="3" NCoef="0" IVar="-1" Cut="0.0000000000000000e+00" cType="1" res="-2.9041976085864007e-04" rms="4.2133182287216187e-01" purity="3.9945864677429199e-01" nType="-99"/>
            <Node pos="r" depth="3" NCoef="0" IVar="-1" Cut="0.0000000000000000e+00" cType="1" res="2.5860127061605453e-03" rms="3.4379583597183228e-01" purity="8.0103069543838501e-01" nType="-99"/>
          </Node>
          <Node pos="r" depth="2" NCoef="0" IVar="1" Cut="3.5800421142578125e+02" cType="1" res="-3.6827627569437027e-02" rms="3.9080181717872620e-01" purity="3.3934128284454346e-01" nType="0">
            <Node pos="l" depth="3" NCoef="0" IVar="-1" Cut="0.0000000000000000e+00" cType="1" res="-1.5166448429226875e-03" rms="3.5147160291671753e-01" purity="2.1714076399803162e-01" nType="-99"/>
            <Node pos="r" depth="3" NCoef="0" IVar="-1" Cut="0.0000000000000000e+00" cType="1" res="-8.0605840776115656e-04" rms="4.1065236926078796e-01" purity="4.0999239683151245e-01" nType="-99"/>
          </Node>
        </Node>
        <Node pos="r" depth="1" NCoef="0" IVar="2" Cut="7.1810406494140625e+02" cType="1" res="4.9238819628953934e-02" rms="3.9397135376930237e-01" purity="6.6172611713409424e-01" nType="0">
          <Node pos="l" depth="2" NCoef="0" IVar="3" Cut="3.4194714355468750e+02" cType="1" res="8.1803299486637115e-02" rms="3.7250909209251404e-01" purity="7.3446762561798096e-01" nType="0">
            <Node pos="l" depth="3" NCoef="0" IVar="-1" Cut="0.0000000000000000e+00" cType="1" res="4.1709956713020802e-03" rms="3.4271028637886047e-01" purity="8.0440801382064819e-01" nType="-99"/>
            <Node pos="r" depth="3" NCoef="0" IVar="-1" Cut="0.0000000000000000e+00" cType="1" res="4.9562839558348060e-04" rms="4.2112454771995544e-01" purity="5.8473199605941772e-01" nType="-99"/>
          </Node>
          <Node pos="r" depth="2" NCoef="0" IVar="-1" Cut="0.0000000000000000e+00" cType="1" res="-1.7278485465794802e-03" rms="4.3548044562339783e-01" purity="4.6071863174438477e-01" nType="-99"/>
        </Node>
      </Node>
    </BinaryTree>
    <BinaryTree type="DecisionTree" boostWeight="1.0000000000000000e+00" itree="359">
      <Node pos="s" depth="0" NCoef="0" IVar="8" Cut="-9.3333524465560913e-01" cType="1" res="8.5969101637601852e-03" rms="3.9614352583885193e-01" purity="5.0208353996276855e-01" nType="0">
        <Node pos="l" depth="1" NCoef="0" IVar="3" Cut="2.1226026916503906e+02" cType="1" res="-3.0672486871480942e-02" rms="3.8201719522476196e-01" purity="3.5918390750885010e-01" nType="0">
          <Node pos="l" depth="2" NCoef="0" IVar="0" Cut="1.3949639892578125e+03" cType="1" res="-9.7220530733466148e-03" rms="3.7909993529319763e-01" purity="3.5027298331260681e-01" nType="0">
            <Node pos="l" depth="3" NCoef="0" IVar="-1" Cut="0.0000000000000000e+00" cType="1" res="-1.3392762048169971e-03" rms="3.7723642587661743e-01" purity="2.8674316406250000e-01" nType="-99"/>
            <Node pos="r" depth="3" NCoef="0" IVar="-1" Cut="0.0000000000000000e+00" cType="1" res="2.1558594889938831e-03" rms="3.7945750355720520e-01" purity="5.6791013479232788e-01" nType="-99"/>
          </Node>
          <Node pos="r" depth="2" NCoef="0" IVar="7" Cut="1.3270895183086395e-01" cType="1" res="-6.4606010913848877e-02" rms="3.8427996635437012e-01" purity="3.7361696362495422e-01" nType="0">
            <Node pos="l" depth="3" NCoef="0" IVar="-1" Cut="0.0000000000000000e+00" cType="1" res="-2.3062736727297306e-03" rms="3.9188864827156067e-01" purity="4.1005334258079529e-01" nType="-99"/>
            <Node pos="r" depth="3" NCoef="0" IVar="-1" Cut="0.0000000000000000e+00" cType="1" res="-5.5438736453652382e-03" rms="3.6997154355049133e-01" purity="3.1675970554351807e-01" nType="-99"/>
          </Node>
        </Node>
        <Node pos="r" depth="1" NCoef="0" IVar="8" Cut="6.6666847467422485e-01" cType="1" res="1.7878910526633263e-02" rms="3.9884498715400696e-01" purity="5.3586041927337646e-01" nType="0">
          <Node pos="l" depth="2" NCoef="0" IVar="0" Cut="1.1200750732421875e+03" cType="1" res="3.2630115747451782e-02" rms="4.0075549483299255e-01" purity="5.9428477287292480e-01" nType="0">
            <Node pos="l" depth="3" NCoef="0" IVar="-1" Cut="0.0000000000000000e+00" cType="1" res="-6.8432645639404655e-04" rms="4.3434157967567444e-01" purity="3.2005587220191956e-01" nType="-99"/>
            <Node pos="r" depth="3" NCoef="0" IVar="-1" Cut="0.0000000000000000e+00" cType="1" res="1.6195538919419050e-03" rms="3.9317604899406433e-01" purity="6.4746546745300293e-01" nType="-99"/>
          </Node>
          <Node pos="r" depth="2" NCoef="0" IVar="9" Cut="-1.1996606588363647e+00" cType="1" res="-1.2614074163138866e-02" rms="3.9311555027961731e-01" purity="4.1508814692497253e-01" nType="0">
            <Node pos="l" depth="3" NCoef="0" IVar="-1" Cut="0.0000000000000000e+00" cType="1" res="-5.7440740056335926e-03" rms="3.5488697886466980e-01" purity="2.2711369395256042e-01" nType="-99"/>
            <Node pos="r" depth="3" NCoef="0" IVar="-1" Cut="0.0000000000000000e+00" cType="1" res="-1.0284606833010912e-04" rms="3.9691865444183350e-01" purity="4.4063374400138855e-01" nType="-99"/>
          </Node>
        </Node>
      </Node>
    </BinaryTree>
    <BinaryTree type="DecisionTree" boostWeight="1.0000000000000000e+00" itree="360">
      <Node pos="s" depth="0" NCoef="0" IVar="0" Cut="1.5807512207031250e+03" cType="1" res="5.8527407236397266e-03" rms="3.9598822593688965e-01" purity="5.0072318315505981e-01" nType="0">
        <Node pos="l" depth="1" NCoef="0" IVar="3" Cut="2.5027009582519531e+02" cType="1" res="-8.7377745658159256e-03" rms="3.9967072010040283e-01" purity="4.3698567152023315e-01" nType="0">
          <Node pos="l" depth="2" NCoef="0" IVar="0" Cut="1.3577261962890625e+03" cType="1" res="8.6231966270133853e-04" rms="3.9925777912139893e-01" purity="4.4789588451385498e-01" nType="0">
            <Node pos="l" depth="3" NCoef="0" IVar="-1" Cut="0.0000000000000000e+00" cType="1" res="-6.4686150290071964e-04" rms="4.0820363163948059e-01" purity="3.7301847338676453e-01" nType="-99"/>
            <Node pos="r" depth="3" NCoef="0" IVar="-1" Cut="0.0000000000000000e+00" cType="1" res="1.7831979785114527e-03" rms="3.7149107456207275e-01" purity="6.4353322982788086e-01" nType="-99"/>
          </Node>
          <Node pos="r" depth="2" NCoef="0" IVar="3" Cut="2.7533035278320312e+02" cType="1" res="-8.2381337881088257e-02" rms="3.9514198899269104e-01" purity="3.5329222679138184e-01" nType="0">
            <Node pos="l" depth="3" NCoef="0" IVar="-1" Cut="0.0000000000000000e+00" cType="1" res="-2.6509098242968321e-03" rms="4.0427654981613159e-01" purity="4.3302276730537415e-01" nType="-99"/>
            <Node pos="r" depth="3" NCoef="0" IVar="-1" Cut="0.0000000000000000e+00" cType="1" res="-6.6542304120957851e-03" rms="3.8603851199150085e-01" purity="2.9196977615356445e-01" nType="-99"/>
          </Node>
        </Node>
        <Node pos="r" depth="1" NCoef="0" IVar="2" Cut="6.0636901855468750e+02" cType="1" res="4.0609788149595261e-02" rms="3.8485285639762878e-01" purity="6.5255665779113770e-01" nType="0">
          <Node pos="l" depth="2" NCoef="0" IVar="3" Cut="3.1856326293945312e+02" cType="1" res="6.3890144228935242e-02" rms="3.6519584059715271e-01" purity="7.3800164461135864e-01" nType="0">
            <Node pos="l" depth="3" NCoef="0" IVar="-1" Cut="0.0000000000000000e+00" cType="1" res="3.2702032476663589e-03" rms="3.4028315544128418e-01" purity="7.9544383287429810e-01" nType="-99"/>
            <Node pos="r" depth="3" NCoef="0" IVar="-1" Cut="0.0000000000000000e+00" cType="1" res="5.0576968351379037e-04" rms="4.2100855708122253e-01" purity="5.8291167020797729e-01" nType="-99"/>
          </Node>
          <Node pos="r" depth="2" NCoef="0" IVar="1" Cut="6.3038592529296875e+02" cType="1" res="-1.7564155161380768e-02" rms="4.2451786994934082e-01" purity="4.3904334306716919e-01" nType="0">
            <Node pos="l" depth="3" NCoef="0" IVar="-1" Cut="0.0000000000000000e+00" cType="1" res="-3.3847070299088955e-03" rms="4.0993049740791321e-01" purity="3.1279256939888000e-01" nType="-99"/>
            <Node pos="r" depth="3" NCoef="0" IVar="-1" Cut="0.0000000000000000e+00" cType="1" res="1.3669291511178017e-03" rms="4.3993481993675232e-01" purity="6.3972437381744385e-01" nType="-99"/>
          </Node>
        </Node>
      </Node>
    </BinaryTree>
    <BinaryTree type="DecisionTree" boostWeight="1.0000000000000000e+00" itree="361">
      <Node pos="s" depth="0" NCoef="0" IVar="2" Cut="6.1755541992187500e+02" cType="1" res="5.3844135254621506e-03" rms="3.9651453495025635e-01" purity="4.9694928526878357e-01" nType="0">
        <Node pos="l" depth="1" NCoef="0" IVar="0" Cut="1.7182142333984375e+03" cType="1" res="1.1471162550151348e-02" rms="3.9521744847297668e-01" purity="5.0928378105163574e-01" nType="0">
          <Node pos="l" depth="2" NCoef="0" IVar="3" Cut="2.8035543823242188e+02" cType="1" res="-4.4959425576962531e-04" rms="3.9930441975593567e-01" purity="4.6718433499336243e-01" nType="0">
            <Node pos="l" depth="3" NCoef="0" IVar="-1" Cut="0.0000000000000000e+00" cType="1" res="2.7999412850476801e-04" rms="3.9880907535552979e-01" purity="4.7676736116409302e-01" nType="-99"/>
            <Node pos="r" depth="3" NCoef="0" IVar="-1" Cut="0.0000000000000000e+00" cType="1" res="-4.3384968303143978e-03" rms="3.9558568596839905e-01" purity="3.6142259836196899e-01" nType="-99"/>
          </Node>
          <Node pos="r" depth="2" NCoef="0" IVar="3" Cut="3.3613986206054688e+02" cType="1" res="8.3810068666934967e-02" rms="3.6110475659370422e-01" purity="7.6475656032562256e-01" nType="0">
            <Node pos="l" depth="3" NCoef="0" IVar="-1" Cut="0.0000000000000000e+00" cType="1" res="4.1751423850655556e-03" rms="3.2948240637779236e-01" purity="8.3214879035949707e-01" nType="-99"/>
            <Node pos="r" depth="3" NCoef="0" IVar="-1" Cut="0.0000000000000000e+00" cType="1" res="3.2642859150655568e-04" rms="4.2143052816390991e-01" purity="5.9431850910186768e-01" nType="-99"/>
          </Node>
        </Node>
        <Node pos="r" depth="1" NCoef="0" IVar="1" Cut="6.0599224853515625e+02" cType="1" res="-5.9422332793474197e-02" rms="4.0442979335784912e-01" purity="3.6562150716781616e-01" nType="0">
          <Node pos="l" depth="2" NCoef="0" IVar="2" Cut="7.0305798339843750e+02" cType="1" res="-1.0003565251827240e-01" rms="3.6918812990188599e-01" purity="2.2293998301029205e-01" nType="0">
            <Node pos="l" depth="3" NCoef="0" IVar="-1" Cut="0.0000000000000000e+00" cType="1" res="-3.9113252423703671e-03" rms="3.7084916234016418e-01" purity="2.5025057792663574e-01" nType="-99"/>
            <Node pos="r" depth="3" NCoef="0" IVar="-1" Cut="0.0000000000000000e+00" cType="1" res="-1.2847429141402245e-02" rms="3.6128282546997070e-01" purity="1.9565689563751221e-01" nType="-99"/>
          </Node>
          <Node pos="r" depth="2" NCoef="0" IVar="-1" Cut="0.0000000000000000e+00" cType="1" res="2.0913137996103615e-04" rms="4.4788184762001038e-01" purity="5.9584099054336548e-01" nType="-99"/>
        </Node>
      </Node>
    </BinaryTree>
    <BinaryTree type="DecisionTree" boostWeight="1.0000000000000000e+00" itree="362">
      <Node pos="s" depth="0" NCoef="0" IVar="0" Cut="1.5806253662109375e+03" cType="1" res="7.2203576564788818e-03" rms="3.9486694335937500e-01" purity="5.0079131126403809e-01" nType="0">
        <Node pos="l" depth="1" NCoef="0" IVar="2" Cut="2.6484509277343750e+02" cType="1" res="-5.7264496572315693e-03" rms="3.9900401234626770e-01" purity="4.3860042095184326e-01" nType="0">
          <Node pos="l" depth="2" NCoef="0" IVar="0" Cut="1.0601936035156250e+03" cType="1" res="3.1642097979784012e-02" rms="4.0432721376419067e-01" purity="5.5022174119949341e-01" nType="0">
            <Node pos="l" depth="3" NCoef="0" IVar="-1" Cut="0.0000000000000000e+00" cType="1" res="-1.1149052297696471e-03" rms="4.1481718420982361e-01" purity="2.8269466757774353e-01" nType="-99"/>
            <Node pos="r" depth="3" NCoef="0" IVar="-1" Cut="0.0000000000000000e+00" cType="1" res="2.1320453379303217e-03" rms="3.9569523930549622e-01" purity="6.8292129039764404e-01" nType="-99"/>
          </Node>
          <Node pos="r" depth="2" NCoef="0" IVar="0" Cut="1.3596065673828125e+03" cType="1" res="-2.5334421545267105e-02" rms="3.9476972818374634e-01" purity="3.8003063201904297e-01" nType="0">
            <Node pos="l" depth="3" NCoef="0" IVar="-1" Cut="0.0000000000000000e+00" cType="1" res="-2.0465054549276829e-03" rms="3.9144003391265869e-01" purity="2.8468894958496094e-01" nType="-99"/>
            <Node pos="r" depth="3" NCoef="0" IVar="-1" Cut="0.0000000000000000e+00" cType="1" res="5.9386984503362328e-05" rms="3.9811927080154419e-01" purity="5.2028125524520874e-01" nType="-99"/>
          </Node>
        </Node>
        <Node pos="r" depth="1" NCoef="0" IVar="2" Cut="4.0318692016601562e+02" cType="1" res="3.8063894957304001e-02" rms="3.8307312130928040e-01" purity="6.4895039796829224e-01" nType="0">
          <Node pos="l" depth="2" NCoef="0" IVar="4" Cut="2.1696861267089844e+02" cType="1" res="9.6579685807228088e-02" rms="2.9357442259788513e-01" purity="8.7470889091491699e-01" nType="0">
            <Node pos="l" depth="3" NCoef="0" IVar="-1" Cut="0.0000000000000000e+00" cType="1" res="4.4531300663948059e-03" rms="2.6765194535255432e-01" purity="9.0576469898223877e-01" nType="-99"/>
            <Node pos="r" depth="3" NCoef="0" IVar="-1" Cut="0.0000000000000000e+00" cType="1" res="2.4467280600219965e-03" rms="3.4115588665008545e-01" purity="8.0622261762619019e-01" nType="-99"/>
          </Node>
          <Node pos="r" depth="2" NCoef="0" IVar="0" Cut="1.9337608642578125e+03" cType="1" res="6.6886353306472301e-03" rms="4.1999465227127075e-01" purity="5.2790212631225586e-01" nType="0">
            <Node pos="l" depth="3" NCoef="0" IVar="-1" Cut="0.0000000000000000e+00" cType="1" res="-4.4591369805857539e-04" rms="4.1476997733116150e-01" purity="4.4979947805404663e-01" nType="-99"/>
            <Node pos="r" depth="3" NCoef="0" IVar="-1" Cut="0.0000000000000000e+00" cType="1" res="1.5962061006575823e-03" rms="4.2339470982551575e-01" purity="6.2408971786499023e-01" nType="-99"/>
          </Node>
        </Node>
      </Node>
    </BinaryTree>
    <BinaryTree type="DecisionTree" boostWeight="1.0000000000000000e+00" itree="363">
      <Node pos="s" depth="0" NCoef="0" IVar="2" Cut="3.5404632568359375e+02" cType="1" res="6.2909116968512535e-03" rms="3.9284965395927429e-01" purity="5.0016856193542480e-01" nType="0">
        <Node pos="l" depth="1" NCoef="0" IVar="0" Cut="1.1217629394531250e+03" cType="1" res="2.4453043937683105e-02" rms="3.8923022150993347e-01" purity="5.6302642822265625e-01" nType="0">
          <Node pos="l" depth="2" NCoef="0" IVar="3" Cut="1.6137446594238281e+02" cType="1" res="-3.1319938600063324e-02" rms="4.0327861905097961e-01" purity="2.6940125226974487e-01" nType="0">
            <Node pos="l" depth="3" NCoef="0" IVar="-1" Cut="0.0000000000000000e+00" cType="1" res="-5.7096179807558656e-04" rms="4.0654674172401428e-01" purity="2.7937042713165283e-01" nType="-99"/>
            <Node pos="r" depth="3" NCoef="0" IVar="-1" Cut="0.0000000000000000e+00" cType="1" res="-3.0076757539063692e-03" rms="3.9333122968673706e-01" purity="2.4810241162776947e-01" nType="-99"/>
          </Node>
          <Node pos="r" depth="2" NCoef="0" IVar="3" Cut="2.0241275024414062e+02" cType="1" res="4.9623042345046997e-02" rms="3.8005048036575317e-01" purity="6.9553756713867188e-01" nType="0">
            <Node pos="l" depth="3" NCoef="0" IVar="-1" Cut="0.0000000000000000e+00" cType="1" res="2.9432375449687243e-03" rms="3.8045176863670349e-01" purity="7.1801096200942993e-01" nType="-99"/>
            <Node pos="r" depth="3" NCoef="0" IVar="-1" Cut="0.0000000000000000e+00" cType="1" res="5.0728011410683393e-04" rms="3.7593156099319458e-01" purity="6.7370986938476562e-01" nType="-99"/>
          </Node>
        </Node>
        <Node pos="r" depth="1" NCoef="0" IVar="0" Cut="1.5564924316406250e+03" cType="1" res="-1.6270749270915985e-02" rms="3.9614191651344299e-01" purity="4.2208427190780640e-01" nType="0">
          <Node pos="l" depth="2" NCoef="0" IVar="1" Cut="3.4531607055664062e+02" cType="1" res="-5.0606027245521545e-02" rms="3.7646117806434631e-01" purity="2.5980111956596375e-01" nType="0">
            <Node pos="l" depth="3" NCoef="0" IVar="-1" Cut="0.0000000000000000e+00" cType="1" res="-6.4190016128122807e-03" rms="3.2131707668304443e-01" purity="1.5414644777774811e-01" nType="-99"/>
            <Node pos="r" depth="3" NCoef="0" IVar="-1" Cut="0.0000000000000000e+00" cType="1" res="-1.4169042697176337e-03" rms="4.0167242288589478e-01" purity="3.1712609529495239e-01" nType="-99"/>
          </Node>
          <Node pos="r" depth="2" NCoef="0" IVar="2" Cut="6.4747363281250000e+02" cType="1" res="1.3568155467510223e-02" rms="4.1015574336051941e-01" purity="5.6311571598052979e-01" nType="0">
            <Node pos="l" depth="3" NCoef="0" IVar="-1" Cut="0.0000000000000000e+00" cType="1" res="1.6676731174811721e-03" rms="4.0497431159019470e-01" purity="6.3274395465850830e-01" nType="-99"/>
            <Node pos="r" depth="3" NCoef="0" IVar="-1" Cut="0.0000000000000000e+00" cType="1" res="-8.1463478272780776e-04" rms="4.1421282291412354e-01" purity="3.9507994055747986e-01" nType="-99"/>
          </Node>
        </Node>
      </Node>
    </BinaryTree>
    <BinaryTree type="DecisionTree" boostWeight="1.0000000000000000e+00" itree="364">
      <Node pos="s" depth="0" NCoef="0" IVar="7" Cut="-6.6661459207534790e-01" cType="1" res="6.6839684732258320e-03" rms="3.9684092998504639e-01" purity="4.9870514869689941e-01" nType="0">
        <Node pos="l" depth="1" NCoef="0" IVar="6" Cut="1.5499997138977051e-01" cType="1" res="-3.5777553915977478e-02" rms="3.7892773747444153e-01" purity="3.6794397234916687e-01" nType="0">
          <Node pos="l" depth="2" NCoef="0" IVar="0" Cut="1.3096649169921875e+03" cType="1" res="-1.7151789739727974e-02" rms="3.8427579402923584e-01" purity="4.0613189339637756e-01" nType="0">
            <Node pos="l" depth="3" NCoef="0" IVar="-1" Cut="0.0000000000000000e+00" cType="1" res="-2.3829678539186716e-03" rms="3.7305974960327148e-01" purity="2.5016301870346069e-01" nType="-99"/>
            <Node pos="r" depth="3" NCoef="0" IVar="-1" Cut="0.0000000000000000e+00" cType="1" res="5.6129158474504948e-04" rms="3.9151471853256226e-01" purity="5.4436570405960083e-01" nType="-99"/>
          </Node>
          <Node pos="r" depth="2" NCoef="0" IVar="3" Cut="1.9582757568359375e+02" cType="1" res="-6.4533166587352753e-02" rms="3.6867630481719971e-01" purity="3.0898705124855042e-01" nType="0">
            <Node pos="l" depth="3" NCoef="0" IVar="-1" Cut="0.0000000000000000e+00" cType="1" res="-2.1733620669692755e-03" rms="3.6640670895576477e-01" purity="2.7236235141754150e-01" nType="-99"/>
            <Node pos="r" depth="3" NCoef="0" IVar="-1" Cut="0.0000000000000000e+00" cType="1" res="-4.7411876730620861e-03" rms="3.6974549293518066e-01" purity="3.4567067027091980e-01" nType="-99"/>
          </Node>
        </Node>
        <Node pos="r" depth="1" NCoef="0" IVar="7" Cut="8.1900548934936523e-01" cType="1" res="2.0815676078200340e-02" rms="4.0163153409957886e-01" purity="5.4222410917282104e-01" nType="0">
          <Node pos="l" depth="2" NCoef="0" IVar="2" Cut="4.8049917602539062e+02" cType="1" res="3.4820802509784698e-02" rms="4.0594589710235596e-01" purity="6.1166638135910034e-01" nType="0">
            <Node pos="l" depth="3" NCoef="0" IVar="-1" Cut="0.0000000000000000e+00" cType="1" res="1.6095760511234403e-03" rms="3.9943614602088928e-01" purity="6.4429807662963867e-01" nType="-99"/>
            <Node pos="r" depth="3" NCoef="0" IVar="-1" Cut="0.0000000000000000e+00" cType="1" res="-1.6248584142886102e-04" rms="4.2846098542213440e-01" purity="4.8308160901069641e-01" nType="-99"/>
          </Node>
          <Node pos="r" depth="2" NCoef="0" IVar="0" Cut="1.3230841064453125e+03" cType="1" res="-1.7660308629274368e-02" rms="3.8693228363990784e-01" purity="3.5144668817520142e-01" nType="0">
            <Node pos="l" depth="3" NCoef="0" IVar="-1" Cut="0.0000000000000000e+00" cType="1" res="-2.5142855010926723e-03" rms="3.6852723360061646e-01" purity="2.2347854077816010e-01" nType="-99"/>
            <Node pos="r" depth="3" NCoef="0" IVar="-1" Cut="0.0000000000000000e+00" cType="1" res="3.4398891148157418e-04" rms="4.0201848745346069e-01" purity="4.7305279970169067e-01" nType="-99"/>
          </Node>
        </Node>
      </Node>
    </BinaryTree>
    <BinaryTree type="DecisionTree" boostWeight="1.0000000000000000e+00" itree="365">
      <Node pos="s" depth="0" NCoef="0" IVar="0" Cut="1.1903264160156250e+03" cType="1" res="7.1403514593839645e-03" rms="3.9461010694503784e-01" purity="5.0035184621810913e-01" nType="0">
        <Node pos="l" depth="1" NCoef="0" IVar="2" Cut="2.5598806762695312e+02" cType="1" res="-3.1327791512012482e-02" rms="3.9913585782051086e-01" purity="2.8460082411766052e-01" nType="0">
          <Node pos="l" depth="2" NCoef="0" IVar="3" Cut="1.4910098266601562e+02" cType="1" res="-4.3664192780852318e-03" rms="4.2994001507759094e-01" purity="3.8351914286613464e-01" nType="0">
            <Node pos="l" depth="3" NCoef="0" IVar="-1" Cut="0.0000000000000000e+00" cType="1" res="1.3884063810110092e-03" rms="4.2562344670295715e-01" purity="3.9312243461608887e-01" nType="-99"/>
            <Node pos="r" depth="3" NCoef="0" IVar="-1" Cut="0.0000000000000000e+00" cType="1" res="-1.3548635179176927e-03" rms="4.3083125352859497e-01" purity="3.7557512521743774e-01" nType="-99"/>
          </Node>
          <Node pos="r" depth="2" NCoef="0" IVar="5" Cut="7.8723793029785156e+01" cType="1" res="-5.3363893181085587e-02" rms="3.7061595916748047e-01" purity="2.0375278592109680e-01" nType="0">
            <Node pos="l" depth="3" NCoef="0" IVar="-1" Cut="0.0000000000000000e+00" cType="1" res="-1.3991557061672211e-03" rms="3.6436823010444641e-01" purity="1.8924430012702942e-01" nType="-99"/>
            <Node pos="r" depth="3" NCoef="0" IVar="-1" Cut="0.0000000000000000e+00" cType="1" res="-3.8717302959412336e-03" rms="3.7611183524131775e-01" purity="2.2596949338912964e-01" nType="-99"/>
          </Node>
        </Node>
        <Node pos="r" depth="1" NCoef="0" IVar="3" Cut="2.4646963500976562e+02" cType="1" res="2.1587789058685303e-02" rms="3.9192283153533936e-01" purity="5.8138126134872437e-01" nType="0">
          <Node pos="l" depth="2" NCoef="0" IVar="2" Cut="4.5780004882812500e+02" cType="1" res="4.0311958640813828e-02" rms="3.8628044724464417e-01" purity="6.1060678958892822e-01" nType="0">
            <Node pos="l" depth="3" NCoef="0" IVar="-1" Cut="0.0000000000000000e+00" cType="1" res="2.0895123016089201e-03" rms="3.7746807932853699e-01" purity="6.9425368309020996e-01" nType="-99"/>
            <Node pos="r" depth="3" NCoef="0" IVar="-1" Cut="0.0000000000000000e+00" cType="1" res="-4.5092412619851530e-04" rms="4.0689700841903687e-01" purity="3.6647069454193115e-01" nType="-99"/>
          </Node>
          <Node pos="r" depth="2" NCoef="0" IVar="0" Cut="1.5622138671875000e+03" cType="1" res="-1.0593992657959461e-02" rms="3.9938959479331970e-01" purity="5.3115040063858032e-01" nType="0">
            <Node pos="l" depth="3" NCoef="0" IVar="-1" Cut="0.0000000000000000e+00" cType="1" res="-3.3609005622565746e-03" rms="3.9871892333030701e-01" purity="3.8179889321327209e-01" nType="-99"/>
            <Node pos="r" depth="3" NCoef="0" IVar="-1" Cut="0.0000000000000000e+00" cType="1" res="5.3287338232621551e-04" rms="3.9751538634300232e-01" purity="5.9736812114715576e-01" nType="-99"/>
          </Node>
        </Node>
      </Node>
    </BinaryTree>
    <BinaryTree type="DecisionTree" boostWeight="1.0000000000000000e+00" itree="366">
      <Node pos="s" depth="0" NCoef="0" IVar="2" Cut="3.4279647827148438e+02" cType="1" res="8.6577506735920906e-03" rms="3.9486101269721985e-01" purity="5.0148451328277588e-01" nType="0">
        <Node pos="l" depth="1" NCoef="0" IVar="0" Cut="1.3786857910156250e+03" cType="1" res="2.8768030926585197e-02" rms="3.8910955190658569e-01" purity="5.6759923696517944e-01" nType="0">
          <Node pos="l" depth="2" NCoef="0" IVar="5" Cut="1.1474490356445312e+02" cType="1" res="8.5607934743165970e-03" rms="4.1618010401725769e-01" purity="4.4786098599433899e-01" nType="0">
            <Node pos="l" depth="3" NCoef="0" IVar="-1" Cut="0.0000000000000000e+00" cType="1" res="8.4936898201704025e-04" rms="4.1472536325454712e-01" purity="4.1940569877624512e-01" nType="-99"/>
            <Node pos="r" depth="3" NCoef="0" IVar="-1" Cut="0.0000000000000000e+00" cType="1" res="-1.9328625639900565e-03" rms="4.1676327586174011e-01" purity="5.7186818122863770e-01" nType="-99"/>
          </Node>
          <Node pos="r" depth="2" NCoef="0" IVar="4" Cut="1.9089184570312500e+02" cType="1" res="7.6661959290504456e-02" rms="3.1060659885406494e-01" purity="8.5139530897140503e-01" nType="0">
            <Node pos="l" depth="3" NCoef="0" IVar="-1" Cut="0.0000000000000000e+00" cType="1" res="3.7983185611665249e-03" rms="2.9260569810867310e-01" purity="8.7575536966323853e-01" nType="-99"/>
            <Node pos="r" depth="3" NCoef="0" IVar="-1" Cut="0.0000000000000000e+00" cType="1" res="1.5487491618841887e-03" rms="3.3835616707801819e-01" purity="8.0537086725234985e-01" nType="-99"/>
          </Node>
        </Node>
        <Node pos="r" depth="1" NCoef="0" IVar="0" Cut="1.7859438476562500e+03" cType="1" res="-1.4058397151529789e-02" rms="4.0004450082778931e-01" purity="4.2680266499519348e-01" nType="0">
          <Node pos="l" depth="2" NCoef="0" IVar="1" Cut="3.9193634033203125e+02" cType="1" res="-3.2639056444168091e-02" rms="3.9261713624000549e-01" purity="3.5111632943153381e-01" nType="0">
            <Node pos="l" depth="3" NCoef="0" IVar="-1" Cut="0.0000000000000000e+00" cType="1" res="-3.1689135357737541e-03" rms="3.6512997746467590e-01" purity="2.4627393484115601e-01" nType="-99"/>
            <Node pos="r" depth="3" NCoef="0" IVar="-1" Cut="0.0000000000000000e+00" cType="1" res="-4.5621162280440331e-04" rms="4.1929492354393005e-01" purity="4.6478614211082458e-01" nType="-99"/>
          </Node>
          <Node pos="r" depth="2" NCoef="0" IVar="2" Cut="7.5078686523437500e+02" cType="1" res="3.1616769731044769e-02" rms="4.1421389579772949e-01" purity="6.1285561323165894e-01" nType="0">
            <Node pos="l" depth="3" NCoef="0" IVar="-1" Cut="0.0000000000000000e+00" cType="1" res="2.3523285053670406e-03" rms="4.0478757023811340e-01" purity="6.6964507102966309e-01" nType="-99"/>
            <Node pos="r" depth="3" NCoef="0" IVar="-1" Cut="0.0000000000000000e+00" cType="1" res="-2.5963736698031425e-03" rms="4.2815712094306946e-01" purity="4.5057854056358337e-01" nType="-99"/>
          </Node>
        </Node>
      </Node>
    </BinaryTree>
    <BinaryTree type="DecisionTree" boostWeight="1.0000000000000000e+00" itree="367">
      <Node pos="s" depth="0" NCoef="0" IVar="9" Cut="-1.1998306512832642e+00" cType="1" res="8.7898196652531624e-03" rms="3.9754652976989746e-01" purity="5.0120419263839722e-01" nType="0">
        <Node pos="l" depth="1" NCoef="0" IVar="2" Cut="3.3630014038085938e+02" cType="1" res="-3.6790035665035248e-02" rms="3.8067838549613953e-01" purity="3.4725835919380188e-01" nType="0">
          <Node pos="l" depth="2" NCoef="0" IVar="-1" Cut="0.0000000000000000e+00" cType="1" res="-5.2432721713557839e-04" rms="3.9393851161003113e-01" purity="4.2567124962806702e-01" nType="-99"/>
          <Node pos="r" depth="2" NCoef="0" IVar="6" Cut="1.5471336245536804e-01" cType="1" res="-6.3025750219821930e-02" rms="3.6443594098091125e-01" purity="2.6513993740081787e-01" nType="0">
            <Node pos="l" depth="3" NCoef="0" IVar="-1" Cut="0.0000000000000000e+00" cType="1" res="-2.3744052741676569e-03" rms="3.8270610570907593e-01" purity="2.9630148410797119e-01" nType="-99"/>
            <Node pos="r" depth="3" NCoef="0" IVar="-1" Cut="0.0000000000000000e+00" cType="1" res="-7.2347368113696575e-03" rms="3.3286753296852112e-01" purity="2.1896460652351379e-01" nType="-99"/>
          </Node>
        </Node>
        <Node pos="r" depth="1" NCoef="0" IVar="3" Cut="2.9938806152343750e+02" cType="1" res="1.6283586621284485e-02" rms="3.9975461363792419e-01" purity="5.2651435136795044e-01" nType="0">
          <Node pos="l" depth="2" NCoef="0" IVar="0" Cut="1.5194329833984375e+03" cType="1" res="2.3489467799663544e-02" rms="3.9650526642799377e-01" purity="5.3227949142456055e-01" nType="0">
            <Node pos="l" depth="3" NCoef="0" IVar="-1" Cut="0.0000000000000000e+00" cType="1" res="3.2441175426356494e-04" rms="4.0872395038604736e-01" purity="4.5693302154541016e-01" nType="-99"/>
            <Node pos="r" depth="3" NCoef="0" IVar="-1" Cut="0.0000000000000000e+00" cType="1" res="2.5403546169400215e-03" rms="3.6030700802803040e-01" purity="7.2551989555358887e-01" nType="-99"/>
          </Node>
          <Node pos="r" depth="2" NCoef="0" IVar="0" Cut="1.8660625000000000e+03" cType="1" res="-3.1103566288948059e-02" rms="4.1741037368774414e-01" purity="4.8860180377960205e-01" nType="0">
            <Node pos="l" depth="3" NCoef="0" IVar="-1" Cut="0.0000000000000000e+00" cType="1" res="-3.2981305848807096e-03" rms="4.0506139397621155e-01" purity="3.9031815528869629e-01" nType="-99"/>
            <Node pos="r" depth="3" NCoef="0" IVar="-1" Cut="0.0000000000000000e+00" cType="1" res="1.0933041630778462e-04" rms="4.2739260196685791e-01" purity="5.9171038866043091e-01" nType="-99"/>
          </Node>
        </Node>
      </Node>
    </BinaryTree>
    <BinaryTree type="DecisionTree" boostWeight="1.0000000000000000e+00" itree="368">
      <Node pos="s" depth="0" NCoef="0" IVar="6" Cut="-6.5973436832427979e-01" cType="1" res="4.6313069760799408e-03" rms="3.9518621563911438e-01" purity="4.9534973502159119e-01" nType="0">
        <Node pos="l" depth="1" NCoef="0" IVar="6" Cut="-1.6734917163848877e+00" cType="1" res="-3.3036425709724426e-02" rms="3.8256686925888062e-01" purity="3.6771070957183838e-01" nType="0">
          <Node pos="l" depth="2" NCoef="0" IVar="-1" Cut="0.0000000000000000e+00" cType="1" res="-5.3130639716982841e-03" rms="3.2464307546615601e-01" purity="1.8906158208847046e-01" nType="-99"/>
          <Node pos="r" depth="2" NCoef="0" IVar="9" Cut="9.3336659669876099e-01" cType="1" res="-2.1743776276707649e-02" rms="3.9367687702178955e-01" purity="4.0832367539405823e-01" nType="0">
            <Node pos="l" depth="3" NCoef="0" IVar="-1" Cut="0.0000000000000000e+00" cType="1" res="-4.6419486170634627e-04" rms="3.9911973476409912e-01" purity="4.3999019265174866e-01" nType="-99"/>
            <Node pos="r" depth="3" NCoef="0" IVar="-1" Cut="0.0000000000000000e+00" cType="1" res="-3.8471831940114498e-03" rms="3.6475953459739685e-01" purity="2.6921018958091736e-01" nType="-99"/>
          </Node>
        </Node>
        <Node pos="r" depth="1" NCoef="0" IVar="6" Cut="4.9341127276420593e-01" cType="1" res="1.6605567187070847e-02" rms="3.9836883544921875e-01" purity="5.3592514991760254e-01" nType="0">
          <Node pos="l" depth="2" NCoef="0" IVar="0" Cut="1.1187995605468750e+03" cType="1" res="3.4887909889221191e-02" rms="3.9973747730255127e-01" purity="6.1266207695007324e-01" nType="0">
            <Node pos="l" depth="3" NCoef="0" IVar="-1" Cut="0.0000000000000000e+00" cType="1" res="-7.6901656575500965e-04" rms="4.3896314501762390e-01" purity="3.4950613975524902e-01" nType="-99"/>
            <Node pos="r" depth="3" NCoef="0" IVar="-1" Cut="0.0000000000000000e+00" cType="1" res="1.7750966362655163e-03" rms="3.9071211218833923e-01" purity="6.6382116079330444e-01" nType="-99"/>
          </Node>
          <Node pos="r" depth="2" NCoef="0" IVar="6" Cut="1.9211039543151855e+00" cType="1" res="-1.1289604008197784e-02" rms="3.9464282989501953e-01" purity="4.1883999109268188e-01" nType="0">
            <Node pos="l" depth="3" NCoef="0" IVar="-1" Cut="0.0000000000000000e+00" cType="1" res="-1.4525766891892999e-04" rms="4.0114662051200867e-01" purity="4.4446519017219543e-01" nType="-99"/>
            <Node pos="r" depth="3" NCoef="0" IVar="-1" Cut="0.0000000000000000e+00" cType="1" res="-5.7381605729460716e-03" rms="3.1370916962623596e-01" purity="1.6811133921146393e-01" nType="-99"/>
          </Node>
        </Node>
      </Node>
    </BinaryTree>
    <BinaryTree type="DecisionTree" boostWeight="1.0000000000000000e+00" itree="369">
      <Node pos="s" depth="0" NCoef="0" IVar="6" Cut="6.8554323911666870e-01" cType="1" res="6.0824756510555744e-03" rms="3.9598515629768372e-01" purity="4.9860265851020813e-01" nType="0">
        <Node pos="l" depth="1" NCoef="0" IVar="6" Cut="-6.2321430444717407e-01" cType="1" res="1.6805933788418770e-02" rms="3.9767193794250488e-01" purity="5.3980630636215210e-01" nType="0">
          <Node pos="l" depth="2" NCoef="0" IVar="6" Cut="-1.4333941936492920e+00" cType="1" res="-1.6864152625203133e-02" rms="3.8913327455520630e-01" purity="3.9219927787780762e-01" nType="0">
            <Node pos="l" depth="3" NCoef="0" IVar="-1" Cut="0.0000000000000000e+00" cType="1" res="-3.2162179704755545e-03" rms="3.4718996286392212e-01" purity="2.2490642964839935e-01" nType="-99"/>
            <Node pos="r" depth="3" NCoef="0" IVar="-1" Cut="0.0000000000000000e+00" cType="1" res="-1.2742972467094660e-04" rms="4.0319418907165527e-01" purity="4.5630139112472534e-01" nType="-99"/>
          </Node>
          <Node pos="r" depth="2" NCoef="0" IVar="0" Cut="1.0956837158203125e+03" cType="1" res="3.3061057329177856e-02" rms="4.0071791410446167e-01" purity="6.1106747388839722e-01" nType="0">
            <Node pos="l" depth="3" NCoef="0" IVar="-1" Cut="0.0000000000000000e+00" cType="1" res="-7.2321138577535748e-04" rms="4.3647408485412598e-01" purity="3.4556353092193604e-01" nType="-99"/>
            <Node pos="r" depth="3" NCoef="0" IVar="-1" Cut="0.0000000000000000e+00" cType="1" res="1.2392675271257758e-03" rms="3.9393004775047302e-01" purity="6.5424019098281860e-01" nType="-99"/>
          </Node>
        </Node>
        <Node pos="r" depth="1" NCoef="0" IVar="3" Cut="2.5583752441406250e+02" cType="1" res="-2.9191726818680763e-02" rms="3.8830152153968811e-01" purity="3.6306571960449219e-01" nType="0">
          <Node pos="l" depth="2" NCoef="0" IVar="0" Cut="1.4362459716796875e+03" cType="1" res="-1.4929150231182575e-02" rms="3.8578301668167114e-01" purity="3.6910483241081238e-01" nType="0">
            <Node pos="l" depth="3" NCoef="0" IVar="-1" Cut="0.0000000000000000e+00" cType="1" res="-1.7142099095508456e-03" rms="3.8352161645889282e-01" purity="2.8468883037567139e-01" nType="-99"/>
            <Node pos="r" depth="3" NCoef="0" IVar="-1" Cut="0.0000000000000000e+00" cType="1" res="1.7625526525080204e-03" rms="3.8601151108741760e-01" purity="6.0424786806106567e-01" nType="-99"/>
          </Node>
          <Node pos="r" depth="2" NCoef="0" IVar="8" Cut="1.3157030940055847e-01" cType="1" res="-8.1163920462131500e-02" rms="3.9298829436302185e-01" purity="3.4105953574180603e-01" nType="0">
            <Node pos="l" depth="3" NCoef="0" IVar="-1" Cut="0.0000000000000000e+00" cType="1" res="-6.0383612290024757e-03" rms="3.8998350501060486e-01" purity="3.3062922954559326e-01" nType="-99"/>
            <Node pos="r" depth="3" NCoef="0" IVar="-1" Cut="0.0000000000000000e+00" cType="1" res="-3.4448893275111914e-03" rms="3.9542809128761292e-01" purity="3.5142195224761963e-01" nType="-99"/>
          </Node>
        </Node>
      </Node>
    </BinaryTree>
    <BinaryTree type="DecisionTree" boostWeight="1.0000000000000000e+00" itree="370">
      <Node pos="s" depth="0" NCoef="0" IVar="0" Cut="1.5806253662109375e+03" cType="1" res="7.2535509243607521e-03" rms="3.9710545539855957e-01" purity="4.9924668669700623e-01" nType="0">
        <Node pos="l" depth="1" NCoef="0" IVar="3" Cut="2.2843786621093750e+02" cType="1" res="-4.5517650432884693e-03" rms="4.0062302350997925e-01" purity="4.3798434734344482e-01" nType="0">
          <Node pos="l" depth="2" NCoef="0" IVar="0" Cut="1.2832445068359375e+03" cType="1" res="8.4424689412117004e-03" rms="3.9995536208152771e-01" purity="4.4422715902328491e-01" nType="0">
            <Node pos="l" depth="3" NCoef="0" IVar="-1" Cut="0.0000000000000000e+00" cType="1" res="-6.0282374033704400e-04" rms="4.0804842114448547e-01" purity="3.4367009997367859e-01" nType="-99"/>
            <Node pos="r" depth="3" NCoef="0" IVar="-1" Cut="0.0000000000000000e+00" cType="1" res="1.9339668797329068e-03" rms="3.8219955563545227e-01" purity="6.1939048767089844e-01" nType="-99"/>
          </Node>
          <Node pos="r" depth="2" NCoef="0" IVar="8" Cut="-6.6636562347412109e-01" cType="1" res="-5.8304082602262497e-02" rms="3.9890101552009583e-01" purity="4.1216021776199341e-01" nType="0">
            <Node pos="l" depth="3" NCoef="0" IVar="-1" Cut="0.0000000000000000e+00" cType="1" res="-6.2334341928362846e-03" rms="3.7194770574569702e-01" purity="2.9548272490501404e-01" nType="-99"/>
            <Node pos="r" depth="3" NCoef="0" IVar="-1" Cut="0.0000000000000000e+00" cType="1" res="-1.9159946823492646e-03" rms="4.0686124563217163e-01" purity="4.5408478379249573e-01" nType="-99"/>
          </Node>
        </Node>
        <Node pos="r" depth="1" NCoef="0" IVar="3" Cut="3.2343475341796875e+02" cType="1" res="3.5565160214900970e-02" rms="3.8707548379898071e-01" purity="6.4616662263870239e-01" nType="0">
          <Node pos="l" depth="2" NCoef="0" IVar="2" Cut="5.7503607177734375e+02" cType="1" res="6.2192980200052261e-02" rms="3.7039804458618164e-01" purity="7.0512247085571289e-01" nType="0">
            <Node pos="l" depth="3" NCoef="0" IVar="-1" Cut="0.0000000000000000e+00" cType="1" res="3.2637440599501133e-03" rms="3.3918333053588867e-01" purity="8.0621343851089478e-01" nType="-99"/>
            <Node pos="r" depth="3" NCoef="0" IVar="-1" Cut="0.0000000000000000e+00" cType="1" res="5.3746765479445457e-04" rms="4.3364211916923523e-01" purity="4.5735079050064087e-01" nType="-99"/>
          </Node>
          <Node pos="r" depth="2" NCoef="0" IVar="5" Cut="1.2035257720947266e+02" cType="1" res="-3.4456394612789154e-02" rms="4.1985642910003662e-01" purity="4.9113416671752930e-01" nType="0">
            <Node pos="l" depth="3" NCoef="0" IVar="-1" Cut="0.0000000000000000e+00" cType="1" res="-4.3998346664011478e-03" rms="4.0211418271064758e-01" purity="3.5390806198120117e-01" nType="-99"/>
            <Node pos="r" depth="3" NCoef="0" IVar="-1" Cut="0.0000000000000000e+00" cType="1" res="-3.0247139511629939e-04" rms="4.2885714769363403e-01" purity="5.8050793409347534e-01" nType="-99"/>
          </Node>
        </Node>
      </Node>
    </BinaryTree>
    <BinaryTree type="DecisionTree" boostWeight="1.0000000000000000e+00" itree="371">
      <Node pos="s" depth="0" NCoef="0" IVar="9" Cut="-1.1999505758285522e+00" cType="1" res="5.5648162961006165e-03" rms="3.9500015974044800e-01" purity="5.0159496068954468e-01" nType="0">
        <Node pos="l" depth="1" NCoef="0" IVar="2" Cut="3.4280331420898438e+02" cType="1" res="-4.2209062725305557e-02" rms="3.8171550631523132e-01" purity="3.3209881186485291e-01" nType="0">
          <Node pos="l" depth="2" NCoef="0" IVar="-1" Cut="0.0000000000000000e+00" cType="1" res="-6.3545699231326580e-04" rms="4.0005967020988464e-01" purity="4.0946364402770996e-01" nType="-99"/>
          <Node pos="r" depth="2" NCoef="0" IVar="5" Cut="9.3339561462402344e+01" cType="1" res="-7.5338572263717651e-02" rms="3.5616159439086914e-01" purity="2.4134755134582520e-01" nType="0">
            <Node pos="l" depth="3" NCoef="0" IVar="-1" Cut="0.0000000000000000e+00" cType="1" res="-5.0599751994013786e-03" rms="3.1682330369949341e-01" purity="1.6726782917976379e-01" nType="-99"/>
            <Node pos="r" depth="3" NCoef="0" IVar="-1" Cut="0.0000000000000000e+00" cType="1" res="-5.5796080268919468e-03" rms="3.9143955707550049e-01" purity="3.1737133860588074e-01" nType="-99"/>
          </Node>
        </Node>
        <Node pos="r" depth="1" NCoef="0" IVar="9" Cut="8.9523297548294067e-01" cType="1" res="1.3196249492466450e-02" rms="3.9654833078384399e-01" purity="5.2867043018341064e-01" nType="0">
          <Node pos="l" depth="2" NCoef="0" IVar="0" Cut="1.5807512207031250e+03" cType="1" res="2.5575241073966026e-02" rms="4.0093520283699036e-01" purity="5.7091283798217773e-01" nType="0">
            <Node pos="l" depth="3" NCoef="0" IVar="-1" Cut="0.0000000000000000e+00" cType="1" res="5.1266659284010530e-04" rms="4.1143536567687988e-01" purity="5.0723898410797119e-01" nType="-99"/>
            <Node pos="r" depth="3" NCoef="0" IVar="-1" Cut="0.0000000000000000e+00" cType="1" res="2.0444619003683329e-03" rms="3.7653601169586182e-01" purity="7.0501291751861572e-01" nType="-99"/>
          </Node>
          <Node pos="r" depth="2" NCoef="0" IVar="8" Cut="1.1995631456375122e+00" cType="1" res="-2.4058047682046890e-02" rms="3.8062182068824768e-01" purity="4.0154290199279785e-01" nType="0">
            <Node pos="l" depth="3" NCoef="0" IVar="-1" Cut="0.0000000000000000e+00" cType="1" res="-5.7053210912272334e-04" rms="3.9028224349021912e-01" purity="4.4733068346977234e-01" nType="-99"/>
            <Node pos="r" depth="3" NCoef="0" IVar="-1" Cut="0.0000000000000000e+00" cType="1" res="-5.0118649378418922e-03" rms="3.2838436961174011e-01" purity="1.9308231770992279e-01" nType="-99"/>
          </Node>
        </Node>
      </Node>
    </BinaryTree>
    <BinaryTree type="DecisionTree" boostWeight="1.0000000000000000e+00" itree="372">
      <Node pos="s" depth="0" NCoef="0" IVar="7" Cut="-1.7326824665069580e+00" cType="1" res="6.1055477708578110e-03" rms="3.9642482995986938e-01" purity="4.9917146563529968e-01" nType="0">
        <Node pos="l" depth="1" NCoef="0" IVar="9" Cut="-1.3319988548755646e-01" cType="1" res="-7.5085565447807312e-02" rms="3.0942401289939880e-01" purity="1.6487151384353638e-01" nType="0">
          <Node pos="l" depth="2" NCoef="0" IVar="-1" Cut="0.0000000000000000e+00" cType="1" res="-7.0606493391096592e-03" rms="2.8310528397560120e-01" purity="1.2907715141773224e-01" nType="-99"/>
          <Node pos="r" depth="2" NCoef="0" IVar="-1" Cut="0.0000000000000000e+00" cType="1" res="-3.6421157419681549e-03" rms="3.3248496055603027e-01" purity="2.0027689635753632e-01" nType="-99"/>
        </Node>
        <Node pos="r" depth="1" NCoef="0" IVar="2" Cut="3.7131823730468750e+02" cType="1" res="1.0567732155323029e-02" rms="4.0018177032470703e-01" purity="5.1754426956176758e-01" nType="0">
          <Node pos="l" depth="2" NCoef="0" IVar="0" Cut="1.2656705322265625e+03" cType="1" res="2.5002542883157730e-02" rms="3.9522230625152588e-01" purity="5.7225316762924194e-01" nType="0">
            <Node pos="l" depth="3" NCoef="0" IVar="-1" Cut="0.0000000000000000e+00" cType="1" res="-2.7092668460682034e-04" rms="4.2731517553329468e-01" purity="3.7892493605613708e-01" nType="-99"/>
            <Node pos="r" depth="3" NCoef="0" IVar="-1" Cut="0.0000000000000000e+00" cType="1" res="2.2827426437288523e-03" rms="3.5397177934646606e-01" purity="7.8147530555725098e-01" nType="-99"/>
          </Node>
          <Node pos="r" depth="2" NCoef="0" IVar="0" Cut="1.8912095947265625e+03" cType="1" res="-1.1295220814645290e-02" rms="4.0660381317138672e-01" purity="4.3468227982521057e-01" nType="0">
            <Node pos="l" depth="3" NCoef="0" IVar="-1" Cut="0.0000000000000000e+00" cType="1" res="-8.3953514695167542e-04" rms="4.0015155076980591e-01" purity="3.6885586380958557e-01" nType="-99"/>
            <Node pos="r" depth="3" NCoef="0" IVar="-1" Cut="0.0000000000000000e+00" cType="1" res="1.3190679019317031e-03" rms="4.2134273052215576e-01" purity="6.2538743019104004e-01" nType="-99"/>
          </Node>
        </Node>
      </Node>
    </BinaryTree>
    <BinaryTree type="DecisionTree" boostWeight="1.0000000000000000e+00" itree="373">
      <Node pos="s" depth="0" NCoef="0" IVar="7" Cut="-6.6658425331115723e-01" cType="1" res="3.9818375371396542e-03" rms="3.9551275968551636e-01" purity="4.9746206402778625e-01" nType="0">
        <Node pos="l" depth="1" NCoef="0" IVar="3" Cut="3.0312887573242188e+02" cType="1" res="-2.6193249970674515e-02" rms="3.8445606827735901e-01" purity="3.7539741396903992e-01" nType="0">
          <Node pos="l" depth="2" NCoef="0" IVar="0" Cut="1.6299093017578125e+03" cType="1" res="-1.5602692961692810e-02" rms="3.8387119770050049e-01" purity="3.8655757904052734e-01" nType="0">
            <Node pos="l" depth="3" NCoef="0" IVar="-1" Cut="0.0000000000000000e+00" cType="1" res="-1.5197517350316048e-03" rms="3.8320481777191162e-01" purity="3.3407309651374817e-01" nType="-99"/>
            <Node pos="r" depth="3" NCoef="0" IVar="-1" Cut="0.0000000000000000e+00" cType="1" res="2.4564033374190331e-03" rms="3.7797969579696655e-01" purity="6.5372735261917114e-01" nType="-99"/>
          </Node>
          <Node pos="r" depth="2" NCoef="0" IVar="-1" Cut="0.0000000000000000e+00" cType="1" res="-8.4762508049607277e-03" rms="3.7752401828765869e-01" purity="2.8021803498268127e-01" nType="-99"/>
        </Node>
        <Node pos="r" depth="1" NCoef="0" IVar="7" Cut="1.4793924093246460e+00" cType="1" res="1.3818766921758652e-02" rms="3.9855751395225525e-01" purity="5.3725451231002808e-01" nType="0">
          <Node pos="l" depth="2" NCoef="0" IVar="2" Cut="6.0625280761718750e+02" cType="1" res="2.1138682961463928e-02" rms="4.0320900082588196e-01" purity="5.7384145259857178e-01" nType="0">
            <Node pos="l" depth="3" NCoef="0" IVar="-1" Cut="0.0000000000000000e+00" cType="1" res="1.0807949583977461e-03" rms="4.0052384138107300e-01" purity="5.9137350320816040e-01" nType="-99"/>
            <Node pos="r" depth="3" NCoef="0" IVar="-1" Cut="0.0000000000000000e+00" cType="1" res="-3.4314434742555022e-04" rms="4.2090117931365967e-01" purity="4.2093113064765930e-01" nType="-99"/>
          </Node>
          <Node pos="r" depth="2" NCoef="0" IVar="3" Cut="1.6641400146484375e+02" cType="1" res="-5.1913436502218246e-02" rms="3.4721243381500244e-01" purity="2.0870730280876160e-01" nType="0">
            <Node pos="l" depth="3" NCoef="0" IVar="-1" Cut="0.0000000000000000e+00" cType="1" res="-9.3469751300290227e-04" rms="3.4081560373306274e-01" purity="1.8601813912391663e-01" nType="-99"/>
            <Node pos="r" depth="3" NCoef="0" IVar="-1" Cut="0.0000000000000000e+00" cType="1" res="-4.7484226524829865e-03" rms="3.4894013404846191e-01" purity="2.2358298301696777e-01" nType="-99"/>
          </Node>
        </Node>
      </Node>
    </BinaryTree>
    <BinaryTree type="DecisionTree" boostWeight="1.0000000000000000e+00" itree="374">
      <Node pos="s" depth="0" NCoef="0" IVar="0" Cut="1.4375500488281250e+03" cType="1" res="9.4323549419641495e-03" rms="3.9659667015075684e-01" purity="5.0353240966796875e-01" nType="0">
        <Node pos="l" depth="1" NCoef="0" IVar="1" Cut="3.4436633300781250e+02" cType="1" res="-7.7956514433026314e-03" rms="4.0466365218162537e-01" purity="4.0217652916908264e-01" nType="0">
          <Node pos="l" depth="2" NCoef="0" IVar="2" Cut="3.5497909545898438e+02" cType="1" res="-3.8648948073387146e-02" rms="3.8178327679634094e-01" purity="3.0050384998321533e-01" nType="0">
            <Node pos="l" depth="3" NCoef="0" IVar="-1" Cut="0.0000000000000000e+00" cType="1" res="-1.0080862557515502e-03" rms="4.0097433328628540e-01" purity="3.5727006196975708e-01" nType="-99"/>
            <Node pos="r" depth="3" NCoef="0" IVar="-1" Cut="0.0000000000000000e+00" cType="1" res="-5.9987185522913933e-03" rms="3.1796747446060181e-01" purity="1.3920207321643829e-01" nType="-99"/>
          </Node>
          <Node pos="r" depth="2" NCoef="0" IVar="2" Cut="2.5187487792968750e+02" cType="1" res="1.1614837683737278e-02" rms="4.1725000739097595e-01" purity="4.6614113450050354e-01" nType="0">
            <Node pos="l" depth="3" NCoef="0" IVar="-1" Cut="0.0000000000000000e+00" cType="1" res="1.8227411201223731e-03" rms="4.1501542925834656e-01" purity="5.9652096033096313e-01" nType="-99"/>
            <Node pos="r" depth="3" NCoef="0" IVar="-1" Cut="0.0000000000000000e+00" cType="1" res="-2.8281900449655950e-04" rms="4.1697531938552856e-01" purity="4.0637549757957458e-01" nType="-99"/>
          </Node>
        </Node>
        <Node pos="r" depth="1" NCoef="0" IVar="2" Cut="5.0815478515625000e+02" cType="1" res="3.1891081482172012e-02" rms="3.8467043638229370e-01" purity="6.3566166162490845e-01" nType="0">
          <Node pos="l" depth="2" NCoef="0" IVar="3" Cut="2.2136541748046875e+02" cType="1" res="5.3349073976278305e-02" rms="3.6321574449539185e-01" purity="7.4702751636505127e-01" nType="0">
            <Node pos="l" depth="3" NCoef="0" IVar="-1" Cut="0.0000000000000000e+00" cType="1" res="3.6128598731011152e-03" rms="3.2087904214859009e-01" purity="8.3582484722137451e-01" nType="-99"/>
            <Node pos="r" depth="3" NCoef="0" IVar="-1" Cut="0.0000000000000000e+00" cType="1" res="1.3409858802333474e-03" rms="3.8151845335960388e-01" purity="7.0149177312850952e-01" nType="-99"/>
          </Node>
          <Node pos="r" depth="2" NCoef="0" IVar="0" Cut="1.7259641113281250e+03" cType="1" res="-7.9971030354499817e-03" rms="4.1875004768371582e-01" purity="4.2864423990249634e-01" nType="0">
            <Node pos="l" depth="3" NCoef="0" IVar="-1" Cut="0.0000000000000000e+00" cType="1" res="-4.9581914208829403e-03" rms="3.8105362653732300e-01" purity="2.2265882790088654e-01" nType="-99"/>
            <Node pos="r" depth="3" NCoef="0" IVar="-1" Cut="0.0000000000000000e+00" cType="1" res="7.8174012014642358e-04" rms="4.3302923440933228e-01" purity="5.2802956104278564e-01" nType="-99"/>
          </Node>
        </Node>
      </Node>
    </BinaryTree>
    <BinaryTree type="DecisionTree" boostWeight="1.0000000000000000e+00" itree="375">
      <Node pos="s" depth="0" NCoef="0" IVar="6" Cut="-1.4317476749420166e+00" cType="1" res="1.1493331752717495e-02" rms="3.9493313431739807e-01" purity="5.0543498992919922e-01" nType="0">
        <Node pos="l" depth="1" NCoef="0" IVar="3" Cut="2.0491731262207031e+02" cType="1" res="-5.6804426014423370e-02" rms="3.4081080555915833e-01" purity="2.1576045453548431e-01" nType="0">
          <Node pos="l" depth="2" NCoef="0" IVar="-1" Cut="0.0000000000000000e+00" cType="1" res="-2.4600133765488863e-03" rms="3.3124113082885742e-01" purity="1.9401104748249054e-01" nType="-99"/>
          <Node pos="r" depth="2" NCoef="0" IVar="-1" Cut="0.0000000000000000e+00" cType="1" res="-5.4007857106626034e-03" rms="3.5217672586441040e-01" purity="2.4622723460197449e-01" nType="-99"/>
        </Node>
        <Node pos="r" depth="1" NCoef="0" IVar="6" Cut="9.8624771833419800e-01" cType="1" res="1.6569925472140312e-02" rms="3.9819535613059998e-01" purity="5.2696657180786133e-01" nType="0">
          <Node pos="l" depth="2" NCoef="0" IVar="2" Cut="3.7131011962890625e+02" cType="1" res="2.5390375405550003e-02" rms="4.0123349428176880e-01" purity="5.7019495964050293e-01" nType="0">
            <Node pos="l" depth="3" NCoef="0" IVar="-1" Cut="0.0000000000000000e+00" cType="1" res="1.6008834354579449e-03" rms="3.9396679401397705e-01" purity="6.3465815782546997e-01" nType="-99"/>
            <Node pos="r" depth="3" NCoef="0" IVar="-1" Cut="0.0000000000000000e+00" cType="1" res="-4.6492950787069276e-05" rms="4.1050702333450317e-01" purity="4.7321504354476929e-01" nType="-99"/>
          </Node>
          <Node pos="r" depth="2" NCoef="0" IVar="6" Cut="1.8498185873031616e+00" cType="1" res="-2.8546927496790886e-02" rms="3.7908145785331726e-01" purity="3.0585208535194397e-01" nType="0">
            <Node pos="l" depth="3" NCoef="0" IVar="-1" Cut="0.0000000000000000e+00" cType="1" res="-7.1475881850346923e-04" rms="3.9205321669578552e-01" purity="3.3927047252655029e-01" nType="-99"/>
            <Node pos="r" depth="3" NCoef="0" IVar="-1" Cut="0.0000000000000000e+00" cType="1" res="-4.9146548844873905e-03" rms="3.2436323165893555e-01" purity="1.8880556523799896e-01" nType="-99"/>
          </Node>
        </Node>
      </Node>
    </BinaryTree>
    <BinaryTree type="DecisionTree" boostWeight="1.0000000000000000e+00" itree="376">
      <Node pos="s" depth="0" NCoef="0" IVar="6" Cut="6.7081058025360107e-01" cType="1" res="7.7712624333798885e-03" rms="3.9369672536849976e-01" purity="5.0183969736099243e-01" nType="0">
        <Node pos="l" depth="1" NCoef="0" IVar="6" Cut="-6.4706617593765259e-01" cType="1" res="1.9447205588221550e-02" rms="3.9482769370079041e-01" purity="5.4432189464569092e-01" nType="0">
          <Node pos="l" depth="2" NCoef="0" IVar="6" Cut="-1.3609247207641602e+00" cType="1" res="-1.4602145180106163e-02" rms="3.8517242670059204e-01" purity="3.9110812544822693e-01" nType="0">
            <Node pos="l" depth="3" NCoef="0" IVar="-1" Cut="0.0000000000000000e+00" cType="1" res="-2.8206701390445232e-03" rms="3.4532514214515686e-01" purity="2.3596899211406708e-01" nType="-99"/>
            <Node pos="r" depth="3" NCoef="0" IVar="-1" Cut="0.0000000000000000e+00" cType="1" res="3.1543459044769406e-05" rms="4.0171918272972107e-01" purity="4.6441590785980225e-01" nType="-99"/>
          </Node>
          <Node pos="r" depth="2" NCoef="0" IVar="8" Cut="-1.1999778747558594e+00" cType="1" res="3.5364698618650436e-02" rms="3.9826402068138123e-01" purity="6.1594671010971069e-01" nType="0">
            <Node pos="l" depth="3" NCoef="0" IVar="-1" Cut="0.0000000000000000e+00" cType="1" res="-1.0865657823160291e-03" rms="4.0712472796440125e-01" purity="3.8963216543197632e-01" nType="-99"/>
            <Node pos="r" depth="3" NCoef="0" IVar="-1" Cut="0.0000000000000000e+00" cType="1" res="1.5825105365365744e-03" rms="3.9658015966415405e-01" purity="6.4328366518020630e-01" nType="-99"/>
          </Node>
        </Node>
        <Node pos="r" depth="1" NCoef="0" IVar="3" Cut="2.5440957641601562e+02" cType="1" res="-2.9625285416841507e-02" rms="3.8769274950027466e-01" purity="3.6577466130256653e-01" nType="0">
          <Node pos="l" depth="2" NCoef="0" IVar="0" Cut="1.3945069580078125e+03" cType="1" res="-1.7719144001603127e-02" rms="3.8279309868812561e-01" purity="3.6815792322158813e-01" nType="0">
            <Node pos="l" depth="3" NCoef="0" IVar="-1" Cut="0.0000000000000000e+00" cType="1" res="-1.8403142457827926e-03" rms="3.8162979483604431e-01" purity="2.7148872613906860e-01" nType="-99"/>
            <Node pos="r" depth="3" NCoef="0" IVar="-1" Cut="0.0000000000000000e+00" cType="1" res="1.1864013504236937e-03" rms="3.8130676746368408e-01" purity="5.8716607093811035e-01" nType="-99"/>
          </Node>
          <Node pos="r" depth="2" NCoef="0" IVar="0" Cut="1.7044606933593750e+03" cType="1" res="-6.9890871644020081e-02" rms="4.0121322870254517e-01" purity="3.5771471261978149e-01" nType="0">
            <Node pos="l" depth="3" NCoef="0" IVar="-1" Cut="0.0000000000000000e+00" cType="1" res="-6.7192236892879009e-03" rms="3.7089034914970398e-01" purity="2.4954685568809509e-01" nType="-99"/>
            <Node pos="r" depth="3" NCoef="0" IVar="-1" Cut="0.0000000000000000e+00" cType="1" res="-1.4676408609375358e-03" rms="4.2735931277275085e-01" purity="4.7088205814361572e-01" nType="-99"/>
          </Node>
        </Node>
      </Node>
    </BinaryTree>
    <BinaryTree type="DecisionTree" boostWeight="1.0000000000000000e+00" itree="377">
      <Node pos="s" depth="0" NCoef="0" IVar="0" Cut="1.7602510986328125e+03" cType="1" res="5.0977128557860851e-03" rms="3.9188393950462341e-01" purity="5.0044655799865723e-01" nType="0">
        <Node pos="l" depth="1" NCoef="0" IVar="2" Cut="2.7528866577148438e+02" cType="1" res="-4.4560995884239674e-03" rms="3.9266633987426758e-01" purity="4.6363413333892822e-01" nType="0">
          <Node pos="l" depth="2" NCoef="0" IVar="0" Cut="1.3028443603515625e+03" cType="1" res="2.9855798929929733e-02" rms="3.9420747756958008e-01" purity="5.7250589132308960e-01" nType="0">
            <Node pos="l" depth="3" NCoef="0" IVar="-1" Cut="0.0000000000000000e+00" cType="1" res="5.8498512771620881e-06" rms="4.2542263865470886e-01" purity="4.3799871206283569e-01" nType="-99"/>
            <Node pos="r" depth="3" NCoef="0" IVar="-1" Cut="0.0000000000000000e+00" cType="1" res="3.7161242216825485e-03" rms="3.0081766843795776e-01" purity="8.7908810377120972e-01" nType="-99"/>
          </Node>
          <Node pos="r" depth="2" NCoef="0" IVar="1" Cut="3.8305856323242188e+02" cType="1" res="-2.3513222113251686e-02" rms="3.9050766825675964e-01" purity="4.0316584706306458e-01" nType="0">
            <Node pos="l" depth="3" NCoef="0" IVar="-1" Cut="0.0000000000000000e+00" cType="1" res="-1.3777184067294002e-03" rms="3.7227833271026611e-01" purity="2.9132524132728577e-01" nType="-99"/>
            <Node pos="r" depth="3" NCoef="0" IVar="-1" Cut="0.0000000000000000e+00" cType="1" res="-1.2431376671884209e-04" rms="4.0687707066535950e-01" purity="5.1496767997741699e-01" nType="-99"/>
          </Node>
        </Node>
        <Node pos="r" depth="1" NCoef="0" IVar="3" Cut="3.3811813354492188e+02" cType="1" res="4.9737643450498581e-02" rms="3.8507893681526184e-01" purity="6.7245149612426758e-01" nType="0">
          <Node pos="l" depth="2" NCoef="0" IVar="2" Cut="6.0028747558593750e+02" cType="1" res="8.3085849881172180e-02" rms="3.6347633600234985e-01" purity="7.3915785551071167e-01" nType="0">
            <Node pos="l" depth="3" NCoef="0" IVar="-1" Cut="0.0000000000000000e+00" cType="1" res="4.0008425712585449e-03" rms="3.0918005108833313e-01" purity="8.5324621200561523e-01" nType="-99"/>
            <Node pos="r" depth="3" NCoef="0" IVar="-1" Cut="0.0000000000000000e+00" cType="1" res="1.5150200342759490e-03" rms="4.3838939070701599e-01" purity="5.4284220933914185e-01" nType="-99"/>
          </Node>
          <Node pos="r" depth="2" NCoef="0" IVar="5" Cut="1.5551829528808594e+02" cType="1" res="-2.0037038251757622e-02" rms="4.1823986172676086e-01" purity="5.3288143873214722e-01" nType="0">
            <Node pos="l" depth="3" NCoef="0" IVar="-1" Cut="0.0000000000000000e+00" cType="1" res="-2.9751034453511238e-03" rms="4.1246941685676575e-01" purity="4.3639919161796570e-01" nType="-99"/>
            <Node pos="r" depth="3" NCoef="0" IVar="-1" Cut="0.0000000000000000e+00" cType="1" res="1.1258223094046116e-03" rms="4.1950917243957520e-01" purity="6.4899814128875732e-01" nType="-99"/>
          </Node>
        </Node>
      </Node>
    </BinaryTree>
    <BinaryTree type="DecisionTree" boostWeight="1.0000000000000000e+00" itree="378">
      <Node pos="s" depth="0" NCoef="0" IVar="8" Cut="9.3332177400588989e-01" cType="1" res="5.5254665203392506e-03" rms="3.9397156238555908e-01" purity="4.9910876154899597e-01" nType="0">
        <Node pos="l" depth="1" NCoef="0" IVar="8" Cut="-1.0222297906875610e+00" cType="1" res="1.5020103193819523e-02" rms="3.9569240808486938e-01" purity="5.3574085235595703e-01" nType="0">
          <Node pos="l" depth="2" NCoef="0" IVar="3" Cut="1.9419943237304688e+02" cType="1" res="-3.3800389617681503e-02" rms="3.7986409664154053e-01" purity="3.3104354143142700e-01" nType="0">
            <Node pos="l" depth="3" NCoef="0" IVar="-1" Cut="0.0000000000000000e+00" cType="1" res="-4.2265851516276598e-04" rms="3.7254711985588074e-01" purity="3.1321585178375244e-01" nType="-99"/>
            <Node pos="r" depth="3" NCoef="0" IVar="-1" Cut="0.0000000000000000e+00" cType="1" res="-3.4139887429773808e-03" rms="3.8588821887969971e-01" purity="3.5096514225006104e-01" nType="-99"/>
          </Node>
          <Node pos="r" depth="2" NCoef="0" IVar="7" Cut="1.4667046070098877e+00" cType="1" res="2.7649492025375366e-02" rms="3.9871293306350708e-01" purity="5.8869403600692749e-01" nType="0">
            <Node pos="l" depth="3" NCoef="0" IVar="-1" Cut="0.0000000000000000e+00" cType="1" res="1.0232372442260385e-03" rms="3.9997205138206482e-01" purity="6.1181879043579102e-01" nType="-99"/>
            <Node pos="r" depth="3" NCoef="0" IVar="-1" Cut="0.0000000000000000e+00" cType="1" res="-2.2932267747819424e-03" rms="3.7305107712745667e-01" purity="2.5881856679916382e-01" nType="-99"/>
          </Node>
        </Node>
        <Node pos="r" depth="1" NCoef="0" IVar="9" Cut="-9.3323349952697754e-01" cType="1" res="-3.6364533007144928e-02" rms="3.8349160552024841e-01" purity="3.3748942613601685e-01" nType="0">
          <Node pos="l" depth="2" NCoef="0" IVar="-1" Cut="0.0000000000000000e+00" cType="1" res="-6.4093330875039101e-03" rms="3.4139037132263184e-01" purity="2.1125651895999908e-01" nType="-99"/>
          <Node pos="r" depth="2" NCoef="0" IVar="3" Cut="2.3244596862792969e+02" cType="1" res="-2.4396188557147980e-02" rms="3.9067834615707397e-01" purity="3.6392447352409363e-01" nType="0">
            <Node pos="l" depth="3" NCoef="0" IVar="-1" Cut="0.0000000000000000e+00" cType="1" res="-2.7044166927225888e-04" rms="3.8783347606658936e-01" purity="3.6663705110549927e-01" nType="-99"/>
            <Node pos="r" depth="3" NCoef="0" IVar="-1" Cut="0.0000000000000000e+00" cType="1" res="-4.0935007855296135e-03" rms="3.9395526051521301e-01" purity="3.5720932483673096e-01" nType="-99"/>
          </Node>
        </Node>
      </Node>
    </BinaryTree>
    <BinaryTree type="DecisionTree" boostWeight="1.0000000000000000e+00" itree="379">
      <Node pos="s" depth="0" NCoef="0" IVar="6" Cut="-9.0281289815902710e-01" cType="1" res="3.9124856702983379e-03" rms="3.9379432797431946e-01" purity="4.9759501218795776e-01" nType="0">
        <Node pos="l" depth="1" NCoef="0" IVar="8" Cut="6.6691231727600098e-01" cType="1" res="-4.1455235332250595e-02" rms="3.7036436796188354e-01" purity="3.1319591403007507e-01" nType="0">
          <Node pos="l" depth="2" NCoef="0" IVar="2" Cut="3.3268838500976562e+02" cType="1" res="-2.9493624344468117e-02" rms="3.7983766198158264e-01" purity="3.5013568401336670e-01" nType="0">
            <Node pos="l" depth="3" NCoef="0" IVar="-1" Cut="0.0000000000000000e+00" cType="1" res="-3.3411718322895467e-04" rms="3.8744762539863586e-01" purity="4.1322597861289978e-01" nType="-99"/>
            <Node pos="r" depth="3" NCoef="0" IVar="-1" Cut="0.0000000000000000e+00" cType="1" res="-3.1917472369968891e-03" rms="3.7031051516532898e-01" purity="2.8377890586853027e-01" nType="-99"/>
          </Node>
          <Node pos="r" depth="2" NCoef="0" IVar="-1" Cut="0.0000000000000000e+00" cType="1" res="-5.2537694573402405e-03" rms="3.3728593587875366e-01" purity="2.0069067180156708e-01" nType="-99"/>
        </Node>
        <Node pos="r" depth="1" NCoef="0" IVar="6" Cut="8.6031728982925415e-01" cType="1" res="1.2940379790961742e-02" rms="3.9767539501190186e-01" purity="5.3428930044174194e-01" nType="0">
          <Node pos="l" depth="2" NCoef="0" IVar="8" Cut="-1.7333043813705444e+00" cType="1" res="2.3769589141011238e-02" rms="4.0071249008178711e-01" purity="5.8980846405029297e-01" nType="0">
            <Node pos="l" depth="3" NCoef="0" IVar="-1" Cut="0.0000000000000000e+00" cType="1" res="-4.2229895479977131e-03" rms="3.7712600827217102e-01" purity="2.5055360794067383e-01" nType="-99"/>
            <Node pos="r" depth="3" NCoef="0" IVar="-1" Cut="0.0000000000000000e+00" cType="1" res="7.7886949293315411e-04" rms="4.0123713016510010e-01" purity="6.0734367370605469e-01" nType="-99"/>
          </Node>
          <Node pos="r" depth="2" NCoef="0" IVar="7" Cut="-6.6601008176803589e-01" cType="1" res="-2.5607945397496223e-02" rms="3.8420155644416809e-01" purity="3.3665978908538818e-01" nType="0">
            <Node pos="l" depth="3" NCoef="0" IVar="-1" Cut="0.0000000000000000e+00" cType="1" res="-5.2719768136739731e-03" rms="3.2355859875679016e-01" purity="1.8989001214504242e-01" nType="-99"/>
            <Node pos="r" depth="3" NCoef="0" IVar="-1" Cut="0.0000000000000000e+00" cType="1" res="-4.3394413660280406e-04" rms="4.0025800466537476e-01" purity="3.8335865736007690e-01" nType="-99"/>
          </Node>
        </Node>
      </Node>
    </BinaryTree>
    <BinaryTree type="DecisionTree" boostWeight="1.0000000000000000e+00" itree="380">
      <Node pos="s" depth="0" NCoef="0" IVar="0" Cut="1.7601209716796875e+03" cType="1" res="4.4498876668512821e-03" rms="3.9334976673126221e-01" purity="4.9953514337539673e-01" nType="0">
        <Node pos="l" depth="1" NCoef="0" IVar="2" Cut="3.1293124389648438e+02" cType="1" res="-5.2264533005654812e-03" rms="3.9334735274314880e-01" purity="4.6384605765342712e-01" nType="0">
          <Node pos="l" depth="2" NCoef="0" IVar="0" Cut="1.3029298095703125e+03" cType="1" res="1.9009254872798920e-02" rms="3.9477628469467163e-01" purity="5.5381536483764648e-01" nType="0">
            <Node pos="l" depth="3" NCoef="0" IVar="-1" Cut="0.0000000000000000e+00" cType="1" res="-3.7229064037092030e-04" rms="4.2155978083610535e-01" purity="4.0857076644897461e-01" nType="-99"/>
            <Node pos="r" depth="3" NCoef="0" IVar="-1" Cut="0.0000000000000000e+00" cType="1" res="2.8747883625328541e-03" rms="3.3159738779067993e-01" purity="8.2877558469772339e-01" nType="-99"/>
          </Node>
          <Node pos="r" depth="2" NCoef="0" IVar="1" Cut="3.5732391357421875e+02" cType="1" res="-3.0220653861761093e-02" rms="3.9029508829116821e-01" purity="3.7106093764305115e-01" nType="0">
            <Node pos="l" depth="3" NCoef="0" IVar="-1" Cut="0.0000000000000000e+00" cType="1" res="-3.7252765614539385e-03" rms="3.5625618696212769e-01" purity="2.4153311550617218e-01" nType="-99"/>
            <Node pos="r" depth="3" NCoef="0" IVar="-1" Cut="0.0000000000000000e+00" cType="1" res="-5.3853023564442992e-04" rms="4.0788260102272034e-01" purity="4.4711458683013916e-01" nType="-99"/>
          </Node>
        </Node>
        <Node pos="r" depth="1" NCoef="0" IVar="3" Cut="3.3611477661132812e+02" cType="1" res="4.9901507794857025e-02" rms="3.9016315340995789e-01" purity="6.6717374324798584e-01" nType="0">
          <Node pos="l" depth="2" NCoef="0" IVar="2" Cut="7.0392120361328125e+02" cType="1" res="8.3655484020709991e-02" rms="3.6845642328262329e-01" purity="7.3543381690979004e-01" nType="0">
            <Node pos="l" depth="3" NCoef="0" IVar="-1" Cut="0.0000000000000000e+00" cType="1" res="4.0127746760845184e-03" rms="3.4154903888702393e-01" purity="8.0861258506774902e-01" nType="-99"/>
            <Node pos="r" depth="3" NCoef="0" IVar="-1" Cut="0.0000000000000000e+00" cType="1" res="3.3934414386749268e-04" rms="4.3170985579490662e-01" purity="5.1331889629364014e-01" nType="-99"/>
          </Node>
          <Node pos="r" depth="2" NCoef="0" IVar="3" Cut="4.1646832275390625e+02" cType="1" res="-1.7247568815946579e-02" rms="4.2215040326118469e-01" purity="5.3137940168380737e-01" nType="0">
            <Node pos="l" depth="3" NCoef="0" IVar="-1" Cut="0.0000000000000000e+00" cType="1" res="8.8851369218900800e-04" rms="4.1764304041862488e-01" purity="5.9338039159774780e-01" nType="-99"/>
            <Node pos="r" depth="3" NCoef="0" IVar="-1" Cut="0.0000000000000000e+00" cType="1" res="-3.1119759660214186e-03" rms="4.2251607775688171e-01" purity="4.5274248719215393e-01" nType="-99"/>
          </Node>
        </Node>
      </Node>
    </BinaryTree>
    <BinaryTree type="DecisionTree" boostWeight="1.0000000000000000e+00" itree="381">
      <Node pos="s" depth="0" NCoef="0" IVar="0" Cut="1.4375306396484375e+03" cType="1" res="3.4536987077444792e-03" rms="3.9559093117713928e-01" purity="4.9601235985755920e-01" nType="0">
        <Node pos="l" depth="1" NCoef="0" IVar="2" Cut="2.8263467407226562e+02" cType="1" res="-1.3774262741208076e-02" rms="4.0372681617736816e-01" purity="3.9467579126358032e-01" nType="0">
          <Node pos="l" depth="2" NCoef="0" IVar="0" Cut="1.2553830566406250e+03" cType="1" res="1.1220190674066544e-02" rms="4.1570129990577698e-01" purity="4.9860438704490662e-01" nType="0">
            <Node pos="l" depth="3" NCoef="0" IVar="-1" Cut="0.0000000000000000e+00" cType="1" res="-2.9680269653908908e-04" rms="4.3085521459579468e-01" purity="3.9439210295677185e-01" nType="-99"/>
            <Node pos="r" depth="3" NCoef="0" IVar="-1" Cut="0.0000000000000000e+00" cType="1" res="2.1967086941003799e-03" rms="3.6614099144935608e-01" purity="7.8339368104934692e-01" nType="-99"/>
          </Node>
          <Node pos="r" depth="2" NCoef="0" IVar="3" Cut="1.6828454589843750e+02" cType="1" res="-3.6726050078868866e-02" rms="3.9100456237792969e-01" purity="2.9924082756042480e-01" nType="0">
            <Node pos="l" depth="3" NCoef="0" IVar="-1" Cut="0.0000000000000000e+00" cType="1" res="-4.9883784959092736e-04" rms="3.9371889829635620e-01" purity="2.8069132566452026e-01" nType="-99"/>
            <Node pos="r" depth="3" NCoef="0" IVar="-1" Cut="0.0000000000000000e+00" cType="1" res="-3.0101374723017216e-03" rms="3.8652688264846802e-01" purity="3.1772726774215698e-01" nType="-99"/>
          </Node>
        </Node>
        <Node pos="r" depth="1" NCoef="0" IVar="2" Cut="5.0815478515625000e+02" cType="1" res="2.6113387197256088e-02" rms="3.8345119357109070e-01" purity="6.2929886579513550e-01" nType="0">
          <Node pos="l" depth="2" NCoef="0" IVar="3" Cut="2.1649708557128906e+02" cType="1" res="5.0466157495975494e-02" rms="3.6288967728614807e-01" purity="7.4529856443405151e-01" nType="0">
            <Node pos="l" depth="3" NCoef="0" IVar="-1" Cut="0.0000000000000000e+00" cType="1" res="3.7672240287065506e-03" rms="3.1617426872253418e-01" purity="8.4319889545440674e-01" nType="-99"/>
            <Node pos="r" depth="3" NCoef="0" IVar="-1" Cut="0.0000000000000000e+00" cType="1" res="1.2490549124777317e-03" rms="3.8073265552520752e-01" purity="7.0009893178939819e-01" nType="-99"/>
          </Node>
          <Node pos="r" depth="2" NCoef="0" IVar="0" Cut="2.0143220214843750e+03" cType="1" res="-1.8530584871768951e-02" rms="4.1483360528945923e-01" purity="4.1664579510688782e-01" nType="0">
            <Node pos="l" depth="3" NCoef="0" IVar="-1" Cut="0.0000000000000000e+00" cType="1" res="-2.5489574763923883e-03" rms="3.9889946579933167e-01" purity="3.1526830792427063e-01" nType="-99"/>
            <Node pos="r" depth="3" NCoef="0" IVar="-1" Cut="0.0000000000000000e+00" cType="1" res="9.1708556283265352e-04" rms="4.3647825717926025e-01" purity="5.8360493183135986e-01" nType="-99"/>
          </Node>
        </Node>
      </Node>
    </BinaryTree>
    <BinaryTree type="DecisionTree" boostWeight="1.0000000000000000e+00" itree="382">
      <Node pos="s" depth="0" NCoef="0" IVar="9" Cut="1.2000404596328735e+00" cType="1" res="2.7333553880453110e-03" rms="3.9514353871345520e-01" purity="4.9435842037200928e-01" nType="0">
        <Node pos="l" depth="1" NCoef="0" IVar="0" Cut="1.7444672851562500e+03" cType="1" res="1.0683596134185791e-02" rms="3.9836230874061584e-01" purity="5.2129083871841431e-01" nType="0">
          <Node pos="l" depth="2" NCoef="0" IVar="2" Cut="3.1055349731445312e+02" cType="1" res="1.6962196677923203e-03" rms="3.9951953291893005e-01" purity="4.8523312807083130e-01" nType="0">
            <Node pos="l" depth="3" NCoef="0" IVar="-1" Cut="0.0000000000000000e+00" cType="1" res="1.0202327976003289e-03" rms="3.9757543802261353e-01" purity="5.7543653249740601e-01" nType="-99"/>
            <Node pos="r" depth="3" NCoef="0" IVar="-1" Cut="0.0000000000000000e+00" cType="1" res="-1.0837577283382416e-03" rms="3.9993733167648315e-01" purity="3.9461752772331238e-01" nType="-99"/>
          </Node>
          <Node pos="r" depth="2" NCoef="0" IVar="3" Cut="3.4758786010742188e+02" cType="1" res="4.8978239297866821e-02" rms="3.9108514785766602e-01" purity="6.7493057250976562e-01" nType="0">
            <Node pos="l" depth="3" NCoef="0" IVar="-1" Cut="0.0000000000000000e+00" cType="1" res="2.9010162688791752e-03" rms="3.7030702829360962e-01" purity="7.3542398214340210e-01" nType="-99"/>
            <Node pos="r" depth="3" NCoef="0" IVar="-1" Cut="0.0000000000000000e+00" cType="1" res="-9.4013841589912772e-04" rms="4.2935362458229065e-01" purity="5.2799743413925171e-01" nType="-99"/>
          </Node>
        </Node>
        <Node pos="r" depth="1" NCoef="0" IVar="8" Cut="-9.3333190679550171e-01" cType="1" res="-4.4459331780672073e-02" rms="3.7198778986930847e-01" purity="3.3448737859725952e-01" nType="0">
          <Node pos="l" depth="2" NCoef="0" IVar="-1" Cut="0.0000000000000000e+00" cType="1" res="-5.9098103083670139e-03" rms="3.2614907622337341e-01" purity="1.7139510810375214e-01" nType="-99"/>
          <Node pos="r" depth="2" NCoef="0" IVar="2" Cut="4.6089581298828125e+02" cType="1" res="-3.3567890524864197e-02" rms="3.8022843003273010e-01" purity="3.6949911713600159e-01" nType="0">
            <Node pos="l" depth="3" NCoef="0" IVar="-1" Cut="0.0000000000000000e+00" cType="1" res="-7.3896953836083412e-04" rms="3.8669788837432861e-01" purity="4.1205811500549316e-01" nType="-99"/>
            <Node pos="r" depth="3" NCoef="0" IVar="-1" Cut="0.0000000000000000e+00" cType="1" res="-6.8148453719913960e-03" rms="3.5094460844993591e-01" purity="2.2302028536796570e-01" nType="-99"/>
          </Node>
        </Node>
      </Node>
    </BinaryTree>
    <BinaryTree type="DecisionTree" boostWeight="1.0000000000000000e+00" itree="383">
      <Node pos="s" depth="0" NCoef="0" IVar="0" Cut="1.7855096435546875e+03" cType="1" res="3.7769479677081108e-03" rms="3.9490985870361328e-01" purity="4.9689778685569763e-01" nType="0">
        <Node pos="l" depth="1" NCoef="0" IVar="2" Cut="4.4579049682617188e+02" cType="1" res="-4.4672586955130100e-03" rms="3.9469033479690552e-01" purity="4.6555021405220032e-01" nType="0">
          <Node pos="l" depth="2" NCoef="0" IVar="0" Cut="1.3162310791015625e+03" cType="1" res="5.8532692492008209e-03" rms="3.9791131019592285e-01" purity="5.0896096229553223e-01" nType="0">
            <Node pos="l" depth="3" NCoef="0" IVar="-1" Cut="0.0000000000000000e+00" cType="1" res="-6.6923367558047175e-04" rms="4.1358578205108643e-01" purity="3.6355039477348328e-01" nType="-99"/>
            <Node pos="r" depth="3" NCoef="0" IVar="-1" Cut="0.0000000000000000e+00" cType="1" res="1.5394726069644094e-03" rms="3.7241774797439575e-01" purity="7.1326047182083130e-01" nType="-99"/>
          </Node>
          <Node pos="r" depth="2" NCoef="0" IVar="3" Cut="1.3303962707519531e+02" cType="1" res="-5.4081976413726807e-02" rms="3.7487846612930298e-01" purity="2.5685784220695496e-01" nType="0">
            <Node pos="l" depth="3" NCoef="0" IVar="-1" Cut="0.0000000000000000e+00" cType="1" res="5.1057970267720520e-05" rms="3.9188900589942932e-01" purity="2.6793470978736877e-01" nType="-99"/>
            <Node pos="r" depth="3" NCoef="0" IVar="-1" Cut="0.0000000000000000e+00" cType="1" res="-4.4267415069043636e-03" rms="3.6990836262702942e-01" purity="2.5440967082977295e-01" nType="-99"/>
          </Node>
        </Node>
        <Node pos="r" depth="1" NCoef="0" IVar="2" Cut="7.1810406494140625e+02" cType="1" res="4.6608008444309235e-02" rms="3.9327678084373474e-01" purity="6.5975773334503174e-01" nType="0">
          <Node pos="l" depth="2" NCoef="0" IVar="3" Cut="3.1530499267578125e+02" cType="1" res="7.8720971941947937e-02" rms="3.7385097146034241e-01" purity="7.3487496376037598e-01" nType="0">
            <Node pos="l" depth="3" NCoef="0" IVar="-1" Cut="0.0000000000000000e+00" cType="1" res="4.0682479739189148e-03" rms="3.3525353670120239e-01" purity="8.2143902778625488e-01" nType="-99"/>
            <Node pos="r" depth="3" NCoef="0" IVar="-1" Cut="0.0000000000000000e+00" cType="1" res="1.1092904023826122e-03" rms="4.1657036542892456e-01" purity="6.1419433355331421e-01" nType="-99"/>
          </Node>
          <Node pos="r" depth="2" NCoef="0" IVar="-1" Cut="0.0000000000000000e+00" cType="1" res="-1.7430908046662807e-03" rms="4.3003481626510620e-01" purity="4.5394214987754822e-01" nType="-99"/>
        </Node>
      </Node>
    </BinaryTree>
    <BinaryTree type="DecisionTree" boostWeight="1.0000000000000000e+00" itree="384">
      <Node pos="s" depth="0" NCoef="0" IVar="6" Cut="-6.5971612930297852e-01" cType="1" res="5.6014852598309517e-03" rms="3.9453995227813721e-01" purity="4.9884054064750671e-01" nType="0">
        <Node pos="l" depth="1" NCoef="0" IVar="6" Cut="-1.6734831333160400e+00" cType="1" res="-3.1377147883176804e-02" rms="3.8350403308868408e-01" purity="3.6536425352096558e-01" nType="0">
          <Node pos="l" depth="2" NCoef="0" IVar="-1" Cut="0.0000000000000000e+00" cType="1" res="-5.1642139442265034e-03" rms="3.2709765434265137e-01" purity="1.7521144449710846e-01" nType="-99"/>
          <Node pos="r" depth="2" NCoef="0" IVar="2" Cut="3.3268646240234375e+02" cType="1" res="-2.1852478384971619e-02" rms="3.9413321018218994e-01" purity="4.0697392821311951e-01" nType="0">
            <Node pos="l" depth="3" NCoef="0" IVar="-1" Cut="0.0000000000000000e+00" cType="1" res="2.4329016741830856e-04" rms="4.0136030316352844e-01" purity="4.8610946536064148e-01" nType="-99"/>
            <Node pos="r" depth="3" NCoef="0" IVar="-1" Cut="0.0000000000000000e+00" cType="1" res="-2.5166720151901245e-03" rms="3.8546723127365112e-01" purity="3.3330121636390686e-01" nType="-99"/>
          </Node>
        </Node>
        <Node pos="r" depth="1" NCoef="0" IVar="6" Cut="8.2290691137313843e-01" cType="1" res="1.6965126618742943e-02" rms="3.9717888832092285e-01" purity="5.3985816240310669e-01" nType="0">
          <Node pos="l" depth="2" NCoef="0" IVar="0" Cut="1.1201872558593750e+03" cType="1" res="3.0810559168457985e-02" rms="4.0044057369232178e-01" purity="6.0678881406784058e-01" nType="0">
            <Node pos="l" depth="3" NCoef="0" IVar="-1" Cut="0.0000000000000000e+00" cType="1" res="-8.6498731980100274e-04" rms="4.3433022499084473e-01" purity="3.4886664152145386e-01" nType="-99"/>
            <Node pos="r" depth="3" NCoef="0" IVar="-1" Cut="0.0000000000000000e+00" cType="1" res="1.6059351619333029e-03" rms="3.9244008064270020e-01" purity="6.5828061103820801e-01" nType="-99"/>
          </Node>
          <Node pos="r" depth="2" NCoef="0" IVar="3" Cut="1.9127268981933594e+02" cType="1" res="-2.3261284455657005e-02" rms="3.8473024964332581e-01" purity="3.4539854526519775e-01" nType="0">
            <Node pos="l" depth="3" NCoef="0" IVar="-1" Cut="0.0000000000000000e+00" cType="1" res="5.2008064812980592e-05" rms="3.8213390111923218e-01" purity="3.0330222845077515e-01" nType="-99"/>
            <Node pos="r" depth="3" NCoef="0" IVar="-1" Cut="0.0000000000000000e+00" cType="1" res="-2.4070800282061100e-03" rms="3.8577836751937866e-01" purity="3.8773855566978455e-01" nType="-99"/>
          </Node>
        </Node>
      </Node>
    </BinaryTree>
    <BinaryTree type="DecisionTree" boostWeight="1.0000000000000000e+00" itree="385">
      <Node pos="s" depth="0" NCoef="0" IVar="8" Cut="-1.7333314418792725e+00" cType="1" res="4.8198332078754902e-03" rms="3.9381298422813416e-01" purity="4.9599269032478333e-01" nType="0">
        <Node pos="l" depth="1" NCoef="0" IVar="4" Cut="1.1761971282958984e+02" cType="1" res="-7.5215809047222137e-02" rms="3.2349219918251038e-01" purity="1.8027853965759277e-01" nType="0">
          <Node pos="l" depth="2" NCoef="0" IVar="-1" Cut="0.0000000000000000e+00" cType="1" res="-2.4158135056495667e-03" rms="3.1079900264739990e-01" purity="1.5689970552921295e-01" nType="-99"/>
          <Node pos="r" depth="2" NCoef="0" IVar="-1" Cut="0.0000000000000000e+00" cType="1" res="-8.0988788977265358e-03" rms="3.3086898922920227e-01" purity="2.0307768881320953e-01" nType="-99"/>
        </Node>
        <Node pos="r" depth="1" NCoef="0" IVar="8" Cut="1.2888832092285156e+00" cType="1" res="9.6706617623567581e-03" rms="3.9715746045112610e-01" purity="5.1512759923934937e-01" nType="0">
          <Node pos="l" depth="2" NCoef="0" IVar="9" Cut="1.7333185672760010e+00" cType="1" res="1.6876347362995148e-02" rms="4.0041863918304443e-01" purity="5.4861748218536377e-01" nType="0">
            <Node pos="l" depth="3" NCoef="0" IVar="-1" Cut="0.0000000000000000e+00" cType="1" res="8.4640132263302803e-04" rms="4.0140682458877563e-01" purity="5.6382030248641968e-01" nType="-99"/>
            <Node pos="r" depth="3" NCoef="0" IVar="-1" Cut="0.0000000000000000e+00" cType="1" res="-2.8134128078818321e-03" rms="3.7694001197814941e-01" purity="3.0357813835144043e-01" nType="-99"/>
          </Node>
          <Node pos="r" depth="2" NCoef="0" IVar="2" Cut="3.2215551757812500e+02" cType="1" res="-4.2648650705814362e-02" rms="3.6842113733291626e-01" purity="2.7196294069290161e-01" nType="0">
            <Node pos="l" depth="3" NCoef="0" IVar="-1" Cut="0.0000000000000000e+00" cType="1" res="-6.8548670969903469e-04" rms="3.9309552311897278e-01" purity="3.4795418381690979e-01" nType="-99"/>
            <Node pos="r" depth="3" NCoef="0" IVar="-1" Cut="0.0000000000000000e+00" cType="1" res="-4.8886374570429325e-03" rms="3.4445002675056458e-01" purity="2.0784078538417816e-01" nType="-99"/>
          </Node>
        </Node>
      </Node>
    </BinaryTree>
    <BinaryTree type="DecisionTree" boostWeight="1.0000000000000000e+00" itree="386">
      <Node pos="s" depth="0" NCoef="0" IVar="6" Cut="-6.5973436832427979e-01" cType="1" res="4.9427566118538380e-03" rms="3.9338457584381104e-01" purity="4.9797007441520691e-01" nType="0">
        <Node pos="l" depth="1" NCoef="0" IVar="0" Cut="1.8094371337890625e+03" cType="1" res="-2.6754723861813545e-02" rms="3.8302695751190186e-01" purity="3.7133118510246277e-01" nType="0">
          <Node pos="l" depth="2" NCoef="0" IVar="3" Cut="1.5493283081054688e+02" cType="1" res="-3.5955056548118591e-02" rms="3.7964278459548950e-01" purity="3.3653867244720459e-01" nType="0">
            <Node pos="l" depth="3" NCoef="0" IVar="-1" Cut="0.0000000000000000e+00" cType="1" res="1.3120839139446616e-04" rms="3.8414871692657471e-01" purity="2.6634049415588379e-01" nType="-99"/>
            <Node pos="r" depth="3" NCoef="0" IVar="-1" Cut="0.0000000000000000e+00" cType="1" res="-2.7131598908454180e-03" rms="3.7630710005760193e-01" purity="3.6823752522468567e-01" nType="-99"/>
          </Node>
          <Node pos="r" depth="2" NCoef="0" IVar="-1" Cut="0.0000000000000000e+00" cType="1" res="1.3450323604047298e-03" rms="3.9929938316345215e-01" purity="5.9949314594268799e-01" nType="-99"/>
        </Node>
        <Node pos="r" depth="1" NCoef="0" IVar="6" Cut="6.5814375877380371e-01" cType="1" res="1.4842545613646507e-02" rms="3.9604449272155762e-01" purity="5.3752201795578003e-01" nType="0">
          <Node pos="l" depth="2" NCoef="0" IVar="0" Cut="1.1315443115234375e+03" cType="1" res="3.0702816322445869e-02" rms="3.9703139662742615e-01" purity="6.1080950498580933e-01" nType="0">
            <Node pos="l" depth="3" NCoef="0" IVar="-1" Cut="0.0000000000000000e+00" cType="1" res="-6.9643242750316858e-04" rms="4.4178590178489685e-01" purity="3.5049089789390564e-01" nType="-99"/>
            <Node pos="r" depth="3" NCoef="0" IVar="-1" Cut="0.0000000000000000e+00" cType="1" res="1.6126341652125120e-03" rms="3.8605070114135742e-01" purity="6.6602843999862671e-01" nType="-99"/>
          </Node>
          <Node pos="r" depth="2" NCoef="0" IVar="3" Cut="2.5018032836914062e+02" cType="1" res="-1.9300235435366631e-02" rms="3.9173853397369385e-01" purity="3.7975430488586426e-01" nType="0">
            <Node pos="l" depth="3" NCoef="0" IVar="-1" Cut="0.0000000000000000e+00" cType="1" res="-2.7783680707216263e-04" rms="3.8978341221809387e-01" purity="3.8233435153961182e-01" nType="-99"/>
            <Node pos="r" depth="3" NCoef="0" IVar="-1" Cut="0.0000000000000000e+00" cType="1" res="-3.2778936438262463e-03" rms="3.9515617489814758e-01" purity="3.7139117717742920e-01" nType="-99"/>
          </Node>
        </Node>
      </Node>
    </BinaryTree>
    <BinaryTree type="DecisionTree" boostWeight="1.0000000000000000e+00" itree="387">
      <Node pos="s" depth="0" NCoef="0" IVar="0" Cut="1.4401011962890625e+03" cType="1" res="3.9828071021474898e-04" rms="3.9092287421226501e-01" purity="4.9532321095466614e-01" nType="0">
        <Node pos="l" depth="1" NCoef="0" IVar="2" Cut="2.5412443542480469e+02" cType="1" res="-1.8397809937596321e-02" rms="3.9868056774139404e-01" purity="3.9027264714241028e-01" nType="0">
          <Node pos="l" depth="2" NCoef="0" IVar="0" Cut="1.0133995971679688e+03" cType="1" res="1.7648953944444656e-02" rms="4.0997034311294556e-01" purity="5.1683777570724487e-01" nType="0">
            <Node pos="l" depth="3" NCoef="0" IVar="-1" Cut="0.0000000000000000e+00" cType="1" res="-2.9158617835491896e-03" rms="3.9393663406372070e-01" purity="2.3619391024112701e-01" nType="-99"/>
            <Node pos="r" depth="3" NCoef="0" IVar="-1" Cut="0.0000000000000000e+00" cType="1" res="1.5437955735251307e-03" rms="4.1232106089591980e-01" purity="6.1740100383758545e-01" nType="-99"/>
          </Node>
          <Node pos="r" depth="2" NCoef="0" IVar="3" Cut="2.4330860900878906e+02" cType="1" res="-3.5445149987936020e-02" rms="3.9207595586776733e-01" purity="3.3041709661483765e-01" nType="0">
            <Node pos="l" depth="3" NCoef="0" IVar="-1" Cut="0.0000000000000000e+00" cType="1" res="-1.2028845958411694e-03" rms="3.9231628179550171e-01" purity="3.3659800887107849e-01" nType="-99"/>
            <Node pos="r" depth="3" NCoef="0" IVar="-1" Cut="0.0000000000000000e+00" cType="1" res="-5.2902051247656345e-03" rms="3.8583207130432129e-01" purity="2.8945121169090271e-01" nType="-99"/>
          </Node>
        </Node>
        <Node pos="r" depth="1" NCoef="0" IVar="3" Cut="3.4304379272460938e+02" cType="1" res="2.5050964206457138e-02" rms="3.7909814715385437e-01" purity="6.3310605287551880e-01" nType="0">
          <Node pos="l" depth="2" NCoef="0" IVar="2" Cut="3.2737280273437500e+02" cType="1" res="4.0439803153276443e-02" rms="3.7070399522781372e-01" purity="6.6923308372497559e-01" nType="0">
            <Node pos="l" depth="3" NCoef="0" IVar="-1" Cut="0.0000000000000000e+00" cType="1" res="3.6540653090924025e-03" rms="2.7834028005599976e-01" purity="8.9253032207489014e-01" nType="-99"/>
            <Node pos="r" depth="3" NCoef="0" IVar="-1" Cut="0.0000000000000000e+00" cType="1" res="9.0509303845465183e-04" rms="4.0122339129447937e-01" purity="5.7710939645767212e-01" nType="-99"/>
          </Node>
          <Node pos="r" depth="2" NCoef="0" IVar="0" Cut="2.0192318115234375e+03" cType="1" res="-5.4611265659332275e-02" rms="4.1076132655143738e-01" purity="4.4608986377716064e-01" nType="0">
            <Node pos="l" depth="3" NCoef="0" IVar="-1" Cut="0.0000000000000000e+00" cType="1" res="-5.8797304518520832e-03" rms="3.9132842421531677e-01" purity="3.3597913384437561e-01" nType="-99"/>
            <Node pos="r" depth="3" NCoef="0" IVar="-1" Cut="0.0000000000000000e+00" cType="1" res="-6.8330124486237764e-04" rms="4.2583248019218445e-01" purity="5.5548828840255737e-01" nType="-99"/>
          </Node>
        </Node>
      </Node>
    </BinaryTree>
    <BinaryTree type="DecisionTree" boostWeight="1.0000000000000000e+00" itree="388">
      <Node pos="s" depth="0" NCoef="0" IVar="9" Cut="1.7333267927169800e+00" cType="1" res="4.9395486712455750e-03" rms="3.9457166194915771e-01" purity="4.9651801586151123e-01" nType="0">
        <Node pos="l" depth="1" NCoef="0" IVar="9" Cut="-1.0729707479476929e+00" cType="1" res="1.0123112238943577e-02" rms="3.9722311496734619e-01" purity="5.1370704174041748e-01" nType="0">
          <Node pos="l" depth="2" NCoef="0" IVar="9" Cut="-2.0598001480102539e+00" cType="1" res="-3.7093952298164368e-02" rms="3.8104933500289917e-01" purity="3.5095089673995972e-01" nType="0">
            <Node pos="l" depth="3" NCoef="0" IVar="-1" Cut="0.0000000000000000e+00" cType="1" res="-5.5371401831507683e-03" rms="3.3314070105552673e-01" purity="1.9551652669906616e-01" nType="-99"/>
            <Node pos="r" depth="3" NCoef="0" IVar="-1" Cut="0.0000000000000000e+00" cType="1" res="-1.2935051927343011e-03" rms="3.9158797264099121e-01" purity="3.9085012674331665e-01" nType="-99"/>
          </Node>
          <Node pos="r" depth="2" NCoef="0" IVar="0" Cut="1.1316490478515625e+03" cType="1" res="2.0192047581076622e-02" rms="3.9986705780029297e-01" purity="5.4841440916061401e-01" nType="0">
            <Node pos="l" depth="3" NCoef="0" IVar="-1" Cut="0.0000000000000000e+00" cType="1" res="-5.5838609114289284e-04" rms="4.2455297708511353e-01" purity="3.0654144287109375e-01" nType="-99"/>
            <Node pos="r" depth="3" NCoef="0" IVar="-1" Cut="0.0000000000000000e+00" cType="1" res="1.1469727614894509e-03" rms="3.9321774244308472e-01" purity="6.0688066482543945e-01" nType="-99"/>
          </Node>
        </Node>
        <Node pos="r" depth="1" NCoef="0" IVar="3" Cut="1.8349467468261719e+02" cType="1" res="-7.3352143168449402e-02" rms="3.4269890189170837e-01" purity="2.3689782619476318e-01" nType="0">
          <Node pos="l" depth="2" NCoef="0" IVar="-1" Cut="0.0000000000000000e+00" cType="1" res="-2.6849871501326561e-03" rms="3.3325949311256409e-01" purity="2.0273922383785248e-01" nType="-99"/>
          <Node pos="r" depth="2" NCoef="0" IVar="-1" Cut="0.0000000000000000e+00" cType="1" res="-6.6175903193652630e-03" rms="3.4857678413391113e-01" purity="2.6888048648834229e-01" nType="-99"/>
        </Node>
      </Node>
    </BinaryTree>
    <BinaryTree type="DecisionTree" boostWeight="1.0000000000000000e+00" itree="389">
      <Node pos="s" depth="0" NCoef="0" IVar="0" Cut="1.7446025390625000e+03" cType="1" res="8.1929620355367661e-03" rms="3.9493039250373840e-01" purity="5.0109648704528809e-01" nType="0">
        <Node pos="l" depth="1" NCoef="0" IVar="2" Cut="3.1293170166015625e+02" cType="1" res="-2.9284000629559159e-04" rms="3.9578425884246826e-01" purity="4.6541860699653625e-01" nType="0">
          <Node pos="l" depth="2" NCoef="0" IVar="0" Cut="1.3398514404296875e+03" cType="1" res="2.2603277117013931e-02" rms="3.9794096350669861e-01" purity="5.5466192960739136e-01" nType="0">
            <Node pos="l" depth="3" NCoef="0" IVar="-1" Cut="0.0000000000000000e+00" cType="1" res="-1.5287978385458700e-05" rms="4.2468360066413879e-01" purity="4.3331998586654663e-01" nType="-99"/>
            <Node pos="r" depth="3" NCoef="0" IVar="-1" Cut="0.0000000000000000e+00" cType="1" res="3.0583867337554693e-03" rms="3.1596377491950989e-01" purity="8.5267883539199829e-01" nType="-99"/>
          </Node>
          <Node pos="r" depth="2" NCoef="0" IVar="3" Cut="2.5113214111328125e+02" cType="1" res="-2.4287698790431023e-02" rms="3.9207914471626282e-01" purity="3.7189269065856934e-01" nType="0">
            <Node pos="l" depth="3" NCoef="0" IVar="-1" Cut="0.0000000000000000e+00" cType="1" res="-5.2364740986377001e-04" rms="3.9109292626380920e-01" purity="3.7106189131736755e-01" nType="-99"/>
            <Node pos="r" depth="3" NCoef="0" IVar="-1" Cut="0.0000000000000000e+00" cType="1" res="-3.4044620115309954e-03" rms="3.9251843094825745e-01" purity="3.7424358725547791e-01" nType="-99"/>
          </Node>
        </Node>
        <Node pos="r" depth="1" NCoef="0" IVar="3" Cut="3.4379595947265625e+02" cType="1" res="4.6359557658433914e-02" rms="3.8878375291824341e-01" purity="6.6156482696533203e-01" nType="0">
          <Node pos="l" depth="2" NCoef="0" IVar="2" Cut="5.9874670410156250e+02" cType="1" res="7.7152088284492493e-02" rms="3.6913394927978516e-01" purity="7.2665190696716309e-01" nType="0">
            <Node pos="l" depth="3" NCoef="0" IVar="-1" Cut="0.0000000000000000e+00" cType="1" res="4.0208077989518642e-03" rms="3.2386437058448792e-01" purity="8.4071362018585205e-01" nType="-99"/>
            <Node pos="r" depth="3" NCoef="0" IVar="-1" Cut="0.0000000000000000e+00" cType="1" res="1.1308019747957587e-03" rms="4.3128398060798645e-01" purity="5.3334462642669678e-01" nType="-99"/>
          </Node>
          <Node pos="r" depth="2" NCoef="0" IVar="6" Cut="-4.8549812287092209e-02" cType="1" res="-2.3962436243891716e-02" rms="4.2196410894393921e-01" purity="5.1292318105697632e-01" nType="0">
            <Node pos="l" depth="3" NCoef="0" IVar="-1" Cut="0.0000000000000000e+00" cType="1" res="-1.4439101796597242e-03" rms="4.0993493795394897e-01" purity="5.1545280218124390e-01" nType="-99"/>
            <Node pos="r" depth="3" NCoef="0" IVar="-1" Cut="0.0000000000000000e+00" cType="1" res="-7.5053080217912793e-04" rms="4.3203222751617432e-01" purity="5.1072651147842407e-01" nType="-99"/>
          </Node>
        </Node>
      </Node>
    </BinaryTree>
    <BinaryTree type="DecisionTree" boostWeight="1.0000000000000000e+00" itree="390">
      <Node pos="s" depth="0" NCoef="0" IVar="0" Cut="1.9709425048828125e+03" cType="1" res="7.6767401769757271e-03" rms="3.9373162388801575e-01" purity="4.9906280636787415e-01" nType="0">
        <Node pos="l" depth="1" NCoef="0" IVar="1" Cut="3.3508828735351562e+02" cType="1" res="1.8135464051738381e-03" rms="3.9221745729446411e-01" purity="4.8040947318077087e-01" nType="0">
          <Node pos="l" depth="2" NCoef="0" IVar="2" Cut="4.7735241699218750e+02" cType="1" res="-3.9472680538892746e-02" rms="3.8127458095550537e-01" purity="3.0899417400360107e-01" nType="0">
            <Node pos="l" depth="3" NCoef="0" IVar="-1" Cut="0.0000000000000000e+00" cType="1" res="-1.4225456397980452e-03" rms="3.8869482278823853e-01" purity="3.3189967274665833e-01" nType="-99"/>
            <Node pos="r" depth="3" NCoef="0" IVar="-1" Cut="0.0000000000000000e+00" cType="1" res="-6.7810324253514409e-04" rms="3.2049161195755005e-01" purity="1.4954023063182831e-01" nType="-99"/>
          </Node>
          <Node pos="r" depth="2" NCoef="0" IVar="2" Cut="2.8786428833007812e+02" cType="1" res="1.5033348463475704e-02" rms="3.9474573731422424e-01" purity="5.3529649972915649e-01" nType="0">
            <Node pos="l" depth="3" NCoef="0" IVar="-1" Cut="0.0000000000000000e+00" cType="1" res="1.8610932165756822e-03" rms="3.7957006692886353e-01" purity="6.4427137374877930e-01" nType="-99"/>
            <Node pos="r" depth="3" NCoef="0" IVar="-1" Cut="0.0000000000000000e+00" cType="1" res="-2.0043953554704785e-04" rms="4.0197256207466125e-01" purity="4.7228550910949707e-01" nType="-99"/>
          </Node>
        </Node>
        <Node pos="r" depth="1" NCoef="0" IVar="2" Cut="6.1068688964843750e+02" cType="1" res="6.4717456698417664e-02" rms="4.0374994277954102e-01" purity="6.8053352832794189e-01" nType="0">
          <Node pos="l" depth="2" NCoef="0" IVar="-1" Cut="0.0000000000000000e+00" cType="1" res="4.0715406648814678e-03" rms="3.4741005301475525e-01" purity="8.1666463613510132e-01" nType="-99"/>
          <Node pos="r" depth="2" NCoef="0" IVar="-1" Cut="0.0000000000000000e+00" cType="1" res="5.5626605171710253e-04" rms="4.4387495517730713e-01" purity="5.5474972724914551e-01" nType="-99"/>
        </Node>
      </Node>
    </BinaryTree>
    <BinaryTree type="DecisionTree" boostWeight="1.0000000000000000e+00" itree="391">
      <Node pos="s" depth="0" NCoef="0" IVar="0" Cut="1.7601209716796875e+03" cType="1" res="1.0052056051790714e-02" rms="3.9474564790725708e-01" purity="5.0325632095336914e-01" nType="0">
        <Node pos="l" depth="1" NCoef="0" IVar="2" Cut="3.5506048583984375e+02" cType="1" res="2.2823684848845005e-03" rms="3.9463332295417786e-01" purity="4.6925845742225647e-01" nType="0">
          <Node pos="l" depth="2" NCoef="0" IVar="0" Cut="1.3028953857421875e+03" cType="1" res="2.0477237179875374e-02" rms="3.9632421731948853e-01" purity="5.4343277215957642e-01" nType="0">
            <Node pos="l" depth="3" NCoef="0" IVar="-1" Cut="0.0000000000000000e+00" cType="1" res="-4.8409689043182880e-05" rms="4.2067283391952515e-01" purity="3.9740353822708130e-01" nType="-99"/>
            <Node pos="r" depth="3" NCoef="0" IVar="-1" Cut="0.0000000000000000e+00" cType="1" res="2.2689790930598974e-03" rms="3.4901452064514160e-01" purity="7.8689575195312500e-01" nType="-99"/>
          </Node>
          <Node pos="r" depth="2" NCoef="0" IVar="2" Cut="5.7472717285156250e+02" cType="1" res="-3.0045824125409126e-02" rms="3.8952004909515381e-01" purity="3.3746728301048279e-01" nType="0">
            <Node pos="l" depth="3" NCoef="0" IVar="-1" Cut="0.0000000000000000e+00" cType="1" res="-1.0263319127261639e-03" rms="3.9691370725631714e-01" purity="3.6525312066078186e-01" nType="-99"/>
            <Node pos="r" depth="3" NCoef="0" IVar="-1" Cut="0.0000000000000000e+00" cType="1" res="-8.0622900277376175e-03" rms="3.3183369040489197e-01" purity="1.5521080791950226e-01" nType="-99"/>
          </Node>
        </Node>
        <Node pos="r" depth="1" NCoef="0" IVar="3" Cut="3.4091088867187500e+02" cType="1" res="4.7222577035427094e-02" rms="3.9316380023956299e-01" purity="6.6590368747711182e-01" nType="0">
          <Node pos="l" depth="2" NCoef="0" IVar="0" Cut="1.9892739257812500e+03" cType="1" res="7.9679489135742188e-02" rms="3.7349125742912292e-01" purity="7.3267340660095215e-01" nType="0">
            <Node pos="l" depth="3" NCoef="0" IVar="-1" Cut="0.0000000000000000e+00" cType="1" res="2.0513476338237524e-03" rms="3.7028658390045166e-01" purity="7.0647889375686646e-01" nType="-99"/>
            <Node pos="r" depth="3" NCoef="0" IVar="-1" Cut="0.0000000000000000e+00" cType="1" res="3.8209953345358372e-03" rms="3.7412276864051819e-01" purity="7.6717096567153931e-01" nType="-99"/>
          </Node>
          <Node pos="r" depth="2" NCoef="0" IVar="8" Cut="1.3293880224227905e-01" cType="1" res="-2.3810705170035362e-02" rms="4.2454001307487488e-01" purity="5.1977556943893433e-01" nType="0">
            <Node pos="l" depth="3" NCoef="0" IVar="-1" Cut="0.0000000000000000e+00" cType="1" res="-1.6359372530132532e-03" rms="4.1632696986198425e-01" purity="5.2032488584518433e-01" nType="-99"/>
            <Node pos="r" depth="3" NCoef="0" IVar="-1" Cut="0.0000000000000000e+00" cType="1" res="-4.1285183397121727e-04" rms="4.3343770503997803e-01" purity="5.1913917064666748e-01" nType="-99"/>
          </Node>
        </Node>
      </Node>
    </BinaryTree>
    <BinaryTree type="DecisionTree" boostWeight="1.0000000000000000e+00" itree="392">
      <Node pos="s" depth="0" NCoef="0" IVar="0" Cut="1.4570319824218750e+03" cType="1" res="8.1734107807278633e-03" rms="3.9472758769989014e-01" purity="5.0402677059173584e-01" nType="0">
        <Node pos="l" depth="1" NCoef="0" IVar="2" Cut="2.8283312988281250e+02" cType="1" res="-7.5745768845081329e-03" rms="4.0433776378631592e-01" purity="4.0659457445144653e-01" nType="0">
          <Node pos="l" depth="2" NCoef="0" IVar="0" Cut="1.1441802978515625e+03" cType="1" res="1.5342213213443756e-02" rms="4.1300490498542786e-01" purity="5.1388281583786011e-01" nType="0">
            <Node pos="l" depth="3" NCoef="0" IVar="-1" Cut="0.0000000000000000e+00" cType="1" res="-8.1304903142154217e-04" rms="4.2602819204330444e-01" purity="3.1863036751747131e-01" nType="-99"/>
            <Node pos="r" depth="3" NCoef="0" IVar="-1" Cut="0.0000000000000000e+00" cType="1" res="1.7301089828833938e-03" rms="3.9621481299400330e-01" purity="7.1250367164611816e-01" nType="-99"/>
          </Node>
          <Node pos="r" depth="2" NCoef="0" IVar="3" Cut="1.5196994018554688e+02" cType="1" res="-2.8355481103062630e-02" rms="3.9516729116439819e-01" purity="3.0930581688880920e-01" nType="0">
            <Node pos="l" depth="3" NCoef="0" IVar="-1" Cut="0.0000000000000000e+00" cType="1" res="9.6206560556311160e-05" rms="3.8828578591346741e-01" purity="2.8081846237182617e-01" nType="-99"/>
            <Node pos="r" depth="3" NCoef="0" IVar="-1" Cut="0.0000000000000000e+00" cType="1" res="-2.2230951581150293e-03" rms="3.9822429418563843e-01" purity="3.2706445455551147e-01" nType="-99"/>
          </Node>
        </Node>
        <Node pos="r" depth="1" NCoef="0" IVar="2" Cut="7.1398022460937500e+02" cType="1" res="2.9985155910253525e-02" rms="3.7994024157524109e-01" purity="6.3897514343261719e-01" nType="0">
          <Node pos="l" depth="2" NCoef="0" IVar="3" Cut="3.0649380493164062e+02" cType="1" res="4.2564291507005692e-02" rms="3.7250754237174988e-01" purity="6.7237025499343872e-01" nType="0">
            <Node pos="l" depth="3" NCoef="0" IVar="-1" Cut="0.0000000000000000e+00" cType="1" res="2.4118404835462570e-03" rms="3.5655921697616577e-01" purity="7.2386574745178223e-01" nType="-99"/>
            <Node pos="r" depth="3" NCoef="0" IVar="-1" Cut="0.0000000000000000e+00" cType="1" res="-2.6065282872878015e-04" rms="4.1289466619491577e-01" purity="5.1815813779830933e-01" nType="-99"/>
          </Node>
          <Node pos="r" depth="2" NCoef="0" IVar="7" Cut="1.3343316316604614e-01" cType="1" res="-5.8666042983531952e-02" rms="4.1808483004570007e-01" purity="4.0362384915351868e-01" nType="0">
            <Node pos="l" depth="3" NCoef="0" IVar="-1" Cut="0.0000000000000000e+00" cType="1" res="-1.1481598485261202e-03" rms="4.3031817674636841e-01" purity="4.4953227043151855e-01" nType="-99"/>
            <Node pos="r" depth="3" NCoef="0" IVar="-1" Cut="0.0000000000000000e+00" cType="1" res="-3.2852668664418161e-04" rms="4.0165588259696960e-01" purity="3.5406845808029175e-01" nType="-99"/>
          </Node>
        </Node>
      </Node>
    </BinaryTree>
    <BinaryTree type="DecisionTree" boostWeight="1.0000000000000000e+00" itree="393">
      <Node pos="s" depth="0" NCoef="0" IVar="7" Cut="1.7332413196563721e+00" cType="1" res="6.3525340519845486e-03" rms="3.9502623677253723e-01" purity="4.9845367670059204e-01" nType="0">
        <Node pos="l" depth="1" NCoef="0" IVar="7" Cut="-1.5047477483749390e+00" cType="1" res="1.0346209630370140e-02" rms="3.9858356118202209e-01" purity="5.1580405235290527e-01" nType="0">
          <Node pos="l" depth="2" NCoef="0" IVar="4" Cut="1.2599568939208984e+02" cType="1" res="-5.7817589491605759e-02" rms="3.2988166809082031e-01" purity="1.9407019019126892e-01" nType="0">
            <Node pos="l" depth="3" NCoef="0" IVar="-1" Cut="0.0000000000000000e+00" cType="1" res="-2.3790297564119101e-03" rms="3.0876857042312622e-01" purity="1.4295263588428497e-01" nType="-99"/>
            <Node pos="r" depth="3" NCoef="0" IVar="-1" Cut="0.0000000000000000e+00" cType="1" res="-5.2483915351331234e-03" rms="3.4874439239501953e-01" purity="2.4951186776161194e-01" nType="-99"/>
          </Node>
          <Node pos="r" depth="2" NCoef="0" IVar="2" Cut="3.3919467163085938e+02" cType="1" res="1.6225805506110191e-02" rms="4.0342336893081665e-01" purity="5.4355579614639282e-01" nType="0">
            <Node pos="l" depth="3" NCoef="0" IVar="-1" Cut="0.0000000000000000e+00" cType="1" res="1.2766916770488024e-03" rms="3.9454004168510437e-01" purity="6.1314976215362549e-01" nType="-99"/>
            <Node pos="r" depth="3" NCoef="0" IVar="-1" Cut="0.0000000000000000e+00" cType="1" res="-1.0855521395569667e-04" rms="4.1192340850830078e-01" purity="4.6888923645019531e-01" nType="-99"/>
          </Node>
        </Node>
        <Node pos="r" depth="1" NCoef="0" IVar="-1" Cut="0.0000000000000000e+00" cType="1" res="-5.5298474617302418e-03" rms="3.1066069006919861e-01" purity="1.6962631046772003e-01" nType="-99"/>
      </Node>
    </BinaryTree>
    <BinaryTree type="DecisionTree" boostWeight="1.0000000000000000e+00" itree="394">
      <Node pos="s" depth="0" NCoef="0" IVar="8" Cut="1.4666464328765869e+00" cType="1" res="5.9671872295439243e-03" rms="3.9325845241546631e-01" purity="4.9883249402046204e-01" nType="0">
        <Node pos="l" depth="1" NCoef="0" IVar="0" Cut="1.1315443115234375e+03" cType="1" res="1.2700403109192848e-02" rms="3.9683750271797180e-01" purity="5.2469646930694580e-01" nType="0">
          <Node pos="l" depth="2" NCoef="0" IVar="3" Cut="1.3661506652832031e+02" cType="1" res="-2.5839975103735924e-02" rms="4.0917524695396423e-01" purity="2.7358400821685791e-01" nType="0">
            <Node pos="l" depth="3" NCoef="0" IVar="-1" Cut="0.0000000000000000e+00" cType="1" res="-1.1062390694860369e-04" rms="4.0927302837371826e-01" purity="2.6934868097305298e-01" nType="-99"/>
            <Node pos="r" depth="3" NCoef="0" IVar="-1" Cut="0.0000000000000000e+00" cType="1" res="-1.8712122691795230e-03" rms="4.0791466832160950e-01" purity="2.7745616436004639e-01" nType="-99"/>
          </Node>
          <Node pos="r" depth="2" NCoef="0" IVar="3" Cut="1.4932284545898438e+02" cType="1" res="2.2304659709334373e-02" rms="3.9311507344245911e-01" purity="5.8727359771728516e-01" nType="0">
            <Node pos="l" depth="3" NCoef="0" IVar="-1" Cut="0.0000000000000000e+00" cType="1" res="3.2239544671028852e-03" rms="4.1520541906356812e-01" purity="5.3416335582733154e-01" nType="-99"/>
            <Node pos="r" depth="3" NCoef="0" IVar="-1" Cut="0.0000000000000000e+00" cType="1" res="5.0572509644553065e-04" rms="3.8866171240806580e-01" purity="5.9522444009780884e-01" nType="-99"/>
          </Node>
        </Node>
        <Node pos="r" depth="1" NCoef="0" IVar="6" Cut="-3.2662311196327209e-01" cType="1" res="-6.4270205795764923e-02" rms="3.4604638814926147e-01" purity="2.2903358936309814e-01" nType="0">
          <Node pos="l" depth="2" NCoef="0" IVar="-1" Cut="0.0000000000000000e+00" cType="1" res="-7.8535247594118118e-03" rms="3.0553767085075378e-01" purity="1.4885218441486359e-01" nType="-99"/>
          <Node pos="r" depth="2" NCoef="0" IVar="8" Cut="1.8475989103317261e+00" cType="1" res="-4.4314306229352951e-02" rms="3.6442771553993225e-01" purity="2.7216392755508423e-01" nType="0">
            <Node pos="l" depth="3" NCoef="0" IVar="-1" Cut="0.0000000000000000e+00" cType="1" res="-5.8711064048111439e-04" rms="3.9469689130783081e-01" purity="3.4903106093406677e-01" nType="-99"/>
            <Node pos="r" depth="3" NCoef="0" IVar="-1" Cut="0.0000000000000000e+00" cType="1" res="-5.0673880614340305e-03" rms="3.3123540878295898e-01" purity="2.0133073627948761e-01" nType="-99"/>
          </Node>
        </Node>
      </Node>
    </BinaryTree>
    <BinaryTree type="DecisionTree" boostWeight="1.0000000000000000e+00" itree="395">
      <Node pos="s" depth="0" NCoef="0" IVar="2" Cut="5.4261920166015625e+02" cType="1" res="5.3513702005147934e-03" rms="3.9418956637382507e-01" purity="4.9834734201431274e-01" nType="0">
        <Node pos="l" depth="1" NCoef="0" IVar="0" Cut="1.2342893066406250e+03" cType="1" res="1.3278218917548656e-02" rms="3.9299622178077698e-01" purity="5.2034902572631836e-01" nType="0">
          <Node pos="l" depth="2" NCoef="0" IVar="5" Cut="9.9865798950195312e+01" cType="1" res="-1.8701726570725441e-02" rms="4.0691128373146057e-01" purity="3.1509429216384888e-01" nType="0">
            <Node pos="l" depth="3" NCoef="0" IVar="-1" Cut="0.0000000000000000e+00" cType="1" res="-1.3821416359860450e-04" rms="4.0160548686981201e-01" purity="2.9107439517974854e-01" nType="-99"/>
            <Node pos="r" depth="3" NCoef="0" IVar="-1" Cut="0.0000000000000000e+00" cType="1" res="-3.0088059138506651e-03" rms="4.2201980948448181e-01" purity="4.1328331828117371e-01" nType="-99"/>
          </Node>
          <Node pos="r" depth="2" NCoef="0" IVar="2" Cut="2.8159088134765625e+02" cType="1" res="3.3010769635438919e-02" rms="3.8282841444015503e-01" purity="6.4699703454971313e-01" nType="0">
            <Node pos="l" depth="3" NCoef="0" IVar="-1" Cut="0.0000000000000000e+00" cType="1" res="3.0298281926661730e-03" rms="3.3093178272247314e-01" purity="8.3747261762619019e-01" nType="-99"/>
            <Node pos="r" depth="3" NCoef="0" IVar="-1" Cut="0.0000000000000000e+00" cType="1" res="6.9247110513970256e-04" rms="3.9791303873062134e-01" purity="5.8095645904541016e-01" nType="-99"/>
          </Node>
        </Node>
        <Node pos="r" depth="1" NCoef="0" IVar="0" Cut="2.0548908691406250e+03" cType="1" res="-4.2500641196966171e-02" rms="3.9797890186309814e-01" purity="3.6552989482879639e-01" nType="0">
          <Node pos="l" depth="2" NCoef="0" IVar="2" Cut="6.8070086669921875e+02" cType="1" res="-7.2397448122501373e-02" rms="3.7423980236053467e-01" purity="2.4806785583496094e-01" nType="0">
            <Node pos="l" depth="3" NCoef="0" IVar="-1" Cut="0.0000000000000000e+00" cType="1" res="-2.6919713709503412e-03" rms="3.8013160228729248e-01" purity="2.7513560652732849e-01" nType="-99"/>
            <Node pos="r" depth="3" NCoef="0" IVar="-1" Cut="0.0000000000000000e+00" cType="1" res="-5.6715658865869045e-04" rms="3.5253125429153442e-01" purity="1.8944379687309265e-01" nType="-99"/>
          </Node>
          <Node pos="r" depth="2" NCoef="0" IVar="-1" Cut="0.0000000000000000e+00" cType="1" res="5.1437155343592167e-04" rms="4.3378651142120361e-01" purity="5.8768850564956665e-01" nType="-99"/>
        </Node>
      </Node>
    </BinaryTree>
    <BinaryTree type="DecisionTree" boostWeight="1.0000000000000000e+00" itree="396">
      <Node pos="s" depth="0" NCoef="0" IVar="3" Cut="3.3342077636718750e+02" cType="1" res="5.5264267139136791e-03" rms="3.9412915706634521e-01" purity="4.9952948093414307e-01" nType="0">
        <Node pos="l" depth="1" NCoef="0" IVar="0" Cut="1.8090577392578125e+03" cType="1" res="1.0533364489674568e-02" rms="3.9258238673210144e-01" purity="5.0469952821731567e-01" nType="0">
          <Node pos="l" depth="2" NCoef="0" IVar="2" Cut="3.2289965820312500e+02" cType="1" res="2.0639479625970125e-03" rms="3.9395710825920105e-01" purity="4.7793057560920715e-01" nType="0">
            <Node pos="l" depth="3" NCoef="0" IVar="-1" Cut="0.0000000000000000e+00" cType="1" res="8.5809914162382483e-04" rms="3.9679950475692749e-01" purity="5.5619335174560547e-01" nType="-99"/>
            <Node pos="r" depth="3" NCoef="0" IVar="-1" Cut="0.0000000000000000e+00" cType="1" res="-1.0941312648355961e-03" rms="3.8907456398010254e-01" purity="3.8133504986763000e-01" nType="-99"/>
          </Node>
          <Node pos="r" depth="2" NCoef="0" IVar="2" Cut="7.0148162841796875e+02" cType="1" res="8.4753334522247314e-02" rms="3.7216699123382568e-01" purity="7.3928397893905640e-01" nType="0">
            <Node pos="l" depth="3" NCoef="0" IVar="-1" Cut="0.0000000000000000e+00" cType="1" res="3.8971977774053812e-03" rms="3.3601042628288269e-01" purity="8.1855553388595581e-01" nType="-99"/>
            <Node pos="r" depth="3" NCoef="0" IVar="-1" Cut="0.0000000000000000e+00" cType="1" res="1.4674924314022064e-03" rms="4.3719375133514404e-01" purity="5.6865090131759644e-01" nType="-99"/>
          </Node>
        </Node>
        <Node pos="r" depth="1" NCoef="0" IVar="5" Cut="1.4550642395019531e+02" cType="1" res="-5.1223460584878922e-02" rms="4.0697082877159119e-01" purity="4.4093039631843567e-01" nType="0">
          <Node pos="l" depth="2" NCoef="0" IVar="-1" Cut="0.0000000000000000e+00" cType="1" res="-4.4466592371463776e-03" rms="3.9300376176834106e-01" purity="3.5155957937240601e-01" nType="-99"/>
          <Node pos="r" depth="2" NCoef="0" IVar="-1" Cut="0.0000000000000000e+00" cType="1" res="-5.2758411038666964e-04" rms="4.2572009563446045e-01" purity="5.8560109138488770e-01" nType="-99"/>
        </Node>
      </Node>
    </BinaryTree>
    <BinaryTree type="DecisionTree" boostWeight="1.0000000000000000e+00" itree="397">
      <Node pos="s" depth="0" NCoef="0" IVar="6" Cut="6.8396061658859253e-01" cType="1" res="2.8670316096395254e-03" rms="3.9387077093124390e-01" purity="4.9616885185241699e-01" nType="0">
        <Node pos="l" depth="1" NCoef="0" IVar="6" Cut="-6.2577235698699951e-01" cType="1" res="1.2897904030978680e-02" rms="3.9627715945243835e-01" purity="5.3661900758743286e-01" nType="0">
          <Node pos="l" depth="2" NCoef="0" IVar="3" Cut="1.9388299560546875e+02" cType="1" res="-1.8297486007213593e-02" rms="3.8947492837905884e-01" purity="3.8892239332199097e-01" nType="0">
            <Node pos="l" depth="3" NCoef="0" IVar="-1" Cut="0.0000000000000000e+00" cType="1" res="4.6105164801701903e-04" rms="3.9053693413734436e-01" purity="3.5301458835601807e-01" nType="-99"/>
            <Node pos="r" depth="3" NCoef="0" IVar="-1" Cut="0.0000000000000000e+00" cType="1" res="-2.2281259298324585e-03" rms="3.8645374774932861e-01" purity="4.2387261986732483e-01" nType="-99"/>
          </Node>
          <Node pos="r" depth="2" NCoef="0" IVar="2" Cut="4.7381555175781250e+02" cType="1" res="2.8123887255787849e-02" rms="3.9866968989372253e-01" purity="6.0870748758316040e-01" nType="0">
            <Node pos="l" depth="3" NCoef="0" IVar="-1" Cut="0.0000000000000000e+00" cType="1" res="1.4786972897127271e-03" rms="3.9158213138580322e-01" purity="6.4877152442932129e-01" nType="-99"/>
            <Node pos="r" depth="3" NCoef="0" IVar="-1" Cut="0.0000000000000000e+00" cType="1" res="-6.8434962304309011e-04" rms="4.2225867509841919e-01" purity="4.5374310016632080e-01" nType="-99"/>
          </Node>
        </Node>
        <Node pos="r" depth="1" NCoef="0" IVar="8" Cut="-6.6672760248184204e-01" cType="1" res="-3.0128335580229759e-02" rms="3.8400527834892273e-01" purity="3.6311256885528564e-01" nType="0">
          <Node pos="l" depth="2" NCoef="0" IVar="9" Cut="-1.3323053717613220e-01" cType="1" res="-7.2954282164573669e-02" rms="3.5021331906318665e-01" purity="2.4360007047653198e-01" nType="0">
            <Node pos="l" depth="3" NCoef="0" IVar="-1" Cut="0.0000000000000000e+00" cType="1" res="-3.4775179810822010e-03" rms="3.5488820075988770e-01" purity="2.7065730094909668e-01" nType="-99"/>
            <Node pos="r" depth="3" NCoef="0" IVar="-1" Cut="0.0000000000000000e+00" cType="1" res="-5.8083073236048222e-03" rms="3.4525671601295471e-01" purity="2.1919627487659454e-01" nType="-99"/>
          </Node>
          <Node pos="r" depth="2" NCoef="0" IVar="0" Cut="1.4919061279296875e+03" cType="1" res="-1.6914531588554382e-02" rms="3.9290559291839600e-01" purity="3.9998772740364075e-01" nType="0">
            <Node pos="l" depth="3" NCoef="0" IVar="-1" Cut="0.0000000000000000e+00" cType="1" res="-1.6541057266294956e-03" rms="3.8989740610122681e-01" purity="3.0691248178482056e-01" nType="-99"/>
            <Node pos="r" depth="3" NCoef="0" IVar="-1" Cut="0.0000000000000000e+00" cType="1" res="7.2471034945920110e-04" rms="3.9625674486160278e-01" purity="5.7622998952865601e-01" nType="-99"/>
          </Node>
        </Node>
      </Node>
    </BinaryTree>
    <BinaryTree type="DecisionTree" boostWeight="1.0000000000000000e+00" itree="398">
      <Node pos="s" depth="0" NCoef="0" IVar="7" Cut="-9.3329852819442749e-01" cType="1" res="4.6275146305561066e-03" rms="3.9475572109222412e-01" purity="4.9988412857055664e-01" nType="0">
        <Node pos="l" depth="1" NCoef="0" IVar="3" Cut="1.8253971862792969e+02" cType="1" res="-3.3846229314804077e-02" rms="3.8043969869613647e-01" purity="3.1579107046127319e-01" nType="0">
          <Node pos="l" depth="2" NCoef="0" IVar="6" Cut="-3.7389945983886719e-01" cType="1" res="-1.0066695977002382e-03" rms="3.8568994402885437e-01" purity="2.7390882372856140e-01" nType="0">
            <Node pos="l" depth="3" NCoef="0" IVar="-1" Cut="0.0000000000000000e+00" cType="1" res="-1.1305824154987931e-03" rms="3.6057168245315552e-01" purity="2.3484981060028076e-01" nType="-99"/>
            <Node pos="r" depth="3" NCoef="0" IVar="-1" Cut="0.0000000000000000e+00" cType="1" res="6.5145042026415467e-04" rms="4.0228855609893799e-01" purity="3.0206155776977539e-01" nType="-99"/>
          </Node>
          <Node pos="r" depth="2" NCoef="0" IVar="0" Cut="1.6461180419921875e+03" cType="1" res="-6.1880741268396378e-02" rms="3.7362277507781982e-01" purity="3.5154515504837036e-01" nType="0">
            <Node pos="l" depth="3" NCoef="0" IVar="-1" Cut="0.0000000000000000e+00" cType="1" res="-4.6654478646814823e-03" rms="3.7059241533279419e-01" purity="2.8563499450683594e-01" nType="-99"/>
            <Node pos="r" depth="3" NCoef="0" IVar="-1" Cut="0.0000000000000000e+00" cType="1" res="-8.3840696606785059e-04" rms="3.7602040171623230e-01" purity="4.9030825495719910e-01" nType="-99"/>
          </Node>
        </Node>
        <Node pos="r" depth="1" NCoef="0" IVar="7" Cut="6.6671401262283325e-01" cType="1" res="1.2731048278510571e-02" rms="3.9723050594329834e-01" purity="5.3865879774093628e-01" nType="0">
          <Node pos="l" depth="2" NCoef="0" IVar="0" Cut="1.1316768798828125e+03" cType="1" res="2.7617493644356728e-02" rms="4.0167686343193054e-01" purity="6.0645043849945068e-01" nType="0">
            <Node pos="l" depth="3" NCoef="0" IVar="-1" Cut="0.0000000000000000e+00" cType="1" res="-5.8470753720030189e-04" rms="4.4401276111602783e-01" purity="3.5434517264366150e-01" nType="-99"/>
            <Node pos="r" depth="3" NCoef="0" IVar="-1" Cut="0.0000000000000000e+00" cType="1" res="1.1234707199037075e-03" rms="3.9177209138870239e-01" purity="6.5841490030288696e-01" nType="-99"/>
          </Node>
          <Node pos="r" depth="2" NCoef="0" IVar="7" Cut="1.9873126745223999e+00" cType="1" res="-2.3398535326123238e-02" rms="3.8383275270462036e-01" purity="3.7412741780281067e-01" nType="0">
            <Node pos="l" depth="3" NCoef="0" IVar="-1" Cut="0.0000000000000000e+00" cType="1" res="-6.3754623988643289e-04" rms="3.9507040381431580e-01" purity="4.0922778844833374e-01" nType="-99"/>
            <Node pos="r" depth="3" NCoef="0" IVar="-1" Cut="0.0000000000000000e+00" cType="1" res="-8.1311790272593498e-03" rms="2.8418338298797607e-01" purity="1.2694895267486572e-01" nType="-99"/>
          </Node>
        </Node>
      </Node>
    </BinaryTree>
    <BinaryTree type="DecisionTree" boostWeight="1.0000000000000000e+00" itree="399">
      <Node pos="s" depth="0" NCoef="0" IVar="8" Cut="-9.3333774805068970e-01" cType="1" res="6.4873257651925087e-03" rms="3.9192715287208557e-01" purity="5.0118827819824219e-01" nType="0">
        <Node pos="l" depth="1" NCoef="0" IVar="7" Cut="9.3286323547363281e-01" cType="1" res="-3.8064636290073395e-02" rms="3.7178522348403931e-01" purity="3.4224459528923035e-01" nType="0">
          <Node pos="l" depth="2" NCoef="0" IVar="7" Cut="-1.1995208263397217e+00" cType="1" res="-2.8874784708023071e-02" rms="3.8274231553077698e-01" purity="3.7655219435691833e-01" nType="0">
            <Node pos="l" depth="3" NCoef="0" IVar="-1" Cut="0.0000000000000000e+00" cType="1" res="-6.6400044597685337e-03" rms="2.9453974962234497e-01" purity="1.3072426617145538e-01" nType="-99"/>
            <Node pos="r" depth="3" NCoef="0" IVar="-1" Cut="0.0000000000000000e+00" cType="1" res="-6.7286187550053000e-04" rms="4.0151742100715637e-01" purity="4.4092398881912231e-01" nType="-99"/>
          </Node>
          <Node pos="r" depth="2" NCoef="0" IVar="-1" Cut="0.0000000000000000e+00" cType="1" res="-6.2286546453833580e-03" rms="3.0422705411911011e-01" purity="1.6400593519210815e-01" nType="-99"/>
        </Node>
        <Node pos="r" depth="1" NCoef="0" IVar="8" Cut="6.6666519641876221e-01" cType="1" res="1.6797523945569992e-02" rms="3.9572855830192566e-01" purity="5.3797096014022827e-01" nType="0">
          <Node pos="l" depth="2" NCoef="0" IVar="0" Cut="1.7005847167968750e+03" cType="1" res="3.3509284257888794e-02" rms="3.9854624867439270e-01" purity="5.9992015361785889e-01" nType="0">
            <Node pos="l" depth="3" NCoef="0" IVar="-1" Cut="0.0000000000000000e+00" cType="1" res="9.3555339844897389e-04" rms="4.0419253706932068e-01" purity="5.5869001150131226e-01" nType="-99"/>
            <Node pos="r" depth="3" NCoef="0" IVar="-1" Cut="0.0000000000000000e+00" cType="1" res="2.4251961149275303e-03" rms="3.7801420688629150e-01" purity="7.3332297801971436e-01" nType="-99"/>
          </Node>
          <Node pos="r" depth="2" NCoef="0" IVar="6" Cut="-6.5116810798645020e-01" cType="1" res="-1.8397789448499680e-02" rms="3.8737687468528748e-01" purity="4.0750470757484436e-01" nType="0">
            <Node pos="l" depth="3" NCoef="0" IVar="-1" Cut="0.0000000000000000e+00" cType="1" res="-3.9077289402484894e-03" rms="3.5857298970222473e-01" purity="2.5787341594696045e-01" nType="-99"/>
            <Node pos="r" depth="3" NCoef="0" IVar="-1" Cut="0.0000000000000000e+00" cType="1" res="-3.2613502116873860e-04" rms="3.9412721991539001e-01" purity="4.4819980859756470e-01" nType="-99"/>
          </Node>
        </Node>
      </Node>
    </BinaryTree>
    <BinaryTree type="DecisionTree" boostWeight="1.0000000000000000e+00" itree="400">
      <Node pos="s" depth="0" NCoef="0" IVar="0" Cut="1.7602031250000000e+03" cType="1" res="9.6098333597183228e-03" rms="3.9178758859634399e-01" purity="5.0505703687667847e-01" nType="0">
        <Node pos="l" depth="1" NCoef="0" IVar="2" Cut="3.0586627197265625e+02" cType="1" res="1.1506172595545650e-03" rms="3.9155235886573792e-01" purity="4.7017237544059753e-01" nType="0">
          <Node pos="l" depth="2" NCoef="0" IVar="0" Cut="1.0287077636718750e+03" cType="1" res="2.5657698512077332e-02" rms="3.9088037610054016e-01" purity="5.6442093849182129e-01" nType="0">
            <Node pos="l" depth="3" NCoef="0" IVar="-1" Cut="0.0000000000000000e+00" cType="1" res="-1.7617346020415425e-03" rms="3.9494416117668152e-01" purity="2.3920740187168121e-01" nType="-99"/>
            <Node pos="r" depth="3" NCoef="0" IVar="-1" Cut="0.0000000000000000e+00" cType="1" res="1.6234853537753224e-03" rms="3.8786378502845764e-01" purity="6.5131181478500366e-01" nType="-99"/>
          </Node>
          <Node pos="r" depth="2" NCoef="0" IVar="3" Cut="2.8683807373046875e+02" cType="1" res="-2.1429697051644325e-02" rms="3.9081257581710815e-01" purity="3.8333386182785034e-01" nType="0">
            <Node pos="l" depth="3" NCoef="0" IVar="-1" Cut="0.0000000000000000e+00" cType="1" res="-5.7654111878946424e-04" rms="3.9013439416885376e-01" purity="3.9104548096656799e-01" nType="-99"/>
            <Node pos="r" depth="3" NCoef="0" IVar="-1" Cut="0.0000000000000000e+00" cType="1" res="-4.1116918437182903e-03" rms="3.9058348536491394e-01" purity="3.3963784575462341e-01" nType="-99"/>
          </Node>
        </Node>
        <Node pos="r" depth="1" NCoef="0" IVar="2" Cut="6.4024780273437500e+02" cType="1" res="4.9683496356010437e-02" rms="3.9041715860366821e-01" purity="6.7031538486480713e-01" nType="0">
          <Node pos="l" depth="2" NCoef="0" IVar="3" Cut="3.0143792724609375e+02" cType="1" res="8.2208752632141113e-02" rms="3.5928580164909363e-01" purity="7.7057218551635742e-01" nType="0">
            <Node pos="l" depth="3" NCoef="0" IVar="-1" Cut="0.0000000000000000e+00" cType="1" res="3.9704763330519199e-03" rms="3.1318300962448120e-01" purity="8.5473579168319702e-01" nType="-99"/>
            <Node pos="r" depth="3" NCoef="0" IVar="-1" Cut="0.0000000000000000e+00" cType="1" res="1.8841581186279655e-03" rms="4.0662673115730286e-01" purity="6.6720592975616455e-01" nType="-99"/>
          </Node>
          <Node pos="r" depth="2" NCoef="0" IVar="1" Cut="6.0627282714843750e+02" cType="1" res="-1.2959936633706093e-02" rms="4.3751016259193420e-01" purity="4.7722151875495911e-01" nType="0">
            <Node pos="l" depth="3" NCoef="0" IVar="-1" Cut="0.0000000000000000e+00" cType="1" res="-3.2173264771699905e-03" rms="4.2260903120040894e-01" purity="3.2309657335281372e-01" nType="-99"/>
            <Node pos="r" depth="3" NCoef="0" IVar="-1" Cut="0.0000000000000000e+00" cType="1" res="9.3943852698430419e-04" rms="4.4747146964073181e-01" purity="6.2523025274276733e-01" nType="-99"/>
          </Node>
        </Node>
      </Node>
    </BinaryTree>
    <BinaryTree type="DecisionTree" boostWeight="1.0000000000000000e+00" itree="401">
      <Node pos="s" depth="0" NCoef="0" IVar="6" Cut="9.5465463399887085e-01" cType="1" res="6.3271634280681610e-03" rms="3.9550662040710449e-01" purity="4.9971470236778259e-01" nType="0">
        <Node pos="l" depth="1" NCoef="0" IVar="7" Cut="-6.6665780544281006e-01" cType="1" res="1.3803650625050068e-02" rms="3.9842626452445984e-01" purity="5.3720134496688843e-01" nType="0">
          <Node pos="l" depth="2" NCoef="0" IVar="9" Cut="-1.1998709440231323e+00" cType="1" res="-1.8388461321592331e-02" rms="3.9435935020446777e-01" purity="4.0987873077392578e-01" nType="0">
            <Node pos="l" depth="3" NCoef="0" IVar="-1" Cut="0.0000000000000000e+00" cType="1" res="-4.4917562045156956e-03" rms="3.4692120552062988e-01" purity="2.3014162480831146e-01" nType="-99"/>
            <Node pos="r" depth="3" NCoef="0" IVar="-1" Cut="0.0000000000000000e+00" cType="1" res="-2.9646727489307523e-04" rms="4.0331777930259705e-01" purity="4.5017790794372559e-01" nType="-99"/>
          </Node>
          <Node pos="r" depth="2" NCoef="0" IVar="7" Cut="4.8883914947509766e-01" cType="1" res="2.4058448150753975e-02" rms="3.9916825294494629e-01" purity="5.7775992155075073e-01" nType="0">
            <Node pos="l" depth="3" NCoef="0" IVar="-1" Cut="0.0000000000000000e+00" cType="1" res="1.5669640852138400e-03" rms="3.9840567111968994e-01" purity="6.5324234962463379e-01" nType="-99"/>
            <Node pos="r" depth="3" NCoef="0" IVar="-1" Cut="0.0000000000000000e+00" cType="1" res="-1.3620633399114013e-04" rms="3.9881828427314758e-01" purity="4.6163785457611084e-01" nType="-99"/>
          </Node>
        </Node>
        <Node pos="r" depth="1" NCoef="0" IVar="8" Cut="-6.6674673557281494e-01" cType="1" res="-3.2847363501787186e-02" rms="3.7742859125137329e-01" purity="3.0329641699790955e-01" nType="0">
          <Node pos="l" depth="2" NCoef="0" IVar="-1" Cut="0.0000000000000000e+00" cType="1" res="-5.3602568805217743e-03" rms="3.2681202888488770e-01" purity="1.8629777431488037e-01" nType="-99"/>
          <Node pos="r" depth="2" NCoef="0" IVar="6" Cut="1.7454078197479248e+00" cType="1" res="-1.9681693986058235e-02" rms="3.9154055714607239e-01" purity="3.4123721718788147e-01" nType="0">
            <Node pos="l" depth="3" NCoef="0" IVar="-1" Cut="0.0000000000000000e+00" cType="1" res="-2.6282839826308191e-04" rms="4.0156912803649902e-01" purity="3.8022741675376892e-01" nType="-99"/>
            <Node pos="r" depth="3" NCoef="0" IVar="-1" Cut="0.0000000000000000e+00" cType="1" res="-3.6989958025515079e-03" rms="3.5578820109367371e-01" purity="2.2211150825023651e-01" nType="-99"/>
          </Node>
        </Node>
      </Node>
    </BinaryTree>
    <BinaryTree type="DecisionTree" boostWeight="1.0000000000000000e+00" itree="402">
      <Node pos="s" depth="0" NCoef="0" IVar="7" Cut="-6.6659772396087646e-01" cType="1" res="5.1504927687346935e-03" rms="3.9218127727508545e-01" purity="4.9963623285293579e-01" nType="0">
        <Node pos="l" depth="1" NCoef="0" IVar="3" Cut="2.6170278930664062e+02" cType="1" res="-2.8877511620521545e-02" rms="3.7765857577323914e-01" purity="3.7208941578865051e-01" nType="0">
          <Node pos="l" depth="2" NCoef="0" IVar="0" Cut="1.6244857177734375e+03" cType="1" res="-1.7718983814120293e-02" rms="3.7536036968231201e-01" purity="3.7482875585556030e-01" nType="0">
            <Node pos="l" depth="3" NCoef="0" IVar="-1" Cut="0.0000000000000000e+00" cType="1" res="-1.6399214509874582e-03" rms="3.7372040748596191e-01" purity="3.2732871174812317e-01" nType="-99"/>
            <Node pos="r" depth="3" NCoef="0" IVar="-1" Cut="0.0000000000000000e+00" cType="1" res="2.9684777837246656e-03" rms="3.7186092138290405e-01" purity="6.7747610807418823e-01" nType="-99"/>
          </Node>
          <Node pos="r" depth="2" NCoef="0" IVar="-1" Cut="0.0000000000000000e+00" cType="1" res="-4.6126144006848335e-03" rms="3.8363736867904663e-01" purity="3.6057201027870178e-01" nType="-99"/>
        </Node>
        <Node pos="r" depth="1" NCoef="0" IVar="7" Cut="8.1908392906188965e-01" cType="1" res="1.6314106062054634e-02" rms="3.9619380235671997e-01" purity="5.4148066043853760e-01" nType="0">
          <Node pos="l" depth="2" NCoef="0" IVar="9" Cut="9.3344634771347046e-01" cType="1" res="2.9996957629919052e-02" rms="4.0020087361335754e-01" purity="6.1462998390197754e-01" nType="0">
            <Node pos="l" depth="3" NCoef="0" IVar="-1" Cut="0.0000000000000000e+00" cType="1" res="1.5054371906444430e-03" rms="3.9834293723106384e-01" purity="6.4167499542236328e-01" nType="-99"/>
            <Node pos="r" depth="3" NCoef="0" IVar="-1" Cut="0.0000000000000000e+00" cType="1" res="-5.1135348621755838e-04" rms="4.0559121966362000e-01" purity="4.9560508131980896e-01" nType="-99"/>
          </Node>
          <Node pos="r" depth="2" NCoef="0" IVar="1" Cut="5.1930358886718750e+02" cType="1" res="-2.0859431475400925e-02" rms="3.8263446092605591e-01" purity="3.4274888038635254e-01" nType="0">
            <Node pos="l" depth="3" NCoef="0" IVar="-1" Cut="0.0000000000000000e+00" cType="1" res="-1.6486701788380742e-03" rms="3.7197640538215637e-01" purity="2.9240375757217407e-01" nType="-99"/>
            <Node pos="r" depth="3" NCoef="0" IVar="-1" Cut="0.0000000000000000e+00" cType="1" res="1.2323138071224093e-03" rms="4.2718359827995300e-01" purity="5.8858579397201538e-01" nType="-99"/>
          </Node>
        </Node>
      </Node>
    </BinaryTree>
    <BinaryTree type="DecisionTree" boostWeight="1.0000000000000000e+00" itree="403">
      <Node pos="s" depth="0" NCoef="0" IVar="0" Cut="1.7949971923828125e+03" cType="1" res="6.4811850897967815e-03" rms="3.9194330573081970e-01" purity="5.0185298919677734e-01" nType="0">
        <Node pos="l" depth="1" NCoef="0" IVar="2" Cut="4.7257525634765625e+02" cType="1" res="-8.5694761946797371e-04" rms="3.9118364453315735e-01" purity="4.7153946757316589e-01" nType="0">
          <Node pos="l" depth="2" NCoef="0" IVar="0" Cut="1.2740770263671875e+03" cType="1" res="8.6781196296215057e-03" rms="3.9413309097290039e-01" purity="5.0923305749893188e-01" nType="0">
            <Node pos="l" depth="3" NCoef="0" IVar="-1" Cut="0.0000000000000000e+00" cType="1" res="-8.7061716476455331e-04" rms="4.0661135315895081e-01" purity="3.3510711789131165e-01" nType="-99"/>
            <Node pos="r" depth="3" NCoef="0" IVar="-1" Cut="0.0000000000000000e+00" cType="1" res="1.5307732392102480e-03" rms="3.7896010279655457e-01" purity="6.8320834636688232e-01" nType="-99"/>
          </Node>
          <Node pos="r" depth="2" NCoef="0" IVar="3" Cut="1.8112417602539062e+02" cType="1" res="-6.0346662998199463e-02" rms="3.6669769883155823e-01" purity="2.3636758327484131e-01" nType="0">
            <Node pos="l" depth="3" NCoef="0" IVar="-1" Cut="0.0000000000000000e+00" cType="1" res="-1.0865074582397938e-03" rms="3.8401323556900024e-01" purity="2.6330238580703735e-01" nType="-99"/>
            <Node pos="r" depth="3" NCoef="0" IVar="-1" Cut="0.0000000000000000e+00" cType="1" res="-1.4591981889680028e-03" rms="3.5047742724418640e-01" purity="2.1675735712051392e-01" nType="-99"/>
          </Node>
        </Node>
        <Node pos="r" depth="1" NCoef="0" IVar="3" Cut="3.8498611450195312e+02" cType="1" res="4.6193726360797882e-02" rms="3.9366301894187927e-01" purity="6.6590350866317749e-01" nType="0">
          <Node pos="l" depth="2" NCoef="0" IVar="2" Cut="7.1049560546875000e+02" cType="1" res="7.1639508008956909e-02" rms="3.7805417180061340e-01" purity="7.1753817796707153e-01" nType="0">
            <Node pos="l" depth="3" NCoef="0" IVar="-1" Cut="0.0000000000000000e+00" cType="1" res="3.6213563289493322e-03" rms="3.5343018174171448e-01" purity="7.8993058204650879e-01" nType="-99"/>
            <Node pos="r" depth="3" NCoef="0" IVar="-1" Cut="0.0000000000000000e+00" cType="1" res="2.1312398894224316e-04" rms="4.3318477272987366e-01" purity="5.1399940252304077e-01" nType="-99"/>
          </Node>
          <Node pos="r" depth="2" NCoef="0" IVar="-1" Cut="0.0000000000000000e+00" cType="1" res="-2.0012911409139633e-03" rms="4.3275600671768188e-01" purity="4.8257172107696533e-01" nType="-99"/>
        </Node>
      </Node>
    </BinaryTree>
    <BinaryTree type="DecisionTree" boostWeight="1.0000000000000000e+00" itree="404">
      <Node pos="s" depth="0" NCoef="0" IVar="8" Cut="1.4666531085968018e+00" cType="1" res="4.7144265845417976e-03" rms="3.9315086603164673e-01" purity="4.9810534715652466e-01" nType="0">
        <Node pos="l" depth="1" NCoef="0" IVar="7" Cut="6.6680014133453369e-01" cType="1" res="1.0648015886545181e-02" rms="3.9637047052383423e-01" purity="5.2367192506790161e-01" nType="0">
          <Node pos="l" depth="2" NCoef="0" IVar="7" Cut="-6.5375345945358276e-01" cType="1" res="2.0022075623273849e-02" rms="3.9607772231101990e-01" purity="5.6199717521667480e-01" nType="0">
            <Node pos="l" depth="3" NCoef="0" IVar="-1" Cut="0.0000000000000000e+00" cType="1" res="-5.7805993128567934e-04" rms="3.8664421439170837e-01" purity="4.0761291980743408e-01" nType="-99"/>
            <Node pos="r" depth="3" NCoef="0" IVar="-1" Cut="0.0000000000000000e+00" cType="1" res="1.3689235784113407e-03" rms="3.9969012141227722e-01" purity="6.3788437843322754e-01" nType="-99"/>
          </Node>
          <Node pos="r" depth="2" NCoef="0" IVar="8" Cut="-1.1745458841323853e+00" cType="1" res="-2.0051740109920502e-02" rms="3.9577648043632507e-01" purity="3.9815795421600342e-01" nType="0">
            <Node pos="l" depth="3" NCoef="0" IVar="-1" Cut="0.0000000000000000e+00" cType="1" res="-8.3425343036651611e-03" rms="3.1111451983451843e-01" purity="1.5776021778583527e-01" nType="-99"/>
            <Node pos="r" depth="3" NCoef="0" IVar="-1" Cut="0.0000000000000000e+00" cType="1" res="-3.1407174537889659e-04" rms="4.0676370263099670e-01" purity="4.3826854228973389e-01" nType="-99"/>
          </Node>
        </Node>
        <Node pos="r" depth="1" NCoef="0" IVar="4" Cut="1.4400390625000000e+02" cType="1" res="-5.8033108711242676e-02" rms="3.5125046968460083e-01" purity="2.2773964703083038e-01" nType="0">
          <Node pos="l" depth="2" NCoef="0" IVar="8" Cut="1.9746172428131104e+00" cType="1" res="-3.8451060652732849e-02" rms="3.3658301830291748e-01" purity="1.9717624783515930e-01" nType="0">
            <Node pos="l" depth="3" NCoef="0" IVar="-1" Cut="0.0000000000000000e+00" cType="1" res="-6.8412313703447580e-04" rms="3.7354636192321777e-01" purity="2.5240924954414368e-01" nType="-99"/>
            <Node pos="r" depth="3" NCoef="0" IVar="-1" Cut="0.0000000000000000e+00" cType="1" res="-4.5757344923913479e-03" rms="2.8189051151275635e-01" purity="1.3004025816917419e-01" nType="-99"/>
          </Node>
          <Node pos="r" depth="2" NCoef="0" IVar="-1" Cut="0.0000000000000000e+00" cType="1" res="-5.9527768753468990e-03" rms="3.7535238265991211e-01" purity="2.8750681877136230e-01" nType="-99"/>
        </Node>
      </Node>
    </BinaryTree>
    <BinaryTree type="DecisionTree" boostWeight="1.0000000000000000e+00" itree="405">
      <Node pos="s" depth="0" NCoef="0" IVar="6" Cut="1.4724411964416504e+00" cType="1" res="9.4572706148028374e-03" rms="3.9238482713699341e-01" purity="5.0409680604934692e-01" nType="0">
        <Node pos="l" depth="1" NCoef="0" IVar="6" Cut="-1.3590195178985596e+00" cType="1" res="1.4210821129381657e-02" rms="3.9583289623260498e-01" purity="5.2494925260543823e-01" nType="0">
          <Node pos="l" depth="2" NCoef="0" IVar="9" Cut="-6.6625410318374634e-01" cType="1" res="-4.3891619890928268e-02" rms="3.4471276402473450e-01" purity="2.3248477280139923e-01" nType="0">
            <Node pos="l" depth="3" NCoef="0" IVar="-1" Cut="0.0000000000000000e+00" cType="1" res="-7.9653924331068993e-03" rms="3.0046588182449341e-01" purity="1.4409147202968597e-01" nType="-99"/>
            <Node pos="r" depth="3" NCoef="0" IVar="-1" Cut="0.0000000000000000e+00" cType="1" res="-1.1852263705804944e-03" rms="3.6335733532905579e-01" purity="2.7796247601509094e-01" nType="-99"/>
          </Node>
          <Node pos="r" depth="2" NCoef="0" IVar="9" Cut="1.9999758005142212e+00" cType="1" res="1.9496992230415344e-02" rms="3.9974093437194824e-01" purity="5.5155771970748901e-01" nType="0">
            <Node pos="l" depth="3" NCoef="0" IVar="-1" Cut="0.0000000000000000e+00" cType="1" res="9.0946728596463799e-04" rms="4.0054130554199219e-01" purity="5.6348007917404175e-01" nType="-99"/>
            <Node pos="r" depth="3" NCoef="0" IVar="-1" Cut="0.0000000000000000e+00" cType="1" res="-3.3188301604241133e-03" rms="3.6887720227241516e-01" purity="2.4684567749500275e-01" nType="-99"/>
          </Node>
        </Node>
        <Node pos="r" depth="1" NCoef="0" IVar="9" Cut="4.0022936463356018e-01" cType="1" res="-5.5686749517917633e-02" rms="3.3491268754005432e-01" purity="2.1832787990570068e-01" nType="0">
          <Node pos="l" depth="2" NCoef="0" IVar="-1" Cut="0.0000000000000000e+00" cType="1" res="-1.2276301858946681e-03" rms="3.6600100994110107e-01" purity="2.7074617147445679e-01" nType="-99"/>
          <Node pos="r" depth="2" NCoef="0" IVar="-1" Cut="0.0000000000000000e+00" cType="1" res="-7.4350377544760704e-03" rms="2.7980822324752808e-01" purity="1.4582389593124390e-01" nType="-99"/>
        </Node>
      </Node>
    </BinaryTree>
    <BinaryTree type="DecisionTree" boostWeight="1.0000000000000000e+00" itree="406">
      <Node pos="s" depth="0" NCoef="0" IVar="7" Cut="6.6668140888214111e-01" cType="1" res="5.7986527681350708e-03" rms="3.9323922991752625e-01" purity="4.9845340847969055e-01" nType="0">
        <Node pos="l" depth="1" NCoef="0" IVar="7" Cut="-8.1904202699661255e-01" cType="1" res="1.4858512207865715e-02" rms="3.9590069651603699e-01" purity="5.3921765089035034e-01" nType="0">
          <Node pos="l" depth="2" NCoef="0" IVar="3" Cut="2.6363662719726562e+02" cType="1" res="-2.1018277853727341e-02" rms="3.7712860107421875e-01" purity="3.5373273491859436e-01" nType="0">
            <Node pos="l" depth="3" NCoef="0" IVar="-1" Cut="0.0000000000000000e+00" cType="1" res="-2.7337076608091593e-04" rms="3.7719303369522095e-01" purity="3.6334943771362305e-01" nType="-99"/>
            <Node pos="r" depth="3" NCoef="0" IVar="-1" Cut="0.0000000000000000e+00" cType="1" res="-5.8684339746832848e-03" rms="3.6921548843383789e-01" purity="3.1112417578697205e-01" nType="-99"/>
          </Node>
          <Node pos="r" depth="2" NCoef="0" IVar="2" Cut="6.0626184082031250e+02" cType="1" res="2.8303960338234901e-02" rms="4.0188628435134888e-01" purity="6.0873132944107056e-01" nType="0">
            <Node pos="l" depth="3" NCoef="0" IVar="-1" Cut="0.0000000000000000e+00" cType="1" res="1.3010962866246700e-03" rms="3.9936459064483643e-01" purity="6.2492722272872925e-01" nType="-99"/>
            <Node pos="r" depth="3" NCoef="0" IVar="-1" Cut="0.0000000000000000e+00" cType="1" res="-3.5483867395669222e-04" rms="4.1894263029098511e-01" purity="4.6682587265968323e-01" nType="-99"/>
          </Node>
        </Node>
        <Node pos="r" depth="1" NCoef="0" IVar="3" Cut="1.7642221069335938e+02" cType="1" res="-2.2407332435250282e-02" rms="3.8346731662750244e-01" purity="3.7154236435890198e-01" nType="0">
          <Node pos="l" depth="2" NCoef="0" IVar="0" Cut="1.3005640869140625e+03" cType="1" res="2.8035552240908146e-03" rms="3.7108170986175537e-01" purity="3.1611961126327515e-01" nType="0">
            <Node pos="l" depth="3" NCoef="0" IVar="-1" Cut="0.0000000000000000e+00" cType="1" res="-1.1972340289503336e-03" rms="3.5896509885787964e-01" purity="2.3425415158271790e-01" nType="-99"/>
            <Node pos="r" depth="3" NCoef="0" IVar="-1" Cut="0.0000000000000000e+00" cType="1" res="2.9623082373291254e-03" rms="3.9509728550910950e-01" purity="5.4302459955215454e-01" nType="-99"/>
          </Node>
          <Node pos="r" depth="2" NCoef="0" IVar="6" Cut="-3.6155411601066589e-01" cType="1" res="-3.9811089634895325e-02" rms="3.9084142446517944e-01" purity="4.0980219841003418e-01" nType="0">
            <Node pos="l" depth="3" NCoef="0" IVar="-1" Cut="0.0000000000000000e+00" cType="1" res="-5.4011908359825611e-03" rms="3.7354639172554016e-01" purity="2.8933626413345337e-01" nType="-99"/>
            <Node pos="r" depth="3" NCoef="0" IVar="-1" Cut="0.0000000000000000e+00" cType="1" res="-7.7752122888341546e-04" rms="3.9676085114479065e-01" purity="4.6741482615470886e-01" nType="-99"/>
          </Node>
        </Node>
      </Node>
    </BinaryTree>
    <BinaryTree type="DecisionTree" boostWeight="1.0000000000000000e+00" itree="407">
      <Node pos="s" depth="0" NCoef="0" IVar="9" Cut="-1.4666017293930054e+00" cType="1" res="6.9723064079880714e-03" rms="3.9257568120956421e-01" purity="4.9935051798820496e-01" nType="0">
        <Node pos="l" depth="1" NCoef="0" IVar="5" Cut="1.1297162628173828e+02" cType="1" res="-4.8034477978944778e-02" rms="3.6372849345207214e-01" purity="2.8966245055198669e-01" nType="0">
          <Node pos="l" depth="2" NCoef="0" IVar="8" Cut="-1.3344162702560425e-01" cType="1" res="-3.3670201897621155e-02" rms="3.5280457139015198e-01" purity="2.3359750211238861e-01" nType="0">
            <Node pos="l" depth="3" NCoef="0" IVar="-1" Cut="0.0000000000000000e+00" cType="1" res="-1.2500834418460727e-03" rms="3.5470756888389587e-01" purity="2.3759630322456360e-01" nType="-99"/>
            <Node pos="r" depth="3" NCoef="0" IVar="-1" Cut="0.0000000000000000e+00" cType="1" res="-3.0010198242962360e-03" rms="3.4990957379341125e-01" purity="2.2887128591537476e-01" nType="-99"/>
          </Node>
          <Node pos="r" depth="2" NCoef="0" IVar="-1" Cut="0.0000000000000000e+00" cType="1" res="-4.2793937027454376e-03" rms="3.8885274529457092e-01" purity="4.3962094187736511e-01" nType="-99"/>
        </Node>
        <Node pos="r" depth="1" NCoef="0" IVar="9" Cut="9.7144967317581177e-01" cType="1" res="1.2825701385736465e-02" rms="3.9507094025611877e-01" purity="5.2166390419006348e-01" nType="0">
          <Node pos="l" depth="2" NCoef="0" IVar="8" Cut="1.1998380422592163e+00" cType="1" res="2.2968241944909096e-02" rms="3.9743596315383911e-01" purity="5.6193274259567261e-01" nType="0">
            <Node pos="l" depth="3" NCoef="0" IVar="-1" Cut="0.0000000000000000e+00" cType="1" res="1.1424202239140868e-03" rms="3.9780047535896301e-01" purity="5.9135699272155762e-01" nType="-99"/>
            <Node pos="r" depth="3" NCoef="0" IVar="-1" Cut="0.0000000000000000e+00" cType="1" res="-1.2290899176150560e-03" rms="3.9142465591430664e-01" purity="3.4349769353866577e-01" nType="-99"/>
          </Node>
          <Node pos="r" depth="2" NCoef="0" IVar="9" Cut="2.1904637813568115e+00" cType="1" res="-2.4333806708455086e-02" rms="3.8400053977966309e-01" purity="3.7412995100021362e-01" nType="0">
            <Node pos="l" depth="3" NCoef="0" IVar="-1" Cut="0.0000000000000000e+00" cType="1" res="-6.8595068296417594e-04" rms="3.9250078797340393e-01" purity="4.0498664975166321e-01" nType="-99"/>
            <Node pos="r" depth="3" NCoef="0" IVar="-1" Cut="0.0000000000000000e+00" cType="1" res="-6.5172915346920490e-03" rms="3.1486991047859192e-01" purity="1.7195253074169159e-01" nType="-99"/>
          </Node>
        </Node>
      </Node>
    </BinaryTree>
    <BinaryTree type="DecisionTree" boostWeight="1.0000000000000000e+00" itree="408">
      <Node pos="s" depth="0" NCoef="0" IVar="8" Cut="9.3331867456436157e-01" cType="1" res="5.8268061839044094e-03" rms="3.9297422766685486e-01" purity="4.9959599971771240e-01" nType="0">
        <Node pos="l" depth="1" NCoef="0" IVar="8" Cut="-1.0222288370132446e+00" cType="1" res="1.4272578060626984e-02" rms="3.9472779631614685e-01" purity="5.3427892923355103e-01" nType="0">
          <Node pos="l" depth="2" NCoef="0" IVar="7" Cut="9.3320947885513306e-01" cType="1" res="-3.2241709530353546e-02" rms="3.7475204467773438e-01" purity="3.2768073678016663e-01" nType="0">
            <Node pos="l" depth="3" NCoef="0" IVar="-1" Cut="0.0000000000000000e+00" cType="1" res="-1.0955391917377710e-03" rms="3.8578310608863831e-01" purity="3.6329326033592224e-01" nType="-99"/>
            <Node pos="r" depth="3" NCoef="0" IVar="-1" Cut="0.0000000000000000e+00" cType="1" res="-5.7988082990050316e-03" rms="3.0667942762374878e-01" purity="1.4379751682281494e-01" nType="-99"/>
          </Node>
          <Node pos="r" depth="2" NCoef="0" IVar="0" Cut="1.7109799804687500e+03" cType="1" res="2.6303492486476898e-02" rms="3.9885005354881287e-01" purity="5.8771550655364990e-01" nType="0">
            <Node pos="l" depth="3" NCoef="0" IVar="-1" Cut="0.0000000000000000e+00" cType="1" res="6.5484963124617934e-04" rms="4.0370735526084900e-01" purity="5.4688084125518799e-01" nType="-99"/>
            <Node pos="r" depth="3" NCoef="0" IVar="-1" Cut="0.0000000000000000e+00" cType="1" res="2.3009721189737320e-03" rms="3.7970566749572754e-01" purity="7.2862398624420166e-01" nType="-99"/>
          </Node>
        </Node>
        <Node pos="r" depth="1" NCoef="0" IVar="3" Cut="1.8515756225585938e+02" cType="1" res="-3.0533719807863235e-02" rms="3.8321393728256226e-01" purity="3.5027968883514404e-01" nType="0">
          <Node pos="l" depth="2" NCoef="0" IVar="7" Cut="6.6587775945663452e-01" cType="1" res="-7.9030124470591545e-03" rms="3.8158944249153137e-01" purity="3.1037437915802002e-01" nType="0">
            <Node pos="l" depth="3" NCoef="0" IVar="-1" Cut="0.0000000000000000e+00" cType="1" res="4.5887698070146143e-04" rms="3.9584469795227051e-01" purity="3.5722604393959045e-01" nType="-99"/>
            <Node pos="r" depth="3" NCoef="0" IVar="-1" Cut="0.0000000000000000e+00" cType="1" res="-2.4566175416111946e-03" rms="3.5015776753425598e-01" purity="2.2076164186000824e-01" nType="-99"/>
          </Node>
          <Node pos="r" depth="2" NCoef="0" IVar="0" Cut="1.4275130615234375e+03" cType="1" res="-4.9932409077882767e-02" rms="3.8353955745697021e-01" purity="3.8448596000671387e-01" nType="0">
            <Node pos="l" depth="3" NCoef="0" IVar="-1" Cut="0.0000000000000000e+00" cType="1" res="-4.2235674336552620e-03" rms="3.6772876977920532e-01" purity="2.7458953857421875e-01" nType="-99"/>
            <Node pos="r" depth="3" NCoef="0" IVar="-1" Cut="0.0000000000000000e+00" cType="1" res="-1.3988234568387270e-03" rms="3.9338621497154236e-01" purity="4.6613228321075439e-01" nType="-99"/>
          </Node>
        </Node>
      </Node>
    </BinaryTree>
    <BinaryTree type="DecisionTree" boostWeight="1.0000000000000000e+00" itree="409">
      <Node pos="s" depth="0" NCoef="0" IVar="2" Cut="6.0625183105468750e+02" cType="1" res="6.3933315686881542e-03" rms="3.9287489652633667e-01" purity="5.0072008371353149e-01" nType="0">
        <Node pos="l" depth="1" NCoef="0" IVar="0" Cut="1.4020393066406250e+03" cType="1" res="1.1857704259455204e-02" rms="3.9146861433982849e-01" purity="5.1415210962295532e-01" nType="0">
          <Node pos="l" depth="2" NCoef="0" IVar="2" Cut="2.5803744506835938e+02" cType="1" res="-9.5291547477245331e-03" rms="4.0361773967742920e-01" purity="3.8873407244682312e-01" nType="0">
            <Node pos="l" depth="3" NCoef="0" IVar="-1" Cut="0.0000000000000000e+00" cType="1" res="9.9553924519568682e-04" rms="4.1638767719268799e-01" purity="5.1421940326690674e-01" nType="-99"/>
            <Node pos="r" depth="3" NCoef="0" IVar="-1" Cut="0.0000000000000000e+00" cType="1" res="-1.4152433723211288e-03" rms="3.9462408423423767e-01" purity="3.1685772538185120e-01" nType="-99"/>
          </Node>
          <Node pos="r" depth="2" NCoef="0" IVar="3" Cut="2.1645544433593750e+02" cType="1" res="4.1495382785797119e-02" rms="3.7195330858230591e-01" purity="6.8795508146286011e-01" nType="0">
            <Node pos="l" depth="3" NCoef="0" IVar="-1" Cut="0.0000000000000000e+00" cType="1" res="3.3790846355259418e-03" rms="3.4485000371932983e-01" purity="7.6204109191894531e-01" nType="-99"/>
            <Node pos="r" depth="3" NCoef="0" IVar="-1" Cut="0.0000000000000000e+00" cType="1" res="8.7056402117013931e-04" rms="3.8337093591690063e-01" purity="6.4993858337402344e-01" nType="-99"/>
          </Node>
        </Node>
        <Node pos="r" depth="1" NCoef="0" IVar="1" Cut="6.0599224853515625e+02" cType="1" res="-4.4890645891427994e-02" rms="4.0223422646522522e-01" purity="3.7465897202491760e-01" nType="0">
          <Node pos="l" depth="2" NCoef="0" IVar="2" Cut="6.9033203125000000e+02" cType="1" res="-8.4134429693222046e-02" rms="3.6981818079948425e-01" purity="2.3548550903797150e-01" nType="0">
            <Node pos="l" depth="3" NCoef="0" IVar="-1" Cut="0.0000000000000000e+00" cType="1" res="-2.0608052145689726e-03" rms="3.6813122034072876e-01" purity="2.7119782567024231e-01" nType="-99"/>
            <Node pos="r" depth="3" NCoef="0" IVar="-1" Cut="0.0000000000000000e+00" cType="1" res="-1.1299159377813339e-03" rms="3.6467492580413818e-01" purity="2.0232257246971130e-01" nType="-99"/>
          </Node>
          <Node pos="r" depth="2" NCoef="0" IVar="-1" Cut="0.0000000000000000e+00" cType="1" res="8.0693233758211136e-04" rms="4.4523754715919495e-01" purity="6.1866366863250732e-01" nType="-99"/>
        </Node>
      </Node>
    </BinaryTree>
    <BinaryTree type="DecisionTree" boostWeight="1.0000000000000000e+00" itree="410">
      <Node pos="s" depth="0" NCoef="0" IVar="2" Cut="7.5985003662109375e+02" cType="1" res="5.0811357796192169e-03" rms="3.9253249764442444e-01" purity="4.9935591220855713e-01" nType="0">
        <Node pos="l" depth="1" NCoef="0" IVar="1" Cut="3.7859301757812500e+02" cType="1" res="8.6556002497673035e-03" rms="3.9116251468658447e-01" purity="5.0353872776031494e-01" nType="0">
          <Node pos="l" depth="2" NCoef="0" IVar="2" Cut="5.4657183837890625e+02" cType="1" res="-1.7759054899215698e-02" rms="3.9163437485694885e-01" purity="3.5897547006607056e-01" nType="0">
            <Node pos="l" depth="3" NCoef="0" IVar="-1" Cut="0.0000000000000000e+00" cType="1" res="-5.5317755322903395e-04" rms="3.9678788185119629e-01" purity="3.7474057078361511e-01" nType="-99"/>
            <Node pos="r" depth="3" NCoef="0" IVar="-1" Cut="0.0000000000000000e+00" cType="1" res="-1.1451710015535355e-02" rms="2.9536446928977966e-01" purity="1.2480104714632034e-01" nType="-99"/>
          </Node>
          <Node pos="r" depth="2" NCoef="0" IVar="2" Cut="2.5332633972167969e+02" cType="1" res="2.9062481597065926e-02" rms="3.8957318663597107e-01" purity="6.1522239446640015e-01" nType="0">
            <Node pos="l" depth="3" NCoef="0" IVar="-1" Cut="0.0000000000000000e+00" cType="1" res="2.6603422593325377e-03" rms="3.6165714263916016e-01" purity="7.2696065902709961e-01" nType="-99"/>
            <Node pos="r" depth="3" NCoef="0" IVar="-1" Cut="0.0000000000000000e+00" cType="1" res="8.1871607108041644e-04" rms="3.9502277970314026e-01" purity="5.9005385637283325e-01" nType="-99"/>
          </Node>
        </Node>
        <Node pos="r" depth="1" NCoef="0" IVar="-1" Cut="0.0000000000000000e+00" cType="1" res="-7.9291610745713115e-04" rms="4.1552457213401794e-01" purity="3.9436006546020508e-01" nType="-99"/>
      </Node>
    </BinaryTree>
    <BinaryTree type="DecisionTree" boostWeight="1.0000000000000000e+00" itree="411">
      <Node pos="s" depth="0" NCoef="0" IVar="2" Cut="4.0312695312500000e+02" cType="1" res="4.9655162729322910e-03" rms="3.9120340347290039e-01" purity="4.9908065795898438e-01" nType="0">
        <Node pos="l" depth="1" NCoef="0" IVar="0" Cut="1.2656818847656250e+03" cType="1" res="2.0209688693284988e-02" rms="3.8843399286270142e-01" purity="5.4959088563919067e-01" nType="0">
          <Node pos="l" depth="2" NCoef="0" IVar="3" Cut="2.0035046386718750e+02" cType="1" res="-7.6736873015761375e-03" rms="4.1312527656555176e-01" purity="3.5486823320388794e-01" nType="0">
            <Node pos="l" depth="3" NCoef="0" IVar="-1" Cut="0.0000000000000000e+00" cType="1" res="2.0968563330825418e-04" rms="4.1522556543350220e-01" purity="3.6213460564613342e-01" nType="-99"/>
            <Node pos="r" depth="3" NCoef="0" IVar="-1" Cut="0.0000000000000000e+00" cType="1" res="-2.9410021379590034e-03" rms="3.9862328767776489e-01" purity="3.2281768321990967e-01" nType="-99"/>
          </Node>
          <Node pos="r" depth="2" NCoef="0" IVar="3" Cut="2.2926535034179688e+02" cType="1" res="4.8382755368947983e-02" rms="3.5958939790725708e-01" purity="7.4633646011352539e-01" nType="0">
            <Node pos="l" depth="3" NCoef="0" IVar="-1" Cut="0.0000000000000000e+00" cType="1" res="3.0510260257869959e-03" rms="3.4129795432090759e-01" purity="7.9959678649902344e-01" nType="-99"/>
            <Node pos="r" depth="3" NCoef="0" IVar="-1" Cut="0.0000000000000000e+00" cType="1" res="2.2433348931372166e-04" rms="3.7916415929794312e-01" purity="6.7282867431640625e-01" nType="-99"/>
          </Node>
        </Node>
        <Node pos="r" depth="1" NCoef="0" IVar="2" Cut="7.9003192138671875e+02" cType="1" res="-2.6269849389791489e-02" rms="3.9498403668403625e-01" purity="3.9558514952659607e-01" nType="0">
          <Node pos="l" depth="2" NCoef="0" IVar="0" Cut="1.9857255859375000e+03" cType="1" res="-1.7055133357644081e-02" rms="3.9261728525161743e-01" purity="3.9684462547302246e-01" nType="0">
            <Node pos="l" depth="3" NCoef="0" IVar="-1" Cut="0.0000000000000000e+00" cType="1" res="-1.7146581085398793e-03" rms="3.8838794827461243e-01" purity="3.4143123030662537e-01" nType="-99"/>
            <Node pos="r" depth="3" NCoef="0" IVar="-1" Cut="0.0000000000000000e+00" cType="1" res="2.1820962429046631e-03" rms="4.0558856725692749e-01" purity="6.7831122875213623e-01" nType="-99"/>
          </Node>
          <Node pos="r" depth="2" NCoef="0" IVar="-1" Cut="0.0000000000000000e+00" cType="1" res="-4.9142958596348763e-04" rms="4.0630096197128296e-01" purity="3.8455870747566223e-01" nType="-99"/>
        </Node>
      </Node>
    </BinaryTree>
    <BinaryTree type="DecisionTree" boostWeight="1.0000000000000000e+00" itree="412">
      <Node pos="s" depth="0" NCoef="0" IVar="2" Cut="8.0937719726562500e+02" cType="1" res="5.3362520411610603e-03" rms="3.9015725255012512e-01" purity="4.9912208318710327e-01" nType="0">
        <Node pos="l" depth="1" NCoef="0" IVar="0" Cut="1.9058825683593750e+03" cType="1" res="8.9547820389270782e-03" rms="3.8887304067611694e-01" purity="5.0244402885437012e-01" nType="0">
          <Node pos="l" depth="2" NCoef="0" IVar="2" Cut="4.3214062500000000e+02" cType="1" res="2.2096165921539068e-03" rms="3.8897731900215149e-01" purity="4.8030298948287964e-01" nType="0">
            <Node pos="l" depth="3" NCoef="0" IVar="-1" Cut="0.0000000000000000e+00" cType="1" res="5.5462052114307880e-04" rms="3.9055985212326050e-01" purity="5.2780771255493164e-01" nType="-99"/>
            <Node pos="r" depth="3" NCoef="0" IVar="-1" Cut="0.0000000000000000e+00" cType="1" res="-2.2117418702691793e-03" rms="3.8015231490135193e-01" purity="3.0426895618438721e-01" nType="-99"/>
          </Node>
          <Node pos="r" depth="2" NCoef="0" IVar="3" Cut="3.1642990112304688e+02" cType="1" res="7.6453864574432373e-02" rms="3.8131240010261536e-01" purity="7.2401005029678345e-01" nType="0">
            <Node pos="l" depth="3" NCoef="0" IVar="-1" Cut="0.0000000000000000e+00" cType="1" res="4.1383132338523865e-03" rms="3.4301063418388367e-01" purity="8.1415158510208130e-01" nType="-99"/>
            <Node pos="r" depth="3" NCoef="0" IVar="-1" Cut="0.0000000000000000e+00" cType="1" res="1.1591331567615271e-03" rms="4.1499042510986328e-01" purity="6.2317782640457153e-01" nType="-99"/>
          </Node>
        </Node>
        <Node pos="r" depth="1" NCoef="0" IVar="-1" Cut="0.0000000000000000e+00" cType="1" res="-8.6420367006212473e-04" rms="4.1315785050392151e-01" purity="3.8456189632415771e-01" nType="-99"/>
      </Node>
    </BinaryTree>
    <BinaryTree type="DecisionTree" boostWeight="1.0000000000000000e+00" itree="413">
      <Node pos="s" depth="0" NCoef="0" IVar="6" Cut="6.7080944776535034e-01" cType="1" res="3.8267332129180431e-03" rms="3.9327642321586609e-01" purity="4.9876478314399719e-01" nType="0">
        <Node pos="l" depth="1" NCoef="0" IVar="6" Cut="-8.1180149316787720e-01" cType="1" res="1.3357820920646191e-02" rms="3.9495503902435303e-01" purity="5.3819668292999268e-01" nType="0">
          <Node pos="l" depth="2" NCoef="0" IVar="7" Cut="4.0077164769172668e-01" cType="1" res="-2.3749914020299911e-02" rms="3.7846443057060242e-01" purity="3.5004571080207825e-01" nType="0">
            <Node pos="l" depth="3" NCoef="0" IVar="-1" Cut="0.0000000000000000e+00" cType="1" res="-3.5520576057024300e-04" rms="3.8751733303070068e-01" purity="3.9418390393257141e-01" nType="-99"/>
            <Node pos="r" depth="3" NCoef="0" IVar="-1" Cut="0.0000000000000000e+00" cType="1" res="-3.6685860250145197e-03" rms="3.5520190000534058e-01" purity="2.5301495194435120e-01" nType="-99"/>
          </Node>
          <Node pos="r" depth="2" NCoef="0" IVar="2" Cut="4.0313507080078125e+02" cType="1" res="2.6231074705719948e-02" rms="3.9971327781677246e-01" purity="6.0346913337707520e-01" nType="0">
            <Node pos="l" depth="3" NCoef="0" IVar="-1" Cut="0.0000000000000000e+00" cType="1" res="1.5208835247904062e-03" rms="3.9217332005500793e-01" purity="6.6026568412780762e-01" nType="-99"/>
            <Node pos="r" depth="3" NCoef="0" IVar="-1" Cut="0.0000000000000000e+00" cType="1" res="-3.8118902011774480e-05" rms="4.1312423348426819e-01" purity="4.8880228400230408e-01" nType="-99"/>
          </Node>
        </Node>
        <Node pos="r" depth="1" NCoef="0" IVar="6" Cut="1.7859373092651367e+00" cType="1" res="-2.6728082448244095e-02" rms="3.8626384735107422e-01" purity="3.7235373258590698e-01" nType="0">
          <Node pos="l" depth="2" NCoef="0" IVar="3" Cut="1.9903427124023438e+02" cType="1" res="-1.8099486827850342e-02" rms="3.9586740732192993e-01" purity="4.0455311536788940e-01" nType="0">
            <Node pos="l" depth="3" NCoef="0" IVar="-1" Cut="0.0000000000000000e+00" cType="1" res="1.0797243885463104e-04" rms="3.9213129878044128e-01" purity="3.6485970020294189e-01" nType="-99"/>
            <Node pos="r" depth="3" NCoef="0" IVar="-1" Cut="0.0000000000000000e+00" cType="1" res="-1.9176173955202103e-03" rms="3.9857131242752075e-01" purity="4.4555664062500000e-01" nType="-99"/>
          </Node>
          <Node pos="r" depth="2" NCoef="0" IVar="-1" Cut="0.0000000000000000e+00" cType="1" res="-4.7659780830144882e-03" rms="3.2453402876853943e-01" purity="1.9562524557113647e-01" nType="-99"/>
        </Node>
      </Node>
    </BinaryTree>
    <BinaryTree type="DecisionTree" boostWeight="1.0000000000000000e+00" itree="414">
      <Node pos="s" depth="0" NCoef="0" IVar="2" Cut="6.0625231933593750e+02" cType="1" res="5.5809626355767250e-03" rms="3.9239618182182312e-01" purity="5.0055611133575439e-01" nType="0">
        <Node pos="l" depth="1" NCoef="0" IVar="0" Cut="1.5525422363281250e+03" cType="1" res="1.1771264486014843e-02" rms="3.9129558205604553e-01" purity="5.1506572961807251e-01" nType="0">
          <Node pos="l" depth="2" NCoef="0" IVar="2" Cut="2.9672857666015625e+02" cType="1" res="-3.8653663359582424e-03" rms="3.9916262030601501e-01" purity="4.3708029389381409e-01" nType="0">
            <Node pos="l" depth="3" NCoef="0" IVar="-1" Cut="0.0000000000000000e+00" cType="1" res="8.1685371696949005e-04" rms="4.0271565318107605e-01" purity="5.3708899021148682e-01" nType="-99"/>
            <Node pos="r" depth="3" NCoef="0" IVar="-1" Cut="0.0000000000000000e+00" cType="1" res="-1.4616317348554730e-03" rms="3.9365983009338379e-01" purity="3.3237755298614502e-01" nType="-99"/>
          </Node>
          <Node pos="r" depth="2" NCoef="0" IVar="3" Cut="2.9778573608398438e+02" cType="1" res="5.6048583239316940e-02" rms="3.6448687314987183e-01" purity="7.3589229583740234e-01" nType="0">
            <Node pos="l" depth="3" NCoef="0" IVar="-1" Cut="0.0000000000000000e+00" cType="1" res="3.2599747646600008e-03" rms="3.3717873692512512e-01" purity="8.0648756027221680e-01" nType="-99"/>
            <Node pos="r" depth="3" NCoef="0" IVar="-1" Cut="0.0000000000000000e+00" cType="1" res="2.6869890280067921e-04" rms="4.0984389185905457e-01" purity="5.9291994571685791e-01" nType="-99"/>
          </Node>
        </Node>
        <Node pos="r" depth="1" NCoef="0" IVar="1" Cut="6.0599444580078125e+02" cType="1" res="-5.4301455616950989e-02" rms="3.9794710278511047e-01" purity="3.6019650101661682e-01" nType="0">
          <Node pos="l" depth="2" NCoef="0" IVar="2" Cut="6.9185723876953125e+02" cType="1" res="-9.1880276799201965e-02" rms="3.6272948980331421e-01" purity="2.2231768071651459e-01" nType="0">
            <Node pos="l" depth="3" NCoef="0" IVar="-1" Cut="0.0000000000000000e+00" cType="1" res="-1.7642653547227383e-03" rms="3.7303397059440613e-01" purity="2.7068868279457092e-01" nType="-99"/>
            <Node pos="r" depth="3" NCoef="0" IVar="-1" Cut="0.0000000000000000e+00" cType="1" res="-1.2952515389770269e-03" rms="3.4013217687606812e-01" purity="1.7526760697364807e-01" nType="-99"/>
          </Node>
          <Node pos="r" depth="2" NCoef="0" IVar="-1" Cut="0.0000000000000000e+00" cType="1" res="4.2764903628267348e-04" rms="4.4607850909233093e-01" purity="6.0512822866439819e-01" nType="-99"/>
        </Node>
      </Node>
    </BinaryTree>
    <BinaryTree type="DecisionTree" boostWeight="1.0000000000000000e+00" itree="415">
      <Node pos="s" depth="0" NCoef="0" IVar="2" Cut="3.4597048950195312e+02" cType="1" res="7.2657703422009945e-03" rms="3.9290130138397217e-01" purity="5.0292193889617920e-01" nType="0">
        <Node pos="l" depth="1" NCoef="0" IVar="0" Cut="1.2822344970703125e+03" cType="1" res="2.4252934381365776e-02" rms="3.9113062620162964e-01" purity="5.6615978479385376e-01" nType="0">
          <Node pos="l" depth="2" NCoef="0" IVar="3" Cut="2.0164442443847656e+02" cType="1" res="2.2664882708340883e-03" rms="4.2532572150230408e-01" purity="3.9494842290878296e-01" nType="0">
            <Node pos="l" depth="3" NCoef="0" IVar="-1" Cut="0.0000000000000000e+00" cType="1" res="6.9148116745054722e-04" rms="4.2636889219284058e-01" purity="4.0483173727989197e-01" nType="-99"/>
            <Node pos="r" depth="3" NCoef="0" IVar="-1" Cut="0.0000000000000000e+00" cType="1" res="-2.7281674556434155e-03" rms="4.1394394636154175e-01" purity="3.5266575217247009e-01" nType="-99"/>
          </Node>
          <Node pos="r" depth="2" NCoef="0" IVar="3" Cut="2.1924549865722656e+02" cType="1" res="5.4073635488748550e-02" rms="3.3700349926948547e-01" purity="7.9837739467620850e-01" nType="0">
            <Node pos="l" depth="3" NCoef="0" IVar="-1" Cut="0.0000000000000000e+00" cType="1" res="3.3082652371376753e-03" rms="3.1048583984375000e-01" purity="8.5012292861938477e-01" nType="-99"/>
            <Node pos="r" depth="3" NCoef="0" IVar="-1" Cut="0.0000000000000000e+00" cType="1" res="6.9878780050203204e-04" rms="3.6114901304244995e-01" purity="7.3954081535339355e-01" nType="-99"/>
          </Node>
        </Node>
        <Node pos="r" depth="1" NCoef="0" IVar="0" Cut="1.7735981445312500e+03" cType="1" res="-1.2308374047279358e-02" rms="3.9402467012405396e-01" purity="4.3005359172821045e-01" nType="0">
          <Node pos="l" depth="2" NCoef="0" IVar="2" Cut="6.0048059082031250e+02" cType="1" res="-3.0093742534518242e-02" rms="3.8794657588005066e-01" purity="3.4225994348526001e-01" nType="0">
            <Node pos="l" depth="3" NCoef="0" IVar="-1" Cut="0.0000000000000000e+00" cType="1" res="-1.0683179134503007e-03" rms="3.9427083730697632e-01" purity="3.6488702893257141e-01" nType="-99"/>
            <Node pos="r" depth="3" NCoef="0" IVar="-1" Cut="0.0000000000000000e+00" cType="1" res="-9.2144252266734838e-04" rms="3.1326508522033691e-01" purity="1.3230817019939423e-01" nType="-99"/>
          </Node>
          <Node pos="r" depth="2" NCoef="0" IVar="3" Cut="3.4379595947265625e+02" cType="1" res="2.7001006528735161e-02" rms="4.0437105298042297e-01" purity="6.2409585714340210e-01" nType="0">
            <Node pos="l" depth="3" NCoef="0" IVar="-1" Cut="0.0000000000000000e+00" cType="1" res="2.2413686383515596e-03" rms="3.9165782928466797e-01" purity="6.8495124578475952e-01" nType="-99"/>
            <Node pos="r" depth="3" NCoef="0" IVar="-1" Cut="0.0000000000000000e+00" cType="1" res="-1.3734110398218036e-03" rms="4.1938155889511108e-01" purity="5.1719135046005249e-01" nType="-99"/>
          </Node>
        </Node>
      </Node>
    </BinaryTree>
    <BinaryTree type="DecisionTree" boostWeight="1.0000000000000000e+00" itree="416">
      <Node pos="s" depth="0" NCoef="0" IVar="9" Cut="-9.3332070112228394e-01" cType="1" res="8.2812592154368758e-04" rms="3.9346075057983398e-01" purity="4.9371168017387390e-01" nType="0">
        <Node pos="l" depth="1" NCoef="0" IVar="9" Cut="-1.9999418258666992e+00" cType="1" res="-3.5418592393398285e-02" rms="3.7783408164978027e-01" purity="3.6995851993560791e-01" nType="0">
          <Node pos="l" depth="2" NCoef="0" IVar="-1" Cut="0.0000000000000000e+00" cType="1" res="-5.1344498060643673e-03" rms="3.2858791947364807e-01" purity="2.0734365284442902e-01" nType="-99"/>
          <Node pos="r" depth="2" NCoef="0" IVar="6" Cut="-9.0007930994033813e-01" cType="1" res="-2.5849293917417526e-02" rms="3.8851577043533325e-01" purity="4.1037294268608093e-01" nType="0">
            <Node pos="l" depth="3" NCoef="0" IVar="-1" Cut="0.0000000000000000e+00" cType="1" res="-4.3305391445755959e-03" rms="3.4094837307929993e-01" purity="2.4126131832599640e-01" nType="-99"/>
            <Node pos="r" depth="3" NCoef="0" IVar="-1" Cut="0.0000000000000000e+00" cType="1" res="-6.2797783175483346e-04" rms="3.9971300959587097e-01" purity="4.5659965276718140e-01" nType="-99"/>
          </Node>
        </Node>
        <Node pos="r" depth="1" NCoef="0" IVar="9" Cut="1.0221514701843262e+00" cType="1" res="9.7572784870862961e-03" rms="3.9670783281326294e-01" purity="5.2419745922088623e-01" nType="0">
          <Node pos="l" depth="2" NCoef="0" IVar="0" Cut="1.7445866699218750e+03" cType="1" res="2.1869195625185966e-02" rms="3.9953631162643433e-01" purity="5.6946033239364624e-01" nType="0">
            <Node pos="l" depth="3" NCoef="0" IVar="-1" Cut="0.0000000000000000e+00" cType="1" res="4.8919732216745615e-04" rms="4.0277248620986938e-01" purity="5.3166013956069946e-01" nType="-99"/>
            <Node pos="r" depth="3" NCoef="0" IVar="-1" Cut="0.0000000000000000e+00" cType="1" res="2.2662095725536346e-03" rms="3.8423338532447815e-01" purity="7.1757549047470093e-01" nType="-99"/>
          </Node>
          <Node pos="r" depth="2" NCoef="0" IVar="7" Cut="-6.6652524471282959e-01" cType="1" res="-3.0665218830108643e-02" rms="3.8436576724052429e-01" purity="3.7313652038574219e-01" nType="0">
            <Node pos="l" depth="3" NCoef="0" IVar="-1" Cut="0.0000000000000000e+00" cType="1" res="-4.5725340023636818e-03" rms="3.4441748261451721e-01" purity="2.4751251935958862e-01" nType="-99"/>
            <Node pos="r" depth="3" NCoef="0" IVar="-1" Cut="0.0000000000000000e+00" cType="1" res="-9.3862257199361920e-04" rms="3.9374351501464844e-01" purity="4.0678843855857849e-01" nType="-99"/>
          </Node>
        </Node>
      </Node>
    </BinaryTree>
    <BinaryTree type="DecisionTree" boostWeight="1.0000000000000000e+00" itree="417">
      <Node pos="s" depth="0" NCoef="0" IVar="6" Cut="-6.3834547996520996e-01" cType="1" res="6.5753445960581303e-03" rms="3.9204502105712891e-01" purity="5.0212699174880981e-01" nType="0">
        <Node pos="l" depth="1" NCoef="0" IVar="9" Cut="1.1999937295913696e+00" cType="1" res="-2.5809863582253456e-02" rms="3.7768182158470154e-01" purity="3.8026335835456848e-01" nType="0">
          <Node pos="l" depth="2" NCoef="0" IVar="0" Cut="1.7854975585937500e+03" cType="1" res="-1.6324343159794807e-02" rms="3.8348913192749023e-01" purity="4.0940526127815247e-01" nType="0">
            <Node pos="l" depth="3" NCoef="0" IVar="-1" Cut="0.0000000000000000e+00" cType="1" res="-1.3128382852301002e-03" rms="3.7731057405471802e-01" purity="3.7020787596702576e-01" nType="-99"/>
            <Node pos="r" depth="3" NCoef="0" IVar="-1" Cut="0.0000000000000000e+00" cType="1" res="1.5748729929327965e-03" rms="4.1054108738899231e-01" purity="6.2064731121063232e-01" nType="-99"/>
          </Node>
          <Node pos="r" depth="2" NCoef="0" IVar="-1" Cut="0.0000000000000000e+00" cType="1" res="-7.1592223830521107e-03" rms="3.2828631997108459e-01" purity="1.8189053237438202e-01" nType="-99"/>
        </Node>
        <Node pos="r" depth="1" NCoef="0" IVar="6" Cut="1.3262698650360107e+00" cType="1" res="1.6914160922169685e-02" rms="3.9596349000930786e-01" purity="5.4103142023086548e-01" nType="0">
          <Node pos="l" depth="2" NCoef="0" IVar="2" Cut="6.6213903808593750e+02" cType="1" res="2.4990729987621307e-02" rms="4.0069380402565002e-01" purity="5.7976478338241577e-01" nType="0">
            <Node pos="l" depth="3" NCoef="0" IVar="-1" Cut="0.0000000000000000e+00" cType="1" res="1.1964931618422270e-03" rms="3.9902994036674500e-01" purity="5.9104532003402710e-01" nType="-99"/>
            <Node pos="r" depth="3" NCoef="0" IVar="-1" Cut="0.0000000000000000e+00" cType="1" res="-2.3075791541486979e-03" rms="4.1558963060379028e-01" purity="4.2645126581192017e-01" nType="-99"/>
          </Node>
          <Node pos="r" depth="2" NCoef="0" IVar="8" Cut="6.6667246818542480e-01" cType="1" res="-4.4380024075508118e-02" rms="3.5204517841339111e-01" purity="2.4707864224910736e-01" nType="0">
            <Node pos="l" depth="3" NCoef="0" IVar="-1" Cut="0.0000000000000000e+00" cType="1" res="-1.4350941637530923e-03" rms="3.6791214346885681e-01" purity="2.8866857290267944e-01" nType="-99"/>
            <Node pos="r" depth="3" NCoef="0" IVar="-1" Cut="0.0000000000000000e+00" cType="1" res="-6.0979020781815052e-03" rms="3.1353569030761719e-01" purity="1.6086824238300323e-01" nType="-99"/>
          </Node>
        </Node>
      </Node>
    </BinaryTree>
    <BinaryTree type="DecisionTree" boostWeight="1.0000000000000000e+00" itree="418">
      <Node pos="s" depth="0" NCoef="0" IVar="7" Cut="-6.6654956340789795e-01" cType="1" res="1.0024153627455235e-02" rms="3.9263767004013062e-01" purity="5.0333106517791748e-01" nType="0">
        <Node pos="l" depth="1" NCoef="0" IVar="3" Cut="1.9256880187988281e+02" cType="1" res="-2.1054744720458984e-02" rms="3.8197776675224304e-01" purity="3.7704640626907349e-01" nType="0">
          <Node pos="l" depth="2" NCoef="0" IVar="5" Cut="7.6446640014648438e+01" cType="1" res="6.5872827544808388e-03" rms="3.8204923272132874e-01" purity="3.4360912442207336e-01" nType="0">
            <Node pos="l" depth="3" NCoef="0" IVar="-1" Cut="0.0000000000000000e+00" cType="1" res="-3.1462728511542082e-03" rms="3.2646304368972778e-01" purity="1.5842747688293457e-01" nType="-99"/>
            <Node pos="r" depth="3" NCoef="0" IVar="-1" Cut="0.0000000000000000e+00" cType="1" res="1.3579254737123847e-03" rms="4.0555337071418762e-01" purity="4.4007796049118042e-01" nType="-99"/>
          </Node>
          <Node pos="r" depth="2" NCoef="0" IVar="7" Cut="-1.0727231502532959e+00" cType="1" res="-4.8537112772464752e-02" rms="3.7991815805435181e-01" purity="4.1029056906700134e-01" nType="0">
            <Node pos="l" depth="3" NCoef="0" IVar="-1" Cut="0.0000000000000000e+00" cType="1" res="-4.6200021170079708e-03" rms="3.5659214854240417e-01" purity="2.9642823338508606e-01" nType="-99"/>
            <Node pos="r" depth="3" NCoef="0" IVar="-1" Cut="0.0000000000000000e+00" cType="1" res="-7.3410844197496772e-04" rms="4.0364375710487366e-01" purity="5.4536420106887817e-01" nType="-99"/>
          </Node>
        </Node>
        <Node pos="r" depth="1" NCoef="0" IVar="7" Cut="8.1911361217498779e-01" cType="1" res="1.9932955503463745e-02" rms="3.9546284079551697e-01" purity="5.4359406232833862e-01" nType="0">
          <Node pos="l" depth="2" NCoef="0" IVar="6" Cut="6.7540043592453003e-01" cType="1" res="3.3581566065549850e-02" rms="4.0028163790702820e-01" purity="6.1432415246963501e-01" nType="0">
            <Node pos="l" depth="3" NCoef="0" IVar="-1" Cut="0.0000000000000000e+00" cType="1" res="1.6948230331763625e-03" rms="3.9723676443099976e-01" purity="6.5304309129714966e-01" nType="-99"/>
            <Node pos="r" depth="3" NCoef="0" IVar="-1" Cut="0.0000000000000000e+00" cType="1" res="-3.9315843605436385e-04" rms="4.0832513570785522e-01" purity="4.7320982813835144e-01" nType="-99"/>
          </Node>
          <Node pos="r" depth="2" NCoef="0" IVar="7" Cut="1.9510458707809448e+00" cType="1" res="-1.7665585502982140e-02" rms="3.7934273481369019e-01" purity="3.4875023365020752e-01" nType="0">
            <Node pos="l" depth="3" NCoef="0" IVar="-1" Cut="0.0000000000000000e+00" cType="1" res="-2.9051123419776559e-04" rms="3.9375600218772888e-01" purity="3.8812565803527832e-01" nType="-99"/>
            <Node pos="r" depth="3" NCoef="0" IVar="-1" Cut="0.0000000000000000e+00" cType="1" res="-6.3366219401359558e-03" rms="2.8779464960098267e-01" purity="1.4756280183792114e-01" nType="-99"/>
          </Node>
        </Node>
      </Node>
    </BinaryTree>
    <BinaryTree type="DecisionTree" boostWeight="1.0000000000000000e+00" itree="419">
      <Node pos="s" depth="0" NCoef="0" IVar="8" Cut="-1.7333276271820068e+00" cType="1" res="6.7800711840391159e-03" rms="3.9299809932708740e-01" purity="5.0032961368560791e-01" nType="0">
        <Node pos="l" depth="1" NCoef="0" IVar="4" Cut="1.1670295715332031e+02" cType="1" res="-6.8205200135707855e-02" rms="3.2894918322563171e-01" purity="1.9405467808246613e-01" nType="0">
          <Node pos="l" depth="2" NCoef="0" IVar="-1" Cut="0.0000000000000000e+00" cType="1" res="-2.8573686722666025e-03" rms="3.0507051944732666e-01" purity="1.5326015651226044e-01" nType="-99"/>
          <Node pos="r" depth="2" NCoef="0" IVar="-1" Cut="0.0000000000000000e+00" cType="1" res="-6.8403864279389381e-03" rms="3.4810000658035278e-01" purity="2.3334221541881561e-01" nType="-99"/>
        </Node>
        <Node pos="r" depth="1" NCoef="0" IVar="8" Cut="1.7206239700317383e+00" cType="1" res="1.1197034269571304e-02" rms="3.9600569009780884e-01" purity="5.1837062835693359e-01" nType="0">
          <Node pos="l" depth="2" NCoef="0" IVar="2" Cut="8.1617486572265625e+02" cType="1" res="1.5778455883264542e-02" rms="3.9879468083381653e-01" purity="5.3897583484649658e-01" nType="0">
            <Node pos="l" depth="3" NCoef="0" IVar="-1" Cut="0.0000000000000000e+00" cType="1" res="7.6485407771542668e-04" rms="3.9745229482650757e-01" purity="5.4199635982513428e-01" nType="-99"/>
            <Node pos="r" depth="3" NCoef="0" IVar="-1" Cut="0.0000000000000000e+00" cType="1" res="-5.4891320178285241e-04" rms="4.2888084053993225e-01" purity="4.4055297970771790e-01" nType="-99"/>
          </Node>
          <Node pos="r" depth="2" NCoef="0" IVar="8" Cut="2.0290462970733643e+00" cType="1" res="-5.6954298168420792e-02" rms="3.4480303525924683e-01" purity="2.1185491979122162e-01" nType="0">
            <Node pos="l" depth="3" NCoef="0" IVar="-1" Cut="0.0000000000000000e+00" cType="1" res="-1.8810385372489691e-03" rms="3.6958500742912292e-01" purity="2.5405117869377136e-01" nType="-99"/>
            <Node pos="r" depth="3" NCoef="0" IVar="-1" Cut="0.0000000000000000e+00" cType="1" res="-5.5642863735556602e-03" rms="3.2239750027656555e-01" purity="1.7841289937496185e-01" nType="-99"/>
          </Node>
        </Node>
      </Node>
    </BinaryTree>
    <BinaryTree type="DecisionTree" boostWeight="1.0000000000000000e+00" itree="420">
      <Node pos="s" depth="0" NCoef="0" IVar="6" Cut="-1.4581344127655029e+00" cType="1" res="7.6518221758306026e-03" rms="3.9242583513259888e-01" purity="5.0049102306365967e-01" nType="0">
        <Node pos="l" depth="1" NCoef="0" IVar="4" Cut="1.2614694976806641e+02" cType="1" res="-5.5557958781719208e-02" rms="3.3801969885826111e-01" purity="2.0786012709140778e-01" nType="0">
          <Node pos="l" depth="2" NCoef="0" IVar="-1" Cut="0.0000000000000000e+00" cType="1" res="-1.0945346439257264e-03" rms="3.3019185066223145e-01" purity="1.6713267564773560e-01" nType="-99"/>
          <Node pos="r" depth="2" NCoef="0" IVar="-1" Cut="0.0000000000000000e+00" cType="1" res="-5.7398108765482903e-03" rms="3.4066069126129150e-01" purity="2.4725505709648132e-01" nType="-99"/>
        </Node>
        <Node pos="r" depth="1" NCoef="0" IVar="6" Cut="9.7473162412643433e-01" cType="1" res="1.2218656949698925e-02" rms="3.9567631483078003e-01" purity="5.2163332700729370e-01" nType="0">
          <Node pos="l" depth="2" NCoef="0" IVar="8" Cut="-1.7333276271820068e+00" cType="1" res="2.0254548639059067e-02" rms="3.9948850870132446e-01" purity="5.6504046916961670e-01" nType="0">
            <Node pos="l" depth="3" NCoef="0" IVar="-1" Cut="0.0000000000000000e+00" cType="1" res="-3.2330160029232502e-03" rms="3.6728399991989136e-01" purity="2.4372351169586182e-01" nType="-99"/>
            <Node pos="r" depth="3" NCoef="0" IVar="-1" Cut="0.0000000000000000e+00" cType="1" res="9.6160464454442263e-04" rms="4.0075397491455078e-01" purity="5.8250582218170166e-01" nType="-99"/>
          </Node>
          <Node pos="r" depth="2" NCoef="0" IVar="0" Cut="1.4935994873046875e+03" cType="1" res="-2.8191367164254189e-02" rms="3.7330734729766846e-01" purity="3.0335235595703125e-01" nType="0">
            <Node pos="l" depth="3" NCoef="0" IVar="-1" Cut="0.0000000000000000e+00" cType="1" res="-2.7558794245123863e-03" rms="3.5585173964500427e-01" purity="2.1704864501953125e-01" nType="-99"/>
            <Node pos="r" depth="3" NCoef="0" IVar="-1" Cut="0.0000000000000000e+00" cType="1" res="4.2780200601555407e-04" rms="4.0530639886856079e-01" purity="4.8647388815879822e-01" nType="-99"/>
          </Node>
        </Node>
      </Node>
    </BinaryTree>
    <BinaryTree type="DecisionTree" boostWeight="1.0000000000000000e+00" itree="421">
      <Node pos="s" depth="0" NCoef="0" IVar="7" Cut="-6.6670233011245728e-01" cType="1" res="6.9923955015838146e-03" rms="3.9312690496444702e-01" purity="5.0133275985717773e-01" nType="0">
        <Node pos="l" depth="1" NCoef="0" IVar="7" Cut="-1.9872864484786987e+00" cType="1" res="-2.2756382822990417e-02" rms="3.8280564546585083e-01" purity="3.7254869937896729e-01" nType="0">
          <Node pos="l" depth="2" NCoef="0" IVar="-1" Cut="0.0000000000000000e+00" cType="1" res="-6.2658898532390594e-03" rms="2.9592454433441162e-01" purity="1.4438782632350922e-01" nType="-99"/>
          <Node pos="r" depth="2" NCoef="0" IVar="2" Cut="3.2304144287109375e+02" cType="1" res="-1.3536792248487473e-02" rms="3.9348816871643066e-01" purity="4.0713351964950562e-01" nType="0">
            <Node pos="l" depth="3" NCoef="0" IVar="-1" Cut="0.0000000000000000e+00" cType="1" res="4.2633150587789714e-04" rms="3.9985734224319458e-01" purity="4.7953325510025024e-01" nType="-99"/>
            <Node pos="r" depth="3" NCoef="0" IVar="-1" Cut="0.0000000000000000e+00" cType="1" res="-1.9622195977717638e-03" rms="3.8613057136535645e-01" purity="3.3981356024742126e-01" nType="-99"/>
          </Node>
        </Node>
        <Node pos="r" depth="1" NCoef="0" IVar="7" Cut="6.5389740467071533e-01" cType="1" res="1.6761595383286476e-02" rms="3.9597052335739136e-01" purity="5.4362410306930542e-01" nType="0">
          <Node pos="l" depth="2" NCoef="0" IVar="9" Cut="-1.4662855863571167e+00" cType="1" res="3.0491897836327553e-02" rms="3.9961314201354980e-01" purity="6.1882352828979492e-01" nType="0">
            <Node pos="l" depth="3" NCoef="0" IVar="-1" Cut="0.0000000000000000e+00" cType="1" res="-1.8995673162862659e-03" rms="4.0683695673942566e-01" purity="3.9134573936462402e-01" nType="-99"/>
            <Node pos="r" depth="3" NCoef="0" IVar="-1" Cut="0.0000000000000000e+00" cType="1" res="1.3677917886525393e-03" rms="3.9838939905166626e-01" purity="6.3889318704605103e-01" nType="-99"/>
          </Node>
          <Node pos="r" depth="2" NCoef="0" IVar="3" Cut="2.4582321166992188e+02" cType="1" res="-1.1019425466656685e-02" rms="3.8700875639915466e-01" purity="3.9147052168846130e-01" nType="0">
            <Node pos="l" depth="3" NCoef="0" IVar="-1" Cut="0.0000000000000000e+00" cType="1" res="1.2157217133790255e-04" rms="3.8276091217994690e-01" purity="3.9432331919670105e-01" nType="-99"/>
            <Node pos="r" depth="3" NCoef="0" IVar="-1" Cut="0.0000000000000000e+00" cType="1" res="-2.9812520369887352e-03" rms="3.9675128459930420e-01" purity="3.8284593820571899e-01" nType="-99"/>
          </Node>
        </Node>
      </Node>
    </BinaryTree>
    <BinaryTree type="DecisionTree" boostWeight="1.0000000000000000e+00" itree="422">
      <Node pos="s" depth="0" NCoef="0" IVar="0" Cut="1.5806380615234375e+03" cType="1" res="4.7728135250508785e-03" rms="3.9311835169792175e-01" purity="4.9893811345100403e-01" nType="0">
        <Node pos="l" depth="1" NCoef="0" IVar="2" Cut="2.6485058593750000e+02" cType="1" res="-7.1667842566967010e-03" rms="3.9673548936843872e-01" purity="4.3631196022033691e-01" nType="0">
          <Node pos="l" depth="2" NCoef="0" IVar="0" Cut="1.2088281250000000e+03" cType="1" res="2.4953324347734451e-02" rms="4.0217557549476624e-01" purity="5.5258041620254517e-01" nType="0">
            <Node pos="l" depth="3" NCoef="0" IVar="-1" Cut="0.0000000000000000e+00" cType="1" res="6.8858265876770020e-05" rms="4.2987298965454102e-01" purity="3.9194917678833008e-01" nType="-99"/>
            <Node pos="r" depth="3" NCoef="0" IVar="-1" Cut="0.0000000000000000e+00" cType="1" res="2.2815277334302664e-03" rms="3.5158365964889526e-01" purity="8.0358797311782837e-01" nType="-99"/>
          </Node>
          <Node pos="r" depth="2" NCoef="0" IVar="0" Cut="1.3206661376953125e+03" cType="1" res="-2.4105086922645569e-02" rms="3.9278006553649902e-01" purity="3.7499865889549255e-01" nType="0">
            <Node pos="l" depth="3" NCoef="0" IVar="-1" Cut="0.0000000000000000e+00" cType="1" res="-2.0831828005611897e-03" rms="3.8520213961601257e-01" purity="2.6384168863296509e-01" nType="-99"/>
            <Node pos="r" depth="3" NCoef="0" IVar="-1" Cut="0.0000000000000000e+00" cType="1" res="-7.4738360126502812e-05" rms="3.9971682429313660e-01" purity="4.9686381220817566e-01" nType="-99"/>
          </Node>
        </Node>
        <Node pos="r" depth="1" NCoef="0" IVar="2" Cut="6.0636901855468750e+02" cType="1" res="3.3539049327373505e-02" rms="3.8273701071739197e-01" purity="6.4982408285140991e-01" nType="0">
          <Node pos="l" depth="2" NCoef="0" IVar="3" Cut="2.7185809326171875e+02" cType="1" res="5.5078525096178055e-02" rms="3.6230674386024475e-01" purity="7.3753547668457031e-01" nType="0">
            <Node pos="l" depth="3" NCoef="0" IVar="-1" Cut="0.0000000000000000e+00" cType="1" res="3.5407424438744783e-03" rms="3.1838855147361755e-01" purity="8.3122986555099487e-01" nType="-99"/>
            <Node pos="r" depth="3" NCoef="0" IVar="-1" Cut="0.0000000000000000e+00" cType="1" res="8.7118108058348298e-04" rms="4.0265125036239624e-01" purity="6.3421714305877686e-01" nType="-99"/>
          </Node>
          <Node pos="r" depth="2" NCoef="0" IVar="3" Cut="3.3689443969726562e+02" cType="1" res="-2.0466554909944534e-02" rms="4.2493787407875061e-01" purity="4.2990666627883911e-01" nType="0">
            <Node pos="l" depth="3" NCoef="0" IVar="-1" Cut="0.0000000000000000e+00" cType="1" res="2.5299147819168866e-04" rms="4.2544335126876831e-01" purity="4.5771101117134094e-01" nType="-99"/>
            <Node pos="r" depth="3" NCoef="0" IVar="-1" Cut="0.0000000000000000e+00" cType="1" res="-4.0411888621747494e-03" rms="4.1842186450958252e-01" purity="3.7136229872703552e-01" nType="-99"/>
          </Node>
        </Node>
      </Node>
    </BinaryTree>
    <BinaryTree type="DecisionTree" boostWeight="1.0000000000000000e+00" itree="423">
      <Node pos="s" depth="0" NCoef="0" IVar="0" Cut="1.1903468017578125e+03" cType="1" res="6.7600468173623085e-03" rms="3.9328789710998535e-01" purity="5.0098901987075806e-01" nType="0">
        <Node pos="l" depth="1" NCoef="0" IVar="2" Cut="2.3667158508300781e+02" cType="1" res="-2.2088609635829926e-02" rms="4.0177416801452637e-01" purity="2.9191118478775024e-01" nType="0">
          <Node pos="l" depth="2" NCoef="0" IVar="-1" Cut="0.0000000000000000e+00" cType="1" res="3.7318980321288109e-04" rms="4.3261092901229858e-01" purity="4.0434426069259644e-01" nType="-99"/>
          <Node pos="r" depth="2" NCoef="0" IVar="0" Cut="1.1160399169921875e+03" cType="1" res="-3.7044946104288101e-02" rms="3.8555109500885010e-01" purity="2.3915749788284302e-01" nType="0">
            <Node pos="l" depth="3" NCoef="0" IVar="-1" Cut="0.0000000000000000e+00" cType="1" res="-2.5994896423071623e-03" rms="3.6323913931846619e-01" purity="1.8741254508495331e-01" nType="-99"/>
            <Node pos="r" depth="3" NCoef="0" IVar="-1" Cut="0.0000000000000000e+00" cType="1" res="-2.3559282999485731e-04" rms="4.1926398873329163e-01" purity="3.2805010676383972e-01" nType="-99"/>
          </Node>
        </Node>
        <Node pos="r" depth="1" NCoef="0" IVar="3" Cut="2.4193196105957031e+02" cType="1" res="1.7545234411954880e-02" rms="3.8951957225799561e-01" purity="5.7915359735488892e-01" nType="0">
          <Node pos="l" depth="2" NCoef="0" IVar="2" Cut="3.2171066284179688e+02" cType="1" res="3.5342425107955933e-02" rms="3.8218840956687927e-01" purity="6.0895740985870361e-01" nType="0">
            <Node pos="l" depth="3" NCoef="0" IVar="-1" Cut="0.0000000000000000e+00" cType="1" res="2.3458783980458975e-03" rms="3.5457777976989746e-01" purity="7.8358650207519531e-01" nType="-99"/>
            <Node pos="r" depth="3" NCoef="0" IVar="-1" Cut="0.0000000000000000e+00" cType="1" res="5.7436531642451882e-04" rms="4.0199679136276245e-01" purity="4.6618908643722534e-01" nType="-99"/>
          </Node>
          <Node pos="r" depth="2" NCoef="0" IVar="0" Cut="1.5621116943359375e+03" cType="1" res="-1.0195330716669559e-02" rms="3.9909976720809937e-01" purity="5.3269815444946289e-01" nType="0">
            <Node pos="l" depth="3" NCoef="0" IVar="-1" Cut="0.0000000000000000e+00" cType="1" res="-2.3973863571882248e-03" rms="3.9661574363708496e-01" purity="4.1263765096664429e-01" nType="-99"/>
            <Node pos="r" depth="3" NCoef="0" IVar="-1" Cut="0.0000000000000000e+00" cType="1" res="3.6691816058009863e-04" rms="3.9900386333465576e-01" purity="5.9146475791931152e-01" nType="-99"/>
          </Node>
        </Node>
      </Node>
    </BinaryTree>
    <BinaryTree type="DecisionTree" boostWeight="1.0000000000000000e+00" itree="424">
      <Node pos="s" depth="0" NCoef="0" IVar="2" Cut="4.8050018310546875e+02" cType="1" res="8.9762648567557335e-03" rms="3.9312857389450073e-01" purity="5.0362551212310791e-01" nType="0">
        <Node pos="l" depth="1" NCoef="0" IVar="0" Cut="1.3534830322265625e+03" cType="1" res="1.8304124474525452e-02" rms="3.9104503393173218e-01" purity="5.3651368618011475e-01" nType="0">
          <Node pos="l" depth="2" NCoef="0" IVar="3" Cut="2.0658706665039062e+02" cType="1" res="-2.3484472185373306e-03" rms="4.1075202822685242e-01" purity="3.8644927740097046e-01" nType="0">
            <Node pos="l" depth="3" NCoef="0" IVar="-1" Cut="0.0000000000000000e+00" cType="1" res="5.2047939971089363e-04" rms="4.1046264767646790e-01" purity="3.9411699771881104e-01" nType="-99"/>
            <Node pos="r" depth="3" NCoef="0" IVar="-1" Cut="0.0000000000000000e+00" cType="1" res="-3.1503748614341021e-03" rms="4.0538397431373596e-01" purity="3.5403859615325928e-01" nType="-99"/>
          </Node>
          <Node pos="r" depth="2" NCoef="0" IVar="3" Cut="2.2490989685058594e+02" cType="1" res="4.5823443681001663e-02" rms="3.6129751801490784e-01" purity="7.3647284507751465e-01" nType="0">
            <Node pos="l" depth="3" NCoef="0" IVar="-1" Cut="0.0000000000000000e+00" cType="1" res="3.1996904872357845e-03" rms="3.3048203587532043e-01" purity="8.1232541799545288e-01" nType="-99"/>
            <Node pos="r" depth="3" NCoef="0" IVar="-1" Cut="0.0000000000000000e+00" cType="1" res="7.6899747364223003e-04" rms="3.8180461525917053e-01" purity="6.7586714029312134e-01" nType="-99"/>
          </Node>
        </Node>
        <Node pos="r" depth="1" NCoef="0" IVar="0" Cut="1.9987750244140625e+03" cType="1" res="-2.7679208666086197e-02" rms="3.9910528063774109e-01" purity="3.7438568472862244e-01" nType="0">
          <Node pos="l" depth="2" NCoef="0" IVar="3" Cut="1.4319320678710938e+02" cType="1" res="-4.8039495944976807e-02" rms="3.8218528032302856e-01" purity="2.8103932738304138e-01" nType="0">
            <Node pos="l" depth="3" NCoef="0" IVar="-1" Cut="0.0000000000000000e+00" cType="1" res="5.2675924962386489e-04" rms="3.9730045199394226e-01" purity="2.9594060778617859e-01" nType="-99"/>
            <Node pos="r" depth="3" NCoef="0" IVar="-1" Cut="0.0000000000000000e+00" cType="1" res="-1.3938471674919128e-03" rms="3.7731114029884338e-01" purity="2.7758461236953735e-01" nType="-99"/>
          </Node>
          <Node pos="r" depth="2" NCoef="0" IVar="3" Cut="3.4575900268554688e+02" cType="1" res="1.8996121361851692e-02" rms="4.3181163072586060e-01" purity="5.8837926387786865e-01" nType="0">
            <Node pos="l" depth="3" NCoef="0" IVar="-1" Cut="0.0000000000000000e+00" cType="1" res="2.6964121498167515e-03" rms="4.1965758800506592e-01" purity="6.7406475543975830e-01" nType="-99"/>
            <Node pos="r" depth="3" NCoef="0" IVar="-1" Cut="0.0000000000000000e+00" cType="1" res="-2.3895648773759604e-03" rms="4.3504902720451355e-01" purity="4.8880296945571899e-01" nType="-99"/>
          </Node>
        </Node>
      </Node>
    </BinaryTree>
    <BinaryTree type="DecisionTree" boostWeight="1.0000000000000000e+00" itree="425">
      <Node pos="s" depth="0" NCoef="0" IVar="7" Cut="1.4667043685913086e+00" cType="1" res="3.8037248887121677e-03" rms="3.9153483510017395e-01" purity="4.9965640902519226e-01" nType="0">
        <Node pos="l" depth="1" NCoef="0" IVar="0" Cut="1.5807247314453125e+03" cType="1" res="9.1148819774389267e-03" rms="3.9620134234428406e-01" purity="5.2553796768188477e-01" nType="0">
          <Node pos="l" depth="2" NCoef="0" IVar="2" Cut="2.3015397644042969e+02" cType="1" res="-1.3439845060929656e-03" rms="4.0324774384498596e-01" purity="4.6200749278068542e-01" nType="0">
            <Node pos="l" depth="3" NCoef="0" IVar="-1" Cut="0.0000000000000000e+00" cType="1" res="2.0048795267939568e-03" rms="4.1339930891990662e-01" purity="5.9298837184906006e-01" nType="-99"/>
            <Node pos="r" depth="3" NCoef="0" IVar="-1" Cut="0.0000000000000000e+00" cType="1" res="-5.2517041331157088e-04" rms="4.0029850602149963e-01" purity="4.3636855483055115e-01" nType="-99"/>
          </Node>
          <Node pos="r" depth="2" NCoef="0" IVar="3" Cut="3.4304379272460938e+02" cType="1" res="3.2838348299264908e-02" rms="3.7866461277008057e-01" purity="6.6964179277420044e-01" nType="0">
            <Node pos="l" depth="3" NCoef="0" IVar="-1" Cut="0.0000000000000000e+00" cType="1" res="1.2706863926723599e-03" rms="3.6469465494155884e-01" purity="7.1542483568191528e-01" nType="-99"/>
            <Node pos="r" depth="3" NCoef="0" IVar="-1" Cut="0.0000000000000000e+00" cType="1" res="-1.3108114944770932e-03" rms="4.1907486319541931e-01" purity="5.0596594810485840e-01" nType="-99"/>
          </Node>
        </Node>
        <Node pos="r" depth="1" NCoef="0" IVar="4" Cut="1.3113064575195312e+02" cType="1" res="-6.0361023992300034e-02" rms="3.2315897941589355e-01" purity="1.8697744607925415e-01" nType="0">
          <Node pos="l" depth="2" NCoef="0" IVar="-1" Cut="0.0000000000000000e+00" cType="1" res="-3.6822103429585695e-03" rms="2.9742291569709778e-01" purity="1.3131941854953766e-01" nType="-99"/>
          <Node pos="r" depth="2" NCoef="0" IVar="-1" Cut="0.0000000000000000e+00" cType="1" res="-5.3125349804759026e-03" rms="3.5230484604835510e-01" purity="2.5922554731369019e-01" nType="-99"/>
        </Node>
      </Node>
    </BinaryTree>
    <BinaryTree type="DecisionTree" boostWeight="1.0000000000000000e+00" itree="426">
      <Node pos="s" depth="0" NCoef="0" IVar="9" Cut="-9.3328028917312622e-01" cType="1" res="5.1305876113474369e-03" rms="3.9155995845794678e-01" purity="5.0250166654586792e-01" nType="0">
        <Node pos="l" depth="1" NCoef="0" IVar="2" Cut="4.6536669921875000e+02" cType="1" res="-2.9676314443349838e-02" rms="3.8208383321762085e-01" purity="3.7737274169921875e-01" nType="0">
          <Node pos="l" depth="2" NCoef="0" IVar="6" Cut="6.8831914663314819e-01" cType="1" res="-1.5934750437736511e-02" rms="3.8768932223320007e-01" purity="4.1902676224708557e-01" nType="0">
            <Node pos="l" depth="3" NCoef="0" IVar="-1" Cut="0.0000000000000000e+00" cType="1" res="-1.4290394028648734e-04" rms="3.9395329356193542e-01" purity="4.5949861407279968e-01" nType="-99"/>
            <Node pos="r" depth="3" NCoef="0" IVar="-1" Cut="0.0000000000000000e+00" cType="1" res="-4.7680167481303215e-03" rms="3.5558682680130005e-01" purity="2.5088888406753540e-01" nType="-99"/>
          </Node>
          <Node pos="r" depth="2" NCoef="0" IVar="-1" Cut="0.0000000000000000e+00" cType="1" res="-6.3648382201790810e-03" rms="3.5632321238517761e-01" purity="2.2485941648483276e-01" nType="-99"/>
        </Node>
        <Node pos="r" depth="1" NCoef="0" IVar="9" Cut="1.2000119686126709e+00" cType="1" res="1.3661128468811512e-02" rms="3.9337798953056335e-01" purity="5.3316849470138550e-01" nType="0">
          <Node pos="l" depth="2" NCoef="0" IVar="8" Cut="1.4666385650634766e+00" cType="1" res="2.3551940917968750e-02" rms="3.9727416634559631e-01" purity="5.7345789670944214e-01" nType="0">
            <Node pos="l" depth="3" NCoef="0" IVar="-1" Cut="0.0000000000000000e+00" cType="1" res="1.1163342278450727e-03" rms="3.9820790290832520e-01" purity="5.9534078836441040e-01" nType="-99"/>
            <Node pos="r" depth="3" NCoef="0" IVar="-1" Cut="0.0000000000000000e+00" cType="1" res="-2.2616230417042971e-03" rms="3.7961328029632568e-01" purity="3.0090549588203430e-01" nType="-99"/>
          </Node>
          <Node pos="r" depth="2" NCoef="0" IVar="9" Cut="1.6571550369262695e+00" cType="1" res="-3.2031666487455368e-02" rms="3.7145030498504639e-01" purity="3.4704285860061646e-01" nType="0">
            <Node pos="l" depth="3" NCoef="0" IVar="-1" Cut="0.0000000000000000e+00" cType="1" res="-4.6734281932003796e-04" rms="3.9076000452041626e-01" purity="4.2600807547569275e-01" nType="-99"/>
            <Node pos="r" depth="3" NCoef="0" IVar="-1" Cut="0.0000000000000000e+00" cType="1" res="-2.9202133882790804e-03" rms="3.5106709599494934e-01" purity="2.7300453186035156e-01" nType="-99"/>
          </Node>
        </Node>
      </Node>
    </BinaryTree>
    <BinaryTree type="DecisionTree" boostWeight="1.0000000000000000e+00" itree="427">
      <Node pos="s" depth="0" NCoef="0" IVar="0" Cut="1.1903264160156250e+03" cType="1" res="5.6074825115501881e-03" rms="3.9354217052459717e-01" purity="5.0065183639526367e-01" nType="0">
        <Node pos="l" depth="1" NCoef="0" IVar="0" Cut="1.0044675903320312e+03" cType="1" res="-2.3428406566381454e-02" rms="3.9893901348114014e-01" purity="2.9121264815330505e-01" nType="0">
          <Node pos="l" depth="2" NCoef="0" IVar="-1" Cut="0.0000000000000000e+00" cType="1" res="-3.2335480209439993e-03" rms="3.7355941534042358e-01" purity="1.9445849955081940e-01" nType="-99"/>
          <Node pos="r" depth="2" NCoef="0" IVar="3" Cut="1.7635443115234375e+02" cType="1" res="-7.6628774404525757e-03" rms="4.0724444389343262e-01" purity="3.2865238189697266e-01" nType="0">
            <Node pos="l" depth="3" NCoef="0" IVar="-1" Cut="0.0000000000000000e+00" cType="1" res="6.0501991538330913e-04" rms="4.0799066424369812e-01" purity="3.4033676981925964e-01" nType="-99"/>
            <Node pos="r" depth="3" NCoef="0" IVar="-1" Cut="0.0000000000000000e+00" cType="1" res="-2.2621771786361933e-03" rms="4.0197947621345520e-01" purity="3.0498141050338745e-01" nType="-99"/>
          </Node>
        </Node>
        <Node pos="r" depth="1" NCoef="0" IVar="2" Cut="4.0314468383789062e+02" cType="1" res="1.6621408984065056e-02" rms="3.9091178774833679e-01" purity="5.8009654283523560e-01" nType="0">
          <Node pos="l" depth="2" NCoef="0" IVar="3" Cut="1.9504824829101562e+02" cType="1" res="3.7285946309566498e-02" rms="3.7661704421043396e-01" purity="7.0083701610565186e-01" nType="0">
            <Node pos="l" depth="3" NCoef="0" IVar="-1" Cut="0.0000000000000000e+00" cType="1" res="2.5968505069613457e-03" rms="3.7387907505035400e-01" purity="7.3465675115585327e-01" nType="-99"/>
            <Node pos="r" depth="3" NCoef="0" IVar="-1" Cut="0.0000000000000000e+00" cType="1" res="6.9333525607362390e-04" rms="3.7658435106277466e-01" purity="6.8153655529022217e-01" nType="-99"/>
          </Node>
          <Node pos="r" depth="2" NCoef="0" IVar="0" Cut="1.9337976074218750e+03" cType="1" res="-1.0569225065410137e-02" rms="4.0736642479896545e-01" purity="4.2122489213943481e-01" nType="0">
            <Node pos="l" depth="3" NCoef="0" IVar="-1" Cut="0.0000000000000000e+00" cType="1" res="-7.5448281131684780e-04" rms="3.9951232075691223e-01" purity="3.4991058707237244e-01" nType="-99"/>
            <Node pos="r" depth="3" NCoef="0" IVar="-1" Cut="0.0000000000000000e+00" cType="1" res="1.0738598648458719e-03" rms="4.2517465353012085e-01" purity="6.1157417297363281e-01" nType="-99"/>
          </Node>
        </Node>
      </Node>
    </BinaryTree>
    <BinaryTree type="DecisionTree" boostWeight="1.0000000000000000e+00" itree="428">
      <Node pos="s" depth="0" NCoef="0" IVar="6" Cut="-6.5112686157226562e-01" cType="1" res="3.8648738991469145e-03" rms="3.9216798543930054e-01" purity="4.9939951300621033e-01" nType="0">
        <Node pos="l" depth="1" NCoef="0" IVar="3" Cut="2.3199250793457031e+02" cType="1" res="-3.0423829331994057e-02" rms="3.7761312723159790e-01" purity="3.7095063924789429e-01" nType="0">
          <Node pos="l" depth="2" NCoef="0" IVar="0" Cut="1.3975062255859375e+03" cType="1" res="-1.6974896192550659e-02" rms="3.7429481744766235e-01" purity="3.6201646924018860e-01" nType="0">
            <Node pos="l" depth="3" NCoef="0" IVar="-1" Cut="0.0000000000000000e+00" cType="1" res="-1.9348426721990108e-03" rms="3.7280467152595520e-01" purity="2.6849126815795898e-01" nType="-99"/>
            <Node pos="r" depth="3" NCoef="0" IVar="-1" Cut="0.0000000000000000e+00" cType="1" res="1.7459174850955606e-03" rms="3.7178799510002136e-01" purity="5.9774863719940186e-01" nType="-99"/>
          </Node>
          <Node pos="r" depth="2" NCoef="0" IVar="0" Cut="1.6285258789062500e+03" cType="1" res="-6.1853948980569839e-02" rms="3.8342159986495972e-01" purity="3.9182987809181213e-01" nType="0">
            <Node pos="l" depth="3" NCoef="0" IVar="-1" Cut="0.0000000000000000e+00" cType="1" res="-5.4019917733967304e-03" rms="3.6841401457786560e-01" purity="2.8573051095008850e-01" nType="-99"/>
            <Node pos="r" depth="3" NCoef="0" IVar="-1" Cut="0.0000000000000000e+00" cType="1" res="-1.8882042495533824e-03" rms="3.9585086703300476e-01" purity="4.9264550209045410e-01" nType="-99"/>
          </Node>
        </Node>
        <Node pos="r" depth="1" NCoef="0" IVar="0" Cut="1.1904589843750000e+03" cType="1" res="1.4730852097272873e-02" rms="3.9605000615119934e-01" purity="5.4010450839996338e-01" nType="0">
          <Node pos="l" depth="2" NCoef="0" IVar="2" Cut="2.5787130737304688e+02" cType="1" res="-1.8316142261028290e-02" rms="4.1503006219863892e-01" purity="3.2215368747711182e-01" nType="0">
            <Node pos="l" depth="3" NCoef="0" IVar="-1" Cut="0.0000000000000000e+00" cType="1" res="5.5262621026486158e-04" rms="4.4742152094841003e-01" purity="4.2830178141593933e-01" nType="-99"/>
            <Node pos="r" depth="3" NCoef="0" IVar="-1" Cut="0.0000000000000000e+00" cType="1" res="-2.1384295541793108e-03" rms="3.8037493824958801e-01" purity="2.2494259476661682e-01" nType="-99"/>
          </Node>
          <Node pos="r" depth="2" NCoef="0" IVar="3" Cut="2.1928494262695312e+02" cType="1" res="2.6364201679825783e-02" rms="3.8847988843917847e-01" purity="6.1682856082916260e-01" nType="0">
            <Node pos="l" depth="3" NCoef="0" IVar="-1" Cut="0.0000000000000000e+00" cType="1" res="2.0556438248604536e-03" rms="3.8113218545913696e-01" purity="6.4527326822280884e-01" nType="-99"/>
            <Node pos="r" depth="3" NCoef="0" IVar="-1" Cut="0.0000000000000000e+00" cType="1" res="1.1911764886463061e-04" rms="3.9362543821334839e-01" purity="5.9069848060607910e-01" nType="-99"/>
          </Node>
        </Node>
      </Node>
    </BinaryTree>
    <BinaryTree type="DecisionTree" boostWeight="1.0000000000000000e+00" itree="429">
      <Node pos="s" depth="0" NCoef="0" IVar="2" Cut="6.3790734863281250e+02" cType="1" res="5.8863251470029354e-03" rms="3.9102047681808472e-01" purity="5.0134629011154175e-01" nType="0">
        <Node pos="l" depth="1" NCoef="0" IVar="0" Cut="1.7062838134765625e+03" cType="1" res="1.1041584424674511e-02" rms="3.8995251059532166e-01" purity="5.1151663064956665e-01" nType="0">
          <Node pos="l" depth="2" NCoef="0" IVar="2" Cut="2.2085429382324219e+02" cType="1" res="1.4278169255703688e-03" rms="3.9523097872734070e-01" purity="4.6739372611045837e-01" nType="0">
            <Node pos="l" depth="3" NCoef="0" IVar="-1" Cut="0.0000000000000000e+00" cType="1" res="2.4739259388297796e-03" rms="4.0637883543968201e-01" purity="5.8402281999588013e-01" nType="-99"/>
            <Node pos="r" depth="3" NCoef="0" IVar="-1" Cut="0.0000000000000000e+00" cType="1" res="-2.7032580692321062e-04" rms="3.9325547218322754e-01" purity="4.5447704195976257e-01" nType="-99"/>
          </Node>
          <Node pos="r" depth="2" NCoef="0" IVar="2" Cut="4.2956729125976562e+02" cType="1" res="6.5152607858181000e-02" rms="3.5395902395248413e-01" purity="7.5986194610595703e-01" nType="0">
            <Node pos="l" depth="3" NCoef="0" IVar="-1" Cut="0.0000000000000000e+00" cType="1" res="3.9963959716260433e-03" rms="2.8093063831329346e-01" purity="8.8977587223052979e-01" nType="-99"/>
            <Node pos="r" depth="3" NCoef="0" IVar="-1" Cut="0.0000000000000000e+00" cType="1" res="1.3431266415864229e-03" rms="4.1311049461364746e-01" purity="6.2724429368972778e-01" nType="-99"/>
          </Node>
        </Node>
        <Node pos="r" depth="1" NCoef="0" IVar="1" Cut="6.3030322265625000e+02" cType="1" res="-5.5102769285440445e-02" rms="3.9840963482856750e-01" purity="3.8102704286575317e-01" nType="0">
          <Node pos="l" depth="2" NCoef="0" IVar="-1" Cut="0.0000000000000000e+00" cType="1" res="-1.3133041793480515e-03" rms="3.6177483201026917e-01" purity="2.3122461140155792e-01" nType="-99"/>
          <Node pos="r" depth="2" NCoef="0" IVar="-1" Cut="0.0000000000000000e+00" cType="1" res="1.0780539596453309e-03" rms="4.4092366099357605e-01" purity="6.3805621862411499e-01" nType="-99"/>
        </Node>
      </Node>
    </BinaryTree>
    <BinaryTree type="DecisionTree" boostWeight="1.0000000000000000e+00" itree="430">
      <Node pos="s" depth="0" NCoef="0" IVar="9" Cut="9.3338555097579956e-01" cType="1" res="6.6913673654198647e-03" rms="3.9238303899765015e-01" purity="5.0142806768417358e-01" nType="0">
        <Node pos="l" depth="1" NCoef="0" IVar="9" Cut="-8.4431862831115723e-01" cType="1" res="1.5353721566498280e-02" rms="3.9421141147613525e-01" purity="5.3246945142745972e-01" nType="0">
          <Node pos="l" depth="2" NCoef="0" IVar="6" Cut="-9.0007930994033813e-01" cType="1" res="-1.4259762130677700e-02" rms="3.8553166389465332e-01" purity="4.0852713584899902e-01" nType="0">
            <Node pos="l" depth="3" NCoef="0" IVar="-1" Cut="0.0000000000000000e+00" cType="1" res="-3.9041952695697546e-03" rms="3.3977976441383362e-01" purity="2.2650687396526337e-01" nType="-99"/>
            <Node pos="r" depth="3" NCoef="0" IVar="-1" Cut="0.0000000000000000e+00" cType="1" res="-1.3705581659451127e-04" rms="3.9593794941902161e-01" purity="4.5650276541709900e-01" nType="-99"/>
          </Node>
          <Node pos="r" depth="2" NCoef="0" IVar="2" Cut="6.0625231933593750e+02" cType="1" res="2.6788977906107903e-02" rms="3.9692154526710510e-01" purity="5.8032977581024170e-01" nType="0">
            <Node pos="l" depth="3" NCoef="0" IVar="-1" Cut="0.0000000000000000e+00" cType="1" res="1.2967025395482779e-03" rms="3.9372387528419495e-01" purity="5.9517329931259155e-01" nType="-99"/>
            <Node pos="r" depth="3" NCoef="0" IVar="-1" Cut="0.0000000000000000e+00" cType="1" res="-1.5080126468092203e-03" rms="4.2245224118232727e-01" purity="4.3478679656982422e-01" nType="-99"/>
          </Node>
        </Node>
        <Node pos="r" depth="1" NCoef="0" IVar="8" Cut="9.3354159593582153e-01" cType="1" res="-2.7958247810602188e-02" rms="3.8302859663963318e-01" purity="3.7726208567619324e-01" nType="0">
          <Node pos="l" depth="2" NCoef="0" IVar="0" Cut="1.4073405761718750e+03" cType="1" res="-1.7415495589375496e-02" rms="3.9084687829017639e-01" purity="4.2368337512016296e-01" nType="0">
            <Node pos="l" depth="3" NCoef="0" IVar="-1" Cut="0.0000000000000000e+00" cType="1" res="-1.9973102025687695e-03" rms="3.8557919859886169e-01" purity="3.1273648142814636e-01" nType="-99"/>
            <Node pos="r" depth="3" NCoef="0" IVar="-1" Cut="0.0000000000000000e+00" cType="1" res="5.7797098997980356e-04" rms="3.9547562599182129e-01" purity="5.6646203994750977e-01" nType="-99"/>
          </Node>
          <Node pos="r" depth="2" NCoef="0" IVar="8" Cut="1.4668357372283936e+00" cType="1" res="-5.9221807867288589e-02" rms="3.5701826214790344e-01" purity="2.3960402607917786e-01" nType="0">
            <Node pos="l" depth="3" NCoef="0" IVar="-1" Cut="0.0000000000000000e+00" cType="1" res="-2.2661760449409485e-03" rms="3.9827919006347656e-01" purity="3.3258253335952759e-01" nType="-99"/>
            <Node pos="r" depth="3" NCoef="0" IVar="-1" Cut="0.0000000000000000e+00" cType="1" res="-6.6711353138089180e-03" rms="3.1015452742576599e-01" purity="1.4762030541896820e-01" nType="-99"/>
          </Node>
        </Node>
      </Node>
    </BinaryTree>
    <BinaryTree type="DecisionTree" boostWeight="1.0000000000000000e+00" itree="431">
      <Node pos="s" depth="0" NCoef="0" IVar="6" Cut="-1.4474785327911377e+00" cType="1" res="6.7554297856986523e-03" rms="3.9170241355895996e-01" purity="5.0247937440872192e-01" nType="0">
        <Node pos="l" depth="1" NCoef="0" IVar="8" Cut="-3.9891123771667480e-01" cType="1" res="-5.6744106113910675e-02" rms="3.3253192901611328e-01" purity="2.0581103861331940e-01" nType="0">
          <Node pos="l" depth="2" NCoef="0" IVar="-1" Cut="0.0000000000000000e+00" cType="1" res="-7.5188255868852139e-03" rms="2.8818094730377197e-01" purity="1.4569163322448730e-01" nType="-99"/>
          <Node pos="r" depth="2" NCoef="0" IVar="-1" Cut="0.0000000000000000e+00" cType="1" res="-1.9684375729411840e-03" rms="3.5787373781204224e-01" purity="2.4727453291416168e-01" nType="-99"/>
        </Node>
        <Node pos="r" depth="1" NCoef="0" IVar="8" Cut="-1.7333260774612427e+00" cType="1" res="1.1286993511021137e-02" rms="3.9519697427749634e-01" purity="5.2365076541900635e-01" nType="0">
          <Node pos="l" depth="2" NCoef="0" IVar="8" Cut="-2.0888941287994385e+00" cType="1" res="-5.8601696044206619e-02" rms="3.4251382946968079e-01" purity="2.2227349877357483e-01" nType="0">
            <Node pos="l" depth="3" NCoef="0" IVar="-1" Cut="0.0000000000000000e+00" cType="1" res="-5.3503825329244137e-03" rms="3.1422907114028931e-01" purity="1.8030312657356262e-01" nType="-99"/>
            <Node pos="r" depth="3" NCoef="0" IVar="-1" Cut="0.0000000000000000e+00" cType="1" res="-2.3007744457572699e-03" rms="3.6746838688850403e-01" purity="2.6415461301803589e-01" nType="-99"/>
          </Node>
          <Node pos="r" depth="2" NCoef="0" IVar="6" Cut="1.5862452983856201e+00" cType="1" res="1.5369784086942673e-02" rms="3.9767962694168091e-01" purity="5.4125672578811646e-01" nType="0">
            <Node pos="l" depth="3" NCoef="0" IVar="-1" Cut="0.0000000000000000e+00" cType="1" res="6.8273930810391903e-04" rms="4.0051466226577759e-01" purity="5.6143957376480103e-01" nType="-99"/>
            <Node pos="r" depth="3" NCoef="0" IVar="-1" Cut="0.0000000000000000e+00" cType="1" res="-3.6216753069311380e-03" rms="3.4099400043487549e-01" purity="2.1482078731060028e-01" nType="-99"/>
          </Node>
        </Node>
      </Node>
    </BinaryTree>
    <BinaryTree type="DecisionTree" boostWeight="1.0000000000000000e+00" itree="432">
      <Node pos="s" depth="0" NCoef="0" IVar="2" Cut="6.2838885498046875e+02" cType="1" res="2.1760996896773577e-03" rms="3.9223054051399231e-01" purity="4.9850136041641235e-01" nType="0">
        <Node pos="l" depth="1" NCoef="0" IVar="0" Cut="1.5900163574218750e+03" cType="1" res="7.5517222285270691e-03" rms="3.9112710952758789e-01" purity="5.1022917032241821e-01" nType="0">
          <Node pos="l" depth="2" NCoef="0" IVar="2" Cut="2.6120233154296875e+02" cType="1" res="-5.0258771516382694e-03" rms="3.9848881959915161e-01" purity="4.4388735294342041e-01" nType="0">
            <Node pos="l" depth="3" NCoef="0" IVar="-1" Cut="0.0000000000000000e+00" cType="1" res="1.0788808576762676e-03" rms="3.9983734488487244e-01" purity="5.5953282117843628e-01" nType="-99"/>
            <Node pos="r" depth="3" NCoef="0" IVar="-1" Cut="0.0000000000000000e+00" cType="1" res="-9.7869988530874252e-04" rms="3.9682620763778687e-01" purity="3.8765558600425720e-01" nType="-99"/>
          </Node>
          <Node pos="r" depth="2" NCoef="0" IVar="3" Cut="3.0539129638671875e+02" cType="1" res="4.9327816814184189e-02" rms="3.6249446868896484e-01" purity="7.3058146238327026e-01" nType="0">
            <Node pos="l" depth="3" NCoef="0" IVar="-1" Cut="0.0000000000000000e+00" cType="1" res="3.0327350832521915e-03" rms="3.3555057644844055e-01" purity="8.0258315801620483e-01" nType="-99"/>
            <Node pos="r" depth="3" NCoef="0" IVar="-1" Cut="0.0000000000000000e+00" cType="1" res="-4.8284688091371208e-05" rms="4.0928378701210022e-01" purity="5.7800519466400146e-01" nType="-99"/>
          </Node>
        </Node>
        <Node pos="r" depth="1" NCoef="0" IVar="1" Cut="5.5456878662109375e+02" cType="1" res="-5.8752335608005524e-02" rms="3.9950254559516907e-01" purity="3.6557582020759583e-01" nType="0">
          <Node pos="l" depth="2" NCoef="0" IVar="-1" Cut="0.0000000000000000e+00" cType="1" res="-1.2248979182913899e-03" rms="3.4763726592063904e-01" purity="1.9140848517417908e-01" nType="-99"/>
          <Node pos="r" depth="2" NCoef="0" IVar="-1" Cut="0.0000000000000000e+00" cType="1" res="-7.0428774051833898e-05" rms="4.4523277878761292e-01" purity="5.6629604101181030e-01" nType="-99"/>
        </Node>
      </Node>
    </BinaryTree>
    <BinaryTree type="DecisionTree" boostWeight="1.0000000000000000e+00" itree="433">
      <Node pos="s" depth="0" NCoef="0" IVar="0" Cut="1.5806253662109375e+03" cType="1" res="7.4564847163856030e-03" rms="3.9160066843032837e-01" purity="5.0086373090744019e-01" nType="0">
        <Node pos="l" depth="1" NCoef="0" IVar="3" Cut="2.2396002197265625e+02" cType="1" res="-3.3870097249746323e-03" rms="3.9519265294075012e-01" purity="4.3796625733375549e-01" nType="0">
          <Node pos="l" depth="2" NCoef="0" IVar="0" Cut="1.3204150390625000e+03" cType="1" res="1.0019628331065178e-02" rms="3.9561152458190918e-01" purity="4.4371467828750610e-01" nType="0">
            <Node pos="l" depth="3" NCoef="0" IVar="-1" Cut="0.0000000000000000e+00" cType="1" res="-1.7839013889897615e-04" rms="4.0472528338432312e-01" purity="3.6418440937995911e-01" nType="-99"/>
            <Node pos="r" depth="3" NCoef="0" IVar="-1" Cut="0.0000000000000000e+00" cType="1" res="1.9020760664716363e-03" rms="3.7006998062133789e-01" purity="6.3771563768386841e-01" nType="-99"/>
          </Node>
          <Node pos="r" depth="2" NCoef="0" IVar="8" Cut="9.3203812837600708e-01" cType="1" res="-5.3717292845249176e-02" rms="3.8951998949050903e-01" purity="4.1638582944869995e-01" nType="0">
            <Node pos="l" depth="3" NCoef="0" IVar="-1" Cut="0.0000000000000000e+00" cType="1" res="-2.0135988015681505e-03" rms="3.9362433552742004e-01" purity="4.5746386051177979e-01" nType="-99"/>
            <Node pos="r" depth="3" NCoef="0" IVar="-1" Cut="0.0000000000000000e+00" cType="1" res="-7.3997741565108299e-03" rms="3.6584720015525818e-01" purity="2.3991416394710541e-01" nType="-99"/>
          </Node>
        </Node>
        <Node pos="r" depth="1" NCoef="0" IVar="3" Cut="2.4956730651855469e+02" cType="1" res="3.3699646592140198e-02" rms="3.8149452209472656e-01" purity="6.5308678150177002e-01" nType="0">
          <Node pos="l" depth="2" NCoef="0" IVar="2" Cut="5.6675048828125000e+02" cType="1" res="7.0060156285762787e-02" rms="3.5281261801719666e-01" purity="7.3660719394683838e-01" nType="0">
            <Node pos="l" depth="3" NCoef="0" IVar="-1" Cut="0.0000000000000000e+00" cType="1" res="3.9365757256746292e-03" rms="3.0240538716316223e-01" purity="8.6236786842346191e-01" nType="-99"/>
            <Node pos="r" depth="3" NCoef="0" IVar="-1" Cut="0.0000000000000000e+00" cType="1" res="1.1666055070236325e-03" rms="4.3137666583061218e-01" purity="4.9182590842247009e-01" nType="-99"/>
          </Node>
          <Node pos="r" depth="2" NCoef="0" IVar="2" Cut="6.5308197021484375e+02" cType="1" res="9.1586029157042503e-03" rms="3.9781722426414490e-01" purity="5.9671568870544434e-01" nType="0">
            <Node pos="l" depth="3" NCoef="0" IVar="-1" Cut="0.0000000000000000e+00" cType="1" res="1.0048714466392994e-03" rms="3.9002767205238342e-01" purity="6.5106064081192017e-01" nType="-99"/>
            <Node pos="r" depth="3" NCoef="0" IVar="-1" Cut="0.0000000000000000e+00" cType="1" res="-2.1395208314061165e-03" rms="4.2010790109634399e-01" purity="4.0430498123168945e-01" nType="-99"/>
          </Node>
        </Node>
      </Node>
    </BinaryTree>
    <BinaryTree type="DecisionTree" boostWeight="1.0000000000000000e+00" itree="434">
      <Node pos="s" depth="0" NCoef="0" IVar="6" Cut="6.7084026336669922e-01" cType="1" res="1.5989098465070128e-03" rms="3.9082506299018860e-01" purity="4.9729943275451660e-01" nType="0">
        <Node pos="l" depth="1" NCoef="0" IVar="6" Cut="-4.8230874538421631e-01" cType="1" res="1.1154007166624069e-02" rms="3.9363932609558105e-01" purity="5.3822094202041626e-01" nType="0">
          <Node pos="l" depth="2" NCoef="0" IVar="8" Cut="9.3343967199325562e-01" cType="1" res="-1.7307110130786896e-02" rms="3.8617438077926636e-01" purity="4.1157931089401245e-01" nType="0">
            <Node pos="l" depth="3" NCoef="0" IVar="-1" Cut="0.0000000000000000e+00" cType="1" res="-3.3731176517903805e-04" rms="3.9224991202354431e-01" purity="4.4777834415435791e-01" nType="-99"/>
            <Node pos="r" depth="3" NCoef="0" IVar="-1" Cut="0.0000000000000000e+00" cType="1" res="-4.1269655339419842e-03" rms="3.5202381014823914e-01" purity="2.3871478438377380e-01" nType="-99"/>
          </Node>
          <Node pos="r" depth="2" NCoef="0" IVar="0" Cut="1.1189294433593750e+03" cType="1" res="2.9176080599427223e-02" rms="3.9724090695381165e-01" purity="6.1841261386871338e-01" nType="0">
            <Node pos="l" depth="3" NCoef="0" IVar="-1" Cut="0.0000000000000000e+00" cType="1" res="-5.6550424778833985e-04" rms="4.4075533747673035e-01" purity="3.6046516895294189e-01" nType="-99"/>
            <Node pos="r" depth="3" NCoef="0" IVar="-1" Cut="0.0000000000000000e+00" cType="1" res="1.5232310397550464e-03" rms="3.8748726248741150e-01" purity="6.6926026344299316e-01" nType="-99"/>
          </Node>
        </Node>
        <Node pos="r" depth="1" NCoef="0" IVar="9" Cut="-9.3332070112228394e-01" cType="1" res="-2.8976758942008018e-02" rms="3.8006934523582458e-01" purity="3.6635315418243408e-01" nType="0">
          <Node pos="l" depth="2" NCoef="0" IVar="-1" Cut="0.0000000000000000e+00" cType="1" res="-5.2129216492176056e-03" rms="3.4664902091026306e-01" purity="2.2269940376281738e-01" nType="-99"/>
          <Node pos="r" depth="2" NCoef="0" IVar="3" Cut="2.5018032836914062e+02" cType="1" res="-1.7195379361510277e-02" rms="3.8593393564224243e-01" purity="3.9752817153930664e-01" nType="0">
            <Node pos="l" depth="3" NCoef="0" IVar="-1" Cut="0.0000000000000000e+00" cType="1" res="-1.4888899750076234e-04" rms="3.8428995013237000e-01" purity="4.0179839730262756e-01" nType="-99"/>
            <Node pos="r" depth="3" NCoef="0" IVar="-1" Cut="0.0000000000000000e+00" cType="1" res="-3.3006260637193918e-03" rms="3.8783311843872070e-01" purity="3.8370397686958313e-01" nType="-99"/>
          </Node>
        </Node>
      </Node>
    </BinaryTree>
    <BinaryTree type="DecisionTree" boostWeight="1.0000000000000000e+00" itree="435">
      <Node pos="s" depth="0" NCoef="0" IVar="2" Cut="8.0937670898437500e+02" cType="1" res="4.1168290190398693e-03" rms="3.9114418625831604e-01" purity="4.9949231743812561e-01" nType="0">
        <Node pos="l" depth="1" NCoef="0" IVar="1" Cut="3.7859310913085938e+02" cType="1" res="7.1076513268053532e-03" rms="3.9004814624786377e-01" purity="5.0225335359573364e-01" nType="0">
          <Node pos="l" depth="2" NCoef="0" IVar="2" Cut="4.3213485717773438e+02" cType="1" res="-1.6088848933577538e-02" rms="3.8890099525451660e-01" purity="3.6070781946182251e-01" nType="0">
            <Node pos="l" depth="3" NCoef="0" IVar="-1" Cut="0.0000000000000000e+00" cType="1" res="-2.3170400527305901e-04" rms="3.9957708120346069e-01" purity="3.9991447329521179e-01" nType="-99"/>
            <Node pos="r" depth="3" NCoef="0" IVar="-1" Cut="0.0000000000000000e+00" cType="1" res="-4.5524714514613152e-03" rms="3.3773419260978699e-01" purity="1.9841694831848145e-01" nType="-99"/>
          </Node>
          <Node pos="r" depth="2" NCoef="0" IVar="3" Cut="2.6855230712890625e+02" cType="1" res="2.5100734084844589e-02" rms="3.8998660445213318e-01" purity="6.1204761266708374e-01" nType="0">
            <Node pos="l" depth="3" NCoef="0" IVar="-1" Cut="0.0000000000000000e+00" cType="1" res="1.4449799200519919e-03" rms="3.8392224907875061e-01" purity="6.2332773208618164e-01" nType="-99"/>
            <Node pos="r" depth="3" NCoef="0" IVar="-1" Cut="0.0000000000000000e+00" cType="1" res="-4.2623444460332394e-04" rms="4.0920078754425049e-01" purity="5.7145512104034424e-01" nType="-99"/>
          </Node>
        </Node>
        <Node pos="r" depth="1" NCoef="0" IVar="-1" Cut="0.0000000000000000e+00" cType="1" res="-3.6890155752189457e-04" rms="4.1248363256454468e-01" purity="4.1856682300567627e-01" nType="-99"/>
      </Node>
    </BinaryTree>
    <BinaryTree type="DecisionTree" boostWeight="1.0000000000000000e+00" itree="436">
      <Node pos="s" depth="0" NCoef="0" IVar="0" Cut="1.5806253662109375e+03" cType="1" res="2.9315568972378969e-03" rms="3.9040049910545349e-01" purity="4.9667450785636902e-01" nType="0">
        <Node pos="l" depth="1" NCoef="0" IVar="2" Cut="2.9726556396484375e+02" cType="1" res="-8.2127703353762627e-03" rms="3.9458701014518738e-01" purity="4.3280744552612305e-01" nType="0">
          <Node pos="l" depth="2" NCoef="0" IVar="0" Cut="1.1345498046875000e+03" cType="1" res="1.7270570620894432e-02" rms="4.0278664231300354e-01" purity="5.3531926870346069e-01" nType="0">
            <Node pos="l" depth="3" NCoef="0" IVar="-1" Cut="0.0000000000000000e+00" cType="1" res="-7.4739090632647276e-04" rms="4.2282468080520630e-01" purity="3.0651101469993591e-01" nType="-99"/>
            <Node pos="r" depth="3" NCoef="0" IVar="-1" Cut="0.0000000000000000e+00" cType="1" res="1.6234989743679762e-03" rms="3.8418081402778625e-01" purity="7.1347796916961670e-01" nType="-99"/>
          </Node>
          <Node pos="r" depth="2" NCoef="0" IVar="5" Cut="1.1223041534423828e+02" cType="1" res="-3.3289533108472824e-02" rms="3.8470402359962463e-01" purity="3.3193105459213257e-01" nType="0">
            <Node pos="l" depth="3" NCoef="0" IVar="-1" Cut="0.0000000000000000e+00" cType="1" res="-1.0937801562249660e-03" rms="3.7735912203788757e-01" purity="2.8997534513473511e-01" nType="-99"/>
            <Node pos="r" depth="3" NCoef="0" IVar="-1" Cut="0.0000000000000000e+00" cType="1" res="-3.4755084197968245e-03" rms="4.0645503997802734e-01" purity="4.7841703891754150e-01" nType="-99"/>
          </Node>
        </Node>
        <Node pos="r" depth="1" NCoef="0" IVar="2" Cut="8.0943066406250000e+02" cType="1" res="2.9328104108572006e-02" rms="3.7899538874626160e-01" purity="6.4795076847076416e-01" nType="0">
          <Node pos="l" depth="2" NCoef="0" IVar="2" Cut="4.3220269775390625e+02" cType="1" res="4.0566492825746536e-02" rms="3.7296819686889648e-01" purity="6.7081820964813232e-01" nType="0">
            <Node pos="l" depth="3" NCoef="0" IVar="-1" Cut="0.0000000000000000e+00" cType="1" res="3.1759287230670452e-03" rms="3.1089049577713013e-01" purity="8.4958279132843018e-01" nType="-99"/>
            <Node pos="r" depth="3" NCoef="0" IVar="-1" Cut="0.0000000000000000e+00" cType="1" res="5.2239454817026854e-04" rms="4.1600778698921204e-01" purity="5.2040576934814453e-01" nType="-99"/>
          </Node>
          <Node pos="r" depth="2" NCoef="0" IVar="-1" Cut="0.0000000000000000e+00" cType="1" res="-5.1452883053570986e-04" rms="4.1519588232040405e-01" purity="4.4923004508018494e-01" nType="-99"/>
        </Node>
      </Node>
    </BinaryTree>
    <BinaryTree type="DecisionTree" boostWeight="1.0000000000000000e+00" itree="437">
      <Node pos="s" depth="0" NCoef="0" IVar="7" Cut="-1.1999948024749756e+00" cType="1" res="3.6489875055849552e-03" rms="3.9301896095275879e-01" purity="4.9778354167938232e-01" nType="0">
        <Node pos="l" depth="1" NCoef="0" IVar="3" Cut="2.3430218505859375e+02" cType="1" res="-4.1181180626153946e-02" rms="3.4873220324516296e-01" purity="2.5233572721481323e-01" nType="0">
          <Node pos="l" depth="2" NCoef="0" IVar="7" Cut="-1.5047820806503296e+00" cType="1" res="-2.5799909606575966e-02" rms="3.5099804401397705e-01" purity="2.5423237681388855e-01" nType="0">
            <Node pos="l" depth="3" NCoef="0" IVar="-1" Cut="0.0000000000000000e+00" cType="1" res="-2.8783101588487625e-03" rms="3.2505804300308228e-01" purity="1.9663594663143158e-01" nType="-99"/>
            <Node pos="r" depth="3" NCoef="0" IVar="-1" Cut="0.0000000000000000e+00" cType="1" res="3.6724447272717953e-04" rms="3.8832116127014160e-01" purity="3.5065633058547974e-01" nType="-99"/>
          </Node>
          <Node pos="r" depth="2" NCoef="0" IVar="-1" Cut="0.0000000000000000e+00" cType="1" res="-6.2093837186694145e-03" rms="3.3837088942527771e-01" purity="2.4692744016647339e-01" nType="-99"/>
        </Node>
        <Node pos="r" depth="1" NCoef="0" IVar="7" Cut="7.0470726490020752e-01" cType="1" res="9.8619638010859489e-03" rms="3.9837092161178589e-01" purity="5.3179997205734253e-01" nType="0">
          <Node pos="l" depth="2" NCoef="0" IVar="8" Cut="-1.4666601419448853e+00" cType="1" res="1.9839514046907425e-02" rms="4.0170779824256897e-01" purity="5.8814811706542969e-01" nType="0">
            <Node pos="l" depth="3" NCoef="0" IVar="-1" Cut="0.0000000000000000e+00" cType="1" res="-1.8612808780744672e-03" rms="3.9865890145301819e-01" purity="3.1790012121200562e-01" nType="-99"/>
            <Node pos="r" depth="3" NCoef="0" IVar="-1" Cut="0.0000000000000000e+00" cType="1" res="7.8673934331163764e-04" rms="4.0159901976585388e-01" purity="6.1100924015045166e-01" nType="-99"/>
          </Node>
          <Node pos="r" depth="2" NCoef="0" IVar="6" Cut="-6.2479215860366821e-01" cType="1" res="-1.8405305221676826e-02" rms="3.8736888766288757e-01" purity="3.7216070294380188e-01" nType="0">
            <Node pos="l" depth="3" NCoef="0" IVar="-1" Cut="0.0000000000000000e+00" cType="1" res="-3.8938513025641441e-03" rms="3.4585425257682800e-01" purity="2.3076111078262329e-01" nType="-99"/>
            <Node pos="r" depth="3" NCoef="0" IVar="-1" Cut="0.0000000000000000e+00" cType="1" res="-2.6990138576366007e-04" rms="3.9855933189392090e-01" purity="4.1604688763618469e-01" nType="-99"/>
          </Node>
        </Node>
      </Node>
    </BinaryTree>
    <BinaryTree type="DecisionTree" boostWeight="1.0000000000000000e+00" itree="438">
      <Node pos="s" depth="0" NCoef="0" IVar="9" Cut="1.1999815702438354e+00" cType="1" res="7.3109245859086514e-03" rms="3.9305144548416138e-01" purity="5.0160723924636841e-01" nType="0">
        <Node pos="l" depth="1" NCoef="0" IVar="8" Cut="-1.7333407402038574e+00" cType="1" res="1.3783989474177361e-02" rms="3.9556998014450073e-01" purity="5.2828502655029297e-01" nType="0">
          <Node pos="l" depth="2" NCoef="0" IVar="-1" Cut="0.0000000000000000e+00" cType="1" res="-3.4444897901266813e-03" rms="3.4211850166320801e-01" purity="2.2426559031009674e-01" nType="-99"/>
          <Node pos="r" depth="2" NCoef="0" IVar="2" Cut="4.0313378906250000e+02" cType="1" res="1.7537342384457588e-02" rms="3.9819326996803284e-01" purity="5.4628324508666992e-01" nType="0">
            <Node pos="l" depth="3" NCoef="0" IVar="-1" Cut="0.0000000000000000e+00" cType="1" res="1.1163833551108837e-03" rms="3.9315691590309143e-01" purity="5.9361219406127930e-01" nType="-99"/>
            <Node pos="r" depth="3" NCoef="0" IVar="-1" Cut="0.0000000000000000e+00" cType="1" res="-2.2532878210768104e-04" rms="4.0733325481414795e-01" purity="4.4990706443786621e-01" nType="-99"/>
          </Node>
        </Node>
        <Node pos="r" depth="1" NCoef="0" IVar="8" Cut="9.3292641639709473e-01" cType="1" res="-3.1781382858753204e-02" rms="3.7511765956878662e-01" purity="3.4049430489540100e-01" nType="0">
          <Node pos="l" depth="2" NCoef="0" IVar="8" Cut="-6.6691303253173828e-01" cType="1" res="-1.9849564880132675e-02" rms="3.8802957534790039e-01" purity="3.8810405135154724e-01" nType="0">
            <Node pos="l" depth="3" NCoef="0" IVar="-1" Cut="0.0000000000000000e+00" cType="1" res="-4.1014547459781170e-03" rms="3.4611728787422180e-01" purity="2.4580322206020355e-01" nType="-99"/>
            <Node pos="r" depth="3" NCoef="0" IVar="-1" Cut="0.0000000000000000e+00" cType="1" res="-9.6033574664033949e-05" rms="4.0444284677505493e-01" purity="4.5290929079055786e-01" nType="-99"/>
          </Node>
          <Node pos="r" depth="2" NCoef="0" IVar="-1" Cut="0.0000000000000000e+00" cType="1" res="-4.5736562460660934e-03" rms="3.3504101634025574e-01" purity="2.1003164350986481e-01" nType="-99"/>
        </Node>
      </Node>
    </BinaryTree>
    <BinaryTree type="DecisionTree" boostWeight="1.0000000000000000e+00" itree="439">
      <Node pos="s" depth="0" NCoef="0" IVar="8" Cut="6.6665405035018921e-01" cType="1" res="4.8377024941146374e-03" rms="3.9204505085945129e-01" purity="4.9893754720687866e-01" nType="0">
        <Node pos="l" depth="1" NCoef="0" IVar="8" Cut="-6.5399014949798584e-01" cType="1" res="1.5533001162111759e-02" rms="3.9466500282287598e-01" purity="5.3395164012908936e-01" nType="0">
          <Node pos="l" depth="2" NCoef="0" IVar="6" Cut="6.8554443120956421e-01" cType="1" res="-8.7557286024093628e-03" rms="3.8908100128173828e-01" purity="4.1623210906982422e-01" nType="0">
            <Node pos="l" depth="3" NCoef="0" IVar="-1" Cut="0.0000000000000000e+00" cType="1" res="1.3600691454485059e-04" rms="3.9772757887840271e-01" purity="4.5775920152664185e-01" nType="-99"/>
            <Node pos="r" depth="3" NCoef="0" IVar="-1" Cut="0.0000000000000000e+00" cType="1" res="-3.4477605950087309e-03" rms="3.4960559010505676e-01" purity="2.5428140163421631e-01" nType="-99"/>
          </Node>
          <Node pos="r" depth="2" NCoef="0" IVar="2" Cut="6.1756347656250000e+02" cType="1" res="2.8999092057347298e-02" rms="3.9708739519119263e-01" purity="5.9921735525131226e-01" nType="0">
            <Node pos="l" depth="3" NCoef="0" IVar="-1" Cut="0.0000000000000000e+00" cType="1" res="1.3763464521616697e-03" rms="3.9419934153556824e-01" purity="6.1401265859603882e-01" nType="-99"/>
            <Node pos="r" depth="3" NCoef="0" IVar="-1" Cut="0.0000000000000000e+00" cType="1" res="-3.2659689895808697e-04" rms="4.1961720585823059e-01" purity="4.5324313640594482e-01" nType="-99"/>
          </Node>
        </Node>
        <Node pos="r" depth="1" NCoef="0" IVar="6" Cut="-6.5975737571716309e-01" cType="1" res="-2.5900021195411682e-02" rms="3.8275599479675293e-01" purity="3.9830878376960754e-01" nType="0">
          <Node pos="l" depth="2" NCoef="0" IVar="6" Cut="-1.1666444540023804e+00" cType="1" res="-7.3332212865352631e-02" rms="3.5144847631454468e-01" purity="2.3441964387893677e-01" nType="0">
            <Node pos="l" depth="3" NCoef="0" IVar="-1" Cut="0.0000000000000000e+00" cType="1" res="-3.9796391502022743e-03" rms="3.3112636208534241e-01" purity="1.8301601707935333e-01" nType="-99"/>
            <Node pos="r" depth="3" NCoef="0" IVar="-1" Cut="0.0000000000000000e+00" cType="1" res="-5.1994174718856812e-03" rms="3.7111216783523560e-01" purity="2.9091569781303406e-01" nType="-99"/>
          </Node>
          <Node pos="r" depth="2" NCoef="0" IVar="6" Cut="1.1523016691207886e+00" cType="1" res="-1.3192377984523773e-02" rms="3.8973858952522278e-01" purity="4.4221666455268860e-01" nType="0">
            <Node pos="l" depth="3" NCoef="0" IVar="-1" Cut="0.0000000000000000e+00" cType="1" res="-1.1117233952973038e-05" rms="4.0388402342796326e-01" purity="5.0376695394515991e-01" nType="-99"/>
            <Node pos="r" depth="3" NCoef="0" IVar="-1" Cut="0.0000000000000000e+00" cType="1" res="-4.3135164305567741e-03" rms="3.1975254416465759e-01" purity="1.8921388685703278e-01" nType="-99"/>
          </Node>
        </Node>
      </Node>
    </BinaryTree>
    <BinaryTree type="DecisionTree" boostWeight="1.0000000000000000e+00" itree="440">
      <Node pos="s" depth="0" NCoef="0" IVar="9" Cut="9.3334466218948364e-01" cType="1" res="2.8650956228375435e-03" rms="3.9183592796325684e-01" purity="4.9878296256065369e-01" nType="0">
        <Node pos="l" depth="1" NCoef="0" IVar="7" Cut="-6.6670978069305420e-01" cType="1" res="1.0992442257702351e-02" rms="3.9411681890487671e-01" purity="5.2879685163497925e-01" nType="0">
          <Node pos="l" depth="2" NCoef="0" IVar="6" Cut="4.1934135556221008e-01" cType="1" res="-1.7025554552674294e-02" rms="3.8490766286849976e-01" purity="4.0163040161132812e-01" nType="0">
            <Node pos="l" depth="3" NCoef="0" IVar="-1" Cut="0.0000000000000000e+00" cType="1" res="-9.9387994850985706e-05" rms="3.8755112886428833e-01" purity="4.4739812612533569e-01" nType="-99"/>
            <Node pos="r" depth="3" NCoef="0" IVar="-1" Cut="0.0000000000000000e+00" cType="1" res="-3.1577439513057470e-03" rms="3.7560203671455383e-01" purity="2.8656414151191711e-01" nType="-99"/>
          </Node>
          <Node pos="r" depth="2" NCoef="0" IVar="7" Cut="8.1889253854751587e-01" cType="1" res="2.0594427362084389e-02" rms="3.9676877856254578e-01" purity="5.7237780094146729e-01" nType="0">
            <Node pos="l" depth="3" NCoef="0" IVar="-1" Cut="0.0000000000000000e+00" cType="1" res="9.6438243053853512e-04" rms="3.9837878942489624e-01" purity="6.3615453243255615e-01" nType="-99"/>
            <Node pos="r" depth="3" NCoef="0" IVar="-1" Cut="0.0000000000000000e+00" cType="1" res="-7.5004360405728221e-04" rms="3.8964542746543884e-01" purity="3.7581661343574524e-01" nType="-99"/>
          </Node>
        </Node>
        <Node pos="r" depth="1" NCoef="0" IVar="5" Cut="7.4860488891601562e+01" cType="1" res="-2.9358385130763054e-02" rms="3.8095614314079285e-01" purity="3.7978306412696838e-01" nType="0">
          <Node pos="l" depth="2" NCoef="0" IVar="-1" Cut="0.0000000000000000e+00" cType="1" res="-4.0698531083762646e-03" rms="3.2850334048271179e-01" purity="1.6178104281425476e-01" nType="-99"/>
          <Node pos="r" depth="2" NCoef="0" IVar="2" Cut="5.0809405517578125e+02" cType="1" res="-2.0225867629051208e-02" rms="3.9558827877044678e-01" purity="4.4838804006576538e-01" nType="0">
            <Node pos="l" depth="3" NCoef="0" IVar="-1" Cut="0.0000000000000000e+00" cType="1" res="-4.4299260480329394e-04" rms="3.9688169956207275e-01" purity="4.8319572210311890e-01" nType="-99"/>
            <Node pos="r" depth="3" NCoef="0" IVar="-1" Cut="0.0000000000000000e+00" cType="1" res="-5.0244946032762527e-03" rms="3.8493725657463074e-01" purity="2.7298858761787415e-01" nType="-99"/>
          </Node>
        </Node>
      </Node>
    </BinaryTree>
    <BinaryTree type="DecisionTree" boostWeight="1.0000000000000000e+00" itree="441">
      <Node pos="s" depth="0" NCoef="0" IVar="9" Cut="-1.7332741022109985e+00" cType="1" res="3.7101209163665771e-03" rms="3.9128077030181885e-01" purity="4.9804243445396423e-01" nType="0">
        <Node pos="l" depth="1" NCoef="0" IVar="6" Cut="-3.5249266028404236e-01" cType="1" res="-6.8471342325210571e-02" rms="3.4484151005744934e-01" purity="2.3727385699748993e-01" nType="0">
          <Node pos="l" depth="2" NCoef="0" IVar="-1" Cut="0.0000000000000000e+00" cType="1" res="-3.5439890343695879e-03" rms="3.3942860364913940e-01" purity="2.2311277687549591e-01" nType="-99"/>
          <Node pos="r" depth="2" NCoef="0" IVar="-1" Cut="0.0000000000000000e+00" cType="1" res="-4.9150483682751656e-03" rms="3.4821298718452454e-01" purity="2.4778527021408081e-01" nType="-99"/>
        </Node>
        <Node pos="r" depth="1" NCoef="0" IVar="6" Cut="-6.3846731185913086e-01" cType="1" res="8.5416380316019058e-03" rms="3.9372166991233826e-01" purity="5.1549720764160156e-01" nType="0">
          <Node pos="l" depth="2" NCoef="0" IVar="0" Cut="1.7945778808593750e+03" cType="1" res="-2.4332998320460320e-02" rms="3.9086049795150757e-01" purity="3.8392087817192078e-01" nType="0">
            <Node pos="l" depth="3" NCoef="0" IVar="-1" Cut="0.0000000000000000e+00" cType="1" res="-1.5784612623974681e-03" rms="3.8792333006858826e-01" purity="3.4843122959136963e-01" nType="-99"/>
            <Node pos="r" depth="3" NCoef="0" IVar="-1" Cut="0.0000000000000000e+00" cType="1" res="8.3773414371535182e-04" rms="4.0480148792266846e-01" purity="5.9090906381607056e-01" nType="-99"/>
          </Node>
          <Node pos="r" depth="2" NCoef="0" IVar="6" Cut="1.3260430097579956e+00" cType="1" res="1.8719419836997986e-02" rms="3.9404764771461487e-01" purity="5.5623233318328857e-01" nType="0">
            <Node pos="l" depth="3" NCoef="0" IVar="-1" Cut="0.0000000000000000e+00" cType="1" res="1.0454558068886399e-03" rms="3.9851361513137817e-01" purity="5.9635335206985474e-01" nType="-99"/>
            <Node pos="r" depth="3" NCoef="0" IVar="-1" Cut="0.0000000000000000e+00" cType="1" res="-2.3196209222078323e-03" rms="3.5261374711990356e-01" purity="2.4813045561313629e-01" nType="-99"/>
          </Node>
        </Node>
      </Node>
    </BinaryTree>
    <BinaryTree type="DecisionTree" boostWeight="1.0000000000000000e+00" itree="442">
      <Node pos="s" depth="0" NCoef="0" IVar="9" Cut="-1.4666097164154053e+00" cType="1" res="5.9085078537464142e-03" rms="3.9224904775619507e-01" purity="4.9747538566589355e-01" nType="0">
        <Node pos="l" depth="1" NCoef="0" IVar="6" Cut="4.2118829488754272e-01" cType="1" res="-4.4719416648149490e-02" rms="3.6229923367500305e-01" purity="2.8767961263656616e-01" nType="0">
          <Node pos="l" depth="2" NCoef="0" IVar="9" Cut="-1.9744882583618164e+00" cType="1" res="-2.9969740658998489e-02" rms="3.7486216425895691e-01" purity="3.2459959387779236e-01" nType="0">
            <Node pos="l" depth="3" NCoef="0" IVar="-1" Cut="0.0000000000000000e+00" cType="1" res="-4.4387741945683956e-03" rms="3.4369593858718872e-01" purity="2.1936066448688507e-01" nType="-99"/>
            <Node pos="r" depth="3" NCoef="0" IVar="-1" Cut="0.0000000000000000e+00" cType="1" res="-2.9946453287266195e-04" rms="3.9239132404327393e-01" purity="3.9446142315864563e-01" nType="-99"/>
          </Node>
          <Node pos="r" depth="2" NCoef="0" IVar="-1" Cut="0.0000000000000000e+00" cType="1" res="-6.0316273011267185e-03" rms="3.2725229859352112e-01" purity="1.9849197566509247e-01" nType="-99"/>
        </Node>
        <Node pos="r" depth="1" NCoef="0" IVar="7" Cut="-1.7332885265350342e+00" cType="1" res="1.1341502889990807e-02" rms="3.9494282007217407e-01" purity="5.1998907327651978e-01" nType="0">
          <Node pos="l" depth="2" NCoef="0" IVar="-1" Cut="0.0000000000000000e+00" cType="1" res="-4.1750785894691944e-03" rms="3.2015946507453918e-01" purity="1.9229733943939209e-01" nType="-99"/>
          <Node pos="r" depth="2" NCoef="0" IVar="9" Cut="1.7841049432754517e+00" cType="1" res="1.5031251125037670e-02" rms="3.9799198508262634e-01" purity="5.3653943538665771e-01" nType="0">
            <Node pos="l" depth="3" NCoef="0" IVar="-1" Cut="0.0000000000000000e+00" cType="1" res="7.8702461905777454e-04" rms="4.0056753158569336e-01" purity="5.5512779951095581e-01" nType="-99"/>
            <Node pos="r" depth="3" NCoef="0" IVar="-1" Cut="0.0000000000000000e+00" cType="1" res="-2.4201634805649519e-03" rms="3.5498502850532532e-01" purity="2.7765855193138123e-01" nType="-99"/>
          </Node>
        </Node>
      </Node>
    </BinaryTree>
    <BinaryTree type="DecisionTree" boostWeight="1.0000000000000000e+00" itree="443">
      <Node pos="s" depth="0" NCoef="0" IVar="2" Cut="8.0937719726562500e+02" cType="1" res="1.5178794274106622e-03" rms="3.9094561338424683e-01" purity="4.9573102593421936e-01" nType="0">
        <Node pos="l" depth="1" NCoef="0" IVar="0" Cut="1.9059510498046875e+03" cType="1" res="4.5272964052855968e-03" rms="3.8963314890861511e-01" purity="4.9863409996032715e-01" nType="0">
          <Node pos="l" depth="2" NCoef="0" IVar="7" Cut="-6.6658842563629150e-01" cType="1" res="-1.9457906018942595e-03" rms="3.9014512300491333e-01" purity="4.7711312770843506e-01" nType="0">
            <Node pos="l" depth="3" NCoef="0" IVar="-1" Cut="0.0000000000000000e+00" cType="1" res="-1.7399084754288197e-03" rms="3.7379488348960876e-01" purity="3.4650725126266479e-01" nType="-99"/>
            <Node pos="r" depth="3" NCoef="0" IVar="-1" Cut="0.0000000000000000e+00" cType="1" res="3.6747727426700294e-04" rms="3.9489459991455078e-01" purity="5.2077692747116089e-01" nType="-99"/>
          </Node>
          <Node pos="r" depth="2" NCoef="0" IVar="3" Cut="3.0830865478515625e+02" cType="1" res="7.1869410574436188e-02" rms="3.7774288654327393e-01" purity="7.2252523899078369e-01" nType="0">
            <Node pos="l" depth="3" NCoef="0" IVar="-1" Cut="0.0000000000000000e+00" cType="1" res="4.1975188069045544e-03" rms="3.3646413683891296e-01" purity="8.2309466600418091e-01" nType="-99"/>
            <Node pos="r" depth="3" NCoef="0" IVar="-1" Cut="0.0000000000000000e+00" cType="1" res="1.2551810359582305e-03" rms="4.0827980637550354e-01" purity="6.2912511825561523e-01" nType="-99"/>
          </Node>
        </Node>
        <Node pos="r" depth="1" NCoef="0" IVar="-1" Cut="0.0000000000000000e+00" cType="1" res="-3.8855310413055122e-04" rms="4.1881507635116577e-01" purity="4.0705019235610962e-01" nType="-99"/>
      </Node>
    </BinaryTree>
    <BinaryTree type="DecisionTree" boostWeight="1.0000000000000000e+00" itree="444">
      <Node pos="s" depth="0" NCoef="0" IVar="0" Cut="1.5806446533203125e+03" cType="1" res="3.0483594164252281e-03" rms="3.9252051711082458e-01" purity="4.9724352359771729e-01" nType="0">
        <Node pos="l" depth="1" NCoef="0" IVar="2" Cut="2.3138499450683594e+02" cType="1" res="-8.8916299864649773e-03" rms="3.9674088358879089e-01" purity="4.3250060081481934e-01" nType="0">
          <Node pos="l" depth="2" NCoef="0" IVar="-1" Cut="0.0000000000000000e+00" cType="1" res="1.5585287474095821e-03" rms="4.0471777319908142e-01" purity="5.6514370441436768e-01" nType="-99"/>
          <Node pos="r" depth="2" NCoef="0" IVar="3" Cut="1.8284594726562500e+02" cType="1" res="-1.9297642633318901e-02" rms="3.9429146051406860e-01" purity="4.0564322471618652e-01" nType="0">
            <Node pos="l" depth="3" NCoef="0" IVar="-1" Cut="0.0000000000000000e+00" cType="1" res="-9.7800375442602672e-06" rms="3.9661118388175964e-01" purity="3.6508223414421082e-01" nType="-99"/>
            <Node pos="r" depth="3" NCoef="0" IVar="-1" Cut="0.0000000000000000e+00" cType="1" res="-1.8635466694831848e-03" rms="3.9090847969055176e-01" purity="4.4750195741653442e-01" nType="-99"/>
          </Node>
        </Node>
        <Node pos="r" depth="1" NCoef="0" IVar="3" Cut="2.4291604614257812e+02" cType="1" res="3.1571865081787109e-02" rms="3.8073724508285522e-01" purity="6.5190821886062622e-01" nType="0">
          <Node pos="l" depth="2" NCoef="0" IVar="2" Cut="5.6649426269531250e+02" cType="1" res="7.1346186101436615e-02" rms="3.5158762335777283e-01" purity="7.3721504211425781e-01" nType="0">
            <Node pos="l" depth="3" NCoef="0" IVar="-1" Cut="0.0000000000000000e+00" cType="1" res="4.0157176554203033e-03" rms="2.9949146509170532e-01" purity="8.6753022670745850e-01" nType="-99"/>
            <Node pos="r" depth="3" NCoef="0" IVar="-1" Cut="0.0000000000000000e+00" cType="1" res="1.0897084139287472e-03" rms="4.3008247017860413e-01" purity="4.9046319723129272e-01" nType="-99"/>
          </Node>
          <Node pos="r" depth="2" NCoef="0" IVar="7" Cut="-6.6546934843063354e-01" cType="1" res="7.2531257756054401e-03" rms="3.9554283022880554e-01" purity="5.9975004196166992e-01" nType="0">
            <Node pos="l" depth="3" NCoef="0" IVar="-1" Cut="0.0000000000000000e+00" cType="1" res="-2.8395799454301596e-03" rms="3.8303506374359131e-01" purity="4.5584520697593689e-01" nType="-99"/>
            <Node pos="r" depth="3" NCoef="0" IVar="-1" Cut="0.0000000000000000e+00" cType="1" res="9.3254470266401768e-04" rms="3.9731469750404358e-01" purity="6.3668638467788696e-01" nType="-99"/>
          </Node>
        </Node>
      </Node>
    </BinaryTree>
    <BinaryTree type="DecisionTree" boostWeight="1.0000000000000000e+00" itree="445">
      <Node pos="s" depth="0" NCoef="0" IVar="9" Cut="-1.4666099548339844e+00" cType="1" res="2.9525340069085360e-03" rms="3.9377421140670776e-01" purity="4.9514195322990417e-01" nType="0">
        <Node pos="l" depth="1" NCoef="0" IVar="9" Cut="-2.1015186309814453e+00" cType="1" res="-4.4413842260837555e-02" rms="3.6619460582733154e-01" purity="2.8966382145881653e-01" nType="0">
          <Node pos="l" depth="2" NCoef="0" IVar="-1" Cut="0.0000000000000000e+00" cType="1" res="-4.7206394374370575e-03" rms="3.4147673845291138e-01" purity="1.9820213317871094e-01" nType="-99"/>
          <Node pos="r" depth="2" NCoef="0" IVar="6" Cut="1.5508477389812469e-01" cType="1" res="-3.0911531299352646e-02" rms="3.7669005990028381e-01" purity="3.3337956666946411e-01" nType="0">
            <Node pos="l" depth="3" NCoef="0" IVar="-1" Cut="0.0000000000000000e+00" cType="1" res="-9.9141674581915140e-04" rms="3.7914833426475525e-01" purity="3.5520961880683899e-01" nType="-99"/>
            <Node pos="r" depth="3" NCoef="0" IVar="-1" Cut="0.0000000000000000e+00" cType="1" res="-2.5514736771583557e-03" rms="3.7253582477569580e-01" purity="3.0171194672584534e-01" nType="-99"/>
          </Node>
        </Node>
        <Node pos="r" depth="1" NCoef="0" IVar="9" Cut="9.7141784429550171e-01" cType="1" res="8.0698933452367783e-03" rms="3.9630037546157837e-01" purity="5.1734137535095215e-01" nType="0">
          <Node pos="l" depth="2" NCoef="0" IVar="8" Cut="-9.3335980176925659e-01" cType="1" res="1.7604757100343704e-02" rms="3.9879032969474792e-01" purity="5.5704843997955322e-01" nType="0">
            <Node pos="l" depth="3" NCoef="0" IVar="-1" Cut="0.0000000000000000e+00" cType="1" res="-7.5888523133471608e-04" rms="3.9785259962081909e-01" purity="4.0254685282707214e-01" nType="-99"/>
            <Node pos="r" depth="3" NCoef="0" IVar="-1" Cut="0.0000000000000000e+00" cType="1" res="9.9730538204312325e-04" rms="3.9860290288925171e-01" purity="5.9159487485885620e-01" nType="-99"/>
          </Node>
          <Node pos="r" depth="2" NCoef="0" IVar="6" Cut="-3.7111243605613708e-01" cType="1" res="-2.6833117008209229e-02" rms="3.8504037261009216e-01" purity="3.7199091911315918e-01" nType="0">
            <Node pos="l" depth="3" NCoef="0" IVar="-1" Cut="0.0000000000000000e+00" cType="1" res="-3.5802335478365421e-03" rms="3.6278834939002991e-01" purity="2.7868747711181641e-01" nType="-99"/>
            <Node pos="r" depth="3" NCoef="0" IVar="-1" Cut="0.0000000000000000e+00" cType="1" res="-6.0561782447621226e-04" rms="3.9318343997001648e-01" purity="4.1121232509613037e-01" nType="-99"/>
          </Node>
        </Node>
      </Node>
    </BinaryTree>
    <BinaryTree type="DecisionTree" boostWeight="1.0000000000000000e+00" itree="446">
      <Node pos="s" depth="0" NCoef="0" IVar="2" Cut="7.7118310546875000e+02" cType="1" res="4.3938676826655865e-03" rms="3.8993510603904724e-01" purity="5.0058507919311523e-01" nType="0">
        <Node pos="l" depth="1" NCoef="0" IVar="6" Cut="1.4796905517578125e+00" cType="1" res="9.2832576483488083e-03" rms="3.8838937878608704e-01" purity="5.0623506307601929e-01" nType="0">
          <Node pos="l" depth="2" NCoef="0" IVar="1" Cut="3.7558950805664062e+02" cType="1" res="1.4379666186869144e-02" rms="3.9182269573211670e-01" purity="5.2791303396224976e-01" nType="0">
            <Node pos="l" depth="3" NCoef="0" IVar="-1" Cut="0.0000000000000000e+00" cType="1" res="-4.0557299507781863e-04" rms="3.9674565196037292e-01" purity="3.8572749495506287e-01" nType="-99"/>
            <Node pos="r" depth="3" NCoef="0" IVar="-1" Cut="0.0000000000000000e+00" cType="1" res="1.2986861402168870e-03" rms="3.8729748129844666e-01" purity="6.3147604465484619e-01" nType="-99"/>
          </Node>
          <Node pos="r" depth="2" NCoef="0" IVar="3" Cut="1.8577822875976562e+02" cType="1" res="-6.3292503356933594e-02" rms="3.2720470428466797e-01" purity="1.9752843677997589e-01" nType="0">
            <Node pos="l" depth="3" NCoef="0" IVar="-1" Cut="0.0000000000000000e+00" cType="1" res="-2.8010627720504999e-03" rms="3.1575518846511841e-01" purity="1.6060073673725128e-01" nType="-99"/>
            <Node pos="r" depth="3" NCoef="0" IVar="-1" Cut="0.0000000000000000e+00" cType="1" res="-5.9164022095501423e-03" rms="3.3708271384239197e-01" purity="2.3565633594989777e-01" nType="-99"/>
          </Node>
        </Node>
        <Node pos="r" depth="1" NCoef="0" IVar="-1" Cut="0.0000000000000000e+00" cType="1" res="-3.1635665800422430e-04" rms="4.0799769759178162e-01" purity="3.7431743741035461e-01" nType="-99"/>
      </Node>
    </BinaryTree>
    <BinaryTree type="DecisionTree" boostWeight="1.0000000000000000e+00" itree="447">
      <Node pos="s" depth="0" NCoef="0" IVar="8" Cut="-1.7333260774612427e+00" cType="1" res="3.1116253230720758e-03" rms="3.9142030477523804e-01" purity="4.9758055806159973e-01" nType="0">
        <Node pos="l" depth="1" NCoef="0" IVar="9" Cut="-3.9986297488212585e-01" cType="1" res="-6.7494899034500122e-02" rms="3.2929027080535889e-01" purity="1.8264967203140259e-01" nType="0">
          <Node pos="l" depth="2" NCoef="0" IVar="-1" Cut="0.0000000000000000e+00" cType="1" res="-2.8829271905124187e-03" rms="3.3506965637207031e-01" purity="2.0749880373477936e-01" nType="-99"/>
          <Node pos="r" depth="2" NCoef="0" IVar="-1" Cut="0.0000000000000000e+00" cType="1" res="-7.8124473802745342e-03" rms="3.2189124822616577e-01" purity="1.5973080694675446e-01" nType="-99"/>
        </Node>
        <Node pos="r" depth="1" NCoef="0" IVar="8" Cut="8.5715329647064209e-01" cType="1" res="7.2504207491874695e-03" rms="3.9436691999435425e-01" purity="5.1604115962982178e-01" nType="0">
          <Node pos="l" depth="2" NCoef="0" IVar="7" Cut="1.7333979606628418e+00" cType="1" res="1.5883876010775566e-02" rms="3.9591032266616821e-01" purity="5.5847251415252686e-01" nType="0">
            <Node pos="l" depth="3" NCoef="0" IVar="-1" Cut="0.0000000000000000e+00" cType="1" res="7.8166695311665535e-04" rms="3.9820221066474915e-01" purity="5.7495367527008057e-01" nType="-99"/>
            <Node pos="r" depth="3" NCoef="0" IVar="-1" Cut="0.0000000000000000e+00" cType="1" res="-4.5763021335005760e-03" rms="3.3108967542648315e-01" purity="1.9412086904048920e-01" nType="-99"/>
          </Node>
          <Node pos="r" depth="2" NCoef="0" IVar="8" Cut="1.7823098897933960e+00" cType="1" res="-2.3847611621022224e-02" rms="3.8716435432434082e-01" purity="3.6320179700851440e-01" nType="0">
            <Node pos="l" depth="3" NCoef="0" IVar="-1" Cut="0.0000000000000000e+00" cType="1" res="-5.9379055164754391e-04" rms="4.0269619226455688e-01" purity="4.1512489318847656e-01" nType="-99"/>
            <Node pos="r" depth="3" NCoef="0" IVar="-1" Cut="0.0000000000000000e+00" cType="1" res="-3.8287795614451170e-03" rms="3.3441630005836487e-01" purity="2.0855906605720520e-01" nType="-99"/>
          </Node>
        </Node>
      </Node>
    </BinaryTree>
    <BinaryTree type="DecisionTree" boostWeight="1.0000000000000000e+00" itree="448">
      <Node pos="s" depth="0" NCoef="0" IVar="0" Cut="1.7601273193359375e+03" cType="1" res="3.3777761273086071e-03" rms="3.8940542936325073e-01" purity="4.9968498945236206e-01" nType="0">
        <Node pos="l" depth="1" NCoef="0" IVar="2" Cut="3.4115051269531250e+02" cType="1" res="-4.5236158184707165e-03" rms="3.8921928405761719e-01" purity="4.6430969238281250e-01" nType="0">
          <Node pos="l" depth="2" NCoef="0" IVar="0" Cut="1.0743476562500000e+03" cType="1" res="1.5167675912380219e-02" rms="3.9162224531173706e-01" purity="5.4752320051193237e-01" nType="0">
            <Node pos="l" depth="3" NCoef="0" IVar="-1" Cut="0.0000000000000000e+00" cType="1" res="-1.8346559954807162e-03" rms="3.9280790090560913e-01" purity="2.4522393941879272e-01" nType="-99"/>
            <Node pos="r" depth="3" NCoef="0" IVar="-1" Cut="0.0000000000000000e+00" cType="1" res="1.3301370199769735e-03" rms="3.8938328623771667e-01" purity="6.5384399890899658e-01" nType="-99"/>
          </Node>
          <Node pos="r" depth="2" NCoef="0" IVar="4" Cut="1.9889445495605469e+02" cType="1" res="-3.4921836107969284e-02" rms="3.8350030779838562e-01" purity="3.3584970235824585e-01" nType="0">
            <Node pos="l" depth="3" NCoef="0" IVar="-1" Cut="0.0000000000000000e+00" cType="1" res="-1.5084871556609869e-03" rms="3.8025048375129700e-01" purity="3.2469287514686584e-01" nType="-99"/>
            <Node pos="r" depth="3" NCoef="0" IVar="-1" Cut="0.0000000000000000e+00" cType="1" res="-4.4198711402714252e-03" rms="4.0428429841995239e-01" purity="4.2118036746978760e-01" nType="-99"/>
          </Node>
        </Node>
        <Node pos="r" depth="1" NCoef="0" IVar="2" Cut="7.8419775390625000e+02" cType="1" res="4.0508016943931580e-02" rms="3.8813102245330811e-01" purity="6.6592073440551758e-01" nType="0">
          <Node pos="l" depth="2" NCoef="0" IVar="3" Cut="2.6737533569335938e+02" cType="1" res="5.7492662221193314e-02" rms="3.7833550572395325e-01" purity="7.0783263444900513e-01" nType="0">
            <Node pos="l" depth="3" NCoef="0" IVar="-1" Cut="0.0000000000000000e+00" cType="1" res="3.5777629818767309e-03" rms="3.3929026126861572e-01" purity="8.0447560548782349e-01" nType="-99"/>
            <Node pos="r" depth="3" NCoef="0" IVar="-1" Cut="0.0000000000000000e+00" cType="1" res="1.4330303529277444e-03" rms="3.9864325523376465e-01" purity="6.4892345666885376e-01" nType="-99"/>
          </Node>
          <Node pos="r" depth="2" NCoef="0" IVar="-1" Cut="0.0000000000000000e+00" cType="1" res="-1.4992507640272379e-03" rms="4.2048209905624390e-01" purity="4.8169761896133423e-01" nType="-99"/>
        </Node>
      </Node>
    </BinaryTree>
    <BinaryTree type="DecisionTree" boostWeight="1.0000000000000000e+00" itree="449">
      <Node pos="s" depth="0" NCoef="0" IVar="9" Cut="-1.7331670522689819e+00" cType="1" res="6.6302018240094185e-03" rms="3.9292538166046143e-01" purity="5.0252896547317505e-01" nType="0">
        <Node pos="l" depth="1" NCoef="0" IVar="3" Cut="1.8502572631835938e+02" cType="1" res="-5.2556693553924561e-02" rms="3.5280123353004456e-01" purity="2.4751427769660950e-01" nType="0">
          <Node pos="l" depth="2" NCoef="0" IVar="-1" Cut="0.0000000000000000e+00" cType="1" res="-2.1108747459948063e-03" rms="3.3755710721015930e-01" purity="2.1845190227031708e-01" nType="-99"/>
          <Node pos="r" depth="2" NCoef="0" IVar="-1" Cut="0.0000000000000000e+00" cType="1" res="-4.7991359606385231e-03" rms="3.6590391397476196e-01" purity="2.7561295032501221e-01" nType="-99"/>
        </Node>
        <Node pos="r" depth="1" NCoef="0" IVar="9" Cut="1.0731065273284912e+00" cType="1" res="1.0726644657552242e-02" rms="3.9522406458854675e-01" purity="5.2017903327941895e-01" nType="0">
          <Node pos="l" depth="2" NCoef="0" IVar="6" Cut="-6.5973436832427979e-01" cType="1" res="1.7708085477352142e-02" rms="3.9758610725402832e-01" purity="5.5427461862564087e-01" nType="0">
            <Node pos="l" depth="3" NCoef="0" IVar="-1" Cut="0.0000000000000000e+00" cType="1" res="-4.0670161251910031e-04" rms="3.9625981450080872e-01" purity="4.3122854828834534e-01" nType="-99"/>
            <Node pos="r" depth="3" NCoef="0" IVar="-1" Cut="0.0000000000000000e+00" cType="1" res="1.0504119563847780e-03" rms="3.9762941002845764e-01" purity="5.9265643358230591e-01" nType="-99"/>
          </Node>
          <Node pos="r" depth="2" NCoef="0" IVar="9" Cut="2.1421182155609131e+00" cType="1" res="-2.0765874534845352e-02" rms="3.8280934095382690e-01" purity="3.6637759208679199e-01" nType="0">
            <Node pos="l" depth="3" NCoef="0" IVar="-1" Cut="0.0000000000000000e+00" cType="1" res="-4.9326935550197959e-04" rms="3.9112031459808350e-01" purity="4.0121072530746460e-01" nType="-99"/>
            <Node pos="r" depth="3" NCoef="0" IVar="-1" Cut="0.0000000000000000e+00" cType="1" res="-4.9857837148010731e-03" rms="3.3582818508148193e-01" purity="1.9954983890056610e-01" nType="-99"/>
          </Node>
        </Node>
      </Node>
    </BinaryTree>
    <BinaryTree type="DecisionTree" boostWeight="1.0000000000000000e+00" itree="450">
      <Node pos="s" depth="0" NCoef="0" IVar="7" Cut="-1.4666064977645874e+00" cType="1" res="2.8175674378871918e-03" rms="3.9145883917808533e-01" purity="4.9846035242080688e-01" nType="0">
        <Node pos="l" depth="1" NCoef="0" IVar="4" Cut="1.2543799591064453e+02" cType="1" res="-5.0971481949090958e-02" rms="3.3023962378501892e-01" purity="1.9951210916042328e-01" nType="0">
          <Node pos="l" depth="2" NCoef="0" IVar="-1" Cut="0.0000000000000000e+00" cType="1" res="-1.8114940030500293e-03" rms="3.1261700391769409e-01" purity="1.4609533548355103e-01" nType="-99"/>
          <Node pos="r" depth="2" NCoef="0" IVar="-1" Cut="0.0000000000000000e+00" cType="1" res="-5.2176951430737972e-03" rms="3.4568834304809570e-01" purity="2.5758343935012817e-01" nType="-99"/>
        </Node>
        <Node pos="r" depth="1" NCoef="0" IVar="7" Cut="9.7138243913650513e-01" cType="1" res="7.3540392331779003e-03" rms="3.9585557579994202e-01" purity="5.2367311716079712e-01" nType="0">
          <Node pos="l" depth="2" NCoef="0" IVar="8" Cut="1.7333008050918579e+00" cType="1" res="1.4753129333257675e-02" rms="4.0067192912101746e-01" purity="5.7107591629028320e-01" nType="0">
            <Node pos="l" depth="3" NCoef="0" IVar="-1" Cut="0.0000000000000000e+00" cType="1" res="7.3779863305389881e-04" rms="4.0175029635429382e-01" purity="5.8712798357009888e-01" nType="-99"/>
            <Node pos="r" depth="3" NCoef="0" IVar="-1" Cut="0.0000000000000000e+00" cType="1" res="-3.5744667984545231e-03" rms="3.7085336446762085e-01" purity="2.5182455778121948e-01" nType="-99"/>
          </Node>
          <Node pos="r" depth="2" NCoef="0" IVar="3" Cut="1.9158337402343750e+02" cType="1" res="-2.7163036167621613e-02" rms="3.7061852216720581e-01" purity="3.0253678560256958e-01" nType="0">
            <Node pos="l" depth="3" NCoef="0" IVar="-1" Cut="0.0000000000000000e+00" cType="1" res="1.4669400115963072e-04" rms="3.6864012479782104e-01" purity="2.7935406565666199e-01" nType="-99"/>
            <Node pos="r" depth="3" NCoef="0" IVar="-1" Cut="0.0000000000000000e+00" cType="1" res="-3.4432576503604650e-03" rms="3.7004825472831726e-01" purity="3.2764545083045959e-01" nType="-99"/>
          </Node>
        </Node>
      </Node>
    </BinaryTree>
    <BinaryTree type="DecisionTree" boostWeight="1.0000000000000000e+00" itree="451">
      <Node pos="s" depth="0" NCoef="0" IVar="2" Cut="3.7131011962890625e+02" cType="1" res="6.4513762481510639e-03" rms="3.9330691099166870e-01" purity="5.0040757656097412e-01" nType="0">
        <Node pos="l" depth="1" NCoef="0" IVar="0" Cut="1.3820975341796875e+03" cType="1" res="2.0264461636543274e-02" rms="3.8981461524963379e-01" purity="5.5668896436691284e-01" nType="0">
          <Node pos="l" depth="2" NCoef="0" IVar="3" Cut="2.0309429931640625e+02" cType="1" res="3.6667303647845984e-03" rms="4.1453203558921814e-01" purity="4.3349823355674744e-01" nType="0">
            <Node pos="l" depth="3" NCoef="0" IVar="-1" Cut="0.0000000000000000e+00" cType="1" res="8.8295701425522566e-04" rms="4.1452720761299133e-01" purity="4.4036215543746948e-01" nType="-99"/>
            <Node pos="r" depth="3" NCoef="0" IVar="-1" Cut="0.0000000000000000e+00" cType="1" res="-2.4547127541154623e-03" rms="4.0874490141868591e-01" purity="4.1167294979095459e-01" nType="-99"/>
          </Node>
          <Node pos="r" depth="2" NCoef="0" IVar="4" Cut="2.0347029113769531e+02" cType="1" res="5.6593053042888641e-02" rms="3.2636931538581848e-01" purity="8.2632505893707275e-01" nType="0">
            <Node pos="l" depth="3" NCoef="0" IVar="-1" Cut="0.0000000000000000e+00" cType="1" res="3.2894480973482132e-03" rms="3.1267178058624268e-01" purity="8.5161948204040527e-01" nType="-99"/>
            <Node pos="r" depth="3" NCoef="0" IVar="-1" Cut="0.0000000000000000e+00" cType="1" res="9.3264367023948580e-05" rms="3.5655820369720459e-01" purity="7.5508177280426025e-01" nType="-99"/>
          </Node>
        </Node>
        <Node pos="r" depth="1" NCoef="0" IVar="0" Cut="1.8914726562500000e+03" cType="1" res="-1.4301639981567860e-02" rms="3.9759516716003418e-01" purity="4.1584944725036621e-01" nType="0">
          <Node pos="l" depth="2" NCoef="0" IVar="2" Cut="5.6100427246093750e+02" cType="1" res="-2.8656383976340294e-02" rms="3.9059618115425110e-01" purity="3.4527420997619629e-01" nType="0">
            <Node pos="l" depth="3" NCoef="0" IVar="-1" Cut="0.0000000000000000e+00" cType="1" res="-8.6279091192409396e-04" rms="3.9834859967231750e-01" purity="3.8260510563850403e-01" nType="-99"/>
            <Node pos="r" depth="3" NCoef="0" IVar="-1" Cut="0.0000000000000000e+00" cType="1" res="-6.4634424634277821e-03" rms="3.5476818680763245e-01" purity="1.9795331358909607e-01" nType="-99"/>
          </Node>
          <Node pos="r" depth="2" NCoef="0" IVar="3" Cut="3.3428717041015625e+02" cType="1" res="2.7718558907508850e-02" rms="4.1456171870231628e-01" purity="6.2244218587875366e-01" nType="0">
            <Node pos="l" depth="3" NCoef="0" IVar="-1" Cut="0.0000000000000000e+00" cType="1" res="2.1662423387169838e-03" rms="4.0648415684700012e-01" purity="6.8267244100570679e-01" nType="-99"/>
            <Node pos="r" depth="3" NCoef="0" IVar="-1" Cut="0.0000000000000000e+00" cType="1" res="-4.9784599104896188e-04" rms="4.2039090394973755e-01" purity="5.5209529399871826e-01" nType="-99"/>
          </Node>
        </Node>
      </Node>
    </BinaryTree>
    <BinaryTree type="DecisionTree" boostWeight="1.0000000000000000e+00" itree="452">
      <Node pos="s" depth="0" NCoef="0" IVar="2" Cut="8.1617486572265625e+02" cType="1" res="2.8588771820068359e-03" rms="3.9063763618469238e-01" purity="4.9854114651679993e-01" nType="0">
        <Node pos="l" depth="1" NCoef="0" IVar="0" Cut="1.8674356689453125e+03" cType="1" res="7.2243777103722095e-03" rms="3.8960063457489014e-01" purity="5.0281161069869995e-01" nType="0">
          <Node pos="l" depth="2" NCoef="0" IVar="2" Cut="4.3471740722656250e+02" cType="1" res="-3.4010322997346520e-04" rms="3.8978922367095947e-01" purity="4.7750368714332581e-01" nType="0">
            <Node pos="l" depth="3" NCoef="0" IVar="-1" Cut="0.0000000000000000e+00" cType="1" res="4.0827892371453345e-04" rms="3.9096662402153015e-01" purity="5.2436792850494385e-01" nType="-99"/>
            <Node pos="r" depth="3" NCoef="0" IVar="-1" Cut="0.0000000000000000e+00" cType="1" res="-2.3694860283285379e-03" rms="3.8252770900726318e-01" purity="2.9215252399444580e-01" nType="-99"/>
          </Node>
          <Node pos="r" depth="2" NCoef="0" IVar="3" Cut="3.8382650756835938e+02" cType="1" res="7.2160534560680389e-02" rms="3.8186261057853699e-01" purity="7.2006356716156006e-01" nType="0">
            <Node pos="l" depth="3" NCoef="0" IVar="-1" Cut="0.0000000000000000e+00" cType="1" res="3.5947945434600115e-03" rms="3.6115753650665283e-01" purity="7.7645146846771240e-01" nType="-99"/>
            <Node pos="r" depth="3" NCoef="0" IVar="-1" Cut="0.0000000000000000e+00" cType="1" res="-1.1173781967954710e-04" rms="4.2982876300811768e-01" purity="5.4999887943267822e-01" nType="-99"/>
          </Node>
        </Node>
        <Node pos="r" depth="1" NCoef="0" IVar="-1" Cut="0.0000000000000000e+00" cType="1" res="-3.8857283652760088e-04" rms="3.9880821108818054e-01" purity="3.6924338340759277e-01" nType="-99"/>
      </Node>
    </BinaryTree>
    <BinaryTree type="DecisionTree" boostWeight="1.0000000000000000e+00" itree="453">
      <Node pos="s" depth="0" NCoef="0" IVar="6" Cut="-6.5971612930297852e-01" cType="1" res="4.7396603040397167e-03" rms="3.9405119419097900e-01" purity="4.9719119071960449e-01" nType="0">
        <Node pos="l" depth="1" NCoef="0" IVar="3" Cut="1.4240103149414062e+02" cType="1" res="-2.0452519878745079e-02" rms="3.8662111759185791e-01" purity="3.7257602810859680e-01" nType="0">
          <Node pos="l" depth="2" NCoef="0" IVar="-1" Cut="0.0000000000000000e+00" cType="1" res="1.2808770406991243e-03" rms="3.8162228465080261e-01" purity="2.6391884684562683e-01" nType="-99"/>
          <Node pos="r" depth="2" NCoef="0" IVar="7" Cut="4.0038952231407166e-01" cType="1" res="-3.1933434307575226e-02" rms="3.8713017106056213e-01" purity="4.0147310495376587e-01" nType="0">
            <Node pos="l" depth="3" NCoef="0" IVar="-1" Cut="0.0000000000000000e+00" cType="1" res="-6.5654003992676735e-04" rms="4.0153488516807556e-01" purity="4.5141640305519104e-01" nType="-99"/>
            <Node pos="r" depth="3" NCoef="0" IVar="-1" Cut="0.0000000000000000e+00" cType="1" res="-4.1974191553890705e-03" rms="3.5094857215881348e-01" purity="2.9290616512298584e-01" nType="-99"/>
          </Node>
        </Node>
        <Node pos="r" depth="1" NCoef="0" IVar="6" Cut="8.2290899753570557e-01" cType="1" res="1.2522003613412380e-02" rms="3.9599445462226868e-01" purity="5.3568714857101440e-01" nType="0">
          <Node pos="l" depth="2" NCoef="0" IVar="0" Cut="1.1036744384765625e+03" cType="1" res="2.3960940539836884e-02" rms="3.9954894781112671e-01" purity="6.0300004482269287e-01" nType="0">
            <Node pos="l" depth="3" NCoef="0" IVar="-1" Cut="0.0000000000000000e+00" cType="1" res="-7.5308314990252256e-04" rms="4.3589520454406738e-01" purity="3.4375578165054321e-01" nType="-99"/>
            <Node pos="r" depth="3" NCoef="0" IVar="-1" Cut="0.0000000000000000e+00" cType="1" res="1.2913636164739728e-03" rms="3.9213895797729492e-01" purity="6.4959114789962769e-01" nType="-99"/>
          </Node>
          <Node pos="r" depth="2" NCoef="0" IVar="3" Cut="2.5544117736816406e+02" cType="1" res="-2.0727578550577164e-02" rms="3.8354432582855225e-01" purity="3.4002879261970520e-01" nType="0">
            <Node pos="l" depth="3" NCoef="0" IVar="-1" Cut="0.0000000000000000e+00" cType="1" res="-5.1883916603401303e-04" rms="3.8308492302894592e-01" purity="3.4039223194122314e-01" nType="-99"/>
            <Node pos="r" depth="3" NCoef="0" IVar="-1" Cut="0.0000000000000000e+00" cType="1" res="-3.5151964984834194e-03" rms="3.8284164667129517e-01" purity="3.3868256211280823e-01" nType="-99"/>
          </Node>
        </Node>
      </Node>
    </BinaryTree>
    <BinaryTree type="DecisionTree" boostWeight="1.0000000000000000e+00" itree="454">
      <Node pos="s" depth="0" NCoef="0" IVar="0" Cut="1.4400944824218750e+03" cType="1" res="3.7351579521782696e-04" rms="3.9041170477867126e-01" purity="4.9358716607093811e-01" nType="0">
        <Node pos="l" depth="1" NCoef="0" IVar="2" Cut="2.2754486083984375e+02" cType="1" res="-1.4094527810811996e-02" rms="3.9816543459892273e-01" purity="3.9259156584739685e-01" nType="0">
          <Node pos="l" depth="2" NCoef="0" IVar="-1" Cut="0.0000000000000000e+00" cType="1" res="1.5325779095292091e-03" rms="4.1171157360076904e-01" purity="5.3658008575439453e-01" nType="-99"/>
          <Node pos="r" depth="2" NCoef="0" IVar="5" Cut="1.2315319061279297e+02" cType="1" res="-2.5351107120513916e-02" rms="3.9441651105880737e-01" purity="3.6348289251327515e-01" nType="0">
            <Node pos="l" depth="3" NCoef="0" IVar="-1" Cut="0.0000000000000000e+00" cType="1" res="-7.3845492443069816e-04" rms="3.9220422506332397e-01" purity="3.3951708674430847e-01" nType="-99"/>
            <Node pos="r" depth="3" NCoef="0" IVar="-1" Cut="0.0000000000000000e+00" cType="1" res="-3.8650608621537685e-03" rms="4.0444412827491760e-01" purity="5.3483593463897705e-01" nType="-99"/>
          </Node>
        </Node>
        <Node pos="r" depth="1" NCoef="0" IVar="2" Cut="7.6104724121093750e+02" cType="1" res="1.9527794793248177e-02" rms="3.7905463576316833e-01" purity="6.2729561328887939e-01" nType="0">
          <Node pos="l" depth="2" NCoef="0" IVar="0" Cut="2.0125721435546875e+03" cType="1" res="2.8162313625216484e-02" rms="3.7394839525222778e-01" purity="6.4811271429061890e-01" nType="0">
            <Node pos="l" depth="3" NCoef="0" IVar="-1" Cut="0.0000000000000000e+00" cType="1" res="8.5253227734938264e-04" rms="3.7247988581657410e-01" purity="6.3253045082092285e-01" nType="-99"/>
            <Node pos="r" depth="3" NCoef="0" IVar="-1" Cut="0.0000000000000000e+00" cType="1" res="3.3630684483796358e-03" rms="3.7735417485237122e-01" purity="7.5108367204666138e-01" nType="-99"/>
          </Node>
          <Node pos="r" depth="2" NCoef="0" IVar="-1" Cut="0.0000000000000000e+00" cType="1" res="-6.2542746309190989e-04" rms="4.1720819473266602e-01" purity="4.1792419552803040e-01" nType="-99"/>
        </Node>
      </Node>
    </BinaryTree>
    <BinaryTree type="DecisionTree" boostWeight="1.0000000000000000e+00" itree="455">
      <Node pos="s" depth="0" NCoef="0" IVar="6" Cut="9.5172762870788574e-01" cType="1" res="2.1597067825496197e-03" rms="3.9191374182701111e-01" purity="4.9529039859771729e-01" nType="0">
        <Node pos="l" depth="1" NCoef="0" IVar="9" Cut="-6.6637217998504639e-01" cType="1" res="9.1581083834171295e-03" rms="3.9596819877624512e-01" purity="5.3335469961166382e-01" nType="0">
          <Node pos="l" depth="2" NCoef="0" IVar="8" Cut="9.3338489532470703e-01" cType="1" res="-1.8862424418330193e-02" rms="3.9090895652770996e-01" purity="4.5076331496238708e-01" nType="0">
            <Node pos="l" depth="3" NCoef="0" IVar="-1" Cut="0.0000000000000000e+00" cType="1" res="-3.1178357312455773e-04" rms="3.9347022771835327e-01" purity="4.8416954278945923e-01" nType="-99"/>
            <Node pos="r" depth="3" NCoef="0" IVar="-1" Cut="0.0000000000000000e+00" cType="1" res="-5.8497278951108456e-03" rms="3.6847978830337524e-01" purity="2.5952246785163879e-01" nType="-99"/>
          </Node>
          <Node pos="r" depth="2" NCoef="0" IVar="9" Cut="1.6444846391677856e+00" cType="1" res="1.9784620031714439e-02" rms="3.9735361933708191e-01" purity="5.6467664241790771e-01" nType="0">
            <Node pos="l" depth="3" NCoef="0" IVar="-1" Cut="0.0000000000000000e+00" cType="1" res="1.0204559657722712e-03" rms="3.9971256256103516e-01" purity="5.9214717149734497e-01" nType="-99"/>
            <Node pos="r" depth="3" NCoef="0" IVar="-1" Cut="0.0000000000000000e+00" cType="1" res="-1.8180661136284471e-03" rms="3.6993008852005005e-01" purity="3.0557149648666382e-01" nType="-99"/>
          </Node>
        </Node>
        <Node pos="r" depth="1" NCoef="0" IVar="3" Cut="1.6138728332519531e+02" cType="1" res="-3.4605868160724640e-02" rms="3.6770319938659668e-01" purity="2.9532265663146973e-01" nType="0">
          <Node pos="l" depth="2" NCoef="0" IVar="-1" Cut="0.0000000000000000e+00" cType="1" res="5.5313033954007551e-05" rms="3.5792151093482971e-01" purity="2.3261056840419769e-01" nType="-99"/>
          <Node pos="r" depth="2" NCoef="0" IVar="0" Cut="1.5572098388671875e+03" cType="1" res="-5.3155563771724701e-02" rms="3.7135252356529236e-01" purity="3.2802289724349976e-01" nType="0">
            <Node pos="l" depth="3" NCoef="0" IVar="-1" Cut="0.0000000000000000e+00" cType="1" res="-4.0933117270469666e-03" rms="3.5260471701622009e-01" purity="2.4802362918853760e-01" nType="-99"/>
            <Node pos="r" depth="3" NCoef="0" IVar="-1" Cut="0.0000000000000000e+00" cType="1" res="-6.9007475394755602e-04" rms="3.9929756522178650e-01" purity="4.6853959560394287e-01" nType="-99"/>
          </Node>
        </Node>
      </Node>
    </BinaryTree>
    <BinaryTree type="DecisionTree" boostWeight="1.0000000000000000e+00" itree="456">
      <Node pos="s" depth="0" NCoef="0" IVar="0" Cut="1.1315443115234375e+03" cType="1" res="3.2627393957227468e-03" rms="3.9086675643920898e-01" purity="5.0108587741851807e-01" nType="0">
        <Node pos="l" depth="1" NCoef="0" IVar="5" Cut="8.2992965698242188e+01" cType="1" res="-3.2241798937320709e-02" rms="3.9375260472297668e-01" purity="2.5444349646568298e-01" nType="0">
          <Node pos="l" depth="2" NCoef="0" IVar="2" Cut="2.4973136901855469e+02" cType="1" res="-1.5534310601651669e-02" rms="3.8475462794303894e-01" purity="2.2666200995445251e-01" nType="0">
            <Node pos="l" depth="3" NCoef="0" IVar="-1" Cut="0.0000000000000000e+00" cType="1" res="8.6413644021376967e-04" rms="4.3011170625686646e-01" purity="3.1800734996795654e-01" nType="-99"/>
            <Node pos="r" depth="3" NCoef="0" IVar="-1" Cut="0.0000000000000000e+00" cType="1" res="-2.0660259760916233e-03" rms="3.5277464985847473e-01" purity="1.7117750644683838e-01" nType="-99"/>
          </Node>
          <Node pos="r" depth="2" NCoef="0" IVar="-1" Cut="0.0000000000000000e+00" cType="1" res="-2.6320212054997683e-03" rms="4.0936359763145447e-01" purity="3.1101039052009583e-01" nType="-99"/>
        </Node>
        <Node pos="r" depth="1" NCoef="0" IVar="3" Cut="2.4670126342773438e+02" cType="1" res="1.2196600437164307e-02" rms="3.8962811231613159e-01" purity="5.6314742565155029e-01" nType="0">
          <Node pos="l" depth="2" NCoef="0" IVar="2" Cut="3.2889849853515625e+02" cType="1" res="2.7048842981457710e-02" rms="3.8489869236946106e-01" purity="5.8433359861373901e-01" nType="0">
            <Node pos="l" depth="3" NCoef="0" IVar="-1" Cut="0.0000000000000000e+00" cType="1" res="1.7951511545106769e-03" rms="3.6973923444747925e-01" purity="7.2791200876235962e-01" nType="-99"/>
            <Node pos="r" depth="3" NCoef="0" IVar="-1" Cut="0.0000000000000000e+00" cType="1" res="3.2668426865711808e-04" rms="3.9826285839080811e-01" purity="4.4302487373352051e-01" nType="-99"/>
          </Node>
          <Node pos="r" depth="2" NCoef="0" IVar="0" Cut="1.7631970214843750e+03" cType="1" res="-1.6674675047397614e-02" rms="3.9707475900650024e-01" purity="5.2196371555328369e-01" nType="0">
            <Node pos="l" depth="3" NCoef="0" IVar="-1" Cut="0.0000000000000000e+00" cType="1" res="-2.2427847143262625e-03" rms="3.9125055074691772e-01" purity="4.3686732649803162e-01" nType="-99"/>
            <Node pos="r" depth="3" NCoef="0" IVar="-1" Cut="0.0000000000000000e+00" cType="1" res="5.8954191626980901e-04" rms="4.0181675553321838e-01" purity="6.2517595291137695e-01" nType="-99"/>
          </Node>
        </Node>
      </Node>
    </BinaryTree>
    <BinaryTree type="DecisionTree" boostWeight="1.0000000000000000e+00" itree="457">
      <Node pos="s" depth="0" NCoef="0" IVar="8" Cut="1.1999874114990234e+00" cType="1" res="7.9789769370108843e-04" rms="3.9013394713401794e-01" purity="4.9438256025314331e-01" nType="0">
        <Node pos="l" depth="1" NCoef="0" IVar="8" Cut="-1.0857231616973877e+00" cType="1" res="7.3215737938880920e-03" rms="3.9312255382537842e-01" purity="5.2614551782608032e-01" nType="0">
          <Node pos="l" depth="2" NCoef="0" IVar="4" Cut="1.6907023620605469e+02" cType="1" res="-3.4249596297740936e-02" rms="3.7065756320953369e-01" purity="3.0958980321884155e-01" nType="0">
            <Node pos="l" depth="3" NCoef="0" IVar="-1" Cut="0.0000000000000000e+00" cType="1" res="-1.1112585198134184e-03" rms="3.6648780107498169e-01" purity="2.8790944814682007e-01" nType="-99"/>
            <Node pos="r" depth="3" NCoef="0" IVar="-1" Cut="0.0000000000000000e+00" cType="1" res="-4.8944107256829739e-03" rms="3.8083785772323608e-01" purity="3.8393315672874451e-01" nType="-99"/>
          </Node>
          <Node pos="r" depth="2" NCoef="0" IVar="6" Cut="-1.4176620244979858e+00" cType="1" res="1.6301341354846954e-02" rms="3.9723765850067139e-01" purity="5.7292360067367554e-01" nType="0">
            <Node pos="l" depth="3" NCoef="0" IVar="-1" Cut="0.0000000000000000e+00" cType="1" res="-3.2230981159955263e-03" rms="3.5327339172363281e-01" purity="2.6927551627159119e-01" nType="-99"/>
            <Node pos="r" depth="3" NCoef="0" IVar="-1" Cut="0.0000000000000000e+00" cType="1" res="7.0938578573986888e-04" rms="3.9944940805435181e-01" purity="5.9274768829345703e-01" nType="-99"/>
          </Node>
        </Node>
        <Node pos="r" depth="1" NCoef="0" IVar="8" Cut="2.0380885601043701e+00" cType="1" res="-4.3995264917612076e-02" rms="3.6583214998245239e-01" purity="2.7629038691520691e-01" nType="0">
          <Node pos="l" depth="2" NCoef="0" IVar="6" Cut="7.1669852733612061e-01" cType="1" res="-3.0378658324480057e-02" rms="3.8053467869758606e-01" purity="3.1574285030364990e-01" nType="0">
            <Node pos="l" depth="3" NCoef="0" IVar="-1" Cut="0.0000000000000000e+00" cType="1" res="-9.4406242715194821e-04" rms="3.9233055710792542e-01" purity="3.5940694808959961e-01" nType="-99"/>
            <Node pos="r" depth="3" NCoef="0" IVar="-1" Cut="0.0000000000000000e+00" cType="1" res="-3.5977859515696764e-03" rms="3.5103833675384521e-01" purity="2.1690864861011505e-01" nType="-99"/>
          </Node>
          <Node pos="r" depth="2" NCoef="0" IVar="-1" Cut="0.0000000000000000e+00" cType="1" res="-6.4671896398067474e-03" rms="3.1368535757064819e-01" purity="1.5700338780879974e-01" nType="-99"/>
        </Node>
      </Node>
    </BinaryTree>
    <BinaryTree type="DecisionTree" boostWeight="1.0000000000000000e+00" itree="458">
      <Node pos="s" depth="0" NCoef="0" IVar="7" Cut="-1.7332394123077393e+00" cType="1" res="1.1075833812355995e-02" rms="3.9360409975051880e-01" purity="5.0688624382019043e-01" nType="0">
        <Node pos="l" depth="1" NCoef="0" IVar="9" Cut="-1.3283535838127136e-01" cType="1" res="-5.0430793315172195e-02" rms="3.1835508346557617e-01" purity="1.7488595843315125e-01" nType="0">
          <Node pos="l" depth="2" NCoef="0" IVar="-1" Cut="0.0000000000000000e+00" cType="1" res="-4.8796860501170158e-03" rms="3.0568748712539673e-01" purity="1.4631094038486481e-01" nType="-99"/>
          <Node pos="r" depth="2" NCoef="0" IVar="-1" Cut="0.0000000000000000e+00" cType="1" res="-2.7744101826101542e-03" rms="3.3048525452613831e-01" purity="2.0417186617851257e-01" nType="-99"/>
        </Node>
        <Node pos="r" depth="1" NCoef="0" IVar="8" Cut="-9.3344241380691528e-01" cType="1" res="1.4503628015518188e-02" rms="3.9709863066673279e-01" purity="5.2538871765136719e-01" nType="0">
          <Node pos="l" depth="2" NCoef="0" IVar="6" Cut="6.8641436100006104e-01" cType="1" res="-1.5573807060718536e-02" rms="3.8925629854202271e-01" purity="3.8399887084960938e-01" nType="0">
            <Node pos="l" depth="3" NCoef="0" IVar="-1" Cut="0.0000000000000000e+00" cType="1" res="-2.2736955725122243e-04" rms="3.9928776025772095e-01" purity="4.2769756913185120e-01" nType="-99"/>
            <Node pos="r" depth="3" NCoef="0" IVar="-1" Cut="0.0000000000000000e+00" cType="1" res="-3.8083810359239578e-03" rms="3.4592393040657043e-01" purity="2.1931788325309753e-01" nType="-99"/>
          </Node>
          <Node pos="r" depth="2" NCoef="0" IVar="8" Cut="2.0885865688323975e+00" cType="1" res="2.1228330209851265e-02" rms="3.9852055907249451e-01" purity="5.5700063705444336e-01" nType="0">
            <Node pos="l" depth="3" NCoef="0" IVar="-1" Cut="0.0000000000000000e+00" cType="1" res="9.9769781809300184e-04" rms="4.0038371086120605e-01" purity="5.7016295194625854e-01" nType="-99"/>
            <Node pos="r" depth="3" NCoef="0" IVar="-1" Cut="0.0000000000000000e+00" cType="1" res="-5.3486349061131477e-03" rms="3.2817870378494263e-01" purity="1.7656554281711578e-01" nType="-99"/>
          </Node>
        </Node>
      </Node>
    </BinaryTree>
    <BinaryTree type="DecisionTree" boostWeight="1.0000000000000000e+00" itree="459">
      <Node pos="s" depth="0" NCoef="0" IVar="2" Cut="4.0313088989257812e+02" cType="1" res="2.0330208353698254e-03" rms="3.9142337441444397e-01" purity="4.9513807892799377e-01" nType="0">
        <Node pos="l" depth="1" NCoef="0" IVar="0" Cut="1.2974190673828125e+03" cType="1" res="1.3289878144860268e-02" rms="3.8954377174377441e-01" purity="5.4520416259765625e-01" nType="0">
          <Node pos="l" depth="2" NCoef="0" IVar="5" Cut="1.0693626403808594e+02" cType="1" res="-1.1717720888555050e-02" rms="4.1441789269447327e-01" purity="3.6754393577575684e-01" nType="0">
            <Node pos="l" depth="3" NCoef="0" IVar="-1" Cut="0.0000000000000000e+00" cType="1" res="1.6583599790465087e-04" rms="4.1055795550346375e-01" purity="3.4294402599334717e-01" nType="-99"/>
            <Node pos="r" depth="3" NCoef="0" IVar="-1" Cut="0.0000000000000000e+00" cType="1" res="-2.8729524929076433e-03" rms="4.2404001951217651e-01" purity="4.7294861078262329e-01" nType="-99"/>
          </Node>
          <Node pos="r" depth="2" NCoef="0" IVar="3" Cut="2.1649299621582031e+02" cType="1" res="4.3262448161840439e-02" rms="3.5514542460441589e-01" purity="7.5813674926757812e-01" nType="0">
            <Node pos="l" depth="3" NCoef="0" IVar="-1" Cut="0.0000000000000000e+00" cType="1" res="3.0683183576911688e-03" rms="3.2946386933326721e-01" purity="8.2299584150314331e-01" nType="-99"/>
            <Node pos="r" depth="3" NCoef="0" IVar="-1" Cut="0.0000000000000000e+00" cType="1" res="6.3421245431527495e-04" rms="3.7262928485870361e-01" purity="7.0457875728607178e-01" nType="-99"/>
          </Node>
        </Node>
        <Node pos="r" depth="1" NCoef="0" IVar="0" Cut="2.0965144042968750e+03" cType="1" res="-2.0565999671816826e-02" rms="3.9420059323310852e-01" purity="3.9462640881538391e-01" nType="0">
          <Node pos="l" depth="2" NCoef="0" IVar="2" Cut="6.8513409423828125e+02" cType="1" res="-3.2601621001958847e-02" rms="3.8601279258728027e-01" purity="3.4434798359870911e-01" nType="0">
            <Node pos="l" depth="3" NCoef="0" IVar="-1" Cut="0.0000000000000000e+00" cType="1" res="-1.2872652150690556e-03" rms="3.8675498962402344e-01" purity="3.5917830467224121e-01" nType="-99"/>
            <Node pos="r" depth="3" NCoef="0" IVar="-1" Cut="0.0000000000000000e+00" cType="1" res="-8.1160053377971053e-04" rms="3.7086752057075500e-01" purity="2.1322034299373627e-01" nType="-99"/>
          </Node>
          <Node pos="r" depth="2" NCoef="0" IVar="3" Cut="3.4008117675781250e+02" cType="1" res="3.7322085350751877e-02" rms="4.2669907212257385e-01" purity="6.3645195960998535e-01" nType="0">
            <Node pos="l" depth="3" NCoef="0" IVar="-1" Cut="0.0000000000000000e+00" cType="1" res="2.9628032352775335e-03" rms="4.0648311376571655e-01" purity="7.2390341758728027e-01" nType="-99"/>
            <Node pos="r" depth="3" NCoef="0" IVar="-1" Cut="0.0000000000000000e+00" cType="1" res="-6.4501859014853835e-04" rms="4.3808224797248840e-01" purity="5.5579119920730591e-01" nType="-99"/>
          </Node>
        </Node>
      </Node>
    </BinaryTree>
    <BinaryTree type="DecisionTree" boostWeight="1.0000000000000000e+00" itree="460">
      <Node pos="s" depth="0" NCoef="0" IVar="2" Cut="8.0937719726562500e+02" cType="1" res="3.5352548584342003e-03" rms="3.9089262485504150e-01" purity="4.9727743864059448e-01" nType="0">
        <Node pos="l" depth="1" NCoef="0" IVar="0" Cut="1.9058878173828125e+03" cType="1" res="6.2456619925796986e-03" rms="3.8983973860740662e-01" purity="4.9960365891456604e-01" nType="0">
          <Node pos="l" depth="2" NCoef="0" IVar="1" Cut="3.3461779785156250e+02" cType="1" res="1.2148640962550417e-04" rms="3.9079341292381287e-01" purity="4.7711026668548584e-01" nType="0">
            <Node pos="l" depth="3" NCoef="0" IVar="-1" Cut="0.0000000000000000e+00" cType="1" res="-1.6259312396869063e-03" rms="3.7784159183502197e-01" purity="3.1197145581245422e-01" nType="-99"/>
            <Node pos="r" depth="3" NCoef="0" IVar="-1" Cut="0.0000000000000000e+00" cType="1" res="4.9453834071755409e-04" rms="3.9417266845703125e-01" purity="5.2985537052154541e-01" nType="-99"/>
          </Node>
          <Node pos="r" depth="2" NCoef="0" IVar="3" Cut="3.4472003173828125e+02" cType="1" res="6.8235047161579132e-02" rms="3.7445598840713501e-01" purity="7.2728371620178223e-01" nType="0">
            <Node pos="l" depth="3" NCoef="0" IVar="-1" Cut="0.0000000000000000e+00" cType="1" res="3.7204944528639317e-03" rms="3.4159481525421143e-01" purity="8.0645215511322021e-01" nType="-99"/>
            <Node pos="r" depth="3" NCoef="0" IVar="-1" Cut="0.0000000000000000e+00" cType="1" res="8.3133566658943892e-04" rms="4.1744208335876465e-01" purity="6.0123050212860107e-01" nType="-99"/>
          </Node>
        </Node>
        <Node pos="r" depth="1" NCoef="0" IVar="-1" Cut="0.0000000000000000e+00" cType="1" res="-6.3453771872445941e-04" rms="4.1434165835380554e-01" purity="4.2052432894706726e-01" nType="-99"/>
      </Node>
    </BinaryTree>
    <BinaryTree type="DecisionTree" boostWeight="1.0000000000000000e+00" itree="461">
      <Node pos="s" depth="0" NCoef="0" IVar="0" Cut="1.4630610351562500e+03" cType="1" res="6.7111584357917309e-03" rms="3.9078545570373535e-01" purity="5.0282305479049683e-01" nType="0">
        <Node pos="l" depth="1" NCoef="0" IVar="1" Cut="3.4350601196289062e+02" cType="1" res="-5.7471618056297302e-03" rms="3.9995563030242920e-01" purity="4.0842044353485107e-01" nType="0">
          <Node pos="l" depth="2" NCoef="0" IVar="5" Cut="1.1761257171630859e+02" cType="1" res="-2.9783295467495918e-02" rms="3.8069808483123779e-01" purity="3.0226600170135498e-01" nType="0">
            <Node pos="l" depth="3" NCoef="0" IVar="-1" Cut="0.0000000000000000e+00" cType="1" res="-9.3696173280477524e-04" rms="3.7435260415077209e-01" purity="2.6307708024978638e-01" nType="-99"/>
            <Node pos="r" depth="3" NCoef="0" IVar="-1" Cut="0.0000000000000000e+00" cType="1" res="-3.1452251132577658e-03" rms="4.0469592809677124e-01" purity="4.7871166467666626e-01" nType="-99"/>
          </Node>
          <Node pos="r" depth="2" NCoef="0" IVar="6" Cut="4.6177262067794800e-01" cType="1" res="8.4032667800784111e-03" rms="4.1021284461021423e-01" purity="4.7091513872146606e-01" nType="0">
            <Node pos="l" depth="3" NCoef="0" IVar="-1" Cut="0.0000000000000000e+00" cType="1" res="8.8850822066888213e-04" rms="4.1138941049575806e-01" purity="5.1467150449752808e-01" nType="-99"/>
            <Node pos="r" depth="3" NCoef="0" IVar="-1" Cut="0.0000000000000000e+00" cType="1" res="-9.9457509350031614e-04" rms="4.0593358874320984e-01" purity="3.7587291002273560e-01" nType="-99"/>
          </Node>
        </Node>
        <Node pos="r" depth="1" NCoef="0" IVar="3" Cut="2.9819351196289062e+02" cType="1" res="2.5003187358379364e-02" rms="3.7617033720016479e-01" purity="6.4143037796020508e-01" nType="0">
          <Node pos="l" depth="2" NCoef="0" IVar="2" Cut="5.7509313964843750e+02" cType="1" res="4.3040271848440170e-02" rms="3.6156257987022400e-01" purity="6.9773972034454346e-01" nType="0">
            <Node pos="l" depth="3" NCoef="0" IVar="-1" Cut="0.0000000000000000e+00" cType="1" res="2.4815436918288469e-03" rms="3.4651878476142883e-01" purity="7.8056031465530396e-01" nType="-99"/>
            <Node pos="r" depth="3" NCoef="0" IVar="-1" Cut="0.0000000000000000e+00" cType="1" res="-5.2478042198345065e-04" rms="4.0518027544021606e-01" purity="4.0870273113250732e-01" nType="-99"/>
          </Node>
          <Node pos="r" depth="2" NCoef="0" IVar="8" Cut="-6.6769641637802124e-01" cType="1" res="-1.6880191862583160e-02" rms="4.0499198436737061e-01" purity="5.1067608594894409e-01" nType="0">
            <Node pos="l" depth="3" NCoef="0" IVar="-1" Cut="0.0000000000000000e+00" cType="1" res="-3.7043641787022352e-03" rms="3.9329820871353149e-01" purity="3.8217470049858093e-01" nType="-99"/>
            <Node pos="r" depth="3" NCoef="0" IVar="-1" Cut="0.0000000000000000e+00" cType="1" res="-6.9967194576747715e-05" rms="4.0736904740333557e-01" purity="5.5079358816146851e-01" nType="-99"/>
          </Node>
        </Node>
      </Node>
    </BinaryTree>
    <BinaryTree type="DecisionTree" boostWeight="1.0000000000000000e+00" itree="462">
      <Node pos="s" depth="0" NCoef="0" IVar="3" Cut="2.4203799438476562e+02" cType="1" res="6.7147365771234035e-03" rms="3.9010000228881836e-01" purity="5.0468146800994873e-01" nType="0">
        <Node pos="l" depth="1" NCoef="0" IVar="0" Cut="1.2709195556640625e+03" cType="1" res="1.6640830785036087e-02" rms="3.8876023888587952e-01" purity="4.9862387776374817e-01" nType="0">
          <Node pos="l" depth="2" NCoef="0" IVar="3" Cut="1.9703926086425781e+02" cType="1" res="-8.9155202731490135e-03" rms="4.0546292066574097e-01" purity="3.4124195575714111e-01" nType="0">
            <Node pos="l" depth="3" NCoef="0" IVar="-1" Cut="0.0000000000000000e+00" cType="1" res="5.9045301895821467e-05" rms="4.0471848845481873e-01" purity="3.4308794140815735e-01" nType="-99"/>
            <Node pos="r" depth="3" NCoef="0" IVar="-1" Cut="0.0000000000000000e+00" cType="1" res="-2.9935750644654036e-03" rms="4.0495738387107849e-01" purity="3.3132836222648621e-01" nType="-99"/>
          </Node>
          <Node pos="r" depth="2" NCoef="0" IVar="2" Cut="4.4346362304687500e+02" cType="1" res="4.1373886168003082e-02" rms="3.7020587921142578e-01" purity="6.5093570947647095e-01" nType="0">
            <Node pos="l" depth="3" NCoef="0" IVar="-1" Cut="0.0000000000000000e+00" cType="1" res="2.5241558905690908e-03" rms="3.5296678543090820e-01" purity="7.7047294378280640e-01" nType="-99"/>
            <Node pos="r" depth="3" NCoef="0" IVar="-1" Cut="0.0000000000000000e+00" cType="1" res="-2.8061680495738983e-04" rms="4.0093168616294861e-01" purity="3.9256086945533752e-01" nType="-99"/>
          </Node>
        </Node>
        <Node pos="r" depth="1" NCoef="0" IVar="7" Cut="-6.6524809598922729e-01" cType="1" res="-1.8711978569626808e-02" rms="3.9236730337142944e-01" purity="5.2019876241683960e-01" nType="0">
          <Node pos="l" depth="2" NCoef="0" IVar="0" Cut="1.5986892089843750e+03" cType="1" res="-6.6374823451042175e-02" rms="3.7666270136833191e-01" purity="3.6454689502716064e-01" nType="0">
            <Node pos="l" depth="3" NCoef="0" IVar="-1" Cut="0.0000000000000000e+00" cType="1" res="-7.7482112683355808e-03" rms="3.5161590576171875e-01" purity="2.2744584083557129e-01" nType="-99"/>
            <Node pos="r" depth="3" NCoef="0" IVar="-1" Cut="0.0000000000000000e+00" cType="1" res="-2.1959880832582712e-03" rms="3.9233395457267761e-01" purity="4.6521273255348206e-01" nType="-99"/>
          </Node>
          <Node pos="r" depth="2" NCoef="0" IVar="7" Cut="4.8972082138061523e-01" cType="1" res="-5.2610854618251324e-03" rms="3.9564934372901917e-01" purity="5.6412518024444580e-01" nType="0">
            <Node pos="l" depth="3" NCoef="0" IVar="-1" Cut="0.0000000000000000e+00" cType="1" res="7.9499301500618458e-04" rms="3.9547508955001831e-01" purity="6.4855182170867920e-01" nType="-99"/>
            <Node pos="r" depth="3" NCoef="0" IVar="-1" Cut="0.0000000000000000e+00" cType="1" res="-2.4768793955445290e-03" rms="3.9271017909049988e-01" purity="4.2242729663848877e-01" nType="-99"/>
          </Node>
        </Node>
      </Node>
    </BinaryTree>
    <BinaryTree type="DecisionTree" boostWeight="1.0000000000000000e+00" itree="463">
      <Node pos="s" depth="0" NCoef="0" IVar="2" Cut="7.1392669677734375e+02" cType="1" res="4.5305718667805195e-03" rms="3.9161136746406555e-01" purity="4.9909844994544983e-01" nType="0">
        <Node pos="l" depth="1" NCoef="0" IVar="0" Cut="1.8214899902343750e+03" cType="1" res="8.5990168154239655e-03" rms="3.9027231931686401e-01" purity="5.0504451990127563e-01" nType="0">
          <Node pos="l" depth="2" NCoef="0" IVar="2" Cut="4.4472579956054688e+02" cType="1" res="1.9752169027924538e-03" rms="3.9206874370574951e-01" purity="4.7714194655418396e-01" nType="0">
            <Node pos="l" depth="3" NCoef="0" IVar="-1" Cut="0.0000000000000000e+00" cType="1" res="4.4178037205711007e-04" rms="3.9346835017204285e-01" purity="5.1914685964584351e-01" nType="-99"/>
            <Node pos="r" depth="3" NCoef="0" IVar="-1" Cut="0.0000000000000000e+00" cType="1" res="-2.3543585557490587e-03" rms="3.8270249962806702e-01" purity="2.7660870552062988e-01" nType="-99"/>
          </Node>
          <Node pos="r" depth="2" NCoef="0" IVar="3" Cut="3.1961090087890625e+02" cType="1" res="6.4094118773937225e-02" rms="3.7025719881057739e-01" purity="7.3881608247756958e-01" nType="0">
            <Node pos="l" depth="3" NCoef="0" IVar="-1" Cut="0.0000000000000000e+00" cType="1" res="3.7101290654391050e-03" rms="3.3394274115562439e-01" purity="8.2598555088043213e-01" nType="-99"/>
            <Node pos="r" depth="3" NCoef="0" IVar="-1" Cut="0.0000000000000000e+00" cType="1" res="9.6785445930436254e-04" rms="4.1087058186531067e-01" purity="6.2113213539123535e-01" nType="-99"/>
          </Node>
        </Node>
        <Node pos="r" depth="1" NCoef="0" IVar="-1" Cut="0.0000000000000000e+00" cType="1" res="-8.2697381731122732e-04" rms="4.0847218036651611e-01" purity="3.8777625560760498e-01" nType="-99"/>
      </Node>
    </BinaryTree>
    <BinaryTree type="DecisionTree" boostWeight="1.0000000000000000e+00" itree="464">
      <Node pos="s" depth="0" NCoef="0" IVar="2" Cut="7.7117974853515625e+02" cType="1" res="2.0161890424787998e-03" rms="3.8990896940231323e-01" purity="4.9699500203132629e-01" nType="0">
        <Node pos="l" depth="1" NCoef="0" IVar="0" Cut="1.8501343994140625e+03" cType="1" res="6.2623601406812668e-03" rms="3.8841176033020020e-01" purity="5.0206470489501953e-01" nType="0">
          <Node pos="l" depth="2" NCoef="0" IVar="2" Cut="2.5439984130859375e+02" cType="1" res="-3.1872943509370089e-04" rms="3.8917285203933716e-01" purity="4.7685036063194275e-01" nType="0">
            <Node pos="l" depth="3" NCoef="0" IVar="-1" Cut="0.0000000000000000e+00" cType="1" res="1.3364232145249844e-03" rms="3.9004549384117126e-01" purity="5.8013457059860229e-01" nType="-99"/>
            <Node pos="r" depth="3" NCoef="0" IVar="-1" Cut="0.0000000000000000e+00" cType="1" res="-5.4030615137889981e-04" rms="3.8824623823165894e-01" purity="4.4305193424224854e-01" nType="-99"/>
          </Node>
          <Node pos="r" depth="2" NCoef="0" IVar="3" Cut="3.7034411621093750e+02" cType="1" res="6.3338875770568848e-02" rms="3.7695831060409546e-01" purity="7.2074341773986816e-01" nType="0">
            <Node pos="l" depth="3" NCoef="0" IVar="-1" Cut="0.0000000000000000e+00" cType="1" res="3.4061074256896973e-03" rms="3.5568928718566895e-01" purity="7.8360688686370850e-01" nType="-99"/>
            <Node pos="r" depth="3" NCoef="0" IVar="-1" Cut="0.0000000000000000e+00" cType="1" res="-2.8367454069666564e-04" rms="4.2072740197181702e-01" purity="5.5250662565231323e-01" nType="-99"/>
          </Node>
        </Node>
        <Node pos="r" depth="1" NCoef="0" IVar="-1" Cut="0.0000000000000000e+00" cType="1" res="-3.6410719621926546e-04" rms="4.1103860735893250e-01" purity="3.7919637560844421e-01" nType="-99"/>
      </Node>
    </BinaryTree>
    <BinaryTree type="DecisionTree" boostWeight="1.0000000000000000e+00" itree="465">
      <Node pos="s" depth="0" NCoef="0" IVar="9" Cut="-9.3319863080978394e-01" cType="1" res="7.6660471968352795e-03" rms="3.9282363653182983e-01" purity="5.0097620487213135e-01" nType="0">
        <Node pos="l" depth="1" NCoef="0" IVar="9" Cut="-1.9998183250427246e+00" cType="1" res="-2.7814732864499092e-02" rms="3.7711140513420105e-01" purity="3.8175082206726074e-01" nType="0">
          <Node pos="l" depth="2" NCoef="0" IVar="-1" Cut="0.0000000000000000e+00" cType="1" res="-5.6285210885107517e-03" rms="3.1820508837699890e-01" purity="1.9458974897861481e-01" nType="-99"/>
          <Node pos="r" depth="2" NCoef="0" IVar="6" Cut="6.8825209140777588e-01" cType="1" res="-1.6133917495608330e-02" rms="3.8875231146812439e-01" purity="4.2576441168785095e-01" nType="0">
            <Node pos="l" depth="3" NCoef="0" IVar="-1" Cut="0.0000000000000000e+00" cType="1" res="-1.9771330698858947e-04" rms="3.9599433541297913e-01" purity="4.6499329805374146e-01" nType="-99"/>
            <Node pos="r" depth="3" NCoef="0" IVar="-1" Cut="0.0000000000000000e+00" cType="1" res="-4.0307776071131229e-03" rms="3.5424336791038513e-01" purity="2.6824995875358582e-01" nType="-99"/>
          </Node>
        </Node>
        <Node pos="r" depth="1" NCoef="0" IVar="9" Cut="8.4450328350067139e-01" cType="1" res="1.6526490449905396e-02" rms="3.9615470170974731e-01" purity="5.3074985742568970e-01" nType="0">
          <Node pos="l" depth="2" NCoef="0" IVar="3" Cut="1.4188143920898438e+02" cType="1" res="2.8616532683372498e-02" rms="3.9930737018585205e-01" purity="5.8213764429092407e-01" nType="0">
            <Node pos="l" depth="3" NCoef="0" IVar="-1" Cut="0.0000000000000000e+00" cType="1" res="2.1867132745683193e-03" rms="4.3202254176139832e-01" purity="4.3438780307769775e-01" nType="-99"/>
            <Node pos="r" depth="3" NCoef="0" IVar="-1" Cut="0.0000000000000000e+00" cType="1" res="8.7983394041657448e-04" rms="3.9168259501457214e-01" purity="6.1337542533874512e-01" nType="-99"/>
          </Node>
          <Node pos="r" depth="2" NCoef="0" IVar="3" Cut="2.0153483581542969e+02" cType="1" res="-1.4255545102059841e-02" rms="3.8630792498588562e-01" purity="3.9991316199302673e-01" nType="0">
            <Node pos="l" depth="3" NCoef="0" IVar="-1" Cut="0.0000000000000000e+00" cType="1" res="3.5164103610441089e-04" rms="3.8650155067443848e-01" purity="3.7225914001464844e-01" nType="-99"/>
            <Node pos="r" depth="3" NCoef="0" IVar="-1" Cut="0.0000000000000000e+00" cType="1" res="-2.0388814155012369e-03" rms="3.8446709513664246e-01" purity="4.3299841880798340e-01" nType="-99"/>
          </Node>
        </Node>
      </Node>
    </BinaryTree>
    <BinaryTree type="DecisionTree" boostWeight="1.0000000000000000e+00" itree="466">
      <Node pos="s" depth="0" NCoef="0" IVar="9" Cut="2.0000042915344238e+00" cType="1" res="4.4963438995182514e-03" rms="3.9125627279281616e-01" purity="4.9669790267944336e-01" nType="0">
        <Node pos="l" depth="1" NCoef="0" IVar="2" Cut="8.0938287353515625e+02" cType="1" res="7.8722015023231506e-03" rms="3.9334276318550110e-01" purity="5.0880724191665649e-01" nType="0">
          <Node pos="l" depth="2" NCoef="0" IVar="0" Cut="1.5371806640625000e+03" cType="1" res="1.0741747915744781e-02" rms="3.9227995276451111e-01" purity="5.1145052909851074e-01" nType="0">
            <Node pos="l" depth="3" NCoef="0" IVar="-1" Cut="0.0000000000000000e+00" cType="1" res="-1.4081963854550850e-05" rms="4.0149530768394470e-01" purity="4.3671363592147827e-01" nType="-99"/>
            <Node pos="r" depth="3" NCoef="0" IVar="-1" Cut="0.0000000000000000e+00" cType="1" res="1.5444880118593574e-03" rms="3.7060877680778503e-01" purity="6.7191016674041748e-01" nType="-99"/>
          </Node>
          <Node pos="r" depth="2" NCoef="0" IVar="-1" Cut="0.0000000000000000e+00" cType="1" res="-3.2329370151273906e-04" rms="4.1446137428283691e-01" purity="4.3207901716232300e-01" nType="-99"/>
        </Node>
        <Node pos="r" depth="1" NCoef="0" IVar="-1" Cut="0.0000000000000000e+00" cType="1" res="-5.9398356825113297e-03" rms="3.2163703441619873e-01" purity="1.8690539896488190e-01" nType="-99"/>
      </Node>
    </BinaryTree>
    <BinaryTree type="DecisionTree" boostWeight="1.0000000000000000e+00" itree="467">
      <Node pos="s" depth="0" NCoef="0" IVar="3" Cut="2.4582321166992188e+02" cType="1" res="1.6369925579056144e-03" rms="3.9046707749366760e-01" purity="4.9712878465652466e-01" nType="0">
        <Node pos="l" depth="1" NCoef="0" IVar="0" Cut="1.2920656738281250e+03" cType="1" res="1.1633726768195629e-02" rms="3.8851609826087952e-01" purity="4.9336248636245728e-01" nType="0">
          <Node pos="l" depth="2" NCoef="0" IVar="5" Cut="1.0903153228759766e+02" cType="1" res="-1.2760863639414310e-02" rms="4.0465497970581055e-01" purity="3.4549602866172791e-01" nType="0">
            <Node pos="l" depth="3" NCoef="0" IVar="-1" Cut="0.0000000000000000e+00" cType="1" res="-4.5425244024954736e-05" rms="3.9957582950592041e-01" purity="3.1934577226638794e-01" nType="-99"/>
            <Node pos="r" depth="3" NCoef="0" IVar="-1" Cut="0.0000000000000000e+00" cType="1" res="-2.8524259105324745e-03" rms="4.2548972368240356e-01" purity="4.8664933443069458e-01" nType="-99"/>
          </Node>
          <Node pos="r" depth="2" NCoef="0" IVar="2" Cut="4.5451943969726562e+02" cType="1" res="3.8661461323499680e-02" rms="3.6792975664138794e-01" purity="6.5718960762023926e-01" nType="0">
            <Node pos="l" depth="3" NCoef="0" IVar="-1" Cut="0.0000000000000000e+00" cType="1" res="2.4131438694894314e-03" rms="3.5109597444534302e-01" purity="7.7690500020980835e-01" nType="-99"/>
            <Node pos="r" depth="3" NCoef="0" IVar="-1" Cut="0.0000000000000000e+00" cType="1" res="-3.7639160291291773e-04" rms="3.9850410819053650e-01" purity="3.9466440677642822e-01" nType="-99"/>
          </Node>
        </Node>
        <Node pos="r" depth="1" NCoef="0" IVar="8" Cut="-6.6675174236297607e-01" cType="1" res="-2.5817591696977615e-02" rms="3.9447456598281860e-01" purity="5.0747233629226685e-01" nType="0">
          <Node pos="l" depth="2" NCoef="0" IVar="0" Cut="1.6413599853515625e+03" cType="1" res="-7.7490456402301788e-02" rms="3.8554084300994873e-01" purity="3.6052119731903076e-01" nType="0">
            <Node pos="l" depth="3" NCoef="0" IVar="-1" Cut="0.0000000000000000e+00" cType="1" res="-7.5577613897621632e-03" rms="3.7271088361740112e-01" purity="2.5762379169464111e-01" nType="-99"/>
            <Node pos="r" depth="3" NCoef="0" IVar="-1" Cut="0.0000000000000000e+00" cType="1" res="-3.3483714796602726e-03" rms="3.9534005522727966e-01" purity="4.5025005936622620e-01" nType="-99"/>
          </Node>
          <Node pos="r" depth="2" NCoef="0" IVar="8" Cut="8.1890469789505005e-01" cType="1" res="-1.0530392639338970e-02" rms="3.9578798413276672e-01" purity="5.5094712972640991e-01" nType="0">
            <Node pos="l" depth="3" NCoef="0" IVar="-1" Cut="0.0000000000000000e+00" cType="1" res="2.8657371876761317e-04" rms="3.9799982309341431e-01" purity="6.1351996660232544e-01" nType="-99"/>
            <Node pos="r" depth="3" NCoef="0" IVar="-1" Cut="0.0000000000000000e+00" cType="1" res="-3.4116748720407486e-03" rms="3.8568463921546936e-01" purity="3.7833255529403687e-01" nType="-99"/>
          </Node>
        </Node>
      </Node>
    </BinaryTree>
    <BinaryTree type="DecisionTree" boostWeight="1.0000000000000000e+00" itree="468">
      <Node pos="s" depth="0" NCoef="0" IVar="0" Cut="1.5806446533203125e+03" cType="1" res="5.7985032908618450e-03" rms="3.8919037580490112e-01" purity="5.0332504510879517e-01" nType="0">
        <Node pos="l" depth="1" NCoef="0" IVar="2" Cut="4.2694909667968750e+02" cType="1" res="-4.6813078224658966e-03" rms="3.9339971542358398e-01" purity="4.3767830729484558e-01" nType="0">
          <Node pos="l" depth="2" NCoef="0" IVar="3" Cut="2.1252630615234375e+02" cType="1" res="3.5763937048614025e-03" rms="4.0000650286674500e-01" purity="4.8212972283363342e-01" nType="0">
            <Node pos="l" depth="3" NCoef="0" IVar="-1" Cut="0.0000000000000000e+00" cType="1" res="6.5882131457328796e-04" rms="3.9908730983734131e-01" purity="4.7366815805435181e-01" nType="-99"/>
            <Node pos="r" depth="3" NCoef="0" IVar="-1" Cut="0.0000000000000000e+00" cType="1" res="-1.3938822085037827e-03" rms="4.0047854185104370e-01" purity="5.0497251749038696e-01" nType="-99"/>
          </Node>
          <Node pos="r" depth="2" NCoef="0" IVar="3" Cut="1.3954014587402344e+02" cType="1" res="-4.8072781413793564e-02" rms="3.5352212190628052e-01" purity="2.0410102605819702e-01" nType="0">
            <Node pos="l" depth="3" NCoef="0" IVar="-1" Cut="0.0000000000000000e+00" cType="1" res="-5.6525663239881396e-04" rms="3.7405222654342651e-01" purity="2.1672447025775909e-01" nType="-99"/>
            <Node pos="r" depth="3" NCoef="0" IVar="-1" Cut="0.0000000000000000e+00" cType="1" res="-4.7022891230881214e-03" rms="3.4369719028472900e-01" purity="1.9897156953811646e-01" nType="-99"/>
          </Node>
        </Node>
        <Node pos="r" depth="1" NCoef="0" IVar="3" Cut="2.4670126342773438e+02" cType="1" res="3.0454562976956367e-02" rms="3.7795838713645935e-01" purity="6.5777319669723511e-01" nType="0">
          <Node pos="l" depth="2" NCoef="0" IVar="2" Cut="5.8678479003906250e+02" cType="1" res="6.8371444940567017e-02" rms="3.4873488545417786e-01" purity="7.4634993076324463e-01" nType="0">
            <Node pos="l" depth="3" NCoef="0" IVar="-1" Cut="0.0000000000000000e+00" cType="1" res="3.5837786272168159e-03" rms="3.0563536286354065e-01" purity="8.5692203044891357e-01" nType="-99"/>
            <Node pos="r" depth="3" NCoef="0" IVar="-1" Cut="0.0000000000000000e+00" cType="1" res="1.3675689697265625e-03" rms="4.2654243111610413e-01" purity="5.0351601839065552e-01" nType="-99"/>
          </Node>
          <Node pos="r" depth="2" NCoef="0" IVar="2" Cut="6.5062243652343750e+02" cType="1" res="5.1660574972629547e-03" rms="3.9423063397407532e-01" purity="5.9869730472564697e-01" nType="0">
            <Node pos="l" depth="3" NCoef="0" IVar="-1" Cut="0.0000000000000000e+00" cType="1" res="1.0647162562236190e-03" rms="3.8775587081909180e-01" purity="6.5902155637741089e-01" nType="-99"/>
            <Node pos="r" depth="3" NCoef="0" IVar="-1" Cut="0.0000000000000000e+00" cType="1" res="-3.9178347215056419e-03" rms="4.0903073549270630e-01" purity="3.7579545378684998e-01" nType="-99"/>
          </Node>
        </Node>
      </Node>
    </BinaryTree>
    <BinaryTree type="DecisionTree" boostWeight="1.0000000000000000e+00" itree="469">
      <Node pos="s" depth="0" NCoef="0" IVar="8" Cut="-9.3334823846817017e-01" cType="1" res="4.3718246743083000e-03" rms="3.9240044355392456e-01" purity="4.9821749329566956e-01" nType="0">
        <Node pos="l" depth="1" NCoef="0" IVar="6" Cut="4.2063477635383606e-01" cType="1" res="-2.7819937095046043e-02" rms="3.7494617700576782e-01" purity="3.4671583771705627e-01" nType="0">
          <Node pos="l" depth="2" NCoef="0" IVar="8" Cut="-1.9109003543853760e+00" cType="1" res="-1.1126868426799774e-02" rms="3.8648441433906555e-01" purity="3.9343357086181641e-01" nType="0">
            <Node pos="l" depth="3" NCoef="0" IVar="-1" Cut="0.0000000000000000e+00" cType="1" res="-5.1188003271818161e-03" rms="3.2124045491218567e-01" purity="1.8888744711875916e-01" nType="-99"/>
            <Node pos="r" depth="3" NCoef="0" IVar="-1" Cut="0.0000000000000000e+00" cType="1" res="1.6427911759819835e-04" rms="3.9984688162803650e-01" purity="4.4479718804359436e-01" nType="-99"/>
          </Node>
          <Node pos="r" depth="2" NCoef="0" IVar="5" Cut="9.4449043273925781e+01" cType="1" res="-6.7673280835151672e-02" rms="3.4257295727729797e-01" purity="2.3518109321594238e-01" nType="0">
            <Node pos="l" depth="3" NCoef="0" IVar="-1" Cut="0.0000000000000000e+00" cType="1" res="-3.5219909623265266e-03" rms="3.1460765004158020e-01" purity="1.5557748079299927e-01" nType="-99"/>
            <Node pos="r" depth="3" NCoef="0" IVar="-1" Cut="0.0000000000000000e+00" cType="1" res="-5.3646625019609928e-03" rms="3.7099164724349976e-01" purity="3.2670846581459045e-01" nType="-99"/>
          </Node>
        </Node>
        <Node pos="r" depth="1" NCoef="0" IVar="8" Cut="8.4441792964935303e-01" cType="1" res="1.1806694790720940e-02" rms="3.9595049619674683e-01" purity="5.3320765495300293e-01" nType="0">
          <Node pos="l" depth="2" NCoef="0" IVar="3" Cut="3.3443035888671875e+02" cType="1" res="2.0967029035091400e-02" rms="3.9710292220115662e-01" purity="5.9075200557708740e-01" nType="0">
            <Node pos="l" depth="3" NCoef="0" IVar="-1" Cut="0.0000000000000000e+00" cType="1" res="1.0386774083599448e-03" rms="3.9443185925483704e-01" purity="5.9668403863906860e-01" nType="-99"/>
            <Node pos="r" depth="3" NCoef="0" IVar="-1" Cut="0.0000000000000000e+00" cType="1" res="-1.3061633799225092e-03" rms="4.2054787278175354e-01" purity="5.2908843755722046e-01" nType="-99"/>
          </Node>
          <Node pos="r" depth="2" NCoef="0" IVar="7" Cut="-4.0020447969436646e-01" cType="1" res="-1.4112826436758041e-02" rms="3.9151188731193542e-01" purity="3.7038376927375793e-01" nType="0">
            <Node pos="l" depth="3" NCoef="0" IVar="-1" Cut="0.0000000000000000e+00" cType="1" res="-3.0970482621341944e-03" rms="3.5950306057929993e-01" purity="2.7937737107276917e-01" nType="-99"/>
            <Node pos="r" depth="3" NCoef="0" IVar="-1" Cut="0.0000000000000000e+00" cType="1" res="1.1935447400901467e-04" rms="4.0320608019828796e-01" purity="4.0910622477531433e-01" nType="-99"/>
          </Node>
        </Node>
      </Node>
    </BinaryTree>
    <BinaryTree type="DecisionTree" boostWeight="1.0000000000000000e+00" itree="470">
      <Node pos="s" depth="0" NCoef="0" IVar="7" Cut="-6.6663515567779541e-01" cType="1" res="3.7711043842136860e-03" rms="3.8971242308616638e-01" purity="4.9855667352676392e-01" nType="0">
        <Node pos="l" depth="1" NCoef="0" IVar="9" Cut="-9.3316984176635742e-01" cType="1" res="-2.7528956532478333e-02" rms="3.7085846066474915e-01" purity="3.7123286724090576e-01" nType="0">
          <Node pos="l" depth="2" NCoef="0" IVar="6" Cut="-1.0826659202575684e-01" cType="1" res="-5.8702617883682251e-02" rms="3.3131623268127441e-01" purity="2.5532904267311096e-01" nType="0">
            <Node pos="l" depth="3" NCoef="0" IVar="-1" Cut="0.0000000000000000e+00" cType="1" res="-3.0552749522030354e-03" rms="3.3363959193229675e-01" purity="2.7439305186271667e-01" nType="-99"/>
            <Node pos="r" depth="3" NCoef="0" IVar="-1" Cut="0.0000000000000000e+00" cType="1" res="-5.1814741455018520e-03" rms="3.2788044214248657e-01" purity="2.3100404441356659e-01" nType="-99"/>
          </Node>
          <Node pos="r" depth="2" NCoef="0" IVar="9" Cut="1.0223402976989746e+00" cType="1" res="-1.7084663733839989e-02" rms="3.8262745738029480e-01" purity="4.1006475687026978e-01" nType="0">
            <Node pos="l" depth="3" NCoef="0" IVar="-1" Cut="0.0000000000000000e+00" cType="1" res="-2.8921739431098104e-04" rms="3.9336565136909485e-01" purity="4.5449227094650269e-01" nType="-99"/>
            <Node pos="r" depth="3" NCoef="0" IVar="-1" Cut="0.0000000000000000e+00" cType="1" res="-3.9258669130504131e-03" rms="3.3837768435478210e-01" purity="2.5002574920654297e-01" nType="-99"/>
          </Node>
        </Node>
        <Node pos="r" depth="1" NCoef="0" IVar="7" Cut="1.5875203907489777e-01" cType="1" res="1.3777354732155800e-02" rms="3.9502748847007751e-01" purity="5.3926056623458862e-01" nType="0">
          <Node pos="l" depth="2" NCoef="0" IVar="8" Cut="9.3310171365737915e-01" cType="1" res="3.3838100731372833e-02" rms="3.9981830120086670e-01" purity="6.2482428550720215e-01" nType="0">
            <Node pos="l" depth="3" NCoef="0" IVar="-1" Cut="0.0000000000000000e+00" cType="1" res="1.5746043063700199e-03" rms="3.9606472849845886e-01" purity="6.5516465902328491e-01" nType="-99"/>
            <Node pos="r" depth="3" NCoef="0" IVar="-1" Cut="0.0000000000000000e+00" cType="1" res="-4.6579921036027372e-04" rms="4.1704005002975464e-01" purity="4.5805600285530090e-01" nType="-99"/>
          </Node>
          <Node pos="r" depth="2" NCoef="0" IVar="8" Cut="-9.3299537897109985e-01" cType="1" res="-1.2655701721087098e-03" rms="3.9072135090827942e-01" purity="4.7509899735450745e-01" nType="0">
            <Node pos="l" depth="3" NCoef="0" IVar="-1" Cut="0.0000000000000000e+00" cType="1" res="-3.3550173975527287e-03" rms="3.6960342526435852e-01" purity="2.8690207004547119e-01" nType="-99"/>
            <Node pos="r" depth="3" NCoef="0" IVar="-1" Cut="0.0000000000000000e+00" cType="1" res="3.5244328319095075e-04" rms="3.9374941587448120e-01" purity="5.0978136062622070e-01" nType="-99"/>
          </Node>
        </Node>
      </Node>
    </BinaryTree>
    <BinaryTree type="DecisionTree" boostWeight="1.0000000000000000e+00" itree="471">
      <Node pos="s" depth="0" NCoef="0" IVar="6" Cut="-1.4580757617950439e+00" cType="1" res="7.8157717362046242e-03" rms="3.9077499508857727e-01" purity="5.0627356767654419e-01" nType="0">
        <Node pos="l" depth="1" NCoef="0" IVar="4" Cut="1.3441284179687500e+02" cType="1" res="-4.7733679413795471e-02" rms="3.3692443370819092e-01" purity="2.1546657383441925e-01" nType="0">
          <Node pos="l" depth="2" NCoef="0" IVar="-1" Cut="0.0000000000000000e+00" cType="1" res="-2.2651192266494036e-03" rms="3.2071682810783386e-01" purity="1.5945012867450714e-01" nType="-99"/>
          <Node pos="r" depth="2" NCoef="0" IVar="-1" Cut="0.0000000000000000e+00" cType="1" res="-4.5653190463781357e-03" rms="3.5325598716735840e-01" purity="2.8054949641227722e-01" nType="-99"/>
        </Node>
        <Node pos="r" depth="1" NCoef="0" IVar="7" Cut="9.3310302495956421e-01" cType="1" res="1.1530972085893154e-02" rms="3.9383471012115479e-01" purity="5.2572304010391235e-01" nType="0">
          <Node pos="l" depth="2" NCoef="0" IVar="7" Cut="-6.6674959659576416e-01" cType="1" res="1.8407205119729042e-02" rms="3.9668002724647522e-01" purity="5.6458050012588501e-01" nType="0">
            <Node pos="l" depth="3" NCoef="0" IVar="-1" Cut="0.0000000000000000e+00" cType="1" res="-4.1392509592697024e-04" rms="3.8714352250099182e-01" purity="4.1035073995590210e-01" nType="-99"/>
            <Node pos="r" depth="3" NCoef="0" IVar="-1" Cut="0.0000000000000000e+00" cType="1" res="1.1323181679472327e-03" rms="4.0000602602958679e-01" purity="6.2792760133743286e-01" nType="-99"/>
          </Node>
          <Node pos="r" depth="2" NCoef="0" IVar="9" Cut="-3.9988040924072266e-01" cType="1" res="-2.1919459104537964e-02" rms="3.7790864706039429e-01" purity="3.3669495582580566e-01" nType="0">
            <Node pos="l" depth="3" NCoef="0" IVar="-1" Cut="0.0000000000000000e+00" cType="1" res="-3.2478645443916321e-03" rms="3.5921832919120789e-01" purity="2.8772166371345520e-01" nType="-99"/>
            <Node pos="r" depth="3" NCoef="0" IVar="-1" Cut="0.0000000000000000e+00" cType="1" res="-4.0539013571105897e-04" rms="3.8468638062477112e-01" purity="3.5738417506217957e-01" nType="-99"/>
          </Node>
        </Node>
      </Node>
    </BinaryTree>
    <BinaryTree type="DecisionTree" boostWeight="1.0000000000000000e+00" itree="472">
      <Node pos="s" depth="0" NCoef="0" IVar="7" Cut="2.0000088214874268e+00" cType="1" res="4.6317479573190212e-03" rms="3.9053553342819214e-01" purity="5.0068879127502441e-01" nType="0">
        <Node pos="l" depth="1" NCoef="0" IVar="6" Cut="-1.1820279359817505e+00" cType="1" res="7.5760935433208942e-03" rms="3.9301204681396484e-01" purity="5.1245814561843872e-01" nType="0">
          <Node pos="l" depth="2" NCoef="0" IVar="8" Cut="-6.6419082880020142e-01" cType="1" res="-3.7505023181438446e-02" rms="3.5667732357978821e-01" purity="2.6719686388969421e-01" nType="0">
            <Node pos="l" depth="3" NCoef="0" IVar="-1" Cut="0.0000000000000000e+00" cType="1" res="-5.5513521656394005e-03" rms="3.2026103138923645e-01" purity="1.7160260677337646e-01" nType="-99"/>
            <Node pos="r" depth="3" NCoef="0" IVar="-1" Cut="0.0000000000000000e+00" cType="1" res="-1.1627705534920096e-03" rms="3.7222358584403992e-01" purity="3.1427747011184692e-01" nType="-99"/>
          </Node>
          <Node pos="r" depth="2" NCoef="0" IVar="6" Cut="1.2828735113143921e+00" cType="1" res="1.2781526893377304e-02" rms="3.9666363596916199e-01" purity="5.4077798128128052e-01" nType="0">
            <Node pos="l" depth="3" NCoef="0" IVar="-1" Cut="0.0000000000000000e+00" cType="1" res="7.2469800943508744e-04" rms="4.0061762928962708e-01" purity="5.7461565732955933e-01" nType="-99"/>
            <Node pos="r" depth="3" NCoef="0" IVar="-1" Cut="0.0000000000000000e+00" cType="1" res="-1.7792654689401388e-03" rms="3.5876441001892090e-01" purity="2.5483787059783936e-01" nType="-99"/>
          </Node>
        </Node>
        <Node pos="r" depth="1" NCoef="0" IVar="-1" Cut="0.0000000000000000e+00" cType="1" res="-8.2906885072588921e-03" rms="2.8080704808235168e-01" purity="1.1275226622819901e-01" nType="-99"/>
      </Node>
    </BinaryTree>
    <BinaryTree type="DecisionTree" boostWeight="1.0000000000000000e+00" itree="473">
      <Node pos="s" depth="0" NCoef="0" IVar="0" Cut="1.1315646972656250e+03" cType="1" res="3.8755771238356829e-03" rms="3.9196124672889709e-01" purity="5.0119417905807495e-01" nType="0">
        <Node pos="l" depth="1" NCoef="0" IVar="1" Cut="3.4143814086914062e+02" cType="1" res="-2.6438117027282715e-02" rms="3.9544039964675903e-01" purity="2.5605517625808716e-01" nType="0">
          <Node pos="l" depth="2" NCoef="0" IVar="3" Cut="1.3902519226074219e+02" cType="1" res="-5.2916329354047775e-02" rms="3.7158221006393433e-01" purity="2.0944590866565704e-01" nType="0">
            <Node pos="l" depth="3" NCoef="0" IVar="-1" Cut="0.0000000000000000e+00" cType="1" res="-1.4102178392931819e-03" rms="3.7426599860191345e-01" purity="2.0476356148719788e-01" nType="-99"/>
            <Node pos="r" depth="3" NCoef="0" IVar="-1" Cut="0.0000000000000000e+00" cType="1" res="-3.2316087745130062e-03" rms="3.6773878335952759e-01" purity="2.1347932517528534e-01" nType="-99"/>
          </Node>
          <Node pos="r" depth="2" NCoef="0" IVar="-1" Cut="0.0000000000000000e+00" cType="1" res="8.2149534136988223e-05" rms="4.1761246323585510e-01" purity="3.0592459440231323e-01" nType="-99"/>
        </Node>
        <Node pos="r" depth="1" NCoef="0" IVar="3" Cut="1.4676246643066406e+02" cType="1" res="1.1679724790155888e-02" rms="3.9068001508712769e-01" purity="5.6430429220199585e-01" nType="0">
          <Node pos="l" depth="2" NCoef="0" IVar="2" Cut="4.4437365722656250e+02" cType="1" res="6.6093347966670990e-02" rms="4.1312628984451294e-01" purity="4.9189317226409912e-01" nType="0">
            <Node pos="l" depth="3" NCoef="0" IVar="-1" Cut="0.0000000000000000e+00" cType="1" res="3.1948310788720846e-03" rms="4.1385731101036072e-01" purity="5.9310382604598999e-01" nType="-99"/>
            <Node pos="r" depth="3" NCoef="0" IVar="-1" Cut="0.0000000000000000e+00" cType="1" res="1.5787077136337757e-03" rms="4.1008314490318298e-01" purity="3.5535854101181030e-01" nType="-99"/>
          </Node>
          <Node pos="r" depth="2" NCoef="0" IVar="7" Cut="1.2000297307968140e+00" cType="1" res="4.2173075489699841e-03" rms="3.8690403103828430e-01" purity="5.7423490285873413e-01" nType="0">
            <Node pos="l" depth="3" NCoef="0" IVar="-1" Cut="0.0000000000000000e+00" cType="1" res="4.3774861842393875e-04" rms="3.8721856474876404e-01" purity="6.0575062036514282e-01" nType="-99"/>
            <Node pos="r" depth="3" NCoef="0" IVar="-1" Cut="0.0000000000000000e+00" cType="1" res="-3.2226834446191788e-03" rms="3.7964159250259399e-01" purity="2.8565543889999390e-01" nType="-99"/>
          </Node>
        </Node>
      </Node>
    </BinaryTree>
    <BinaryTree type="DecisionTree" boostWeight="1.0000000000000000e+00" itree="474">
      <Node pos="s" depth="0" NCoef="0" IVar="0" Cut="1.7946009521484375e+03" cType="1" res="1.2235223548486829e-03" rms="3.8867932558059692e-01" purity="4.9498471617698669e-01" nType="0">
        <Node pos="l" depth="1" NCoef="0" IVar="2" Cut="3.5506094360351562e+02" cType="1" res="-4.9621812067925930e-03" rms="3.8842418789863586e-01" purity="4.6405133605003357e-01" nType="0">
          <Node pos="l" depth="2" NCoef="0" IVar="0" Cut="1.2262864990234375e+03" cType="1" res="1.1106140911579132e-02" rms="3.9102613925933838e-01" purity="5.3736960887908936e-01" nType="0">
            <Node pos="l" depth="3" NCoef="0" IVar="-1" Cut="0.0000000000000000e+00" cType="1" res="-5.5737857474014163e-04" rms="4.1556599736213684e-01" purity="3.3720242977142334e-01" nType="-99"/>
            <Node pos="r" depth="3" NCoef="0" IVar="-1" Cut="0.0000000000000000e+00" cType="1" res="1.4712102711200714e-03" rms="3.6291405558586121e-01" purity="7.3964852094650269e-01" nType="-99"/>
          </Node>
          <Node pos="r" depth="2" NCoef="0" IVar="1" Cut="4.8386877441406250e+02" cType="1" res="-3.2635327428579330e-02" rms="3.8232192397117615e-01" purity="3.3778125047683716e-01" nType="0">
            <Node pos="l" depth="3" NCoef="0" IVar="-1" Cut="0.0000000000000000e+00" cType="1" res="-1.4624022878706455e-03" rms="3.6866107583045959e-01" purity="2.7318257093429565e-01" nType="-99"/>
            <Node pos="r" depth="3" NCoef="0" IVar="-1" Cut="0.0000000000000000e+00" cType="1" res="4.3753333739005029e-04" rms="4.2406737804412842e-01" purity="5.6482595205307007e-01" nType="-99"/>
          </Node>
        </Node>
        <Node pos="r" depth="1" NCoef="0" IVar="3" Cut="4.1431326293945312e+02" cType="1" res="3.4795287996530533e-02" rms="3.8834637403488159e-01" purity="6.6287022829055786e-01" nType="0">
          <Node pos="l" depth="2" NCoef="0" IVar="2" Cut="7.0468475341796875e+02" cType="1" res="5.4635349661111832e-02" rms="3.7858769297599792e-01" purity="7.0452582836151123e-01" nType="0">
            <Node pos="l" depth="3" NCoef="0" IVar="-1" Cut="0.0000000000000000e+00" cType="1" res="3.0143456533551216e-03" rms="3.5560190677642822e-01" purity="7.7796798944473267e-01" nType="-99"/>
            <Node pos="r" depth="3" NCoef="0" IVar="-1" Cut="0.0000000000000000e+00" cType="1" res="1.0460895282449201e-04" rms="4.3012261390686035e-01" purity="5.0703239440917969e-01" nType="-99"/>
          </Node>
          <Node pos="r" depth="2" NCoef="0" IVar="-1" Cut="0.0000000000000000e+00" cType="1" res="-3.2738754525780678e-03" rms="4.2054173350334167e-01" purity="4.4881445169448853e-01" nType="-99"/>
        </Node>
      </Node>
    </BinaryTree>
    <BinaryTree type="DecisionTree" boostWeight="1.0000000000000000e+00" itree="475">
      <Node pos="s" depth="0" NCoef="0" IVar="0" Cut="1.1903398437500000e+03" cType="1" res="4.5094089582562447e-03" rms="3.9013591408729553e-01" purity="5.0099778175354004e-01" nType="0">
        <Node pos="l" depth="1" NCoef="0" IVar="2" Cut="2.3667158508300781e+02" cType="1" res="-2.0440774038434029e-02" rms="3.9832669496536255e-01" purity="2.8926318883895874e-01" nType="0">
          <Node pos="l" depth="2" NCoef="0" IVar="-1" Cut="0.0000000000000000e+00" cType="1" res="2.8454384300857782e-04" rms="4.2767658829689026e-01" purity="4.0336722135543823e-01" nType="-99"/>
          <Node pos="r" depth="2" NCoef="0" IVar="0" Cut="1.0793433837890625e+03" cType="1" res="-3.3878806978464127e-02" rms="3.8276636600494385e-01" purity="2.3468495905399323e-01" nType="0">
            <Node pos="l" depth="3" NCoef="0" IVar="-1" Cut="0.0000000000000000e+00" cType="1" res="-2.9404561500996351e-03" rms="3.5559803247451782e-01" purity="1.7611576616764069e-01" nType="-99"/>
            <Node pos="r" depth="3" NCoef="0" IVar="-1" Cut="0.0000000000000000e+00" cType="1" res="-6.8181613460183144e-04" rms="4.0506273508071899e-01" purity="2.8807452321052551e-01" nType="-99"/>
          </Node>
        </Node>
        <Node pos="r" depth="1" NCoef="0" IVar="3" Cut="3.4211151123046875e+02" cType="1" res="1.3895493932068348e-02" rms="3.8659313321113586e-01" purity="5.8065086603164673e-01" nType="0">
          <Node pos="l" depth="2" NCoef="0" IVar="3" Cut="1.6309194946289062e+02" cType="1" res="2.0595153793692589e-02" rms="3.8390156626701355e-01" purity="5.9567135572433472e-01" nType="0">
            <Node pos="l" depth="3" NCoef="0" IVar="-1" Cut="0.0000000000000000e+00" cType="1" res="2.3492716718465090e-03" rms="3.9882260560989380e-01" purity="5.4661518335342407e-01" nType="-99"/>
            <Node pos="r" depth="3" NCoef="0" IVar="-1" Cut="0.0000000000000000e+00" cType="1" res="3.9476554957218468e-04" rms="3.7988096475601196e-01" purity="6.0663533210754395e-01" nType="-99"/>
          </Node>
          <Node pos="r" depth="2" NCoef="0" IVar="5" Cut="1.2035257720947266e+02" cType="1" res="-4.5786764472723007e-02" rms="4.0492790937423706e-01" purity="4.4684463739395142e-01" nType="0">
            <Node pos="l" depth="3" NCoef="0" IVar="-1" Cut="0.0000000000000000e+00" cType="1" res="-6.0082878917455673e-03" rms="3.7368500232696533e-01" purity="2.8434136509895325e-01" nType="-99"/>
            <Node pos="r" depth="3" NCoef="0" IVar="-1" Cut="0.0000000000000000e+00" cType="1" res="-5.2211375441402197e-04" rms="4.2425608634948730e-01" purity="5.7100570201873779e-01" nType="-99"/>
          </Node>
        </Node>
      </Node>
    </BinaryTree>
    <BinaryTree type="DecisionTree" boostWeight="1.0000000000000000e+00" itree="476">
      <Node pos="s" depth="0" NCoef="0" IVar="0" Cut="1.7854975585937500e+03" cType="1" res="5.8314213529229164e-03" rms="3.9381387829780579e-01" purity="4.9809736013412476e-01" nType="0">
        <Node pos="l" depth="1" NCoef="0" IVar="4" Cut="2.2185383605957031e+02" cType="1" res="-4.9880123697221279e-04" rms="3.9430406689643860e-01" purity="4.6617284417152405e-01" nType="0">
          <Node pos="l" depth="2" NCoef="0" IVar="0" Cut="1.3162160644531250e+03" cType="1" res="3.1198540236800909e-03" rms="3.9386266469955444e-01" purity="4.6473318338394165e-01" nType="0">
            <Node pos="l" depth="3" NCoef="0" IVar="-1" Cut="0.0000000000000000e+00" cType="1" res="-5.9658865211531520e-04" rms="4.0656065940856934e-01" purity="3.5097140073776245e-01" nType="-99"/>
            <Node pos="r" depth="3" NCoef="0" IVar="-1" Cut="0.0000000000000000e+00" cType="1" res="1.0465561645105481e-03" rms="3.7786474823951721e-01" purity="5.9499633312225342e-01" nType="-99"/>
          </Node>
          <Node pos="r" depth="2" NCoef="0" IVar="-1" Cut="0.0000000000000000e+00" cType="1" res="-4.0817880071699619e-03" rms="3.9578303694725037e-01" purity="4.9697741866111755e-01" nType="-99"/>
        </Node>
        <Node pos="r" depth="1" NCoef="0" IVar="2" Cut="7.1426708984375000e+02" cType="1" res="3.9009083062410355e-02" rms="3.8955590128898621e-01" purity="6.6541850566864014e-01" nType="0">
          <Node pos="l" depth="2" NCoef="0" IVar="3" Cut="3.4329769897460938e+02" cType="1" res="6.0971438884735107e-02" rms="3.7075537443161011e-01" purity="7.3449635505676270e-01" nType="0">
            <Node pos="l" depth="3" NCoef="0" IVar="-1" Cut="0.0000000000000000e+00" cType="1" res="3.3394373022019863e-03" rms="3.4595698118209839e-01" purity="8.0304366350173950e-01" nType="-99"/>
            <Node pos="r" depth="3" NCoef="0" IVar="-1" Cut="0.0000000000000000e+00" cType="1" res="5.7607790222391486e-04" rms="4.1359621286392212e-01" purity="5.9255981445312500e-01" nType="-99"/>
          </Node>
          <Node pos="r" depth="2" NCoef="0" IVar="-1" Cut="0.0000000000000000e+00" cType="1" res="-8.2171196117997169e-04" rms="4.3044140934944153e-01" purity="4.8044660687446594e-01" nType="-99"/>
        </Node>
      </Node>
    </BinaryTree>
    <BinaryTree type="DecisionTree" boostWeight="1.0000000000000000e+00" itree="477">
      <Node pos="s" depth="0" NCoef="0" IVar="9" Cut="1.9999626874923706e+00" cType="1" res="4.5508421026170254e-03" rms="3.9254459738731384e-01" purity="4.9927994608879089e-01" nType="0">
        <Node pos="l" depth="1" NCoef="0" IVar="8" Cut="-9.3333774805068970e-01" cType="1" res="7.7515440061688423e-03" rms="3.9452669024467468e-01" purity="5.1169389486312866e-01" nType="0">
          <Node pos="l" depth="2" NCoef="0" IVar="2" Cut="3.5407019042968750e+02" cType="1" res="-2.1933175623416901e-02" rms="3.8213890790939331e-01" purity="3.5508787631988525e-01" nType="0">
            <Node pos="l" depth="3" NCoef="0" IVar="-1" Cut="0.0000000000000000e+00" cType="1" res="-1.0482402285560966e-04" rms="3.9666947722434998e-01" purity="4.2622491717338562e-01" nType="-99"/>
            <Node pos="r" depth="3" NCoef="0" IVar="-1" Cut="0.0000000000000000e+00" cType="1" res="-3.1301137059926987e-03" rms="3.6058354377746582e-01" purity="2.6173898577690125e-01" nType="-99"/>
          </Node>
          <Node pos="r" depth="2" NCoef="0" IVar="2" Cut="6.3790734863281250e+02" cType="1" res="1.4485429972410202e-02" rms="3.9697432518005371e-01" purity="5.4721945524215698e-01" nType="0">
            <Node pos="l" depth="3" NCoef="0" IVar="-1" Cut="0.0000000000000000e+00" cType="1" res="7.8178942203521729e-04" rms="3.9528518915176392e-01" purity="5.5762755870819092e-01" nType="-99"/>
            <Node pos="r" depth="3" NCoef="0" IVar="-1" Cut="0.0000000000000000e+00" cType="1" res="-5.4281117627397180e-04" rms="4.1175395250320435e-01" purity="4.2880603671073914e-01" nType="-99"/>
          </Node>
        </Node>
        <Node pos="r" depth="1" NCoef="0" IVar="-1" Cut="0.0000000000000000e+00" cType="1" res="-4.9679675139486790e-03" rms="3.3085042238235474e-01" purity="1.9509343802928925e-01" nType="-99"/>
      </Node>
    </BinaryTree>
    <BinaryTree type="DecisionTree" boostWeight="1.0000000000000000e+00" itree="478">
      <Node pos="s" depth="0" NCoef="0" IVar="2" Cut="7.7117974853515625e+02" cType="1" res="4.6005006879568100e-03" rms="3.9118960499763489e-01" purity="5.0068044662475586e-01" nType="0">
        <Node pos="l" depth="1" NCoef="0" IVar="0" Cut="1.9058725585937500e+03" cType="1" res="7.6451138593256474e-03" rms="3.8983458280563354e-01" purity="5.0417375564575195e-01" nType="0">
          <Node pos="l" depth="2" NCoef="0" IVar="0" Cut="1.3266091308593750e+03" cType="1" res="1.3695115922018886e-03" rms="3.9042389392852783e-01" purity="4.8229917883872986e-01" nType="0">
            <Node pos="l" depth="3" NCoef="0" IVar="-1" Cut="0.0000000000000000e+00" cType="1" res="-7.1004376513883471e-04" rms="4.0611222386360168e-01" purity="3.5400816798210144e-01" nType="-99"/>
            <Node pos="r" depth="3" NCoef="0" IVar="-1" Cut="0.0000000000000000e+00" cType="1" res="8.6881004972383380e-04" rms="3.7364843487739563e-01" purity="6.0768836736679077e-01" nType="-99"/>
          </Node>
          <Node pos="r" depth="2" NCoef="0" IVar="3" Cut="3.6238012695312500e+02" cType="1" res="7.5389400124549866e-02" rms="3.7681952118873596e-01" purity="7.4030703306198120e-01" nType="0">
            <Node pos="l" depth="3" NCoef="0" IVar="-1" Cut="0.0000000000000000e+00" cType="1" res="3.8322566542774439e-03" rms="3.5009270906448364e-01" purity="8.0657297372817993e-01" nType="-99"/>
            <Node pos="r" depth="3" NCoef="0" IVar="-1" Cut="0.0000000000000000e+00" cType="1" res="1.1544406879693270e-03" rms="4.2088359594345093e-01" purity="6.0951578617095947e-01" nType="-99"/>
          </Node>
        </Node>
        <Node pos="r" depth="1" NCoef="0" IVar="-1" Cut="0.0000000000000000e+00" cType="1" res="-6.7871360806748271e-04" rms="4.1774821281433105e-01" purity="4.0688318014144897e-01" nType="-99"/>
      </Node>
    </BinaryTree>
    <BinaryTree type="DecisionTree" boostWeight="1.0000000000000000e+00" itree="479">
      <Node pos="s" depth="0" NCoef="0" IVar="3" Cut="2.1939097595214844e+02" cType="1" res="6.3916570506989956e-03" rms="3.9244559407234192e-01" purity="5.0085586309432983e-01" nType="0">
        <Node pos="l" depth="1" NCoef="0" IVar="0" Cut="1.3008640136718750e+03" cType="1" res="2.0858716219663620e-02" rms="3.9190620183944702e-01" purity="4.8205158114433289e-01" nType="0">
          <Node pos="l" depth="2" NCoef="0" IVar="5" Cut="6.4249786376953125e+01" cType="1" res="-1.6952393343672156e-03" rms="4.0403535962104797e-01" purity="3.6027672886848450e-01" nType="0">
            <Node pos="l" depth="3" NCoef="0" IVar="-1" Cut="0.0000000000000000e+00" cType="1" res="-2.6696091517806053e-03" rms="3.5595661401748657e-01" purity="1.7260360717773438e-01" nType="-99"/>
            <Node pos="r" depth="3" NCoef="0" IVar="-1" Cut="0.0000000000000000e+00" cType="1" res="3.7077598972246051e-04" rms="4.1173583269119263e-01" purity="3.9640298485755920e-01" nType="-99"/>
          </Node>
          <Node pos="r" depth="2" NCoef="0" IVar="2" Cut="4.5454302978515625e+02" cType="1" res="5.4114285856485367e-02" rms="3.7080943584442139e-01" purity="6.6160720586776733e-01" nType="0">
            <Node pos="l" depth="3" NCoef="0" IVar="-1" Cut="0.0000000000000000e+00" cType="1" res="2.9482620302587748e-03" rms="3.4359252452850342e-01" purity="7.9367488622665405e-01" nType="-99"/>
            <Node pos="r" depth="3" NCoef="0" IVar="-1" Cut="0.0000000000000000e+00" cType="1" res="6.9983559660613537e-04" rms="4.1515898704528809e-01" purity="4.0876495838165283e-01" nType="-99"/>
          </Node>
        </Node>
        <Node pos="r" depth="1" NCoef="0" IVar="0" Cut="1.7067171630859375e+03" cType="1" res="-1.7009995877742767e-02" rms="3.9218837022781372e-01" purity="5.3127336502075195e-01" nType="0">
          <Node pos="l" depth="2" NCoef="0" IVar="4" Cut="1.9245568847656250e+02" cType="1" res="-3.9769839495420456e-02" rms="3.9322710037231445e-01" purity="4.5741340517997742e-01" nType="0">
            <Node pos="l" depth="3" NCoef="0" IVar="-1" Cut="0.0000000000000000e+00" cType="1" res="-1.1399181094020605e-03" rms="3.8967528939247131e-01" purity="4.4018882513046265e-01" nType="-99"/>
            <Node pos="r" depth="3" NCoef="0" IVar="-1" Cut="0.0000000000000000e+00" cType="1" res="-4.3022809550166130e-03" rms="3.9872470498085022e-01" purity="4.9829208850860596e-01" nType="-99"/>
          </Node>
          <Node pos="r" depth="2" NCoef="0" IVar="2" Cut="6.2733966064453125e+02" cType="1" res="1.4588460326194763e-02" rms="3.8853752613067627e-01" purity="6.3381630182266235e-01" nType="0">
            <Node pos="l" depth="3" NCoef="0" IVar="-1" Cut="0.0000000000000000e+00" cType="1" res="1.7847379203885794e-03" rms="3.7076470255851746e-01" purity="7.2719269990921021e-01" nType="-99"/>
            <Node pos="r" depth="3" NCoef="0" IVar="-1" Cut="0.0000000000000000e+00" cType="1" res="-2.4330380838364363e-03" rms="4.2037317156791687e-01" purity="4.1568475961685181e-01" nType="-99"/>
          </Node>
        </Node>
      </Node>
    </BinaryTree>
    <BinaryTree type="DecisionTree" boostWeight="1.0000000000000000e+00" itree="480">
      <Node pos="s" depth="0" NCoef="0" IVar="9" Cut="-9.3300151824951172e-01" cType="1" res="3.4187191631644964e-03" rms="3.8962894678115845e-01" purity="4.9820569157600403e-01" nType="0">
        <Node pos="l" depth="1" NCoef="0" IVar="7" Cut="9.3328565359115601e-01" cType="1" res="-2.7757454663515091e-02" rms="3.7427425384521484e-01" purity="3.8092592358589172e-01" nType="0">
          <Node pos="l" depth="2" NCoef="0" IVar="9" Cut="-1.7329374551773071e+00" cType="1" res="-1.9757162779569626e-02" rms="3.8367265462875366e-01" purity="4.1452556848526001e-01" nType="0">
            <Node pos="l" depth="3" NCoef="0" IVar="-1" Cut="0.0000000000000000e+00" cType="1" res="-3.0330049339681864e-03" rms="3.6041393876075745e-01" purity="2.6722684502601624e-01" nType="-99"/>
            <Node pos="r" depth="3" NCoef="0" IVar="-1" Cut="0.0000000000000000e+00" cType="1" res="-2.3761136981192976e-04" rms="3.9238464832305908e-01" purity="4.7789496183395386e-01" nType="-99"/>
          </Node>
          <Node pos="r" depth="2" NCoef="0" IVar="-1" Cut="0.0000000000000000e+00" cType="1" res="-5.9088896960020065e-03" rms="3.1315320730209351e-01" purity="1.9379213452339172e-01" nType="-99"/>
        </Node>
        <Node pos="r" depth="1" NCoef="0" IVar="9" Cut="8.4460437297821045e-01" cType="1" res="1.1187763884663582e-02" rms="3.9297723770141602e-01" purity="5.2743154764175415e-01" nType="0">
          <Node pos="l" depth="2" NCoef="0" IVar="6" Cut="1.2020361423492432e+00" cType="1" res="2.2585105150938034e-02" rms="3.9551994204521179e-01" purity="5.7826685905456543e-01" nType="0">
            <Node pos="l" depth="3" NCoef="0" IVar="-1" Cut="0.0000000000000000e+00" cType="1" res="1.0865274816751480e-03" rms="3.9581197500228882e-01" purity="6.0567450523376465e-01" nType="-99"/>
            <Node pos="r" depth="3" NCoef="0" IVar="-1" Cut="0.0000000000000000e+00" cType="1" res="-8.1995379878208041e-04" rms="3.9045768976211548e-01" purity="3.3058989048004150e-01" nType="-99"/>
          </Node>
          <Node pos="r" depth="2" NCoef="0" IVar="3" Cut="2.6840039062500000e+02" cType="1" res="-1.7457816749811172e-02" rms="3.8502597808837891e-01" purity="3.9966437220573425e-01" nType="0">
            <Node pos="l" depth="3" NCoef="0" IVar="-1" Cut="0.0000000000000000e+00" cType="1" res="-3.5950547317042947e-04" rms="3.8494253158569336e-01" purity="4.0700483322143555e-01" nType="-99"/>
            <Node pos="r" depth="3" NCoef="0" IVar="-1" Cut="0.0000000000000000e+00" cType="1" res="-4.2010326869785786e-03" rms="3.8192969560623169e-01" purity="3.6533486843109131e-01" nType="-99"/>
          </Node>
        </Node>
      </Node>
    </BinaryTree>
    <BinaryTree type="DecisionTree" boostWeight="1.0000000000000000e+00" itree="481">
      <Node pos="s" depth="0" NCoef="0" IVar="6" Cut="1.4724776744842529e+00" cType="1" res="8.3714788779616356e-03" rms="3.9085188508033752e-01" purity="5.0570225715637207e-01" nType="0">
        <Node pos="l" depth="1" NCoef="0" IVar="0" Cut="1.1001787109375000e+03" cType="1" res="1.2795906513929367e-02" rms="3.9408019185066223e-01" purity="5.2772009372711182e-01" nType="0">
          <Node pos="l" depth="2" NCoef="0" IVar="8" Cut="-1.3401454687118530e-01" cType="1" res="-2.3543197661638260e-02" rms="4.0759861469268799e-01" purity="2.6830947399139404e-01" nType="0">
            <Node pos="l" depth="3" NCoef="0" IVar="-1" Cut="0.0000000000000000e+00" cType="1" res="4.1758776205824688e-05" rms="4.0913176536560059e-01" purity="2.8453382849693298e-01" nType="-99"/>
            <Node pos="r" depth="3" NCoef="0" IVar="-1" Cut="0.0000000000000000e+00" cType="1" res="-2.0702751353383064e-03" rms="4.0485364198684692e-01" purity="2.5330588221549988e-01" nType="-99"/>
          </Node>
          <Node pos="r" depth="2" NCoef="0" IVar="3" Cut="1.5011491394042969e+02" cType="1" res="1.9869141280651093e-02" rms="3.9100214838981628e-01" purity="5.7821315526962280e-01" nType="0">
            <Node pos="l" depth="3" NCoef="0" IVar="-1" Cut="0.0000000000000000e+00" cType="1" res="2.5164086837321520e-03" rms="4.0873870253562927e-01" purity="5.0475913286209106e-01" nType="-99"/>
            <Node pos="r" depth="3" NCoef="0" IVar="-1" Cut="0.0000000000000000e+00" cType="1" res="5.1088497275486588e-04" rms="3.8729757070541382e-01" purity="5.9068810939788818e-01" nType="-99"/>
          </Node>
        </Node>
        <Node pos="r" depth="1" NCoef="0" IVar="4" Cut="1.1670110321044922e+02" cType="1" res="-5.2284657955169678e-02" rms="3.3775454759597778e-01" purity="2.0385164022445679e-01" nType="0">
          <Node pos="l" depth="2" NCoef="0" IVar="-1" Cut="0.0000000000000000e+00" cType="1" res="-6.4657116308808327e-04" rms="3.1748777627944946e-01" purity="1.4944852888584137e-01" nType="-99"/>
          <Node pos="r" depth="2" NCoef="0" IVar="-1" Cut="0.0000000000000000e+00" cType="1" res="-5.0431294366717339e-03" rms="3.4846600890159607e-01" purity="2.4385084211826324e-01" nType="-99"/>
        </Node>
      </Node>
    </BinaryTree>
    <BinaryTree type="DecisionTree" boostWeight="1.0000000000000000e+00" itree="482">
      <Node pos="s" depth="0" NCoef="0" IVar="8" Cut="-1.7333314418792725e+00" cType="1" res="6.0101803392171860e-03" rms="3.8922414183616638e-01" purity="5.0372046232223511e-01" nType="0">
        <Node pos="l" depth="1" NCoef="0" IVar="5" Cut="8.6158287048339844e+01" cType="1" res="-5.7676121592521667e-02" rms="3.2816746830940247e-01" purity="1.8140161037445068e-01" nType="0">
          <Node pos="l" depth="2" NCoef="0" IVar="-1" Cut="0.0000000000000000e+00" cType="1" res="-4.4441162608563900e-03" rms="2.8503233194351196e-01" purity="1.0557869821786880e-01" nType="-99"/>
          <Node pos="r" depth="2" NCoef="0" IVar="-1" Cut="0.0000000000000000e+00" cType="1" res="-4.2871385812759399e-03" rms="3.6194661259651184e-01" purity="2.4893060326576233e-01" nType="-99"/>
        </Node>
        <Node pos="r" depth="1" NCoef="0" IVar="8" Cut="6.4126795530319214e-01" cType="1" res="9.7988145425915718e-03" rms="3.9223146438598633e-01" purity="5.2289491891860962e-01" nType="0">
          <Node pos="l" depth="2" NCoef="0" IVar="6" Cut="-6.3879197835922241e-01" cType="1" res="1.9184939563274384e-02" rms="3.9465770125389099e-01" purity="5.6498628854751587e-01" nType="0">
            <Node pos="l" depth="3" NCoef="0" IVar="-1" Cut="0.0000000000000000e+00" cType="1" res="-4.1296784183941782e-04" rms="3.9027586579322815e-01" purity="4.4038075208663940e-01" nType="-99"/>
            <Node pos="r" depth="3" NCoef="0" IVar="-1" Cut="0.0000000000000000e+00" cType="1" res="1.1356300674378872e-03" rms="3.9562979340553284e-01" purity="6.0521912574768066e-01" nType="-99"/>
          </Node>
          <Node pos="r" depth="2" NCoef="0" IVar="7" Cut="-6.6690820455551147e-01" cType="1" res="-1.3965757563710213e-02" rms="3.8499855995178223e-01" purity="4.1632446646690369e-01" nType="0">
            <Node pos="l" depth="3" NCoef="0" IVar="-1" Cut="0.0000000000000000e+00" cType="1" res="-3.5762984771281481e-03" rms="3.5295027494430542e-01" purity="2.6631930470466614e-01" nType="-99"/>
            <Node pos="r" depth="3" NCoef="0" IVar="-1" Cut="0.0000000000000000e+00" cType="1" res="-1.0742845188360661e-04" rms="3.9270612597465515e-01" purity="4.5825836062431335e-01" nType="-99"/>
          </Node>
        </Node>
      </Node>
    </BinaryTree>
    <BinaryTree type="DecisionTree" boostWeight="1.0000000000000000e+00" itree="483">
      <Node pos="s" depth="0" NCoef="0" IVar="2" Cut="8.1617535400390625e+02" cType="1" res="5.1667797379195690e-03" rms="3.9011171460151672e-01" purity="5.0121480226516724e-01" nType="0">
        <Node pos="l" depth="1" NCoef="0" IVar="0" Cut="1.9056428222656250e+03" cType="1" res="8.1013320013880730e-03" rms="3.8872680068016052e-01" purity="5.0434094667434692e-01" nType="0">
          <Node pos="l" depth="2" NCoef="0" IVar="2" Cut="4.3472653198242188e+02" cType="1" res="2.1439883857965469e-03" rms="3.8890221714973450e-01" purity="4.8208907246589661e-01" nType="0">
            <Node pos="l" depth="3" NCoef="0" IVar="-1" Cut="0.0000000000000000e+00" cType="1" res="5.4340681526809931e-04" rms="3.9080417156219482e-01" purity="5.2898538112640381e-01" nType="-99"/>
            <Node pos="r" depth="3" NCoef="0" IVar="-1" Cut="0.0000000000000000e+00" cType="1" res="-2.3609909694641829e-03" rms="3.7873819470405579e-01" purity="3.0322265625000000e-01" nType="-99"/>
          </Node>
          <Node pos="r" depth="2" NCoef="0" IVar="3" Cut="3.1157461547851562e+02" cType="1" res="6.6973216831684113e-02" rms="3.8202607631683350e-01" purity="7.2423911094665527e-01" nType="0">
            <Node pos="l" depth="3" NCoef="0" IVar="-1" Cut="0.0000000000000000e+00" cType="1" res="3.8958678487688303e-03" rms="3.4271135926246643e-01" purity="8.1977868080139160e-01" nType="-99"/>
            <Node pos="r" depth="3" NCoef="0" IVar="-1" Cut="0.0000000000000000e+00" cType="1" res="9.1910490300506353e-04" rms="4.1470727324485779e-01" purity="6.2404924631118774e-01" nType="-99"/>
          </Node>
        </Node>
        <Node pos="r" depth="1" NCoef="0" IVar="-1" Cut="0.0000000000000000e+00" cType="1" res="-3.6169178201816976e-04" rms="4.2078968882560730e-01" purity="4.0440574288368225e-01" nType="-99"/>
      </Node>
    </BinaryTree>
    <BinaryTree type="DecisionTree" boostWeight="1.0000000000000000e+00" itree="484">
      <Node pos="s" depth="0" NCoef="0" IVar="6" Cut="1.4691741466522217e+00" cType="1" res="3.1524016521871090e-03" rms="3.8812187314033508e-01" purity="5.0289148092269897e-01" nType="0">
        <Node pos="l" depth="1" NCoef="0" IVar="8" Cut="-9.3333506584167480e-01" cType="1" res="6.9948467426002026e-03" rms="3.9107576012611389e-01" purity="5.2364391088485718e-01" nType="0">
          <Node pos="l" depth="2" NCoef="0" IVar="3" Cut="1.9508404541015625e+02" cType="1" res="-2.4473873898386955e-02" rms="3.8056567311286926e-01" purity="3.6599996685981750e-01" nType="0">
            <Node pos="l" depth="3" NCoef="0" IVar="-1" Cut="0.0000000000000000e+00" cType="1" res="-4.0079487371258438e-04" rms="3.6743369698524475e-01" purity="3.3799695968627930e-01" nType="-99"/>
            <Node pos="r" depth="3" NCoef="0" IVar="-1" Cut="0.0000000000000000e+00" cType="1" res="-2.2816525306552649e-03" rms="3.9367663860321045e-01" purity="3.9668679237365723e-01" nType="-99"/>
          </Node>
          <Node pos="r" depth="2" NCoef="0" IVar="2" Cut="7.1392980957031250e+02" cType="1" res="1.4205339364707470e-02" rms="3.9308983087539673e-01" purity="5.5976516008377075e-01" nType="0">
            <Node pos="l" depth="3" NCoef="0" IVar="-1" Cut="0.0000000000000000e+00" cType="1" res="7.3213863652199507e-04" rms="3.9142474532127380e-01" purity="5.6623375415802002e-01" nType="-99"/>
            <Node pos="r" depth="3" NCoef="0" IVar="-1" Cut="0.0000000000000000e+00" cType="1" res="-4.9706321442499757e-04" rms="4.1587072610855103e-01" purity="4.4587484002113342e-01" nType="-99"/>
          </Node>
        </Node>
        <Node pos="r" depth="1" NCoef="0" IVar="4" Cut="1.1750721740722656e+02" cType="1" res="-5.0944149494171143e-02" rms="3.3926403522491455e-01" purity="2.1072468161582947e-01" nType="0">
          <Node pos="l" depth="2" NCoef="0" IVar="-1" Cut="0.0000000000000000e+00" cType="1" res="-1.5988550148904324e-03" rms="3.0928435921669006e-01" purity="1.4148554205894470e-01" nType="-99"/>
          <Node pos="r" depth="2" NCoef="0" IVar="-1" Cut="0.0000000000000000e+00" cType="1" res="-4.2797517962753773e-03" rms="3.5827794671058655e-01" purity="2.6276618242263794e-01" nType="-99"/>
        </Node>
      </Node>
    </BinaryTree>
    <BinaryTree type="DecisionTree" boostWeight="1.0000000000000000e+00" itree="485">
      <Node pos="s" depth="0" NCoef="0" IVar="7" Cut="6.6664135456085205e-01" cType="1" res="1.5048882924020290e-03" rms="3.8669911026954651e-01" purity="4.9971851706504822e-01" nType="0">
        <Node pos="l" depth="1" NCoef="0" IVar="7" Cut="-3.2379359006881714e-01" cType="1" res="1.0512688197195530e-02" rms="3.8949495553970337e-01" purity="5.4214805364608765e-01" nType="0">
          <Node pos="l" depth="2" NCoef="0" IVar="8" Cut="9.3326187133789062e-01" cType="1" res="-9.5975734293460846e-03" rms="3.8326698541641235e-01" purity="4.5026686787605286e-01" nType="0">
            <Node pos="l" depth="3" NCoef="0" IVar="-1" Cut="0.0000000000000000e+00" cType="1" res="4.8392852477263659e-05" rms="3.8679125905036926e-01" purity="4.8559924960136414e-01" nType="-99"/>
            <Node pos="r" depth="3" NCoef="0" IVar="-1" Cut="0.0000000000000000e+00" cType="1" res="-3.7714447826147079e-03" rms="3.6003768444061279e-01" purity="2.7113935351371765e-01" nType="-99"/>
          </Node>
          <Node pos="r" depth="2" NCoef="0" IVar="8" Cut="-9.3285560607910156e-01" cType="1" res="2.9662717133760452e-02" rms="3.9438232779502869e-01" purity="6.2964206933975220e-01" nType="0">
            <Node pos="l" depth="3" NCoef="0" IVar="-1" Cut="0.0000000000000000e+00" cType="1" res="-3.2325708889402449e-04" rms="4.0850368142127991e-01" purity="4.6578454971313477e-01" nType="-99"/>
            <Node pos="r" depth="3" NCoef="0" IVar="-1" Cut="0.0000000000000000e+00" cType="1" res="1.4211664674803615e-03" rms="3.9131399989128113e-01" purity="6.6013032197952271e-01" nType="-99"/>
          </Node>
        </Node>
        <Node pos="r" depth="1" NCoef="0" IVar="3" Cut="2.0153483581542969e+02" cType="1" res="-2.6759041473269463e-02" rms="3.7639546394348145e-01" purity="3.6658650636672974e-01" nType="0">
          <Node pos="l" depth="2" NCoef="0" IVar="7" Cut="1.7840601205825806e+00" cType="1" res="-4.2161974124610424e-03" rms="3.7576401233673096e-01" purity="3.4377762675285339e-01" nType="0">
            <Node pos="l" depth="3" NCoef="0" IVar="-1" Cut="0.0000000000000000e+00" cType="1" res="3.9750599535182118e-04" rms="3.9302957057952881e-01" purity="3.9989328384399414e-01" nType="-99"/>
            <Node pos="r" depth="3" NCoef="0" IVar="-1" Cut="0.0000000000000000e+00" cType="1" res="-4.8590986989438534e-03" rms="2.9607352614402771e-01" purity="1.3016378879547119e-01" nType="-99"/>
          </Node>
          <Node pos="r" depth="2" NCoef="0" IVar="0" Cut="1.4334418945312500e+03" cType="1" res="-5.5046789348125458e-02" rms="3.7527540326118469e-01" purity="3.9520800113677979e-01" nType="0">
            <Node pos="l" depth="3" NCoef="0" IVar="-1" Cut="0.0000000000000000e+00" cType="1" res="-4.9492311663925648e-03" rms="3.6027437448501587e-01" purity="2.6471719145774841e-01" nType="-99"/>
            <Node pos="r" depth="3" NCoef="0" IVar="-1" Cut="0.0000000000000000e+00" cType="1" res="-1.9984040409326553e-03" rms="3.8189259171485901e-01" purity="4.6511083841323853e-01" nType="-99"/>
          </Node>
        </Node>
      </Node>
    </BinaryTree>
    <BinaryTree type="DecisionTree" boostWeight="1.0000000000000000e+00" itree="486">
      <Node pos="s" depth="0" NCoef="0" IVar="2" Cut="5.4261816406250000e+02" cType="1" res="4.2491415515542030e-03" rms="3.9085999131202698e-01" purity="4.9989500641822815e-01" nType="0">
        <Node pos="l" depth="1" NCoef="0" IVar="0" Cut="1.5137749023437500e+03" cType="1" res="1.0571932420134544e-02" rms="3.8973790407180786e-01" purity="5.2141183614730835e-01" nType="0">
          <Node pos="l" depth="2" NCoef="0" IVar="2" Cut="2.3263212585449219e+02" cType="1" res="-4.2011854238808155e-03" rms="4.0149194002151489e-01" purity="4.3204820156097412e-01" nType="0">
            <Node pos="l" depth="3" NCoef="0" IVar="-1" Cut="0.0000000000000000e+00" cType="1" res="1.5010025817900896e-03" rms="4.0523332357406616e-01" purity="5.5610185861587524e-01" nType="-99"/>
            <Node pos="r" depth="3" NCoef="0" IVar="-1" Cut="0.0000000000000000e+00" cType="1" res="-6.4442498842254281e-04" rms="3.9993634819984436e-01" purity="4.0359124541282654e-01" nType="-99"/>
          </Node>
          <Node pos="r" depth="2" NCoef="0" IVar="3" Cut="3.1170208740234375e+02" cType="1" res="4.9325913190841675e-02" rms="3.5415306687355042e-01" purity="7.5583738088607788e-01" nType="0">
            <Node pos="l" depth="3" NCoef="0" IVar="-1" Cut="0.0000000000000000e+00" cType="1" res="2.9217139817774296e-03" rms="3.3399116992950439e-01" purity="8.1181854009628296e-01" nType="-99"/>
            <Node pos="r" depth="3" NCoef="0" IVar="-1" Cut="0.0000000000000000e+00" cType="1" res="-3.2163309515453875e-04" rms="4.0741762518882751e-01" purity="5.7504755258560181e-01" nType="-99"/>
          </Node>
        </Node>
        <Node pos="r" depth="1" NCoef="0" IVar="1" Cut="6.0599224853515625e+02" cType="1" res="-3.4602589905261993e-02" rms="3.9547255635261536e-01" purity="3.6768040060997009e-01" nType="0">
          <Node pos="l" depth="2" NCoef="0" IVar="2" Cut="6.8157336425781250e+02" cType="1" res="-6.0620732605457306e-02" rms="3.7170439958572388e-01" purity="2.5514990091323853e-01" nType="0">
            <Node pos="l" depth="3" NCoef="0" IVar="-1" Cut="0.0000000000000000e+00" cType="1" res="-1.3216963270679116e-03" rms="3.7727028131484985e-01" purity="2.9017573595046997e-01" nType="-99"/>
            <Node pos="r" depth="3" NCoef="0" IVar="-1" Cut="0.0000000000000000e+00" cType="1" res="-1.2241052463650703e-03" rms="3.4790319204330444e-01" purity="1.8849091231822968e-01" nType="-99"/>
          </Node>
          <Node pos="r" depth="2" NCoef="0" IVar="-1" Cut="0.0000000000000000e+00" cType="1" res="8.3827093476429582e-04" rms="4.3897184729576111e-01" purity="6.2258541584014893e-01" nType="-99"/>
        </Node>
      </Node>
    </BinaryTree>
    <BinaryTree type="DecisionTree" boostWeight="1.0000000000000000e+00" itree="487">
      <Node pos="s" depth="0" NCoef="0" IVar="8" Cut="-9.3334823846817017e-01" cType="1" res="6.8701636046171188e-03" rms="3.9100795984268188e-01" purity="5.0343811511993408e-01" nType="0">
        <Node pos="l" depth="1" NCoef="0" IVar="4" Cut="1.7701977539062500e+02" cType="1" res="-2.3078735917806625e-02" rms="3.7534105777740479e-01" purity="3.5075387358665466e-01" nType="0">
          <Node pos="l" depth="2" NCoef="0" IVar="0" Cut="1.4375550537109375e+03" cType="1" res="-1.1454701423645020e-02" rms="3.7499904632568359e-01" purity="3.2736277580261230e-01" nType="0">
            <Node pos="l" depth="3" NCoef="0" IVar="-1" Cut="0.0000000000000000e+00" cType="1" res="-1.3091876171529293e-03" rms="3.7094724178314209e-01" purity="2.7428340911865234e-01" nType="-99"/>
            <Node pos="r" depth="3" NCoef="0" IVar="-1" Cut="0.0000000000000000e+00" cType="1" res="1.1623613536357880e-03" rms="3.8382771611213684e-01" purity="4.7337329387664795e-01" nType="-99"/>
          </Node>
          <Node pos="r" depth="2" NCoef="0" IVar="-1" Cut="0.0000000000000000e+00" cType="1" res="-3.4785112366080284e-03" rms="3.7337648868560791e-01" purity="4.3915939331054688e-01" nType="-99"/>
        </Node>
        <Node pos="r" depth="1" NCoef="0" IVar="8" Cut="8.4441572427749634e-01" cType="1" res="1.3808213174343109e-02" rms="3.9422419667243958e-01" purity="5.3880941867828369e-01" nType="0">
          <Node pos="l" depth="2" NCoef="0" IVar="3" Cut="2.1928494262695312e+02" cType="1" res="2.4630583822727203e-02" rms="3.9795768260955811e-01" purity="5.9687787294387817e-01" nType="0">
            <Node pos="l" depth="3" NCoef="0" IVar="-1" Cut="0.0000000000000000e+00" cType="1" res="1.4050019672140479e-03" rms="4.0072035789489746e-01" purity="5.7418107986450195e-01" nType="-99"/>
            <Node pos="r" depth="3" NCoef="0" IVar="-1" Cut="0.0000000000000000e+00" cType="1" res="2.8343824669718742e-04" rms="3.9320722222328186e-01" purity="6.2988299131393433e-01" nType="-99"/>
          </Node>
          <Node pos="r" depth="2" NCoef="0" IVar="4" Cut="1.3122459411621094e+02" cType="1" res="-1.6969697549939156e-02" rms="3.8173449039459229e-01" purity="3.7366744875907898e-01" nType="0">
            <Node pos="l" depth="3" NCoef="0" IVar="-1" Cut="0.0000000000000000e+00" cType="1" res="2.3619021521881223e-04" rms="3.7638193368911743e-01" purity="2.9730269312858582e-01" nType="-99"/>
            <Node pos="r" depth="3" NCoef="0" IVar="-1" Cut="0.0000000000000000e+00" cType="1" res="-2.0412707235664129e-03" rms="3.8608285784721375e-01" purity="4.5637658238410950e-01" nType="-99"/>
          </Node>
        </Node>
      </Node>
    </BinaryTree>
    <BinaryTree type="DecisionTree" boostWeight="1.0000000000000000e+00" itree="488">
      <Node pos="s" depth="0" NCoef="0" IVar="7" Cut="-1.1999617815017700e+00" cType="1" res="4.5852693729102612e-03" rms="3.8995516300201416e-01" purity="4.9870958924293518e-01" nType="0">
        <Node pos="l" depth="1" NCoef="0" IVar="3" Cut="1.6405343627929688e+02" cType="1" res="-4.8382956534624100e-02" rms="3.3455365896224976e-01" purity="2.3899500072002411e-01" nType="0">
          <Node pos="l" depth="2" NCoef="0" IVar="-1" Cut="0.0000000000000000e+00" cType="1" res="-1.2206257088109851e-03" rms="3.2585889101028442e-01" purity="2.0472337305545807e-01" nType="-99"/>
          <Node pos="r" depth="2" NCoef="0" IVar="0" Cut="1.5008568115234375e+03" cType="1" res="-6.6302336752414703e-02" rms="3.3840838074684143e-01" purity="2.5958424806594849e-01" nType="0">
            <Node pos="l" depth="3" NCoef="0" IVar="-1" Cut="0.0000000000000000e+00" cType="1" res="-5.3564505651593208e-03" rms="3.1891101598739624e-01" purity="1.7946855723857880e-01" nType="-99"/>
            <Node pos="r" depth="3" NCoef="0" IVar="-1" Cut="0.0000000000000000e+00" cType="1" res="-2.4504547473043203e-03" rms="3.6489084362983704e-01" purity="3.8275665044784546e-01" nType="-99"/>
          </Node>
        </Node>
        <Node pos="r" depth="1" NCoef="0" IVar="8" Cut="1.1999827623367310e+00" cType="1" res="1.1606203392148018e-02" rms="3.9618715643882751e-01" purity="5.3313475847244263e-01" nType="0">
          <Node pos="l" depth="2" NCoef="0" IVar="2" Cut="7.4762994384765625e+02" cType="1" res="1.7178747802972794e-02" rms="3.9847910404205322e-01" purity="5.6536322832107544e-01" nType="0">
            <Node pos="l" depth="3" NCoef="0" IVar="-1" Cut="0.0000000000000000e+00" cType="1" res="8.4743055049329996e-04" rms="3.9651003479957581e-01" purity="5.7024794816970825e-01" nType="-99"/>
            <Node pos="r" depth="3" NCoef="0" IVar="-1" Cut="0.0000000000000000e+00" cType="1" res="-4.4449162669479847e-04" rms="4.3297699093818665e-01" purity="4.5922911167144775e-01" nType="-99"/>
          </Node>
          <Node pos="r" depth="2" NCoef="0" IVar="8" Cut="2.0381007194519043e+00" cType="1" res="-2.6622222736477852e-02" rms="3.7788248062133789e-01" purity="3.1204319000244141e-01" nType="0">
            <Node pos="l" depth="3" NCoef="0" IVar="-1" Cut="0.0000000000000000e+00" cType="1" res="-6.6295568831264973e-04" rms="3.9298591017723083e-01" purity="3.5478851199150085e-01" nType="-99"/>
            <Node pos="r" depth="3" NCoef="0" IVar="-1" Cut="0.0000000000000000e+00" cType="1" res="-5.2188006229698658e-03" rms="3.2426562905311584e-01" purity="1.8208482861518860e-01" nType="-99"/>
          </Node>
        </Node>
      </Node>
    </BinaryTree>
    <BinaryTree type="DecisionTree" boostWeight="1.0000000000000000e+00" itree="489">
      <Node pos="s" depth="0" NCoef="0" IVar="7" Cut="1.7333660125732422e+00" cType="1" res="1.6466561937704682e-03" rms="3.8691046833992004e-01" purity="4.9828872084617615e-01" nType="0">
        <Node pos="l" depth="1" NCoef="0" IVar="9" Cut="-1.9998271465301514e+00" cType="1" res="5.3191934712231159e-03" rms="3.9056771993637085e-01" purity="5.1647102832794189e-01" nType="0">
          <Node pos="l" depth="2" NCoef="0" IVar="-1" Cut="0.0000000000000000e+00" cType="1" res="-5.8556683361530304e-03" rms="3.1769400835037231e-01" purity="1.9988003373146057e-01" nType="-99"/>
          <Node pos="r" depth="2" NCoef="0" IVar="6" Cut="6.8554443120956421e-01" cType="1" res="8.4317112341523170e-03" rms="3.9275330305099487e-01" purity="5.2858453989028931e-01" nType="0">
            <Node pos="l" depth="3" NCoef="0" IVar="-1" Cut="0.0000000000000000e+00" cType="1" res="5.9194100322201848e-04" rms="3.9401155710220337e-01" purity="5.6829965114593506e-01" nType="-99"/>
            <Node pos="r" depth="3" NCoef="0" IVar="-1" Cut="0.0000000000000000e+00" cType="1" res="-1.0249571641907096e-03" rms="3.8694792985916138e-01" purity="3.9316448569297791e-01" nType="-99"/>
          </Node>
        </Node>
        <Node pos="r" depth="1" NCoef="0" IVar="-1" Cut="0.0000000000000000e+00" cType="1" res="-5.6161978282034397e-03" rms="3.0060291290283203e-01" purity="1.5181796252727509e-01" nType="-99"/>
      </Node>
    </BinaryTree>
    <BinaryTree type="DecisionTree" boostWeight="1.0000000000000000e+00" itree="490">
      <Node pos="s" depth="0" NCoef="0" IVar="0" Cut="1.9890766601562500e+03" cType="1" res="4.5823254622519016e-03" rms="3.9201936125755310e-01" purity="4.9901026487350464e-01" nType="0">
        <Node pos="l" depth="1" NCoef="0" IVar="2" Cut="5.9241687011718750e+02" cType="1" res="7.0858033723197877e-05" rms="3.9046010375022888e-01" purity="4.8248237371444702e-01" nType="0">
          <Node pos="l" depth="2" NCoef="0" IVar="0" Cut="1.3662473144531250e+03" cType="1" res="4.6216314658522606e-03" rms="3.9146459102630615e-01" purity="4.9960446357727051e-01" nType="0">
            <Node pos="l" depth="3" NCoef="0" IVar="-1" Cut="0.0000000000000000e+00" cType="1" res="-4.9495417624711990e-04" rms="4.0456527471542358e-01" purity="3.7457710504531860e-01" nType="-99"/>
            <Node pos="r" depth="3" NCoef="0" IVar="-1" Cut="0.0000000000000000e+00" cType="1" res="1.1746227974072099e-03" rms="3.7258017063140869e-01" purity="6.6300481557846069e-01" nType="-99"/>
          </Node>
          <Node pos="r" depth="2" NCoef="0" IVar="2" Cut="6.6716406250000000e+02" cType="1" res="-6.9346748292446136e-02" rms="3.6789035797119141e-01" purity="2.2130149602890015e-01" nType="0">
            <Node pos="l" depth="3" NCoef="0" IVar="-1" Cut="0.0000000000000000e+00" cType="1" res="-2.2433074191212654e-03" rms="3.8379752635955811e-01" purity="2.4819305539131165e-01" nType="-99"/>
            <Node pos="r" depth="3" NCoef="0" IVar="-1" Cut="0.0000000000000000e+00" cType="1" res="-8.1430072896182537e-04" rms="3.4718060493469238e-01" purity="1.9473512470722198e-01" nType="-99"/>
          </Node>
        </Node>
        <Node pos="r" depth="1" NCoef="0" IVar="3" Cut="3.4575900268554688e+02" cType="1" res="5.1651723682880402e-02" rms="4.0494543313980103e-01" purity="6.7144995927810669e-01" nType="0">
          <Node pos="l" depth="2" NCoef="0" IVar="-1" Cut="0.0000000000000000e+00" cType="1" res="3.1944981310516596e-03" rms="3.8039085268974304e-01" purity="7.5354838371276855e-01" nType="-99"/>
          <Node pos="r" depth="2" NCoef="0" IVar="-1" Cut="0.0000000000000000e+00" cType="1" res="-1.5908118803054094e-04" rms="4.3140533566474915e-01" purity="5.5498039722442627e-01" nType="-99"/>
        </Node>
      </Node>
    </BinaryTree>
    <BinaryTree type="DecisionTree" boostWeight="1.0000000000000000e+00" itree="491">
      <Node pos="s" depth="0" NCoef="0" IVar="6" Cut="-6.5971612930297852e-01" cType="1" res="4.8969611525535583e-03" rms="3.9057549834251404e-01" purity="4.9955970048904419e-01" nType="0">
        <Node pos="l" depth="1" NCoef="0" IVar="3" Cut="2.6325820922851562e+02" cType="1" res="-2.4516928941011429e-02" rms="3.7909215688705444e-01" purity="3.7310597300529480e-01" nType="0">
          <Node pos="l" depth="2" NCoef="0" IVar="0" Cut="1.5965791015625000e+03" cType="1" res="-1.4708709903061390e-02" rms="3.7945172190666199e-01" purity="3.7118211388587952e-01" nType="0">
            <Node pos="l" depth="3" NCoef="0" IVar="-1" Cut="0.0000000000000000e+00" cType="1" res="-1.2729148147627711e-03" rms="3.8055229187011719e-01" purity="3.2200998067855835e-01" nType="-99"/>
            <Node pos="r" depth="3" NCoef="0" IVar="-1" Cut="0.0000000000000000e+00" cType="1" res="1.9408101215958595e-03" rms="3.6708912253379822e-01" purity="6.5460938215255737e-01" nType="-99"/>
          </Node>
          <Node pos="r" depth="2" NCoef="0" IVar="-1" Cut="0.0000000000000000e+00" cType="1" res="-3.7709577009081841e-03" rms="3.7507596611976624e-01" purity="3.8082483410835266e-01" nType="-99"/>
        </Node>
        <Node pos="r" depth="1" NCoef="0" IVar="6" Cut="6.5817296504974365e-01" cType="1" res="1.4012822881340981e-02" rms="3.9362055063247681e-01" purity="5.3874981403350830e-01" nType="0">
          <Node pos="l" depth="2" NCoef="0" IVar="8" Cut="-1.4666410684585571e+00" cType="1" res="2.8325516730546951e-02" rms="3.9638072252273560e-01" purity="6.1401307582855225e-01" nType="0">
            <Node pos="l" depth="3" NCoef="0" IVar="-1" Cut="0.0000000000000000e+00" cType="1" res="-2.0575104281306267e-03" rms="3.9482080936431885e-01" purity="3.1153446435928345e-01" nType="-99"/>
            <Node pos="r" depth="3" NCoef="0" IVar="-1" Cut="0.0000000000000000e+00" cType="1" res="1.3027718523517251e-03" rms="3.9605173468589783e-01" purity="6.3675290346145630e-01" nType="-99"/>
          </Node>
          <Node pos="r" depth="2" NCoef="0" IVar="1" Cut="5.2409899902343750e+02" cType="1" res="-1.6899030655622482e-02" rms="3.8578453660011292e-01" purity="3.7619996070861816e-01" nType="0">
            <Node pos="l" depth="3" NCoef="0" IVar="-1" Cut="0.0000000000000000e+00" cType="1" res="-1.2812059139832854e-03" rms="3.8155969977378845e-01" purity="3.2104247808456421e-01" nType="-99"/>
            <Node pos="r" depth="3" NCoef="0" IVar="-1" Cut="0.0000000000000000e+00" cType="1" res="9.4164325855672359e-04" rms="4.0329232811927795e-01" purity="6.4425832033157349e-01" nType="-99"/>
          </Node>
        </Node>
      </Node>
    </BinaryTree>
    <BinaryTree type="DecisionTree" boostWeight="1.0000000000000000e+00" itree="492">
      <Node pos="s" depth="0" NCoef="0" IVar="0" Cut="1.1285310058593750e+03" cType="1" res="2.4873863440006971e-03" rms="3.8741123676300049e-01" purity="5.0056511163711548e-01" nType="0">
        <Node pos="l" depth="1" NCoef="0" IVar="0" Cut="1.0190319213867188e+03" cType="1" res="-3.2229118049144745e-02" rms="3.8690751791000366e-01" purity="2.4948137998580933e-01" nType="0">
          <Node pos="l" depth="2" NCoef="0" IVar="-1" Cut="0.0000000000000000e+00" cType="1" res="-2.6836437173187733e-03" rms="3.7223774194717407e-01" purity="2.0622983574867249e-01" nType="-99"/>
          <Node pos="r" depth="2" NCoef="0" IVar="0" Cut="1.0764028320312500e+03" cType="1" res="-1.7048448324203491e-02" rms="3.9721086621284485e-01" purity="2.8291156888008118e-01" nType="0">
            <Node pos="l" depth="3" NCoef="0" IVar="-1" Cut="0.0000000000000000e+00" cType="1" res="-1.2106033973395824e-03" rms="3.9044633507728577e-01" purity="2.6270255446434021e-01" nType="-99"/>
            <Node pos="r" depth="3" NCoef="0" IVar="-1" Cut="0.0000000000000000e+00" cType="1" res="-3.3924079616554081e-04" rms="4.0329399704933167e-01" purity="3.0201292037963867e-01" nType="-99"/>
          </Node>
        </Node>
        <Node pos="r" depth="1" NCoef="0" IVar="2" Cut="7.1393151855468750e+02" cType="1" res="1.1163102462887764e-02" rms="3.8705098628997803e-01" purity="5.6331133842468262e-01" nType="0">
          <Node pos="l" depth="2" NCoef="0" IVar="2" Cut="2.9789733886718750e+02" cType="1" res="1.6181852668523788e-02" rms="3.8505053520202637e-01" purity="5.7488030195236206e-01" nType="0">
            <Node pos="l" depth="3" NCoef="0" IVar="-1" Cut="0.0000000000000000e+00" cType="1" res="1.6913128783926368e-03" rms="3.6303943395614624e-01" purity="7.4001693725585938e-01" nType="-99"/>
            <Node pos="r" depth="3" NCoef="0" IVar="-1" Cut="0.0000000000000000e+00" cType="1" res="1.4787494728807360e-04" rms="3.9425313472747803e-01" purity="4.9765750765800476e-01" nType="-99"/>
          </Node>
          <Node pos="r" depth="2" NCoef="0" IVar="-1" Cut="0.0000000000000000e+00" cType="1" res="-7.3894369415938854e-04" rms="4.0867316722869873e-01" purity="3.8853111863136292e-01" nType="-99"/>
        </Node>
      </Node>
    </BinaryTree>
    <BinaryTree type="DecisionTree" boostWeight="1.0000000000000000e+00" itree="493">
      <Node pos="s" depth="0" NCoef="0" IVar="2" Cut="5.4261865234375000e+02" cType="1" res="2.8803532477468252e-03" rms="3.8993549346923828e-01" purity="4.9699965119361877e-01" nType="0">
        <Node pos="l" depth="1" NCoef="0" IVar="0" Cut="1.6372192382812500e+03" cType="1" res="1.0157297365367413e-02" rms="3.8885006308555603e-01" purity="5.1921188831329346e-01" nType="0">
          <Node pos="l" depth="2" NCoef="0" IVar="3" Cut="2.0985888671875000e+02" cType="1" res="6.0868874425068498e-04" rms="3.9610806107521057e-01" purity="4.6564191579818726e-01" nType="0">
            <Node pos="l" depth="3" NCoef="0" IVar="-1" Cut="0.0000000000000000e+00" cType="1" res="5.3116184426471591e-04" rms="3.9492911100387573e-01" purity="4.5289060473442078e-01" nType="-99"/>
            <Node pos="r" depth="3" NCoef="0" IVar="-1" Cut="0.0000000000000000e+00" cType="1" res="-1.2380210682749748e-03" rms="3.9740324020385742e-01" purity="4.9375751614570618e-01" nType="-99"/>
          </Node>
          <Node pos="r" depth="2" NCoef="0" IVar="3" Cut="3.2648629760742188e+02" cType="1" res="5.7564236223697662e-02" rms="3.4672585129737854e-01" purity="7.8517591953277588e-01" nType="0">
            <Node pos="l" depth="3" NCoef="0" IVar="-1" Cut="0.0000000000000000e+00" cType="1" res="3.1947772949934006e-03" rms="3.1812375783920288e-01" purity="8.4327512979507446e-01" nType="-99"/>
            <Node pos="r" depth="3" NCoef="0" IVar="-1" Cut="0.0000000000000000e+00" cType="1" res="4.2007432784885168e-04" rms="4.1727533936500549e-01" purity="6.1124289035797119e-01" nType="-99"/>
          </Node>
        </Node>
        <Node pos="r" depth="1" NCoef="0" IVar="1" Cut="6.3030249023437500e+02" cType="1" res="-4.4165827333927155e-02" rms="3.9364841580390930e-01" purity="3.5339570045471191e-01" nType="0">
          <Node pos="l" depth="2" NCoef="0" IVar="2" Cut="6.8788739013671875e+02" cType="1" res="-6.0917012393474579e-02" rms="3.7459558248519897e-01" purity="2.5813075900077820e-01" nType="0">
            <Node pos="l" depth="3" NCoef="0" IVar="-1" Cut="0.0000000000000000e+00" cType="1" res="-1.8678668420761824e-03" rms="3.7717714905738831e-01" purity="2.8586208820343018e-01" nType="-99"/>
            <Node pos="r" depth="3" NCoef="0" IVar="-1" Cut="0.0000000000000000e+00" cType="1" res="-1.1835225857794285e-02" rms="3.5948401689529419e-01" purity="2.0026142895221710e-01" nType="-99"/>
          </Node>
          <Node pos="r" depth="2" NCoef="0" IVar="-1" Cut="0.0000000000000000e+00" cType="1" res="4.7175675717880949e-05" rms="4.3796330690383911e-01" purity="6.1161613464355469e-01" nType="-99"/>
        </Node>
      </Node>
    </BinaryTree>
    <BinaryTree type="DecisionTree" boostWeight="1.0000000000000000e+00" itree="494">
      <Node pos="s" depth="0" NCoef="0" IVar="7" Cut="1.1999472379684448e+00" cType="1" res="1.6394923441112041e-03" rms="3.9006811380386353e-01" purity="4.9726819992065430e-01" nType="0">
        <Node pos="l" depth="1" NCoef="0" IVar="7" Cut="-8.9520484209060669e-01" cType="1" res="6.9110356271266937e-03" rms="3.9440751075744629e-01" purity="5.2993589639663696e-01" nType="0">
          <Node pos="l" depth="2" NCoef="0" IVar="1" Cut="4.0256948852539062e+02" cType="1" res="-2.4961384013295174e-02" rms="3.6696106195449829e-01" purity="3.2733210921287537e-01" nType="0">
            <Node pos="l" depth="3" NCoef="0" IVar="-1" Cut="0.0000000000000000e+00" cType="1" res="-2.6361152995377779e-03" rms="3.3261555433273315e-01" purity="2.1367451548576355e-01" nType="-99"/>
            <Node pos="r" depth="3" NCoef="0" IVar="-1" Cut="0.0000000000000000e+00" cType="1" res="-1.5088751388248056e-04" rms="4.0610572695732117e-01" purity="4.7440662980079651e-01" nType="-99"/>
          </Node>
          <Node pos="r" depth="2" NCoef="0" IVar="2" Cut="6.0625183105468750e+02" cType="1" res="1.5342150814831257e-02" rms="4.0093049407005310e-01" purity="5.8353000879287720e-01" nType="0">
            <Node pos="l" depth="3" NCoef="0" IVar="-1" Cut="0.0000000000000000e+00" cType="1" res="8.3790055941790342e-04" rms="3.9829832315444946e-01" purity="6.0003459453582764e-01" nType="-99"/>
            <Node pos="r" depth="3" NCoef="0" IVar="-1" Cut="0.0000000000000000e+00" cType="1" res="-5.0932110752910376e-04" rms="4.2097994685173035e-01" purity="4.3155348300933838e-01" nType="-99"/>
          </Node>
        </Node>
        <Node pos="r" depth="1" NCoef="0" IVar="4" Cut="1.5900314331054688e+02" cType="1" res="-3.8278572261333466e-02" rms="3.5294741392135620e-01" purity="2.4989676475524902e-01" nType="0">
          <Node pos="l" depth="2" NCoef="0" IVar="8" Cut="-1.3285568356513977e-01" cType="1" res="-2.6660086587071419e-02" rms="3.4130400419235229e-01" purity="2.0961296558380127e-01" nType="0">
            <Node pos="l" depth="3" NCoef="0" IVar="-1" Cut="0.0000000000000000e+00" cType="1" res="-2.9373102006502450e-04" rms="3.6730563640594482e-01" purity="2.2497385740280151e-01" nType="-99"/>
            <Node pos="r" depth="3" NCoef="0" IVar="-1" Cut="0.0000000000000000e+00" cType="1" res="-2.7462835423648357e-03" rms="3.2251331210136414e-01" purity="1.9966849684715271e-01" nType="-99"/>
          </Node>
          <Node pos="r" depth="2" NCoef="0" IVar="-1" Cut="0.0000000000000000e+00" cType="1" res="-3.8066492415964603e-03" rms="3.7827858328819275e-01" purity="3.4781467914581299e-01" nType="-99"/>
        </Node>
      </Node>
    </BinaryTree>
    <BinaryTree type="DecisionTree" boostWeight="1.0000000000000000e+00" itree="495">
      <Node pos="s" depth="0" NCoef="0" IVar="2" Cut="3.3690881347656250e+02" cType="1" res="2.6560619007796049e-03" rms="3.9002490043640137e-01" purity="4.9900445342063904e-01" nType="0">
        <Node pos="l" depth="1" NCoef="0" IVar="0" Cut="1.2761523437500000e+03" cType="1" res="1.7178524285554886e-02" rms="3.8567274808883667e-01" purity="5.6377083063125610e-01" nType="0">
          <Node pos="l" depth="2" NCoef="0" IVar="5" Cut="1.0167755126953125e+02" cType="1" res="-5.5386382155120373e-03" rms="4.1856545209884644e-01" purity="3.8053965568542480e-01" nType="0">
            <Node pos="l" depth="3" NCoef="0" IVar="-1" Cut="0.0000000000000000e+00" cType="1" res="6.1348394956439734e-04" rms="4.1440016031265259e-01" purity="3.5379835963249207e-01" nType="-99"/>
            <Node pos="r" depth="3" NCoef="0" IVar="-1" Cut="0.0000000000000000e+00" cType="1" res="-2.5877445004880428e-03" rms="4.2494833469390869e-01" purity="4.6477010846138000e-01" nType="-99"/>
          </Node>
          <Node pos="r" depth="2" NCoef="0" IVar="3" Cut="2.0288201904296875e+02" cType="1" res="4.7259148210287094e-02" rms="3.3485394716262817e-01" purity="8.0639398097991943e-01" nType="0">
            <Node pos="l" depth="3" NCoef="0" IVar="-1" Cut="0.0000000000000000e+00" cType="1" res="3.2836559694260359e-03" rms="3.0788287520408630e-01" purity="8.6044383049011230e-01" nType="-99"/>
            <Node pos="r" depth="3" NCoef="0" IVar="-1" Cut="0.0000000000000000e+00" cType="1" res="9.9831388797610998e-04" rms="3.4945705533027649e-01" purity="7.7055084705352783e-01" nType="-99"/>
          </Node>
        </Node>
        <Node pos="r" depth="1" NCoef="0" IVar="0" Cut="2.1358562011718750e+03" cType="1" res="-1.2527795508503914e-02" rms="3.9395183324813843e-01" purity="4.3128851056098938e-01" nType="0">
          <Node pos="l" depth="2" NCoef="0" IVar="0" Cut="1.7135234375000000e+03" cType="1" res="-2.0891141146421432e-02" rms="3.9080181717872620e-01" purity="4.0075325965881348e-01" nType="0">
            <Node pos="l" depth="3" NCoef="0" IVar="-1" Cut="0.0000000000000000e+00" cType="1" res="-1.7691275570541620e-03" rms="3.8724488019943237e-01" purity="3.2929083704948425e-01" nType="-99"/>
            <Node pos="r" depth="3" NCoef="0" IVar="-1" Cut="0.0000000000000000e+00" cType="1" res="4.3362958240322769e-04" rms="3.9858934283256531e-01" purity="5.9260934591293335e-01" nType="-99"/>
          </Node>
          <Node pos="r" depth="2" NCoef="0" IVar="2" Cut="7.2813018798828125e+02" cType="1" res="5.2261095494031906e-02" rms="4.1183540225028992e-01" purity="6.6783761978149414e-01" nType="0">
            <Node pos="l" depth="3" NCoef="0" IVar="-1" Cut="0.0000000000000000e+00" cType="1" res="3.8507448043674231e-03" rms="3.7163332104682922e-01" purity="7.7833741903305054e-01" nType="-99"/>
            <Node pos="r" depth="3" NCoef="0" IVar="-1" Cut="0.0000000000000000e+00" cType="1" res="-7.2403298690915108e-04" rms="4.4525861740112305e-01" purity="5.3554242849349976e-01" nType="-99"/>
          </Node>
        </Node>
      </Node>
    </BinaryTree>
    <BinaryTree type="DecisionTree" boostWeight="1.0000000000000000e+00" itree="496">
      <Node pos="s" depth="0" NCoef="0" IVar="6" Cut="-1.4474904537200928e+00" cType="1" res="4.1170194745063782e-03" rms="3.8840338587760925e-01" purity="5.0014740228652954e-01" nType="0">
        <Node pos="l" depth="1" NCoef="0" IVar="4" Cut="1.2058945465087891e+02" cType="1" res="-5.8783449232578278e-02" rms="3.2886821031570435e-01" purity="1.9329211115837097e-01" nType="0">
          <Node pos="l" depth="2" NCoef="0" IVar="-1" Cut="0.0000000000000000e+00" cType="1" res="-1.3668800238519907e-03" rms="3.0979678034782410e-01" purity="1.5220025181770325e-01" nType="-99"/>
          <Node pos="r" depth="2" NCoef="0" IVar="-1" Cut="0.0000000000000000e+00" cType="1" res="-6.3372240401804447e-03" rms="3.3977285027503967e-01" purity="2.2653612494468689e-01" nType="-99"/>
        </Node>
        <Node pos="r" depth="1" NCoef="0" IVar="7" Cut="1.9998627901077271e+00" cType="1" res="8.4457667544484138e-03" rms="3.9179706573486328e-01" purity="5.2126485109329224e-01" nType="0">
          <Node pos="l" depth="2" NCoef="0" IVar="2" Cut="3.4597787475585938e+02" cType="1" res="1.1434390209615231e-02" rms="3.9408466219902039e-01" purity="5.3286671638488770e-01" nType="0">
            <Node pos="l" depth="3" NCoef="0" IVar="-1" Cut="0.0000000000000000e+00" cType="1" res="1.1018819641321898e-03" rms="3.8753050565719604e-01" purity="6.0272175073623657e-01" nType="-99"/>
            <Node pos="r" depth="3" NCoef="0" IVar="-1" Cut="0.0000000000000000e+00" cType="1" res="-2.6120879920199513e-04" rms="4.0084722638130188e-01" purity="4.5038038492202759e-01" nType="-99"/>
          </Node>
          <Node pos="r" depth="2" NCoef="0" IVar="-1" Cut="0.0000000000000000e+00" cType="1" res="-7.9878987744450569e-03" rms="2.8556144237518311e-01" purity="1.2581124901771545e-01" nType="-99"/>
        </Node>
      </Node>
    </BinaryTree>
    <BinaryTree type="DecisionTree" boostWeight="1.0000000000000000e+00" itree="497">
      <Node pos="s" depth="0" NCoef="0" IVar="8" Cut="-1.7333024740219116e+00" cType="1" res="5.3190360777080059e-03" rms="3.9179104566574097e-01" purity="5.0089603662490845e-01" nType="0">
        <Node pos="l" depth="1" NCoef="0" IVar="5" Cut="8.7250495910644531e+01" cType="1" res="-6.1913251876831055e-02" rms="3.2490202784538269e-01" purity="1.8103228509426117e-01" nType="0">
          <Node pos="l" depth="2" NCoef="0" IVar="-1" Cut="0.0000000000000000e+00" cType="1" res="-2.7449331246316433e-03" rms="2.9792597889900208e-01" purity="1.2585344910621643e-01" nType="-99"/>
          <Node pos="r" depth="2" NCoef="0" IVar="-1" Cut="0.0000000000000000e+00" cType="1" res="-6.0292165726423264e-03" rms="3.4709692001342773e-01" purity="2.3542416095733643e-01" nType="-99"/>
        </Node>
        <Node pos="r" depth="1" NCoef="0" IVar="8" Cut="1.9365057945251465e+00" cType="1" res="9.3772448599338531e-03" rms="3.9510068297386169e-01" purity="5.2020329236984253e-01" nType="0">
          <Node pos="l" depth="2" NCoef="0" IVar="9" Cut="9.3337678909301758e-01" cType="1" res="1.2655535712838173e-02" rms="3.9801192283630371e-01" purity="5.3540897369384766e-01" nType="0">
            <Node pos="l" depth="3" NCoef="0" IVar="-1" Cut="0.0000000000000000e+00" cType="1" res="7.8339350875467062e-04" rms="3.9862221479415894e-01" purity="5.6341338157653809e-01" nType="-99"/>
            <Node pos="r" depth="3" NCoef="0" IVar="-1" Cut="0.0000000000000000e+00" cType="1" res="-6.2165030976757407e-04" rms="3.9449730515480042e-01" purity="4.2163145542144775e-01" nType="-99"/>
          </Node>
          <Node pos="r" depth="2" NCoef="0" IVar="-1" Cut="0.0000000000000000e+00" cType="1" res="-4.5217266306281090e-03" rms="3.1626909971237183e-01" purity="1.8653151392936707e-01" nType="-99"/>
        </Node>
      </Node>
    </BinaryTree>
    <BinaryTree type="DecisionTree" boostWeight="1.0000000000000000e+00" itree="498">
      <Node pos="s" depth="0" NCoef="0" IVar="7" Cut="9.3334478139877319e-01" cType="1" res="2.1199774928390980e-03" rms="3.8990762829780579e-01" purity="4.9863040447235107e-01" nType="0">
        <Node pos="l" depth="1" NCoef="0" IVar="7" Cut="-1.5555154085159302e+00" cType="1" res="8.5560455918312073e-03" rms="3.9417952299118042e-01" purity="5.3849077224731445e-01" nType="0">
          <Node pos="l" depth="2" NCoef="0" IVar="4" Cut="1.1868026733398438e+02" cType="1" res="-3.9423335343599319e-02" rms="3.3447507023811340e-01" purity="2.0166333019733429e-01" nType="0">
            <Node pos="l" depth="3" NCoef="0" IVar="-1" Cut="0.0000000000000000e+00" cType="1" res="-4.5613903785124421e-04" rms="3.2619416713714600e-01" purity="1.4930175244808197e-01" nType="-99"/>
            <Node pos="r" depth="3" NCoef="0" IVar="-1" Cut="0.0000000000000000e+00" cType="1" res="-4.0661394596099854e-03" rms="3.3842357993125916e-01" purity="2.4410644173622131e-01" nType="-99"/>
          </Node>
          <Node pos="r" depth="2" NCoef="0" IVar="2" Cut="6.0625280761718750e+02" cType="1" res="1.2902002781629562e-02" rms="3.9886170625686646e-01" purity="5.6900042295455933e-01" nType="0">
            <Node pos="l" depth="3" NCoef="0" IVar="-1" Cut="0.0000000000000000e+00" cType="1" res="7.4080639751628041e-04" rms="3.9719262719154358e-01" purity="5.8482426404953003e-01" nType="-99"/>
            <Node pos="r" depth="3" NCoef="0" IVar="-1" Cut="0.0000000000000000e+00" cType="1" res="-5.2163546206429601e-04" rms="4.1060930490493774e-01" purity="4.2616134881973267e-01" nType="-99"/>
          </Node>
        </Node>
        <Node pos="r" depth="1" NCoef="0" IVar="3" Cut="2.0654084777832031e+02" cType="1" res="-2.9013356193900108e-02" rms="3.6695441603660583e-01" purity="3.0581313371658325e-01" nType="0">
          <Node pos="l" depth="2" NCoef="0" IVar="6" Cut="1.6307580471038818e-01" cType="1" res="-1.2362073175609112e-02" rms="3.6537802219390869e-01" purity="2.9073730111122131e-01" nType="0">
            <Node pos="l" depth="3" NCoef="0" IVar="-1" Cut="0.0000000000000000e+00" cType="1" res="-2.3124322760850191e-03" rms="3.5904261469841003e-01" purity="2.6211062073707581e-01" nType="-99"/>
            <Node pos="r" depth="3" NCoef="0" IVar="-1" Cut="0.0000000000000000e+00" cType="1" res="5.6659168330952525e-04" rms="3.6986404657363892e-01" purity="3.1780004501342773e-01" nType="-99"/>
          </Node>
          <Node pos="r" depth="2" NCoef="0" IVar="3" Cut="2.7598526000976562e+02" cType="1" res="-5.2937582135200500e-02" rms="3.6789056658744812e-01" purity="3.2747370004653931e-01" nType="0">
            <Node pos="l" depth="3" NCoef="0" IVar="-1" Cut="0.0000000000000000e+00" cType="1" res="-1.6618786612525582e-03" rms="3.7317743897438049e-01" purity="3.8503691554069519e-01" nType="-99"/>
            <Node pos="r" depth="3" NCoef="0" IVar="-1" Cut="0.0000000000000000e+00" cType="1" res="-6.7834737710654736e-03" rms="3.5647004842758179e-01" purity="2.3415221273899078e-01" nType="-99"/>
          </Node>
        </Node>
      </Node>
    </BinaryTree>
    <BinaryTree type="DecisionTree" boostWeight="1.0000000000000000e+00" itree="499">
      <Node pos="s" depth="0" NCoef="0" IVar="8" Cut="1.7333195209503174e+00" cType="1" res="7.2695654816925526e-03" rms="3.9250290393829346e-01" purity="5.0438618659973145e-01" nType="0">
        <Node pos="l" depth="1" NCoef="0" IVar="6" Cut="6.8831914663314819e-01" cType="1" res="1.0798055678606033e-02" rms="3.9548459649085999e-01" purity="5.2291321754455566e-01" nType="0">
          <Node pos="l" depth="2" NCoef="0" IVar="6" Cut="-4.5537626743316650e-01" cType="1" res="1.7947647720575333e-02" rms="3.9514687657356262e-01" purity="5.6208568811416626e-01" nType="0">
            <Node pos="l" depth="3" NCoef="0" IVar="-1" Cut="0.0000000000000000e+00" cType="1" res="-1.3544088869821280e-04" rms="3.9226734638214111e-01" purity="4.5047229528427124e-01" nType="-99"/>
            <Node pos="r" depth="3" NCoef="0" IVar="-1" Cut="0.0000000000000000e+00" cType="1" res="1.2603499926626682e-03" rms="3.9643919467926025e-01" purity="6.3587868213653564e-01" nType="-99"/>
          </Node>
          <Node pos="r" depth="2" NCoef="0" IVar="3" Cut="2.7202856445312500e+02" cType="1" res="-1.3315913267433643e-02" rms="3.9567008614540100e-01" purity="3.9079335331916809e-01" nType="0">
            <Node pos="l" depth="3" NCoef="0" IVar="-1" Cut="0.0000000000000000e+00" cType="1" res="-2.3178054107120261e-05" rms="3.9588066935539246e-01" purity="4.0062823891639709e-01" nType="-99"/>
            <Node pos="r" depth="3" NCoef="0" IVar="-1" Cut="0.0000000000000000e+00" cType="1" res="-4.3923412449657917e-03" rms="3.8912999629974365e-01" purity="3.4483298659324646e-01" nType="-99"/>
          </Node>
        </Node>
        <Node pos="r" depth="1" NCoef="0" IVar="4" Cut="1.1801012420654297e+02" cType="1" res="-4.9907244741916656e-02" rms="3.3543193340301514e-01" purity="2.0416770875453949e-01" nType="0">
          <Node pos="l" depth="2" NCoef="0" IVar="-1" Cut="0.0000000000000000e+00" cType="1" res="-1.2376497033983469e-03" rms="3.1985861063003540e-01" purity="1.6454961895942688e-01" nType="-99"/>
          <Node pos="r" depth="2" NCoef="0" IVar="-1" Cut="0.0000000000000000e+00" cType="1" res="-5.2032731473445892e-03" rms="3.4596681594848633e-01" purity="2.3953235149383545e-01" nType="-99"/>
        </Node>
      </Node>
    </BinaryTree>
    <BinaryTree type="DecisionTree" boostWeight="1.0000000000000000e+00" itree="500">
      <Node pos="s" depth="0" NCoef="0" IVar="6" Cut="-1.1920399665832520e+00" cType="1" res="3.4067789092659950e-03" rms="3.9031189680099487e-01" purity="4.9861839413642883e-01" nType="0">
        <Node pos="l" depth="1" NCoef="0" IVar="4" Cut="1.2169953155517578e+02" cType="1" res="-4.0104079991579056e-02" rms="3.5104602575302124e-01" purity="2.4878315627574921e-01" nType="0">
          <Node pos="l" depth="2" NCoef="0" IVar="-1" Cut="0.0000000000000000e+00" cType="1" res="-8.3532964345067739e-04" rms="3.3989274501800537e-01" purity="1.7187167704105377e-01" nType="-99"/>
          <Node pos="r" depth="2" NCoef="0" IVar="6" Cut="-1.4883483648300171e+00" cType="1" res="-6.1514463275671005e-02" rms="3.5758912563323975e-01" purity="3.0580493807792664e-01" nType="0">
            <Node pos="l" depth="3" NCoef="0" IVar="-1" Cut="0.0000000000000000e+00" cType="1" res="-4.7854124568402767e-03" rms="3.3160656690597534e-01" purity="2.5052189826965332e-01" nType="-99"/>
            <Node pos="r" depth="3" NCoef="0" IVar="-1" Cut="0.0000000000000000e+00" cType="1" res="-1.7731150146573782e-03" rms="3.8912433385848999e-01" purity="3.8189873099327087e-01" nType="-99"/>
          </Node>
        </Node>
        <Node pos="r" depth="1" NCoef="0" IVar="0" Cut="1.1200546875000000e+03" cType="1" res="8.5190217941999435e-03" rms="3.9435395598411560e-01" purity="5.2797240018844604e-01" nType="0">
          <Node pos="l" depth="2" NCoef="0" IVar="2" Cut="2.8396594238281250e+02" cType="1" res="-2.1021749824285507e-02" rms="4.0934702754020691e-01" purity="2.8066134452819824e-01" nType="0">
            <Node pos="l" depth="3" NCoef="0" IVar="-1" Cut="0.0000000000000000e+00" cType="1" res="-2.7937028789892793e-05" rms="4.3859782814979553e-01" purity="3.4262841939926147e-01" nType="-99"/>
            <Node pos="r" depth="3" NCoef="0" IVar="-1" Cut="0.0000000000000000e+00" cType="1" res="-3.5559763200581074e-03" rms="3.3455073833465576e-01" purity="1.4853911101818085e-01" nType="-99"/>
          </Node>
          <Node pos="r" depth="2" NCoef="0" IVar="3" Cut="2.4571717834472656e+02" cType="1" res="1.5376170165836811e-02" rms="3.9047199487686157e-01" purity="5.8537948131561279e-01" nType="0">
            <Node pos="l" depth="3" NCoef="0" IVar="-1" Cut="0.0000000000000000e+00" cType="1" res="1.1866453569382429e-03" rms="3.8608497381210327e-01" purity="6.0411697626113892e-01" nType="-99"/>
            <Node pos="r" depth="3" NCoef="0" IVar="-1" Cut="0.0000000000000000e+00" cType="1" res="-5.0145358545705676e-04" rms="3.9758521318435669e-01" purity="5.4891747236251831e-01" nType="-99"/>
          </Node>
        </Node>
      </Node>
    </BinaryTree>
    <BinaryTree type="DecisionTree" boostWeight="1.0000000000000000e+00" itree="501">
      <Node pos="s" depth="0" NCoef="0" IVar="9" Cut="-1.7332688570022583e+00" cType="1" res="2.8176004998385906e-03" rms="3.8803517818450928e-01" purity="4.9954167008399963e-01" nType="0">
        <Node pos="l" depth="1" NCoef="0" IVar="5" Cut="9.2040779113769531e+01" cType="1" res="-5.6768905371427536e-02" rms="3.4657439589500427e-01" purity="2.3696923255920410e-01" nType="0">
          <Node pos="l" depth="2" NCoef="0" IVar="-1" Cut="0.0000000000000000e+00" cType="1" res="-3.4107377287000418e-03" rms="3.1152310967445374e-01" purity="1.5237411856651306e-01" nType="-99"/>
          <Node pos="r" depth="2" NCoef="0" IVar="-1" Cut="0.0000000000000000e+00" cType="1" res="-3.8752413820475340e-03" rms="3.8083562254905701e-01" purity="3.3167704939842224e-01" nType="-99"/>
        </Node>
        <Node pos="r" depth="1" NCoef="0" IVar="9" Cut="1.7206026315689087e+00" cType="1" res="6.7921392619609833e-03" rms="3.9032068848609924e-01" purity="5.1705586910247803e-01" nType="0">
          <Node pos="l" depth="2" NCoef="0" IVar="8" Cut="1.4665845632553101e+00" cType="1" res="1.0955234989523888e-02" rms="3.9308869838714600e-01" purity="5.3654342889785767e-01" nType="0">
            <Node pos="l" depth="3" NCoef="0" IVar="-1" Cut="0.0000000000000000e+00" cType="1" res="6.3456565840169787e-04" rms="3.9487868547439575e-01" purity="5.5964863300323486e-01" nType="-99"/>
            <Node pos="r" depth="3" NCoef="0" IVar="-1" Cut="0.0000000000000000e+00" cType="1" res="-2.1366789005696774e-03" rms="3.6928564310073853e-01" purity="2.7931404113769531e-01" nType="-99"/>
          </Node>
          <Node pos="r" depth="2" NCoef="0" IVar="5" Cut="8.6849647521972656e+01" cType="1" res="-4.8485394567251205e-02" rms="3.4680148959159851e-01" purity="2.5829976797103882e-01" nType="0">
            <Node pos="l" depth="3" NCoef="0" IVar="-1" Cut="0.0000000000000000e+00" cType="1" res="-1.6403264598920941e-03" rms="3.1611877679824829e-01" purity="1.7754970490932465e-01" nType="-99"/>
            <Node pos="r" depth="3" NCoef="0" IVar="-1" Cut="0.0000000000000000e+00" cType="1" res="-3.8806262891739607e-03" rms="3.7077480554580688e-01" purity="3.3183580636978149e-01" nType="-99"/>
          </Node>
        </Node>
      </Node>
    </BinaryTree>
    <BinaryTree type="DecisionTree" boostWeight="1.0000000000000000e+00" itree="502">
      <Node pos="s" depth="0" NCoef="0" IVar="0" Cut="1.7855096435546875e+03" cType="1" res="3.5773317795246840e-03" rms="3.8940763473510742e-01" purity="5.0004869699478149e-01" nType="0">
        <Node pos="l" depth="1" NCoef="0" IVar="2" Cut="4.3261581420898438e+02" cType="1" res="-2.6255645789206028e-03" rms="3.8970029354095459e-01" purity="4.6778967976570129e-01" nType="0">
          <Node pos="l" depth="2" NCoef="0" IVar="0" Cut="1.3162310791015625e+03" cType="1" res="6.6300691105425358e-03" rms="3.9193797111511230e-01" purity="5.1654142141342163e-01" nType="0">
            <Node pos="l" depth="3" NCoef="0" IVar="-1" Cut="0.0000000000000000e+00" cType="1" res="-4.2955714161507785e-04" rms="4.0881356596946716e-01" purity="3.7210556864738464e-01" nType="-99"/>
            <Node pos="r" depth="3" NCoef="0" IVar="-1" Cut="0.0000000000000000e+00" cType="1" res="1.3280130224302411e-03" rms="3.6521053314208984e-01" purity="7.2229993343353271e-01" nType="-99"/>
          </Node>
          <Node pos="r" depth="2" NCoef="0" IVar="1" Cut="3.5681997680664062e+02" cType="1" res="-4.0530014783143997e-02" rms="3.7804216146469116e-01" purity="2.6813733577728271e-01" nType="0">
            <Node pos="l" depth="3" NCoef="0" IVar="-1" Cut="0.0000000000000000e+00" cType="1" res="-1.2216846225783229e-03" rms="3.0845937132835388e-01" purity="1.4397405087947845e-01" nType="-99"/>
            <Node pos="r" depth="3" NCoef="0" IVar="-1" Cut="0.0000000000000000e+00" cType="1" res="-9.1179105220362544e-04" rms="4.0861240029335022e-01" purity="3.3469671010971069e-01" nType="-99"/>
          </Node>
        </Node>
        <Node pos="r" depth="1" NCoef="0" IVar="3" Cut="3.2538665771484375e+02" cType="1" res="3.6047447472810745e-02" rms="3.8625001907348633e-01" purity="6.6891390085220337e-01" nType="0">
          <Node pos="l" depth="2" NCoef="0" IVar="0" Cut="2.0134514160156250e+03" cType="1" res="6.1084311455488205e-02" rms="3.6230242252349854e-01" purity="7.4300807714462280e-01" nType="0">
            <Node pos="l" depth="3" NCoef="0" IVar="-1" Cut="0.0000000000000000e+00" cType="1" res="1.5856967074796557e-03" rms="3.5173526406288147e-01" purity="7.2339075803756714e-01" nType="-99"/>
            <Node pos="r" depth="3" NCoef="0" IVar="-1" Cut="0.0000000000000000e+00" cType="1" res="3.3311415463685989e-03" rms="3.7290090322494507e-01" purity="7.6910781860351562e-01" nType="-99"/>
          </Node>
          <Node pos="r" depth="2" NCoef="0" IVar="3" Cut="4.0174014282226562e+02" cType="1" res="-4.2469101026654243e-03" rms="4.1881591081619263e-01" purity="5.4966658353805542e-01" nType="0">
            <Node pos="l" depth="3" NCoef="0" IVar="-1" Cut="0.0000000000000000e+00" cType="1" res="1.5441708965227008e-03" rms="4.0594536066055298e-01" purity="6.2677055597305298e-01" nType="-99"/>
            <Node pos="r" depth="3" NCoef="0" IVar="-1" Cut="0.0000000000000000e+00" cType="1" res="-2.6013581082224846e-03" rms="4.2824676632881165e-01" purity="4.5864379405975342e-01" nType="-99"/>
          </Node>
        </Node>
      </Node>
    </BinaryTree>
    <BinaryTree type="DecisionTree" boostWeight="1.0000000000000000e+00" itree="503">
      <Node pos="s" depth="0" NCoef="0" IVar="2" Cut="7.1393237304687500e+02" cType="1" res="1.5856216195970774e-03" rms="3.8924330472946167e-01" purity="4.9890714883804321e-01" nType="0">
        <Node pos="l" depth="1" NCoef="0" IVar="0" Cut="1.7037645263671875e+03" cType="1" res="6.3454778864979744e-03" rms="3.8792452216148376e-01" purity="5.0613635778427124e-01" nType="0">
          <Node pos="l" depth="2" NCoef="0" IVar="3" Cut="1.9841957092285156e+02" cType="1" res="-2.0443452522158623e-03" rms="3.9132922887802124e-01" purity="4.6276694536209106e-01" nType="0">
            <Node pos="l" depth="3" NCoef="0" IVar="-1" Cut="0.0000000000000000e+00" cType="1" res="6.9860345683991909e-04" rms="3.9351710677146912e-01" purity="4.4368261098861694e-01" nType="-99"/>
            <Node pos="r" depth="3" NCoef="0" IVar="-1" Cut="0.0000000000000000e+00" cType="1" res="-1.4416218036785722e-03" rms="3.8650742173194885e-01" purity="4.9068123102188110e-01" nType="-99"/>
          </Node>
          <Node pos="r" depth="2" NCoef="0" IVar="3" Cut="3.1284069824218750e+02" cType="1" res="4.7892551869153976e-02" rms="3.6779379844665527e-01" purity="7.2090530395507812e-01" nType="0">
            <Node pos="l" depth="3" NCoef="0" IVar="-1" Cut="0.0000000000000000e+00" cType="1" res="2.8249826282262802e-03" rms="3.3550018072128296e-01" purity="7.9592680931091309e-01" nType="-99"/>
            <Node pos="r" depth="3" NCoef="0" IVar="-1" Cut="0.0000000000000000e+00" cType="1" res="6.9525849539786577e-04" rms="4.1448405385017395e-01" purity="5.9488111734390259e-01" nType="-99"/>
          </Node>
        </Node>
        <Node pos="r" depth="1" NCoef="0" IVar="-1" Cut="0.0000000000000000e+00" cType="1" res="-5.8044010074809194e-04" rms="4.0296927094459534e-01" purity="3.6103147268295288e-01" nType="-99"/>
      </Node>
    </BinaryTree>
    <BinaryTree type="DecisionTree" boostWeight="1.0000000000000000e+00" itree="504">
      <Node pos="s" depth="0" NCoef="0" IVar="6" Cut="6.8690848350524902e-01" cType="1" res="2.9167358297854662e-03" rms="3.8993918895721436e-01" purity="4.9846947193145752e-01" nType="0">
        <Node pos="l" depth="1" NCoef="0" IVar="6" Cut="-4.5754262804985046e-01" cType="1" res="1.0496798902750015e-02" rms="3.9078822731971741e-01" purity="5.3961825370788574e-01" nType="0">
          <Node pos="l" depth="2" NCoef="0" IVar="9" Cut="9.3348854780197144e-01" cType="1" res="-9.7427563741803169e-03" rms="3.8419306278228760e-01" purity="4.2944893240928650e-01" nType="0">
            <Node pos="l" depth="3" NCoef="0" IVar="-1" Cut="0.0000000000000000e+00" cType="1" res="7.3675673775142059e-06" rms="3.9119631052017212e-01" purity="4.6092489361763000e-01" nType="-99"/>
            <Node pos="r" depth="3" NCoef="0" IVar="-1" Cut="0.0000000000000000e+00" cType="1" res="-3.2293919939547777e-03" rms="3.4640800952911377e-01" purity="2.8417152166366577e-01" nType="-99"/>
          </Node>
          <Node pos="r" depth="2" NCoef="0" IVar="8" Cut="-9.3331122398376465e-01" cType="1" res="2.4025492370128632e-02" rms="3.9455673098564148e-01" purity="6.1325848102569580e-01" nType="0">
            <Node pos="l" depth="3" NCoef="0" IVar="-1" Cut="0.0000000000000000e+00" cType="1" res="-6.3029106240719557e-04" rms="4.0360453724861145e-01" purity="4.5287910103797913e-01" nType="-99"/>
            <Node pos="r" depth="3" NCoef="0" IVar="-1" Cut="0.0000000000000000e+00" cType="1" res="1.2366292066872120e-03" rms="3.9228290319442749e-01" purity="6.4536070823669434e-01" nType="-99"/>
          </Node>
        </Node>
        <Node pos="r" depth="1" NCoef="0" IVar="3" Cut="1.8487690734863281e+02" cType="1" res="-2.2243505343794823e-02" rms="3.8604220747947693e-01" purity="3.6188590526580811e-01" nType="0">
          <Node pos="l" depth="2" NCoef="0" IVar="8" Cut="3.9945891499519348e-01" cType="1" res="1.1472962796688080e-03" rms="3.7840852141380310e-01" purity="3.1938639283180237e-01" nType="0">
            <Node pos="l" depth="3" NCoef="0" IVar="-1" Cut="0.0000000000000000e+00" cType="1" res="9.5894554397091269e-04" rms="3.8525572419166565e-01" purity="3.5151126980781555e-01" nType="-99"/>
            <Node pos="r" depth="3" NCoef="0" IVar="-1" Cut="0.0000000000000000e+00" cType="1" res="-1.1817348422482610e-03" rms="3.6791685223579407e-01" purity="2.7819880843162537e-01" nType="-99"/>
          </Node>
          <Node pos="r" depth="2" NCoef="0" IVar="9" Cut="-6.6675299406051636e-01" cType="1" res="-4.1864428669214249e-02" rms="3.9125403761863708e-01" purity="3.9753580093383789e-01" nType="0">
            <Node pos="l" depth="3" NCoef="0" IVar="-1" Cut="0.0000000000000000e+00" cType="1" res="-5.4521774873137474e-03" rms="3.7073376774787903e-01" purity="2.9456305503845215e-01" nType="-99"/>
            <Node pos="r" depth="3" NCoef="0" IVar="-1" Cut="0.0000000000000000e+00" cType="1" res="-1.2830445775762200e-03" rms="3.9638954401016235e-01" purity="4.3005695939064026e-01" nType="-99"/>
          </Node>
        </Node>
      </Node>
    </BinaryTree>
    <BinaryTree type="DecisionTree" boostWeight="1.0000000000000000e+00" itree="505">
      <Node pos="s" depth="0" NCoef="0" IVar="8" Cut="6.6665947437286377e-01" cType="1" res="8.1343932833988219e-05" rms="3.8820743560791016e-01" purity="4.9760493636131287e-01" nType="0">
        <Node pos="l" depth="1" NCoef="0" IVar="8" Cut="-6.5398460626602173e-01" cType="1" res="8.1871030852198601e-03" rms="3.9070162177085876e-01" purity="5.3150790929794312e-01" nType="0">
          <Node pos="l" depth="2" NCoef="0" IVar="3" Cut="2.3158680725097656e+02" cType="1" res="-1.7127670347690582e-02" rms="3.8490679860115051e-01" purity="4.0458852052688599e-01" nType="0">
            <Node pos="l" depth="3" NCoef="0" IVar="-1" Cut="0.0000000000000000e+00" cType="1" res="-7.4070987466257066e-05" rms="3.8506695628166199e-01" purity="4.0209233760833740e-01" nType="-99"/>
            <Node pos="r" depth="3" NCoef="0" IVar="-1" Cut="0.0000000000000000e+00" cType="1" res="-2.9662030283361673e-03" rms="3.8219445943832397e-01" purity="4.1025388240814209e-01" nType="-99"/>
          </Node>
          <Node pos="r" depth="2" NCoef="0" IVar="2" Cut="6.2075506591796875e+02" cType="1" res="2.2198544815182686e-02" rms="3.9317220449447632e-01" purity="6.0175639390945435e-01" nType="0">
            <Node pos="l" depth="3" NCoef="0" IVar="-1" Cut="0.0000000000000000e+00" cType="1" res="1.0805629426613450e-03" rms="3.8925847411155701e-01" purity="6.1634135246276855e-01" nType="-99"/>
            <Node pos="r" depth="3" NCoef="0" IVar="-1" Cut="0.0000000000000000e+00" cType="1" res="-2.7702454826794565e-04" rms="4.2725795507431030e-01" purity="4.5569807291030884e-01" nType="-99"/>
          </Node>
        </Node>
        <Node pos="r" depth="1" NCoef="0" IVar="6" Cut="-3.9379817247390747e-01" cType="1" res="-2.3390796035528183e-02" rms="3.7991863489151001e-01" purity="3.9943093061447144e-01" nType="0">
          <Node pos="l" depth="2" NCoef="0" IVar="4" Cut="1.3239926147460938e+02" cType="1" res="-5.6673444807529449e-02" rms="3.5898676514625549e-01" purity="3.0163440108299255e-01" nType="0">
            <Node pos="l" depth="3" NCoef="0" IVar="-1" Cut="0.0000000000000000e+00" cType="1" res="-2.2596053313463926e-03" rms="3.4725147485733032e-01" purity="2.1890461444854736e-01" nType="-99"/>
            <Node pos="r" depth="3" NCoef="0" IVar="-1" Cut="0.0000000000000000e+00" cType="1" res="-4.4970419257879257e-03" rms="3.6912286281585693e-01" purity="3.8679754734039307e-01" nType="-99"/>
          </Node>
          <Node pos="r" depth="2" NCoef="0" IVar="6" Cut="1.1267664432525635e+00" cType="1" res="-9.5678120851516724e-03" rms="3.8744115829467773e-01" purity="4.4004786014556885e-01" nType="0">
            <Node pos="l" depth="3" NCoef="0" IVar="-1" Cut="0.0000000000000000e+00" cType="1" res="8.3754486695397645e-05" rms="4.0038120746612549e-01" purity="5.0415760278701782e-01" nType="-99"/>
            <Node pos="r" depth="3" NCoef="0" IVar="-1" Cut="0.0000000000000000e+00" cType="1" res="-3.7497556768357754e-03" rms="3.3392608165740967e-01" purity="2.1097375452518463e-01" nType="-99"/>
          </Node>
        </Node>
      </Node>
    </BinaryTree>
    <BinaryTree type="DecisionTree" boostWeight="1.0000000000000000e+00" itree="506">
      <Node pos="s" depth="0" NCoef="0" IVar="8" Cut="-6.6667008399963379e-01" cType="1" res="3.3031206112354994e-03" rms="3.8924974203109741e-01" purity="4.9777802824974060e-01" nType="0">
        <Node pos="l" depth="1" NCoef="0" IVar="6" Cut="-1.1630142927169800e+00" cType="1" res="-2.3759437724947929e-02" rms="3.7701055407524109e-01" purity="3.9599370956420898e-01" nType="0">
          <Node pos="l" depth="2" NCoef="0" IVar="-1" Cut="0.0000000000000000e+00" cType="1" res="-5.0138537771999836e-03" rms="3.0442368984222412e-01" purity="1.7536628246307373e-01" nType="-99"/>
          <Node pos="r" depth="2" NCoef="0" IVar="6" Cut="7.2345459461212158e-01" cType="1" res="-1.6442926600575447e-02" rms="3.8752007484436035e-01" purity="4.3347680568695068e-01" nType="0">
            <Node pos="l" depth="3" NCoef="0" IVar="-1" Cut="0.0000000000000000e+00" cType="1" res="-3.0091384542174637e-04" rms="4.0134343504905701e-01" purity="4.9360620975494385e-01" nType="-99"/>
            <Node pos="r" depth="3" NCoef="0" IVar="-1" Cut="0.0000000000000000e+00" cType="1" res="-2.9560870025306940e-03" rms="3.4036239981651306e-01" purity="2.5060525536537170e-01" nType="-99"/>
          </Node>
        </Node>
        <Node pos="r" depth="1" NCoef="0" IVar="8" Cut="6.5395271778106689e-01" cType="1" res="1.2958450242877007e-02" rms="3.9307355880737305e-01" purity="5.3409242630004883e-01" nType="0">
          <Node pos="l" depth="2" NCoef="0" IVar="0" Cut="1.1315646972656250e+03" cType="1" res="2.7726277709007263e-02" rms="3.9433306455612183e-01" purity="6.0827577114105225e-01" nType="0">
            <Node pos="l" depth="3" NCoef="0" IVar="-1" Cut="0.0000000000000000e+00" cType="1" res="-2.6532667106948793e-04" rms="4.3451780080795288e-01" purity="3.3842808008193970e-01" nType="-99"/>
            <Node pos="r" depth="3" NCoef="0" IVar="-1" Cut="0.0000000000000000e+00" cType="1" res="1.4410766307264566e-03" rms="3.8503542542457581e-01" purity="6.6449767351150513e-01" nType="-99"/>
          </Node>
          <Node pos="r" depth="2" NCoef="0" IVar="3" Cut="1.4780827331542969e+02" cType="1" res="-1.3292751275002956e-02" rms="3.8944461941719055e-01" purity="4.0222463011741638e-01" nType="0">
            <Node pos="l" depth="3" NCoef="0" IVar="-1" Cut="0.0000000000000000e+00" cType="1" res="9.9586485885083675e-04" rms="3.8099038600921631e-01" purity="3.0370029807090759e-01" nType="-99"/>
            <Node pos="r" depth="3" NCoef="0" IVar="-1" Cut="0.0000000000000000e+00" cType="1" res="-1.1991168139502406e-03" rms="3.9156070351600647e-01" purity="4.3418124318122864e-01" nType="-99"/>
          </Node>
        </Node>
      </Node>
    </BinaryTree>
    <BinaryTree type="DecisionTree" boostWeight="1.0000000000000000e+00" itree="507">
      <Node pos="s" depth="0" NCoef="0" IVar="9" Cut="-1.9999281167984009e+00" cType="1" res="5.6590670719742775e-03" rms="3.8968226313591003e-01" purity="5.0250667333602905e-01" nType="0">
        <Node pos="l" depth="1" NCoef="0" IVar="-1" Cut="0.0000000000000000e+00" cType="1" res="-5.1775258034467697e-03" rms="3.3360913395881653e-01" purity="1.9848373532295227e-01" nType="-99"/>
        <Node pos="r" depth="1" NCoef="0" IVar="7" Cut="1.7334119081497192e+00" cType="1" res="8.5404068231582642e-03" rms="3.9144164323806763e-01" purity="5.1445436477661133e-01" nType="0">
          <Node pos="l" depth="2" NCoef="0" IVar="7" Cut="-6.4101040363311768e-01" cType="1" res="1.1684914119541645e-02" rms="3.9512321352958679e-01" purity="5.3278952836990356e-01" nType="0">
            <Node pos="l" depth="3" NCoef="0" IVar="-1" Cut="0.0000000000000000e+00" cType="1" res="-5.1480316324159503e-04" rms="3.8497909903526306e-01" purity="4.0510633587837219e-01" nType="-99"/>
            <Node pos="r" depth="3" NCoef="0" IVar="-1" Cut="0.0000000000000000e+00" cType="1" res="7.9272594302892685e-04" rms="3.9838421344757080e-01" purity="5.7832705974578857e-01" nType="-99"/>
          </Node>
          <Node pos="r" depth="2" NCoef="0" IVar="-1" Cut="0.0000000000000000e+00" cType="1" res="-3.7719130050390959e-03" rms="3.1039234995841980e-01" purity="1.7668841779232025e-01" nType="-99"/>
        </Node>
      </Node>
    </BinaryTree>
    <BinaryTree type="DecisionTree" boostWeight="1.0000000000000000e+00" itree="508">
      <Node pos="s" depth="0" NCoef="0" IVar="2" Cut="3.7131405639648438e+02" cType="1" res="3.6249507684260607e-03" rms="3.8965061306953430e-01" purity="4.9926471710205078e-01" nType="0">
        <Node pos="l" depth="1" NCoef="0" IVar="0" Cut="1.3820919189453125e+03" cType="1" res="1.4964733272790909e-02" rms="3.8594853878021240e-01" purity="5.5547189712524414e-01" nType="0">
          <Node pos="l" depth="2" NCoef="0" IVar="3" Cut="2.0203692626953125e+02" cType="1" res="-1.0660209227353334e-03" rms="4.1204887628555298e-01" purity="4.2875823378562927e-01" nType="0">
            <Node pos="l" depth="3" NCoef="0" IVar="-1" Cut="0.0000000000000000e+00" cType="1" res="6.6178658744320273e-04" rms="4.1077125072479248e-01" purity="4.3459990620613098e-01" nType="-99"/>
            <Node pos="r" depth="3" NCoef="0" IVar="-1" Cut="0.0000000000000000e+00" cType="1" res="-2.3898405488580465e-03" rms="4.1124632954597473e-01" purity="4.1077661514282227e-01" nType="-99"/>
          </Node>
          <Node pos="r" depth="2" NCoef="0" IVar="4" Cut="2.0173551940917969e+02" cType="1" res="4.9331396818161011e-02" rms="3.2027065753936768e-01" purity="8.2712000608444214e-01" nType="0">
            <Node pos="l" depth="3" NCoef="0" IVar="-1" Cut="0.0000000000000000e+00" cType="1" res="3.0052494257688522e-03" rms="3.0573880672454834e-01" purity="8.5105544328689575e-01" nType="-99"/>
            <Node pos="r" depth="3" NCoef="0" IVar="-1" Cut="0.0000000000000000e+00" cType="1" res="9.8446624178905040e-05" rms="3.5202679038047791e-01" purity="7.6284819841384888e-01" nType="-99"/>
          </Node>
        </Node>
        <Node pos="r" depth="1" NCoef="0" IVar="0" Cut="1.8823923339843750e+03" cType="1" res="-1.3411396183073521e-02" rms="3.9453509449958801e-01" purity="4.1482177376747131e-01" nType="0">
          <Node pos="l" depth="2" NCoef="0" IVar="2" Cut="4.3537265014648438e+02" cType="1" res="-2.5725122541189194e-02" rms="3.8790282607078552e-01" purity="3.4439611434936523e-01" nType="0">
            <Node pos="l" depth="3" NCoef="0" IVar="-1" Cut="0.0000000000000000e+00" cType="1" res="-8.3719016402028501e-05" rms="3.9894089102745056e-01" purity="4.2900887131690979e-01" nType="-99"/>
            <Node pos="r" depth="3" NCoef="0" IVar="-1" Cut="0.0000000000000000e+00" cType="1" res="-2.5476056616753340e-03" rms="3.7990239262580872e-01" purity="2.9041686654090881e-01" nType="-99"/>
          </Node>
          <Node pos="r" depth="2" NCoef="0" IVar="2" Cut="6.9762744140625000e+02" cType="1" res="2.1689543500542641e-02" rms="4.1083583235740662e-01" purity="6.1557388305664062e-01" nType="0">
            <Node pos="l" depth="3" NCoef="0" IVar="-1" Cut="0.0000000000000000e+00" cType="1" res="2.1253640297800303e-03" rms="3.9640668034553528e-01" purity="7.0210486650466919e-01" nType="-99"/>
            <Node pos="r" depth="3" NCoef="0" IVar="-1" Cut="0.0000000000000000e+00" cType="1" res="-1.0324887698516250e-03" rms="4.2651420831680298e-01" purity="4.9010664224624634e-01" nType="-99"/>
          </Node>
        </Node>
      </Node>
    </BinaryTree>
    <BinaryTree type="DecisionTree" boostWeight="1.0000000000000000e+00" itree="509">
      <Node pos="s" depth="0" NCoef="0" IVar="0" Cut="2.1260944824218750e+03" cType="1" res="3.0004172585904598e-03" rms="3.8922029733657837e-01" purity="4.9859118461608887e-01" nType="0">
        <Node pos="l" depth="1" NCoef="0" IVar="2" Cut="4.4686056518554688e+02" cType="1" res="-4.8429684829898179e-04" rms="3.8850957155227661e-01" purity="4.8646947741508484e-01" nType="0">
          <Node pos="l" depth="2" NCoef="0" IVar="0" Cut="1.5577774658203125e+03" cType="1" res="8.7849954143166542e-03" rms="3.8845062255859375e-01" purity="5.3076791763305664e-01" nType="0">
            <Node pos="l" depth="3" NCoef="0" IVar="-1" Cut="0.0000000000000000e+00" cType="1" res="-7.7295328082982451e-05" rms="4.0179240703582764e-01" purity="4.6314626932144165e-01" nType="-99"/>
            <Node pos="r" depth="3" NCoef="0" IVar="-1" Cut="0.0000000000000000e+00" cType="1" res="2.5347566697746515e-03" rms="3.1935104727745056e-01" purity="8.2727998495101929e-01" nType="-99"/>
          </Node>
          <Node pos="r" depth="2" NCoef="0" IVar="2" Cut="5.9732684326171875e+02" cType="1" res="-3.4055963158607483e-02" rms="3.8686856627464294e-01" purity="3.2602837681770325e-01" nType="0">
            <Node pos="l" depth="3" NCoef="0" IVar="-1" Cut="0.0000000000000000e+00" cType="1" res="-1.0552095482125878e-03" rms="3.9382857084274292e-01" purity="3.6061915755271912e-01" nType="-99"/>
            <Node pos="r" depth="3" NCoef="0" IVar="-1" Cut="0.0000000000000000e+00" cType="1" res="-4.9697915092110634e-03" rms="3.6817094683647156e-01" purity="2.4550561606884003e-01" nType="-99"/>
          </Node>
        </Node>
        <Node pos="r" depth="1" NCoef="0" IVar="3" Cut="3.3807781982421875e+02" cType="1" res="5.6775506585836411e-02" rms="3.9616048336029053e-01" purity="6.8565028905868530e-01" nType="0">
          <Node pos="l" depth="2" NCoef="0" IVar="-1" Cut="0.0000000000000000e+00" cType="1" res="3.5256736446171999e-03" rms="3.7273812294006348e-01" purity="7.7395689487457275e-01" nType="-99"/>
          <Node pos="r" depth="2" NCoef="0" IVar="-1" Cut="0.0000000000000000e+00" cType="1" res="3.2558976090513170e-04" rms="4.1113248467445374e-01" purity="6.0261875391006470e-01" nType="-99"/>
        </Node>
      </Node>
    </BinaryTree>
    <BinaryTree type="DecisionTree" boostWeight="1.0000000000000000e+00" itree="510">
      <Node pos="s" depth="0" NCoef="0" IVar="2" Cut="7.1392669677734375e+02" cType="1" res="3.4891120158135891e-03" rms="3.8961753249168396e-01" purity="4.9769446253776550e-01" nType="0">
        <Node pos="l" depth="1" NCoef="0" IVar="0" Cut="1.5230975341796875e+03" cType="1" res="7.2427596896886826e-03" rms="3.8830125331878662e-01" purity="5.0360661745071411e-01" nType="0">
          <Node pos="l" depth="2" NCoef="0" IVar="3" Cut="2.1919039916992188e+02" cType="1" res="-4.5026703737676144e-03" rms="3.9662006497383118e-01" purity="4.2241144180297852e-01" nType="0">
            <Node pos="l" depth="3" NCoef="0" IVar="-1" Cut="0.0000000000000000e+00" cType="1" res="3.2568335882388055e-04" rms="3.9711177349090576e-01" purity="4.2771729826927185e-01" nType="-99"/>
            <Node pos="r" depth="3" NCoef="0" IVar="-1" Cut="0.0000000000000000e+00" cType="1" res="-2.6103665586560965e-03" rms="3.9146244525909424e-01" purity="4.0269538760185242e-01" nType="-99"/>
          </Node>
          <Node pos="r" depth="2" NCoef="0" IVar="3" Cut="2.4531613159179688e+02" cType="1" res="3.2856110483407974e-02" rms="3.6821430921554565e-01" purity="6.8066966533660889e-01" nType="0">
            <Node pos="l" depth="3" NCoef="0" IVar="-1" Cut="0.0000000000000000e+00" cType="1" res="2.9611694626510143e-03" rms="3.3720982074737549e-01" purity="7.6867234706878662e-01" nType="-99"/>
            <Node pos="r" depth="3" NCoef="0" IVar="-1" Cut="0.0000000000000000e+00" cType="1" res="3.6385038401931524e-04" rms="3.8807520270347595e-01" purity="6.1441463232040405e-01" nType="-99"/>
          </Node>
        </Node>
        <Node pos="r" depth="1" NCoef="0" IVar="7" Cut="1.3326250016689301e-01" cType="1" res="-6.3950695097446442e-02" rms="4.0669068694114685e-01" purity="3.9147326350212097e-01" nType="0">
          <Node pos="l" depth="2" NCoef="0" IVar="-1" Cut="0.0000000000000000e+00" cType="1" res="-1.4545827871188521e-03" rms="4.1708406805992126e-01" purity="4.4157552719116211e-01" nType="-99"/>
          <Node pos="r" depth="2" NCoef="0" IVar="-1" Cut="0.0000000000000000e+00" cType="1" res="-3.5143483546562493e-04" rms="3.9225110411643982e-01" purity="3.3782887458801270e-01" nType="-99"/>
        </Node>
      </Node>
    </BinaryTree>
    <BinaryTree type="DecisionTree" boostWeight="1.0000000000000000e+00" itree="511">
      <Node pos="s" depth="0" NCoef="0" IVar="9" Cut="-9.3329143524169922e-01" cType="1" res="3.7013508845120668e-03" rms="3.9174437522888184e-01" purity="4.9933907389640808e-01" nType="0">
        <Node pos="l" depth="1" NCoef="0" IVar="2" Cut="4.8559738159179688e+02" cType="1" res="-2.3519881069660187e-02" rms="3.8005715608596802e-01" purity="3.8314166665077209e-01" nType="0">
          <Node pos="l" depth="2" NCoef="0" IVar="0" Cut="1.3820919189453125e+03" cType="1" res="-1.3958945870399475e-02" rms="3.8706466555595398e-01" purity="4.1679438948631287e-01" nType="0">
            <Node pos="l" depth="3" NCoef="0" IVar="-1" Cut="0.0000000000000000e+00" cType="1" res="-1.5323699917644262e-03" rms="3.8851773738861084e-01" purity="2.9429793357849121e-01" nType="-99"/>
            <Node pos="r" depth="3" NCoef="0" IVar="-1" Cut="0.0000000000000000e+00" cType="1" res="6.9970625918358564e-04" rms="3.8253656029701233e-01" purity="6.4852201938629150e-01" nType="-99"/>
          </Node>
          <Node pos="r" depth="2" NCoef="0" IVar="-1" Cut="0.0000000000000000e+00" cType="1" res="-4.6786838211119175e-03" rms="3.4623074531555176e-01" purity="2.4183472990989685e-01" nType="-99"/>
        </Node>
        <Node pos="r" depth="1" NCoef="0" IVar="9" Cut="8.4443682432174683e-01" cType="1" res="1.0460441932082176e-02" rms="3.9430156350135803e-01" purity="5.2819108963012695e-01" nType="0">
          <Node pos="l" depth="2" NCoef="0" IVar="8" Cut="1.7323794364929199e+00" cType="1" res="1.9509501755237579e-02" rms="3.9604106545448303e-01" purity="5.7868361473083496e-01" nType="0">
            <Node pos="l" depth="3" NCoef="0" IVar="-1" Cut="0.0000000000000000e+00" cType="1" res="7.5239519355818629e-04" rms="3.9690911769866943e-01" purity="5.9493499994277954e-01" nType="-99"/>
            <Node pos="r" depth="3" NCoef="0" IVar="-1" Cut="0.0000000000000000e+00" cType="1" res="-3.0096385162323713e-03" rms="3.7128329277038574e-01" purity="2.5688213109970093e-01" nType="-99"/>
          </Node>
          <Node pos="r" depth="2" NCoef="0" IVar="7" Cut="-9.3214708566665649e-01" cType="1" res="-1.2619145214557648e-02" rms="3.8887768983840942e-01" purity="3.9941009879112244e-01" nType="0">
            <Node pos="l" depth="3" NCoef="0" IVar="-1" Cut="0.0000000000000000e+00" cType="1" res="-4.1093537583947182e-03" rms="3.3490419387817383e-01" purity="2.2058841586112976e-01" nType="-99"/>
            <Node pos="r" depth="3" NCoef="0" IVar="-1" Cut="0.0000000000000000e+00" cType="1" res="-2.2888641979079694e-04" rms="3.9742836356163025e-01" purity="4.3198326230049133e-01" nType="-99"/>
          </Node>
        </Node>
      </Node>
    </BinaryTree>
    <BinaryTree type="DecisionTree" boostWeight="1.0000000000000000e+00" itree="512">
      <Node pos="s" depth="0" NCoef="0" IVar="8" Cut="-6.6673743724822998e-01" cType="1" res="1.8368823220953345e-03" rms="3.8971149921417236e-01" purity="4.9927118420600891e-01" nType="0">
        <Node pos="l" depth="1" NCoef="0" IVar="4" Cut="1.7692834472656250e+02" cType="1" res="-2.4228924885392189e-02" rms="3.8247212767601013e-01" purity="3.9232766628265381e-01" nType="0">
          <Node pos="l" depth="2" NCoef="0" IVar="0" Cut="1.5697899169921875e+03" cType="1" res="-1.3951391912996769e-02" rms="3.8271406292915344e-01" purity="3.6212456226348877e-01" nType="0">
            <Node pos="l" depth="3" NCoef="0" IVar="-1" Cut="0.0000000000000000e+00" cType="1" res="-1.0945773683488369e-03" rms="3.8028702139854431e-01" purity="3.3028224110603333e-01" nType="-99"/>
            <Node pos="r" depth="3" NCoef="0" IVar="-1" Cut="0.0000000000000000e+00" cType="1" res="1.3893446885049343e-03" rms="3.9271578192710876e-01" purity="5.3232866525650024e-01" nType="-99"/>
          </Node>
          <Node pos="r" depth="2" NCoef="0" IVar="4" Cut="2.1300730895996094e+02" cType="1" res="-6.0482461005449295e-02" rms="3.7940081954002380e-01" purity="4.9886777997016907e-01" nType="0">
            <Node pos="l" depth="3" NCoef="0" IVar="-1" Cut="0.0000000000000000e+00" cType="1" res="-2.0004406105726957e-03" rms="3.6867666244506836e-01" purity="5.3778576850891113e-01" nType="-99"/>
            <Node pos="r" depth="3" NCoef="0" IVar="-1" Cut="0.0000000000000000e+00" cType="1" res="-4.9230945296585560e-03" rms="3.8989508152008057e-01" purity="4.5277366042137146e-01" nType="-99"/>
          </Node>
        </Node>
        <Node pos="r" depth="1" NCoef="0" IVar="8" Cut="4.8878183960914612e-01" cType="1" res="1.0741631500422955e-02" rms="3.9175677299499512e-01" purity="5.3580582141876221e-01" nType="0">
          <Node pos="l" depth="2" NCoef="0" IVar="2" Cut="5.8797973632812500e+02" cType="1" res="2.4806868284940720e-02" rms="3.9333432912826538e-01" purity="6.0701286792755127e-01" nType="0">
            <Node pos="l" depth="3" NCoef="0" IVar="-1" Cut="0.0000000000000000e+00" cType="1" res="1.2310489546507597e-03" rms="3.9033618569374084e-01" purity="6.2490004301071167e-01" nType="-99"/>
            <Node pos="r" depth="3" NCoef="0" IVar="-1" Cut="0.0000000000000000e+00" cType="1" res="-2.6883467216975987e-04" rms="4.1346392035484314e-01" purity="4.6185734868049622e-01" nType="-99"/>
          </Node>
          <Node pos="r" depth="2" NCoef="0" IVar="6" Cut="9.3687939643859863e-01" cType="1" res="-7.6606748625636101e-03" rms="3.8891574740409851e-01" purity="4.4264179468154907e-01" nType="0">
            <Node pos="l" depth="3" NCoef="0" IVar="-1" Cut="0.0000000000000000e+00" cType="1" res="4.6712935727555305e-05" rms="3.9520263671875000e-01" purity="4.8625031113624573e-01" nType="-99"/>
            <Node pos="r" depth="3" NCoef="0" IVar="-1" Cut="0.0000000000000000e+00" cType="1" res="-2.7082138694822788e-03" rms="3.5976669192314148e-01" purity="2.6359373331069946e-01" nType="-99"/>
          </Node>
        </Node>
      </Node>
    </BinaryTree>
    <BinaryTree type="DecisionTree" boostWeight="1.0000000000000000e+00" itree="513">
      <Node pos="s" depth="0" NCoef="0" IVar="2" Cut="6.0625280761718750e+02" cType="1" res="5.5749909952282906e-03" rms="3.8995847105979919e-01" purity="5.0156885385513306e-01" nType="0">
        <Node pos="l" depth="1" NCoef="0" IVar="0" Cut="1.6743394775390625e+03" cType="1" res="1.0609620250761509e-02" rms="3.8850072026252747e-01" purity="5.1605689525604248e-01" nType="0">
          <Node pos="l" depth="2" NCoef="0" IVar="2" Cut="2.7738385009765625e+02" cType="1" res="2.9055490158498287e-03" rms="3.9439788460731506e-01" purity="4.6846204996109009e-01" nType="0">
            <Node pos="l" depth="3" NCoef="0" IVar="-1" Cut="0.0000000000000000e+00" cType="1" res="9.9298451095819473e-04" rms="3.9310395717620850e-01" purity="5.6448858976364136e-01" nType="-99"/>
            <Node pos="r" depth="3" NCoef="0" IVar="-1" Cut="0.0000000000000000e+00" cType="1" res="-5.5481144227087498e-04" rms="3.9453890919685364e-01" purity="4.0610986948013306e-01" nType="-99"/>
          </Node>
          <Node pos="r" depth="2" NCoef="0" IVar="3" Cut="3.3016882324218750e+02" cType="1" res="5.0206463783979416e-02" rms="3.5402017831802368e-01" purity="7.6068156957626343e-01" nType="0">
            <Node pos="l" depth="3" NCoef="0" IVar="-1" Cut="0.0000000000000000e+00" cType="1" res="2.9383362270891666e-03" rms="3.2562977075576782e-01" purity="8.2493686676025391e-01" nType="-99"/>
            <Node pos="r" depth="3" NCoef="0" IVar="-1" Cut="0.0000000000000000e+00" cType="1" res="7.1328562626149505e-05" rms="4.1440293192863464e-01" purity="5.9527957439422607e-01" nType="-99"/>
          </Node>
        </Node>
        <Node pos="r" depth="1" NCoef="0" IVar="1" Cut="6.3030535888671875e+02" cType="1" res="-4.2185805737972260e-02" rms="4.0038907527923584e-01" purity="3.6412829160690308e-01" nType="0">
          <Node pos="l" depth="2" NCoef="0" IVar="2" Cut="6.9628314208984375e+02" cType="1" res="-6.7175313830375671e-02" rms="3.7235671281814575e-01" purity="2.4830621480941772e-01" nType="0">
            <Node pos="l" depth="3" NCoef="0" IVar="-1" Cut="0.0000000000000000e+00" cType="1" res="-1.8942934693768620e-03" rms="3.7024399638175964e-01" purity="2.6694697141647339e-01" nType="-99"/>
            <Node pos="r" depth="3" NCoef="0" IVar="-1" Cut="0.0000000000000000e+00" cType="1" res="-9.4130024081096053e-04" rms="3.6989304423332214e-01" purity="2.3043254017829895e-01" nType="-99"/>
          </Node>
          <Node pos="r" depth="2" NCoef="0" IVar="-1" Cut="0.0000000000000000e+00" cType="1" res="3.4496668376959860e-04" rms="4.4876247644424438e-01" purity="6.0516566038131714e-01" nType="-99"/>
        </Node>
      </Node>
    </BinaryTree>
    <BinaryTree type="DecisionTree" boostWeight="1.0000000000000000e+00" itree="514">
      <Node pos="s" depth="0" NCoef="0" IVar="6" Cut="6.7080944776535034e-01" cType="1" res="4.1405912488698959e-03" rms="3.8877046108245850e-01" purity="4.9877768754959106e-01" nType="0">
        <Node pos="l" depth="1" NCoef="0" IVar="6" Cut="-9.7653698921203613e-01" cType="1" res="1.2328855693340302e-02" rms="3.9141112565994263e-01" purity="5.4016250371932983e-01" nType="0">
          <Node pos="l" depth="2" NCoef="0" IVar="2" Cut="3.0657162475585938e+02" cType="1" res="-2.3385588079690933e-02" rms="3.5995426774024963e-01" purity="3.0679997801780701e-01" nType="0">
            <Node pos="l" depth="3" NCoef="0" IVar="-1" Cut="0.0000000000000000e+00" cType="1" res="1.1017738870577887e-04" rms="3.7713822722434998e-01" purity="3.7907287478446960e-01" nType="-99"/>
            <Node pos="r" depth="3" NCoef="0" IVar="-1" Cut="0.0000000000000000e+00" cType="1" res="-2.8644970152527094e-03" rms="3.4635514020919800e-01" purity="2.5644519925117493e-01" nType="-99"/>
          </Node>
          <Node pos="r" depth="2" NCoef="0" IVar="7" Cut="1.7335858345031738e+00" cType="1" res="2.0987424999475479e-02" rms="3.9818167686462402e-01" purity="5.9673857688903809e-01" nType="0">
            <Node pos="l" depth="3" NCoef="0" IVar="-1" Cut="0.0000000000000000e+00" cType="1" res="9.7805541008710861e-04" rms="4.0053144097328186e-01" purity="6.1363136768341064e-01" nType="-99"/>
            <Node pos="r" depth="3" NCoef="0" IVar="-1" Cut="0.0000000000000000e+00" cType="1" res="-3.8100087549537420e-03" rms="3.3178192377090454e-01" purity="2.2220234572887421e-01" nType="-99"/>
          </Node>
        </Node>
        <Node pos="r" depth="1" NCoef="0" IVar="3" Cut="1.8259690856933594e+02" cType="1" res="-2.2333379834890366e-02" rms="3.7889829277992249e-01" purity="3.6497402191162109e-01" nType="0">
          <Node pos="l" depth="2" NCoef="0" IVar="0" Cut="1.1967951660156250e+03" cType="1" res="-1.5171364648267627e-03" rms="3.8032752275466919e-01" purity="3.0857110023498535e-01" nType="0">
            <Node pos="l" depth="3" NCoef="0" IVar="-1" Cut="0.0000000000000000e+00" cType="1" res="-1.5161326155066490e-03" rms="3.6048001050949097e-01" purity="1.9850461184978485e-01" nType="-99"/>
            <Node pos="r" depth="3" NCoef="0" IVar="-1" Cut="0.0000000000000000e+00" cType="1" res="1.4528452884405851e-03" rms="4.0347123146057129e-01" purity="4.6129798889160156e-01" nType="-99"/>
          </Node>
          <Node pos="r" depth="2" NCoef="0" IVar="6" Cut="1.3789224624633789e+00" cType="1" res="-3.8258858025074005e-02" rms="3.7702602148056030e-01" purity="4.0812513232231140e-01" nType="0">
            <Node pos="l" depth="3" NCoef="0" IVar="-1" Cut="0.0000000000000000e+00" cType="1" res="-1.0929941199719906e-03" rms="3.9354524016380310e-01" purity="4.8366728425025940e-01" nType="-99"/>
            <Node pos="r" depth="3" NCoef="0" IVar="-1" Cut="0.0000000000000000e+00" cType="1" res="-3.7691276520490646e-03" rms="3.3549490571022034e-01" purity="2.4348622560501099e-01" nType="-99"/>
          </Node>
        </Node>
      </Node>
    </BinaryTree>
    <BinaryTree type="DecisionTree" boostWeight="1.0000000000000000e+00" itree="515">
      <Node pos="s" depth="0" NCoef="0" IVar="7" Cut="-1.7332695722579956e+00" cType="1" res="4.0556960739195347e-03" rms="3.8955363631248474e-01" purity="4.9719560146331787e-01" nType="0">
        <Node pos="l" depth="1" NCoef="0" IVar="9" Cut="-1.3349249958992004e-01" cType="1" res="-6.4342014491558075e-02" rms="3.0114325881004333e-01" purity="1.5582217276096344e-01" nType="0">
          <Node pos="l" depth="2" NCoef="0" IVar="-1" Cut="0.0000000000000000e+00" cType="1" res="-6.4030122011899948e-03" rms="2.7646607160568237e-01" purity="1.2654531002044678e-01" nType="-99"/>
          <Node pos="r" depth="2" NCoef="0" IVar="-1" Cut="0.0000000000000000e+00" cType="1" res="-3.5887940321117640e-03" rms="3.2413855195045471e-01" purity="1.8579939007759094e-01" nType="-99"/>
        </Node>
        <Node pos="r" depth="1" NCoef="0" IVar="2" Cut="3.7131063842773438e+02" cType="1" res="7.8984946012496948e-03" rms="3.9358004927635193e-01" purity="5.1637500524520874e-01" nType="0">
          <Node pos="l" depth="2" NCoef="0" IVar="0" Cut="1.0328616943359375e+03" cType="1" res="1.9661158323287964e-02" rms="3.9010486006736755e-01" purity="5.7270616292953491e-01" nType="0">
            <Node pos="l" depth="3" NCoef="0" IVar="-1" Cut="0.0000000000000000e+00" cType="1" res="-1.3811106327921152e-03" rms="4.0146371722221375e-01" purity="2.4510464072227478e-01" nType="-99"/>
            <Node pos="r" depth="3" NCoef="0" IVar="-1" Cut="0.0000000000000000e+00" cType="1" res="1.1764395749196410e-03" rms="3.8712680339813232e-01" purity="6.3655418157577515e-01" nType="-99"/>
          </Node>
          <Node pos="r" depth="2" NCoef="0" IVar="0" Cut="2.2095356445312500e+03" cType="1" res="-9.9647920578718185e-03" rms="3.9813563227653503e-01" purity="4.3082815408706665e-01" nType="0">
            <Node pos="l" depth="3" NCoef="0" IVar="-1" Cut="0.0000000000000000e+00" cType="1" res="-8.7152625201269984e-04" rms="3.9498633146286011e-01" purity="4.0166756510734558e-01" nType="-99"/>
            <Node pos="r" depth="3" NCoef="0" IVar="-1" Cut="0.0000000000000000e+00" cType="1" res="1.7160606803372502e-03" rms="4.1801181435585022e-01" purity="6.6246932744979858e-01" nType="-99"/>
          </Node>
        </Node>
      </Node>
    </BinaryTree>
    <BinaryTree type="DecisionTree" boostWeight="1.0000000000000000e+00" itree="516">
      <Node pos="s" depth="0" NCoef="0" IVar="0" Cut="1.4630610351562500e+03" cType="1" res="3.0668720137327909e-03" rms="3.8766205310821533e-01" purity="4.9853700399398804e-01" nType="0">
        <Node pos="l" depth="1" NCoef="0" IVar="3" Cut="1.7167108154296875e+02" cType="1" res="-8.9001711457967758e-03" rms="3.9689636230468750e-01" purity="4.0549299120903015e-01" nType="0">
          <Node pos="l" depth="2" NCoef="0" IVar="0" Cut="1.0841799316406250e+03" cType="1" res="9.2758424580097198e-03" rms="3.9490777254104614e-01" purity="3.6838734149932861e-01" nType="0">
            <Node pos="l" depth="3" NCoef="0" IVar="-1" Cut="0.0000000000000000e+00" cType="1" res="-1.2621742207556963e-03" rms="3.8302993774414062e-01" purity="2.4175840616226196e-01" nType="-99"/>
            <Node pos="r" depth="3" NCoef="0" IVar="-1" Cut="0.0000000000000000e+00" cType="1" res="1.3895467855036259e-03" rms="4.0124711394309998e-01" purity="4.5927765965461731e-01" nType="-99"/>
          </Node>
          <Node pos="r" depth="2" NCoef="0" IVar="0" Cut="1.3207355957031250e+03" cType="1" res="-2.7351632714271545e-02" rms="3.9805695414543152e-01" purity="4.4316095113754272e-01" nType="0">
            <Node pos="l" depth="3" NCoef="0" IVar="-1" Cut="0.0000000000000000e+00" cType="1" res="-2.1620476618409157e-03" rms="4.0233877301216125e-01" purity="3.6574879288673401e-01" nType="-99"/>
            <Node pos="r" depth="3" NCoef="0" IVar="-1" Cut="0.0000000000000000e+00" cType="1" res="1.8557661678642035e-04" rms="3.8966357707977295e-01" purity="5.5480426549911499e-01" nType="-99"/>
          </Node>
        </Node>
        <Node pos="r" depth="1" NCoef="0" IVar="2" Cut="5.4267517089843750e+02" cType="1" res="2.0817708224058151e-02" rms="3.7283772230148315e-01" purity="6.3655012845993042e-01" nType="0">
          <Node pos="l" depth="2" NCoef="0" IVar="3" Cut="2.4406700134277344e+02" cType="1" res="3.9655286818742752e-02" rms="3.5516008734703064e-01" purity="7.4013555049896240e-01" nType="0">
            <Node pos="l" depth="3" NCoef="0" IVar="-1" Cut="0.0000000000000000e+00" cType="1" res="2.9464391991496086e-03" rms="3.2225444912910461e-01" purity="8.2775390148162842e-01" nType="-99"/>
            <Node pos="r" depth="3" NCoef="0" IVar="-1" Cut="0.0000000000000000e+00" cType="1" res="6.0719228349626064e-04" rms="3.8074028491973877e-01" purity="6.6044294834136963e-01" nType="-99"/>
          </Node>
          <Node pos="r" depth="2" NCoef="0" IVar="8" Cut="-4.0015411376953125e-01" cType="1" res="-2.1634068340063095e-02" rms="4.0670368075370789e-01" purity="4.0311336517333984e-01" nType="0">
            <Node pos="l" depth="3" NCoef="0" IVar="-1" Cut="0.0000000000000000e+00" cType="1" res="-4.1146441362798214e-03" rms="3.8333022594451904e-01" purity="3.1072327494621277e-01" nType="-99"/>
            <Node pos="r" depth="3" NCoef="0" IVar="-1" Cut="0.0000000000000000e+00" cType="1" res="-1.0589430166874081e-04" rms="4.1613385081291199e-01" purity="4.4769939780235291e-01" nType="-99"/>
          </Node>
        </Node>
      </Node>
    </BinaryTree>
    <BinaryTree type="DecisionTree" boostWeight="1.0000000000000000e+00" itree="517">
      <Node pos="s" depth="0" NCoef="0" IVar="7" Cut="1.4665515422821045e+00" cType="1" res="7.7903899364173412e-03" rms="3.9025104045867920e-01" purity="5.0337004661560059e-01" nType="0">
        <Node pos="l" depth="1" NCoef="0" IVar="2" Cut="6.0625183105468750e+02" cType="1" res="1.2469026260077953e-02" rms="3.9481809735298157e-01" purity="5.2914178371429443e-01" nType="0">
          <Node pos="l" depth="2" NCoef="0" IVar="2" Cut="2.1934719848632812e+02" cType="1" res="1.7232473939657211e-02" rms="3.9343160390853882e-01" purity="5.4312306642532349e-01" nType="0">
            <Node pos="l" depth="3" NCoef="0" IVar="-1" Cut="0.0000000000000000e+00" cType="1" res="2.5399839505553246e-03" rms="4.0056851506233215e-01" purity="6.2012875080108643e-01" nType="-99"/>
            <Node pos="r" depth="3" NCoef="0" IVar="-1" Cut="0.0000000000000000e+00" cType="1" res="5.4029317107051611e-04" rms="3.9244154095649719e-01" purity="5.3622514009475708e-01" nType="-99"/>
          </Node>
          <Node pos="r" depth="2" NCoef="0" IVar="0" Cut="1.9398524169921875e+03" cType="1" res="-3.2214555889368057e-02" rms="4.0487492084503174e-01" purity="3.9799088239669800e-01" nType="0">
            <Node pos="l" depth="3" NCoef="0" IVar="-1" Cut="0.0000000000000000e+00" cType="1" res="-9.0786069631576538e-04" rms="3.5119870305061340e-01" purity="2.0165921747684479e-01" nType="-99"/>
            <Node pos="r" depth="3" NCoef="0" IVar="-1" Cut="0.0000000000000000e+00" cType="1" res="4.6841302537359297e-04" rms="4.3871840834617615e-01" purity="5.5771422386169434e-01" nType="-99"/>
          </Node>
        </Node>
        <Node pos="r" depth="1" NCoef="0" IVar="7" Cut="2.0379741191864014e+00" cType="1" res="-4.8286918550729752e-02" rms="3.2544457912445068e-01" purity="1.9447474181652069e-01" nType="0">
          <Node pos="l" depth="2" NCoef="0" IVar="-1" Cut="0.0000000000000000e+00" cType="1" res="-2.2144170943647623e-03" rms="3.5173586010932922e-01" purity="2.3204228281974792e-01" nType="-99"/>
          <Node pos="r" depth="2" NCoef="0" IVar="-1" Cut="0.0000000000000000e+00" cType="1" res="-7.4392594397068024e-03" rms="2.6719573140144348e-01" purity="1.2566028535366058e-01" nType="-99"/>
        </Node>
      </Node>
    </BinaryTree>
    <BinaryTree type="DecisionTree" boostWeight="1.0000000000000000e+00" itree="518">
      <Node pos="s" depth="0" NCoef="0" IVar="0" Cut="1.5806253662109375e+03" cType="1" res="4.5546330511569977e-03" rms="3.8929140567779541e-01" purity="5.0201314687728882e-01" nType="0">
        <Node pos="l" depth="1" NCoef="0" IVar="3" Cut="2.2843786621093750e+02" cType="1" res="-4.8124650493264198e-03" rms="3.9411309361457825e-01" purity="4.3824172019958496e-01" nType="0">
          <Node pos="l" depth="2" NCoef="0" IVar="0" Cut="1.2460743408203125e+03" cType="1" res="5.4126339964568615e-03" rms="3.9446255564689636e-01" purity="4.4480270147323608e-01" nType="0">
            <Node pos="l" depth="3" NCoef="0" IVar="-1" Cut="0.0000000000000000e+00" cType="1" res="-6.6885788692161441e-04" rms="4.0237063169479370e-01" purity="3.2615822553634644e-01" nType="-99"/>
            <Node pos="r" depth="3" NCoef="0" IVar="-1" Cut="0.0000000000000000e+00" cType="1" res="1.4215171104297042e-03" rms="3.8177585601806641e-01" purity="6.0404384136199951e-01" nType="-99"/>
          </Node>
          <Node pos="r" depth="2" NCoef="0" IVar="7" Cut="6.6781705617904663e-01" cType="1" res="-4.7026395797729492e-02" rms="3.8983806967735291e-01" purity="4.1115501523017883e-01" nType="0">
            <Node pos="l" depth="3" NCoef="0" IVar="-1" Cut="0.0000000000000000e+00" cType="1" res="-1.5239951899275184e-03" rms="3.9900216460227966e-01" purity="4.6111285686492920e-01" nType="-99"/>
            <Node pos="r" depth="3" NCoef="0" IVar="-1" Cut="0.0000000000000000e+00" cType="1" res="-7.0229130797088146e-03" rms="3.5338065028190613e-01" purity="2.5081205368041992e-01" nType="-99"/>
          </Node>
        </Node>
        <Node pos="r" depth="1" NCoef="0" IVar="3" Cut="3.3625021362304688e+02" cType="1" res="2.6836451143026352e-02" rms="3.7663960456848145e-01" purity="6.5370833873748779e-01" nType="0">
          <Node pos="l" depth="2" NCoef="0" IVar="2" Cut="4.4350097656250000e+02" cType="1" res="4.3032210320234299e-02" rms="3.6153295636177063e-01" purity="7.0581370592117310e-01" nType="0">
            <Node pos="l" depth="3" NCoef="0" IVar="-1" Cut="0.0000000000000000e+00" cType="1" res="2.9842560179531574e-03" rms="3.0020052194595337e-01" purity="8.6531078815460205e-01" nType="-99"/>
            <Node pos="r" depth="3" NCoef="0" IVar="-1" Cut="0.0000000000000000e+00" cType="1" res="8.2500971620902419e-04" rms="4.1500172019004822e-01" purity="5.3837758302688599e-01" nType="-99"/>
          </Node>
          <Node pos="r" depth="2" NCoef="0" IVar="3" Cut="4.1598690795898438e+02" cType="1" res="-2.4444362148642540e-02" rms="4.1678005456924438e-01" purity="4.8872628808021545e-01" nType="0">
            <Node pos="l" depth="3" NCoef="0" IVar="-1" Cut="0.0000000000000000e+00" cType="1" res="2.3609729396412149e-05" rms="4.1287869215011597e-01" purity="5.2911496162414551e-01" nType="-99"/>
            <Node pos="r" depth="3" NCoef="0" IVar="-1" Cut="0.0000000000000000e+00" cType="1" res="-3.1394946854561567e-03" rms="4.1984593868255615e-01" purity="4.2521530389785767e-01" nType="-99"/>
          </Node>
        </Node>
      </Node>
    </BinaryTree>
    <BinaryTree type="DecisionTree" boostWeight="1.0000000000000000e+00" itree="519">
      <Node pos="s" depth="0" NCoef="0" IVar="8" Cut="-2.0000004768371582e+00" cType="1" res="5.8276671916246414e-03" rms="3.9092904329299927e-01" purity="5.0047749280929565e-01" nType="0">
        <Node pos="l" depth="1" NCoef="0" IVar="-1" Cut="0.0000000000000000e+00" cType="1" res="-5.5018076673150063e-03" rms="3.0656841397285461e-01" purity="1.4717449247837067e-01" nType="-99"/>
        <Node pos="r" depth="1" NCoef="0" IVar="6" Cut="-8.9851880073547363e-01" cType="1" res="8.4391897544264793e-03" rms="3.9333647489547729e-01" purity="5.1300948858261108e-01" nType="0">
          <Node pos="l" depth="2" NCoef="0" IVar="3" Cut="2.3794245910644531e+02" cType="1" res="-2.3243585601449013e-02" rms="3.7804320454597473e-01" purity="3.2976385951042175e-01" nType="0">
            <Node pos="l" depth="3" NCoef="0" IVar="-1" Cut="0.0000000000000000e+00" cType="1" res="-2.8468039818108082e-04" rms="3.8071990013122559e-01" purity="3.2815310359001160e-01" nType="-99"/>
            <Node pos="r" depth="3" NCoef="0" IVar="-1" Cut="0.0000000000000000e+00" cType="1" res="-4.3886569328606129e-03" rms="3.6719387769699097e-01" purity="3.3390748500823975e-01" nType="-99"/>
          </Node>
          <Node pos="r" depth="2" NCoef="0" IVar="6" Cut="1.5669853687286377e+00" cType="1" res="1.4629284851253033e-02" rms="3.9595958590507507e-01" purity="5.4881155490875244e-01" nType="0">
            <Node pos="l" depth="3" NCoef="0" IVar="-1" Cut="0.0000000000000000e+00" cType="1" res="7.7975250314921141e-04" rms="3.9981406927108765e-01" purity="5.7313764095306396e-01" nType="-99"/>
            <Node pos="r" depth="3" NCoef="0" IVar="-1" Cut="0.0000000000000000e+00" cType="1" res="-3.0626454390585423e-03" rms="3.3359849452972412e-01" purity="2.1842201054096222e-01" nType="-99"/>
          </Node>
        </Node>
      </Node>
    </BinaryTree>
    <BinaryTree type="DecisionTree" boostWeight="1.0000000000000000e+00" itree="520">
      <Node pos="s" depth="0" NCoef="0" IVar="9" Cut="1.4666941165924072e+00" cType="1" res="-1.1962986318394542e-03" rms="3.8608089089393616e-01" purity="4.9397149682044983e-01" nType="0">
        <Node pos="l" depth="1" NCoef="0" IVar="0" Cut="2.1139990234375000e+03" cType="1" res="3.7050070241093636e-03" rms="3.8939887285232544e-01" purity="5.1652264595031738e-01" nType="0">
          <Node pos="l" depth="2" NCoef="0" IVar="2" Cut="6.4434692382812500e+02" cType="1" res="4.1444589442107826e-05" rms="3.8802638649940491e-01" purity="5.0532126426696777e-01" nType="0">
            <Node pos="l" depth="3" NCoef="0" IVar="-1" Cut="0.0000000000000000e+00" cType="1" res="1.6706669703125954e-04" rms="3.8863864541053772e-01" purity="5.1677519083023071e-01" nType="-99"/>
            <Node pos="r" depth="3" NCoef="0" IVar="-1" Cut="0.0000000000000000e+00" cType="1" res="-6.3135349191725254e-03" rms="3.6328002810478210e-01" purity="2.4177232384681702e-01" nType="-99"/>
          </Node>
          <Node pos="r" depth="2" NCoef="0" IVar="3" Cut="3.4811590576171875e+02" cType="1" res="5.9714853763580322e-02" rms="4.0571165084838867e-01" purity="6.8777346611022949e-01" nType="0">
            <Node pos="l" depth="3" NCoef="0" IVar="-1" Cut="0.0000000000000000e+00" cType="1" res="3.4803121816366911e-03" rms="3.7614929676055908e-01" purity="7.7042227983474731e-01" nType="-99"/>
            <Node pos="r" depth="3" NCoef="0" IVar="-1" Cut="0.0000000000000000e+00" cType="1" res="8.0252031330019236e-04" rms="4.3102493882179260e-01" purity="6.0166072845458984e-01" nType="-99"/>
          </Node>
        </Node>
        <Node pos="r" depth="1" NCoef="0" IVar="5" Cut="9.4229232788085938e+01" cType="1" res="-4.8152364790439606e-02" rms="3.4924617409706116e-01" purity="2.7792441844940186e-01" nType="0">
          <Node pos="l" depth="2" NCoef="0" IVar="-1" Cut="0.0000000000000000e+00" cType="1" res="-2.2292633075267076e-03" rms="3.2252314686775208e-01" purity="1.8428516387939453e-01" nType="-99"/>
          <Node pos="r" depth="2" NCoef="0" IVar="-1" Cut="0.0000000000000000e+00" cType="1" res="-3.4682627301663160e-03" rms="3.7607172131538391e-01" purity="3.8297230005264282e-01" nType="-99"/>
        </Node>
      </Node>
    </BinaryTree>
    <BinaryTree type="DecisionTree" boostWeight="1.0000000000000000e+00" itree="521">
      <Node pos="s" depth="0" NCoef="0" IVar="6" Cut="-1.4285937547683716e+00" cType="1" res="6.7504327744245529e-03" rms="3.8925915956497192e-01" purity="5.0266021490097046e-01" nType="0">
        <Node pos="l" depth="1" NCoef="0" IVar="4" Cut="1.2131914520263672e+02" cType="1" res="-4.4541634619235992e-02" rms="3.3772376179695129e-01" purity="2.1242880821228027e-01" nType="0">
          <Node pos="l" depth="2" NCoef="0" IVar="-1" Cut="0.0000000000000000e+00" cType="1" res="-8.6688552983105183e-04" rms="3.1727841496467590e-01" purity="1.6203491389751434e-01" nType="-99"/>
          <Node pos="r" depth="2" NCoef="0" IVar="-1" Cut="0.0000000000000000e+00" cType="1" res="-4.5972219668328762e-03" rms="3.5168683528900146e-01" purity="2.5527933239936829e-01" nType="-99"/>
        </Node>
        <Node pos="r" depth="1" NCoef="0" IVar="2" Cut="6.0625183105468750e+02" cType="1" res="1.0577837005257607e-02" rms="3.9256513118743896e-01" purity="5.2431726455688477e-01" nType="0">
          <Node pos="l" depth="2" NCoef="0" IVar="0" Cut="1.7182194824218750e+03" cType="1" res="1.4836666174232960e-02" rms="3.9141023159027100e-01" purity="5.3866237401962280e-01" nType="0">
            <Node pos="l" depth="3" NCoef="0" IVar="-1" Cut="0.0000000000000000e+00" cType="1" res="3.0507467454299331e-04" rms="3.9783096313476562e-01" purity="4.9633258581161499e-01" nType="-99"/>
            <Node pos="r" depth="3" NCoef="0" IVar="-1" Cut="0.0000000000000000e+00" cType="1" res="2.5301002897322178e-03" rms="3.4750226140022278e-01" purity="7.8893661499023438e-01" nType="-99"/>
          </Node>
          <Node pos="r" depth="2" NCoef="0" IVar="1" Cut="6.3030615234375000e+02" cType="1" res="-2.9408605769276619e-02" rms="4.0104764699935913e-01" purity="3.8962954282760620e-01" nType="0">
            <Node pos="l" depth="3" NCoef="0" IVar="-1" Cut="0.0000000000000000e+00" cType="1" res="-4.5919413678348064e-03" rms="3.7786975502967834e-01" purity="2.5521171092987061e-01" nType="-99"/>
            <Node pos="r" depth="3" NCoef="0" IVar="-1" Cut="0.0000000000000000e+00" cType="1" res="9.7396288765594363e-04" rms="4.3503108620643616e-01" purity="6.4018404483795166e-01" nType="-99"/>
          </Node>
        </Node>
      </Node>
    </BinaryTree>
    <BinaryTree type="DecisionTree" boostWeight="1.0000000000000000e+00" itree="522">
      <Node pos="s" depth="0" NCoef="0" IVar="2" Cut="8.0937719726562500e+02" cType="1" res="6.4485166221857071e-03" rms="3.8966482877731323e-01" purity="5.0271975994110107e-01" nType="0">
        <Node pos="l" depth="1" NCoef="0" IVar="0" Cut="1.5372575683593750e+03" cType="1" res="8.6785620078444481e-03" rms="3.8862547278404236e-01" purity="5.0507307052612305e-01" nType="0">
          <Node pos="l" depth="2" NCoef="0" IVar="2" Cut="2.8569500732421875e+02" cType="1" res="-2.1111522801220417e-03" rms="3.9710214734077454e-01" purity="4.2971697449684143e-01" nType="0">
            <Node pos="l" depth="3" NCoef="0" IVar="-1" Cut="0.0000000000000000e+00" cType="1" res="7.5873686000704765e-04" rms="4.0319827198982239e-01" purity="5.3623211383819580e-01" nType="-99"/>
            <Node pos="r" depth="3" NCoef="0" IVar="-1" Cut="0.0000000000000000e+00" cType="1" res="-1.0146374115720391e-03" rms="3.9090874791145325e-01" purity="3.3861243724822998e-01" nType="-99"/>
          </Node>
          <Node pos="r" depth="2" NCoef="0" IVar="3" Cut="2.7189962768554688e+02" cType="1" res="3.1893160194158554e-02" rms="3.6866018176078796e-01" purity="6.6720533370971680e-01" nType="0">
            <Node pos="l" depth="3" NCoef="0" IVar="-1" Cut="0.0000000000000000e+00" cType="1" res="2.5101706851273775e-03" rms="3.4079188108444214e-01" purity="7.4261200428009033e-01" nType="-99"/>
            <Node pos="r" depth="3" NCoef="0" IVar="-1" Cut="0.0000000000000000e+00" cType="1" res="1.6725476598367095e-04" rms="3.9831084012985229e-01" purity="5.7496464252471924e-01" nType="-99"/>
          </Node>
        </Node>
        <Node pos="r" depth="1" NCoef="0" IVar="-1" Cut="0.0000000000000000e+00" cType="1" res="-4.9673835746943951e-04" rms="4.1552230715751648e-01" purity="4.2650803923606873e-01" nType="-99"/>
      </Node>
    </BinaryTree>
    <BinaryTree type="DecisionTree" boostWeight="1.0000000000000000e+00" itree="523">
      <Node pos="s" depth="0" NCoef="0" IVar="6" Cut="1.7352466583251953e+00" cType="1" res="2.9076146893203259e-03" rms="3.8804620504379272e-01" purity="4.9889627099037170e-01" nType="0">
        <Node pos="l" depth="1" NCoef="0" IVar="2" Cut="4.0312695312500000e+02" cType="1" res="5.7547879405319691e-03" rms="3.9030510187149048e-01" purity="5.1253789663314819e-01" nType="0">
          <Node pos="l" depth="2" NCoef="0" IVar="0" Cut="1.2657832031250000e+03" cType="1" res="1.5595357865095139e-02" rms="3.8781386613845825e-01" purity="5.6146526336669922e-01" nType="0">
            <Node pos="l" depth="3" NCoef="0" IVar="-1" Cut="0.0000000000000000e+00" cType="1" res="-3.0497135594487190e-04" rms="4.1676443815231323e-01" purity="3.6480638384819031e-01" nType="-99"/>
            <Node pos="r" depth="3" NCoef="0" IVar="-1" Cut="0.0000000000000000e+00" cType="1" res="1.6543909441679716e-03" rms="3.5546180605888367e-01" purity="7.5557106733322144e-01" nType="-99"/>
          </Node>
          <Node pos="r" depth="2" NCoef="0" IVar="0" Cut="1.7317075195312500e+03" cType="1" res="-1.3870429247617722e-02" rms="3.9449429512023926e-01" purity="4.1496127843856812e-01" nType="0">
            <Node pos="l" depth="3" NCoef="0" IVar="-1" Cut="0.0000000000000000e+00" cType="1" res="-2.0285253413021564e-03" rms="3.7991389632225037e-01" purity="2.8913941979408264e-01" nType="-99"/>
            <Node pos="r" depth="3" NCoef="0" IVar="-1" Cut="0.0000000000000000e+00" cType="1" res="5.8229151181876659e-04" rms="4.1184037923812866e-01" purity="5.8592021465301514e-01" nType="-99"/>
          </Node>
        </Node>
        <Node pos="r" depth="1" NCoef="0" IVar="-1" Cut="0.0000000000000000e+00" cType="1" res="-4.3987901881337166e-03" rms="3.2464301586151123e-01" purity="1.8339987099170685e-01" nType="-99"/>
      </Node>
    </BinaryTree>
    <BinaryTree type="DecisionTree" boostWeight="1.0000000000000000e+00" itree="524">
      <Node pos="s" depth="0" NCoef="0" IVar="0" Cut="2.1140092773437500e+03" cType="1" res="3.5753895062953234e-03" rms="3.8794797658920288e-01" purity="5.0055265426635742e-01" nType="0">
        <Node pos="l" depth="1" NCoef="0" IVar="1" Cut="3.3972058105468750e+02" cType="1" res="-8.9104709331877530e-05" rms="3.8670691847801208e-01" purity="4.8859357833862305e-01" nType="0">
          <Node pos="l" depth="2" NCoef="0" IVar="2" Cut="4.6822308349609375e+02" cType="1" res="-3.3180825412273407e-02" rms="3.7577271461486816e-01" purity="3.1573158502578735e-01" nType="0">
            <Node pos="l" depth="3" NCoef="0" IVar="-1" Cut="0.0000000000000000e+00" cType="1" res="-1.1107891332358122e-03" rms="3.8569077849388123e-01" purity="3.4291094541549683e-01" nType="-99"/>
            <Node pos="r" depth="3" NCoef="0" IVar="-1" Cut="0.0000000000000000e+00" cType="1" res="-7.7413901453837752e-04" rms="2.9776099324226379e-01" purity="1.3863903284072876e-01" nType="-99"/>
          </Node>
          <Node pos="r" depth="2" NCoef="0" IVar="2" Cut="2.9874578857421875e+02" cType="1" res="1.1559592559933662e-02" rms="3.8981515169143677e-01" purity="5.4944318532943726e-01" nType="0">
            <Node pos="l" depth="3" NCoef="0" IVar="-1" Cut="0.0000000000000000e+00" cType="1" res="1.4394870959222317e-03" rms="3.7925690412521362e-01" purity="6.4988344907760620e-01" nType="-99"/>
            <Node pos="r" depth="3" NCoef="0" IVar="-1" Cut="0.0000000000000000e+00" cType="1" res="-1.8040841678157449e-04" rms="3.9561256766319275e-01" purity="4.8554936051368713e-01" nType="-99"/>
          </Node>
        </Node>
        <Node pos="r" depth="1" NCoef="0" IVar="2" Cut="7.2234289550781250e+02" cType="1" res="5.9542361646890640e-02" rms="4.0230509638786316e-01" purity="6.8320012092590332e-01" nType="0">
          <Node pos="l" depth="2" NCoef="0" IVar="-1" Cut="0.0000000000000000e+00" cType="1" res="3.5486705601215363e-03" rms="3.6424118280410767e-01" purity="7.8721171617507935e-01" nType="-99"/>
          <Node pos="r" depth="2" NCoef="0" IVar="-1" Cut="0.0000000000000000e+00" cType="1" res="1.0803360783029348e-04" rms="4.3691056966781616e-01" purity="5.5867737531661987e-01" nType="-99"/>
        </Node>
      </Node>
    </BinaryTree>
    <BinaryTree type="DecisionTree" boostWeight="1.0000000000000000e+00" itree="525">
      <Node pos="s" depth="0" NCoef="0" IVar="0" Cut="1.1315646972656250e+03" cType="1" res="4.7586509026587009e-04" rms="3.8588744401931763e-01" purity="4.9676412343978882e-01" nType="0">
        <Node pos="l" depth="1" NCoef="0" IVar="0" Cut="1.0684119873046875e+03" cType="1" res="-2.6589393615722656e-02" rms="3.9181318879127502e-01" purity="2.6025518774986267e-01" nType="0">
          <Node pos="l" depth="2" NCoef="0" IVar="1" Cut="3.4641500854492188e+02" cType="1" res="-4.4090252369642258e-02" rms="3.8110491633415222e-01" purity="2.2441428899765015e-01" nType="0">
            <Node pos="l" depth="3" NCoef="0" IVar="-1" Cut="0.0000000000000000e+00" cType="1" res="-2.9710014350712299e-03" rms="3.6127686500549316e-01" purity="1.9553942978382111e-01" nType="-99"/>
            <Node pos="r" depth="3" NCoef="0" IVar="-1" Cut="0.0000000000000000e+00" cType="1" res="-7.6641171472147107e-04" rms="4.1012778878211975e-01" purity="2.7163112163543701e-01" nType="-99"/>
          </Node>
          <Node pos="r" depth="2" NCoef="0" IVar="-1" Cut="0.0000000000000000e+00" cType="1" res="2.6946020079776645e-04" rms="4.0914031863212585e-01" purity="3.2751244306564331e-01" nType="-99"/>
        </Node>
        <Node pos="r" depth="1" NCoef="0" IVar="2" Cut="3.7131597900390625e+02" cType="1" res="7.5041763484477997e-03" rms="3.8402181863784790e-01" purity="5.5818074941635132e-01" nType="0">
          <Node pos="l" depth="2" NCoef="0" IVar="3" Cut="2.0728202819824219e+02" cType="1" res="2.6734769344329834e-02" rms="3.7277865409851074e-01" purity="6.8167114257812500e-01" nType="0">
            <Node pos="l" depth="3" NCoef="0" IVar="-1" Cut="0.0000000000000000e+00" cType="1" res="1.9627904985100031e-03" rms="3.7505263090133667e-01" purity="7.0335841178894043e-01" nType="-99"/>
            <Node pos="r" depth="3" NCoef="0" IVar="-1" Cut="0.0000000000000000e+00" cType="1" res="3.2271100280922838e-07" rms="3.6849203705787659e-01" purity="6.5895617008209229e-01" nType="-99"/>
          </Node>
          <Node pos="r" depth="2" NCoef="0" IVar="0" Cut="2.0787563476562500e+03" cType="1" res="-1.2604367919266224e-02" rms="3.9443501830101013e-01" purity="4.2905259132385254e-01" nType="0">
            <Node pos="l" depth="3" NCoef="0" IVar="-1" Cut="0.0000000000000000e+00" cType="1" res="-7.5029383879154921e-04" rms="3.9119893312454224e-01" purity="3.8604417443275452e-01" nType="-99"/>
            <Node pos="r" depth="3" NCoef="0" IVar="-1" Cut="0.0000000000000000e+00" cType="1" res="1.3564876280725002e-03" rms="4.0727433562278748e-01" purity="6.5010166168212891e-01" nType="-99"/>
          </Node>
        </Node>
      </Node>
    </BinaryTree>
    <BinaryTree type="DecisionTree" boostWeight="1.0000000000000000e+00" itree="526">
      <Node pos="s" depth="0" NCoef="0" IVar="2" Cut="8.0937719726562500e+02" cType="1" res="2.2840634919703007e-03" rms="3.8930585980415344e-01" purity="4.9835988879203796e-01" nType="0">
        <Node pos="l" depth="1" NCoef="0" IVar="0" Cut="1.7037537841796875e+03" cType="1" res="4.8846132121980190e-03" rms="3.8837024569511414e-01" purity="5.0093948841094971e-01" nType="0">
          <Node pos="l" depth="2" NCoef="0" IVar="3" Cut="2.0465560913085938e+02" cType="1" res="-2.7507736813277006e-03" rms="3.9091494679450989e-01" purity="4.5955842733383179e-01" nType="0">
            <Node pos="l" depth="3" NCoef="0" IVar="-1" Cut="0.0000000000000000e+00" cType="1" res="4.6889696386642754e-04" rms="3.9205783605575562e-01" purity="4.4181171059608459e-01" nType="-99"/>
            <Node pos="r" depth="3" NCoef="0" IVar="-1" Cut="0.0000000000000000e+00" cType="1" res="-1.3029222609475255e-03" rms="3.8782858848571777e-01" purity="4.9005547165870667e-01" nType="-99"/>
          </Node>
          <Node pos="r" depth="2" NCoef="0" IVar="3" Cut="3.7838000488281250e+02" cType="1" res="3.9192877709865570e-02" rms="3.7480929493904114e-01" purity="6.8687784671783447e-01" nType="0">
            <Node pos="l" depth="3" NCoef="0" IVar="-1" Cut="0.0000000000000000e+00" cType="1" res="2.2996314801275730e-03" rms="3.6113435029983521e-01" purity="7.3140442371368408e-01" nType="-99"/>
            <Node pos="r" depth="3" NCoef="0" IVar="-1" Cut="0.0000000000000000e+00" cType="1" res="-9.2507834779098630e-04" rms="4.2509886622428894e-01" purity="4.8970147967338562e-01" nType="-99"/>
          </Node>
        </Node>
        <Node pos="r" depth="1" NCoef="0" IVar="-1" Cut="0.0000000000000000e+00" cType="1" res="-6.2070414423942566e-04" rms="4.0984421968460083e-01" purity="4.1332522034645081e-01" nType="-99"/>
      </Node>
    </BinaryTree>
    <BinaryTree type="DecisionTree" boostWeight="1.0000000000000000e+00" itree="527">
      <Node pos="s" depth="0" NCoef="0" IVar="6" Cut="1.2069928646087646e+00" cType="1" res="3.5967875737696886e-03" rms="3.8948941230773926e-01" purity="5.0061041116714478e-01" nType="0">
        <Node pos="l" depth="1" NCoef="0" IVar="6" Cut="-4.9946060776710510e-01" cType="1" res="8.5233906283974648e-03" rms="3.9300647377967834e-01" purity="5.3007578849792480e-01" nType="0">
          <Node pos="l" depth="2" NCoef="0" IVar="3" Cut="1.4422499084472656e+02" cType="1" res="-1.5135683119297028e-02" rms="3.8295522332191467e-01" purity="4.1695019602775574e-01" nType="0">
            <Node pos="l" depth="3" NCoef="0" IVar="-1" Cut="0.0000000000000000e+00" cType="1" res="1.3533435994759202e-03" rms="3.9115771651268005e-01" purity="2.9994302988052368e-01" nType="-99"/>
            <Node pos="r" depth="3" NCoef="0" IVar="-1" Cut="0.0000000000000000e+00" cType="1" res="-1.2958837905898690e-03" rms="3.7990540266036987e-01" purity="4.4892466068267822e-01" nType="-99"/>
          </Node>
          <Node pos="r" depth="2" NCoef="0" IVar="7" Cut="-1.7330855131149292e+00" cType="1" res="1.9917162135243416e-02" rms="3.9725401997566223e-01" purity="5.8455497026443481e-01" nType="0">
            <Node pos="l" depth="3" NCoef="0" IVar="-1" Cut="0.0000000000000000e+00" cType="1" res="-3.1597982160747051e-03" rms="3.4737026691436768e-01" purity="2.2990740835666656e-01" nType="-99"/>
            <Node pos="r" depth="3" NCoef="0" IVar="-1" Cut="0.0000000000000000e+00" cType="1" res="7.6934718526899815e-04" rms="3.9912995696067810e-01" purity="6.0125905275344849e-01" nType="-99"/>
          </Node>
        </Node>
        <Node pos="r" depth="1" NCoef="0" IVar="9" Cut="9.3328124284744263e-01" cType="1" res="-3.8251101970672607e-02" rms="3.5548204183578491e-01" purity="2.5032338500022888e-01" nType="0">
          <Node pos="l" depth="2" NCoef="0" IVar="0" Cut="1.4687078857421875e+03" cType="1" res="-2.4759121239185333e-02" rms="3.7081897258758545e-01" purity="2.9325491189956665e-01" nType="0">
            <Node pos="l" depth="3" NCoef="0" IVar="-1" Cut="0.0000000000000000e+00" cType="1" res="-2.4451913777738810e-03" rms="3.5926452279090881e-01" purity="2.0471705496311188e-01" nType="-99"/>
            <Node pos="r" depth="3" NCoef="0" IVar="-1" Cut="0.0000000000000000e+00" cType="1" res="5.6903303629951552e-05" rms="3.9055863022804260e-01" purity="4.6182179450988770e-01" nType="-99"/>
          </Node>
          <Node pos="r" depth="2" NCoef="0" IVar="-1" Cut="0.0000000000000000e+00" cType="1" res="-5.8799646794795990e-03" rms="3.0663919448852539e-01" purity="1.3285486400127411e-01" nType="-99"/>
        </Node>
      </Node>
    </BinaryTree>
    <BinaryTree type="DecisionTree" boostWeight="1.0000000000000000e+00" itree="528">
      <Node pos="s" depth="0" NCoef="0" IVar="0" Cut="1.9709361572265625e+03" cType="1" res="1.5268840361386538e-03" rms="3.8885828852653503e-01" purity="4.9767154455184937e-01" nType="0">
        <Node pos="l" depth="1" NCoef="0" IVar="2" Cut="5.9537994384765625e+02" cType="1" res="-2.7403268031775951e-03" rms="3.8757556676864624e-01" purity="4.7992822527885437e-01" nType="0">
          <Node pos="l" depth="2" NCoef="0" IVar="0" Cut="1.3018498535156250e+03" cType="1" res="1.5932989772409201e-03" rms="3.8877618312835693e-01" purity="4.9658137559890747e-01" nType="0">
            <Node pos="l" depth="3" NCoef="0" IVar="-1" Cut="0.0000000000000000e+00" cType="1" res="-7.7966734534129500e-04" rms="4.0015915036201477e-01" purity="3.4257945418357849e-01" nType="-99"/>
            <Node pos="r" depth="3" NCoef="0" IVar="-1" Cut="0.0000000000000000e+00" cType="1" res="9.1125891776755452e-04" rms="3.7704750895500183e-01" purity="6.3880425691604614e-01" nType="-99"/>
          </Node>
          <Node pos="r" depth="2" NCoef="0" IVar="2" Cut="6.7069177246093750e+02" cType="1" res="-7.4553668498992920e-02" rms="3.5958373546600342e-01" purity="2.0396533608436584e-01" nType="0">
            <Node pos="l" depth="3" NCoef="0" IVar="-1" Cut="0.0000000000000000e+00" cType="1" res="-4.1674389503896236e-03" rms="3.6865299940109253e-01" purity="2.2270958125591278e-01" nType="-99"/>
            <Node pos="r" depth="3" NCoef="0" IVar="-1" Cut="0.0000000000000000e+00" cType="1" res="-7.1408023359254003e-04" rms="3.4827107191085815e-01" purity="1.8511211872100830e-01" nType="-99"/>
          </Node>
        </Node>
        <Node pos="r" depth="1" NCoef="0" IVar="3" Cut="3.4642816162109375e+02" cType="1" res="4.3101351708173752e-02" rms="3.9875835180282593e-01" purity="6.7054051160812378e-01" nType="0">
          <Node pos="l" depth="2" NCoef="0" IVar="0" Cut="2.1674472656250000e+03" cType="1" res="8.4433548152446747e-02" rms="3.7475207448005676e-01" purity="7.5405770540237427e-01" nType="0">
            <Node pos="l" depth="3" NCoef="0" IVar="-1" Cut="0.0000000000000000e+00" cType="1" res="2.5144466198980808e-03" rms="3.7380245327949524e-01" purity="7.3476386070251465e-01" nType="-99"/>
            <Node pos="r" depth="3" NCoef="0" IVar="-1" Cut="0.0000000000000000e+00" cType="1" res="3.6036588717252016e-03" rms="3.7420204281806946e-01" purity="7.7495026588439941e-01" nType="-99"/>
          </Node>
          <Node pos="r" depth="2" NCoef="0" IVar="-1" Cut="0.0000000000000000e+00" cType="1" res="-7.2347180685028434e-04" rms="4.2403414845466614e-01" purity="5.4985845088958740e-01" nType="-99"/>
        </Node>
      </Node>
    </BinaryTree>
    <BinaryTree type="DecisionTree" boostWeight="1.0000000000000000e+00" itree="529">
      <Node pos="s" depth="0" NCoef="0" IVar="2" Cut="3.7131063842773438e+02" cType="1" res="5.2079558372497559e-03" rms="3.8949295878410339e-01" purity="5.0113743543624878e-01" nType="0">
        <Node pos="l" depth="1" NCoef="0" IVar="0" Cut="1.3820811767578125e+03" cType="1" res="1.5477982349693775e-02" rms="3.8565659523010254e-01" purity="5.5694603919982910e-01" nType="0">
          <Node pos="l" depth="2" NCoef="0" IVar="3" Cut="2.1672065734863281e+02" cType="1" res="1.6904314979910851e-03" rms="4.1303858160972595e-01" purity="4.2950507998466492e-01" nType="0">
            <Node pos="l" depth="3" NCoef="0" IVar="-1" Cut="0.0000000000000000e+00" cType="1" res="5.5890058865770698e-04" rms="4.1277372837066650e-01" purity="4.3775761127471924e-01" nType="-99"/>
            <Node pos="r" depth="3" NCoef="0" IVar="-1" Cut="0.0000000000000000e+00" cType="1" res="-2.8276003431528807e-03" rms="4.0841260552406311e-01" purity="3.8613709807395935e-01" nType="-99"/>
          </Node>
          <Node pos="r" depth="2" NCoef="0" IVar="3" Cut="2.2111898803710938e+02" cType="1" res="4.4866181910037994e-02" rms="3.1756332516670227e-01" purity="8.2858681678771973e-01" nType="0">
            <Node pos="l" depth="3" NCoef="0" IVar="-1" Cut="0.0000000000000000e+00" cType="1" res="3.4137940965592861e-03" rms="2.7607098221778870e-01" purity="8.9111447334289551e-01" nType="-99"/>
            <Node pos="r" depth="3" NCoef="0" IVar="-1" Cut="0.0000000000000000e+00" cType="1" res="1.0027590906247497e-03" rms="3.4654864668846130e-01" purity="7.7656340599060059e-01" nType="-99"/>
          </Node>
        </Node>
        <Node pos="r" depth="1" NCoef="0" IVar="0" Cut="1.9002899169921875e+03" cType="1" res="-1.0083131492137909e-02" rms="3.9464104175567627e-01" purity="4.1804373264312744e-01" nType="0">
          <Node pos="l" depth="2" NCoef="0" IVar="2" Cut="5.8594921875000000e+02" cType="1" res="-2.3545039817690849e-02" rms="3.8796544075012207e-01" purity="3.5098823904991150e-01" nType="0">
            <Node pos="l" depth="3" NCoef="0" IVar="-1" Cut="0.0000000000000000e+00" cType="1" res="-6.9816998438909650e-04" rms="3.9269688725471497e-01" purity="3.8194307684898376e-01" nType="-99"/>
            <Node pos="r" depth="3" NCoef="0" IVar="-1" Cut="0.0000000000000000e+00" cType="1" res="-9.3594810459762812e-04" rms="3.5862240195274353e-01" purity="1.9182500243186951e-01" nType="-99"/>
          </Node>
          <Node pos="r" depth="2" NCoef="0" IVar="3" Cut="3.3691937255859375e+02" cType="1" res="3.1349759548902512e-02" rms="4.1176038980484009e-01" purity="6.2442630529403687e-01" nType="0">
            <Node pos="l" depth="3" NCoef="0" IVar="-1" Cut="0.0000000000000000e+00" cType="1" res="2.3268496152013540e-03" rms="4.0320166945457458e-01" purity="6.8785786628723145e-01" nType="-99"/>
            <Node pos="r" depth="3" NCoef="0" IVar="-1" Cut="0.0000000000000000e+00" cType="1" res="-3.4023876651190221e-04" rms="4.1837540268898010e-01" purity="5.4881978034973145e-01" nType="-99"/>
          </Node>
        </Node>
      </Node>
    </BinaryTree>
    <BinaryTree type="DecisionTree" boostWeight="1.0000000000000000e+00" itree="530">
      <Node pos="s" depth="0" NCoef="0" IVar="7" Cut="6.6661250591278076e-01" cType="1" res="6.1422544531524181e-03" rms="3.9018326997756958e-01" purity="5.0239604711532593e-01" nType="0">
        <Node pos="l" depth="1" NCoef="0" IVar="7" Cut="-6.5395504236221313e-01" cType="1" res="1.4736165292561054e-02" rms="3.9312496781349182e-01" purity="5.4211342334747314e-01" nType="0">
          <Node pos="l" depth="2" NCoef="0" IVar="3" Cut="1.9241007995605469e+02" cType="1" res="-7.8403139486908913e-03" rms="3.8193598389625549e-01" purity="3.8962730765342712e-01" nType="0">
            <Node pos="l" depth="3" NCoef="0" IVar="-1" Cut="0.0000000000000000e+00" cType="1" res="7.3488091584295034e-04" rms="3.8190943002700806e-01" purity="3.4749147295951843e-01" nType="-99"/>
            <Node pos="r" depth="3" NCoef="0" IVar="-1" Cut="0.0000000000000000e+00" cType="1" res="-1.5816104132682085e-03" rms="3.8059511780738831e-01" purity="4.3127346038818359e-01" nType="-99"/>
          </Node>
          <Node pos="r" depth="2" NCoef="0" IVar="9" Cut="-1.7329427003860474e+00" cType="1" res="2.6263538748025894e-02" rms="3.9822360873222351e-01" purity="6.1997169256210327e-01" nType="0">
            <Node pos="l" depth="3" NCoef="0" IVar="-1" Cut="0.0000000000000000e+00" cType="1" res="-1.7655892297625542e-03" rms="3.8019835948944092e-01" purity="3.6293733119964600e-01" nType="-99"/>
            <Node pos="r" depth="3" NCoef="0" IVar="-1" Cut="0.0000000000000000e+00" cType="1" res="1.2007817858830094e-03" rms="3.9895677566528320e-01" purity="6.3524985313415527e-01" nType="-99"/>
          </Node>
        </Node>
        <Node pos="r" depth="1" NCoef="0" IVar="0" Cut="1.3928627929687500e+03" cType="1" res="-2.0829271525144577e-02" rms="3.7954172492027283e-01" purity="3.7774527072906494e-01" nType="0">
          <Node pos="l" depth="2" NCoef="0" IVar="4" Cut="1.3478414916992188e+02" cType="1" res="-3.6774210631847382e-02" rms="3.7093439698219299e-01" purity="2.7016910910606384e-01" nType="0">
            <Node pos="l" depth="3" NCoef="0" IVar="-1" Cut="0.0000000000000000e+00" cType="1" res="-6.2739808345213532e-04" rms="3.6405903100967407e-01" purity="2.5317201018333435e-01" nType="-99"/>
            <Node pos="r" depth="3" NCoef="0" IVar="-1" Cut="0.0000000000000000e+00" cType="1" res="-5.4186461493372917e-03" rms="3.8046056032180786e-01" purity="3.1615978479385376e-01" nType="-99"/>
          </Node>
          <Node pos="r" depth="2" NCoef="0" IVar="3" Cut="2.8848266601562500e+02" cType="1" res="-6.5303657902404666e-04" rms="3.8922601938247681e-01" purity="5.1386874914169312e-01" nType="0">
            <Node pos="l" depth="3" NCoef="0" IVar="-1" Cut="0.0000000000000000e+00" cType="1" res="8.9391542132943869e-04" rms="3.8893708586692810e-01" purity="5.7067358493804932e-01" nType="-99"/>
            <Node pos="r" depth="3" NCoef="0" IVar="-1" Cut="0.0000000000000000e+00" cType="1" res="-2.3969667963683605e-03" rms="3.8625866174697876e-01" purity="3.8606634736061096e-01" nType="-99"/>
          </Node>
        </Node>
      </Node>
    </BinaryTree>
    <BinaryTree type="DecisionTree" boostWeight="1.0000000000000000e+00" itree="531">
      <Node pos="s" depth="0" NCoef="0" IVar="3" Cut="1.4757579040527344e+02" cType="1" res="-1.0654156358214095e-04" rms="3.8734522461891174e-01" purity="4.9507600069046021e-01" nType="0">
        <Node pos="l" depth="1" NCoef="0" IVar="0" Cut="1.2668574218750000e+03" cType="1" res="3.0238363891839981e-02" rms="4.0226045250892639e-01" purity="3.7003198266029358e-01" nType="0">
          <Node pos="l" depth="2" NCoef="0" IVar="5" Cut="7.2226028442382812e+01" cType="1" res="1.0025863535702229e-02" rms="3.9770194888114929e-01" purity="3.0888995528221130e-01" nType="0">
            <Node pos="l" depth="3" NCoef="0" IVar="-1" Cut="0.0000000000000000e+00" cType="1" res="-1.2731099268421531e-03" rms="3.6852392554283142e-01" purity="2.0081518590450287e-01" nType="-99"/>
            <Node pos="r" depth="3" NCoef="0" IVar="-1" Cut="0.0000000000000000e+00" cType="1" res="1.4227833598852158e-03" rms="4.1658139228820801e-01" purity="3.9109814167022705e-01" nType="-99"/>
          </Node>
          <Node pos="r" depth="2" NCoef="0" IVar="3" Cut="1.2975416564941406e+02" cType="1" res="9.3883760273456573e-02" rms="4.0982785820960999e-01" purity="5.6255686283111572e-01" nType="0">
            <Node pos="l" depth="3" NCoef="0" IVar="-1" Cut="0.0000000000000000e+00" cType="1" res="4.5121815055608749e-03" rms="4.2644879221916199e-01" purity="5.4019457101821899e-01" nType="-99"/>
            <Node pos="r" depth="3" NCoef="0" IVar="-1" Cut="0.0000000000000000e+00" cType="1" res="2.5577670894563198e-03" rms="3.8951358199119568e-01" purity="5.8551943302154541e-01" nType="-99"/>
          </Node>
        </Node>
        <Node pos="r" depth="1" NCoef="0" IVar="2" Cut="7.7117974853515625e+02" cType="1" res="-8.6789252236485481e-03" rms="3.8259074091911316e-01" purity="5.3040075302124023e-01" nType="0">
          <Node pos="l" depth="2" NCoef="0" IVar="0" Cut="1.3448414306640625e+03" cType="1" res="-4.5387791469693184e-03" rms="3.8131088018417358e-01" purity="5.3726112842559814e-01" nType="0">
            <Node pos="l" depth="3" NCoef="0" IVar="-1" Cut="0.0000000000000000e+00" cType="1" res="-1.5103184850886464e-03" rms="3.9937165379524231e-01" purity="3.8180983066558838e-01" nType="-99"/>
            <Node pos="r" depth="3" NCoef="0" IVar="-1" Cut="0.0000000000000000e+00" cType="1" res="6.5974617609754205e-04" rms="3.6878573894500732e-01" purity="6.3076865673065186e-01" nType="-99"/>
          </Node>
          <Node pos="r" depth="2" NCoef="0" IVar="-1" Cut="0.0000000000000000e+00" cType="1" res="-8.5925479652360082e-04" rms="3.9938512444496155e-01" purity="3.6800435185432434e-01" nType="-99"/>
        </Node>
      </Node>
    </BinaryTree>
    <BinaryTree type="DecisionTree" boostWeight="1.0000000000000000e+00" itree="532">
      <Node pos="s" depth="0" NCoef="0" IVar="7" Cut="-1.1998630762100220e+00" cType="1" res="4.1700466535985470e-03" rms="3.8588151335716248e-01" purity="5.0176250934600830e-01" nType="0">
        <Node pos="l" depth="1" NCoef="0" IVar="3" Cut="1.6488478088378906e+02" cType="1" res="-3.8262508809566498e-02" rms="3.4278678894042969e-01" purity="2.4392238259315491e-01" nType="0">
          <Node pos="l" depth="2" NCoef="0" IVar="-1" Cut="0.0000000000000000e+00" cType="1" res="-9.1663008788600564e-04" rms="3.3134144544601440e-01" purity="1.8930096924304962e-01" nType="-99"/>
          <Node pos="r" depth="2" NCoef="0" IVar="7" Cut="-1.5807684659957886e+00" cType="1" res="-5.3958710283041000e-02" rms="3.4883129596710205e-01" purity="2.7805280685424805e-01" nType="0">
            <Node pos="l" depth="3" NCoef="0" IVar="-1" Cut="0.0000000000000000e+00" cType="1" res="-5.6415945291519165e-03" rms="3.1932258605957031e-01" purity="1.9795821607112885e-01" nType="-99"/>
            <Node pos="r" depth="3" NCoef="0" IVar="-1" Cut="0.0000000000000000e+00" cType="1" res="-1.6228017630055547e-03" rms="3.7508693337440491e-01" purity="3.5921496152877808e-01" nType="-99"/>
          </Node>
        </Node>
        <Node pos="r" depth="1" NCoef="0" IVar="7" Cut="7.0482933521270752e-01" cType="1" res="9.8999226465821266e-03" rms="3.9098453521728516e-01" purity="5.3657996654510498e-01" nType="0">
          <Node pos="l" depth="2" NCoef="0" IVar="2" Cut="5.4261816406250000e+02" cType="1" res="2.0750809460878372e-02" rms="3.9633676409721375e-01" purity="5.9719097614288330e-01" nType="0">
            <Node pos="l" depth="3" NCoef="0" IVar="-1" Cut="0.0000000000000000e+00" cType="1" res="1.0891129495576024e-03" rms="3.9274850487709045e-01" purity="6.2215882539749146e-01" nType="-99"/>
            <Node pos="r" depth="3" NCoef="0" IVar="-1" Cut="0.0000000000000000e+00" cType="1" res="-1.0977666825056076e-03" rms="4.1558644175529480e-01" purity="4.3997460603713989e-01" nType="-99"/>
          </Node>
          <Node pos="r" depth="2" NCoef="0" IVar="0" Cut="1.3329228515625000e+03" cType="1" res="-2.0414812490344048e-02" rms="3.7396299839019775e-01" purity="3.6724749207496643e-01" nType="0">
            <Node pos="l" depth="3" NCoef="0" IVar="-1" Cut="0.0000000000000000e+00" cType="1" res="-2.1727713756263256e-03" rms="3.6355501413345337e-01" purity="2.3764754831790924e-01" nType="-99"/>
            <Node pos="r" depth="3" NCoef="0" IVar="-1" Cut="0.0000000000000000e+00" cType="1" res="-1.3627516455017030e-04" rms="3.8266095519065857e-01" purity="4.8919484019279480e-01" nType="-99"/>
          </Node>
        </Node>
      </Node>
    </BinaryTree>
    <BinaryTree type="DecisionTree" boostWeight="1.0000000000000000e+00" itree="533">
      <Node pos="s" depth="0" NCoef="0" IVar="7" Cut="-1.7332394123077393e+00" cType="1" res="2.8717624954879284e-03" rms="3.9012095332145691e-01" purity="5.0053167343139648e-01" nType="0">
        <Node pos="l" depth="1" NCoef="0" IVar="9" Cut="-1.3363349437713623e-01" cType="1" res="-5.0785496830940247e-02" rms="3.1558525562286377e-01" purity="1.6806727647781372e-01" nType="0">
          <Node pos="l" depth="2" NCoef="0" IVar="-1" Cut="0.0000000000000000e+00" cType="1" res="-7.6293363235890865e-03" rms="2.7128928899765015e-01" purity="1.1130529642105103e-01" nType="-99"/>
          <Node pos="r" depth="2" NCoef="0" IVar="-1" Cut="0.0000000000000000e+00" cType="1" res="-1.3055944582447410e-03" rms="3.5097277164459229e-01" purity="2.2374010086059570e-01" nType="-99"/>
        </Node>
        <Node pos="r" depth="1" NCoef="0" IVar="8" Cut="6.6665947437286377e-01" cType="1" res="5.8233342133462429e-03" rms="3.9359968900680542e-01" purity="5.1881980895996094e-01" nType="0">
          <Node pos="l" depth="2" NCoef="0" IVar="8" Cut="-1.4793709516525269e+00" cType="1" res="1.3124128803610802e-02" rms="3.9462813735008240e-01" purity="5.5274766683578491e-01" nType="0">
            <Node pos="l" depth="3" NCoef="0" IVar="-1" Cut="0.0000000000000000e+00" cType="1" res="-1.9531645812094212e-03" rms="3.6925682425498962e-01" purity="2.5493383407592773e-01" nType="-99"/>
            <Node pos="r" depth="3" NCoef="0" IVar="-1" Cut="0.0000000000000000e+00" cType="1" res="7.6157745206728578e-04" rms="3.9736846089363098e-01" purity="5.8993810415267944e-01" nType="-99"/>
          </Node>
          <Node pos="r" depth="2" NCoef="0" IVar="4" Cut="1.4092761230468750e+02" cType="1" res="-1.5169695951044559e-02" rms="3.8986626267433167e-01" purity="4.2126232385635376e-01" nType="0">
            <Node pos="l" depth="3" NCoef="0" IVar="-1" Cut="0.0000000000000000e+00" cType="1" res="1.3770328951068223e-04" rms="3.9206707477569580e-01" purity="3.4601557254791260e-01" nType="-99"/>
            <Node pos="r" depth="3" NCoef="0" IVar="-1" Cut="0.0000000000000000e+00" cType="1" res="-1.8409929471090436e-03" rms="3.8594457507133484e-01" purity="5.1508343219757080e-01" nType="-99"/>
          </Node>
        </Node>
      </Node>
    </BinaryTree>
    <BinaryTree type="DecisionTree" boostWeight="1.0000000000000000e+00" itree="534">
      <Node pos="s" depth="0" NCoef="0" IVar="6" Cut="1.7418222427368164e+00" cType="1" res="2.6114333886653185e-03" rms="3.8606268167495728e-01" purity="5.0023996829986572e-01" nType="0">
        <Node pos="l" depth="1" NCoef="0" IVar="8" Cut="-9.3333190679550171e-01" cType="1" res="5.7853022590279579e-03" rms="3.8899111747741699e-01" purity="5.1422458887100220e-01" nType="0">
          <Node pos="l" depth="2" NCoef="0" IVar="4" Cut="1.7735115051269531e+02" cType="1" res="-2.6696467772126198e-02" rms="3.7552699446678162e-01" purity="3.5268697142601013e-01" nType="0">
            <Node pos="l" depth="3" NCoef="0" IVar="-1" Cut="0.0000000000000000e+00" cType="1" res="-9.1664382489398122e-04" rms="3.7448543310165405e-01" purity="3.3058249950408936e-01" nType="-99"/>
            <Node pos="r" depth="3" NCoef="0" IVar="-1" Cut="0.0000000000000000e+00" cType="1" res="-3.7662570830434561e-03" rms="3.7703233957290649e-01" purity="4.4014987349510193e-01" nType="-99"/>
          </Node>
          <Node pos="r" depth="2" NCoef="0" IVar="2" Cut="3.4280331420898438e+02" cType="1" res="1.3162164017558098e-02" rms="3.9160928130149841e-01" purity="5.5091100931167603e-01" nType="0">
            <Node pos="l" depth="3" NCoef="0" IVar="-1" Cut="0.0000000000000000e+00" cType="1" res="1.1531631462275982e-03" rms="3.8383448123931885e-01" purity="6.2041193246841431e-01" nType="-99"/>
            <Node pos="r" depth="3" NCoef="0" IVar="-1" Cut="0.0000000000000000e+00" cType="1" res="-1.9051654089707881e-04" rms="3.9946249127388000e-01" purity="4.7283378243446350e-01" nType="-99"/>
          </Node>
        </Node>
        <Node pos="r" depth="1" NCoef="0" IVar="-1" Cut="0.0000000000000000e+00" cType="1" res="-5.5071040987968445e-03" rms="3.0021232366561890e-01" purity="1.7272455990314484e-01" nType="-99"/>
      </Node>
    </BinaryTree>
    <BinaryTree type="DecisionTree" boostWeight="1.0000000000000000e+00" itree="535">
      <Node pos="s" depth="0" NCoef="0" IVar="8" Cut="-1.1999604701995850e+00" cType="1" res="2.9693013057112694e-03" rms="3.8787966966629028e-01" purity="4.9878177046775818e-01" nType="0">
        <Node pos="l" depth="1" NCoef="0" IVar="2" Cut="3.3123382568359375e+02" cType="1" res="-3.1493250280618668e-02" rms="3.6152052879333496e-01" purity="2.8648200631141663e-01" nType="0">
          <Node pos="l" depth="2" NCoef="0" IVar="-1" Cut="0.0000000000000000e+00" cType="1" res="-4.9783801659941673e-04" rms="3.8064384460449219e-01" purity="3.5830560326576233e-01" nType="-99"/>
          <Node pos="r" depth="2" NCoef="0" IVar="4" Cut="1.3336824035644531e+02" cType="1" res="-5.2803482860326767e-02" rms="3.3954963088035583e-01" purity="2.1307949721813202e-01" nType="0">
            <Node pos="l" depth="3" NCoef="0" IVar="-1" Cut="0.0000000000000000e+00" cType="1" res="-2.8949675615876913e-03" rms="3.1051737070083618e-01" purity="1.5997052192687988e-01" nType="-99"/>
            <Node pos="r" depth="3" NCoef="0" IVar="-1" Cut="0.0000000000000000e+00" cType="1" res="-5.0116451457142830e-03" rms="3.6667588353157043e-01" purity="2.6872771978378296e-01" nType="-99"/>
          </Node>
        </Node>
        <Node pos="r" depth="1" NCoef="0" IVar="0" Cut="1.5806446533203125e+03" cType="1" res="8.1939399242401123e-03" rms="3.9145624637603760e-01" purity="5.3096711635589600e-01" nType="0">
          <Node pos="l" depth="2" NCoef="0" IVar="2" Cut="2.9087274169921875e+02" cType="1" res="-1.0779923759400845e-03" rms="3.9759320020675659e-01" purity="4.6709492802619934e-01" nType="0">
            <Node pos="l" depth="3" NCoef="0" IVar="-1" Cut="0.0000000000000000e+00" cType="1" res="7.5518194353207946e-04" rms="3.9948189258575439e-01" purity="5.7144469022750854e-01" nType="-99"/>
            <Node pos="r" depth="3" NCoef="0" IVar="-1" Cut="0.0000000000000000e+00" cType="1" res="-9.5046270871534944e-04" rms="3.9495065808296204e-01" purity="3.7332406640052795e-01" nType="-99"/>
          </Node>
          <Node pos="r" depth="2" NCoef="0" IVar="3" Cut="2.5027363586425781e+02" cType="1" res="2.9327953234314919e-02" rms="3.7624189257621765e-01" purity="6.7655438184738159e-01" nType="0">
            <Node pos="l" depth="3" NCoef="0" IVar="-1" Cut="0.0000000000000000e+00" cType="1" res="2.5437991134822369e-03" rms="3.4711736440658569e-01" purity="7.5385588407516479e-01" nType="-99"/>
            <Node pos="r" depth="3" NCoef="0" IVar="-1" Cut="0.0000000000000000e+00" cType="1" res="3.8293542456813157e-04" rms="3.9416578412055969e-01" purity="6.2204670906066895e-01" nType="-99"/>
          </Node>
        </Node>
      </Node>
    </BinaryTree>
    <BinaryTree type="DecisionTree" boostWeight="1.0000000000000000e+00" itree="536">
      <Node pos="s" depth="0" NCoef="0" IVar="2" Cut="6.0625231933593750e+02" cType="1" res="1.4713753480464220e-03" rms="3.8716456294059753e-01" purity="4.9744436144828796e-01" nType="0">
        <Node pos="l" depth="1" NCoef="0" IVar="0" Cut="1.8297025146484375e+03" cType="1" res="6.9466442801058292e-03" rms="3.8632172346115112e-01" purity="5.1188540458679199e-01" nType="0">
          <Node pos="l" depth="2" NCoef="0" IVar="3" Cut="2.0713258361816406e+02" cType="1" res="1.7731896368786693e-03" rms="3.8924852013587952e-01" purity="4.8626139760017395e-01" nType="0">
            <Node pos="l" depth="3" NCoef="0" IVar="-1" Cut="0.0000000000000000e+00" cType="1" res="7.4048980604857206e-04" rms="3.9168241620063782e-01" purity="4.6335977315902710e-01" nType="-99"/>
            <Node pos="r" depth="3" NCoef="0" IVar="-1" Cut="0.0000000000000000e+00" cType="1" res="-1.1690970277413726e-03" rms="3.8387215137481689e-01" purity="5.2354615926742554e-01" nType="-99"/>
          </Node>
          <Node pos="r" depth="2" NCoef="0" IVar="1" Cut="6.0582452392578125e+02" cType="1" res="6.2364351004362106e-02" rms="3.4867063164710999e-01" purity="7.8636831045150757e-01" nType="0">
            <Node pos="l" depth="3" NCoef="0" IVar="-1" Cut="0.0000000000000000e+00" cType="1" res="3.3398836385458708e-03" rms="3.4718769788742065e-01" purity="7.7803027629852295e-01" nType="-99"/>
            <Node pos="r" depth="3" NCoef="0" IVar="-1" Cut="0.0000000000000000e+00" cType="1" res="1.1157927801832557e-03" rms="3.4788885712623596e-01" purity="8.0157786607742310e-01" nType="-99"/>
          </Node>
        </Node>
        <Node pos="r" depth="1" NCoef="0" IVar="1" Cut="6.3030322265625000e+02" cType="1" res="-5.1467552781105042e-02" rms="3.9128908514976501e-01" purity="3.5781776905059814e-01" nType="0">
          <Node pos="l" depth="2" NCoef="0" IVar="2" Cut="7.0290277099609375e+02" cType="1" res="-8.5800252854824066e-02" rms="3.6099427938461304e-01" purity="2.2203947603702545e-01" nType="0">
            <Node pos="l" depth="3" NCoef="0" IVar="-1" Cut="0.0000000000000000e+00" cType="1" res="-2.8566764667630196e-03" rms="3.6358901858329773e-01" purity="2.5123596191406250e-01" nType="-99"/>
            <Node pos="r" depth="3" NCoef="0" IVar="-1" Cut="0.0000000000000000e+00" cType="1" res="-1.1279697064310312e-03" rms="3.5102182626724243e-01" purity="1.9082568585872650e-01" nType="-99"/>
          </Node>
          <Node pos="r" depth="2" NCoef="0" IVar="-1" Cut="0.0000000000000000e+00" cType="1" res="5.9676496312022209e-04" rms="4.3765684962272644e-01" purity="6.2879741191864014e-01" nType="-99"/>
        </Node>
      </Node>
    </BinaryTree>
    <BinaryTree type="DecisionTree" boostWeight="1.0000000000000000e+00" itree="537">
      <Node pos="s" depth="0" NCoef="0" IVar="2" Cut="6.0625280761718750e+02" cType="1" res="-1.0611563920974731e-03" rms="3.8708224892616272e-01" purity="4.9655666947364807e-01" nType="0">
        <Node pos="l" depth="1" NCoef="0" IVar="0" Cut="1.2502049560546875e+03" cType="1" res="3.7131863646209240e-03" rms="3.8624453544616699e-01" purity="5.1106470823287964e-01" nType="0">
          <Node pos="l" depth="2" NCoef="0" IVar="5" Cut="9.7856964111328125e+01" cType="1" res="-2.1214079111814499e-02" rms="3.9936524629592896e-01" purity="3.1918001174926758e-01" nType="0">
            <Node pos="l" depth="3" NCoef="0" IVar="-1" Cut="0.0000000000000000e+00" cType="1" res="-4.3200209620408714e-04" rms="3.9262279868125916e-01" purity="2.8717368841171265e-01" nType="-99"/>
            <Node pos="r" depth="3" NCoef="0" IVar="-1" Cut="0.0000000000000000e+00" cType="1" res="-2.2870863322168589e-03" rms="4.1893050074577332e-01" purity="4.2759743332862854e-01" nType="-99"/>
          </Node>
          <Node pos="r" depth="2" NCoef="0" IVar="2" Cut="2.9673245239257812e+02" cType="1" res="1.9220413640141487e-02" rms="3.7702170014381409e-01" purity="6.3043600320816040e-01" nType="0">
            <Node pos="l" depth="3" NCoef="0" IVar="-1" Cut="0.0000000000000000e+00" cType="1" res="2.2874148562550545e-03" rms="3.2269951701164246e-01" purity="8.3205771446228027e-01" nType="-99"/>
            <Node pos="r" depth="3" NCoef="0" IVar="-1" Cut="0.0000000000000000e+00" cType="1" res="2.6072334730997682e-04" rms="3.9595404267311096e-01" purity="5.4945325851440430e-01" nType="-99"/>
          </Node>
        </Node>
        <Node pos="r" depth="1" NCoef="0" IVar="0" Cut="1.9537496337890625e+03" cType="1" res="-4.7440823167562485e-02" rms="3.9211383461952209e-01" purity="3.5562017560005188e-01" nType="0">
          <Node pos="l" depth="2" NCoef="0" IVar="-1" Cut="0.0000000000000000e+00" cType="1" res="-1.1075549991801381e-03" rms="3.3404991030693054e-01" purity="1.7208693921566010e-01" nType="-99"/>
          <Node pos="r" depth="2" NCoef="0" IVar="-1" Cut="0.0000000000000000e+00" cType="1" res="-1.5779603563714772e-04" rms="4.3417108058929443e-01" purity="5.2420443296432495e-01" nType="-99"/>
        </Node>
      </Node>
    </BinaryTree>
    <BinaryTree type="DecisionTree" boostWeight="1.0000000000000000e+00" itree="538">
      <Node pos="s" depth="0" NCoef="0" IVar="8" Cut="6.6655004024505615e-01" cType="1" res="4.7281244769692421e-03" rms="3.8776281476020813e-01" purity="5.0104278326034546e-01" nType="0">
        <Node pos="l" depth="1" NCoef="0" IVar="0" Cut="1.9709425048828125e+03" cType="1" res="1.3263674452900887e-02" rms="3.9043357968330383e-01" purity="5.3635323047637939e-01" nType="0">
          <Node pos="l" depth="2" NCoef="0" IVar="2" Cut="5.0752203369140625e+02" cType="1" res="8.8807754218578339e-03" rms="3.8981604576110840e-01" purity="5.1802867650985718e-01" nType="0">
            <Node pos="l" depth="3" NCoef="0" IVar="-1" Cut="0.0000000000000000e+00" cType="1" res="6.8917835596948862e-04" rms="3.9005142450332642e-01" purity="5.5119919776916504e-01" nType="-99"/>
            <Node pos="r" depth="3" NCoef="0" IVar="-1" Cut="0.0000000000000000e+00" cType="1" res="-7.7854463597759604e-04" rms="3.8395681977272034e-01" purity="2.7814441919326782e-01" nType="-99"/>
          </Node>
          <Node pos="r" depth="2" NCoef="0" IVar="3" Cut="3.4236618041992188e+02" cType="1" res="5.3205098956823349e-02" rms="3.9377537369728088e-01" purity="7.0334476232528687e-01" nType="0">
            <Node pos="l" depth="3" NCoef="0" IVar="-1" Cut="0.0000000000000000e+00" cType="1" res="3.3816038630902767e-03" rms="3.6060157418251038e-01" purity="7.8635668754577637e-01" nType="-99"/>
            <Node pos="r" depth="3" NCoef="0" IVar="-1" Cut="0.0000000000000000e+00" cType="1" res="-1.0542455856921151e-04" rms="4.3038335442543030e-01" purity="5.8563584089279175e-01" nType="-99"/>
          </Node>
        </Node>
        <Node pos="r" depth="1" NCoef="0" IVar="7" Cut="-3.9993807673454285e-01" cType="1" res="-1.9193360581994057e-02" rms="3.7915530800819397e-01" purity="4.0208289027214050e-01" nType="0">
          <Node pos="l" depth="2" NCoef="0" IVar="4" Cut="1.2731044769287109e+02" cType="1" res="-4.8442773520946503e-02" rms="3.6111965775489807e-01" purity="3.0830493569374084e-01" nType="0">
            <Node pos="l" depth="3" NCoef="0" IVar="-1" Cut="0.0000000000000000e+00" cType="1" res="-1.3166037388145924e-03" rms="3.5492515563964844e-01" purity="2.3620574176311493e-01" nType="-99"/>
            <Node pos="r" depth="3" NCoef="0" IVar="-1" Cut="0.0000000000000000e+00" cType="1" res="-4.3170014396309853e-03" rms="3.6500015854835510e-01" purity="3.7685957551002502e-01" nType="-99"/>
          </Node>
          <Node pos="r" depth="2" NCoef="0" IVar="7" Cut="5.1426476240158081e-01" cType="1" res="-7.3604928329586983e-03" rms="3.8558259606361389e-01" purity="4.4002079963684082e-01" nType="0">
            <Node pos="l" depth="3" NCoef="0" IVar="-1" Cut="0.0000000000000000e+00" cType="1" res="1.0249364422634244e-03" rms="4.0492364764213562e-01" purity="5.6195747852325439e-01" nType="-99"/>
            <Node pos="r" depth="3" NCoef="0" IVar="-1" Cut="0.0000000000000000e+00" cType="1" res="-2.3261094465851784e-03" rms="3.6252763867378235e-01" purity="3.1936648488044739e-01" nType="-99"/>
          </Node>
        </Node>
      </Node>
    </BinaryTree>
    <BinaryTree type="DecisionTree" boostWeight="1.0000000000000000e+00" itree="539">
      <Node pos="s" depth="0" NCoef="0" IVar="9" Cut="-1.1998630762100220e+00" cType="1" res="2.8262482956051826e-03" rms="3.8754808902740479e-01" purity="5.0046688318252563e-01" nType="0">
        <Node pos="l" depth="1" NCoef="0" IVar="8" Cut="3.9991921186447144e-01" cType="1" res="-3.6310777068138123e-02" rms="3.7020373344421387e-01" purity="3.3290052413940430e-01" nType="0">
          <Node pos="l" depth="2" NCoef="0" IVar="9" Cut="-1.9617363214492798e+00" cType="1" res="-2.2780520841479301e-02" rms="3.7749311327934265e-01" purity="3.6085459589958191e-01" nType="0">
            <Node pos="l" depth="3" NCoef="0" IVar="-1" Cut="0.0000000000000000e+00" cType="1" res="-3.6607543006539345e-03" rms="3.3978784084320068e-01" purity="2.3095417022705078e-01" nType="-99"/>
            <Node pos="r" depth="3" NCoef="0" IVar="-1" Cut="0.0000000000000000e+00" cType="1" res="-4.3803467997349799e-04" rms="3.9161440730094910e-01" purity="4.1630870103836060e-01" nType="-99"/>
          </Node>
          <Node pos="r" depth="2" NCoef="0" IVar="-1" Cut="0.0000000000000000e+00" cType="1" res="-4.7261063009500504e-03" rms="3.4916710853576660e-01" purity="2.6341807842254639e-01" nType="-99"/>
        </Node>
        <Node pos="r" depth="1" NCoef="0" IVar="3" Cut="1.4743023681640625e+02" cType="1" res="9.1444505378603935e-03" rms="3.8990774750709534e-01" purity="5.2751851081848145e-01" nType="0">
          <Node pos="l" depth="2" NCoef="0" IVar="5" Cut="6.8498161315917969e+01" cType="1" res="3.5195842385292053e-02" rms="4.0552222728729248e-01" purity="3.9675459265708923e-01" nType="0">
            <Node pos="l" depth="3" NCoef="0" IVar="-1" Cut="0.0000000000000000e+00" cType="1" res="-1.1037428339477628e-04" rms="3.8170266151428223e-01" purity="2.4919842183589935e-01" nType="-99"/>
            <Node pos="r" depth="3" NCoef="0" IVar="-1" Cut="0.0000000000000000e+00" cType="1" res="1.8956753192469478e-03" rms="4.1373246908187866e-01" purity="4.5594522356987000e-01" nType="-99"/>
          </Node>
          <Node pos="r" depth="2" NCoef="0" IVar="0" Cut="1.1636210937500000e+03" cType="1" res="2.2135123144835234e-03" rms="3.8535058498382568e-01" purity="5.6230801343917847e-01" nType="0">
            <Node pos="l" depth="3" NCoef="0" IVar="-1" Cut="0.0000000000000000e+00" cType="1" res="-1.8548336811363697e-03" rms="4.0355822443962097e-01" purity="2.9505762457847595e-01" nType="-99"/>
            <Node pos="r" depth="3" NCoef="0" IVar="-1" Cut="0.0000000000000000e+00" cType="1" res="3.3352326136082411e-04" rms="3.8195925951004028e-01" purity="6.0370641946792603e-01" nType="-99"/>
          </Node>
        </Node>
      </Node>
    </BinaryTree>
    <BinaryTree type="DecisionTree" boostWeight="1.0000000000000000e+00" itree="540">
      <Node pos="s" depth="0" NCoef="0" IVar="0" Cut="1.4570075683593750e+03" cType="1" res="3.8734816480427980e-03" rms="3.8769844174385071e-01" purity="4.9987438321113586e-01" nType="0">
        <Node pos="l" depth="1" NCoef="0" IVar="2" Cut="2.2761636352539062e+02" cType="1" res="-7.4660857208073139e-03" rms="3.9770850539207458e-01" purity="4.0430131554603577e-01" nType="0">
          <Node pos="l" depth="2" NCoef="0" IVar="-1" Cut="0.0000000000000000e+00" cType="1" res="1.5769564779475331e-03" rms="4.0957063436508179e-01" purity="5.5012720823287964e-01" nType="-99"/>
          <Node pos="r" depth="2" NCoef="0" IVar="0" Cut="1.3007592773437500e+03" cType="1" res="-1.7705528065562248e-02" rms="3.9445936679840088e-01" purity="3.7452074885368347e-01" nType="0">
            <Node pos="l" depth="3" NCoef="0" IVar="-1" Cut="0.0000000000000000e+00" cType="1" res="-1.3365522027015686e-03" rms="3.9121913909912109e-01" purity="3.0867931246757507e-01" nType="-99"/>
            <Node pos="r" depth="3" NCoef="0" IVar="-1" Cut="0.0000000000000000e+00" cType="1" res="3.2810491393320262e-04" rms="3.9977350831031799e-01" purity="5.0749069452285767e-01" nType="-99"/>
          </Node>
        </Node>
        <Node pos="r" depth="1" NCoef="0" IVar="3" Cut="2.4670126342773438e+02" cType="1" res="2.0259151235222816e-02" rms="3.7214943766593933e-01" purity="6.3797754049301147e-01" nType="0">
          <Node pos="l" depth="2" NCoef="0" IVar="2" Cut="4.5790087890625000e+02" cType="1" res="4.8027552664279938e-02" rms="3.4902560710906982e-01" purity="7.1179580688476562e-01" nType="0">
            <Node pos="l" depth="3" NCoef="0" IVar="-1" Cut="0.0000000000000000e+00" cType="1" res="3.0611918773502111e-03" rms="2.9977157711982727e-01" purity="8.6713713407516479e-01" nType="-99"/>
            <Node pos="r" depth="3" NCoef="0" IVar="-1" Cut="0.0000000000000000e+00" cType="1" res="7.8049238072708249e-04" rms="4.0914955735206604e-01" purity="4.8283883929252625e-01" nType="-99"/>
          </Node>
          <Node pos="r" depth="2" NCoef="0" IVar="7" Cut="9.3381804227828979e-01" cType="1" res="-4.8332256264984608e-03" rms="3.9017698168754578e-01" purity="5.7127308845520020e-01" nType="0">
            <Node pos="l" depth="3" NCoef="0" IVar="-1" Cut="0.0000000000000000e+00" cType="1" res="2.6200248976238072e-04" rms="3.9305129647254944e-01" purity="6.1184257268905640e-01" nType="-99"/>
            <Node pos="r" depth="3" NCoef="0" IVar="-1" Cut="0.0000000000000000e+00" cType="1" res="-5.7345037348568439e-03" rms="3.6316636204719543e-01" purity="3.0453157424926758e-01" nType="-99"/>
          </Node>
        </Node>
      </Node>
    </BinaryTree>
    <BinaryTree type="DecisionTree" boostWeight="1.0000000000000000e+00" itree="541">
      <Node pos="s" depth="0" NCoef="0" IVar="0" Cut="1.1148408203125000e+03" cType="1" res="-3.5809259861707687e-04" rms="3.8689735531806946e-01" purity="4.9771749973297119e-01" nType="0">
        <Node pos="l" depth="1" NCoef="0" IVar="2" Cut="2.5038038635253906e+02" cType="1" res="-3.0671525746583939e-02" rms="3.8834509253501892e-01" purity="2.4986389279365540e-01" nType="0">
          <Node pos="l" depth="2" NCoef="0" IVar="-1" Cut="0.0000000000000000e+00" cType="1" res="-9.5501804025843740e-05" rms="4.2328152060508728e-01" purity="3.4505745768547058e-01" nType="-99"/>
          <Node pos="r" depth="2" NCoef="0" IVar="-1" Cut="0.0000000000000000e+00" cType="1" res="-3.3180003520101309e-03" rms="3.5199159383773804e-01" purity="1.6413888335227966e-01" nType="-99"/>
        </Node>
        <Node pos="r" depth="1" NCoef="0" IVar="3" Cut="1.5011491394042969e+02" cType="1" res="6.5049054101109505e-03" rms="3.8623869419097900e-01" purity="5.5383193492889404e-01" nType="0">
          <Node pos="l" depth="2" NCoef="0" IVar="0" Cut="1.3458616943359375e+03" cType="1" res="4.6577129513025284e-02" rms="4.0639063715934753e-01" purity="4.6850889921188354e-01" nType="0">
            <Node pos="l" depth="3" NCoef="0" IVar="-1" Cut="0.0000000000000000e+00" cType="1" res="1.2545764911919832e-03" rms="4.0312966704368591e-01" purity="4.2159232497215271e-01" nType="-99"/>
            <Node pos="r" depth="3" NCoef="0" IVar="-1" Cut="0.0000000000000000e+00" cType="1" res="2.8306697495281696e-03" rms="4.1110754013061523e-01" purity="5.5707573890686035e-01" nType="-99"/>
          </Node>
          <Node pos="r" depth="2" NCoef="0" IVar="6" Cut="-5.8464103937149048e-01" cType="1" res="-2.6419033019919880e-05" rms="3.8245588541030884e-01" purity="5.6773859262466431e-01" nType="0">
            <Node pos="l" depth="3" NCoef="0" IVar="-1" Cut="0.0000000000000000e+00" cType="1" res="-1.3917991891503334e-03" rms="3.8067084550857544e-01" purity="4.6084687113761902e-01" nType="-99"/>
            <Node pos="r" depth="3" NCoef="0" IVar="-1" Cut="0.0000000000000000e+00" cType="1" res="4.2359350482001901e-04" rms="3.8259217143058777e-01" purity="6.0402864217758179e-01" nType="-99"/>
          </Node>
        </Node>
      </Node>
    </BinaryTree>
    <BinaryTree type="DecisionTree" boostWeight="1.0000000000000000e+00" itree="542">
      <Node pos="s" depth="0" NCoef="0" IVar="7" Cut="-1.4665675163269043e+00" cType="1" res="4.8758564516901970e-03" rms="3.8921040296554565e-01" purity="4.9762076139450073e-01" nType="0">
        <Node pos="l" depth="1" NCoef="0" IVar="4" Cut="1.2600614929199219e+02" cType="1" res="-3.5453669726848602e-02" rms="3.3672773838043213e-01" purity="2.0574249327182770e-01" nType="0">
          <Node pos="l" depth="2" NCoef="0" IVar="-1" Cut="0.0000000000000000e+00" cType="1" res="-4.2820087401196361e-04" rms="3.2480275630950928e-01" purity="1.5908057987689972e-01" nType="-99"/>
          <Node pos="r" depth="2" NCoef="0" IVar="-1" Cut="0.0000000000000000e+00" cType="1" res="-4.1392967104911804e-03" rms="3.4633165597915649e-01" purity="2.5698229670524597e-01" nType="-99"/>
        </Node>
        <Node pos="r" depth="1" NCoef="0" IVar="7" Cut="9.7146886587142944e-01" cType="1" res="8.3455992862582207e-03" rms="3.9320555329322815e-01" purity="5.2273243665695190e-01" nType="0">
          <Node pos="l" depth="2" NCoef="0" IVar="6" Cut="-6.5971612930297852e-01" cType="1" res="1.4804491773247719e-02" rms="3.9924630522727966e-01" purity="5.6982010602951050e-01" nType="0">
            <Node pos="l" depth="3" NCoef="0" IVar="-1" Cut="0.0000000000000000e+00" cType="1" res="-5.0976045895367861e-04" rms="3.9800408482551575e-01" purity="4.3995094299316406e-01" nType="-99"/>
            <Node pos="r" depth="3" NCoef="0" IVar="-1" Cut="0.0000000000000000e+00" cType="1" res="9.0680987341329455e-04" rms="3.9929205179214478e-01" purity="6.0740649700164795e-01" nType="-99"/>
          </Node>
          <Node pos="r" depth="2" NCoef="0" IVar="8" Cut="-6.6661393642425537e-01" cType="1" res="-2.0913202315568924e-02" rms="3.6315342783927917e-01" purity="3.0942532420158386e-01" nType="0">
            <Node pos="l" depth="3" NCoef="0" IVar="-1" Cut="0.0000000000000000e+00" cType="1" res="-4.5998473651707172e-03" rms="3.2377302646636963e-01" purity="2.0185953378677368e-01" nType="-99"/>
            <Node pos="r" depth="3" NCoef="0" IVar="-1" Cut="0.0000000000000000e+00" cType="1" res="-5.4063077550381422e-04" rms="3.7332484126091003e-01" purity="3.4127563238143921e-01" nType="-99"/>
          </Node>
        </Node>
      </Node>
    </BinaryTree>
    <BinaryTree type="DecisionTree" boostWeight="1.0000000000000000e+00" itree="543">
      <Node pos="s" depth="0" NCoef="0" IVar="0" Cut="1.1315646972656250e+03" cType="1" res="1.8742108950391412e-03" rms="3.8798391819000244e-01" purity="4.9781656265258789e-01" nType="0">
        <Node pos="l" depth="1" NCoef="0" IVar="0" Cut="1.0210571289062500e+03" cType="1" res="-2.6976972818374634e-02" rms="3.9175847172737122e-01" purity="2.5052368640899658e-01" nType="0">
          <Node pos="l" depth="2" NCoef="0" IVar="-1" Cut="0.0000000000000000e+00" cType="1" res="-2.4397741071879864e-03" rms="3.7971177697181702e-01" purity="2.0856973528862000e-01" nType="-99"/>
          <Node pos="r" depth="2" NCoef="0" IVar="0" Cut="1.0789472656250000e+03" cType="1" res="-1.0813058353960514e-02" rms="4.0047326683998108e-01" purity="2.8433361649513245e-01" nType="0">
            <Node pos="l" depth="3" NCoef="0" IVar="-1" Cut="0.0000000000000000e+00" cType="1" res="-8.3581422222778201e-04" rms="3.9325815439224243e-01" purity="2.6625192165374756e-01" nType="-99"/>
            <Node pos="r" depth="3" NCoef="0" IVar="-1" Cut="0.0000000000000000e+00" cType="1" res="-2.0018662326037884e-04" rms="4.0704849362373352e-01" purity="3.0134540796279907e-01" nType="-99"/>
          </Node>
        </Node>
        <Node pos="r" depth="1" NCoef="0" IVar="3" Cut="1.4743023681640625e+02" cType="1" res="9.2924525961279869e-03" rms="3.8665968179702759e-01" purity="5.6140077114105225e-01" nType="0">
          <Node pos="l" depth="2" NCoef="0" IVar="0" Cut="1.3293005371093750e+03" cType="1" res="5.3177893161773682e-02" rms="4.0713298320770264e-01" purity="4.9152997136116028e-01" nType="0">
            <Node pos="l" depth="3" NCoef="0" IVar="-1" Cut="0.0000000000000000e+00" cType="1" res="1.1473341146484017e-03" rms="4.0712079405784607e-01" purity="4.3334013223648071e-01" nType="-99"/>
            <Node pos="r" depth="3" NCoef="0" IVar="-1" Cut="0.0000000000000000e+00" cType="1" res="3.2608928158879280e-03" rms="4.0467789769172668e-01" purity="5.7689297199249268e-01" nType="-99"/>
          </Node>
          <Node pos="r" depth="2" NCoef="0" IVar="2" Cut="8.1618389892578125e+02" cType="1" res="3.1696106307208538e-03" rms="3.8331726193428040e-01" purity="5.7114905118942261e-01" nType="0">
            <Node pos="l" depth="3" NCoef="0" IVar="-1" Cut="0.0000000000000000e+00" cType="1" res="3.1125466921366751e-04" rms="3.8148465752601624e-01" purity="5.7769060134887695e-01" nType="-99"/>
            <Node pos="r" depth="3" NCoef="0" IVar="-1" Cut="0.0000000000000000e+00" cType="1" res="-6.1462831217795610e-04" rms="4.1584214568138123e-01" purity="4.0831065177917480e-01" nType="-99"/>
          </Node>
        </Node>
      </Node>
    </BinaryTree>
    <BinaryTree type="DecisionTree" boostWeight="1.0000000000000000e+00" itree="544">
      <Node pos="s" depth="0" NCoef="0" IVar="2" Cut="6.0625183105468750e+02" cType="1" res="1.9814961124211550e-03" rms="3.8861098885536194e-01" purity="4.9820944666862488e-01" nType="0">
        <Node pos="l" depth="1" NCoef="0" IVar="0" Cut="1.7030451660156250e+03" cType="1" res="7.1076806634664536e-03" rms="3.8825476169586182e-01" purity="5.1251810789108276e-01" nType="0">
          <Node pos="l" depth="2" NCoef="0" IVar="3" Cut="2.0023133850097656e+02" cType="1" res="-5.2395061356946826e-04" rms="3.9445945620536804e-01" purity="4.6664050221443176e-01" nType="0">
            <Node pos="l" depth="3" NCoef="0" IVar="-1" Cut="0.0000000000000000e+00" cType="1" res="6.5352767705917358e-04" rms="3.9505907893180847e-01" purity="4.4444817304611206e-01" nType="-99"/>
            <Node pos="r" depth="3" NCoef="0" IVar="-1" Cut="0.0000000000000000e+00" cType="1" res="-1.2022677110508084e-03" rms="3.9233338832855225e-01" purity="5.0034630298614502e-01" nType="-99"/>
          </Node>
          <Node pos="r" depth="2" NCoef="0" IVar="2" Cut="4.5163562011718750e+02" cType="1" res="5.0099704414606094e-02" rms="3.4814772009849548e-01" purity="7.7096503973007202e-01" nType="0">
            <Node pos="l" depth="3" NCoef="0" IVar="-1" Cut="0.0000000000000000e+00" cType="1" res="3.1185057014226913e-03" rms="2.9929703474044800e-01" purity="8.6717075109481812e-01" nType="-99"/>
            <Node pos="r" depth="3" NCoef="0" IVar="-1" Cut="0.0000000000000000e+00" cType="1" res="7.4873858829960227e-04" rms="4.0707299113273621e-01" purity="6.3042521476745605e-01" nType="-99"/>
          </Node>
        </Node>
        <Node pos="r" depth="1" NCoef="0" IVar="1" Cut="6.3030322265625000e+02" cType="1" res="-4.7272790223360062e-02" rms="3.8858577609062195e-01" purity="3.6072638630867004e-01" nType="0">
          <Node pos="l" depth="2" NCoef="0" IVar="2" Cut="6.9160656738281250e+02" cType="1" res="-7.6639354228973389e-02" rms="3.6375677585601807e-01" purity="2.2752615809440613e-01" nType="0">
            <Node pos="l" depth="3" NCoef="0" IVar="-1" Cut="0.0000000000000000e+00" cType="1" res="-1.3768451754003763e-03" rms="3.6848148703575134e-01" purity="2.6572254300117493e-01" nType="-99"/>
            <Node pos="r" depth="3" NCoef="0" IVar="-1" Cut="0.0000000000000000e+00" cType="1" res="-1.1590007925406098e-03" rms="3.5050001740455627e-01" purity="1.9161033630371094e-01" nType="-99"/>
          </Node>
          <Node pos="r" depth="2" NCoef="0" IVar="-1" Cut="0.0000000000000000e+00" cType="1" res="4.3391023064032197e-04" rms="4.2812380194664001e-01" purity="6.2810629606246948e-01" nType="-99"/>
        </Node>
      </Node>
    </BinaryTree>
    <BinaryTree type="DecisionTree" boostWeight="1.0000000000000000e+00" itree="545">
      <Node pos="s" depth="0" NCoef="0" IVar="6" Cut="1.4724397659301758e+00" cType="1" res="-5.9202854754403234e-04" rms="3.8741689920425415e-01" purity="4.9443894624710083e-01" nType="0">
        <Node pos="l" depth="1" NCoef="0" IVar="6" Cut="-5.5002623796463013e-01" cType="1" res="3.1590706203132868e-03" rms="3.9095458388328552e-01" purity="5.1556384563446045e-01" nType="0">
          <Node pos="l" depth="2" NCoef="0" IVar="7" Cut="3.9986100792884827e-01" cType="1" res="-2.3197852075099945e-02" rms="3.7942805886268616e-01" purity="3.8811379671096802e-01" nType="0">
            <Node pos="l" depth="3" NCoef="0" IVar="-1" Cut="0.0000000000000000e+00" cType="1" res="-3.9469471084885299e-04" rms="3.8684770464897156e-01" purity="4.3320223689079285e-01" nType="-99"/>
            <Node pos="r" depth="3" NCoef="0" IVar="-1" Cut="0.0000000000000000e+00" cType="1" res="-3.4132471773773432e-03" rms="3.6054208874702454e-01" purity="2.8962954878807068e-01" nType="-99"/>
          </Node>
          <Node pos="r" depth="2" NCoef="0" IVar="7" Cut="-1.7330629825592041e+00" cType="1" res="1.4255594462156296e-02" rms="3.9518144726753235e-01" purity="5.6922155618667603e-01" nType="0">
            <Node pos="l" depth="3" NCoef="0" IVar="-1" Cut="0.0000000000000000e+00" cType="1" res="-4.5520747080445290e-03" rms="3.1920245289802551e-01" purity="1.9671830534934998e-01" nType="-99"/>
            <Node pos="r" depth="3" NCoef="0" IVar="-1" Cut="0.0000000000000000e+00" cType="1" res="7.5681769521906972e-04" rms="3.9795556664466858e-01" purity="5.8647239208221436e-01" nType="-99"/>
          </Node>
        </Node>
        <Node pos="r" depth="1" NCoef="0" IVar="7" Cut="3.9999821782112122e-01" cType="1" res="-5.3298197686672211e-02" rms="3.2928019762039185e-01" purity="1.9761629402637482e-01" nType="0">
          <Node pos="l" depth="2" NCoef="0" IVar="-1" Cut="0.0000000000000000e+00" cType="1" res="-2.5975592434406281e-03" rms="3.5407489538192749e-01" purity="2.3055571317672729e-01" nType="-99"/>
          <Node pos="r" depth="2" NCoef="0" IVar="-1" Cut="0.0000000000000000e+00" cType="1" res="-6.2135900370776653e-03" rms="2.8391656279563904e-01" purity="1.4564244449138641e-01" nType="-99"/>
        </Node>
      </Node>
    </BinaryTree>
    <BinaryTree type="DecisionTree" boostWeight="1.0000000000000000e+00" itree="546">
      <Node pos="s" depth="0" NCoef="0" IVar="6" Cut="1.2030272483825684e+00" cType="1" res="8.6509465472772717e-04" rms="3.8633063435554504e-01" purity="4.9658375978469849e-01" nType="0">
        <Node pos="l" depth="1" NCoef="0" IVar="6" Cut="-6.9776654243469238e-01" cType="1" res="5.3122830577194691e-03" rms="3.9044278860092163e-01" purity="5.2664703130722046e-01" nType="0">
          <Node pos="l" depth="2" NCoef="0" IVar="4" Cut="1.3491131591796875e+02" cType="1" res="-2.1414864808320999e-02" rms="3.7510928511619568e-01" purity="3.6550703644752502e-01" nType="0">
            <Node pos="l" depth="3" NCoef="0" IVar="-1" Cut="0.0000000000000000e+00" cType="1" res="-3.1648298318032175e-05" rms="3.7036785483360291e-01" purity="2.8107377886772156e-01" nType="-99"/>
            <Node pos="r" depth="3" NCoef="0" IVar="-1" Cut="0.0000000000000000e+00" cType="1" res="-2.1460752468556166e-03" rms="3.7876531481742859e-01" purity="4.5340481400489807e-01" nType="-99"/>
          </Node>
          <Node pos="r" depth="2" NCoef="0" IVar="6" Cut="5.6941044330596924e-01" cType="1" res="1.4381065033376217e-02" rms="3.9509993791580200e-01" purity="5.8132338523864746e-01" nType="0">
            <Node pos="l" depth="3" NCoef="0" IVar="-1" Cut="0.0000000000000000e+00" cType="1" res="9.1449776664376259e-04" rms="3.9314886927604675e-01" purity="6.1359977722167969e-01" nType="-99"/>
            <Node pos="r" depth="3" NCoef="0" IVar="-1" Cut="0.0000000000000000e+00" cType="1" res="-4.2882090201601386e-04" rms="4.0009003877639771e-01" purity="4.8210912942886353e-01" nType="-99"/>
          </Node>
        </Node>
        <Node pos="r" depth="1" NCoef="0" IVar="3" Cut="1.7848181152343750e+02" cType="1" res="-3.5918146371841431e-02" rms="3.4830299019813538e-01" purity="2.4792668223381042e-01" nType="0">
          <Node pos="l" depth="2" NCoef="0" IVar="-1" Cut="0.0000000000000000e+00" cType="1" res="-1.4702107000630349e-04" rms="3.4171259403228760e-01" purity="2.1667911112308502e-01" nType="-99"/>
          <Node pos="r" depth="2" NCoef="0" IVar="9" Cut="1.3344509899616241e-01" cType="1" res="-6.2987141311168671e-02" rms="3.5120278596878052e-01" purity="2.7313959598541260e-01" nType="0">
            <Node pos="l" depth="3" NCoef="0" IVar="-1" Cut="0.0000000000000000e+00" cType="1" res="-2.0444053225219250e-03" rms="3.6044308543205261e-01" purity="3.1841844320297241e-01" nType="-99"/>
            <Node pos="r" depth="3" NCoef="0" IVar="-1" Cut="0.0000000000000000e+00" cType="1" res="-6.3206953927874565e-03" rms="3.3917501568794250e-01" purity="2.2527523338794708e-01" nType="-99"/>
          </Node>
        </Node>
      </Node>
    </BinaryTree>
    <BinaryTree type="DecisionTree" boostWeight="1.0000000000000000e+00" itree="547">
      <Node pos="s" depth="0" NCoef="0" IVar="2" Cut="8.0938195800781250e+02" cType="1" res="3.2791497651487589e-03" rms="3.8922742009162903e-01" purity="4.9938791990280151e-01" nType="0">
        <Node pos="l" depth="1" NCoef="0" IVar="0" Cut="1.9058825683593750e+03" cType="1" res="6.3489833846688271e-03" rms="3.8819923996925354e-01" purity="5.0256335735321045e-01" nType="0">
          <Node pos="l" depth="2" NCoef="0" IVar="2" Cut="2.8706134033203125e+02" cType="1" res="1.3016895391047001e-03" rms="3.8924869894981384e-01" purity="4.8079806566238403e-01" nType="0">
            <Node pos="l" depth="3" NCoef="0" IVar="-1" Cut="0.0000000000000000e+00" cType="1" res="9.7836926579475403e-04" rms="3.8728111982345581e-01" purity="5.7797735929489136e-01" nType="-99"/>
            <Node pos="r" depth="3" NCoef="0" IVar="-1" Cut="0.0000000000000000e+00" cType="1" res="-6.3782243523746729e-04" rms="3.8983887434005737e-01" purity="4.1921788454055786e-01" nType="-99"/>
          </Node>
          <Node pos="r" depth="2" NCoef="0" IVar="3" Cut="3.1145327758789062e+02" cType="1" res="5.7123377919197083e-02" rms="3.7370631098747253e-01" purity="7.2151690721511841e-01" nType="0">
            <Node pos="l" depth="3" NCoef="0" IVar="-1" Cut="0.0000000000000000e+00" cType="1" res="3.6118491552770138e-03" rms="3.4114953875541687e-01" purity="8.1596660614013672e-01" nType="-99"/>
            <Node pos="r" depth="3" NCoef="0" IVar="-1" Cut="0.0000000000000000e+00" cType="1" res="9.3254848616197705e-04" rms="3.9976033568382263e-01" purity="6.2998735904693604e-01" nType="-99"/>
          </Node>
        </Node>
        <Node pos="r" depth="1" NCoef="0" IVar="-1" Cut="0.0000000000000000e+00" cType="1" res="-3.9243290666490793e-04" rms="4.0854281187057495e-01" purity="4.0128466486930847e-01" nType="-99"/>
      </Node>
    </BinaryTree>
    <BinaryTree type="DecisionTree" boostWeight="1.0000000000000000e+00" itree="548">
      <Node pos="s" depth="0" NCoef="0" IVar="0" Cut="1.4375306396484375e+03" cType="1" res="3.2529849559068680e-03" rms="3.8725313544273376e-01" purity="4.9857455492019653e-01" nType="0">
        <Node pos="l" depth="1" NCoef="0" IVar="2" Cut="2.5508816528320312e+02" cType="1" res="-9.7349649295210838e-03" rms="3.9665198326110840e-01" purity="3.9388492703437805e-01" nType="0">
          <Node pos="l" depth="2" NCoef="0" IVar="0" Cut="1.1338831787109375e+03" cType="1" res="2.1073300391435623e-02" rms="4.0735572576522827e-01" purity="5.2538770437240601e-01" nType="0">
            <Node pos="l" depth="3" NCoef="0" IVar="-1" Cut="0.0000000000000000e+00" cType="1" res="-2.8967912658117712e-04" rms="4.2929428815841675e-01" purity="3.4146597981452942e-01" nType="-99"/>
            <Node pos="r" depth="3" NCoef="0" IVar="-1" Cut="0.0000000000000000e+00" cType="1" res="1.9999300129711628e-03" rms="3.7721779942512512e-01" purity="7.4105960130691528e-01" nType="-99"/>
          </Node>
          <Node pos="r" depth="2" NCoef="0" IVar="5" Cut="1.2191246032714844e+02" cType="1" res="-2.5480635464191437e-02" rms="3.9013001322746277e-01" purity="3.2667577266693115e-01" nType="0">
            <Node pos="l" depth="3" NCoef="0" IVar="-1" Cut="0.0000000000000000e+00" cType="1" res="-8.2989409565925598e-04" rms="3.8683998584747314e-01" purity="3.0724486708641052e-01" nType="-99"/>
            <Node pos="r" depth="3" NCoef="0" IVar="-1" Cut="0.0000000000000000e+00" cType="1" res="-4.0370118804275990e-03" rms="4.0883612632751465e-01" purity="4.7652852535247803e-01" nType="-99"/>
          </Node>
        </Node>
        <Node pos="r" depth="1" NCoef="0" IVar="2" Cut="5.0815478515625000e+02" cType="1" res="1.9985701888799667e-02" rms="3.7413305044174194e-01" purity="6.3344889879226685e-01" nType="0">
          <Node pos="l" depth="2" NCoef="0" IVar="4" Cut="2.0064637756347656e+02" cType="1" res="4.0033753961324692e-02" rms="3.5329934954643250e-01" purity="7.5246137380599976e-01" nType="0">
            <Node pos="l" depth="3" NCoef="0" IVar="-1" Cut="0.0000000000000000e+00" cType="1" res="2.5253617204725742e-03" rms="3.4523758292198181e-01" purity="7.7475678920745850e-01" nType="-99"/>
            <Node pos="r" depth="3" NCoef="0" IVar="-1" Cut="0.0000000000000000e+00" cType="1" res="4.0308421012014151e-04" rms="3.6498180031776428e-01" purity="7.1322363615036011e-01" nType="-99"/>
          </Node>
          <Node pos="r" depth="2" NCoef="0" IVar="1" Cut="4.2405862426757812e+02" cType="1" res="-1.6784155741333961e-02" rms="4.0704071521759033e-01" purity="4.1516980528831482e-01" nType="0">
            <Node pos="l" depth="3" NCoef="0" IVar="-1" Cut="0.0000000000000000e+00" cType="1" res="-7.6469086343422532e-04" rms="3.4915110468864441e-01" purity="2.0596781373023987e-01" nType="-99"/>
            <Node pos="r" depth="3" NCoef="0" IVar="-1" Cut="0.0000000000000000e+00" cType="1" res="1.4312670100480318e-04" rms="4.2963352799415588e-01" purity="5.1171308755874634e-01" nType="-99"/>
          </Node>
        </Node>
      </Node>
    </BinaryTree>
    <BinaryTree type="DecisionTree" boostWeight="1.0000000000000000e+00" itree="549">
      <Node pos="s" depth="0" NCoef="0" IVar="6" Cut="-9.0284895896911621e-01" cType="1" res="-2.4182957713492215e-04" rms="3.8697543740272522e-01" purity="4.9466687440872192e-01" nType="0">
        <Node pos="l" depth="1" NCoef="0" IVar="3" Cut="1.8709155273437500e+02" cType="1" res="-2.8823249042034149e-02" rms="3.6054655909538269e-01" purity="3.0928164720535278e-01" nType="0">
          <Node pos="l" depth="2" NCoef="0" IVar="3" Cut="1.4305506896972656e+02" cType="1" res="-2.7944697067141533e-03" rms="3.6171850562095642e-01" purity="2.6601779460906982e-01" nType="0">
            <Node pos="l" depth="3" NCoef="0" IVar="-1" Cut="0.0000000000000000e+00" cType="1" res="1.3400310417637229e-03" rms="3.5708743333816528e-01" purity="2.2107505798339844e-01" nType="-99"/>
            <Node pos="r" depth="3" NCoef="0" IVar="-1" Cut="0.0000000000000000e+00" cType="1" res="-1.1835976038128138e-03" rms="3.6460164189338684e-01" purity="3.0796647071838379e-01" nType="-99"/>
          </Node>
          <Node pos="r" depth="2" NCoef="0" IVar="0" Cut="1.6516362304687500e+03" cType="1" res="-5.1849886775016785e-02" rms="3.5793218016624451e-01" purity="3.4755539894104004e-01" nType="0">
            <Node pos="l" depth="3" NCoef="0" IVar="-1" Cut="0.0000000000000000e+00" cType="1" res="-5.1324223168194294e-03" rms="3.3526268601417542e-01" purity="2.6292803883552551e-01" nType="-99"/>
            <Node pos="r" depth="3" NCoef="0" IVar="-1" Cut="0.0000000000000000e+00" cType="1" res="2.9981072293594480e-04" rms="3.9257651567459106e-01" purity="5.1534777879714966e-01" nType="-99"/>
          </Node>
        </Node>
        <Node pos="r" depth="1" NCoef="0" IVar="6" Cut="5.0762176513671875e-01" cType="1" res="5.5214110761880875e-03" rms="3.9183637499809265e-01" purity="5.3204846382141113e-01" nType="0">
          <Node pos="l" depth="2" NCoef="0" IVar="6" Cut="-1.6404664516448975e-01" cType="1" res="1.6130739822983742e-02" rms="3.9503392577171326e-01" purity="6.0319477319717407e-01" nType="0">
            <Node pos="l" depth="3" NCoef="0" IVar="-1" Cut="0.0000000000000000e+00" cType="1" res="-1.4836173249932472e-05" rms="3.9942893385887146e-01" purity="5.6868278980255127e-01" nType="-99"/>
            <Node pos="r" depth="3" NCoef="0" IVar="-1" Cut="0.0000000000000000e+00" cType="1" res="1.2922738678753376e-03" rms="3.9033967256546021e-01" purity="6.3490277528762817e-01" nType="-99"/>
          </Node>
          <Node pos="r" depth="2" NCoef="0" IVar="9" Cut="-6.6664284467697144e-01" cType="1" res="-1.3626893050968647e-02" rms="3.8525944948196411e-01" purity="4.0363976359367371e-01" nType="0">
            <Node pos="l" depth="3" NCoef="0" IVar="-1" Cut="0.0000000000000000e+00" cType="1" res="-2.7982131578028202e-03" rms="3.7275275588035583e-01" purity="3.0936807394027710e-01" nType="-99"/>
            <Node pos="r" depth="3" NCoef="0" IVar="-1" Cut="0.0000000000000000e+00" cType="1" res="-1.7078277596738189e-04" rms="3.8844332098960876e-01" purity="4.3223714828491211e-01" nType="-99"/>
          </Node>
        </Node>
      </Node>
    </BinaryTree>
    <BinaryTree type="DecisionTree" boostWeight="1.0000000000000000e+00" itree="550">
      <Node pos="s" depth="0" NCoef="0" IVar="6" Cut="6.7084026336669922e-01" cType="1" res="5.6413337588310242e-03" rms="3.9022094011306763e-01" purity="5.0108438730239868e-01" nType="0">
        <Node pos="l" depth="1" NCoef="0" IVar="2" Cut="3.4279647827148438e+02" cType="1" res="1.3591535389423370e-02" rms="3.9125251770019531e-01" purity="5.4369574785232544e-01" nType="0">
          <Node pos="l" depth="2" NCoef="0" IVar="0" Cut="9.9219573974609375e+02" cType="1" res="2.7010096237063408e-02" rms="3.8628190755844116e-01" purity="6.1099517345428467e-01" nType="0">
            <Node pos="l" depth="3" NCoef="0" IVar="-1" Cut="0.0000000000000000e+00" cType="1" res="-1.2684355024248362e-03" rms="4.0806901454925537e-01" purity="2.5673964619636536e-01" nType="-99"/>
            <Node pos="r" depth="3" NCoef="0" IVar="-1" Cut="0.0000000000000000e+00" cType="1" res="1.3739321148023009e-03" rms="3.8277381658554077e-01" purity="6.5735155344009399e-01" nType="-99"/>
          </Node>
          <Node pos="r" depth="2" NCoef="0" IVar="0" Cut="1.7800256347656250e+03" cType="1" res="-1.3932902365922928e-03" rms="3.9619296789169312e-01" purity="4.6854084730148315e-01" nType="0">
            <Node pos="l" depth="3" NCoef="0" IVar="-1" Cut="0.0000000000000000e+00" cType="1" res="-7.8654824756085873e-04" rms="3.9418289065361023e-01" purity="3.8568410277366638e-01" nType="-99"/>
            <Node pos="r" depth="3" NCoef="0" IVar="-1" Cut="0.0000000000000000e+00" cType="1" res="1.2476326664909720e-03" rms="3.9884638786315918e-01" purity="6.5167868137359619e-01" nType="-99"/>
          </Node>
        </Node>
        <Node pos="r" depth="1" NCoef="0" IVar="3" Cut="1.9968070983886719e+02" cType="1" res="-2.0228387787938118e-02" rms="3.8571259379386902e-01" purity="3.6242842674255371e-01" nType="0">
          <Node pos="l" depth="2" NCoef="0" IVar="8" Cut="6.6607838869094849e-01" cType="1" res="3.8454872556030750e-03" rms="3.8643100857734680e-01" purity="3.3843779563903809e-01" nType="0">
            <Node pos="l" depth="3" NCoef="0" IVar="-1" Cut="0.0000000000000000e+00" cType="1" res="1.1380687355995178e-03" rms="4.0097224712371826e-01" purity="3.8809889554977417e-01" nType="-99"/>
            <Node pos="r" depth="3" NCoef="0" IVar="-1" Cut="0.0000000000000000e+00" cType="1" res="-2.6004756800830364e-03" rms="3.5032218694686890e-01" purity="2.3840597271919250e-01" nType="-99"/>
          </Node>
          <Node pos="r" depth="2" NCoef="0" IVar="0" Cut="1.5948162841796875e+03" cType="1" res="-4.8460345715284348e-02" rms="3.8294512033462524e-01" purity="3.9056274294853210e-01" nType="0">
            <Node pos="l" depth="3" NCoef="0" IVar="-1" Cut="0.0000000000000000e+00" cType="1" res="-4.5212861150503159e-03" rms="3.7153413891792297e-01" purity="2.9619160294532776e-01" nType="-99"/>
            <Node pos="r" depth="3" NCoef="0" IVar="-1" Cut="0.0000000000000000e+00" cType="1" res="-8.0573518062010407e-04" rms="3.9443665742874146e-01" purity="5.0909888744354248e-01" nType="-99"/>
          </Node>
        </Node>
      </Node>
    </BinaryTree>
    <BinaryTree type="DecisionTree" boostWeight="1.0000000000000000e+00" itree="551">
      <Node pos="s" depth="0" NCoef="0" IVar="0" Cut="1.5806253662109375e+03" cType="1" res="2.4146926589310169e-03" rms="3.8868042826652527e-01" purity="4.9793940782546997e-01" nType="0">
        <Node pos="l" depth="1" NCoef="0" IVar="4" Cut="1.9797254943847656e+02" cType="1" res="-6.6063976846635342e-03" rms="3.9507049322128296e-01" purity="4.3164396286010742e-01" nType="0">
          <Node pos="l" depth="2" NCoef="0" IVar="2" Cut="4.9179174804687500e+02" cType="1" res="-1.2094230623915792e-03" rms="3.9479941129684448e-01" purity="4.2966157197952271e-01" nType="0">
            <Node pos="l" depth="3" NCoef="0" IVar="-1" Cut="0.0000000000000000e+00" cType="1" res="1.6192224575206637e-04" rms="3.9989012479782104e-01" purity="4.5433041453361511e-01" nType="-99"/>
            <Node pos="r" depth="3" NCoef="0" IVar="-1" Cut="0.0000000000000000e+00" cType="1" res="-5.1277503371238708e-03" rms="3.2602727413177490e-01" purity="1.4887638390064240e-01" nType="-99"/>
          </Node>
          <Node pos="r" depth="2" NCoef="0" IVar="-1" Cut="0.0000000000000000e+00" cType="1" res="-4.6931118704378605e-03" rms="3.8973414897918701e-01" purity="4.6252903342247009e-01" nType="-99"/>
        </Node>
        <Node pos="r" depth="1" NCoef="0" IVar="2" Cut="6.0657928466796875e+02" cType="1" res="2.3778913542628288e-02" rms="3.7224000692367554e-01" purity="6.5494382381439209e-01" nType="0">
          <Node pos="l" depth="2" NCoef="0" IVar="3" Cut="3.1856326293945312e+02" cType="1" res="4.0653862059116364e-02" rms="3.5435381531715393e-01" purity="7.4414610862731934e-01" nType="0">
            <Node pos="l" depth="3" NCoef="0" IVar="-1" Cut="0.0000000000000000e+00" cType="1" res="2.5524238590151072e-03" rms="3.3191335201263428e-01" purity="8.0628383159637451e-01" nType="-99"/>
            <Node pos="r" depth="3" NCoef="0" IVar="-1" Cut="0.0000000000000000e+00" cType="1" res="-2.8732736245729029e-04" rms="4.0736976265907288e-01" purity="5.6921476125717163e-01" nType="-99"/>
          </Node>
          <Node pos="r" depth="2" NCoef="0" IVar="0" Cut="2.2868820800781250e+03" cType="1" res="-1.9801216199994087e-02" rms="4.1169232130050659e-01" purity="4.2457586526870728e-01" nType="0">
            <Node pos="l" depth="3" NCoef="0" IVar="-1" Cut="0.0000000000000000e+00" cType="1" res="-3.0404329299926758e-03" rms="3.9674004912376404e-01" purity="3.2516139745712280e-01" nType="-99"/>
            <Node pos="r" depth="3" NCoef="0" IVar="-1" Cut="0.0000000000000000e+00" cType="1" res="1.5085131162777543e-03" rms="4.3362662196159363e-01" purity="6.2650913000106812e-01" nType="-99"/>
          </Node>
        </Node>
      </Node>
    </BinaryTree>
    <BinaryTree type="DecisionTree" boostWeight="1.0000000000000000e+00" itree="552">
      <Node pos="s" depth="0" NCoef="0" IVar="7" Cut="-6.6654956340789795e-01" cType="1" res="8.3816116675734520e-03" rms="3.9068627357482910e-01" purity="5.0412577390670776e-01" nType="0">
        <Node pos="l" depth="1" NCoef="0" IVar="3" Cut="1.7754248046875000e+02" cType="1" res="-1.3859042897820473e-02" rms="3.7827333807945251e-01" purity="3.7955296039581299e-01" nType="0">
          <Node pos="l" depth="2" NCoef="0" IVar="8" Cut="-4.0005588531494141e-01" cType="1" res="1.0794570669531822e-02" rms="3.8056236505508423e-01" purity="3.2163172960281372e-01" nType="0">
            <Node pos="l" depth="3" NCoef="0" IVar="-1" Cut="0.0000000000000000e+00" cType="1" res="-1.3679640833288431e-03" rms="3.4800353646278381e-01" purity="2.5971120595932007e-01" nType="-99"/>
            <Node pos="r" depth="3" NCoef="0" IVar="-1" Cut="0.0000000000000000e+00" cType="1" res="1.7429277068004012e-03" rms="4.0187987685203552e-01" purity="3.6925855278968811e-01" nType="-99"/>
          </Node>
          <Node pos="r" depth="2" NCoef="0" IVar="6" Cut="4.2222267389297485e-01" cType="1" res="-3.0688514932990074e-02" rms="3.7577500939369202e-01" purity="4.1909214854240417e-01" nType="0">
            <Node pos="l" depth="3" NCoef="0" IVar="-1" Cut="0.0000000000000000e+00" cType="1" res="-7.3176564183086157e-04" rms="3.8383156061172485e-01" purity="4.7121426463127136e-01" nType="-99"/>
            <Node pos="r" depth="3" NCoef="0" IVar="-1" Cut="0.0000000000000000e+00" cType="1" res="-4.2619020678102970e-03" rms="3.5421931743621826e-01" purity="2.9997602105140686e-01" nType="-99"/>
          </Node>
        </Node>
        <Node pos="r" depth="1" NCoef="0" IVar="9" Cut="-1.7332855463027954e+00" cType="1" res="1.5486561693251133e-02" rms="3.9430510997772217e-01" purity="5.4392147064208984e-01" nType="0">
          <Node pos="l" depth="2" NCoef="0" IVar="-1" Cut="0.0000000000000000e+00" cType="1" res="-2.3608033079653978e-03" rms="3.7547916173934937e-01" purity="2.9123565554618835e-01" nType="-99"/>
          <Node pos="r" depth="2" NCoef="0" IVar="9" Cut="1.7205353975296021e+00" cType="1" res="1.8705127760767937e-02" rms="3.9515820145606995e-01" purity="5.5889385938644409e-01" nType="0">
            <Node pos="l" depth="3" NCoef="0" IVar="-1" Cut="0.0000000000000000e+00" cType="1" res="9.2321616830304265e-04" rms="3.9737969636917114e-01" purity="5.7900899648666382e-01" nType="-99"/>
            <Node pos="r" depth="3" NCoef="0" IVar="-1" Cut="0.0000000000000000e+00" cType="1" res="-1.5434491215273738e-03" rms="3.6151129007339478e-01" purity="2.9421490430831909e-01" nType="-99"/>
          </Node>
        </Node>
      </Node>
    </BinaryTree>
    <BinaryTree type="DecisionTree" boostWeight="1.0000000000000000e+00" itree="553">
      <Node pos="s" depth="0" NCoef="0" IVar="3" Cut="3.3481878662109375e+02" cType="1" res="-1.1301472550258040e-03" rms="3.8621655106544495e-01" purity="4.9525550007820129e-01" nType="0">
        <Node pos="l" depth="1" NCoef="0" IVar="0" Cut="1.5567872314453125e+03" cType="1" res="3.1301178969442844e-03" rms="3.8409182429313660e-01" purity="5.0112301111221313e-01" nType="0">
          <Node pos="l" depth="2" NCoef="0" IVar="2" Cut="2.3109568786621094e+02" cType="1" res="-8.1145772710442543e-03" rms="3.9093875885009766e-01" purity="4.3090742826461792e-01" nType="0">
            <Node pos="l" depth="3" NCoef="0" IVar="-1" Cut="0.0000000000000000e+00" cType="1" res="1.1301559861749411e-03" rms="3.9461043477058411e-01" purity="5.6090396642684937e-01" nType="-99"/>
            <Node pos="r" depth="3" NCoef="0" IVar="-1" Cut="0.0000000000000000e+00" cType="1" res="-7.2466442361474037e-04" rms="3.8972961902618408e-01" purity="4.0401998162269592e-01" nType="-99"/>
          </Node>
          <Node pos="r" depth="2" NCoef="0" IVar="2" Cut="4.5485458374023438e+02" cType="1" res="3.4380476921796799e-02" rms="3.6256161332130432e-01" purity="6.9626045227050781e-01" nType="0">
            <Node pos="l" depth="3" NCoef="0" IVar="-1" Cut="0.0000000000000000e+00" cType="1" res="2.6145831216126680e-03" rms="3.0972567200660706e-01" purity="8.5297638177871704e-01" nType="-99"/>
            <Node pos="r" depth="3" NCoef="0" IVar="-1" Cut="0.0000000000000000e+00" cType="1" res="3.2433861633762717e-04" rms="4.1686648130416870e-01" purity="5.0361984968185425e-01" nType="-99"/>
          </Node>
        </Node>
        <Node pos="r" depth="1" NCoef="0" IVar="3" Cut="4.1522955322265625e+02" cType="1" res="-5.1604941487312317e-02" rms="4.0717518329620361e-01" purity="4.2573824524879456e-01" nType="0">
          <Node pos="l" depth="2" NCoef="0" IVar="0" Cut="1.8521822509765625e+03" cType="1" res="-3.2119184732437134e-02" rms="4.0420770645141602e-01" purity="4.5076927542686462e-01" nType="0">
            <Node pos="l" depth="3" NCoef="0" IVar="-1" Cut="0.0000000000000000e+00" cType="1" res="-4.7108647413551807e-03" rms="3.8532173633575439e-01" purity="3.1450849771499634e-01" nType="-99"/>
            <Node pos="r" depth="3" NCoef="0" IVar="-1" Cut="0.0000000000000000e+00" cType="1" res="3.6742902011610568e-04" rms="4.1863474249839783e-01" purity="5.8865076303482056e-01" nType="-99"/>
          </Node>
          <Node pos="r" depth="2" NCoef="0" IVar="-1" Cut="0.0000000000000000e+00" cType="1" res="-5.2303019911050797e-03" rms="4.1024520993232727e-01" purity="3.7699389457702637e-01" nType="-99"/>
        </Node>
      </Node>
    </BinaryTree>
    <BinaryTree type="DecisionTree" boostWeight="1.0000000000000000e+00" itree="554">
      <Node pos="s" depth="0" NCoef="0" IVar="3" Cut="2.9274731445312500e+02" cType="1" res="4.1397879831492901e-03" rms="3.8585445284843445e-01" purity="5.0214529037475586e-01" nType="0">
        <Node pos="l" depth="1" NCoef="0" IVar="0" Cut="1.3119290771484375e+03" cType="1" res="1.0007935576140881e-02" rms="3.8366615772247314e-01" purity="5.0759017467498779e-01" nType="0">
          <Node pos="l" depth="2" NCoef="0" IVar="2" Cut="2.2648085021972656e+02" cType="1" res="-1.2680950574576855e-02" rms="4.0085449814796448e-01" purity="3.4961706399917603e-01" nType="0">
            <Node pos="l" depth="3" NCoef="0" IVar="-1" Cut="0.0000000000000000e+00" cType="1" res="1.3288891641423106e-03" rms="4.2312580347061157e-01" purity="4.9565827846527100e-01" nType="-99"/>
            <Node pos="r" depth="3" NCoef="0" IVar="-1" Cut="0.0000000000000000e+00" cType="1" res="-1.0693199001252651e-03" rms="3.9454579353332520e-01" purity="3.1511211395263672e-01" nType="-99"/>
          </Node>
          <Node pos="r" depth="2" NCoef="0" IVar="2" Cut="4.6538665771484375e+02" cType="1" res="3.1316604465246201e-02" rms="3.6551043391227722e-01" purity="6.5595346689224243e-01" nType="0">
            <Node pos="l" depth="3" NCoef="0" IVar="-1" Cut="0.0000000000000000e+00" cType="1" res="1.9938657060265541e-03" rms="3.4757834672927856e-01" purity="7.6267939805984497e-01" nType="-99"/>
            <Node pos="r" depth="3" NCoef="0" IVar="-1" Cut="0.0000000000000000e+00" cType="1" res="3.3177977456944063e-05" rms="4.0238478779792786e-01" purity="4.0840134024620056e-01" nType="-99"/>
          </Node>
        </Node>
        <Node pos="r" depth="1" NCoef="0" IVar="0" Cut="2.0163787841796875e+03" cType="1" res="-3.1790785491466522e-02" rms="3.9710521697998047e-01" purity="4.6880617737770081e-01" nType="0">
          <Node pos="l" depth="2" NCoef="0" IVar="6" Cut="4.6047729253768921e-01" cType="1" res="-5.0824396312236786e-02" rms="3.8838195800781250e-01" purity="4.0201148390769958e-01" nType="0">
            <Node pos="l" depth="3" NCoef="0" IVar="-1" Cut="0.0000000000000000e+00" cType="1" res="-1.9910864066332579e-03" rms="3.9673516154289246e-01" purity="4.4568699598312378e-01" nType="-99"/>
            <Node pos="r" depth="3" NCoef="0" IVar="-1" Cut="0.0000000000000000e+00" cType="1" res="-5.9729423373937607e-03" rms="3.6588406562805176e-01" purity="2.9949554800987244e-01" nType="-99"/>
          </Node>
          <Node pos="r" depth="2" NCoef="0" IVar="-1" Cut="0.0000000000000000e+00" cType="1" res="2.2523578081745654e-04" rms="4.1114783287048340e-01" purity="6.0001182556152344e-01" nType="-99"/>
        </Node>
      </Node>
    </BinaryTree>
    <BinaryTree type="DecisionTree" boostWeight="1.0000000000000000e+00" itree="555">
      <Node pos="s" depth="0" NCoef="0" IVar="2" Cut="4.0312695312500000e+02" cType="1" res="5.9869969263672829e-03" rms="3.8898342847824097e-01" purity="5.0317841768264771e-01" nType="0">
        <Node pos="l" depth="1" NCoef="0" IVar="0" Cut="1.3291616210937500e+03" cType="1" res="1.4987524598836899e-02" rms="3.8695186376571655e-01" purity="5.5114233493804932e-01" nType="0">
          <Node pos="l" depth="2" NCoef="0" IVar="5" Cut="1.1352313232421875e+02" cType="1" res="-9.5487816724926233e-04" rms="4.1318997740745544e-01" purity="3.9213851094245911e-01" nType="0">
            <Node pos="l" depth="3" NCoef="0" IVar="-1" Cut="0.0000000000000000e+00" cType="1" res="5.2838737610727549e-04" rms="4.1149729490280151e-01" purity="3.7041464447975159e-01" nType="-99"/>
            <Node pos="r" depth="3" NCoef="0" IVar="-1" Cut="0.0000000000000000e+00" cType="1" res="-3.0342417303472757e-03" rms="4.1448792815208435e-01" purity="5.1193976402282715e-01" nType="-99"/>
          </Node>
          <Node pos="r" depth="2" NCoef="0" IVar="3" Cut="2.1869738769531250e+02" cType="1" res="3.7833429872989655e-02" rms="3.4461617469787598e-01" purity="7.7899920940399170e-01" nType="0">
            <Node pos="l" depth="3" NCoef="0" IVar="-1" Cut="0.0000000000000000e+00" cType="1" res="2.7574875857681036e-03" rms="3.1690925359725952e-01" purity="8.4249031543731689e-01" nType="-99"/>
            <Node pos="r" depth="3" NCoef="0" IVar="-1" Cut="0.0000000000000000e+00" cType="1" res="8.2069420022889972e-04" rms="3.6362949013710022e-01" purity="7.2925919294357300e-01" nType="-99"/>
          </Node>
        </Node>
        <Node pos="r" depth="1" NCoef="0" IVar="0" Cut="1.7131928710937500e+03" cType="1" res="-1.2556135654449463e-02" rms="3.9248564839363098e-01" purity="4.0436190366744995e-01" nType="0">
          <Node pos="l" depth="2" NCoef="0" IVar="4" Cut="8.3077308654785156e+01" cType="1" res="-3.4134622663259506e-02" rms="3.7564021348953247e-01" purity="2.7061942219734192e-01" nType="0">
            <Node pos="l" depth="3" NCoef="0" IVar="-1" Cut="0.0000000000000000e+00" cType="1" res="1.4377761399373412e-03" rms="3.8279959559440613e-01" purity="2.2052060067653656e-01" nType="-99"/>
            <Node pos="r" depth="3" NCoef="0" IVar="-1" Cut="0.0000000000000000e+00" cType="1" res="-2.6225843466818333e-03" rms="3.7377306818962097e-01" purity="2.7850914001464844e-01" nType="-99"/>
          </Node>
          <Node pos="r" depth="2" NCoef="0" IVar="2" Cut="7.9003308105468750e+02" cType="1" res="1.4721968211233616e-02" rms="4.1118052601814270e-01" purity="5.7343035936355591e-01" nType="0">
            <Node pos="l" depth="3" NCoef="0" IVar="-1" Cut="0.0000000000000000e+00" cType="1" res="1.3553805183619261e-03" rms="4.0722724795341492e-01" purity="6.0975944995880127e-01" nType="-99"/>
            <Node pos="r" depth="3" NCoef="0" IVar="-1" Cut="0.0000000000000000e+00" cType="1" res="-2.5086468085646629e-03" rms="4.1885691881179810e-01" purity="4.3750724196434021e-01" nType="-99"/>
          </Node>
        </Node>
      </Node>
    </BinaryTree>
    <BinaryTree type="DecisionTree" boostWeight="1.0000000000000000e+00" itree="556">
      <Node pos="s" depth="0" NCoef="0" IVar="0" Cut="1.1187791748046875e+03" cType="1" res="4.6591572463512421e-03" rms="3.8874474167823792e-01" purity="5.0236004590988159e-01" nType="0">
        <Node pos="l" depth="1" NCoef="0" IVar="0" Cut="1.0125187988281250e+03" cType="1" res="-2.3499801754951477e-02" rms="3.9620134234428406e-01" purity="2.5711610913276672e-01" nType="0">
          <Node pos="l" depth="2" NCoef="0" IVar="-1" Cut="0.0000000000000000e+00" cType="1" res="-2.1872557699680328e-03" rms="3.8225549459457397e-01" purity="2.1787087619304657e-01" nType="-99"/>
          <Node pos="r" depth="2" NCoef="0" IVar="-1" Cut="0.0000000000000000e+00" cType="1" res="-2.9855730826966465e-04" rms="4.0596437454223633e-01" purity="2.8779250383377075e-01" nType="-99"/>
        </Node>
        <Node pos="r" depth="1" NCoef="0" IVar="3" Cut="1.5011491394042969e+02" cType="1" res="1.1415150016546249e-02" rms="3.8662940263748169e-01" purity="5.6119978427886963e-01" nType="0">
          <Node pos="l" depth="2" NCoef="0" IVar="2" Cut="4.4437365722656250e+02" cType="1" res="6.1823148280382156e-02" rms="4.0307512879371643e-01" purity="4.9881511926651001e-01" nType="0">
            <Node pos="l" depth="3" NCoef="0" IVar="-1" Cut="0.0000000000000000e+00" cType="1" res="2.7327290736138821e-03" rms="3.9625447988510132e-01" purity="5.9583121538162231e-01" nType="-99"/>
            <Node pos="r" depth="3" NCoef="0" IVar="-1" Cut="0.0000000000000000e+00" cType="1" res="1.8443099688738585e-03" rms="4.1257122159004211e-01" purity="3.4500527381896973e-01" nType="-99"/>
          </Node>
          <Node pos="r" depth="2" NCoef="0" IVar="2" Cut="5.0809619140625000e+02" cType="1" res="3.2750666141510010e-03" rms="3.8328641653060913e-01" purity="5.7127392292022705e-01" nType="0">
            <Node pos="l" depth="3" NCoef="0" IVar="-1" Cut="0.0000000000000000e+00" cType="1" res="4.8643967602401972e-04" rms="3.7934887409210205e-01" purity="6.1901503801345825e-01" nType="-99"/>
            <Node pos="r" depth="3" NCoef="0" IVar="-1" Cut="0.0000000000000000e+00" cType="1" res="-1.4353515580296516e-03" rms="3.9667975902557373e-01" purity="3.8764572143554688e-01" nType="-99"/>
          </Node>
        </Node>
      </Node>
    </BinaryTree>
    <BinaryTree type="DecisionTree" boostWeight="1.0000000000000000e+00" itree="557">
      <Node pos="s" depth="0" NCoef="0" IVar="2" Cut="8.0937670898437500e+02" cType="1" res="-1.3853012351319194e-03" rms="3.8660207390785217e-01" purity="4.9605932831764221e-01" nType="0">
        <Node pos="l" depth="1" NCoef="0" IVar="0" Cut="1.7215812988281250e+03" cType="1" res="9.7302359063178301e-04" rms="3.8563731312751770e-01" purity="4.9838420748710632e-01" nType="0">
          <Node pos="l" depth="2" NCoef="0" IVar="2" Cut="2.5801950073242188e+02" cType="1" res="-7.4886772781610489e-03" rms="3.8779902458190918e-01" purity="4.5706707239151001e-01" nType="0">
            <Node pos="l" depth="3" NCoef="0" IVar="-1" Cut="0.0000000000000000e+00" cType="1" res="1.0044699301943183e-03" rms="3.9054974913597107e-01" purity="5.7355219125747681e-01" nType="-99"/>
            <Node pos="r" depth="3" NCoef="0" IVar="-1" Cut="0.0000000000000000e+00" cType="1" res="-1.0091230506077409e-03" rms="3.8595095276832581e-01" purity="4.1113266348838806e-01" nType="-99"/>
          </Node>
          <Node pos="r" depth="2" NCoef="0" IVar="3" Cut="3.1091827392578125e+02" cType="1" res="4.1467919945716858e-02" rms="3.7246781587600708e-01" purity="6.9611454010009766e-01" nType="0">
            <Node pos="l" depth="3" NCoef="0" IVar="-1" Cut="0.0000000000000000e+00" cType="1" res="2.6786630041897297e-03" rms="3.4578916430473328e-01" purity="7.7129292488098145e-01" nType="-99"/>
            <Node pos="r" depth="3" NCoef="0" IVar="-1" Cut="0.0000000000000000e+00" cType="1" res="5.1476398948580027e-04" rms="4.0664803981781006e-01" purity="5.8573657274246216e-01" nType="-99"/>
          </Node>
        </Node>
        <Node pos="r" depth="1" NCoef="0" IVar="-1" Cut="0.0000000000000000e+00" cType="1" res="-5.8485614135861397e-04" rms="4.0946716070175171e-01" purity="4.2022714018821716e-01" nType="-99"/>
      </Node>
    </BinaryTree>
    <BinaryTree type="DecisionTree" boostWeight="1.0000000000000000e+00" itree="558">
      <Node pos="s" depth="0" NCoef="0" IVar="0" Cut="1.5806496582031250e+03" cType="1" res="5.5308407172560692e-03" rms="3.8660338521003723e-01" purity="5.0055521726608276e-01" nType="0">
        <Node pos="l" depth="1" NCoef="0" IVar="2" Cut="3.5689694213867188e+02" cType="1" res="-3.3330579753965139e-03" rms="3.9086052775382996e-01" purity="4.3593421578407288e-01" nType="0">
          <Node pos="l" depth="2" NCoef="0" IVar="0" Cut="1.0602498779296875e+03" cType="1" res="9.6312249079346657e-03" rms="3.9805093407630920e-01" purity="5.0976204872131348e-01" nType="0">
            <Node pos="l" depth="3" NCoef="0" IVar="-1" Cut="0.0000000000000000e+00" cType="1" res="-1.4157649129629135e-03" rms="3.9574790000915527e-01" purity="2.4011529982089996e-01" nType="-99"/>
            <Node pos="r" depth="3" NCoef="0" IVar="-1" Cut="0.0000000000000000e+00" cType="1" res="8.7787077063694596e-04" rms="3.9796063303947449e-01" purity="5.9611105918884277e-01" nType="-99"/>
          </Node>
          <Node pos="r" depth="2" NCoef="0" IVar="5" Cut="8.7788871765136719e+01" cType="1" res="-3.3256936818361282e-02" rms="3.7201508879661560e-01" purity="2.6552644371986389e-01" nType="0">
            <Node pos="l" depth="3" NCoef="0" IVar="-1" Cut="0.0000000000000000e+00" cType="1" res="-1.0417191078886390e-03" rms="3.5394030809402466e-01" purity="2.0635220408439636e-01" nType="-99"/>
            <Node pos="r" depth="3" NCoef="0" IVar="-1" Cut="0.0000000000000000e+00" cType="1" res="-2.9200573917478323e-03" rms="3.9269015192985535e-01" purity="3.4017819166183472e-01" nType="-99"/>
          </Node>
        </Node>
        <Node pos="r" depth="1" NCoef="0" IVar="2" Cut="8.0943066406250000e+02" cType="1" res="2.6665778830647469e-02" rms="3.7541487812995911e-01" purity="6.5463650226593018e-01" nType="0">
          <Node pos="l" depth="2" NCoef="0" IVar="3" Cut="3.0680810546875000e+02" cType="1" res="3.4462813287973404e-02" rms="3.6893430352210999e-01" purity="6.7665356397628784e-01" nType="0">
            <Node pos="l" depth="3" NCoef="0" IVar="-1" Cut="0.0000000000000000e+00" cType="1" res="2.2959534544497728e-03" rms="3.4781423211097717e-01" purity="7.3990321159362793e-01" nType="-99"/>
            <Node pos="r" depth="3" NCoef="0" IVar="-1" Cut="0.0000000000000000e+00" cType="1" res="2.1967141947243363e-04" rms="4.0727952122688293e-01" purity="5.4679858684539795e-01" nType="-99"/>
          </Node>
          <Node pos="r" depth="2" NCoef="0" IVar="-1" Cut="0.0000000000000000e+00" cType="1" res="-2.3343940265476704e-03" rms="4.2611363530158997e-01" purity="4.4011735916137695e-01" nType="-99"/>
        </Node>
      </Node>
    </BinaryTree>
    <BinaryTree type="DecisionTree" boostWeight="1.0000000000000000e+00" itree="559">
      <Node pos="s" depth="0" NCoef="0" IVar="8" Cut="9.3332177400588989e-01" cType="1" res="4.9242861568927765e-03" rms="3.8807535171508789e-01" purity="5.0158029794692993e-01" nType="0">
        <Node pos="l" depth="1" NCoef="0" IVar="8" Cut="-6.6667622327804565e-01" cType="1" res="1.1107265949249268e-02" rms="3.9041996002197266e-01" purity="5.3648966550827026e-01" nType="0">
          <Node pos="l" depth="2" NCoef="0" IVar="4" Cut="2.1424151611328125e+02" cType="1" res="-8.6010722443461418e-03" rms="3.8480046391487122e-01" purity="4.1362980008125305e-01" nType="0">
            <Node pos="l" depth="3" NCoef="0" IVar="-1" Cut="0.0000000000000000e+00" cType="1" res="-8.7620821432210505e-05" rms="3.8292002677917480e-01" purity="4.0639302134513855e-01" nType="-99"/>
            <Node pos="r" depth="3" NCoef="0" IVar="-1" Cut="0.0000000000000000e+00" cType="1" res="-4.0681357495486736e-03" rms="3.9615917205810547e-01" purity="4.8034480214118958e-01" nType="-99"/>
          </Node>
          <Node pos="r" depth="2" NCoef="0" IVar="7" Cut="-6.6664850711822510e-01" cType="1" res="2.0437411963939667e-02" rms="3.9270749688148499e-01" purity="5.9465283155441284e-01" nType="0">
            <Node pos="l" depth="3" NCoef="0" IVar="-1" Cut="0.0000000000000000e+00" cType="1" res="-2.2600950615014881e-04" rms="3.9354747533798218e-01" purity="4.7360742092132568e-01" nType="-99"/>
            <Node pos="r" depth="3" NCoef="0" IVar="-1" Cut="0.0000000000000000e+00" cType="1" res="1.0977734345942736e-03" rms="3.9217060804367065e-01" purity="6.2904578447341919e-01" nType="-99"/>
          </Node>
        </Node>
        <Node pos="r" depth="1" NCoef="0" IVar="3" Cut="1.4780827331542969e+02" cType="1" res="-2.1663453429937363e-02" rms="3.7667262554168701e-01" purity="3.5146492719650269e-01" nType="0">
          <Node pos="l" depth="2" NCoef="0" IVar="-1" Cut="0.0000000000000000e+00" cType="1" res="1.4839317882433534e-03" rms="3.7360724806785583e-01" purity="2.9524862766265869e-01" nType="-99"/>
          <Node pos="r" depth="2" NCoef="0" IVar="7" Cut="-1.3495662808418274e-01" cType="1" res="-3.9824679493904114e-02" rms="3.7612408399581909e-01" purity="3.7176254391670227e-01" nType="0">
            <Node pos="l" depth="3" NCoef="0" IVar="-1" Cut="0.0000000000000000e+00" cType="1" res="-4.1218413971364498e-03" rms="3.6176252365112305e-01" purity="3.1385439634323120e-01" nType="-99"/>
            <Node pos="r" depth="3" NCoef="0" IVar="-1" Cut="0.0000000000000000e+00" cType="1" res="-1.0723666055127978e-03" rms="3.8332492113113403e-01" purity="4.0635591745376587e-01" nType="-99"/>
          </Node>
        </Node>
      </Node>
    </BinaryTree>
    <BinaryTree type="DecisionTree" boostWeight="1.0000000000000000e+00" itree="560">
      <Node pos="s" depth="0" NCoef="0" IVar="7" Cut="1.9999177455902100e+00" cType="1" res="1.8746471032500267e-03" rms="3.8789421319961548e-01" purity="4.9761071801185608e-01" nType="0">
        <Node pos="l" depth="1" NCoef="0" IVar="0" Cut="2.1260944824218750e+03" cType="1" res="4.1689733043313026e-03" rms="3.9039665460586548e-01" purity="5.0877141952514648e-01" nType="0">
          <Node pos="l" depth="2" NCoef="0" IVar="2" Cut="4.4686056518554688e+02" cType="1" res="1.0003907373175025e-03" rms="3.8963401317596436e-01" purity="4.9739471077919006e-01" nType="0">
            <Node pos="l" depth="3" NCoef="0" IVar="-1" Cut="0.0000000000000000e+00" cType="1" res="4.7364851343445480e-04" rms="3.9051377773284912e-01" purity="5.4285681247711182e-01" nType="-99"/>
            <Node pos="r" depth="3" NCoef="0" IVar="-1" Cut="0.0000000000000000e+00" cType="1" res="-1.0184786515310407e-03" rms="3.8434502482414246e-01" purity="3.3249181509017944e-01" nType="-99"/>
          </Node>
          <Node pos="r" depth="2" NCoef="0" IVar="3" Cut="3.4191003417968750e+02" cType="1" res="5.3138315677642822e-02" rms="3.9881083369255066e-01" purity="6.8459469079971313e-01" nType="0">
            <Node pos="l" depth="3" NCoef="0" IVar="-1" Cut="0.0000000000000000e+00" cType="1" res="3.2791476696729660e-03" rms="3.7802088260650635e-01" purity="7.6733005046844482e-01" nType="-99"/>
            <Node pos="r" depth="3" NCoef="0" IVar="-1" Cut="0.0000000000000000e+00" cType="1" res="4.0314713260158896e-04" rms="4.1416013240814209e-01" purity="6.0168260335922241e-01" nType="-99"/>
          </Node>
        </Node>
        <Node pos="r" depth="1" NCoef="0" IVar="-1" Cut="0.0000000000000000e+00" cType="1" res="-8.3508072420954704e-03" rms="2.7913561463356018e-01" purity="1.1784839630126953e-01" nType="-99"/>
      </Node>
    </BinaryTree>
    <BinaryTree type="DecisionTree" boostWeight="1.0000000000000000e+00" itree="561">
      <Node pos="s" depth="0" NCoef="0" IVar="6" Cut="-1.6962245702743530e+00" cType="1" res="6.0957260429859161e-03" rms="3.8900461792945862e-01" purity="5.0063264369964600e-01" nType="0">
        <Node pos="l" depth="1" NCoef="0" IVar="-1" Cut="0.0000000000000000e+00" cType="1" res="-3.9403997361660004e-03" rms="3.1816112995147705e-01" purity="1.8023332953453064e-01" nType="-99"/>
        <Node pos="r" depth="1" NCoef="0" IVar="6" Cut="6.5877622365951538e-01" cType="1" res="8.5759423673152924e-03" rms="3.9153191447257996e-01" purity="5.1421588659286499e-01" nType="0">
          <Node pos="l" depth="2" NCoef="0" IVar="3" Cut="3.2104043579101562e+02" cType="1" res="1.6596490517258644e-02" rms="3.9446750283241272e-01" purity="5.6212210655212402e-01" nType="0">
            <Node pos="l" depth="3" NCoef="0" IVar="-1" Cut="0.0000000000000000e+00" cType="1" res="8.7854097364470363e-04" rms="3.9331510663032532e-01" purity="5.6762570142745972e-01" nType="-99"/>
            <Node pos="r" depth="3" NCoef="0" IVar="-1" Cut="0.0000000000000000e+00" cType="1" res="-9.5242919633165002e-04" rms="4.0250298380851746e-01" purity="5.1421600580215454e-01" nType="-99"/>
          </Node>
          <Node pos="r" depth="2" NCoef="0" IVar="0" Cut="1.5135806884765625e+03" cType="1" res="-1.4448590576648712e-02" rms="3.8204535841941833e-01" purity="3.7669196724891663e-01" nType="0">
            <Node pos="l" depth="3" NCoef="0" IVar="-1" Cut="0.0000000000000000e+00" cType="1" res="-1.2184041552245617e-03" rms="3.7439358234405518e-01" purity="2.9825836420059204e-01" nType="-99"/>
            <Node pos="r" depth="3" NCoef="0" IVar="-1" Cut="0.0000000000000000e+00" cType="1" res="4.4040282955393195e-04" rms="3.9706778526306152e-01" purity="5.4650330543518066e-01" nType="-99"/>
          </Node>
        </Node>
      </Node>
    </BinaryTree>
    <BinaryTree type="DecisionTree" boostWeight="1.0000000000000000e+00" itree="562">
      <Node pos="s" depth="0" NCoef="0" IVar="2" Cut="6.0625183105468750e+02" cType="1" res="5.7725899387151003e-04" rms="3.8744580745697021e-01" purity="4.9603664875030518e-01" nType="0">
        <Node pos="l" depth="1" NCoef="0" IVar="0" Cut="1.2515799560546875e+03" cType="1" res="5.3090592846274376e-03" rms="3.8688141107559204e-01" purity="5.0950276851654053e-01" nType="0">
          <Node pos="l" depth="2" NCoef="0" IVar="5" Cut="9.9863868713378906e+01" cType="1" res="-1.4289312064647675e-02" rms="4.0314763784408569e-01" purity="3.2586157321929932e-01" nType="0">
            <Node pos="l" depth="3" NCoef="0" IVar="-1" Cut="0.0000000000000000e+00" cType="1" res="-1.0794351692311466e-04" rms="3.9753183722496033e-01" purity="2.9435145854949951e-01" nType="-99"/>
            <Node pos="r" depth="3" NCoef="0" IVar="-1" Cut="0.0000000000000000e+00" cType="1" res="-2.1247640252113342e-03" rms="4.2042228579521179e-01" purity="4.4296473264694214e-01" nType="-99"/>
          </Node>
          <Node pos="r" depth="2" NCoef="0" IVar="3" Cut="1.8542312622070312e+02" cType="1" res="1.7782663926482201e-02" rms="3.7563034892082214e-01" purity="6.2638330459594727e-01" nType="0">
            <Node pos="l" depth="3" NCoef="0" IVar="-1" Cut="0.0000000000000000e+00" cType="1" res="2.3479186929762363e-03" rms="3.7541699409484863e-01" purity="6.3629090785980225e-01" nType="-99"/>
            <Node pos="r" depth="3" NCoef="0" IVar="-1" Cut="0.0000000000000000e+00" cType="1" res="2.0518264500424266e-04" rms="3.7473762035369873e-01" purity="6.2310332059860229e-01" nType="-99"/>
          </Node>
        </Node>
        <Node pos="r" depth="1" NCoef="0" IVar="1" Cut="4.5300109863281250e+02" cType="1" res="-4.5633170753717422e-02" rms="3.8990792632102966e-01" purity="3.6452707648277283e-01" nType="0">
          <Node pos="l" depth="2" NCoef="0" IVar="-1" Cut="0.0000000000000000e+00" cType="1" res="-9.8416220862418413e-04" rms="2.9974558949470520e-01" purity="1.1728510260581970e-01" nType="-99"/>
          <Node pos="r" depth="2" NCoef="0" IVar="3" Cut="2.4578208923339844e+02" cType="1" res="-1.2616498395800591e-02" rms="4.2675974965095520e-01" purity="4.9663904309272766e-01" nType="0">
            <Node pos="l" depth="3" NCoef="0" IVar="-1" Cut="0.0000000000000000e+00" cType="1" res="9.3561294488608837e-04" rms="4.2448121309280396e-01" purity="5.2968949079513550e-01" nType="-99"/>
            <Node pos="r" depth="3" NCoef="0" IVar="-1" Cut="0.0000000000000000e+00" cType="1" res="-1.8691810546442866e-03" rms="4.2638877034187317e-01" purity="4.7028845548629761e-01" nType="-99"/>
          </Node>
        </Node>
      </Node>
    </BinaryTree>
    <BinaryTree type="DecisionTree" boostWeight="1.0000000000000000e+00" itree="563">
      <Node pos="s" depth="0" NCoef="0" IVar="6" Cut="1.7378895282745361e+00" cType="1" res="7.8148097964003682e-04" rms="3.8703405857086182e-01" purity="4.9777403473854065e-01" nType="0">
        <Node pos="l" depth="1" NCoef="0" IVar="6" Cut="-1.4854309558868408e+00" cType="1" res="3.5280706360936165e-03" rms="3.8973745703697205e-01" purity="5.1139086484909058e-01" nType="0">
          <Node pos="l" depth="2" NCoef="0" IVar="9" Cut="-3.9959663152694702e-01" cType="1" res="-4.6112861484289169e-02" rms="3.2400149106979370e-01" purity="2.0121212303638458e-01" nType="0">
            <Node pos="l" depth="3" NCoef="0" IVar="-1" Cut="0.0000000000000000e+00" cType="1" res="-5.8170207776129246e-03" rms="2.9892230033874512e-01" purity="1.5453679859638214e-01" nType="-99"/>
            <Node pos="r" depth="3" NCoef="0" IVar="-1" Cut="0.0000000000000000e+00" cType="1" res="-1.9413386471569538e-03" rms="3.4037730097770691e-01" purity="2.3521889746189117e-01" nType="-99"/>
          </Node>
          <Node pos="r" depth="2" NCoef="0" IVar="7" Cut="1.7332413196563721e+00" cType="1" res="6.9911149330437183e-03" rms="3.9368069171905518e-01" purity="5.3302949666976929e-01" nType="0">
            <Node pos="l" depth="3" NCoef="0" IVar="-1" Cut="0.0000000000000000e+00" cType="1" res="4.1922245873138309e-04" rms="3.9642724394798279e-01" purity="5.5040580034255981e-01" nType="-99"/>
            <Node pos="r" depth="3" NCoef="0" IVar="-1" Cut="0.0000000000000000e+00" cType="1" res="-4.1100825183093548e-03" rms="3.2659614086151123e-01" purity="1.7509421706199646e-01" nType="-99"/>
          </Node>
        </Node>
        <Node pos="r" depth="1" NCoef="0" IVar="-1" Cut="0.0000000000000000e+00" cType="1" res="-4.1661905124783516e-03" rms="3.1314450502395630e-01" purity="1.8862235546112061e-01" nType="-99"/>
      </Node>
    </BinaryTree>
    <BinaryTree type="DecisionTree" boostWeight="1.0000000000000000e+00" itree="564">
      <Node pos="s" depth="0" NCoef="0" IVar="3" Cut="2.4073466491699219e+02" cType="1" res="5.6718951091170311e-03" rms="3.8756638765335083e-01" purity="5.0091737508773804e-01" nType="0">
        <Node pos="l" depth="1" NCoef="0" IVar="0" Cut="1.3004339599609375e+03" cType="1" res="1.3645915314555168e-02" rms="3.8688278198242188e-01" purity="4.9337950348854065e-01" nType="0">
          <Node pos="l" depth="2" NCoef="0" IVar="5" Cut="1.0903331756591797e+02" cType="1" res="-5.8580227196216583e-03" rms="4.0480735898017883e-01" purity="3.5607722401618958e-01" nType="0">
            <Node pos="l" depth="3" NCoef="0" IVar="-1" Cut="0.0000000000000000e+00" cType="1" res="1.9741914002224803e-04" rms="3.9958736300468445e-01" purity="3.2657304406166077e-01" nType="-99"/>
            <Node pos="r" depth="3" NCoef="0" IVar="-1" Cut="0.0000000000000000e+00" cType="1" res="-2.1130959503352642e-03" rms="4.2688256502151489e-01" purity="5.0864058732986450e-01" nType="-99"/>
          </Node>
          <Node pos="r" depth="2" NCoef="0" IVar="2" Cut="4.4429974365234375e+02" cType="1" res="3.7284798920154572e-02" rms="3.6257302761077881e-01" purity="6.5979063510894775e-01" nType="0">
            <Node pos="l" depth="3" NCoef="0" IVar="-1" Cut="0.0000000000000000e+00" cType="1" res="2.3711530957370996e-03" rms="3.3890074491500854e-01" purity="7.9026138782501221e-01" nType="-99"/>
            <Node pos="r" depth="3" NCoef="0" IVar="-1" Cut="0.0000000000000000e+00" cType="1" res="-9.2429272626759484e-06" rms="4.0295675396919250e-01" purity="4.0030756592750549e-01" nType="-99"/>
          </Node>
        </Node>
        <Node pos="r" depth="1" NCoef="0" IVar="0" Cut="2.1310627441406250e+03" cType="1" res="-1.4005521312355995e-02" rms="3.8854858279228210e-01" purity="5.1951861381530762e-01" nType="0">
          <Node pos="l" depth="2" NCoef="0" IVar="2" Cut="5.7367718505859375e+02" cType="1" res="-2.4723956361413002e-02" rms="3.8316068053245544e-01" purity="4.9360746145248413e-01" nType="0">
            <Node pos="l" depth="3" NCoef="0" IVar="-1" Cut="0.0000000000000000e+00" cType="1" res="-7.8636792022734880e-04" rms="3.8798156380653381e-01" purity="5.3494215011596680e-01" nType="-99"/>
            <Node pos="r" depth="3" NCoef="0" IVar="-1" Cut="0.0000000000000000e+00" cType="1" res="-7.4706235900521278e-03" rms="3.4259822964668274e-01" purity="2.1364527940750122e-01" nType="-99"/>
          </Node>
          <Node pos="r" depth="2" NCoef="0" IVar="-1" Cut="0.0000000000000000e+00" cType="1" res="1.5516561688855290e-03" rms="4.1064983606338501e-01" purity="6.5195500850677490e-01" nType="-99"/>
        </Node>
      </Node>
    </BinaryTree>
    <BinaryTree type="DecisionTree" boostWeight="1.0000000000000000e+00" itree="565">
      <Node pos="s" depth="0" NCoef="0" IVar="3" Cut="1.5023179626464844e+02" cType="1" res="1.7406166298314929e-03" rms="3.8762229681015015e-01" purity="4.9717280268669128e-01" nType="0">
        <Node pos="l" depth="1" NCoef="0" IVar="0" Cut="1.0502244873046875e+03" cType="1" res="2.7509447187185287e-02" rms="4.0379464626312256e-01" purity="3.6908170580863953e-01" nType="0">
          <Node pos="l" depth="2" NCoef="0" IVar="-1" Cut="0.0000000000000000e+00" cType="1" res="-8.7556242942810059e-04" rms="3.9025941491127014e-01" purity="2.3480610549449921e-01" nType="-99"/>
          <Node pos="r" depth="2" NCoef="0" IVar="2" Cut="4.4436401367187500e+02" cType="1" res="5.3591508418321609e-02" rms="4.0925347805023193e-01" purity="4.4757008552551270e-01" nType="0">
            <Node pos="l" depth="3" NCoef="0" IVar="-1" Cut="0.0000000000000000e+00" cType="1" res="2.6720934547483921e-03" rms="4.0981447696685791e-01" purity="5.0665032863616943e-01" nType="-99"/>
            <Node pos="r" depth="3" NCoef="0" IVar="-1" Cut="0.0000000000000000e+00" cType="1" res="9.4138638814911246e-04" rms="4.0577101707458496e-01" purity="3.1172943115234375e-01" nType="-99"/>
          </Node>
        </Node>
        <Node pos="r" depth="1" NCoef="0" IVar="0" Cut="1.5949107666015625e+03" cType="1" res="-5.9445854276418686e-03" rms="3.8233071565628052e-01" purity="5.3537422418594360e-01" nType="0">
          <Node pos="l" depth="2" NCoef="0" IVar="2" Cut="3.5076184082031250e+02" cType="1" res="-1.9574275240302086e-02" rms="3.8708850741386414e-01" purity="4.7191780805587769e-01" nType="0">
            <Node pos="l" depth="3" NCoef="0" IVar="-1" Cut="0.0000000000000000e+00" cType="1" res="-2.8591396403498948e-04" rms="3.9260357618331909e-01" purity="5.5581128597259521e-01" nType="-99"/>
            <Node pos="r" depth="3" NCoef="0" IVar="-1" Cut="0.0000000000000000e+00" cType="1" res="-2.9346940573304892e-03" rms="3.7329381704330444e-01" purity="2.8929516673088074e-01" nType="-99"/>
          </Node>
          <Node pos="r" depth="2" NCoef="0" IVar="2" Cut="6.0630877685546875e+02" cType="1" res="1.9058136269450188e-02" rms="3.7214988470077515e-01" purity="6.5178054571151733e-01" nType="0">
            <Node pos="l" depth="3" NCoef="0" IVar="-1" Cut="0.0000000000000000e+00" cType="1" res="1.6740650171414018e-03" rms="3.5681316256523132e-01" purity="7.4112987518310547e-01" nType="-99"/>
            <Node pos="r" depth="3" NCoef="0" IVar="-1" Cut="0.0000000000000000e+00" cType="1" res="-1.6010542167350650e-03" rms="4.0664312243461609e-01" purity="4.0937909483909607e-01" nType="-99"/>
          </Node>
        </Node>
      </Node>
    </BinaryTree>
    <BinaryTree type="DecisionTree" boostWeight="1.0000000000000000e+00" itree="566">
      <Node pos="s" depth="0" NCoef="0" IVar="9" Cut="1.4666953086853027e+00" cType="1" res="-1.2020086869597435e-03" rms="3.8741824030876160e-01" purity="4.9342957139015198e-01" nType="0">
        <Node pos="l" depth="1" NCoef="0" IVar="9" Cut="-1.3776273727416992e+00" cType="1" res="2.7820945251733065e-03" rms="3.9004439115524292e-01" purity="5.1589143276214600e-01" nType="0">
          <Node pos="l" depth="2" NCoef="0" IVar="9" Cut="-1.9194275140762329e+00" cType="1" res="-3.8661148399114609e-02" rms="3.6165651679039001e-01" purity="3.0261141061782837e-01" nType="0">
            <Node pos="l" depth="3" NCoef="0" IVar="-1" Cut="0.0000000000000000e+00" cType="1" res="-9.0973870828747749e-04" rms="3.5589405894279480e-01" purity="2.7402919530868530e-01" nType="-99"/>
            <Node pos="r" depth="3" NCoef="0" IVar="-1" Cut="0.0000000000000000e+00" cType="1" res="-3.4626259002834558e-03" rms="3.6487773060798645e-01" purity="3.2441747188568115e-01" nType="-99"/>
          </Node>
          <Node pos="r" depth="2" NCoef="0" IVar="2" Cut="4.0312747192382812e+02" cType="1" res="8.4937391802668571e-03" rms="3.9345422387123108e-01" purity="5.4528534412384033e-01" nType="0">
            <Node pos="l" depth="3" NCoef="0" IVar="-1" Cut="0.0000000000000000e+00" cType="1" res="6.8223458947613835e-04" rms="3.8821306824684143e-01" purity="5.9305989742279053e-01" nType="-99"/>
            <Node pos="r" depth="3" NCoef="0" IVar="-1" Cut="0.0000000000000000e+00" cType="1" res="-2.1605161600746214e-04" rms="4.0325123071670532e-01" purity="4.4990414381027222e-01" nType="-99"/>
          </Node>
        </Node>
        <Node pos="r" depth="1" NCoef="0" IVar="5" Cut="9.4229232788085938e+01" cType="1" res="-3.8392230868339539e-02" rms="3.5986495018005371e-01" purity="2.8375598788261414e-01" nType="0">
          <Node pos="l" depth="2" NCoef="0" IVar="6" Cut="1.5664637088775635e-01" cType="1" res="-1.8525697290897369e-02" rms="3.3094602823257446e-01" purity="1.9782744348049164e-01" nType="0">
            <Node pos="l" depth="3" NCoef="0" IVar="-1" Cut="0.0000000000000000e+00" cType="1" res="-1.4173878589645028e-03" rms="3.3050891757011414e-01" purity="2.0205223560333252e-01" nType="-99"/>
            <Node pos="r" depth="3" NCoef="0" IVar="-1" Cut="0.0000000000000000e+00" cType="1" res="-9.5717475051060319e-04" rms="3.3133324980735779e-01" purity="1.9370380043983459e-01" nType="-99"/>
          </Node>
          <Node pos="r" depth="2" NCoef="0" IVar="-1" Cut="0.0000000000000000e+00" cType="1" res="-3.0690371058881283e-03" rms="3.8952988386154175e-01" purity="3.8364356756210327e-01" nType="-99"/>
        </Node>
      </Node>
    </BinaryTree>
    <BinaryTree type="DecisionTree" boostWeight="1.0000000000000000e+00" itree="567">
      <Node pos="s" depth="0" NCoef="0" IVar="6" Cut="6.7609632015228271e-01" cType="1" res="2.4241437204182148e-03" rms="3.8972362875938416e-01" purity="4.9735781550407410e-01" nType="0">
        <Node pos="l" depth="1" NCoef="0" IVar="9" Cut="1.2000151872634888e+00" cType="1" res="9.8649272695183754e-03" rms="3.9169403910636902e-01" purity="5.3985249996185303e-01" nType="0">
          <Node pos="l" depth="2" NCoef="0" IVar="6" Cut="-4.7419884800910950e-01" cType="1" res="1.6375014558434486e-02" rms="3.9367389678955078e-01" purity="5.6438744068145752e-01" nType="0">
            <Node pos="l" depth="3" NCoef="0" IVar="-1" Cut="0.0000000000000000e+00" cType="1" res="-1.4732147974427789e-04" rms="3.8789424300193787e-01" purity="4.4689559936523438e-01" nType="-99"/>
            <Node pos="r" depth="3" NCoef="0" IVar="-1" Cut="0.0000000000000000e+00" cType="1" res="1.1664624325931072e-03" rms="3.9687135815620422e-01" purity="6.4072358608245850e-01" nType="-99"/>
          </Node>
          <Node pos="r" depth="2" NCoef="0" IVar="6" Cut="-3.0178719758987427e-01" cType="1" res="-3.4838501363992691e-02" rms="3.7477663159370422e-01" purity="3.7137597799301147e-01" nType="0">
            <Node pos="l" depth="3" NCoef="0" IVar="-1" Cut="0.0000000000000000e+00" cType="1" res="-3.4254933707416058e-03" rms="3.4607085585594177e-01" purity="2.6920652389526367e-01" nType="-99"/>
            <Node pos="r" depth="3" NCoef="0" IVar="-1" Cut="0.0000000000000000e+00" cType="1" res="-7.1172689786180854e-04" rms="3.9866402745246887e-01" purity="4.6656942367553711e-01" nType="-99"/>
          </Node>
        </Node>
        <Node pos="r" depth="1" NCoef="0" IVar="3" Cut="1.8341671752929688e+02" cType="1" res="-2.1493516862392426e-02" rms="3.8234183192253113e-01" purity="3.6076298356056213e-01" nType="0">
          <Node pos="l" depth="2" NCoef="0" IVar="7" Cut="6.6698819398880005e-01" cType="1" res="5.2115041762590408e-03" rms="3.8959985971450806e-01" purity="3.1689527630805969e-01" nType="0">
            <Node pos="l" depth="3" NCoef="0" IVar="-1" Cut="0.0000000000000000e+00" cType="1" res="9.6539413789287210e-04" rms="4.0694776177406311e-01" purity="3.6134102940559387e-01" nType="-99"/>
            <Node pos="r" depth="3" NCoef="0" IVar="-1" Cut="0.0000000000000000e+00" cType="1" res="-1.6946392133831978e-03" rms="3.4608465433120728e-01" purity="2.1973371505737305e-01" nType="-99"/>
          </Node>
          <Node pos="r" depth="2" NCoef="0" IVar="0" Cut="1.5266257324218750e+03" cType="1" res="-4.3589595705270767e-02" rms="3.7479481101036072e-01" purity="3.9705967903137207e-01" nType="0">
            <Node pos="l" depth="3" NCoef="0" IVar="-1" Cut="0.0000000000000000e+00" cType="1" res="-3.7806620821356773e-03" rms="3.5495650768280029e-01" purity="3.0001825094223022e-01" nType="-99"/>
            <Node pos="r" depth="3" NCoef="0" IVar="-1" Cut="0.0000000000000000e+00" cType="1" res="-9.4045494915917516e-04" rms="3.9459890127182007e-01" purity="5.0725871324539185e-01" nType="-99"/>
          </Node>
        </Node>
      </Node>
    </BinaryTree>
    <BinaryTree type="DecisionTree" boostWeight="1.0000000000000000e+00" itree="568">
      <Node pos="s" depth="0" NCoef="0" IVar="6" Cut="-1.4268659353256226e+00" cType="1" res="3.2075631897896528e-03" rms="3.8741356134414673e-01" purity="5.0124037265777588e-01" nType="0">
        <Node pos="l" depth="1" NCoef="0" IVar="4" Cut="1.1839459991455078e+02" cType="1" res="-4.3679594993591309e-02" rms="3.3994606137275696e-01" purity="2.0818966627120972e-01" nType="0">
          <Node pos="l" depth="2" NCoef="0" IVar="-1" Cut="0.0000000000000000e+00" cType="1" res="-4.6807821490801871e-04" rms="3.2561269402503967e-01" purity="1.5086929500102997e-01" nType="-99"/>
          <Node pos="r" depth="2" NCoef="0" IVar="-1" Cut="0.0000000000000000e+00" cType="1" res="-4.3228259310126305e-03" rms="3.4760078787803650e-01" purity="2.5152444839477539e-01" nType="-99"/>
        </Node>
        <Node pos="r" depth="1" NCoef="0" IVar="8" Cut="1.9999758005142212e+00" cType="1" res="6.7879986017942429e-03" rms="3.9057019352912903e-01" purity="5.2361857891082764e-01" nType="0">
          <Node pos="l" depth="2" NCoef="0" IVar="2" Cut="4.0312799072265625e+02" cType="1" res="9.2569105327129364e-03" rms="3.9262148737907410e-01" purity="5.3603756427764893e-01" nType="0">
            <Node pos="l" depth="3" NCoef="0" IVar="-1" Cut="0.0000000000000000e+00" cType="1" res="7.5469643343240023e-04" rms="3.8907390832901001e-01" purity="5.8660656213760376e-01" nType="-99"/>
            <Node pos="r" depth="3" NCoef="0" IVar="-1" Cut="0.0000000000000000e+00" cType="1" res="-4.1468441486358643e-04" rms="3.9905983209609985e-01" purity="4.3453541398048401e-01" nType="-99"/>
          </Node>
          <Node pos="r" depth="2" NCoef="0" IVar="-1" Cut="0.0000000000000000e+00" cType="1" res="-4.5082778669893742e-03" rms="3.2289394736289978e-01" purity="1.8639717996120453e-01" nType="-99"/>
        </Node>
      </Node>
    </BinaryTree>
    <BinaryTree type="DecisionTree" boostWeight="1.0000000000000000e+00" itree="569">
      <Node pos="s" depth="0" NCoef="0" IVar="0" Cut="1.1200546875000000e+03" cType="1" res="5.7755415327847004e-03" rms="3.8808226585388184e-01" purity="5.0202304124832153e-01" nType="0">
        <Node pos="l" depth="1" NCoef="0" IVar="2" Cut="2.5274714660644531e+02" cType="1" res="-1.7089689150452614e-02" rms="3.9569124579429626e-01" purity="2.6015371084213257e-01" nType="0">
          <Node pos="l" depth="2" NCoef="0" IVar="-1" Cut="0.0000000000000000e+00" cType="1" res="1.6017271263990551e-04" rms="4.3067827820777893e-01" purity="3.4708696603775024e-01" nType="-99"/>
          <Node pos="r" depth="2" NCoef="0" IVar="-1" Cut="0.0000000000000000e+00" cType="1" res="-2.1428382024168968e-03" rms="3.5888370871543884e-01" purity="1.7903342843055725e-01" nType="-99"/>
        </Node>
        <Node pos="r" depth="1" NCoef="0" IVar="3" Cut="1.4860096740722656e+02" cType="1" res="1.1253704316914082e-02" rms="3.8603594899177551e-01" purity="5.5997115373611450e-01" nType="0">
          <Node pos="l" depth="2" NCoef="0" IVar="2" Cut="4.5465536499023438e+02" cType="1" res="5.3701434284448624e-02" rms="4.0499341487884521e-01" purity="4.8511186242103577e-01" nType="0">
            <Node pos="l" depth="3" NCoef="0" IVar="-1" Cut="0.0000000000000000e+00" cType="1" res="2.7838582172989845e-03" rms="4.1311997175216675e-01" purity="5.7245737314224243e-01" nType="-99"/>
            <Node pos="r" depth="3" NCoef="0" IVar="-1" Cut="0.0000000000000000e+00" cType="1" res="4.8743071965873241e-04" rms="3.8569545745849609e-01" purity="3.2393765449523926e-01" nType="-99"/>
          </Node>
          <Node pos="r" depth="2" NCoef="0" IVar="2" Cut="7.8389086914062500e+02" cType="1" res="4.8230942338705063e-03" rms="3.8267171382904053e-01" purity="5.7131201028823853e-01" nType="0">
            <Node pos="l" depth="3" NCoef="0" IVar="-1" Cut="0.0000000000000000e+00" cType="1" res="3.6696749157272279e-04" rms="3.8061428070068359e-01" purity="5.7809221744537354e-01" nType="-99"/>
            <Node pos="r" depth="3" NCoef="0" IVar="-1" Cut="0.0000000000000000e+00" cType="1" res="-3.4744404256343842e-03" rms="4.2162069678306580e-01" purity="4.1099458932876587e-01" nType="-99"/>
          </Node>
        </Node>
      </Node>
    </BinaryTree>
    <BinaryTree type="DecisionTree" boostWeight="1.0000000000000000e+00" itree="570">
      <Node pos="s" depth="0" NCoef="0" IVar="2" Cut="7.1392669677734375e+02" cType="1" res="3.2835581805557013e-04" rms="3.8869395852088928e-01" purity="4.9520519375801086e-01" nType="0">
        <Node pos="l" depth="1" NCoef="0" IVar="0" Cut="1.3250833740234375e+03" cType="1" res="4.7598499804735184e-03" rms="3.8761922717094421e-01" purity="5.0262814760208130e-01" nType="0">
          <Node pos="l" depth="2" NCoef="0" IVar="5" Cut="1.1352313232421875e+02" cType="1" res="-1.2212752364575863e-02" rms="4.0251195430755615e-01" purity="3.5676279664039612e-01" nType="0">
            <Node pos="l" depth="3" NCoef="0" IVar="-1" Cut="0.0000000000000000e+00" cType="1" res="-1.6647690790705383e-04" rms="3.9791849255561829e-01" purity="3.2900649309158325e-01" nType="-99"/>
            <Node pos="r" depth="3" NCoef="0" IVar="-1" Cut="0.0000000000000000e+00" cType="1" res="-2.3498241789638996e-03" rms="4.2484822869300842e-01" purity="5.1826375722885132e-01" nType="-99"/>
          </Node>
          <Node pos="r" depth="2" NCoef="0" IVar="2" Cut="2.9794335937500000e+02" cType="1" res="1.9399767741560936e-02" rms="3.7367889285087585e-01" purity="6.2844610214233398e-01" nType="0">
            <Node pos="l" depth="3" NCoef="0" IVar="-1" Cut="0.0000000000000000e+00" cType="1" res="2.6529731694608927e-03" rms="2.9877215623855591e-01" purity="8.6903870105743408e-01" nType="-99"/>
            <Node pos="r" depth="3" NCoef="0" IVar="-1" Cut="0.0000000000000000e+00" cType="1" res="3.5917563945986331e-04" rms="3.9307141304016113e-01" purity="5.5459302663803101e-01" nType="-99"/>
          </Node>
        </Node>
        <Node pos="r" depth="1" NCoef="0" IVar="-1" Cut="0.0000000000000000e+00" cType="1" res="-5.5754004279151559e-04" rms="3.9933130145072937e-01" purity="3.5493257641792297e-01" nType="-99"/>
      </Node>
    </BinaryTree>
    <BinaryTree type="DecisionTree" boostWeight="1.0000000000000000e+00" itree="571">
      <Node pos="s" depth="0" NCoef="0" IVar="0" Cut="1.9709361572265625e+03" cType="1" res="3.4896084107458591e-03" rms="3.8821682333946228e-01" purity="4.9961474537849426e-01" nType="0">
        <Node pos="l" depth="1" NCoef="0" IVar="1" Cut="3.3758154296875000e+02" cType="1" res="-1.0299130808562040e-03" rms="3.8682866096496582e-01" purity="4.8189142346382141e-01" nType="0">
          <Node pos="l" depth="2" NCoef="0" IVar="2" Cut="4.8516220092773438e+02" cType="1" res="-2.8268150985240936e-02" rms="3.7318494915962219e-01" purity="3.1744745373725891e-01" nType="0">
            <Node pos="l" depth="3" NCoef="0" IVar="-1" Cut="0.0000000000000000e+00" cType="1" res="-1.0131653398275375e-03" rms="3.8074231147766113e-01" purity="3.4150800108909607e-01" nType="-99"/>
            <Node pos="r" depth="3" NCoef="0" IVar="-1" Cut="0.0000000000000000e+00" cType="1" res="-6.0224015032872558e-04" rms="3.0627959966659546e-01" purity="1.3806557655334473e-01" nType="-99"/>
          </Node>
          <Node pos="r" depth="2" NCoef="0" IVar="2" Cut="2.8786376953125000e+02" cType="1" res="8.2255993038415909e-03" rms="3.9092472195625305e-01" purity="5.3776919841766357e-01" nType="0">
            <Node pos="l" depth="3" NCoef="0" IVar="-1" Cut="0.0000000000000000e+00" cType="1" res="1.2817443348467350e-03" rms="3.7884476780891418e-01" purity="6.4181458950042725e-01" nType="-99"/>
            <Node pos="r" depth="3" NCoef="0" IVar="-1" Cut="0.0000000000000000e+00" cType="1" res="-2.6540292310528457e-04" rms="3.9729624986648560e-01" purity="4.7587430477142334e-01" nType="-99"/>
          </Node>
        </Node>
        <Node pos="r" depth="1" NCoef="0" IVar="3" Cut="3.4575900268554688e+02" cType="1" res="4.7474294900894165e-02" rms="3.9881026744842529e-01" purity="6.7210143804550171e-01" nType="0">
          <Node pos="l" depth="2" NCoef="0" IVar="0" Cut="2.1674572753906250e+03" cType="1" res="8.1376560032367706e-02" rms="3.7718817591667175e-01" purity="7.5336152315139771e-01" nType="0">
            <Node pos="l" depth="3" NCoef="0" IVar="-1" Cut="0.0000000000000000e+00" cType="1" res="2.2163437679409981e-03" rms="3.6459347605705261e-01" purity="7.3832023143768311e-01" nType="-99"/>
            <Node pos="r" depth="3" NCoef="0" IVar="-1" Cut="0.0000000000000000e+00" cType="1" res="3.5584906581789255e-03" rms="3.8802054524421692e-01" purity="7.6980018615722656e-01" nType="-99"/>
          </Node>
          <Node pos="r" depth="2" NCoef="0" IVar="-1" Cut="0.0000000000000000e+00" cType="1" res="-1.2464464816730469e-04" rms="4.2394748330116272e-01" purity="5.5138480663299561e-01" nType="-99"/>
        </Node>
      </Node>
    </BinaryTree>
    <BinaryTree type="DecisionTree" boostWeight="1.0000000000000000e+00" itree="572">
      <Node pos="s" depth="0" NCoef="0" IVar="6" Cut="1.4724397659301758e+00" cType="1" res="2.8378798160701990e-03" rms="3.8844233751296997e-01" purity="4.9809834361076355e-01" nType="0">
        <Node pos="l" depth="1" NCoef="0" IVar="6" Cut="-1.5612558126449585e+00" cType="1" res="6.2702102586627007e-03" rms="3.9203113317489624e-01" purity="5.1902925968170166e-01" nType="0">
          <Node pos="l" depth="2" NCoef="0" IVar="7" Cut="-1.3303077220916748e-01" cType="1" res="-4.9244295805692673e-02" rms="3.2431578636169434e-01" purity="1.9638665020465851e-01" nType="0">
            <Node pos="l" depth="3" NCoef="0" IVar="-1" Cut="0.0000000000000000e+00" cType="1" res="-5.6986482813954353e-03" rms="2.9207450151443481e-01" purity="1.6238199174404144e-01" nType="-99"/>
            <Node pos="r" depth="3" NCoef="0" IVar="-1" Cut="0.0000000000000000e+00" cType="1" res="-1.6617877408862114e-03" rms="3.4818235039710999e-01" purity="2.2593057155609131e-01" nType="-99"/>
          </Node>
          <Node pos="r" depth="2" NCoef="0" IVar="2" Cut="3.5404577636718750e+02" cType="1" res="9.6980286762118340e-03" rms="3.9557749032974243e-01" purity="5.3895127773284912e-01" nType="0">
            <Node pos="l" depth="3" NCoef="0" IVar="-1" Cut="0.0000000000000000e+00" cType="1" res="9.3195651425048709e-04" rms="3.9124044775962830e-01" purity="6.0482734441757202e-01" nType="-99"/>
            <Node pos="r" depth="3" NCoef="0" IVar="-1" Cut="0.0000000000000000e+00" cType="1" res="-2.0135067461524159e-04" rms="4.0019953250885010e-01" purity="4.5927414298057556e-01" nType="-99"/>
          </Node>
        </Node>
        <Node pos="r" depth="1" NCoef="0" IVar="6" Cut="1.9148787260055542e+00" cType="1" res="-4.4854789972305298e-02" rms="3.3095231652259827e-01" purity="2.0726099610328674e-01" nType="0">
          <Node pos="l" depth="2" NCoef="0" IVar="-1" Cut="0.0000000000000000e+00" cType="1" res="-1.9338184501975775e-03" rms="3.4485828876495361e-01" purity="2.2827370464801788e-01" nType="-99"/>
          <Node pos="r" depth="2" NCoef="0" IVar="-1" Cut="0.0000000000000000e+00" cType="1" res="-4.7978409565985203e-03" rms="3.0882400274276733e-01" purity="1.7751312255859375e-01" nType="-99"/>
        </Node>
      </Node>
    </BinaryTree>
    <BinaryTree type="DecisionTree" boostWeight="1.0000000000000000e+00" itree="573">
      <Node pos="s" depth="0" NCoef="0" IVar="9" Cut="1.7332497835159302e+00" cType="1" res="2.5471127592027187e-03" rms="3.8679587841033936e-01" purity="5.0039601325988770e-01" nType="0">
        <Node pos="l" depth="1" NCoef="0" IVar="2" Cut="3.7131405639648438e+02" cType="1" res="5.9390692040324211e-03" rms="3.8944786787033081e-01" purity="5.1700043678283691e-01" nType="0">
          <Node pos="l" depth="2" NCoef="0" IVar="0" Cut="1.6149027099609375e+03" cType="1" res="1.7039934173226357e-02" rms="3.8496381044387817e-01" purity="5.7401144504547119e-01" nType="0">
            <Node pos="l" depth="3" NCoef="0" IVar="-1" Cut="0.0000000000000000e+00" cType="1" res="4.2967160698026419e-04" rms="3.9773154258728027e-01" purity="5.2960431575775146e-01" nType="-99"/>
            <Node pos="r" depth="3" NCoef="0" IVar="-1" Cut="0.0000000000000000e+00" cType="1" res="3.3544544130563736e-03" rms="2.6569917798042297e-01" purity="9.0647131204605103e-01" nType="-99"/>
          </Node>
          <Node pos="r" depth="2" NCoef="0" IVar="0" Cut="1.8914726562500000e+03" cType="1" res="-1.0748924687504768e-02" rms="3.9550745487213135e-01" purity="4.3129542469978333e-01" nType="0">
            <Node pos="l" depth="3" NCoef="0" IVar="-1" Cut="0.0000000000000000e+00" cType="1" res="-7.8893284080550075e-04" rms="3.8789007067680359e-01" purity="3.6167553067207336e-01" nType="-99"/>
            <Node pos="r" depth="3" NCoef="0" IVar="-1" Cut="0.0000000000000000e+00" cType="1" res="1.1205036425963044e-03" rms="4.1455307602882385e-01" purity="6.3409531116485596e-01" nType="-99"/>
          </Node>
        </Node>
        <Node pos="r" depth="1" NCoef="0" IVar="5" Cut="9.3858573913574219e+01" cType="1" res="-4.8411168158054352e-02" rms="3.4046280384063721e-01" purity="2.5094380974769592e-01" nType="0">
          <Node pos="l" depth="2" NCoef="0" IVar="-1" Cut="0.0000000000000000e+00" cType="1" res="-2.2074205335229635e-03" rms="3.1503164768218994e-01" purity="1.5783710777759552e-01" nType="-99"/>
          <Node pos="r" depth="2" NCoef="0" IVar="-1" Cut="0.0000000000000000e+00" cType="1" res="-3.8182635325938463e-03" rms="3.6772531270980835e-01" purity="3.6467325687408447e-01" nType="-99"/>
        </Node>
      </Node>
    </BinaryTree>
    <BinaryTree type="DecisionTree" boostWeight="1.0000000000000000e+00" itree="574">
      <Node pos="s" depth="0" NCoef="0" IVar="8" Cut="6.6665613651275635e-01" cType="1" res="-3.0648095998913050e-03" rms="3.8294997811317444e-01" purity="4.9562993645668030e-01" nType="0">
        <Node pos="l" depth="1" NCoef="0" IVar="8" Cut="-6.5399426221847534e-01" cType="1" res="5.8333892375230789e-03" rms="3.8582763075828552e-01" purity="5.3061473369598389e-01" nType="0">
          <Node pos="l" depth="2" NCoef="0" IVar="6" Cut="-1.1643270254135132e+00" cType="1" res="-1.4285181649029255e-02" rms="3.8104009628295898e-01" purity="4.0320077538490295e-01" nType="0">
            <Node pos="l" depth="3" NCoef="0" IVar="-1" Cut="0.0000000000000000e+00" cType="1" res="-4.0369443595409393e-03" rms="3.1033042073249817e-01" purity="1.7535510659217834e-01" nType="-99"/>
            <Node pos="r" depth="3" NCoef="0" IVar="-1" Cut="0.0000000000000000e+00" cType="1" res="-3.5280693555250764e-04" rms="3.9161795377731323e-01" purity="4.4285672903060913e-01" nType="-99"/>
          </Node>
          <Node pos="r" depth="2" NCoef="0" IVar="0" Cut="1.1317449951171875e+03" cType="1" res="1.7000369727611542e-02" rms="3.8800960779190063e-01" purity="6.0133689641952515e-01" nType="0">
            <Node pos="l" depth="3" NCoef="0" IVar="-1" Cut="0.0000000000000000e+00" cType="1" res="-5.3782836766913533e-04" rms="4.2545291781425476e-01" purity="3.3170127868652344e-01" nType="-99"/>
            <Node pos="r" depth="3" NCoef="0" IVar="-1" Cut="0.0000000000000000e+00" cType="1" res="7.3122640606015921e-04" rms="3.7946832180023193e-01" purity="6.5719705820083618e-01" nType="-99"/>
          </Node>
        </Node>
        <Node pos="r" depth="1" NCoef="0" IVar="7" Cut="-1.3346883654594421e-01" cType="1" res="-2.8802920132875443e-02" rms="3.7330976128578186e-01" purity="3.9443612098693848e-01" nType="0">
          <Node pos="l" depth="2" NCoef="0" IVar="4" Cut="1.3173352050781250e+02" cType="1" res="-5.6044679135084152e-02" rms="3.6491864919662476e-01" purity="3.4476247429847717e-01" nType="0">
            <Node pos="l" depth="3" NCoef="0" IVar="-1" Cut="0.0000000000000000e+00" cType="1" res="-2.3710182867944241e-03" rms="3.5066115856170654e-01" purity="2.4975796043872833e-01" nType="-99"/>
            <Node pos="r" depth="3" NCoef="0" IVar="-1" Cut="0.0000000000000000e+00" cType="1" res="-4.0260236710309982e-03" rms="3.7751942873001099e-01" purity="4.3623596429824829e-01" nType="-99"/>
          </Node>
          <Node pos="r" depth="2" NCoef="0" IVar="7" Cut="7.0461595058441162e-01" cType="1" res="-1.1230283416807652e-02" rms="3.7758252024650574e-01" purity="4.2647871375083923e-01" nType="0">
            <Node pos="l" depth="3" NCoef="0" IVar="-1" Cut="0.0000000000000000e+00" cType="1" res="4.0246205753646791e-04" rms="3.9998406171798706e-01" purity="5.4633051156997681e-01" nType="-99"/>
            <Node pos="r" depth="3" NCoef="0" IVar="-1" Cut="0.0000000000000000e+00" cType="1" res="-2.1968157961964607e-03" rms="3.4913143515586853e-01" purity="2.9144120216369629e-01" nType="-99"/>
          </Node>
        </Node>
      </Node>
    </BinaryTree>
    <BinaryTree type="DecisionTree" boostWeight="1.0000000000000000e+00" itree="575">
      <Node pos="s" depth="0" NCoef="0" IVar="9" Cut="1.2000043392181396e+00" cType="1" res="8.2647608360275626e-04" rms="3.8759183883666992e-01" purity="4.9662190675735474e-01" nType="0">
        <Node pos="l" depth="1" NCoef="0" IVar="2" Cut="3.7131063842773438e+02" cType="1" res="7.1043800562620163e-03" rms="3.9098590612411499e-01" purity="5.2452540397644043e-01" nType="0">
          <Node pos="l" depth="2" NCoef="0" IVar="0" Cut="1.0328489990234375e+03" cType="1" res="1.7133014276623726e-02" rms="3.8584128022193909e-01" purity="5.8044600486755371e-01" nType="0">
            <Node pos="l" depth="3" NCoef="0" IVar="-1" Cut="0.0000000000000000e+00" cType="1" res="-1.1221991153433919e-03" rms="4.0561410784721375e-01" purity="2.5231924653053284e-01" nType="-99"/>
            <Node pos="r" depth="3" NCoef="0" IVar="-1" Cut="0.0000000000000000e+00" cType="1" res="1.0706412140280008e-03" rms="3.8121372461318970e-01" purity="6.4532995223999023e-01" nType="-99"/>
          </Node>
          <Node pos="r" depth="2" NCoef="0" IVar="0" Cut="1.9020927734375000e+03" cType="1" res="-8.0046271905303001e-03" rms="3.9813470840454102e-01" purity="4.4027620553970337e-01" nType="0">
            <Node pos="l" depth="3" NCoef="0" IVar="-1" Cut="0.0000000000000000e+00" cType="1" res="-1.0750975925475359e-03" rms="3.9385271072387695e-01" purity="3.6943465471267700e-01" nType="-99"/>
            <Node pos="r" depth="3" NCoef="0" IVar="-1" Cut="0.0000000000000000e+00" cType="1" res="1.0998114012181759e-03" rms="4.0825739502906799e-01" purity="6.4635461568832397e-01" nType="-99"/>
          </Node>
        </Node>
        <Node pos="r" depth="1" NCoef="0" IVar="9" Cut="2.1142454147338867e+00" cType="1" res="-3.7395954132080078e-02" rms="3.6391964554786682e-01" purity="3.2673391699790955e-01" nType="0">
          <Node pos="l" depth="2" NCoef="0" IVar="5" Cut="1.1871619415283203e+02" cType="1" res="-2.7745252475142479e-02" rms="3.7415039539337158e-01" purity="3.6420822143554688e-01" nType="0">
            <Node pos="l" depth="3" NCoef="0" IVar="-1" Cut="0.0000000000000000e+00" cType="1" res="-7.8761350596323609e-04" rms="3.6437478661537170e-01" purity="3.0853000283241272e-01" nType="-99"/>
            <Node pos="r" depth="3" NCoef="0" IVar="-1" Cut="0.0000000000000000e+00" cType="1" res="-3.0526493210345507e-03" rms="3.9713406562805176e-01" purity="5.1331621408462524e-01" nType="-99"/>
          </Node>
          <Node pos="r" depth="2" NCoef="0" IVar="-1" Cut="0.0000000000000000e+00" cType="1" res="-5.9140110388398170e-03" rms="3.1925159692764282e-01" purity="1.8377812206745148e-01" nType="-99"/>
        </Node>
      </Node>
    </BinaryTree>
    <BinaryTree type="DecisionTree" boostWeight="1.0000000000000000e+00" itree="576">
      <Node pos="s" depth="0" NCoef="0" IVar="0" Cut="1.5806446533203125e+03" cType="1" res="3.2924152910709381e-03" rms="3.8724064826965332e-01" purity="4.9956068396568298e-01" nType="0">
        <Node pos="l" depth="1" NCoef="0" IVar="2" Cut="2.6227996826171875e+02" cType="1" res="-5.8917286805808544e-03" rms="3.9128246903419495e-01" purity="4.3575337529182434e-01" nType="0">
          <Node pos="l" depth="2" NCoef="0" IVar="0" Cut="1.0230717773437500e+03" cType="1" res="1.8326373770833015e-02" rms="3.9498767256736755e-01" purity="5.5335366725921631e-01" nType="0">
            <Node pos="l" depth="3" NCoef="0" IVar="-1" Cut="0.0000000000000000e+00" cType="1" res="-1.9666145090013742e-03" rms="4.0535563230514526e-01" purity="2.4896819889545441e-01" nType="-99"/>
            <Node pos="r" depth="3" NCoef="0" IVar="-1" Cut="0.0000000000000000e+00" cType="1" res="1.4947637682780623e-03" rms="3.8930633664131165e-01" purity="6.5711057186126709e-01" nType="-99"/>
          </Node>
          <Node pos="r" depth="2" NCoef="0" IVar="4" Cut="1.8227154541015625e+02" cType="1" res="-1.7784690484404564e-02" rms="3.8889825344085693e-01" purity="3.7800255417823792e-01" nType="0">
            <Node pos="l" depth="3" NCoef="0" IVar="-1" Cut="0.0000000000000000e+00" cType="1" res="-5.7877786457538605e-04" rms="3.8825538754463196e-01" purity="3.6271056532859802e-01" nType="-99"/>
            <Node pos="r" depth="3" NCoef="0" IVar="-1" Cut="0.0000000000000000e+00" cType="1" res="-3.1111857388168573e-03" rms="3.9103373885154724e-01" purity="4.8878958821296692e-01" nType="-99"/>
          </Node>
        </Node>
        <Node pos="r" depth="1" NCoef="0" IVar="2" Cut="8.0959265136718750e+02" cType="1" res="2.5009000673890114e-02" rms="3.7662151455879211e-01" purity="6.5043777227401733e-01" nType="0">
          <Node pos="l" depth="2" NCoef="0" IVar="0" Cut="2.1526516113281250e+03" cType="1" res="3.3949296921491623e-02" rms="3.7084868550300598e-01" purity="6.7410635948181152e-01" nType="0">
            <Node pos="l" depth="3" NCoef="0" IVar="-1" Cut="0.0000000000000000e+00" cType="1" res="1.2082726461812854e-03" rms="3.6898812651634216e-01" purity="6.6198730468750000e-01" nType="-99"/>
            <Node pos="r" depth="3" NCoef="0" IVar="-1" Cut="0.0000000000000000e+00" cType="1" res="3.3945785835385323e-03" rms="3.7758085131645203e-01" purity="7.5609284639358521e-01" nType="-99"/>
          </Node>
          <Node pos="r" depth="2" NCoef="0" IVar="-1" Cut="0.0000000000000000e+00" cType="1" res="-4.1056209011003375e-04" rms="4.1541522741317749e-01" purity="4.4509744644165039e-01" nType="-99"/>
        </Node>
      </Node>
    </BinaryTree>
    <BinaryTree type="DecisionTree" boostWeight="1.0000000000000000e+00" itree="577">
      <Node pos="s" depth="0" NCoef="0" IVar="2" Cut="6.3791400146484375e+02" cType="1" res="3.6282846704125404e-03" rms="3.8612300157546997e-01" purity="5.0165152549743652e-01" nType="0">
        <Node pos="l" depth="1" NCoef="0" IVar="0" Cut="2.0640095214843750e+03" cType="1" res="7.6084542088210583e-03" rms="3.8561785221099854e-01" purity="5.1214510202407837e-01" nType="0">
          <Node pos="l" depth="2" NCoef="0" IVar="3" Cut="2.7226171875000000e+02" cType="1" res="4.6536987647414207e-03" rms="3.8674616813659668e-01" purity="5.0094646215438843e-01" nType="0">
            <Node pos="l" depth="3" NCoef="0" IVar="-1" Cut="0.0000000000000000e+00" cType="1" res="4.7546267160214484e-04" rms="3.8555580377578735e-01" purity="5.0581139326095581e-01" nType="-99"/>
            <Node pos="r" depth="3" NCoef="0" IVar="-1" Cut="0.0000000000000000e+00" cType="1" res="-1.6645924188196659e-03" rms="3.9174386858940125e-01" purity="4.7221598029136658e-01" nType="-99"/>
          </Node>
          <Node pos="r" depth="2" NCoef="0" IVar="-1" Cut="0.0000000000000000e+00" cType="1" res="3.3388941083103418e-03" rms="3.4489938616752625e-01" purity="8.1131953001022339e-01" nType="-99"/>
        </Node>
        <Node pos="r" depth="1" NCoef="0" IVar="1" Cut="6.0599444580078125e+02" cType="1" res="-4.5601189136505127e-02" rms="3.8896447420120239e-01" purity="3.7185940146446228e-01" nType="0">
          <Node pos="l" depth="2" NCoef="0" IVar="-1" Cut="0.0000000000000000e+00" cType="1" res="-6.7467722110450268e-03" rms="3.4933760762214661e-01" purity="2.1844722330570221e-01" nType="-99"/>
          <Node pos="r" depth="2" NCoef="0" IVar="-1" Cut="0.0000000000000000e+00" cType="1" res="2.0781073544640094e-04" rms="4.3697386980056763e-01" purity="6.0280054807662964e-01" nType="-99"/>
        </Node>
      </Node>
    </BinaryTree>
    <BinaryTree type="DecisionTree" boostWeight="1.0000000000000000e+00" itree="578">
      <Node pos="s" depth="0" NCoef="0" IVar="6" Cut="-1.6928519010543823e+00" cType="1" res="2.2877221927046776e-03" rms="3.8677236437797546e-01" purity="5.0101703405380249e-01" nType="0">
        <Node pos="l" depth="1" NCoef="0" IVar="-1" Cut="0.0000000000000000e+00" cType="1" res="-6.0015027411282063e-03" rms="3.1082406640052795e-01" purity="1.5996852517127991e-01" nType="-99"/>
        <Node pos="r" depth="1" NCoef="0" IVar="2" Cut="8.0937719726562500e+02" cType="1" res="5.3904955275356770e-03" rms="3.8932320475578308e-01" purity="5.1530218124389648e-01" nType="0">
          <Node pos="l" depth="2" NCoef="0" IVar="2" Cut="2.2901960754394531e+02" cType="1" res="8.2709137350320816e-03" rms="3.8827487826347351e-01" purity="5.1871943473815918e-01" nType="0">
            <Node pos="l" depth="3" NCoef="0" IVar="-1" Cut="0.0000000000000000e+00" cType="1" res="1.8355770735070109e-03" rms="3.9545339345932007e-01" purity="6.0516345500946045e-01" nType="-99"/>
            <Node pos="r" depth="3" NCoef="0" IVar="-1" Cut="0.0000000000000000e+00" cType="1" res="1.2261922529432923e-04" rms="3.8695377111434937e-01" purity="5.0701719522476196e-01" nType="-99"/>
          </Node>
          <Node pos="r" depth="2" NCoef="0" IVar="-1" Cut="0.0000000000000000e+00" cType="1" res="-3.4711396438069642e-04" rms="4.1009080410003662e-01" purity="4.1428291797637939e-01" nType="-99"/>
        </Node>
      </Node>
    </BinaryTree>
    <BinaryTree type="DecisionTree" boostWeight="1.0000000000000000e+00" itree="579">
      <Node pos="s" depth="0" NCoef="0" IVar="0" Cut="1.1903398437500000e+03" cType="1" res="2.6739859022200108e-03" rms="3.8831356167793274e-01" purity="4.9656379222869873e-01" nType="0">
        <Node pos="l" depth="1" NCoef="0" IVar="4" Cut="1.2058820343017578e+02" cType="1" res="-1.9889449700713158e-02" rms="3.9555865526199341e-01" purity="2.8354218602180481e-01" nType="0">
          <Node pos="l" depth="2" NCoef="0" IVar="0" Cut="1.0788251953125000e+03" cType="1" res="-5.8450358919799328e-03" rms="3.9283192157745361e-01" purity="2.6735392212867737e-01" nType="0">
            <Node pos="l" depth="3" NCoef="0" IVar="-1" Cut="0.0000000000000000e+00" cType="1" res="-1.2520276941359043e-03" rms="3.8405528664588928e-01" purity="2.2622436285018921e-01" nType="-99"/>
            <Node pos="r" depth="3" NCoef="0" IVar="-1" Cut="0.0000000000000000e+00" cType="1" res="1.3893140712752938e-03" rms="4.0520474314689636e-01" purity="3.3899006247520447e-01" nType="-99"/>
          </Node>
          <Node pos="r" depth="2" NCoef="0" IVar="-1" Cut="0.0000000000000000e+00" cType="1" res="-2.4013125803321600e-03" rms="4.0035957098007202e-01" purity="3.2701995968818665e-01" nType="-99"/>
        </Node>
        <Node pos="r" depth="1" NCoef="0" IVar="3" Cut="1.4412709045410156e+02" cType="1" res="1.1304997839033604e-02" rms="3.8515681028366089e-01" purity="5.7804924249649048e-01" nType="0">
          <Node pos="l" depth="2" NCoef="0" IVar="0" Cut="1.4051647949218750e+03" cType="1" res="6.8220034241676331e-02" rms="4.1406723856925964e-01" purity="5.0838017463684082e-01" nType="0">
            <Node pos="l" depth="3" NCoef="0" IVar="-1" Cut="0.0000000000000000e+00" cType="1" res="1.4885030686855316e-03" rms="4.0930947661399841e-01" purity="4.4723385572433472e-01" nType="-99"/>
            <Node pos="r" depth="3" NCoef="0" IVar="-1" Cut="0.0000000000000000e+00" cType="1" res="4.2514270171523094e-03" rms="4.1656878590583801e-01" purity="6.0959833860397339e-01" nType="-99"/>
          </Node>
          <Node pos="r" depth="2" NCoef="0" IVar="7" Cut="6.6704016923904419e-01" cType="1" res="5.4196831770241261e-03" rms="3.8155850768089294e-01" purity="5.8525335788726807e-01" nType="0">
            <Node pos="l" depth="3" NCoef="0" IVar="-1" Cut="0.0000000000000000e+00" cType="1" res="6.1603082576766610e-04" rms="3.8128444552421570e-01" purity="6.2271606922149658e-01" nType="-99"/>
            <Node pos="r" depth="3" NCoef="0" IVar="-1" Cut="0.0000000000000000e+00" cType="1" res="-1.1085754958912730e-03" rms="3.8121175765991211e-01" purity="4.5794564485549927e-01" nType="-99"/>
          </Node>
        </Node>
      </Node>
    </BinaryTree>
    <BinaryTree type="DecisionTree" boostWeight="1.0000000000000000e+00" itree="580">
      <Node pos="s" depth="0" NCoef="0" IVar="6" Cut="-6.5114510059356689e-01" cType="1" res="6.2728049233555794e-03" rms="3.8690575957298279e-01" purity="5.0563192367553711e-01" nType="0">
        <Node pos="l" depth="1" NCoef="0" IVar="6" Cut="-1.8646246194839478e+00" cType="1" res="-1.7949052155017853e-02" rms="3.7365761399269104e-01" purity="3.7898933887481689e-01" nType="0">
          <Node pos="l" depth="2" NCoef="0" IVar="-1" Cut="0.0000000000000000e+00" cType="1" res="-4.9143796786665916e-03" rms="3.1666135787963867e-01" purity="1.7641130089759827e-01" nType="-99"/>
          <Node pos="r" depth="2" NCoef="0" IVar="3" Cut="2.3199250793457031e+02" cType="1" res="-1.2878511101007462e-02" rms="3.8002419471740723e-01" purity="4.0486347675323486e-01" nType="0">
            <Node pos="l" depth="3" NCoef="0" IVar="-1" Cut="0.0000000000000000e+00" cType="1" res="-1.3177751679904759e-04" rms="3.7428650259971619e-01" purity="3.9908024668693542e-01" nType="-99"/>
            <Node pos="r" depth="3" NCoef="0" IVar="-1" Cut="0.0000000000000000e+00" cType="1" res="-2.0513546187430620e-03" rms="3.9195021986961365e-01" purity="4.1822084784507751e-01" nType="-99"/>
          </Node>
        </Node>
        <Node pos="r" depth="1" NCoef="0" IVar="6" Cut="4.9913343787193298e-01" cType="1" res="1.3810919597744942e-02" rms="3.9063081145286560e-01" purity="5.4504454135894775e-01" nType="0">
          <Node pos="l" depth="2" NCoef="0" IVar="9" Cut="1.1997298002243042e+00" cType="1" res="2.7981147170066833e-02" rms="3.9263814687728882e-01" purity="6.2564575672149658e-01" nType="0">
            <Node pos="l" depth="3" NCoef="0" IVar="-1" Cut="0.0000000000000000e+00" cType="1" res="1.3482739450410008e-03" rms="3.9092528820037842e-01" purity="6.4896059036254883e-01" nType="-99"/>
            <Node pos="r" depth="3" NCoef="0" IVar="-1" Cut="0.0000000000000000e+00" cType="1" res="-5.2382913418114185e-04" rms="4.0259903669357300e-01" purity="4.5715308189392090e-01" nType="-99"/>
          </Node>
          <Node pos="r" depth="2" NCoef="0" IVar="8" Cut="-6.6672760248184204e-01" cType="1" res="-8.6710024625062943e-03" rms="3.8635981082916260e-01" purity="4.1716590523719788e-01" nType="0">
            <Node pos="l" depth="3" NCoef="0" IVar="-1" Cut="0.0000000000000000e+00" cType="1" res="-2.2161153610795736e-03" rms="3.6450800299644470e-01" purity="2.9919064044952393e-01" nType="-99"/>
            <Node pos="r" depth="3" NCoef="0" IVar="-1" Cut="0.0000000000000000e+00" cType="1" res="-2.4367631340282969e-05" rms="3.9233270287513733e-01" purity="4.5266345143318176e-01" nType="-99"/>
          </Node>
        </Node>
      </Node>
    </BinaryTree>
    <BinaryTree type="DecisionTree" boostWeight="1.0000000000000000e+00" itree="581">
      <Node pos="s" depth="0" NCoef="0" IVar="8" Cut="-1.4666821956634521e+00" cType="1" res="9.7500398987904191e-04" rms="3.8961842656135559e-01" purity="4.9517309665679932e-01" nType="0">
        <Node pos="l" depth="1" NCoef="0" IVar="4" Cut="1.1714925384521484e+02" cType="1" res="-3.7746649235486984e-02" rms="3.4606561064720154e-01" purity="2.2931680083274841e-01" nType="0">
          <Node pos="l" depth="2" NCoef="0" IVar="-1" Cut="0.0000000000000000e+00" cType="1" res="-1.8406416347716004e-04" rms="3.3167409896850586e-01" purity="1.8403051793575287e-01" nType="-99"/>
          <Node pos="r" depth="2" NCoef="0" IVar="-1" Cut="0.0000000000000000e+00" cType="1" res="-4.2002554982900620e-03" rms="3.5507386922836304e-01" purity="2.6764446496963501e-01" nType="-99"/>
        </Node>
        <Node pos="r" depth="1" NCoef="0" IVar="8" Cut="7.6817125082015991e-01" cType="1" res="4.6462169848382473e-03" rms="3.9329975843429565e-01" purity="5.2037900686264038e-01" nType="0">
          <Node pos="l" depth="2" NCoef="0" IVar="9" Cut="9.3337303400039673e-01" cType="1" res="1.2548944912850857e-02" rms="3.9499780535697937e-01" purity="5.6908297538757324e-01" nType="0">
            <Node pos="l" depth="3" NCoef="0" IVar="-1" Cut="0.0000000000000000e+00" cType="1" res="7.7704910654574633e-04" rms="3.9392212033271790e-01" purity="5.9441393613815308e-01" nType="-99"/>
            <Node pos="r" depth="3" NCoef="0" IVar="-1" Cut="0.0000000000000000e+00" cType="1" res="-7.1846734499558806e-04" rms="3.9871299266815186e-01" purity="4.5293477177619934e-01" nType="-99"/>
          </Node>
          <Node pos="r" depth="2" NCoef="0" IVar="4" Cut="1.4092761230468750e+02" cType="1" res="-1.8440410494804382e-02" rms="3.8737431168556213e-01" purity="3.7809750437736511e-01" nType="0">
            <Node pos="l" depth="3" NCoef="0" IVar="-1" Cut="0.0000000000000000e+00" cType="1" res="-4.0755443478701636e-05" rms="3.8361352682113647e-01" purity="3.1150087714195251e-01" nType="-99"/>
            <Node pos="r" depth="3" NCoef="0" IVar="-1" Cut="0.0000000000000000e+00" cType="1" res="-2.1360167302191257e-03" rms="3.9115971326828003e-01" purity="4.6881091594696045e-01" nType="-99"/>
          </Node>
        </Node>
      </Node>
    </BinaryTree>
    <BinaryTree type="DecisionTree" boostWeight="1.0000000000000000e+00" itree="582">
      <Node pos="s" depth="0" NCoef="0" IVar="0" Cut="1.4073211669921875e+03" cType="1" res="4.9731349572539330e-03" rms="3.8646382093429565e-01" purity="5.0185322761535645e-01" nType="0">
        <Node pos="l" depth="1" NCoef="0" IVar="2" Cut="2.7748800659179688e+02" cType="1" res="-6.8463194184005260e-03" rms="3.9808213710784912e-01" purity="3.8911187648773193e-01" nType="0">
          <Node pos="l" depth="2" NCoef="0" IVar="0" Cut="1.0313765869140625e+03" cType="1" res="1.5847455710172653e-02" rms="4.1051554679870605e-01" purity="5.0053131580352783e-01" nType="0">
            <Node pos="l" depth="3" NCoef="0" IVar="-1" Cut="0.0000000000000000e+00" cType="1" res="-1.4112569624558091e-03" rms="4.0117728710174561e-01" purity="2.5599816441535950e-01" nType="-99"/>
            <Node pos="r" depth="3" NCoef="0" IVar="-1" Cut="0.0000000000000000e+00" cType="1" res="1.2058319989591837e-03" rms="4.1275918483734131e-01" purity="5.9715938568115234e-01" nType="-99"/>
          </Node>
          <Node pos="r" depth="2" NCoef="0" IVar="5" Cut="8.5501953125000000e+01" cType="1" res="-2.6656305417418480e-02" rms="3.8581255078315735e-01" purity="2.9185101389884949e-01" nType="0">
            <Node pos="l" depth="3" NCoef="0" IVar="-1" Cut="0.0000000000000000e+00" cType="1" res="-5.0372385885566473e-04" rms="3.6825555562973022e-01" purity="2.2633467614650726e-01" nType="-99"/>
            <Node pos="r" depth="3" NCoef="0" IVar="-1" Cut="0.0000000000000000e+00" cType="1" res="-2.0914729684591293e-03" rms="4.0547165274620056e-01" purity="3.7318202853202820e-01" nType="-99"/>
          </Node>
        </Node>
        <Node pos="r" depth="1" NCoef="0" IVar="2" Cut="4.9200524902343750e+02" cType="1" res="1.8574595451354980e-02" rms="3.7218159437179565e-01" purity="6.3159245252609253e-01" nType="0">
          <Node pos="l" depth="2" NCoef="0" IVar="4" Cut="1.9659333801269531e+02" cType="1" res="3.5523574799299240e-02" rms="3.5399463772773743e-01" purity="7.5158667564392090e-01" nType="0">
            <Node pos="l" depth="3" NCoef="0" IVar="-1" Cut="0.0000000000000000e+00" cType="1" res="2.2981539368629456e-03" rms="3.4706187248229980e-01" purity="7.7098733186721802e-01" nType="-99"/>
            <Node pos="r" depth="3" NCoef="0" IVar="-1" Cut="0.0000000000000000e+00" cType="1" res="3.9014473441056907e-04" rms="3.6417305469512939e-01" purity="7.1774250268936157e-01" nType="-99"/>
          </Node>
          <Node pos="r" depth="2" NCoef="0" IVar="0" Cut="1.9567882080078125e+03" cType="1" res="-1.1370897293090820e-02" rms="4.0056073665618896e-01" purity="4.1958636045455933e-01" nType="0">
            <Node pos="l" depth="3" NCoef="0" IVar="-1" Cut="0.0000000000000000e+00" cType="1" res="-2.4679966736584902e-03" rms="3.8151696324348450e-01" purity="2.9699677228927612e-01" nType="-99"/>
            <Node pos="r" depth="3" NCoef="0" IVar="-1" Cut="0.0000000000000000e+00" cType="1" res="1.1278188321739435e-03" rms="4.2326378822326660e-01" purity="5.9632080793380737e-01" nType="-99"/>
          </Node>
        </Node>
      </Node>
    </BinaryTree>
    <BinaryTree type="DecisionTree" boostWeight="1.0000000000000000e+00" itree="583">
      <Node pos="s" depth="0" NCoef="0" IVar="0" Cut="1.7945961914062500e+03" cType="1" res="2.1894485689699650e-03" rms="3.8678193092346191e-01" purity="5.0030058622360229e-01" nType="0">
        <Node pos="l" depth="1" NCoef="0" IVar="2" Cut="3.1631231689453125e+02" cType="1" res="-3.2302008476108313e-03" rms="3.8778004050254822e-01" purity="4.6922016143798828e-01" nType="0">
          <Node pos="l" depth="2" NCoef="0" IVar="0" Cut="1.0841898193359375e+03" cType="1" res="1.7444377765059471e-02" rms="3.8803890347480774e-01" purity="5.6239467859268188e-01" nType="0">
            <Node pos="l" depth="3" NCoef="0" IVar="-1" Cut="0.0000000000000000e+00" cType="1" res="-6.9257110590115190e-04" rms="4.1040384769439697e-01" purity="2.7507936954498291e-01" nType="-99"/>
            <Node pos="r" depth="3" NCoef="0" IVar="-1" Cut="0.0000000000000000e+00" cType="1" res="1.2508048675954342e-03" rms="3.7740433216094971e-01" purity="6.8314105272293091e-01" nType="-99"/>
          </Node>
          <Node pos="r" depth="2" NCoef="0" IVar="2" Cut="5.8215930175781250e+02" cType="1" res="-2.5408357381820679e-02" rms="3.8627392053604126e-01" purity="3.6926946043968201e-01" nType="0">
            <Node pos="l" depth="3" NCoef="0" IVar="-1" Cut="0.0000000000000000e+00" cType="1" res="-1.0129051515832543e-03" rms="3.9154613018035889e-01" purity="3.9268979430198669e-01" nType="-99"/>
            <Node pos="r" depth="3" NCoef="0" IVar="-1" Cut="0.0000000000000000e+00" cType="1" res="-7.9451809870079160e-04" rms="3.3113613724708557e-01" purity="1.5706798434257507e-01" nType="-99"/>
          </Node>
        </Node>
        <Node pos="r" depth="1" NCoef="0" IVar="3" Cut="3.4008117675781250e+02" cType="1" res="3.1684819608926773e-02" rms="3.7995123863220215e-01" purity="6.6944950819015503e-01" nType="0">
          <Node pos="l" depth="2" NCoef="0" IVar="0" Cut="2.0031870117187500e+03" cType="1" res="5.3366214036941528e-02" rms="3.6110961437225342e-01" purity="7.3697566986083984e-01" nType="0">
            <Node pos="l" depth="3" NCoef="0" IVar="-1" Cut="0.0000000000000000e+00" cType="1" res="1.2783373240381479e-03" rms="3.5209983587265015e-01" purity="7.1510976552963257e-01" nType="-99"/>
            <Node pos="r" depth="3" NCoef="0" IVar="-1" Cut="0.0000000000000000e+00" cType="1" res="3.0773133039474487e-03" rms="3.6895844340324402e-01" purity="7.6273071765899658e-01" nType="-99"/>
          </Node>
          <Node pos="r" depth="2" NCoef="0" IVar="5" Cut="1.4562216186523438e+02" cType="1" res="-8.7429629638791084e-03" rms="4.0974071621894836e-01" purity="5.4353821277618408e-01" nType="0">
            <Node pos="l" depth="3" NCoef="0" IVar="-1" Cut="0.0000000000000000e+00" cType="1" res="-2.5750482454895973e-03" rms="4.0874171257019043e-01" purity="4.2167222499847412e-01" nType="-99"/>
            <Node pos="r" depth="3" NCoef="0" IVar="-1" Cut="0.0000000000000000e+00" cType="1" res="1.0745037579908967e-03" rms="4.0742251276969910e-01" purity="6.5557056665420532e-01" nType="-99"/>
          </Node>
        </Node>
      </Node>
    </BinaryTree>
    <BinaryTree type="DecisionTree" boostWeight="1.0000000000000000e+00" itree="584">
      <Node pos="s" depth="0" NCoef="0" IVar="0" Cut="1.4571070556640625e+03" cType="1" res="8.4535274654626846e-03" rms="3.8822922110557556e-01" purity="5.0649052858352661e-01" nType="0">
        <Node pos="l" depth="1" NCoef="0" IVar="3" Cut="2.1176676940917969e+02" cType="1" res="-1.4413661556318402e-03" rms="3.9771971106529236e-01" purity="4.1273933649063110e-01" nType="0">
          <Node pos="l" depth="2" NCoef="0" IVar="2" Cut="2.8752374267578125e+02" cType="1" res="1.0439717210829258e-02" rms="3.9905980229377747e-01" purity="4.1832661628723145e-01" nType="0">
            <Node pos="l" depth="3" NCoef="0" IVar="-1" Cut="0.0000000000000000e+00" cType="1" res="1.1722272029146552e-03" rms="4.0876689553260803e-01" purity="5.1659220457077026e-01" nType="-99"/>
            <Node pos="r" depth="3" NCoef="0" IVar="-1" Cut="0.0000000000000000e+00" cType="1" res="-5.6521344231441617e-04" rms="3.8658919930458069e-01" purity="3.0728918313980103e-01" nType="-99"/>
          </Node>
          <Node pos="r" depth="2" NCoef="0" IVar="9" Cut="-6.6598111391067505e-01" cType="1" res="-4.3399840593338013e-02" rms="3.9006543159484863e-01" purity="3.9300760626792908e-01" nType="0">
            <Node pos="l" depth="3" NCoef="0" IVar="-1" Cut="0.0000000000000000e+00" cType="1" res="-5.1209335215389729e-03" rms="3.6396688222885132e-01" purity="2.9606899619102478e-01" nType="-99"/>
            <Node pos="r" depth="3" NCoef="0" IVar="-1" Cut="0.0000000000000000e+00" cType="1" res="-1.3210369506850839e-03" rms="3.9826643466949463e-01" purity="4.2901781201362610e-01" nType="-99"/>
          </Node>
        </Node>
        <Node pos="r" depth="1" NCoef="0" IVar="2" Cut="5.4268450927734375e+02" cType="1" res="2.2493677213788033e-02" rms="3.7390109896659851e-01" purity="6.3951689004898071e-01" nType="0">
          <Node pos="l" depth="2" NCoef="0" IVar="4" Cut="1.8937330627441406e+02" cType="1" res="3.5017993301153183e-02" rms="3.5660639405250549e-01" purity="7.3752719163894653e-01" nType="0">
            <Node pos="l" depth="3" NCoef="0" IVar="-1" Cut="0.0000000000000000e+00" cType="1" res="2.4975938722491264e-03" rms="3.5070765018463135e-01" purity="7.5752925872802734e-01" nType="-99"/>
            <Node pos="r" depth="3" NCoef="0" IVar="-1" Cut="0.0000000000000000e+00" cType="1" res="3.6141864256933331e-04" rms="3.6180883646011353e-01" purity="7.1301144361495972e-01" nType="-99"/>
          </Node>
          <Node pos="r" depth="2" NCoef="0" IVar="0" Cut="2.3487238769531250e+03" cType="1" res="-6.0795517638325691e-03" rms="4.0920782089233398e-01" purity="4.1591411828994751e-01" nType="0">
            <Node pos="l" depth="3" NCoef="0" IVar="-1" Cut="0.0000000000000000e+00" cType="1" res="-1.0290540521964431e-03" rms="4.0274357795715332e-01" purity="3.5960060358047485e-01" nType="-99"/>
            <Node pos="r" depth="3" NCoef="0" IVar="-1" Cut="0.0000000000000000e+00" cType="1" res="1.5156473964452744e-03" rms="4.3046808242797852e-01" purity="6.4100086688995361e-01" nType="-99"/>
          </Node>
        </Node>
      </Node>
    </BinaryTree>
    <BinaryTree type="DecisionTree" boostWeight="1.0000000000000000e+00" itree="585">
      <Node pos="s" depth="0" NCoef="0" IVar="6" Cut="4.0472897887229919e-01" cType="1" res="2.6545985601842403e-03" rms="3.8435760140419006e-01" purity="5.0299429893493652e-01" nType="0">
        <Node pos="l" depth="1" NCoef="0" IVar="6" Cut="-3.5559192299842834e-01" cType="1" res="1.1505069211125374e-02" rms="3.8616362214088440e-01" purity="5.3996962308883667e-01" nType="0">
          <Node pos="l" depth="2" NCoef="0" IVar="3" Cut="3.2104043579101562e+02" cType="1" res="-5.1840483210980892e-03" rms="3.8113534450531006e-01" purity="4.5054456591606140e-01" nType="0">
            <Node pos="l" depth="3" NCoef="0" IVar="-1" Cut="0.0000000000000000e+00" cType="1" res="-2.0770701667061076e-05" rms="3.8032969832420349e-01" purity="4.5566555857658386e-01" nType="-99"/>
            <Node pos="r" depth="3" NCoef="0" IVar="-1" Cut="0.0000000000000000e+00" cType="1" res="-2.9797106981277466e-03" rms="3.8580012321472168e-01" purity="4.0183344483375549e-01" nType="-99"/>
          </Node>
          <Node pos="r" depth="2" NCoef="0" IVar="2" Cut="5.0808895874023438e+02" cType="1" res="2.9159205034375191e-02" rms="3.9063706994056702e-01" purity="6.3456553220748901e-01" nType="0">
            <Node pos="l" depth="3" NCoef="0" IVar="-1" Cut="0.0000000000000000e+00" cType="1" res="1.4715224970132113e-03" rms="3.8461780548095703e-01" purity="6.6917937994003296e-01" nType="-99"/>
            <Node pos="r" depth="3" NCoef="0" IVar="-1" Cut="0.0000000000000000e+00" cType="1" res="-6.1114924028515816e-04" rms="4.1801604628562927e-01" purity="4.5444005727767944e-01" nType="-99"/>
          </Node>
        </Node>
        <Node pos="r" depth="1" NCoef="0" IVar="7" Cut="-1.1994600296020508e+00" cType="1" res="-1.5327904373407364e-02" rms="3.8002741336822510e-01" purity="4.2786732316017151e-01" nType="0">
          <Node pos="l" depth="2" NCoef="0" IVar="-1" Cut="0.0000000000000000e+00" cType="1" res="-5.5305254645645618e-03" rms="3.1015905737876892e-01" purity="1.5737891197204590e-01" nType="-99"/>
          <Node pos="r" depth="2" NCoef="0" IVar="0" Cut="1.3002513427734375e+03" cType="1" res="-8.7389927357435226e-03" rms="3.8757058978080750e-01" purity="4.6249124407768250e-01" nType="0">
            <Node pos="l" depth="3" NCoef="0" IVar="-1" Cut="0.0000000000000000e+00" cType="1" res="-1.3565591070801020e-03" rms="3.9486140012741089e-01" purity="2.9820910096168518e-01" nType="-99"/>
            <Node pos="r" depth="3" NCoef="0" IVar="-1" Cut="0.0000000000000000e+00" cType="1" res="3.9121005102060735e-04" rms="3.8113576173782349e-01" purity="5.8511477708816528e-01" nType="-99"/>
          </Node>
        </Node>
      </Node>
    </BinaryTree>
    <BinaryTree type="DecisionTree" boostWeight="1.0000000000000000e+00" itree="586">
      <Node pos="s" depth="0" NCoef="0" IVar="6" Cut="-3.9360484480857849e-01" cType="1" res="1.5932800015434623e-03" rms="3.8679715991020203e-01" purity="4.9727505445480347e-01" nType="0">
        <Node pos="l" depth="1" NCoef="0" IVar="7" Cut="3.9986100792884827e-01" cType="1" res="-1.5051577240228653e-02" rms="3.7801930308341980e-01" purity="4.2780154943466187e-01" nType="0">
          <Node pos="l" depth="2" NCoef="0" IVar="6" Cut="-1.4200429916381836e+00" cType="1" res="1.6275321831926703e-03" rms="3.8591843843460083e-01" purity="4.7688943147659302e-01" nType="0">
            <Node pos="l" depth="3" NCoef="0" IVar="-1" Cut="0.0000000000000000e+00" cType="1" res="-2.4274594616144896e-03" rms="3.4171596169471741e-01" purity="2.3201552033424377e-01" nType="-99"/>
            <Node pos="r" depth="3" NCoef="0" IVar="-1" Cut="0.0000000000000000e+00" cType="1" res="4.7380471369251609e-04" rms="3.9531159400939941e-01" purity="5.3614127635955811e-01" nType="-99"/>
          </Node>
          <Node pos="r" depth="2" NCoef="0" IVar="3" Cut="2.0423893737792969e+02" cType="1" res="-5.4027117788791656e-02" rms="3.5584852099418640e-01" purity="3.1309342384338379e-01" nType="0">
            <Node pos="l" depth="3" NCoef="0" IVar="-1" Cut="0.0000000000000000e+00" cType="1" res="-2.0660974550992250e-03" rms="3.5446590185165405e-01" purity="2.8706106543540955e-01" nType="-99"/>
            <Node pos="r" depth="3" NCoef="0" IVar="-1" Cut="0.0000000000000000e+00" cType="1" res="-4.7241616994142532e-03" rms="3.5643309354782104e-01" purity="3.4382718801498413e-01" nType="-99"/>
          </Node>
        </Node>
        <Node pos="r" depth="1" NCoef="0" IVar="6" Cut="5.1878643035888672e-01" cType="1" res="9.8345931619405746e-03" rms="3.9080810546875000e-01" purity="5.3167325258255005e-01" nType="0">
          <Node pos="l" depth="2" NCoef="0" IVar="2" Cut="6.0625280761718750e+02" cType="1" res="2.2869504988193512e-02" rms="3.9181917905807495e-01" purity="6.2224155664443970e-01" nType="0">
            <Node pos="l" depth="3" NCoef="0" IVar="-1" Cut="0.0000000000000000e+00" cType="1" res="1.2044372269883752e-03" rms="3.8874015212059021e-01" purity="6.4360666275024414e-01" nType="-99"/>
            <Node pos="r" depth="3" NCoef="0" IVar="-1" Cut="0.0000000000000000e+00" cType="1" res="-3.3353388425894082e-04" rms="4.1450634598731995e-01" purity="4.2446425557136536e-01" nType="-99"/>
          </Node>
          <Node pos="r" depth="2" NCoef="0" IVar="3" Cut="1.9325743103027344e+02" cType="1" res="-6.7974436096847057e-03" rms="3.8888028264045715e-01" purity="4.1611167788505554e-01" nType="0">
            <Node pos="l" depth="3" NCoef="0" IVar="-1" Cut="0.0000000000000000e+00" cType="1" res="7.2887312853708863e-04" rms="3.8928273320198059e-01" purity="3.7868720293045044e-01" nType="-99"/>
            <Node pos="r" depth="3" NCoef="0" IVar="-1" Cut="0.0000000000000000e+00" cType="1" res="-1.5593990683555603e-03" rms="3.8708141446113586e-01" purity="4.5280826091766357e-01" nType="-99"/>
          </Node>
        </Node>
      </Node>
    </BinaryTree>
    <BinaryTree type="DecisionTree" boostWeight="1.0000000000000000e+00" itree="587">
      <Node pos="s" depth="0" NCoef="0" IVar="9" Cut="-9.3329173326492310e-01" cType="1" res="1.9933085422962904e-03" rms="3.8693523406982422e-01" purity="4.9963179230690002e-01" nType="0">
        <Node pos="l" depth="1" NCoef="0" IVar="5" Cut="1.0453700256347656e+02" cType="1" res="-2.4371350184082985e-02" rms="3.7470397353172302e-01" purity="3.8141399621963501e-01" nType="0">
          <Node pos="l" depth="2" NCoef="0" IVar="2" Cut="4.5780654907226562e+02" cType="1" res="-1.2461667880415916e-02" rms="3.6605224013328552e-01" purity="2.8878590464591980e-01" nType="0">
            <Node pos="l" depth="3" NCoef="0" IVar="-1" Cut="0.0000000000000000e+00" cType="1" res="-1.7282452608924359e-04" rms="3.7766650319099426e-01" purity="3.1748369336128235e-01" nType="-99"/>
            <Node pos="r" depth="3" NCoef="0" IVar="-1" Cut="0.0000000000000000e+00" cType="1" res="-3.4570286516100168e-03" rms="3.2269236445426941e-01" purity="1.9360241293907166e-01" nType="-99"/>
          </Node>
          <Node pos="r" depth="2" NCoef="0" IVar="0" Cut="1.5053071289062500e+03" cType="1" res="-4.2460016906261444e-02" rms="3.8677424192428589e-01" purity="5.2209943532943726e-01" nType="0">
            <Node pos="l" depth="3" NCoef="0" IVar="-1" Cut="0.0000000000000000e+00" cType="1" res="-3.6019128747284412e-03" rms="3.8634169101715088e-01" purity="4.5095926523208618e-01" nType="-99"/>
            <Node pos="r" depth="3" NCoef="0" IVar="-1" Cut="0.0000000000000000e+00" cType="1" res="-6.2477466417476535e-04" rms="3.8465133309364319e-01" purity="5.8600878715515137e-01" nType="-99"/>
          </Node>
        </Node>
        <Node pos="r" depth="1" NCoef="0" IVar="9" Cut="1.9110732078552246e+00" cType="1" res="8.5865082219243050e-03" rms="3.8965529203414917e-01" purity="5.2919536828994751e-01" nType="0">
          <Node pos="l" depth="2" NCoef="0" IVar="6" Cut="6.7080944776535034e-01" cType="1" res="1.2273831292986870e-02" rms="3.9209881424903870e-01" purity="5.4724991321563721e-01" nType="0">
            <Node pos="l" depth="3" NCoef="0" IVar="-1" Cut="0.0000000000000000e+00" cType="1" res="8.3526753587648273e-04" rms="3.9156490564346313e-01" purity="5.9131228923797607e-01" nType="-99"/>
            <Node pos="r" depth="3" NCoef="0" IVar="-1" Cut="0.0000000000000000e+00" cType="1" res="-6.0357706388458610e-04" rms="3.9281266927719116e-01" purity="4.0353667736053467e-01" nType="-99"/>
          </Node>
          <Node pos="r" depth="2" NCoef="0" IVar="-1" Cut="0.0000000000000000e+00" cType="1" res="-3.9458670653402805e-03" rms="3.3956709504127502e-01" purity="2.2309324145317078e-01" nType="-99"/>
        </Node>
      </Node>
    </BinaryTree>
    <BinaryTree type="DecisionTree" boostWeight="1.0000000000000000e+00" itree="588">
      <Node pos="s" depth="0" NCoef="0" IVar="2" Cut="8.1617535400390625e+02" cType="1" res="4.5004468411207199e-03" rms="3.8681051135063171e-01" purity="5.0200301408767700e-01" nType="0">
        <Node pos="l" depth="1" NCoef="0" IVar="0" Cut="1.3529500732421875e+03" cType="1" res="6.5596261993050575e-03" rms="3.8581049442291260e-01" purity="5.0414800643920898e-01" nType="0">
          <Node pos="l" depth="2" NCoef="0" IVar="2" Cut="2.2548765563964844e+02" cType="1" res="-1.0154854506254196e-02" rms="4.0050753951072693e-01" purity="3.6995461583137512e-01" nType="0">
            <Node pos="l" depth="3" NCoef="0" IVar="-1" Cut="0.0000000000000000e+00" cType="1" res="1.3328043278306723e-03" rms="4.1484096646308899e-01" purity="5.1441365480422974e-01" nType="-99"/>
            <Node pos="r" depth="3" NCoef="0" IVar="-1" Cut="0.0000000000000000e+00" cType="1" res="-8.8834069902077317e-04" rms="3.9684730768203735e-01" purity="3.4025034308433533e-01" nType="-99"/>
          </Node>
          <Node pos="r" depth="2" NCoef="0" IVar="2" Cut="4.3481295776367188e+02" cType="1" res="2.2315990179777145e-02" rms="3.7073442339897156e-01" purity="6.3064908981323242e-01" nType="0">
            <Node pos="l" depth="3" NCoef="0" IVar="-1" Cut="0.0000000000000000e+00" cType="1" res="1.7530691111460328e-03" rms="3.4624347090721130e-01" purity="7.6799374818801880e-01" nType="-99"/>
            <Node pos="r" depth="3" NCoef="0" IVar="-1" Cut="0.0000000000000000e+00" cType="1" res="-6.4582432059978601e-06" rms="4.0121567249298096e-01" purity="4.3982830643653870e-01" nType="-99"/>
          </Node>
        </Node>
        <Node pos="r" depth="1" NCoef="0" IVar="-1" Cut="0.0000000000000000e+00" cType="1" res="-4.7940897638909519e-04" rms="4.1290891170501709e-01" purity="4.3063676357269287e-01" nType="-99"/>
      </Node>
    </BinaryTree>
    <BinaryTree type="DecisionTree" boostWeight="1.0000000000000000e+00" itree="589">
      <Node pos="s" depth="0" NCoef="0" IVar="9" Cut="-9.3330067396163940e-01" cType="1" res="5.2398606203496456e-03" rms="3.8982981443405151e-01" purity="5.0130677223205566e-01" nType="0">
        <Node pos="l" depth="1" NCoef="0" IVar="9" Cut="-2.1777040958404541e+00" cType="1" res="-2.0931070670485497e-02" rms="3.7712579965591431e-01" purity="3.8537976145744324e-01" nType="0">
          <Node pos="l" depth="2" NCoef="0" IVar="-1" Cut="0.0000000000000000e+00" cType="1" res="-4.7630914486944675e-03" rms="3.2128554582595825e-01" purity="2.0088221132755280e-01" nType="-99"/>
          <Node pos="r" depth="2" NCoef="0" IVar="6" Cut="-1.1627104282379150e+00" cType="1" res="-1.4679785817861557e-02" rms="3.8414585590362549e-01" purity="4.1212213039398193e-01" nType="0">
            <Node pos="l" depth="3" NCoef="0" IVar="-1" Cut="0.0000000000000000e+00" cType="1" res="-4.3456777930259705e-03" rms="3.2404518127441406e-01" purity="1.8540002405643463e-01" nType="-99"/>
            <Node pos="r" depth="3" NCoef="0" IVar="-1" Cut="0.0000000000000000e+00" cType="1" res="-3.7576194154098630e-04" rms="3.9343848824501038e-01" purity="4.5235770940780640e-01" nType="-99"/>
          </Node>
        </Node>
        <Node pos="r" depth="1" NCoef="0" IVar="9" Cut="8.4442126750946045e-01" cType="1" res="1.1838289909064770e-02" rms="3.9269280433654785e-01" purity="5.3053528070449829e-01" nType="0">
          <Node pos="l" depth="2" NCoef="0" IVar="0" Cut="1.7950650634765625e+03" cType="1" res="2.1576633676886559e-02" rms="3.9419806003570557e-01" purity="5.8230304718017578e-01" nType="0">
            <Node pos="l" depth="3" NCoef="0" IVar="-1" Cut="0.0000000000000000e+00" cType="1" res="6.5221870318055153e-04" rms="3.9847093820571899e-01" purity="5.4989928007125854e-01" nType="-99"/>
            <Node pos="r" depth="3" NCoef="0" IVar="-1" Cut="0.0000000000000000e+00" cType="1" res="2.0590575877577066e-03" rms="3.7262627482414246e-01" purity="7.3115342855453491e-01" nType="-99"/>
          </Node>
          <Node pos="r" depth="2" NCoef="0" IVar="4" Cut="1.3538276672363281e+02" cType="1" res="-1.3245251029729843e-02" rms="3.8766390085220337e-01" purity="3.9719444513320923e-01" nType="0">
            <Node pos="l" depth="3" NCoef="0" IVar="-1" Cut="0.0000000000000000e+00" cType="1" res="3.4296049852855504e-04" rms="3.8320365548133850e-01" purity="3.1803402304649353e-01" nType="-99"/>
            <Node pos="r" depth="3" NCoef="0" IVar="-1" Cut="0.0000000000000000e+00" cType="1" res="-1.7555324593558908e-03" rms="3.9143198728561401e-01" purity="4.8687502741813660e-01" nType="-99"/>
          </Node>
        </Node>
      </Node>
    </BinaryTree>
    <BinaryTree type="DecisionTree" boostWeight="1.0000000000000000e+00" itree="590">
      <Node pos="s" depth="0" NCoef="0" IVar="8" Cut="6.6672223806381226e-01" cType="1" res="6.4376266673207283e-03" rms="3.8924711942672729e-01" purity="5.0459760427474976e-01" nType="0">
        <Node pos="l" depth="1" NCoef="0" IVar="8" Cut="-6.5387177467346191e-01" cType="1" res="1.3516413047909737e-02" rms="3.9071521162986755e-01" purity="5.3921121358871460e-01" nType="0">
          <Node pos="l" depth="2" NCoef="0" IVar="4" Cut="1.7701977539062500e+02" cType="1" res="-6.2950872816145420e-03" rms="3.8516381382942200e-01" purity="4.2233166098594666e-01" nType="0">
            <Node pos="l" depth="3" NCoef="0" IVar="-1" Cut="0.0000000000000000e+00" cType="1" res="2.4443722213618457e-04" rms="3.8385066390037537e-01" purity="3.9854195713996887e-01" nType="-99"/>
            <Node pos="r" depth="3" NCoef="0" IVar="-1" Cut="0.0000000000000000e+00" cType="1" res="-2.5489556137472391e-03" rms="3.8719210028648376e-01" purity="5.0699073076248169e-01" nType="-99"/>
          </Node>
          <Node pos="r" depth="2" NCoef="0" IVar="0" Cut="1.7946721191406250e+03" cType="1" res="2.4684434756636620e-02" rms="3.9337062835693359e-01" purity="6.0509794950485229e-01" nType="0">
            <Node pos="l" depth="3" NCoef="0" IVar="-1" Cut="0.0000000000000000e+00" cType="1" res="7.9403672134503722e-04" rms="3.9701876044273376e-01" purity="5.7463431358337402e-01" nType="-99"/>
            <Node pos="r" depth="3" NCoef="0" IVar="-1" Cut="0.0000000000000000e+00" cType="1" res="2.0081086549907923e-03" rms="3.7526699900627136e-01" purity="7.4413424730300903e-01" nType="-99"/>
          </Node>
        </Node>
        <Node pos="r" depth="1" NCoef="0" IVar="9" Cut="-9.3321323394775391e-01" cType="1" res="-1.3773147948086262e-02" rms="3.8430774211883545e-01" purity="4.0577155351638794e-01" nType="0">
          <Node pos="l" depth="2" NCoef="0" IVar="-1" Cut="0.0000000000000000e+00" cType="1" res="-3.4149347338825464e-03" rms="3.5872659087181091e-01" purity="2.6928105950355530e-01" nType="-99"/>
          <Node pos="r" depth="2" NCoef="0" IVar="8" Cut="1.8857321739196777e+00" cType="1" res="-6.4231436699628830e-03" rms="3.8886576890945435e-01" purity="4.3338319659233093e-01" nType="0">
            <Node pos="l" depth="3" NCoef="0" IVar="-1" Cut="0.0000000000000000e+00" cType="1" res="6.2401733885053545e-05" rms="3.9527976512908936e-01" purity="4.8077329993247986e-01" nType="-99"/>
            <Node pos="r" depth="3" NCoef="0" IVar="-1" Cut="0.0000000000000000e+00" cType="1" res="-3.5015805624425411e-03" rms="3.5161614418029785e-01" purity="1.9147838652133942e-01" nType="-99"/>
          </Node>
        </Node>
      </Node>
    </BinaryTree>
    <BinaryTree type="DecisionTree" boostWeight="1.0000000000000000e+00" itree="591">
      <Node pos="s" depth="0" NCoef="0" IVar="0" Cut="1.7945778808593750e+03" cType="1" res="2.9488487634807825e-03" rms="3.8546776771545410e-01" purity="5.0348788499832153e-01" nType="0">
        <Node pos="l" depth="1" NCoef="0" IVar="1" Cut="3.3064608764648438e+02" cType="1" res="-2.3460073862224817e-03" rms="3.8602080941200256e-01" purity="4.7320029139518738e-01" nType="0">
          <Node pos="l" depth="2" NCoef="0" IVar="2" Cut="4.4951956176757812e+02" cType="1" res="-3.6725085228681564e-02" rms="3.7201592326164246e-01" purity="3.0055683851242065e-01" nType="0">
            <Node pos="l" depth="3" NCoef="0" IVar="-1" Cut="0.0000000000000000e+00" cType="1" res="-1.2018877314403653e-03" rms="3.8241887092590332e-01" purity="3.3512216806411743e-01" nType="-99"/>
            <Node pos="r" depth="3" NCoef="0" IVar="-1" Cut="0.0000000000000000e+00" cType="1" res="-4.4313637772575021e-04" rms="3.0602800846099854e-01" purity="1.2319838255643845e-01" nType="-99"/>
          </Node>
          <Node pos="r" depth="2" NCoef="0" IVar="3" Cut="2.2722778320312500e+02" cType="1" res="7.6345168054103851e-03" rms="3.8942435383796692e-01" purity="5.2332007884979248e-01" nType="0">
            <Node pos="l" depth="3" NCoef="0" IVar="-1" Cut="0.0000000000000000e+00" cType="1" res="7.5532979099079967e-04" rms="3.8887971639633179e-01" purity="5.2469611167907715e-01" nType="-99"/>
            <Node pos="r" depth="3" NCoef="0" IVar="-1" Cut="0.0000000000000000e+00" cType="1" res="-9.6854602452367544e-04" rms="3.8965454697608948e-01" purity="5.1961529254913330e-01" nType="-99"/>
          </Node>
        </Node>
        <Node pos="r" depth="1" NCoef="0" IVar="3" Cut="3.4379595947265625e+02" cType="1" res="3.1702488660812378e-02" rms="3.8116830587387085e-01" purity="6.6796433925628662e-01" nType="0">
          <Node pos="l" depth="2" NCoef="0" IVar="2" Cut="5.6541552734375000e+02" cType="1" res="4.9053627997636795e-02" rms="3.6218103766441345e-01" purity="7.3206180334091187e-01" nType="0">
            <Node pos="l" depth="3" NCoef="0" IVar="-1" Cut="0.0000000000000000e+00" cType="1" res="3.3019096590578556e-03" rms="3.0663591623306274e-01" purity="8.6553055047988892e-01" nType="-99"/>
            <Node pos="r" depth="3" NCoef="0" IVar="-1" Cut="0.0000000000000000e+00" cType="1" res="8.3530304254963994e-04" rms="4.1964870691299438e-01" purity="5.6603449583053589e-01" nType="-99"/>
          </Node>
          <Node pos="r" depth="2" NCoef="0" IVar="7" Cut="1.3537056744098663e-01" cType="1" res="-2.2872451227158308e-03" rms="4.1375467181205750e-01" purity="5.4240167140960693e-01" nType="0">
            <Node pos="l" depth="3" NCoef="0" IVar="-1" Cut="0.0000000000000000e+00" cType="1" res="-9.9187239538878202e-04" rms="4.2017456889152527e-01" purity="5.3131639957427979e-01" nType="-99"/>
            <Node pos="r" depth="3" NCoef="0" IVar="-1" Cut="0.0000000000000000e+00" cType="1" res="7.6608400559052825e-04" rms="4.0568372607231140e-01" purity="5.5452793836593628e-01" nType="-99"/>
          </Node>
        </Node>
      </Node>
    </BinaryTree>
    <BinaryTree type="DecisionTree" boostWeight="1.0000000000000000e+00" itree="592">
      <Node pos="s" depth="0" NCoef="0" IVar="2" Cut="4.0312799072265625e+02" cType="1" res="4.4266493059694767e-03" rms="3.8599860668182373e-01" purity="5.0477105379104614e-01" nType="0">
        <Node pos="l" depth="1" NCoef="0" IVar="0" Cut="1.2974304199218750e+03" cType="1" res="1.3158030807971954e-02" rms="3.8340279459953308e-01" purity="5.5312746763229370e-01" nType="0">
          <Node pos="l" depth="2" NCoef="0" IVar="5" Cut="1.0059191131591797e+02" cType="1" res="-3.2432230655103922e-03" rms="4.1126215457916260e-01" purity="3.7614452838897705e-01" nType="0">
            <Node pos="l" depth="3" NCoef="0" IVar="-1" Cut="0.0000000000000000e+00" cType="1" res="5.7701120385900140e-04" rms="4.0552729368209839e-01" purity="3.3948156237602234e-01" nType="-99"/>
            <Node pos="r" depth="3" NCoef="0" IVar="-1" Cut="0.0000000000000000e+00" cType="1" res="-1.9944962114095688e-03" rms="4.2388194799423218e-01" purity="4.8259967565536499e-01" nType="-99"/>
          </Node>
          <Node pos="r" depth="2" NCoef="0" IVar="3" Cut="2.1371125793457031e+02" cType="1" res="3.2570898532867432e-02" rms="3.4655216336250305e-01" purity="7.6260828971862793e-01" nType="0">
            <Node pos="l" depth="3" NCoef="0" IVar="-1" Cut="0.0000000000000000e+00" cType="1" res="2.9439269565045834e-03" rms="3.1911137700080872e-01" purity="8.3305841684341431e-01" nType="-99"/>
            <Node pos="r" depth="3" NCoef="0" IVar="-1" Cut="0.0000000000000000e+00" cType="1" res="2.8724907315336168e-04" rms="3.6379972100257874e-01" purity="7.0910650491714478e-01" nType="-99"/>
          </Node>
        </Node>
        <Node pos="r" depth="1" NCoef="0" IVar="5" Cut="1.3663363647460938e+02" cType="1" res="-1.3512622565031052e-02" rms="3.9066597819328308e-01" purity="4.0541914105415344e-01" nType="0">
          <Node pos="l" depth="2" NCoef="0" IVar="3" Cut="3.2246597290039062e+02" cType="1" res="-2.4775929749011993e-02" rms="3.8469153642654419e-01" purity="3.2998397946357727e-01" nType="0">
            <Node pos="l" depth="3" NCoef="0" IVar="-1" Cut="0.0000000000000000e+00" cType="1" res="-8.6560432100668550e-04" rms="3.8477367162704468e-01" purity="3.3469295501708984e-01" nType="-99"/>
            <Node pos="r" depth="3" NCoef="0" IVar="-1" Cut="0.0000000000000000e+00" cType="1" res="-4.5166057534515858e-03" rms="3.8137272000312805e-01" purity="3.0865967273712158e-01" nType="-99"/>
          </Node>
          <Node pos="r" depth="2" NCoef="0" IVar="0" Cut="2.0446127929687500e+03" cType="1" res="1.7296923324465752e-02" rms="4.0496286749839783e-01" purity="6.1176389455795288e-01" nType="0">
            <Node pos="l" depth="3" NCoef="0" IVar="-1" Cut="0.0000000000000000e+00" cType="1" res="-4.0261162212118506e-04" rms="4.0688604116439819e-01" purity="5.5063563585281372e-01" nType="-99"/>
            <Node pos="r" depth="3" NCoef="0" IVar="-1" Cut="0.0000000000000000e+00" cType="1" res="1.9446311052888632e-03" rms="3.9977821707725525e-01" purity="6.9161099195480347e-01" nType="-99"/>
          </Node>
        </Node>
      </Node>
    </BinaryTree>
    <BinaryTree type="DecisionTree" boostWeight="1.0000000000000000e+00" itree="593">
      <Node pos="s" depth="0" NCoef="0" IVar="6" Cut="-1.4317591190338135e+00" cType="1" res="1.4185978798195720e-03" rms="3.8639205694198608e-01" purity="4.9822720885276794e-01" nType="0">
        <Node pos="l" depth="1" NCoef="0" IVar="4" Cut="1.1900539398193359e+02" cType="1" res="-4.6782188117504120e-02" rms="3.2595092058181763e-01" purity="2.0098410546779633e-01" nType="0">
          <Node pos="l" depth="2" NCoef="0" IVar="-1" Cut="0.0000000000000000e+00" cType="1" res="-1.6456072917208076e-03" rms="2.9745480418205261e-01" purity="1.3234579563140869e-01" nType="-99"/>
          <Node pos="r" depth="2" NCoef="0" IVar="-1" Cut="0.0000000000000000e+00" cType="1" res="-4.1427500545978546e-03" rms="3.4384575486183167e-01" purity="2.5142520666122437e-01" nType="-99"/>
        </Node>
        <Node pos="r" depth="1" NCoef="0" IVar="3" Cut="2.4059640502929688e+02" cType="1" res="4.9978345632553101e-03" rms="3.9026990532875061e-01" purity="5.2029949426651001e-01" nType="0">
          <Node pos="l" depth="2" NCoef="0" IVar="0" Cut="1.3004212646484375e+03" cType="1" res="1.3273893855512142e-02" rms="3.9040440320968628e-01" purity="5.1207768917083740e-01" nType="0">
            <Node pos="l" depth="3" NCoef="0" IVar="-1" Cut="0.0000000000000000e+00" cType="1" res="-1.8172043201047927e-04" rms="4.0863886475563049e-01" purity="3.7356820702552795e-01" nType="-99"/>
            <Node pos="r" depth="3" NCoef="0" IVar="-1" Cut="0.0000000000000000e+00" cType="1" res="1.5502034220844507e-03" rms="3.6715361475944519e-01" purity="6.7214930057525635e-01" nType="-99"/>
          </Node>
          <Node pos="r" depth="2" NCoef="0" IVar="7" Cut="1.2000970840454102e+00" cType="1" res="-1.4959707856178284e-02" rms="3.8922217488288879e-01" purity="5.4012626409530640e-01" nType="0">
            <Node pos="l" depth="3" NCoef="0" IVar="-1" Cut="0.0000000000000000e+00" cType="1" res="-3.6521459696814418e-04" rms="3.9372220635414124e-01" purity="5.7297945022583008e-01" nType="-99"/>
            <Node pos="r" depth="3" NCoef="0" IVar="-1" Cut="0.0000000000000000e+00" cType="1" res="-6.7146178334951401e-03" rms="3.3395865559577942e-01" purity="2.1935072541236877e-01" nType="-99"/>
          </Node>
        </Node>
      </Node>
    </BinaryTree>
    <BinaryTree type="DecisionTree" boostWeight="1.0000000000000000e+00" itree="594">
      <Node pos="s" depth="0" NCoef="0" IVar="9" Cut="-1.9999278783798218e+00" cType="1" res="4.6617882326245308e-03" rms="3.8647240400314331e-01" purity="5.0119686126708984e-01" nType="0">
        <Node pos="l" depth="1" NCoef="0" IVar="-1" Cut="0.0000000000000000e+00" cType="1" res="-5.0055775791406631e-03" rms="3.1525617837905884e-01" purity="1.9713345170021057e-01" nType="-99"/>
        <Node pos="r" depth="1" NCoef="0" IVar="8" Cut="1.7333230972290039e+00" cType="1" res="7.4567254632711411e-03" rms="3.8877582550048828e-01" purity="5.1330310106277466e-01" nType="0">
          <Node pos="l" depth="2" NCoef="0" IVar="0" Cut="2.1139875488281250e+03" cType="1" res="1.0760419070720673e-02" rms="3.9161702990531921e-01" purity="5.3246462345123291e-01" nType="0">
            <Node pos="l" depth="3" NCoef="0" IVar="-1" Cut="0.0000000000000000e+00" cType="1" res="3.3992706448771060e-04" rms="3.9132383465766907e-01" purity="5.2034157514572144e-01" nType="-99"/>
            <Node pos="r" depth="3" NCoef="0" IVar="-1" Cut="0.0000000000000000e+00" cType="1" res="2.0062611438333988e-03" rms="3.9310252666473389e-01" purity="7.0332902669906616e-01" nType="-99"/>
          </Node>
          <Node pos="r" depth="2" NCoef="0" IVar="8" Cut="2.0888893604278564e+00" cType="1" res="-4.6521380543708801e-02" rms="3.3440604805946350e-01" purity="2.0022723078727722e-01" nType="0">
            <Node pos="l" depth="3" NCoef="0" IVar="-1" Cut="0.0000000000000000e+00" cType="1" res="-1.3803748879581690e-03" rms="3.5975864529609680e-01" purity="2.4025094509124756e-01" nType="-99"/>
            <Node pos="r" depth="3" NCoef="0" IVar="-1" Cut="0.0000000000000000e+00" cType="1" res="-5.9061851352453232e-03" rms="3.0277341604232788e-01" purity="1.5744873881340027e-01" nType="-99"/>
          </Node>
        </Node>
      </Node>
    </BinaryTree>
    <BinaryTree type="DecisionTree" boostWeight="1.0000000000000000e+00" itree="595">
      <Node pos="s" depth="0" NCoef="0" IVar="2" Cut="8.0937719726562500e+02" cType="1" res="6.4498693682253361e-03" rms="3.8844418525695801e-01" purity="5.0369441509246826e-01" nType="0">
        <Node pos="l" depth="1" NCoef="0" IVar="0" Cut="1.9056236572265625e+03" cType="1" res="9.0250223875045776e-03" rms="3.8723522424697876e-01" purity="5.0666993856430054e-01" nType="0">
          <Node pos="l" depth="2" NCoef="0" IVar="2" Cut="5.4820965576171875e+02" cType="1" res="4.9677300266921520e-03" rms="3.8730636239051819e-01" purity="4.8701366782188416e-01" nType="0">
            <Node pos="l" depth="3" NCoef="0" IVar="-1" Cut="0.0000000000000000e+00" cType="1" res="4.3546510278247297e-04" rms="3.8963004946708679e-01" purity="5.0918513536453247e-01" nType="-99"/>
            <Node pos="r" depth="3" NCoef="0" IVar="-1" Cut="0.0000000000000000e+00" cType="1" res="-4.6388390474021435e-03" rms="3.5111609101295471e-01" purity="2.0696885883808136e-01" nType="-99"/>
          </Node>
          <Node pos="r" depth="2" NCoef="0" IVar="3" Cut="3.4679776000976562e+02" cType="1" res="5.1995523273944855e-02" rms="3.8385784626007080e-01" purity="7.1484899520874023e-01" nType="0">
            <Node pos="l" depth="3" NCoef="0" IVar="-1" Cut="0.0000000000000000e+00" cType="1" res="2.9228616040199995e-03" rms="3.5874921083450317e-01" purity="7.8949469327926636e-01" nType="-99"/>
            <Node pos="r" depth="3" NCoef="0" IVar="-1" Cut="0.0000000000000000e+00" cType="1" res="1.0001481277868152e-03" rms="4.1876554489135742e-01" purity="5.9770631790161133e-01" nType="-99"/>
          </Node>
        </Node>
        <Node pos="r" depth="1" NCoef="0" IVar="-1" Cut="0.0000000000000000e+00" cType="1" res="-5.9539912035688758e-04" rms="4.1805058717727661e-01" purity="4.0323856472969055e-01" nType="-99"/>
      </Node>
    </BinaryTree>
    <BinaryTree type="DecisionTree" boostWeight="1.0000000000000000e+00" itree="596">
      <Node pos="s" depth="0" NCoef="0" IVar="3" Cut="1.4754185485839844e+02" cType="1" res="-5.4736627498641610e-04" rms="3.8724634051322937e-01" purity="4.9679198861122131e-01" nType="0">
        <Node pos="l" depth="1" NCoef="0" IVar="0" Cut="1.2629838867187500e+03" cType="1" res="2.3784087970852852e-02" rms="3.9825478196144104e-01" purity="3.6771312355995178e-01" nType="0">
          <Node pos="l" depth="2" NCoef="0" IVar="0" Cut="1.0204609375000000e+03" cType="1" res="3.9980271831154823e-03" rms="3.9511948823928833e-01" purity="2.9845508933067322e-01" nType="0">
            <Node pos="l" depth="3" NCoef="0" IVar="-1" Cut="0.0000000000000000e+00" cType="1" res="-1.1903082486242056e-03" rms="3.8643890619277954e-01" purity="2.2249245643615723e-01" nType="-99"/>
            <Node pos="r" depth="3" NCoef="0" IVar="-1" Cut="0.0000000000000000e+00" cType="1" res="1.0644703870639205e-03" rms="4.0005561709403992e-01" purity="3.5311451554298401e-01" nType="-99"/>
          </Node>
          <Node pos="r" depth="2" NCoef="0" IVar="4" Cut="1.0625777435302734e+02" cType="1" res="7.9468011856079102e-02" rms="4.0175229310989380e-01" purity="5.6262618303298950e-01" nType="0">
            <Node pos="l" depth="3" NCoef="0" IVar="-1" Cut="0.0000000000000000e+00" cType="1" res="3.5454963799566031e-03" rms="4.2271935939788818e-01" purity="4.9688032269477844e-01" nType="-99"/>
            <Node pos="r" depth="3" NCoef="0" IVar="-1" Cut="0.0000000000000000e+00" cType="1" res="2.4823385756462812e-03" rms="3.8069856166839600e-01" purity="6.2227267026901245e-01" nType="-99"/>
          </Node>
        </Node>
        <Node pos="r" depth="1" NCoef="0" IVar="2" Cut="7.1393151855468750e+02" cType="1" res="-7.3453504592180252e-03" rms="3.8383874297142029e-01" purity="5.3285539150238037e-01" nType="0">
          <Node pos="l" depth="2" NCoef="0" IVar="0" Cut="2.0847294921875000e+03" cType="1" res="-3.3828637097030878e-03" rms="3.8216045498847961e-01" purity="5.4308402538299561e-01" nType="0">
            <Node pos="l" depth="3" NCoef="0" IVar="-1" Cut="0.0000000000000000e+00" cType="1" res="-3.5224130260758102e-04" rms="3.8252151012420654e-01" purity="5.3144794702529907e-01" nType="-99"/>
            <Node pos="r" depth="3" NCoef="0" IVar="-1" Cut="0.0000000000000000e+00" cType="1" res="2.9448186978697777e-03" rms="3.6578088998794556e-01" purity="7.7313578128814697e-01" nType="-99"/>
          </Node>
          <Node pos="r" depth="2" NCoef="0" IVar="-1" Cut="0.0000000000000000e+00" cType="1" res="-4.3135171290487051e-04" rms="4.0322425961494446e-01" purity="3.8270354270935059e-01" nType="-99"/>
        </Node>
      </Node>
    </BinaryTree>
    <BinaryTree type="DecisionTree" boostWeight="1.0000000000000000e+00" itree="597">
      <Node pos="s" depth="0" NCoef="0" IVar="0" Cut="1.4375433349609375e+03" cType="1" res="6.3790953718125820e-03" rms="3.8766101002693176e-01" purity="5.0479215383529663e-01" nType="0">
        <Node pos="l" depth="1" NCoef="0" IVar="2" Cut="2.2754486083984375e+02" cType="1" res="-5.4690749384462833e-03" rms="3.9807215332984924e-01" purity="4.0194222331047058e-01" nType="0">
          <Node pos="l" depth="2" NCoef="0" IVar="-1" Cut="0.0000000000000000e+00" cType="1" res="1.6059855697676539e-03" rms="4.1034531593322754e-01" purity="5.5425816774368286e-01" nType="-99"/>
          <Node pos="r" depth="2" NCoef="0" IVar="5" Cut="1.3407852172851562e+02" cType="1" res="-1.5539325773715973e-02" rms="3.9474403858184814e-01" purity="3.7054488062858582e-01" nType="0">
            <Node pos="l" depth="3" NCoef="0" IVar="-1" Cut="0.0000000000000000e+00" cType="1" res="-4.3746340088546276e-04" rms="3.9411714673042297e-01" purity="3.5999193787574768e-01" nType="-99"/>
            <Node pos="r" depth="3" NCoef="0" IVar="-1" Cut="0.0000000000000000e+00" cType="1" res="-5.1462668925523758e-03" rms="3.9352363348007202e-01" purity="5.2039241790771484e-01" nType="-99"/>
          </Node>
        </Node>
        <Node pos="r" depth="1" NCoef="0" IVar="3" Cut="2.5004756164550781e+02" cType="1" res="2.1816063672304153e-02" rms="3.7309736013412476e-01" purity="6.3879519701004028e-01" nType="0">
          <Node pos="l" depth="2" NCoef="0" IVar="3" Cut="2.1341235351562500e+02" cType="1" res="4.3208315968513489e-02" rms="3.5392940044403076e-01" purity="7.0596998929977417e-01" nType="0">
            <Node pos="l" depth="3" NCoef="0" IVar="-1" Cut="0.0000000000000000e+00" cType="1" res="2.5874779094010592e-03" rms="3.5630911588668823e-01" purity="7.0368838310241699e-01" nType="-99"/>
            <Node pos="r" depth="3" NCoef="0" IVar="-1" Cut="0.0000000000000000e+00" cType="1" res="9.7849022131413221e-04" rms="3.4881615638732910e-01" purity="7.0961940288543701e-01" nType="-99"/>
          </Node>
          <Node pos="r" depth="2" NCoef="0" IVar="0" Cut="2.0143510742187500e+03" cType="1" res="1.5884044114500284e-04" rms="3.9035564661026001e-01" purity="5.7078838348388672e-01" nType="0">
            <Node pos="l" depth="3" NCoef="0" IVar="-1" Cut="0.0000000000000000e+00" cType="1" res="-7.1811088128015399e-04" rms="3.8692897558212280e-01" purity="5.3339117765426636e-01" nType="-99"/>
            <Node pos="r" depth="3" NCoef="0" IVar="-1" Cut="0.0000000000000000e+00" cType="1" res="1.3497035251930356e-03" rms="3.9630281925201416e-01" purity="6.5855085849761963e-01" nType="-99"/>
          </Node>
        </Node>
      </Node>
    </BinaryTree>
    <BinaryTree type="DecisionTree" boostWeight="1.0000000000000000e+00" itree="598">
      <Node pos="s" depth="0" NCoef="0" IVar="2" Cut="7.4514111328125000e+02" cType="1" res="7.4889818206429482e-03" rms="3.8815757632255554e-01" purity="5.0707030296325684e-01" nType="0">
        <Node pos="l" depth="1" NCoef="0" IVar="1" Cut="3.7859301757812500e+02" cType="1" res="1.0176548734307289e-02" rms="3.8700920343399048e-01" purity="5.1103013753890991e-01" nType="0">
          <Node pos="l" depth="2" NCoef="0" IVar="4" Cut="2.1426573181152344e+02" cType="1" res="-4.9511962570250034e-03" rms="3.8600057363510132e-01" purity="3.6569026112556458e-01" nType="0">
            <Node pos="l" depth="3" NCoef="0" IVar="-1" Cut="0.0000000000000000e+00" cType="1" res="1.9997707568109035e-05" rms="3.8416492938995361e-01" purity="3.5816714167594910e-01" nType="-99"/>
            <Node pos="r" depth="3" NCoef="0" IVar="-1" Cut="0.0000000000000000e+00" cType="1" res="-3.5872966982424259e-03" rms="4.0144759416580200e-01" purity="4.5262470841407776e-01" nType="-99"/>
          </Node>
          <Node pos="r" depth="2" NCoef="0" IVar="9" Cut="1.7333084344863892e+00" cType="1" res="2.1736614406108856e-02" rms="3.8738021254539490e-01" purity="6.2209349870681763e-01" nType="0">
            <Node pos="l" depth="3" NCoef="0" IVar="-1" Cut="0.0000000000000000e+00" cType="1" res="1.0720061836764216e-03" rms="3.8777673244476318e-01" purity="6.3760024309158325e-01" nType="-99"/>
            <Node pos="r" depth="3" NCoef="0" IVar="-1" Cut="0.0000000000000000e+00" cType="1" res="-2.0632699597626925e-03" rms="3.7614256143569946e-01" purity="3.5080680251121521e-01" nType="-99"/>
          </Node>
        </Node>
        <Node pos="r" depth="1" NCoef="0" IVar="-1" Cut="0.0000000000000000e+00" cType="1" res="-2.8666690923273563e-03" rms="4.0946444869041443e-01" purity="4.1229730844497681e-01" nType="-99"/>
      </Node>
    </BinaryTree>
    <BinaryTree type="DecisionTree" boostWeight="1.0000000000000000e+00" itree="599">
      <Node pos="s" depth="0" NCoef="0" IVar="8" Cut="-6.6667044162750244e-01" cType="1" res="2.7239115443080664e-03" rms="3.8736233115196228e-01" purity="5.0023669004440308e-01" nType="0">
        <Node pos="l" depth="1" NCoef="0" IVar="6" Cut="4.2225715517997742e-01" cType="1" res="-2.1939404308795929e-02" rms="3.7846526503562927e-01" purity="3.9841806888580322e-01" nType="0">
          <Node pos="l" depth="2" NCoef="0" IVar="6" Cut="-6.3439667224884033e-01" cType="1" res="-1.1428353376686573e-02" rms="3.8471937179565430e-01" purity="4.3718695640563965e-01" nType="0">
            <Node pos="l" depth="3" NCoef="0" IVar="-1" Cut="0.0000000000000000e+00" cType="1" res="-1.9672180060297251e-03" rms="3.5780477523803711e-01" purity="3.0628582835197449e-01" nType="-99"/>
            <Node pos="r" depth="3" NCoef="0" IVar="-1" Cut="0.0000000000000000e+00" cType="1" res="2.0754175784531981e-04" rms="4.0215837955474854e-01" purity="5.3119349479675293e-01" nType="-99"/>
          </Node>
          <Node pos="r" depth="2" NCoef="0" IVar="3" Cut="1.7875093078613281e+02" cType="1" res="-4.9000181257724762e-02" rms="3.6045944690704346e-01" purity="2.9860737919807434e-01" nType="0">
            <Node pos="l" depth="3" NCoef="0" IVar="-1" Cut="0.0000000000000000e+00" cType="1" res="-7.7929621329531074e-04" rms="3.6040306091308594e-01" purity="2.5943282246589661e-01" nType="-99"/>
            <Node pos="r" depth="3" NCoef="0" IVar="-1" Cut="0.0000000000000000e+00" cType="1" res="-4.8080650158226490e-03" rms="3.5820606350898743e-01" purity="3.2827174663543701e-01" nType="-99"/>
          </Node>
        </Node>
        <Node pos="r" depth="1" NCoef="0" IVar="8" Cut="4.8888531327247620e-01" cType="1" res="1.1457694694399834e-02" rms="3.9009064435958862e-01" purity="5.3629267215728760e-01" nType="0">
          <Node pos="l" depth="2" NCoef="0" IVar="7" Cut="-6.6642820835113525e-01" cType="1" res="2.3841585963964462e-02" rms="3.8997727632522583e-01" purity="6.0734629631042480e-01" nType="0">
            <Node pos="l" depth="3" NCoef="0" IVar="-1" Cut="0.0000000000000000e+00" cType="1" res="-1.6919754853006452e-04" rms="3.9922082424163818e-01" purity="4.7593575716018677e-01" nType="-99"/>
            <Node pos="r" depth="3" NCoef="0" IVar="-1" Cut="0.0000000000000000e+00" cType="1" res="1.3054149458184838e-03" rms="3.8674905896186829e-01" purity="6.4708137512207031e-01" nType="-99"/>
          </Node>
          <Node pos="r" depth="2" NCoef="0" IVar="2" Cut="4.6089273071289062e+02" cType="1" res="-5.0319400615990162e-03" rms="3.8963106274604797e-01" purity="4.4168204069137573e-01" nType="0">
            <Node pos="l" depth="3" NCoef="0" IVar="-1" Cut="0.0000000000000000e+00" cType="1" res="2.4879406555555761e-04" rms="3.9235389232635498e-01" purity="4.7846528887748718e-01" nType="-99"/>
            <Node pos="r" depth="3" NCoef="0" IVar="-1" Cut="0.0000000000000000e+00" cType="1" res="-2.5350770447403193e-03" rms="3.7830045819282532e-01" purity="3.1879815459251404e-01" nType="-99"/>
          </Node>
        </Node>
      </Node>
    </BinaryTree>
    <BinaryTree type="DecisionTree" boostWeight="1.0000000000000000e+00" itree="600">
      <Node pos="s" depth="0" NCoef="0" IVar="7" Cut="6.6660678386688232e-01" cType="1" res="1.0063329682452604e-04" rms="3.8574615120887756e-01" purity="4.9627223610877991e-01" nType="0">
        <Node pos="l" depth="1" NCoef="0" IVar="7" Cut="-6.5397256612777710e-01" cType="1" res="1.0090450756251812e-02" rms="3.8997673988342285e-01" purity="5.3981912136077881e-01" nType="0">
          <Node pos="l" depth="2" NCoef="0" IVar="3" Cut="1.9165184020996094e+02" cType="1" res="-9.9005596712231636e-03" rms="3.8099378347396851e-01" purity="3.8586685061454773e-01" nType="0">
            <Node pos="l" depth="3" NCoef="0" IVar="-1" Cut="0.0000000000000000e+00" cType="1" res="4.8000633250921965e-04" rms="3.8461226224899292e-01" purity="3.4572640061378479e-01" nType="-99"/>
            <Node pos="r" depth="3" NCoef="0" IVar="-1" Cut="0.0000000000000000e+00" cType="1" res="-1.5255394391715527e-03" rms="3.7645182013511658e-01" purity="4.2499375343322754e-01" nType="-99"/>
          </Node>
          <Node pos="r" depth="2" NCoef="0" IVar="0" Cut="1.1319779052734375e+03" cType="1" res="2.0153636112809181e-02" rms="3.9403763413429260e-01" purity="6.1731654405593872e-01" nType="0">
            <Node pos="l" depth="3" NCoef="0" IVar="-1" Cut="0.0000000000000000e+00" cType="1" res="-5.5631686700507998e-04" rms="4.3850862979888916e-01" purity="3.6199179291725159e-01" nType="-99"/>
            <Node pos="r" depth="3" NCoef="0" IVar="-1" Cut="0.0000000000000000e+00" cType="1" res="1.2090126983821392e-03" rms="3.8325110077857971e-01" purity="6.7281341552734375e-01" nType="-99"/>
          </Node>
        </Node>
        <Node pos="r" depth="1" NCoef="0" IVar="3" Cut="1.9410671997070312e+02" cType="1" res="-3.1574890017509460e-02" rms="3.7023589015007019e-01" purity="3.5819455981254578e-01" nType="0">
          <Node pos="l" depth="2" NCoef="0" IVar="7" Cut="1.0729436874389648e+00" cType="1" res="-1.2150621972978115e-02" rms="3.6730989813804626e-01" purity="3.2932925224304199e-01" nType="0">
            <Node pos="l" depth="3" NCoef="0" IVar="-1" Cut="0.0000000000000000e+00" cType="1" res="6.2673038337379694e-04" rms="4.0845784544944763e-01" purity="4.8320904374122620e-01" nType="-99"/>
            <Node pos="r" depth="3" NCoef="0" IVar="-1" Cut="0.0000000000000000e+00" cType="1" res="-2.0687787327915430e-03" rms="3.3571389317512512e-01" purity="2.2669944167137146e-01" nType="-99"/>
          </Node>
          <Node pos="r" depth="2" NCoef="0" IVar="0" Cut="1.5010324707031250e+03" cType="1" res="-5.2109513431787491e-02" rms="3.7220358848571777e-01" purity="3.8870990276336670e-01" nType="0">
            <Node pos="l" depth="3" NCoef="0" IVar="-1" Cut="0.0000000000000000e+00" cType="1" res="-4.8438622616231441e-03" rms="3.5658681392669678e-01" purity="2.7900588512420654e-01" nType="-99"/>
            <Node pos="r" depth="3" NCoef="0" IVar="-1" Cut="0.0000000000000000e+00" cType="1" res="-1.3773678801953793e-03" rms="3.8324216008186340e-01" purity="4.8470652103424072e-01" nType="-99"/>
          </Node>
        </Node>
      </Node>
    </BinaryTree>
    <BinaryTree type="DecisionTree" boostWeight="1.0000000000000000e+00" itree="601">
      <Node pos="s" depth="0" NCoef="0" IVar="0" Cut="2.1261164550781250e+03" cType="1" res="5.0814277492463589e-03" rms="3.8893175125122070e-01" purity="5.0145322084426880e-01" nType="0">
        <Node pos="l" depth="1" NCoef="0" IVar="2" Cut="2.4937367248535156e+02" cType="1" res="1.1566028697416186e-03" rms="3.8770630955696106e-01" purity="4.8918700218200684e-01" nType="0">
          <Node pos="l" depth="2" NCoef="0" IVar="0" Cut="1.0448535156250000e+03" cType="1" res="3.2786317169666290e-02" rms="3.8588184118270874e-01" purity="5.9086215496063232e-01" nType="0">
            <Node pos="l" depth="3" NCoef="0" IVar="-1" Cut="0.0000000000000000e+00" cType="1" res="-4.2449036845937371e-04" rms="4.2134973406791687e-01" purity="2.9587739706039429e-01" nType="-99"/>
            <Node pos="r" depth="3" NCoef="0" IVar="-1" Cut="0.0000000000000000e+00" cType="1" res="1.9846961367875338e-03" rms="3.6797332763671875e-01" purity="7.1869099140167236e-01" nType="-99"/>
          </Node>
          <Node pos="r" depth="2" NCoef="0" IVar="0" Cut="1.3687364501953125e+03" cType="1" res="-7.2004748508334160e-03" rms="3.8775625824928284e-01" purity="4.6232280135154724e-01" nType="0">
            <Node pos="l" depth="3" NCoef="0" IVar="-1" Cut="0.0000000000000000e+00" cType="1" res="-1.1986844474449754e-03" rms="3.9471310377120972e-01" purity="3.1327596306800842e-01" nType="-99"/>
            <Node pos="r" depth="3" NCoef="0" IVar="-1" Cut="0.0000000000000000e+00" cType="1" res="4.1493820026516914e-04" rms="3.8122892379760742e-01" purity="5.8513605594635010e-01" nType="-99"/>
          </Node>
        </Node>
        <Node pos="r" depth="1" NCoef="0" IVar="3" Cut="3.4642816162109375e+02" cType="1" res="6.4990177750587463e-02" rms="4.0245625376701355e-01" purity="6.8868637084960938e-01" nType="0">
          <Node pos="l" depth="2" NCoef="0" IVar="-1" Cut="0.0000000000000000e+00" cType="1" res="3.7525270599871874e-03" rms="3.7271636724472046e-01" purity="7.8233307600021362e-01" nType="-99"/>
          <Node pos="r" depth="2" NCoef="0" IVar="-1" Cut="0.0000000000000000e+00" cType="1" res="5.5946031352505088e-04" rms="4.2650049924850464e-01" purity="5.8772414922714233e-01" nType="-99"/>
        </Node>
      </Node>
    </BinaryTree>
    <BinaryTree type="DecisionTree" boostWeight="1.0000000000000000e+00" itree="602">
      <Node pos="s" depth="0" NCoef="0" IVar="2" Cut="8.0937670898437500e+02" cType="1" res="2.7600454632192850e-03" rms="3.8834738731384277e-01" purity="5.0021022558212280e-01" nType="0">
        <Node pos="l" depth="1" NCoef="0" IVar="0" Cut="1.3529500732421875e+03" cType="1" res="5.1547377370297909e-03" rms="3.8738986849784851e-01" purity="5.0294429063796997e-01" nType="0">
          <Node pos="l" depth="2" NCoef="0" IVar="5" Cut="1.2154587554931641e+02" cType="1" res="-7.7728233300149441e-03" rms="4.0284627676010132e-01" purity="3.7118411064147949e-01" nType="0">
            <Node pos="l" depth="3" NCoef="0" IVar="-1" Cut="0.0000000000000000e+00" cType="1" res="1.6244906873907894e-05" rms="4.0079537034034729e-01" purity="3.5265928506851196e-01" nType="-99"/>
            <Node pos="r" depth="3" NCoef="0" IVar="-1" Cut="0.0000000000000000e+00" cType="1" res="-3.0612770933657885e-03" rms="4.1332527995109558e-01" purity="5.2452504634857178e-01" nType="-99"/>
          </Node>
          <Node pos="r" depth="2" NCoef="0" IVar="3" Cut="2.6822677612304688e+02" cType="1" res="1.7318291589617729e-02" rms="3.7185126543045044e-01" purity="6.2691748142242432e-01" nType="0">
            <Node pos="l" depth="3" NCoef="0" IVar="-1" Cut="0.0000000000000000e+00" cType="1" res="1.4461128739640117e-03" rms="3.5778358578681946e-01" purity="6.7712008953094482e-01" nType="-99"/>
            <Node pos="r" depth="3" NCoef="0" IVar="-1" Cut="0.0000000000000000e+00" cType="1" res="-3.1515263253822923e-04" rms="3.9562556147575378e-01" purity="5.3343516588211060e-01" nType="-99"/>
          </Node>
        </Node>
        <Node pos="r" depth="1" NCoef="0" IVar="-1" Cut="0.0000000000000000e+00" cType="1" res="-5.7275319704785943e-04" rms="4.1073080897331238e-01" purity="4.1143712401390076e-01" nType="-99"/>
      </Node>
    </BinaryTree>
    <BinaryTree type="DecisionTree" boostWeight="1.0000000000000000e+00" itree="603">
      <Node pos="s" depth="0" NCoef="0" IVar="6" Cut="1.4724411964416504e+00" cType="1" res="2.1633096912410110e-04" rms="3.8394159078598022e-01" purity="4.9996918439865112e-01" nType="0">
        <Node pos="l" depth="1" NCoef="0" IVar="2" Cut="5.4261865234375000e+02" cType="1" res="3.6044116131961346e-03" rms="3.8796538114547729e-01" purity="5.2154880762100220e-01" nType="0">
          <Node pos="l" depth="2" NCoef="0" IVar="0" Cut="1.3710168457031250e+03" cType="1" res="8.6596226319670677e-03" rms="3.8656944036483765e-01" purity="5.4535615444183350e-01" nType="0">
            <Node pos="l" depth="3" NCoef="0" IVar="-1" Cut="0.0000000000000000e+00" cType="1" res="-4.1132498881779611e-04" rms="4.0545642375946045e-01" purity="4.0329062938690186e-01" nType="-99"/>
            <Node pos="r" depth="3" NCoef="0" IVar="-1" Cut="0.0000000000000000e+00" cType="1" res="1.4796504983678460e-03" rms="3.6024266481399536e-01" purity="7.2308987379074097e-01" nType="-99"/>
          </Node>
          <Node pos="r" depth="2" NCoef="0" IVar="1" Cut="6.0599523925781250e+02" cType="1" res="-2.6567051187157631e-02" rms="3.9485105872154236e-01" purity="3.7945696711540222e-01" nType="0">
            <Node pos="l" depth="3" NCoef="0" IVar="-1" Cut="0.0000000000000000e+00" cType="1" res="-9.5309811877086759e-04" rms="3.7132886052131653e-01" purity="2.6323994994163513e-01" nType="-99"/>
            <Node pos="r" depth="3" NCoef="0" IVar="-1" Cut="0.0000000000000000e+00" cType="1" res="7.0560537278652191e-04" rms="4.3837100267410278e-01" purity="6.3344240188598633e-01" nType="-99"/>
          </Node>
        </Node>
        <Node pos="r" depth="1" NCoef="0" IVar="6" Cut="1.8516598939895630e+00" cType="1" res="-4.5120980590581894e-02" rms="3.2193103432655334e-01" purity="2.1120364964008331e-01" nType="0">
          <Node pos="l" depth="2" NCoef="0" IVar="-1" Cut="0.0000000000000000e+00" cType="1" res="-1.3219397515058517e-03" rms="3.4258487820625305e-01" purity="2.3929452896118164e-01" nType="-99"/>
          <Node pos="r" depth="2" NCoef="0" IVar="-1" Cut="0.0000000000000000e+00" cType="1" res="-5.5779479444026947e-03" rms="2.9422968626022339e-01" purity="1.7913170158863068e-01" nType="-99"/>
        </Node>
      </Node>
    </BinaryTree>
    <BinaryTree type="DecisionTree" boostWeight="1.0000000000000000e+00" itree="604">
      <Node pos="s" depth="0" NCoef="0" IVar="2" Cut="7.1392980957031250e+02" cType="1" res="1.8759646918624640e-03" rms="3.8854610919952393e-01" purity="4.9772018194198608e-01" nType="0">
        <Node pos="l" depth="1" NCoef="0" IVar="0" Cut="1.9917220458984375e+03" cType="1" res="5.1383315585553646e-03" rms="3.8771060109138489e-01" purity="5.0322115421295166e-01" nType="0">
          <Node pos="l" depth="2" NCoef="0" IVar="7" Cut="-1.7332394123077393e+00" cType="1" res="9.8982139024883509e-04" rms="3.8851255178451538e-01" purity="4.8733192682266235e-01" nType="0">
            <Node pos="l" depth="3" NCoef="0" IVar="-1" Cut="0.0000000000000000e+00" cType="1" res="-4.0393234230577946e-03" rms="3.0643573403358459e-01" purity="1.5400363504886627e-01" nType="-99"/>
            <Node pos="r" depth="3" NCoef="0" IVar="-1" Cut="0.0000000000000000e+00" cType="1" res="1.8851946515496820e-04" rms="3.9251378178596497e-01" purity="5.0675189495086670e-01" nType="-99"/>
          </Node>
          <Node pos="r" depth="2" NCoef="0" IVar="1" Cut="6.0579663085937500e+02" cType="1" res="7.4821822345256805e-02" rms="3.6703976988792419e-01" purity="7.7011597156524658e-01" nType="0">
            <Node pos="l" depth="3" NCoef="0" IVar="-1" Cut="0.0000000000000000e+00" cType="1" res="3.7300202529877424e-03" rms="3.7406167387962341e-01" purity="7.4448096752166748e-01" nType="-99"/>
            <Node pos="r" depth="3" NCoef="0" IVar="-1" Cut="0.0000000000000000e+00" cType="1" res="1.8184146611019969e-03" rms="3.5631713271141052e-01" purity="7.9863989353179932e-01" nType="-99"/>
          </Node>
        </Node>
        <Node pos="r" depth="1" NCoef="0" IVar="1" Cut="6.0600372314453125e+02" cType="1" res="-5.9288773685693741e-02" rms="3.9898309111595154e-01" purity="3.9458593726158142e-01" nType="0">
          <Node pos="l" depth="2" NCoef="0" IVar="-1" Cut="0.0000000000000000e+00" cType="1" res="-9.7867008298635483e-04" rms="3.3977624773979187e-01" purity="1.7165778577327728e-01" nType="-99"/>
          <Node pos="r" depth="2" NCoef="0" IVar="-1" Cut="0.0000000000000000e+00" cType="1" res="6.2283588340505958e-04" rms="4.3807625770568848e-01" purity="6.2236624956130981e-01" nType="-99"/>
        </Node>
      </Node>
    </BinaryTree>
    <BinaryTree type="DecisionTree" boostWeight="1.0000000000000000e+00" itree="605">
      <Node pos="s" depth="0" NCoef="0" IVar="9" Cut="-1.7331736087799072e+00" cType="1" res="6.5626669675111771e-03" rms="3.8625398278236389e-01" purity="5.0368416309356689e-01" nType="0">
        <Node pos="l" depth="1" NCoef="0" IVar="5" Cut="9.3210922241210938e+01" cType="1" res="-5.1287960261106491e-02" rms="3.4342184662818909e-01" purity="2.3843364417552948e-01" nType="0">
          <Node pos="l" depth="2" NCoef="0" IVar="-1" Cut="0.0000000000000000e+00" cType="1" res="-2.6400738861411810e-03" rms="3.2034164667129517e-01" purity="1.5787850320339203e-01" nType="-99"/>
          <Node pos="r" depth="2" NCoef="0" IVar="-1" Cut="0.0000000000000000e+00" cType="1" res="-4.4724610634148121e-03" rms="3.6794954538345337e-01" purity="3.3826658129692078e-01" nType="-99"/>
        </Node>
        <Node pos="r" depth="1" NCoef="0" IVar="2" Cut="4.5864898681640625e+02" cType="1" res="1.0480022989213467e-02" rms="3.8867273926734924e-01" purity="5.2164554595947266e-01" nType="0">
          <Node pos="l" depth="2" NCoef="0" IVar="1" Cut="3.5642263793945312e+02" cType="1" res="1.8760280683636665e-02" rms="3.8623264431953430e-01" purity="5.5873614549636841e-01" nType="0">
            <Node pos="l" depth="3" NCoef="0" IVar="-1" Cut="0.0000000000000000e+00" cType="1" res="-2.0532484631985426e-04" rms="3.9623436331748962e-01" purity="3.9157757163047791e-01" nType="-99"/>
            <Node pos="r" depth="3" NCoef="0" IVar="-1" Cut="0.0000000000000000e+00" cType="1" res="1.3546006521210074e-03" rms="3.7995567917823792e-01" purity="6.5132343769073486e-01" nType="-99"/>
          </Node>
          <Node pos="r" depth="2" NCoef="0" IVar="0" Cut="2.3059858398437500e+03" cType="1" res="-1.6617219895124435e-02" rms="3.9534243941307068e-01" purity="4.0026623010635376e-01" nType="0">
            <Node pos="l" depth="3" NCoef="0" IVar="-1" Cut="0.0000000000000000e+00" cType="1" res="-1.4615885447710752e-03" rms="3.9024987816810608e-01" purity="3.5843539237976074e-01" nType="-99"/>
            <Node pos="r" depth="3" NCoef="0" IVar="-1" Cut="0.0000000000000000e+00" cType="1" res="1.3650966575369239e-03" rms="4.2082345485687256e-01" purity="6.5659368038177490e-01" nType="-99"/>
          </Node>
        </Node>
      </Node>
    </BinaryTree>
    <BinaryTree type="DecisionTree" boostWeight="1.0000000000000000e+00" itree="606">
      <Node pos="s" depth="0" NCoef="0" IVar="6" Cut="1.7352451086044312e+00" cType="1" res="-1.5258180210366845e-03" rms="3.8629254698753357e-01" purity="4.9569436907768250e-01" nType="0">
        <Node pos="l" depth="1" NCoef="0" IVar="0" Cut="1.1903468017578125e+03" cType="1" res="6.6406384576112032e-04" rms="3.8871160149574280e-01" purity="5.0912964344024658e-01" nType="0">
          <Node pos="l" depth="2" NCoef="0" IVar="4" Cut="1.2459313964843750e+02" cType="1" res="-1.6378397122025490e-02" rms="4.0897855162620544e-01" purity="3.0220907926559448e-01" nType="0">
            <Node pos="l" depth="3" NCoef="0" IVar="-1" Cut="0.0000000000000000e+00" cType="1" res="-2.1768436999991536e-04" rms="4.0354239940643311e-01" purity="2.8423783183097839e-01" nType="-99"/>
            <Node pos="r" depth="3" NCoef="0" IVar="-1" Cut="0.0000000000000000e+00" cType="1" res="-1.9236491061747074e-03" rms="4.2343226075172424e-01" purity="3.5835263133049011e-01" nType="-99"/>
          </Node>
          <Node pos="r" depth="2" NCoef="0" IVar="2" Cut="4.0314468383789062e+02" cType="1" res="6.9653205573558807e-03" rms="3.8075208663940430e-01" purity="5.8563619852066040e-01" nType="0">
            <Node pos="l" depth="3" NCoef="0" IVar="-1" Cut="0.0000000000000000e+00" cType="1" res="8.6866493802517653e-04" rms="3.6489027738571167e-01" purity="7.0980995893478394e-01" nType="-99"/>
            <Node pos="r" depth="3" NCoef="0" IVar="-1" Cut="0.0000000000000000e+00" cType="1" res="-3.0707541736774147e-04" rms="3.9956933259963989e-01" purity="4.2646518349647522e-01" nType="-99"/>
          </Node>
        </Node>
        <Node pos="r" depth="1" NCoef="0" IVar="-1" Cut="0.0000000000000000e+00" cType="1" res="-3.7537375465035439e-03" rms="3.2257065176963806e-01" purity="1.9050268828868866e-01" nType="-99"/>
      </Node>
    </BinaryTree>
    <BinaryTree type="DecisionTree" boostWeight="1.0000000000000000e+00" itree="607">
      <Node pos="s" depth="0" NCoef="0" IVar="6" Cut="-1.4474785327911377e+00" cType="1" res="3.7026717327535152e-03" rms="3.8842672109603882e-01" purity="4.9940177798271179e-01" nType="0">
        <Node pos="l" depth="1" NCoef="0" IVar="6" Cut="-1.8267571926116943e+00" cType="1" res="-4.9939636141061783e-02" rms="3.2543769478797913e-01" purity="1.8787974119186401e-01" nType="0">
          <Node pos="l" depth="2" NCoef="0" IVar="-1" Cut="0.0000000000000000e+00" cType="1" res="-6.6867601126432419e-03" rms="3.0436998605728149e-01" purity="1.4729709923267365e-01" nType="-99"/>
          <Node pos="r" depth="2" NCoef="0" IVar="-1" Cut="0.0000000000000000e+00" cType="1" res="-2.0059752278029919e-03" rms="3.4008988738059998e-01" purity="2.2064341604709625e-01" nType="-99"/>
        </Node>
        <Node pos="r" depth="1" NCoef="0" IVar="2" Cut="6.0625183105468750e+02" cType="1" res="7.4265105649828911e-03" rms="3.9215201139450073e-01" purity="5.2102756500244141e-01" nType="0">
          <Node pos="l" depth="2" NCoef="0" IVar="0" Cut="1.7030551757812500e+03" cType="1" res="1.1353234760463238e-02" rms="3.9066115021705627e-01" purity="5.3634959459304810e-01" nType="0">
            <Node pos="l" depth="3" NCoef="0" IVar="-1" Cut="0.0000000000000000e+00" cType="1" res="2.5423485203646123e-04" rms="3.9658725261688232e-01" purity="4.9546217918395996e-01" nType="-99"/>
            <Node pos="r" depth="3" NCoef="0" IVar="-1" Cut="0.0000000000000000e+00" cType="1" res="1.9425324862822890e-03" rms="3.5216465592384338e-01" purity="7.7625030279159546e-01" nType="-99"/>
          </Node>
          <Node pos="r" depth="2" NCoef="0" IVar="9" Cut="4.0010759234428406e-01" cType="1" res="-2.8257820755243301e-02" rms="4.0370199084281921e-01" purity="3.8178762793540955e-01" nType="0">
            <Node pos="l" depth="3" NCoef="0" IVar="-1" Cut="0.0000000000000000e+00" cType="1" res="-1.9720097770914435e-04" rms="4.1022077202796936e-01" purity="4.2278936505317688e-01" nType="-99"/>
            <Node pos="r" depth="3" NCoef="0" IVar="-1" Cut="0.0000000000000000e+00" cType="1" res="-6.2013359274715185e-04" rms="3.8803246617317200e-01" purity="3.0846211314201355e-01" nType="-99"/>
          </Node>
        </Node>
      </Node>
    </BinaryTree>
    <BinaryTree type="DecisionTree" boostWeight="1.0000000000000000e+00" itree="608">
      <Node pos="s" depth="0" NCoef="0" IVar="9" Cut="1.9999814033508301e+00" cType="1" res="2.7630745898932219e-03" rms="3.8651624321937561e-01" purity="4.9922963976860046e-01" nType="0">
        <Node pos="l" depth="1" NCoef="0" IVar="8" Cut="1.7332153320312500e+00" cType="1" res="5.0606322474777699e-03" rms="3.8856658339500427e-01" purity="5.1104545593261719e-01" nType="0">
          <Node pos="l" depth="2" NCoef="0" IVar="6" Cut="-3.9360484480857849e-01" cType="1" res="7.8014302998781204e-03" rms="3.9109262824058533e-01" purity="5.2801012992858887e-01" nType="0">
            <Node pos="l" depth="3" NCoef="0" IVar="-1" Cut="0.0000000000000000e+00" cType="1" res="-4.2226983350701630e-04" rms="3.8613235950469971e-01" purity="4.5212721824645996e-01" nType="-99"/>
            <Node pos="r" depth="3" NCoef="0" IVar="-1" Cut="0.0000000000000000e+00" cType="1" res="6.7968392977491021e-04" rms="3.9322730898857117e-01" purity="5.6488895416259766e-01" nType="-99"/>
          </Node>
          <Node pos="r" depth="2" NCoef="0" IVar="7" Cut="1.3365939259529114e-01" cType="1" res="-4.1365973651409149e-02" rms="3.3961874246597290e-01" purity="2.2367857396602631e-01" nType="0">
            <Node pos="l" depth="3" NCoef="0" IVar="-1" Cut="0.0000000000000000e+00" cType="1" res="-2.0640192087739706e-03" rms="3.4151712059974670e-01" purity="2.4693067371845245e-01" nType="-99"/>
            <Node pos="r" depth="3" NCoef="0" IVar="-1" Cut="0.0000000000000000e+00" cType="1" res="-3.8582361303269863e-03" rms="3.3743870258331299e-01" purity="2.0037612318992615e-01" nType="-99"/>
          </Node>
        </Node>
        <Node pos="r" depth="1" NCoef="0" IVar="-1" Cut="0.0000000000000000e+00" cType="1" res="-4.3125860393047333e-03" rms="3.2337751984596252e-01" purity="1.9330346584320068e-01" nType="-99"/>
      </Node>
    </BinaryTree>
    <BinaryTree type="DecisionTree" boostWeight="1.0000000000000000e+00" itree="609">
      <Node pos="s" depth="0" NCoef="0" IVar="0" Cut="1.1903264160156250e+03" cType="1" res="1.4553009532392025e-03" rms="3.8422721624374390e-01" purity="4.9993398785591125e-01" nType="0">
        <Node pos="l" depth="1" NCoef="0" IVar="5" Cut="9.1025703430175781e+01" cType="1" res="-2.2740799933671951e-02" rms="3.9327809214591980e-01" purity="2.8058648109436035e-01" nType="0">
          <Node pos="l" depth="2" NCoef="0" IVar="0" Cut="1.0788094482421875e+03" cType="1" res="-9.9825290963053703e-03" rms="3.8135448098182678e-01" purity="2.5054159760475159e-01" nType="0">
            <Node pos="l" depth="3" NCoef="0" IVar="-1" Cut="0.0000000000000000e+00" cType="1" res="-1.6309579368680716e-03" rms="3.7436369061470032e-01" purity="2.1303546428680420e-01" nType="-99"/>
            <Node pos="r" depth="3" NCoef="0" IVar="-1" Cut="0.0000000000000000e+00" cType="1" res="1.1253432603552938e-03" rms="3.9029014110565186e-01" purity="3.1217205524444580e-01" nType="-99"/>
          </Node>
          <Node pos="r" depth="2" NCoef="0" IVar="-1" Cut="0.0000000000000000e+00" cType="1" res="-2.1826745942234993e-03" rms="4.2230775952339172e-01" purity="3.6304342746734619e-01" nType="-99"/>
        </Node>
        <Node pos="r" depth="1" NCoef="0" IVar="3" Cut="1.4743023681640625e+02" cType="1" res="1.0539376176893711e-02" rms="3.8037648797035217e-01" purity="5.8228486776351929e-01" nType="0">
          <Node pos="l" depth="2" NCoef="0" IVar="3" Cut="1.2492886352539062e+02" cType="1" res="5.4623883217573166e-02" rms="4.0085348486900330e-01" purity="5.1320892572402954e-01" nType="0">
            <Node pos="l" depth="3" NCoef="0" IVar="-1" Cut="0.0000000000000000e+00" cType="1" res="3.2488440629094839e-03" rms="4.1659647226333618e-01" purity="4.8160088062286377e-01" nType="-99"/>
            <Node pos="r" depth="3" NCoef="0" IVar="-1" Cut="0.0000000000000000e+00" cType="1" res="1.2938483851030469e-03" rms="3.8728183507919312e-01" purity="5.3623652458190918e-01" nType="-99"/>
          </Node>
          <Node pos="r" depth="2" NCoef="0" IVar="7" Cut="-1.2000147104263306e+00" cType="1" res="5.4409205913543701e-03" rms="3.7760481238365173e-01" purity="5.9027361869812012e-01" nType="0">
            <Node pos="l" depth="3" NCoef="0" IVar="-1" Cut="0.0000000000000000e+00" cType="1" res="-2.3197557311505079e-03" rms="3.5306355357170105e-01" purity="3.2310754060745239e-01" nType="-99"/>
            <Node pos="r" depth="3" NCoef="0" IVar="-1" Cut="0.0000000000000000e+00" cType="1" res="4.8884330317378044e-04" rms="3.7989842891693115e-01" purity="6.2015092372894287e-01" nType="-99"/>
          </Node>
        </Node>
      </Node>
    </BinaryTree>
    <BinaryTree type="DecisionTree" boostWeight="1.0000000000000000e+00" itree="610">
      <Node pos="s" depth="0" NCoef="0" IVar="2" Cut="7.7118060302734375e+02" cType="1" res="8.7642832659184933e-04" rms="3.8643372058868408e-01" purity="5.0040060281753540e-01" nType="0">
        <Node pos="l" depth="1" NCoef="0" IVar="0" Cut="1.3529620361328125e+03" cType="1" res="4.1797971352934837e-03" rms="3.8539406657218933e-01" purity="5.0483971834182739e-01" nType="0">
          <Node pos="l" depth="2" NCoef="0" IVar="5" Cut="1.0776483917236328e+02" cType="1" res="-1.0625001974403858e-02" rms="4.0196603536605835e-01" purity="3.7218564748764038e-01" nType="0">
            <Node pos="l" depth="3" NCoef="0" IVar="-1" Cut="0.0000000000000000e+00" cType="1" res="8.0333840742241591e-05" rms="3.9933395385742188e-01" purity="3.3073621988296509e-01" nType="-99"/>
            <Node pos="r" depth="3" NCoef="0" IVar="-1" Cut="0.0000000000000000e+00" cType="1" res="-2.2356042172759771e-03" rms="4.0841799974441528e-01" purity="5.3014582395553589e-01" nType="-99"/>
          </Node>
          <Node pos="r" depth="2" NCoef="0" IVar="2" Cut="3.0885922241210938e+02" cType="1" res="1.8335057422518730e-02" rms="3.6829748749732971e-01" purity="6.3167375326156616e-01" nType="0">
            <Node pos="l" depth="3" NCoef="0" IVar="-1" Cut="0.0000000000000000e+00" cType="1" res="2.6903003454208374e-03" rms="2.8539535403251648e-01" purity="8.7825578451156616e-01" nType="-99"/>
            <Node pos="r" depth="3" NCoef="0" IVar="-1" Cut="0.0000000000000000e+00" cType="1" res="3.2075695344246924e-04" rms="3.9132371544837952e-01" purity="5.4960536956787109e-01" nType="-99"/>
          </Node>
        </Node>
        <Node pos="r" depth="1" NCoef="0" IVar="-1" Cut="0.0000000000000000e+00" cType="1" res="-4.3140200432389975e-04" rms="4.0297490358352661e-01" purity="3.8776496052742004e-01" nType="-99"/>
      </Node>
    </BinaryTree>
    <BinaryTree type="DecisionTree" boostWeight="1.0000000000000000e+00" itree="611">
      <Node pos="s" depth="0" NCoef="0" IVar="2" Cut="8.0937762451171875e+02" cType="1" res="1.0319780558347702e-03" rms="3.8711613416671753e-01" purity="4.9592295289039612e-01" nType="0">
        <Node pos="l" depth="1" NCoef="0" IVar="0" Cut="1.3529620361328125e+03" cType="1" res="3.3111351076513529e-03" rms="3.8600265979766846e-01" purity="4.9814543128013611e-01" nType="0">
          <Node pos="l" depth="2" NCoef="0" IVar="5" Cut="1.1310075378417969e+02" cType="1" res="-1.5565262176096439e-02" rms="4.0029054880142212e-01" purity="3.6079648137092590e-01" nType="0">
            <Node pos="l" depth="3" NCoef="0" IVar="-1" Cut="0.0000000000000000e+00" cType="1" res="-2.9606217867694795e-04" rms="3.9656946063041687e-01" purity="3.3055555820465088e-01" nType="-99"/>
            <Node pos="r" depth="3" NCoef="0" IVar="-1" Cut="0.0000000000000000e+00" cType="1" res="-2.4714004248380661e-03" rms="4.1613957285881042e-01" purity="5.2072364091873169e-01" nType="-99"/>
          </Node>
          <Node pos="r" depth="2" NCoef="0" IVar="3" Cut="1.9926972961425781e+02" cType="1" res="2.1008770912885666e-02" rms="3.7123829126358032e-01" purity="6.2691748142242432e-01" nType="0">
            <Node pos="l" depth="3" NCoef="0" IVar="-1" Cut="0.0000000000000000e+00" cType="1" res="2.4481192231178284e-03" rms="3.6217588186264038e-01" purity="6.6335874795913696e-01" nType="-99"/>
            <Node pos="r" depth="3" NCoef="0" IVar="-1" Cut="0.0000000000000000e+00" cType="1" res="4.0651002200320363e-04" rms="3.7386193871498108e-01" purity="6.1300718784332275e-01" nType="-99"/>
          </Node>
        </Node>
        <Node pos="r" depth="1" NCoef="0" IVar="-1" Cut="0.0000000000000000e+00" cType="1" res="-4.4935289770364761e-03" rms="4.1778728365898132e-01" purity="4.1302984952926636e-01" nType="-99"/>
      </Node>
    </BinaryTree>
    <BinaryTree type="DecisionTree" boostWeight="1.0000000000000000e+00" itree="612">
      <Node pos="s" depth="0" NCoef="0" IVar="2" Cut="8.1617535400390625e+02" cType="1" res="2.7857236564159393e-03" rms="3.8718920946121216e-01" purity="4.9745392799377441e-01" nType="0">
        <Node pos="l" depth="1" NCoef="0" IVar="0" Cut="2.0652536621093750e+03" cType="1" res="5.4507660679519176e-03" rms="3.8624858856201172e-01" purity="5.0045871734619141e-01" nType="0">
          <Node pos="l" depth="2" NCoef="0" IVar="1" Cut="3.3830261230468750e+02" cType="1" res="1.6835310962051153e-03" rms="3.8653451204299927e-01" purity="4.8707100749015808e-01" nType="0">
            <Node pos="l" depth="3" NCoef="0" IVar="-1" Cut="0.0000000000000000e+00" cType="1" res="-1.1726329103112221e-03" rms="3.7736001610755920e-01" purity="3.1730559468269348e-01" nType="-99"/>
            <Node pos="r" depth="3" NCoef="0" IVar="-1" Cut="0.0000000000000000e+00" cType="1" res="4.7018870827741921e-04" rms="3.8921716809272766e-01" purity="5.4460030794143677e-01" nType="-99"/>
          </Node>
          <Node pos="r" depth="2" NCoef="0" IVar="-1" Cut="0.0000000000000000e+00" cType="1" res="2.8678223025053740e-03" rms="3.7396779656410217e-01" purity="7.5038403272628784e-01" nType="-99"/>
        </Node>
        <Node pos="r" depth="1" NCoef="0" IVar="-1" Cut="0.0000000000000000e+00" cType="1" res="-3.4678410156629980e-04" rms="4.0694224834442139e-01" purity="4.0235814452171326e-01" nType="-99"/>
      </Node>
    </BinaryTree>
    <BinaryTree type="DecisionTree" boostWeight="1.0000000000000000e+00" itree="613">
      <Node pos="s" depth="0" NCoef="0" IVar="7" Cut="-1.7332438230514526e+00" cType="1" res="2.5580229703336954e-03" rms="3.8587662577629089e-01" purity="5.0027406215667725e-01" nType="0">
        <Node pos="l" depth="1" NCoef="0" IVar="8" Cut="-1.3435299694538116e-01" cType="1" res="-4.6889431774616241e-02" rms="3.0962714552879333e-01" purity="1.6981510818004608e-01" nType="0">
          <Node pos="l" depth="2" NCoef="0" IVar="-1" Cut="0.0000000000000000e+00" cType="1" res="-3.9347917772829533e-03" rms="3.0239683389663696e-01" purity="1.4560891687870026e-01" nType="-99"/>
          <Node pos="r" depth="2" NCoef="0" IVar="-1" Cut="0.0000000000000000e+00" cType="1" res="-3.0598076991736889e-03" rms="3.1659537553787231e-01" purity="1.9387321174144745e-01" nType="-99"/>
        </Node>
        <Node pos="r" depth="1" NCoef="0" IVar="7" Cut="1.0729963779449463e+00" cType="1" res="5.1711117848753929e-03" rms="3.8931635022163391e-01" purity="5.1773744821548462e-01" nType="0">
          <Node pos="l" depth="2" NCoef="0" IVar="9" Cut="-1.1998379230499268e+00" cType="1" res="1.0320686735212803e-02" rms="3.9527037739753723e-01" purity="5.5856072902679443e-01" nType="0">
            <Node pos="l" depth="3" NCoef="0" IVar="-1" Cut="0.0000000000000000e+00" cType="1" res="-9.6533109899610281e-04" rms="3.8107624650001526e-01" purity="4.0005189180374146e-01" nType="-99"/>
            <Node pos="r" depth="3" NCoef="0" IVar="-1" Cut="0.0000000000000000e+00" cType="1" res="5.1830883603543043e-04" rms="3.9725777506828308e-01" purity="5.8332490921020508e-01" nType="-99"/>
          </Node>
          <Node pos="r" depth="2" NCoef="0" IVar="3" Cut="2.5382514953613281e+02" cType="1" res="-2.4265643209218979e-02" rms="3.5191687941551208e-01" purity="2.8437736630439758e-01" nType="0">
            <Node pos="l" depth="3" NCoef="0" IVar="-1" Cut="0.0000000000000000e+00" cType="1" res="-9.3905057292431593e-04" rms="3.5330036282539368e-01" purity="2.9335328936576843e-01" nType="-99"/>
            <Node pos="r" depth="3" NCoef="0" IVar="-1" Cut="0.0000000000000000e+00" cType="1" res="-4.0634223259985447e-03" rms="3.4470528364181519e-01" purity="2.4976938962936401e-01" nType="-99"/>
          </Node>
        </Node>
      </Node>
    </BinaryTree>
    <BinaryTree type="DecisionTree" boostWeight="1.0000000000000000e+00" itree="614">
      <Node pos="s" depth="0" NCoef="0" IVar="0" Cut="1.1903264160156250e+03" cType="1" res="2.1847113966941833e-03" rms="3.8450497388839722e-01" purity="5.0151276588439941e-01" nType="0">
        <Node pos="l" depth="1" NCoef="0" IVar="6" Cut="-5.9405785799026489e-01" cType="1" res="-2.0795118063688278e-02" rms="3.9237487316131592e-01" purity="2.8686442971229553e-01" nType="0">
          <Node pos="l" depth="2" NCoef="0" IVar="-1" Cut="0.0000000000000000e+00" cType="1" res="-2.7753717731684446e-03" rms="3.5088968276977539e-01" purity="1.7554526031017303e-01" nType="-99"/>
          <Node pos="r" depth="2" NCoef="0" IVar="2" Cut="2.3732606506347656e+02" cType="1" res="-1.0448927991092205e-02" rms="4.0719732642173767e-01" purity="3.3101227879524231e-01" nType="0">
            <Node pos="l" depth="3" NCoef="0" IVar="-1" Cut="0.0000000000000000e+00" cType="1" res="8.2854699576273561e-04" rms="4.2739763855934143e-01" purity="4.5939356088638306e-01" nType="-99"/>
            <Node pos="r" depth="3" NCoef="0" IVar="-1" Cut="0.0000000000000000e+00" cType="1" res="-1.0660302359610796e-03" rms="3.9590236544609070e-01" purity="2.6791971921920776e-01" nType="-99"/>
          </Node>
        </Node>
        <Node pos="r" depth="1" NCoef="0" IVar="3" Cut="1.5307777404785156e+02" cType="1" res="1.0788836516439915e-02" rms="3.8116022944450378e-01" purity="5.8188158273696899e-01" nType="0">
          <Node pos="l" depth="2" NCoef="0" IVar="3" Cut="1.2558876037597656e+02" cType="1" res="5.4743185639381409e-02" rms="3.9834848046302795e-01" purity="5.2112436294555664e-01" nType="0">
            <Node pos="l" depth="3" NCoef="0" IVar="-1" Cut="0.0000000000000000e+00" cType="1" res="3.1606175471097231e-03" rms="4.1944923996925354e-01" purity="4.7537145018577576e-01" nType="-99"/>
            <Node pos="r" depth="3" NCoef="0" IVar="-1" Cut="0.0000000000000000e+00" cType="1" res="1.6083853552117944e-03" rms="3.8465398550033569e-01" purity="5.4781657457351685e-01" nType="-99"/>
          </Node>
          <Node pos="r" depth="2" NCoef="0" IVar="2" Cut="6.0627551269531250e+02" cType="1" res="4.6556191518902779e-03" rms="3.7829399108886719e-01" purity="5.9035938978195190e-01" nType="0">
            <Node pos="l" depth="3" NCoef="0" IVar="-1" Cut="0.0000000000000000e+00" cType="1" res="5.0167849985882640e-04" rms="3.7592092156410217e-01" purity="6.2117642164230347e-01" nType="-99"/>
            <Node pos="r" depth="3" NCoef="0" IVar="-1" Cut="0.0000000000000000e+00" cType="1" res="-2.1575612481683493e-03" rms="3.9201250672340393e-01" purity="3.7202584743499756e-01" nType="-99"/>
          </Node>
        </Node>
      </Node>
    </BinaryTree>
    <BinaryTree type="DecisionTree" boostWeight="1.0000000000000000e+00" itree="615">
      <Node pos="s" depth="0" NCoef="0" IVar="7" Cut="6.6658371686935425e-01" cType="1" res="1.1423529940657318e-04" rms="3.8512575626373291e-01" purity="4.9592462182044983e-01" nType="0">
        <Node pos="l" depth="1" NCoef="0" IVar="7" Cut="-6.5400195121765137e-01" cType="1" res="7.1964897215366364e-03" rms="3.8872838020324707e-01" purity="5.3795766830444336e-01" nType="0">
          <Node pos="l" depth="2" NCoef="0" IVar="3" Cut="2.6074362182617188e+02" cType="1" res="-1.4923021197319031e-02" rms="3.7216681241989136e-01" purity="3.8481664657592773e-01" nType="0">
            <Node pos="l" depth="3" NCoef="0" IVar="-1" Cut="0.0000000000000000e+00" cType="1" res="-1.6925079398788512e-04" rms="3.7081581354141235e-01" purity="3.9385706186294556e-01" nType="-99"/>
            <Node pos="r" depth="3" NCoef="0" IVar="-1" Cut="0.0000000000000000e+00" cType="1" res="-4.2598191648721695e-03" rms="3.7389418482780457e-01" purity="3.4689465165138245e-01" nType="-99"/>
          </Node>
          <Node pos="r" depth="2" NCoef="0" IVar="8" Cut="-6.6662013530731201e-01" cType="1" res="1.8251892179250717e-02" rms="3.9628440141677856e-01" purity="6.1449807882308960e-01" nType="0">
            <Node pos="l" depth="3" NCoef="0" IVar="-1" Cut="0.0000000000000000e+00" cType="1" res="-2.5349165662191808e-04" rms="3.9875590801239014e-01" purity="5.2155894041061401e-01" nType="-99"/>
            <Node pos="r" depth="3" NCoef="0" IVar="-1" Cut="0.0000000000000000e+00" cType="1" res="1.0575193446129560e-03" rms="3.9519345760345459e-01" purity="6.4406025409698486e-01" nType="-99"/>
          </Node>
        </Node>
        <Node pos="r" depth="1" NCoef="0" IVar="9" Cut="-6.6653174161911011e-01" cType="1" res="-2.1491432562470436e-02" rms="3.7309116125106812e-01" purity="3.6769521236419678e-01" nType="0">
          <Node pos="l" depth="2" NCoef="0" IVar="5" Cut="9.3288787841796875e+01" cType="1" res="-5.3259417414665222e-02" rms="3.5353499650955200e-01" purity="2.9101398587226868e-01" nType="0">
            <Node pos="l" depth="3" NCoef="0" IVar="-1" Cut="0.0000000000000000e+00" cType="1" res="-3.1124087981879711e-03" rms="3.3141386508941650e-01" purity="1.7731884121894836e-01" nType="-99"/>
            <Node pos="r" depth="3" NCoef="0" IVar="-1" Cut="0.0000000000000000e+00" cType="1" res="-3.9296322502195835e-03" rms="3.7286517024040222e-01" purity="4.0121665596961975e-01" nType="-99"/>
          </Node>
          <Node pos="r" depth="2" NCoef="0" IVar="6" Cut="-8.9095073938369751e-01" cType="1" res="-1.1681176722049713e-02" rms="3.7838777899742126e-01" purity="3.9137512445449829e-01" nType="0">
            <Node pos="l" depth="3" NCoef="0" IVar="-1" Cut="0.0000000000000000e+00" cType="1" res="-4.2044203728437424e-03" rms="3.1390595436096191e-01" purity="1.9556128978729248e-01" nType="-99"/>
            <Node pos="r" depth="3" NCoef="0" IVar="-1" Cut="0.0000000000000000e+00" cType="1" res="-2.0648009376600385e-04" rms="3.8873493671417236e-01" purity="4.2768761515617371e-01" nType="-99"/>
          </Node>
        </Node>
      </Node>
    </BinaryTree>
    <BinaryTree type="DecisionTree" boostWeight="1.0000000000000000e+00" itree="616">
      <Node pos="s" depth="0" NCoef="0" IVar="7" Cut="-1.4667053222656250e+00" cType="1" res="1.3126425910741091e-03" rms="3.8692662119865417e-01" purity="4.9882382154464722e-01" nType="0">
        <Node pos="l" depth="1" NCoef="0" IVar="9" Cut="-6.6653895378112793e-01" cType="1" res="-3.8374014198780060e-02" rms="3.2136201858520508e-01" purity="2.0419687032699585e-01" nType="0">
          <Node pos="l" depth="2" NCoef="0" IVar="-1" Cut="0.0000000000000000e+00" cType="1" res="-6.5114060416817665e-03" rms="2.7316653728485107e-01" purity="1.2466592341661453e-01" nType="-99"/>
          <Node pos="r" depth="2" NCoef="0" IVar="-1" Cut="0.0000000000000000e+00" cType="1" res="-1.6059484332799911e-03" rms="3.4431669116020203e-01" purity="2.4807569384574890e-01" nType="-99"/>
        </Node>
        <Node pos="r" depth="1" NCoef="0" IVar="3" Cut="3.3643368530273438e+02" cType="1" res="4.6683852560818195e-03" rms="3.9178365468978882e-01" purity="5.2373629808425903e-01" nType="0">
          <Node pos="l" depth="2" NCoef="0" IVar="0" Cut="1.3119163818359375e+03" cType="1" res="8.2478718832135201e-03" rms="3.9021381735801697e-01" purity="5.2913266420364380e-01" nType="0">
            <Node pos="l" depth="3" NCoef="0" IVar="-1" Cut="0.0000000000000000e+00" cType="1" res="-2.6392852305434644e-04" rms="4.1070634126663208e-01" purity="3.7948995828628540e-01" nType="-99"/>
            <Node pos="r" depth="3" NCoef="0" IVar="-1" Cut="0.0000000000000000e+00" cType="1" res="9.6704735187813640e-04" rms="3.7201783061027527e-01" purity="6.5263503789901733e-01" nType="-99"/>
          </Node>
          <Node pos="r" depth="2" NCoef="0" IVar="3" Cut="4.1743649291992188e+02" cType="1" res="-3.4786842763423920e-02" rms="4.0660524368286133e-01" purity="4.6425440907478333e-01" nType="0">
            <Node pos="l" depth="3" NCoef="0" IVar="-1" Cut="0.0000000000000000e+00" cType="1" res="-3.7131394492462277e-04" rms="4.0370073914527893e-01" purity="5.0057578086853027e-01" nType="-99"/>
            <Node pos="r" depth="3" NCoef="0" IVar="-1" Cut="0.0000000000000000e+00" cType="1" res="-4.9677281640470028e-03" rms="4.0694361925125122e-01" purity="3.9003291726112366e-01" nType="-99"/>
          </Node>
        </Node>
      </Node>
    </BinaryTree>
    <BinaryTree type="DecisionTree" boostWeight="1.0000000000000000e+00" itree="617">
      <Node pos="s" depth="0" NCoef="0" IVar="8" Cut="1.4666540622711182e+00" cType="1" res="-1.1387980775907636e-03" rms="3.8626918196678162e-01" purity="4.9622008204460144e-01" nType="0">
        <Node pos="l" depth="1" NCoef="0" IVar="9" Cut="-9.3319863080978394e-01" cType="1" res="2.8074791189283133e-03" rms="3.8975787162780762e-01" purity="5.2086597681045532e-01" nType="0">
          <Node pos="l" depth="2" NCoef="0" IVar="0" Cut="1.3123688964843750e+03" cType="1" res="-2.2749155759811401e-02" rms="3.8017070293426514e-01" purity="3.9957514405250549e-01" nType="0">
            <Node pos="l" depth="3" NCoef="0" IVar="-1" Cut="0.0000000000000000e+00" cType="1" res="-2.0659274887293577e-03" rms="3.7146714329719543e-01" purity="2.6731178164482117e-01" nType="-99"/>
            <Node pos="r" depth="3" NCoef="0" IVar="-1" Cut="0.0000000000000000e+00" cType="1" res="-4.1708670323714614e-04" rms="3.8705226778984070e-01" purity="5.1570820808410645e-01" nType="-99"/>
          </Node>
          <Node pos="r" depth="2" NCoef="0" IVar="7" Cut="9.3345141410827637e-01" cType="1" res="9.4082197174429893e-03" rms="3.9192527532577515e-01" purity="5.5219280719757080e-01" nType="0">
            <Node pos="l" depth="3" NCoef="0" IVar="-1" Cut="0.0000000000000000e+00" cType="1" res="6.5672898199409246e-04" rms="3.9506700634956360e-01" purity="5.9143084287643433e-01" nType="-99"/>
            <Node pos="r" depth="3" NCoef="0" IVar="-1" Cut="0.0000000000000000e+00" cType="1" res="-1.2561404146254063e-03" rms="3.7364932894706726e-01" purity="3.5007071495056152e-01" nType="-99"/>
          </Node>
        </Node>
        <Node pos="r" depth="1" NCoef="0" IVar="4" Cut="1.2806637573242188e+02" cType="1" res="-4.2926847934722900e-02" rms="3.4441870450973511e-01" purity="2.3523880541324615e-01" nType="0">
          <Node pos="l" depth="2" NCoef="0" IVar="-1" Cut="0.0000000000000000e+00" cType="1" res="-1.6540648648515344e-03" rms="3.2158523797988892e-01" purity="1.8466530740261078e-01" nType="-99"/>
          <Node pos="r" depth="2" NCoef="0" IVar="-1" Cut="0.0000000000000000e+00" cType="1" res="-4.3966034427285194e-03" rms="3.6904683709144592e-01" purity="2.9796209931373596e-01" nType="-99"/>
        </Node>
      </Node>
    </BinaryTree>
    <BinaryTree type="DecisionTree" boostWeight="1.0000000000000000e+00" itree="618">
      <Node pos="s" depth="0" NCoef="0" IVar="2" Cut="6.0625231933593750e+02" cType="1" res="2.4730067234486341e-03" rms="3.8611304759979248e-01" purity="5.0067836046218872e-01" nType="0">
        <Node pos="l" depth="1" NCoef="0" IVar="2" Cut="2.3869299316406250e+02" cType="1" res="7.0261885412037373e-03" rms="3.8549283146858215e-01" purity="5.1528638601303101e-01" nType="0">
          <Node pos="l" depth="2" NCoef="0" IVar="0" Cut="1.0718007812500000e+03" cType="1" res="4.2998287826776505e-02" rms="3.8970199227333069e-01" purity="5.9478342533111572e-01" nType="0">
            <Node pos="l" depth="3" NCoef="0" IVar="-1" Cut="0.0000000000000000e+00" cType="1" res="4.0849309880286455e-04" rms="4.2861315608024597e-01" purity="3.4712812304496765e-01" nType="-99"/>
            <Node pos="r" depth="3" NCoef="0" IVar="-1" Cut="0.0000000000000000e+00" cType="1" res="2.4730942677706480e-03" rms="3.6153659224510193e-01" purity="7.5092858076095581e-01" nType="-99"/>
          </Node>
          <Node pos="r" depth="2" NCoef="0" IVar="0" Cut="1.4006601562500000e+03" cType="1" res="-5.1843380788341165e-04" rms="3.8417711853981018e-01" purity="4.9861302971839905e-01" nType="0">
            <Node pos="l" depth="3" NCoef="0" IVar="-1" Cut="0.0000000000000000e+00" cType="1" res="-8.5624441271647811e-04" rms="3.9392867684364319e-01" purity="3.4644249081611633e-01" nType="-99"/>
            <Node pos="r" depth="3" NCoef="0" IVar="-1" Cut="0.0000000000000000e+00" cType="1" res="9.2611147556453943e-04" rms="3.7198889255523682e-01" purity="6.6798049211502075e-01" nType="-99"/>
          </Node>
        </Node>
        <Node pos="r" depth="1" NCoef="0" IVar="1" Cut="6.3031463623046875e+02" cType="1" res="-4.1781064122915268e-02" rms="3.8932606577873230e-01" purity="3.5869804024696350e-01" nType="0">
          <Node pos="l" depth="2" NCoef="0" IVar="2" Cut="6.9185675048828125e+02" cType="1" res="-6.8592324852943420e-02" rms="3.5878598690032959e-01" purity="2.3608075082302094e-01" nType="0">
            <Node pos="l" depth="3" NCoef="0" IVar="-1" Cut="0.0000000000000000e+00" cType="1" res="-2.1505369804799557e-03" rms="3.4889730811119080e-01" purity="2.6060175895690918e-01" nType="-99"/>
            <Node pos="r" depth="3" NCoef="0" IVar="-1" Cut="0.0000000000000000e+00" cType="1" res="-9.4661983894184232e-04" rms="3.6361098289489746e-01" purity="2.1439222991466522e-01" nType="-99"/>
          </Node>
          <Node pos="r" depth="2" NCoef="0" IVar="-1" Cut="0.0000000000000000e+00" cType="1" res="5.0231930799782276e-04" rms="4.4120928645133972e-01" purity="6.1485368013381958e-01" nType="-99"/>
        </Node>
      </Node>
    </BinaryTree>
    <BinaryTree type="DecisionTree" boostWeight="1.0000000000000000e+00" itree="619">
      <Node pos="s" depth="0" NCoef="0" IVar="2" Cut="4.7257156372070312e+02" cType="1" res="1.5921868616715074e-03" rms="3.8433328270912170e-01" purity="5.0172245502471924e-01" nType="0">
        <Node pos="l" depth="1" NCoef="0" IVar="0" Cut="1.3288333740234375e+03" cType="1" res="8.2714231684803963e-03" rms="3.8256806135177612e-01" purity="5.3492969274520874e-01" nType="0">
          <Node pos="l" depth="2" NCoef="0" IVar="3" Cut="1.7214921569824219e+02" cType="1" res="-8.1009892746806145e-03" rms="4.0096184611320496e-01" purity="3.7371203303337097e-01" nType="0">
            <Node pos="l" depth="3" NCoef="0" IVar="-1" Cut="0.0000000000000000e+00" cType="1" res="5.6049361592158675e-04" rms="4.0590974688529968e-01" purity="3.6500942707061768e-01" nType="-99"/>
            <Node pos="r" depth="3" NCoef="0" IVar="-1" Cut="0.0000000000000000e+00" cType="1" res="-1.7049394082278013e-03" rms="3.9195874333381653e-01" purity="3.8589426875114441e-01" nType="-99"/>
          </Node>
          <Node pos="r" depth="2" NCoef="0" IVar="4" Cut="1.8618598937988281e+02" cType="1" res="2.7961438521742821e-02" rms="3.5821193456649780e-01" purity="7.2881549596786499e-01" nType="0">
            <Node pos="l" depth="3" NCoef="0" IVar="-1" Cut="0.0000000000000000e+00" cType="1" res="2.2737269755452871e-03" rms="3.5546025633811951e-01" purity="7.4566179513931274e-01" nType="-99"/>
            <Node pos="r" depth="3" NCoef="0" IVar="-1" Cut="0.0000000000000000e+00" cType="1" res="-4.6680821105837822e-04" rms="3.5959911346435547e-01" purity="7.0089948177337646e-01" nType="-99"/>
          </Node>
        </Node>
        <Node pos="r" depth="1" NCoef="0" IVar="0" Cut="2.0027590332031250e+03" cType="1" res="-2.2550517693161964e-02" rms="3.8969373703002930e-01" purity="3.8169202208518982e-01" nType="0">
          <Node pos="l" depth="2" NCoef="0" IVar="2" Cut="6.4456506347656250e+02" cType="1" res="-3.6318480968475342e-02" rms="3.7538957595825195e-01" purity="2.9380634427070618e-01" nType="0">
            <Node pos="l" depth="3" NCoef="0" IVar="-1" Cut="0.0000000000000000e+00" cType="1" res="-1.5268265269696712e-03" rms="3.8287252187728882e-01" purity="3.1972825527191162e-01" nType="-99"/>
            <Node pos="r" depth="3" NCoef="0" IVar="-1" Cut="0.0000000000000000e+00" cType="1" res="-6.3084755092859268e-03" rms="3.4367913007736206e-01" purity="1.9846335053443909e-01" nType="-99"/>
          </Node>
          <Node pos="r" depth="2" NCoef="0" IVar="3" Cut="3.4154574584960938e+02" cType="1" res="1.0405233129858971e-02" rms="4.2013952136039734e-01" purity="5.9206008911132812e-01" nType="0">
            <Node pos="l" depth="3" NCoef="0" IVar="-1" Cut="0.0000000000000000e+00" cType="1" res="1.7102734418585896e-03" rms="4.0886470675468445e-01" purity="6.7333763837814331e-01" nType="-99"/>
            <Node pos="r" depth="3" NCoef="0" IVar="-1" Cut="0.0000000000000000e+00" cType="1" res="-1.3123599346727133e-03" rms="4.2871981859207153e-01" purity="5.0377756357192993e-01" nType="-99"/>
          </Node>
        </Node>
      </Node>
    </BinaryTree>
    <BinaryTree type="DecisionTree" boostWeight="1.0000000000000000e+00" itree="620">
      <Node pos="s" depth="0" NCoef="0" IVar="7" Cut="6.6653066873550415e-01" cType="1" res="7.6503106392920017e-03" rms="3.8681274652481079e-01" purity="5.0292807817459106e-01" nType="0">
        <Node pos="l" depth="1" NCoef="0" IVar="7" Cut="-8.1907069683074951e-01" cType="1" res="1.5456772409379482e-02" rms="3.8995441794395447e-01" purity="5.4442548751831055e-01" nType="0">
          <Node pos="l" depth="2" NCoef="0" IVar="6" Cut="4.4811162352561951e-01" cType="1" res="-1.0476107709109783e-02" rms="3.7214261293411255e-01" purity="3.5473650693893433e-01" nType="0">
            <Node pos="l" depth="3" NCoef="0" IVar="-1" Cut="0.0000000000000000e+00" cType="1" res="2.6388795231468976e-04" rms="3.8386103510856628e-01" purity="4.0502175688743591e-01" nType="-99"/>
            <Node pos="r" depth="3" NCoef="0" IVar="-1" Cut="0.0000000000000000e+00" cType="1" res="-2.9969883617013693e-03" rms="3.4085774421691895e-01" purity="2.3886157572269440e-01" nType="-99"/>
          </Node>
          <Node pos="r" depth="2" NCoef="0" IVar="6" Cut="-1.4134582281112671e+00" cType="1" res="2.5154098868370056e-02" rms="3.9597338438034058e-01" purity="6.1535775661468506e-01" nType="0">
            <Node pos="l" depth="3" NCoef="0" IVar="-1" Cut="0.0000000000000000e+00" cType="1" res="-2.0144593436270952e-03" rms="3.7692961096763611e-01" purity="2.9209315776824951e-01" nType="-99"/>
            <Node pos="r" depth="3" NCoef="0" IVar="-1" Cut="0.0000000000000000e+00" cType="1" res="1.1554276570677757e-03" rms="3.9679658412933350e-01" purity="6.3529938459396362e-01" nType="-99"/>
          </Node>
        </Node>
        <Node pos="r" depth="1" NCoef="0" IVar="3" Cut="2.7577938842773438e+02" cType="1" res="-1.6687488183379173e-02" rms="3.7581059336662292e-01" purity="3.7355363368988037e-01" nType="0">
          <Node pos="l" depth="2" NCoef="0" IVar="0" Cut="1.5138781738281250e+03" cType="1" res="-7.5216926634311676e-03" rms="3.7739533185958862e-01" purity="3.8284361362457275e-01" nType="0">
            <Node pos="l" depth="3" NCoef="0" IVar="-1" Cut="0.0000000000000000e+00" cType="1" res="-9.5427571795880795e-04" rms="3.7855279445648193e-01" purity="3.1634777784347534e-01" nType="-99"/>
            <Node pos="r" depth="3" NCoef="0" IVar="-1" Cut="0.0000000000000000e+00" cType="1" res="1.3992435997352004e-03" rms="3.7086111307144165e-01" purity="6.2300103902816772e-01" nType="-99"/>
          </Node>
          <Node pos="r" depth="2" NCoef="0" IVar="-1" Cut="0.0000000000000000e+00" cType="1" res="-3.8483615498989820e-03" rms="3.6396425962448120e-01" purity="3.2590290904045105e-01" nType="-99"/>
        </Node>
      </Node>
    </BinaryTree>
    <BinaryTree type="DecisionTree" boostWeight="1.0000000000000000e+00" itree="621">
      <Node pos="s" depth="0" NCoef="0" IVar="3" Cut="1.4225549316406250e+02" cType="1" res="3.9997096173465252e-03" rms="3.8793107867240906e-01" purity="4.9913150072097778e-01" nType="0">
        <Node pos="l" depth="1" NCoef="0" IVar="0" Cut="1.2668624267578125e+03" cType="1" res="2.8044912964105606e-02" rms="4.0544244647026062e-01" purity="3.5465237498283386e-01" nType="0">
          <Node pos="l" depth="2" NCoef="0" IVar="0" Cut="1.0223422851562500e+03" cType="1" res="1.2521825730800629e-02" rms="3.9973798394203186e-01" purity="2.9886391758918762e-01" nType="0">
            <Node pos="l" depth="3" NCoef="0" IVar="-1" Cut="0.0000000000000000e+00" cType="1" res="-5.4585217731073499e-04" rms="3.9559221267700195e-01" purity="2.3442831635475159e-01" nType="-99"/>
            <Node pos="r" depth="3" NCoef="0" IVar="-1" Cut="0.0000000000000000e+00" cType="1" res="1.3490566052496433e-03" rms="4.0206354856491089e-01" purity="3.5065907239913940e-01" nType="-99"/>
          </Node>
          <Node pos="r" depth="2" NCoef="0" IVar="-1" Cut="0.0000000000000000e+00" cType="1" res="3.1362148001790047e-03" rms="4.1969999670982361e-01" purity="5.3929120302200317e-01" nType="-99"/>
        </Node>
        <Node pos="r" depth="1" NCoef="0" IVar="7" Cut="-1.4666671752929688e+00" cType="1" res="-1.7395701725035906e-03" rms="3.8341033458709717e-01" purity="5.3361678123474121e-01" nType="0">
          <Node pos="l" depth="2" NCoef="0" IVar="9" Cut="-1.3289038836956024e-01" cType="1" res="-5.3961321711540222e-02" rms="3.1905999779701233e-01" purity="2.1004545688629150e-01" nType="0">
            <Node pos="l" depth="3" NCoef="0" IVar="-1" Cut="0.0000000000000000e+00" cType="1" res="-5.1244720816612244e-03" rms="3.0218139290809631e-01" purity="1.7359013855457306e-01" nType="-99"/>
            <Node pos="r" depth="3" NCoef="0" IVar="-1" Cut="0.0000000000000000e+00" cType="1" res="-2.6043052785098553e-03" rms="3.3480268716812134e-01" purity="2.4733610451221466e-01" nType="-99"/>
          </Node>
          <Node pos="r" depth="2" NCoef="0" IVar="7" Cut="3.6175343394279480e-01" cType="1" res="2.3213669192045927e-03" rms="3.8767275214195251e-01" purity="5.5877876281738281e-01" nType="0">
            <Node pos="l" depth="3" NCoef="0" IVar="-1" Cut="0.0000000000000000e+00" cType="1" res="5.7811802253127098e-04" rms="3.9012905955314636e-01" purity="6.0801595449447632e-01" nType="-99"/>
            <Node pos="r" depth="3" NCoef="0" IVar="-1" Cut="0.0000000000000000e+00" cType="1" res="-8.0451805843040347e-04" rms="3.8274413347244263e-01" purity="4.7481009364128113e-01" nType="-99"/>
          </Node>
        </Node>
      </Node>
    </BinaryTree>
    <BinaryTree type="DecisionTree" boostWeight="1.0000000000000000e+00" itree="622">
      <Node pos="s" depth="0" NCoef="0" IVar="7" Cut="-6.6663515567779541e-01" cType="1" res="3.4400143194943666e-03" rms="3.8580870628356934e-01" purity="5.0120997428894043e-01" nType="0">
        <Node pos="l" depth="1" NCoef="0" IVar="3" Cut="2.6428607177734375e+02" cType="1" res="-1.9095340743660927e-02" rms="3.7219744920730591e-01" purity="3.7588161230087280e-01" nType="0">
          <Node pos="l" depth="2" NCoef="0" IVar="0" Cut="1.6004252929687500e+03" cType="1" res="-9.7001176327466965e-03" rms="3.7078085541725159e-01" purity="3.8433742523193359e-01" nType="0">
            <Node pos="l" depth="3" NCoef="0" IVar="-1" Cut="0.0000000000000000e+00" cType="1" res="-1.0849357349798083e-03" rms="3.6914893984794617e-01" purity="3.3442687988281250e-01" nType="-99"/>
            <Node pos="r" depth="3" NCoef="0" IVar="-1" Cut="0.0000000000000000e+00" cType="1" res="2.4272773880511522e-03" rms="3.7313649058341980e-01" purity="6.6722261905670166e-01" nType="-99"/>
          </Node>
          <Node pos="r" depth="2" NCoef="0" IVar="-1" Cut="0.0000000000000000e+00" cType="1" res="-4.0621357038617134e-03" rms="3.7556964159011841e-01" purity="3.3920225501060486e-01" nType="-99"/>
        </Node>
        <Node pos="r" depth="1" NCoef="0" IVar="6" Cut="1.7485845088958740e+00" cType="1" res="1.0738466866314411e-02" rms="3.8983595371246338e-01" purity="5.4179966449737549e-01" nType="0">
          <Node pos="l" depth="2" NCoef="0" IVar="2" Cut="4.7381555175781250e+02" cType="1" res="1.3070179149508476e-02" rms="3.9183440804481506e-01" purity="5.5430269241333008e-01" nType="0">
            <Node pos="l" depth="3" NCoef="0" IVar="-1" Cut="0.0000000000000000e+00" cType="1" res="8.1369682447984815e-04" rms="3.8887375593185425e-01" purity="5.8940351009368896e-01" nType="-99"/>
            <Node pos="r" depth="3" NCoef="0" IVar="-1" Cut="0.0000000000000000e+00" cType="1" res="-4.5529642375186086e-04" rms="4.0139445662498474e-01" purity="4.2941632866859436e-01" nType="-99"/>
          </Node>
          <Node pos="r" depth="2" NCoef="0" IVar="-1" Cut="0.0000000000000000e+00" cType="1" res="-3.3157966099679470e-03" rms="3.2605075836181641e-01" purity="2.0841589570045471e-01" nType="-99"/>
        </Node>
      </Node>
    </BinaryTree>
    <BinaryTree type="DecisionTree" boostWeight="1.0000000000000000e+00" itree="623">
      <Node pos="s" depth="0" NCoef="0" IVar="3" Cut="2.4207023620605469e+02" cType="1" res="3.2971792388707399e-03" rms="3.8626971840858459e-01" purity="4.9823567271232605e-01" nType="0">
        <Node pos="l" depth="1" NCoef="0" IVar="0" Cut="1.3004212646484375e+03" cType="1" res="1.0309165343642235e-02" rms="3.8487157225608826e-01" purity="4.8987698554992676e-01" nType="0">
          <Node pos="l" depth="2" NCoef="0" IVar="5" Cut="1.0807346343994141e+02" cType="1" res="-6.3357134349644184e-03" rms="4.0046077966690063e-01" purity="3.4995430707931519e-01" nType="0">
            <Node pos="l" depth="3" NCoef="0" IVar="-1" Cut="0.0000000000000000e+00" cType="1" res="2.1366553846746683e-04" rms="3.9805319905281067e-01" purity="3.2291242480278015e-01" nType="-99"/>
            <Node pos="r" depth="3" NCoef="0" IVar="-1" Cut="0.0000000000000000e+00" cType="1" res="-2.4161641485989094e-03" rms="4.0788295865058899e-01" purity="4.8878639936447144e-01" nType="-99"/>
          </Node>
          <Node pos="r" depth="2" NCoef="0" IVar="2" Cut="4.5780688476562500e+02" cType="1" res="3.0393188819289207e-02" rms="3.6416503787040710e-01" purity="6.5871030092239380e-01" nType="0">
            <Node pos="l" depth="3" NCoef="0" IVar="-1" Cut="0.0000000000000000e+00" cType="1" res="2.0285774953663349e-03" rms="3.4644520282745361e-01" purity="7.7920430898666382e-01" nType="-99"/>
            <Node pos="r" depth="3" NCoef="0" IVar="-1" Cut="0.0000000000000000e+00" cType="1" res="-2.8745935196639039e-05" rms="3.9791733026504517e-01" purity="3.9913973212242126e-01" nType="-99"/>
          </Node>
        </Node>
        <Node pos="r" depth="1" NCoef="0" IVar="0" Cut="1.7615003662109375e+03" cType="1" res="-1.3971591368317604e-02" rms="3.8915324211120605e-01" purity="5.1882094144821167e-01" nType="0">
          <Node pos="l" depth="2" NCoef="0" IVar="4" Cut="2.1554208374023438e+02" cType="1" res="-3.1050434336066246e-02" rms="3.8919672369956970e-01" purity="4.4086146354675293e-01" nType="0">
            <Node pos="l" depth="3" NCoef="0" IVar="-1" Cut="0.0000000000000000e+00" cType="1" res="-1.0816860012710094e-03" rms="3.8599088788032532e-01" purity="4.2845565080642700e-01" nType="-99"/>
            <Node pos="r" depth="3" NCoef="0" IVar="-1" Cut="0.0000000000000000e+00" cType="1" res="-3.8484083488583565e-03" rms="3.9724901318550110e-01" purity="4.8299655318260193e-01" nType="-99"/>
          </Node>
          <Node pos="r" depth="2" NCoef="0" IVar="2" Cut="6.4698474121093750e+02" cType="1" res="8.9747663587331772e-03" rms="3.8791280984878540e-01" purity="6.2356376647949219e-01" nType="0">
            <Node pos="l" depth="3" NCoef="0" IVar="-1" Cut="0.0000000000000000e+00" cType="1" res="1.4404549729079008e-03" rms="3.7539756298065186e-01" purity="7.1631515026092529e-01" nType="-99"/>
            <Node pos="r" depth="3" NCoef="0" IVar="-1" Cut="0.0000000000000000e+00" cType="1" res="-2.3295870050787926e-03" rms="4.0993046760559082e-01" purity="4.1167029738426208e-01" nType="-99"/>
          </Node>
        </Node>
      </Node>
    </BinaryTree>
    <BinaryTree type="DecisionTree" boostWeight="1.0000000000000000e+00" itree="624">
      <Node pos="s" depth="0" NCoef="0" IVar="6" Cut="1.4817366600036621e+00" cType="1" res="1.0818731971085072e-03" rms="3.8694146275520325e-01" purity="4.9758845567703247e-01" nType="0">
        <Node pos="l" depth="1" NCoef="0" IVar="2" Cut="5.0808847045898438e+02" cType="1" res="4.1820504702627659e-03" rms="3.9111918210983276e-01" purity="5.1776564121246338e-01" nType="0">
          <Node pos="l" depth="2" NCoef="0" IVar="2" Cut="2.2934321594238281e+02" cType="1" res="9.6883540973067284e-03" rms="3.9098224043846130e-01" purity="5.4613059759140015e-01" nType="0">
            <Node pos="l" depth="3" NCoef="0" IVar="-1" Cut="0.0000000000000000e+00" cType="1" res="2.0089270547032356e-03" rms="3.9538124203681946e-01" purity="6.1544173955917358e-01" nType="-99"/>
            <Node pos="r" depth="3" NCoef="0" IVar="-1" Cut="0.0000000000000000e+00" cType="1" res="1.2274333857931197e-04" rms="3.8982638716697693e-01" purity="5.3491681814193726e-01" nType="-99"/>
          </Node>
          <Node pos="r" depth="2" NCoef="0" IVar="0" Cut="1.7298232421875000e+03" cType="1" res="-2.1508028730750084e-02" rms="3.9073321223258972e-01" purity="3.8542732596397400e-01" nType="0">
            <Node pos="l" depth="3" NCoef="0" IVar="-1" Cut="0.0000000000000000e+00" cType="1" res="-5.7702348567545414e-03" rms="3.3267983794212341e-01" purity="1.7765185236930847e-01" nType="-99"/>
            <Node pos="r" depth="3" NCoef="0" IVar="-1" Cut="0.0000000000000000e+00" cType="1" res="3.2640891731716692e-04" rms="4.2281508445739746e-01" purity="5.2508610486984253e-01" nType="-99"/>
          </Node>
        </Node>
        <Node pos="r" depth="1" NCoef="0" IVar="9" Cut="4.0078133344650269e-01" cType="1" res="-4.3287895619869232e-02" rms="3.1795629858970642e-01" purity="2.0881128311157227e-01" nType="0">
          <Node pos="l" depth="2" NCoef="0" IVar="-1" Cut="0.0000000000000000e+00" cType="1" res="-1.3414871646091342e-03" rms="3.4494632482528687e-01" purity="2.5491949915885925e-01" nType="-99"/>
          <Node pos="r" depth="2" NCoef="0" IVar="-1" Cut="0.0000000000000000e+00" cType="1" res="-7.0163523778319359e-03" rms="2.7067825198173523e-01" purity="1.4192788302898407e-01" nType="-99"/>
        </Node>
      </Node>
    </BinaryTree>
    <BinaryTree type="DecisionTree" boostWeight="1.0000000000000000e+00" itree="625">
      <Node pos="s" depth="0" NCoef="0" IVar="6" Cut="-1.6910008192062378e+00" cType="1" res="1.3371342793107033e-03" rms="3.8581153750419617e-01" purity="4.9785453081130981e-01" nType="0">
        <Node pos="l" depth="1" NCoef="0" IVar="-1" Cut="0.0000000000000000e+00" cType="1" res="-4.8376489430665970e-03" rms="3.0033317208290100e-01" purity="1.8060865998268127e-01" nType="-99"/>
        <Node pos="r" depth="1" NCoef="0" IVar="3" Cut="1.4786186218261719e+02" cType="1" res="3.8525573909282684e-03" rms="3.8876262307167053e-01" purity="5.1107436418533325e-01" nType="0">
          <Node pos="l" depth="2" NCoef="0" IVar="0" Cut="1.0044694824218750e+03" cType="1" res="2.6377167552709579e-02" rms="4.0626138448715210e-01" purity="3.7473410367965698e-01" nType="0">
            <Node pos="l" depth="3" NCoef="0" IVar="-1" Cut="0.0000000000000000e+00" cType="1" res="-5.0989410374313593e-04" rms="4.0082162618637085e-01" purity="2.5088563561439514e-01" nType="-99"/>
            <Node pos="r" depth="3" NCoef="0" IVar="-1" Cut="0.0000000000000000e+00" cType="1" res="1.6405757050961256e-03" rms="4.0740978717803955e-01" purity="4.2129191756248474e-01" nType="-99"/>
          </Node>
          <Node pos="r" depth="2" NCoef="0" IVar="7" Cut="-1.1999534368515015e+00" cType="1" res="-2.2961671929806471e-03" rms="3.8361755013465881e-01" purity="5.4829233884811401e-01" nType="0">
            <Node pos="l" depth="3" NCoef="0" IVar="-1" Cut="0.0000000000000000e+00" cType="1" res="-2.5504699442535639e-03" rms="3.4932672977447510e-01" purity="2.8230550885200500e-01" nType="-99"/>
            <Node pos="r" depth="3" NCoef="0" IVar="-1" Cut="0.0000000000000000e+00" cType="1" res="1.0671281052054837e-04" rms="3.8729670643806458e-01" purity="5.8047193288803101e-01" nType="-99"/>
          </Node>
        </Node>
      </Node>
    </BinaryTree>
    <BinaryTree type="DecisionTree" boostWeight="1.0000000000000000e+00" itree="626">
      <Node pos="s" depth="0" NCoef="0" IVar="3" Cut="1.4615325927734375e+02" cType="1" res="7.3562059551477432e-03" rms="3.8699913024902344e-01" purity="5.0497514009475708e-01" nType="0">
        <Node pos="l" depth="1" NCoef="0" IVar="0" Cut="1.0460600585937500e+03" cType="1" res="3.2796099781990051e-02" rms="4.0505534410476685e-01" purity="3.6919865012168884e-01" nType="0">
          <Node pos="l" depth="2" NCoef="0" IVar="-1" Cut="0.0000000000000000e+00" cType="1" res="-2.4220839259214699e-04" rms="3.9433032274246216e-01" purity="2.4641273915767670e-01" nType="-99"/>
          <Node pos="r" depth="2" NCoef="0" IVar="8" Cut="-6.6565519571304321e-01" cType="1" res="5.5636316537857056e-02" rms="4.0970402956008911e-01" purity="4.4329479336738586e-01" nType="0">
            <Node pos="l" depth="3" NCoef="0" IVar="-1" Cut="0.0000000000000000e+00" cType="1" res="1.2562451884150505e-03" rms="3.8880205154418945e-01" purity="3.5660713911056519e-01" nType="-99"/>
            <Node pos="r" depth="3" NCoef="0" IVar="-1" Cut="0.0000000000000000e+00" cType="1" res="2.5630020536482334e-03" rms="4.1669353842735291e-01" purity="4.7541096806526184e-01" nType="-99"/>
          </Node>
        </Node>
        <Node pos="r" depth="1" NCoef="0" IVar="7" Cut="-6.6671663522720337e-01" cType="1" res="6.0187524650245905e-04" rms="3.8177716732025146e-01" purity="5.4102408885955811e-01" nType="0">
          <Node pos="l" depth="2" NCoef="0" IVar="8" Cut="9.3348169326782227e-01" cType="1" res="-2.4664122611284256e-02" rms="3.7231057882308960e-01" purity="4.1320040822029114e-01" nType="0">
            <Node pos="l" depth="3" NCoef="0" IVar="-1" Cut="0.0000000000000000e+00" cType="1" res="-7.6211395207792521e-04" rms="3.7832388281822205e-01" purity="4.5093688368797302e-01" nType="-99"/>
            <Node pos="r" depth="3" NCoef="0" IVar="-1" Cut="0.0000000000000000e+00" cType="1" res="-5.4710549302399158e-03" rms="3.3500763773918152e-01" purity="2.1754521131515503e-01" nType="-99"/>
          </Node>
          <Node pos="r" depth="2" NCoef="0" IVar="7" Cut="4.8875200748443604e-01" cType="1" res="8.4968991577625275e-03" rms="3.8434705138206482e-01" purity="5.8096593618392944e-01" nType="0">
            <Node pos="l" depth="3" NCoef="0" IVar="-1" Cut="0.0000000000000000e+00" cType="1" res="9.7321224166080356e-04" rms="3.8854706287384033e-01" purity="6.5812242031097412e-01" nType="-99"/>
            <Node pos="r" depth="3" NCoef="0" IVar="-1" Cut="0.0000000000000000e+00" cType="1" res="-7.1214756462723017e-04" rms="3.7655612826347351e-01" purity="4.6004572510719299e-01" nType="-99"/>
          </Node>
        </Node>
      </Node>
    </BinaryTree>
    <BinaryTree type="DecisionTree" boostWeight="1.0000000000000000e+00" itree="627">
      <Node pos="s" depth="0" NCoef="0" IVar="9" Cut="1.9999758005142212e+00" cType="1" res="5.7567520998418331e-03" rms="3.8235279917716980e-01" purity="5.0822716951370239e-01" nType="0">
        <Node pos="l" depth="1" NCoef="0" IVar="9" Cut="-1.8855518102645874e+00" cType="1" res="8.3347652107477188e-03" rms="3.8442075252532959e-01" purity="5.2053803205490112e-01" nType="0">
          <Node pos="l" depth="2" NCoef="0" IVar="-1" Cut="0.0000000000000000e+00" cType="1" res="-3.5431655123829842e-03" rms="3.3874905109405518e-01" purity="2.3287738859653473e-01" nType="-99"/>
          <Node pos="r" depth="2" NCoef="0" IVar="0" Cut="1.1187791748046875e+03" cType="1" res="1.1282674036920071e-02" rms="3.8647896051406860e-01" purity="5.3585439920425415e-01" nType="0">
            <Node pos="l" depth="3" NCoef="0" IVar="-1" Cut="0.0000000000000000e+00" cType="1" res="-6.1772525077685714e-04" rms="4.0459775924682617e-01" purity="2.8042837977409363e-01" nType="-99"/>
            <Node pos="r" depth="3" NCoef="0" IVar="-1" Cut="0.0000000000000000e+00" cType="1" res="7.4581493390724063e-04" rms="3.8221728801727295e-01" purity="5.9124338626861572e-01" nType="-99"/>
          </Node>
        </Node>
        <Node pos="r" depth="1" NCoef="0" IVar="-1" Cut="0.0000000000000000e+00" cType="1" res="-4.4061606749892235e-03" rms="3.1884554028511047e-01" purity="1.9681449234485626e-01" nType="-99"/>
      </Node>
    </BinaryTree>
    <BinaryTree type="DecisionTree" boostWeight="1.0000000000000000e+00" itree="628">
      <Node pos="s" depth="0" NCoef="0" IVar="0" Cut="1.1315443115234375e+03" cType="1" res="7.0067506749182940e-04" rms="3.8521513342857361e-01" purity="5.0149947404861450e-01" nType="0">
        <Node pos="l" depth="1" NCoef="0" IVar="3" Cut="1.6137446594238281e+02" cType="1" res="-2.0337546244263649e-02" rms="3.9452266693115234e-01" purity="2.6454317569732666e-01" nType="0">
          <Node pos="l" depth="2" NCoef="0" IVar="2" Cut="2.5274147033691406e+02" cType="1" res="-8.0067971721291542e-03" rms="3.9206349849700928e-01" purity="2.6842984557151794e-01" nType="0">
            <Node pos="l" depth="3" NCoef="0" IVar="-1" Cut="0.0000000000000000e+00" cType="1" res="8.3943078061565757e-04" rms="4.2438277602195740e-01" purity="3.7255740165710449e-01" nType="-99"/>
            <Node pos="r" depth="3" NCoef="0" IVar="-1" Cut="0.0000000000000000e+00" cType="1" res="-1.7227729549631476e-03" rms="3.6256793141365051e-01" purity="1.8570560216903687e-01" nType="-99"/>
          </Node>
          <Node pos="r" depth="2" NCoef="0" IVar="-1" Cut="0.0000000000000000e+00" cType="1" res="-2.2022770717740059e-03" rms="3.9864212274551392e-01" purity="2.5570225715637207e-01" nType="-99"/>
        </Node>
        <Node pos="r" depth="1" NCoef="0" IVar="2" Cut="3.5405340576171875e+02" cType="1" res="6.3078007660806179e-03" rms="3.8250103592872620e-01" purity="5.6465321779251099e-01" nType="0">
          <Node pos="l" depth="2" NCoef="0" IVar="3" Cut="1.7473385620117188e+02" cType="1" res="2.4312611669301987e-02" rms="3.7026593089103699e-01" purity="6.9912171363830566e-01" nType="0">
            <Node pos="l" depth="3" NCoef="0" IVar="-1" Cut="0.0000000000000000e+00" cType="1" res="2.3443743120878935e-03" rms="3.8291454315185547e-01" purity="7.1737521886825562e-01" nType="-99"/>
            <Node pos="r" depth="3" NCoef="0" IVar="-1" Cut="0.0000000000000000e+00" cType="1" res="4.9943587509915233e-04" rms="3.6502674221992493e-01" purity="6.9308048486709595e-01" nType="-99"/>
          </Node>
          <Node pos="r" depth="2" NCoef="0" IVar="0" Cut="1.7630169677734375e+03" cType="1" res="-9.5315771177411079e-03" rms="3.9226704835891724e-01" purity="4.4635725021362305e-01" nType="0">
            <Node pos="l" depth="3" NCoef="0" IVar="-1" Cut="0.0000000000000000e+00" cType="1" res="-1.1505448492243886e-03" rms="3.8919806480407715e-01" purity="3.5800570249557495e-01" nType="-99"/>
            <Node pos="r" depth="3" NCoef="0" IVar="-1" Cut="0.0000000000000000e+00" cType="1" res="5.1507673924788833e-04" rms="3.9716404676437378e-01" purity="6.1424565315246582e-01" nType="-99"/>
          </Node>
        </Node>
      </Node>
    </BinaryTree>
    <BinaryTree type="DecisionTree" boostWeight="1.0000000000000000e+00" itree="629">
      <Node pos="s" depth="0" NCoef="0" IVar="3" Cut="1.4932284545898438e+02" cType="1" res="2.5481735356152058e-03" rms="3.8693246245384216e-01" purity="5.0006037950515747e-01" nType="0">
        <Node pos="l" depth="1" NCoef="0" IVar="5" Cut="7.3315696716308594e+01" cType="1" res="2.3026330396533012e-02" rms="4.0012365579605103e-01" purity="3.7494859099388123e-01" nType="0">
          <Node pos="l" depth="2" NCoef="0" IVar="7" Cut="-1.3266851007938385e-01" cType="1" res="-2.4628622923046350e-03" rms="3.7549346685409546e-01" purity="2.3931601643562317e-01" nType="0">
            <Node pos="l" depth="3" NCoef="0" IVar="-1" Cut="0.0000000000000000e+00" cType="1" res="-2.3274386767297983e-03" rms="3.4064549207687378e-01" purity="1.8751078844070435e-01" nType="-99"/>
            <Node pos="r" depth="3" NCoef="0" IVar="-1" Cut="0.0000000000000000e+00" cType="1" res="1.3099870411679149e-03" rms="3.9812237024307251e-01" purity="2.7972090244293213e-01" nType="-99"/>
          </Node>
          <Node pos="r" depth="2" NCoef="0" IVar="2" Cut="4.5449951171875000e+02" cType="1" res="3.9332784712314606e-02" rms="4.1429305076599121e-01" purity="4.6171820163726807e-01" nType="0">
            <Node pos="l" depth="3" NCoef="0" IVar="-1" Cut="0.0000000000000000e+00" cType="1" res="1.8467429326847196e-03" rms="4.1907104849815369e-01" purity="4.8498395085334778e-01" nType="-99"/>
            <Node pos="r" depth="3" NCoef="0" IVar="-1" Cut="0.0000000000000000e+00" cType="1" res="-8.3042534242849797e-05" rms="3.8910263776779175e-01" purity="3.5562622547149658e-01" nType="-99"/>
          </Node>
        </Node>
        <Node pos="r" depth="1" NCoef="0" IVar="8" Cut="-1.1999839544296265e+00" cType="1" res="-3.5222552251070738e-03" rms="3.8272434473037720e-01" purity="5.3714781999588013e-01" nType="0">
          <Node pos="l" depth="2" NCoef="0" IVar="7" Cut="1.3302317261695862e-01" cType="1" res="-4.3074533343315125e-02" rms="3.5986050963401794e-01" purity="3.0061131715774536e-01" nType="0">
            <Node pos="l" depth="3" NCoef="0" IVar="-1" Cut="0.0000000000000000e+00" cType="1" res="-1.0896883904933929e-03" rms="3.6845585703849792e-01" purity="3.4297034144401550e-01" nType="-99"/>
            <Node pos="r" depth="3" NCoef="0" IVar="-1" Cut="0.0000000000000000e+00" cType="1" res="-6.1101410537958145e-03" rms="3.4185859560966492e-01" purity="2.3211351037025452e-01" nType="-99"/>
          </Node>
          <Node pos="r" depth="2" NCoef="0" IVar="8" Cut="8.9522004127502441e-01" cType="1" res="1.7851456068456173e-03" rms="3.8538047671318054e-01" purity="5.6888794898986816e-01" nType="0">
            <Node pos="l" depth="3" NCoef="0" IVar="-1" Cut="0.0000000000000000e+00" cType="1" res="4.4056519982405007e-04" rms="3.8673102855682373e-01" purity="6.1941337585449219e-01" nType="-99"/>
            <Node pos="r" depth="3" NCoef="0" IVar="-1" Cut="0.0000000000000000e+00" cType="1" res="-1.5016717370599508e-03" rms="3.7888887524604797e-01" purity="3.8503694534301758e-01" nType="-99"/>
          </Node>
        </Node>
      </Node>
    </BinaryTree>
    <BinaryTree type="DecisionTree" boostWeight="1.0000000000000000e+00" itree="630">
      <Node pos="s" depth="0" NCoef="0" IVar="8" Cut="1.4666454792022705e+00" cType="1" res="4.0120584890246391e-03" rms="3.8917985558509827e-01" purity="4.9982154369354248e-01" nType="0">
        <Node pos="l" depth="1" NCoef="0" IVar="8" Cut="-1.5809569358825684e+00" cType="1" res="7.3573477566242218e-03" rms="3.9214605093002319e-01" purity="5.2423799037933350e-01" nType="0">
          <Node pos="l" depth="2" NCoef="0" IVar="4" Cut="1.1982321166992188e+02" cType="1" res="-2.9871189966797829e-02" rms="3.4974142909049988e-01" purity="2.2292177379131317e-01" nType="0">
            <Node pos="l" depth="3" NCoef="0" IVar="-1" Cut="0.0000000000000000e+00" cType="1" res="8.3525788795668632e-05" rms="3.3359494805335999e-01" purity="1.8457753956317902e-01" nType="-99"/>
            <Node pos="r" depth="3" NCoef="0" IVar="-1" Cut="0.0000000000000000e+00" cType="1" res="-4.0133059956133366e-03" rms="3.6265656352043152e-01" purity="2.6166319847106934e-01" nType="-99"/>
          </Node>
          <Node pos="r" depth="2" NCoef="0" IVar="2" Cut="7.1392620849609375e+02" cType="1" res="1.0588473640382290e-02" rms="3.9544683694839478e-01" purity="5.5038970708847046e-01" nType="0">
            <Node pos="l" depth="3" NCoef="0" IVar="-1" Cut="0.0000000000000000e+00" cType="1" res="5.6842528283596039e-04" rms="3.9445593953132629e-01" purity="5.5566728115081787e-01" nType="-99"/>
            <Node pos="r" depth="3" NCoef="0" IVar="-1" Cut="0.0000000000000000e+00" cType="1" res="-1.9068496767431498e-03" rms="4.1094344854354858e-01" purity="4.4861608743667603e-01" nType="-99"/>
          </Node>
        </Node>
        <Node pos="r" depth="1" NCoef="0" IVar="4" Cut="1.4663385009765625e+02" cType="1" res="-3.0966458842158318e-02" rms="3.5480663180351257e-01" purity="2.4452255666255951e-01" nType="0">
          <Node pos="l" depth="2" NCoef="0" IVar="8" Cut="1.8475959300994873e+00" cType="1" res="-1.3743601739406586e-02" rms="3.4488973021507263e-01" purity="2.1167866885662079e-01" nType="0">
            <Node pos="l" depth="3" NCoef="0" IVar="-1" Cut="0.0000000000000000e+00" cType="1" res="8.3095591980963945e-04" rms="3.8158789277076721e-01" purity="2.7662479877471924e-01" nType="-99"/>
            <Node pos="r" depth="3" NCoef="0" IVar="-1" Cut="0.0000000000000000e+00" cType="1" res="-2.7070757932960987e-03" rms="3.1170859932899475e-01" purity="1.6109195351600647e-01" nType="-99"/>
          </Node>
          <Node pos="r" depth="2" NCoef="0" IVar="-1" Cut="0.0000000000000000e+00" cType="1" res="-3.9259279146790504e-03" rms="3.7142744660377502e-01" purity="3.1004601716995239e-01" nType="-99"/>
        </Node>
      </Node>
    </BinaryTree>
    <BinaryTree type="DecisionTree" boostWeight="1.0000000000000000e+00" itree="631">
      <Node pos="s" depth="0" NCoef="0" IVar="2" Cut="8.1617486572265625e+02" cType="1" res="2.0755475852638483e-03" rms="3.8617169857025146e-01" purity="4.9799048900604248e-01" nType="0">
        <Node pos="l" depth="1" NCoef="0" IVar="0" Cut="1.5230085449218750e+03" cType="1" res="4.4147446751594543e-03" rms="3.8508322834968567e-01" purity="5.0069296360015869e-01" nType="0">
          <Node pos="l" depth="2" NCoef="0" IVar="4" Cut="1.8811466979980469e+02" cType="1" res="-6.2164701521396637e-03" rms="3.9211711287498474e-01" purity="4.2400962114334106e-01" nType="0">
            <Node pos="l" depth="3" NCoef="0" IVar="-1" Cut="0.0000000000000000e+00" cType="1" res="-5.5598309700144455e-05" rms="3.9255410432815552e-01" purity="4.1820287704467773e-01" nType="-99"/>
            <Node pos="r" depth="3" NCoef="0" IVar="-1" Cut="0.0000000000000000e+00" cType="1" res="-3.6440123803913593e-03" rms="3.8115677237510681e-01" purity="4.9646386504173279e-01" nType="-99"/>
          </Node>
          <Node pos="r" depth="2" NCoef="0" IVar="3" Cut="2.7233520507812500e+02" cType="1" res="2.6363316923379898e-02" rms="3.6917167901992798e-01" purity="6.5900886058807373e-01" nType="0">
            <Node pos="l" depth="3" NCoef="0" IVar="-1" Cut="0.0000000000000000e+00" cType="1" res="2.2127262782305479e-03" rms="3.4647321701049805e-01" purity="7.3432838916778564e-01" nType="-99"/>
            <Node pos="r" depth="3" NCoef="0" IVar="-1" Cut="0.0000000000000000e+00" cType="1" res="1.0178937372984365e-04" rms="3.9460587501525879e-01" purity="5.6405442953109741e-01" nType="-99"/>
          </Node>
        </Node>
        <Node pos="r" depth="1" NCoef="0" IVar="-1" Cut="0.0000000000000000e+00" cType="1" res="-5.7207071222364902e-04" rms="4.1358727216720581e-01" purity="4.0671887993812561e-01" nType="-99"/>
      </Node>
    </BinaryTree>
    <BinaryTree type="DecisionTree" boostWeight="1.0000000000000000e+00" itree="632">
      <Node pos="s" depth="0" NCoef="0" IVar="2" Cut="7.1393237304687500e+02" cType="1" res="-2.3222432937473059e-03" rms="3.8502278923988342e-01" purity="4.9399155378341675e-01" nType="0">
        <Node pos="l" depth="1" NCoef="0" IVar="0" Cut="1.7038740234375000e+03" cType="1" res="9.3000446213409305e-04" rms="3.8433501124382019e-01" purity="4.9973443150520325e-01" nType="0">
          <Node pos="l" depth="2" NCoef="0" IVar="2" Cut="2.2447999572753906e+02" cType="1" res="-5.6281420402228832e-03" rms="3.8786986470222473e-01" purity="4.5736724138259888e-01" nType="0">
            <Node pos="l" depth="3" NCoef="0" IVar="-1" Cut="0.0000000000000000e+00" cType="1" res="1.5477909473702312e-03" rms="3.8845950365066528e-01" purity="5.8395671844482422e-01" nType="-99"/>
            <Node pos="r" depth="3" NCoef="0" IVar="-1" Cut="0.0000000000000000e+00" cType="1" res="-5.6216132361441851e-04" rms="3.8738942146301270e-01" purity="4.4039466977119446e-01" nType="-99"/>
          </Node>
          <Node pos="r" depth="2" NCoef="0" IVar="3" Cut="3.1348385620117188e+02" cType="1" res="3.4137349575757980e-02" rms="3.6410340666770935e-01" purity="7.1426159143447876e-01" nType="0">
            <Node pos="l" depth="3" NCoef="0" IVar="-1" Cut="0.0000000000000000e+00" cType="1" res="2.6272872928529978e-03" rms="3.3543369174003601e-01" purity="7.9582691192626953e-01" nType="-99"/>
            <Node pos="r" depth="3" NCoef="0" IVar="-1" Cut="0.0000000000000000e+00" cType="1" res="-1.5386900486191735e-05" rms="4.0499311685562134e-01" purity="5.7861715555191040e-01" nType="-99"/>
          </Node>
        </Node>
        <Node pos="r" depth="1" NCoef="0" IVar="-1" Cut="0.0000000000000000e+00" cType="1" res="-7.5157999526709318e-04" rms="3.9276254177093506e-01" purity="3.8559022545814514e-01" nType="-99"/>
      </Node>
    </BinaryTree>
    <BinaryTree type="DecisionTree" boostWeight="1.0000000000000000e+00" itree="633">
      <Node pos="s" depth="0" NCoef="0" IVar="2" Cut="6.0625231933593750e+02" cType="1" res="5.8521539904177189e-04" rms="3.8502246141433716e-01" purity="4.9563375115394592e-01" nType="0">
        <Node pos="l" depth="1" NCoef="0" IVar="0" Cut="1.7031516113281250e+03" cType="1" res="3.9585540071129799e-03" rms="3.8385719060897827e-01" purity="5.0920337438583374e-01" nType="0">
          <Node pos="l" depth="2" NCoef="0" IVar="4" Cut="2.2315196228027344e+02" cType="1" res="-1.9235373474657536e-03" rms="3.8962456583976746e-01" purity="4.6461281180381775e-01" nType="0">
            <Node pos="l" depth="3" NCoef="0" IVar="-1" Cut="0.0000000000000000e+00" cType="1" res="5.1843791879946366e-05" rms="3.8957095146179199e-01" purity="4.6429866552352905e-01" nType="-99"/>
            <Node pos="r" depth="3" NCoef="0" IVar="-1" Cut="0.0000000000000000e+00" cType="1" res="-4.8935124650597572e-03" rms="3.8200655579566956e-01" purity="4.7302231192588806e-01" nType="-99"/>
          </Node>
          <Node pos="r" depth="2" NCoef="0" IVar="3" Cut="3.0415151977539062e+02" cType="1" res="3.8208771497011185e-02" rms="3.4640511870384216e-01" purity="7.6884490251541138e-01" nType="0">
            <Node pos="l" depth="3" NCoef="0" IVar="-1" Cut="0.0000000000000000e+00" cType="1" res="2.7018913533538580e-03" rms="3.0819207429885864e-01" purity="8.4939205646514893e-01" nType="-99"/>
            <Node pos="r" depth="3" NCoef="0" IVar="-1" Cut="0.0000000000000000e+00" cType="1" res="3.7249724846333265e-04" rms="3.9568161964416504e-01" purity="6.4631605148315430e-01" nType="-99"/>
          </Node>
        </Node>
        <Node pos="r" depth="1" NCoef="0" IVar="0" Cut="1.9398524169921875e+03" cType="1" res="-3.0833251774311066e-02" rms="3.9432719349861145e-01" purity="3.6924955248832703e-01" nType="0">
          <Node pos="l" depth="2" NCoef="0" IVar="-1" Cut="0.0000000000000000e+00" cType="1" res="-9.0173009084537625e-04" rms="3.4287950396537781e-01" purity="1.7885147035121918e-01" nType="-99"/>
          <Node pos="r" depth="2" NCoef="0" IVar="4" Cut="1.8841505432128906e+02" cType="1" res="8.1842867657542229e-03" rms="4.3083569407463074e-01" purity="5.3680700063705444e-01" nType="0">
            <Node pos="l" depth="3" NCoef="0" IVar="-1" Cut="0.0000000000000000e+00" cType="1" res="3.5740330349653959e-04" rms="4.3304374814033508e-01" purity="5.3373748064041138e-01" nType="-99"/>
            <Node pos="r" depth="3" NCoef="0" IVar="-1" Cut="0.0000000000000000e+00" cType="1" res="3.0989290098659694e-04" rms="4.2854490876197815e-01" purity="5.3997433185577393e-01" nType="-99"/>
          </Node>
        </Node>
      </Node>
    </BinaryTree>
    <BinaryTree type="DecisionTree" boostWeight="1.0000000000000000e+00" itree="634">
      <Node pos="s" depth="0" NCoef="0" IVar="2" Cut="8.0938336181640625e+02" cType="1" res="1.1639209697023034e-03" rms="3.8345167040824890e-01" purity="4.9698209762573242e-01" nType="0">
        <Node pos="l" depth="1" NCoef="0" IVar="0" Cut="2.0901894531250000e+03" cType="1" res="3.3999141305685043e-03" rms="3.8235354423522949e-01" purity="4.9973803758621216e-01" nType="0">
          <Node pos="l" depth="2" NCoef="0" IVar="2" Cut="2.2902743530273438e+02" cType="1" res="3.8194030639715493e-04" rms="3.8221257925033569e-01" purity="4.8874300718307495e-01" nType="0">
            <Node pos="l" depth="3" NCoef="0" IVar="-1" Cut="0.0000000000000000e+00" cType="1" res="1.5989934327080846e-03" rms="3.9376488327980042e-01" purity="5.8378076553344727e-01" nType="-99"/>
            <Node pos="r" depth="3" NCoef="0" IVar="-1" Cut="0.0000000000000000e+00" cType="1" res="-2.4705333635210991e-04" rms="3.8024747371673584e-01" purity="4.7543138265609741e-01" nType="-99"/>
          </Node>
          <Node pos="r" depth="2" NCoef="0" IVar="-1" Cut="0.0000000000000000e+00" cType="1" res="2.6676328852772713e-03" rms="3.7937885522842407e-01" purity="7.4265444278717041e-01" nType="-99"/>
        </Node>
        <Node pos="r" depth="1" NCoef="0" IVar="-1" Cut="0.0000000000000000e+00" cType="1" res="-5.5969913955777884e-04" rms="4.1208994388580322e-01" purity="4.0249904990196228e-01" nType="-99"/>
      </Node>
    </BinaryTree>
    <BinaryTree type="DecisionTree" boostWeight="1.0000000000000000e+00" itree="635">
      <Node pos="s" depth="0" NCoef="0" IVar="3" Cut="4.0874017333984375e+02" cType="1" res="-1.1450792662799358e-03" rms="3.8431742787361145e-01" purity="4.9400538206100464e-01" nType="0">
        <Node pos="l" depth="1" NCoef="0" IVar="0" Cut="1.5367080078125000e+03" cType="1" res="1.0557544883340597e-03" rms="3.8340792059898376e-01" purity="4.9720272421836853e-01" nType="0">
          <Node pos="l" depth="2" NCoef="0" IVar="6" Cut="6.8554443120956421e-01" cType="1" res="-9.0133203193545341e-03" rms="3.9003866910934448e-01" purity="4.2025223374366760e-01" nType="0">
            <Node pos="l" depth="3" NCoef="0" IVar="-1" Cut="0.0000000000000000e+00" cType="1" res="1.8821448975359090e-05" rms="3.9562341570854187e-01" purity="4.6640640497207642e-01" nType="-99"/>
            <Node pos="r" depth="3" NCoef="0" IVar="-1" Cut="0.0000000000000000e+00" cType="1" res="-2.0153131335973740e-03" rms="3.7095671892166138e-01" purity="2.7914714813232422e-01" nType="-99"/>
          </Node>
          <Node pos="r" depth="2" NCoef="0" IVar="3" Cut="2.2339167785644531e+02" cType="1" res="2.3073803633451462e-02" rms="3.6753302812576294e-01" purity="6.6547048091888428e-01" nType="0">
            <Node pos="l" depth="3" NCoef="0" IVar="-1" Cut="0.0000000000000000e+00" cType="1" res="2.6378310285508633e-03" rms="3.5324025154113770e-01" purity="7.2763317823410034e-01" nType="-99"/>
            <Node pos="r" depth="3" NCoef="0" IVar="-1" Cut="0.0000000000000000e+00" cType="1" res="2.3670143855269998e-04" rms="3.7338188290596008e-01" purity="6.3337010145187378e-01" nType="-99"/>
          </Node>
        </Node>
        <Node pos="r" depth="1" NCoef="0" IVar="-1" Cut="0.0000000000000000e+00" cType="1" res="-4.1969078592956066e-03" rms="4.0659254789352417e-01" purity="3.8841196894645691e-01" nType="-99"/>
      </Node>
    </BinaryTree>
    <BinaryTree type="DecisionTree" boostWeight="1.0000000000000000e+00" itree="636">
      <Node pos="s" depth="0" NCoef="0" IVar="8" Cut="-9.3334823846817017e-01" cType="1" res="2.7471771463751793e-03" rms="3.8687813282012939e-01" purity="5.0216346979141235e-01" nType="0">
        <Node pos="l" depth="1" NCoef="0" IVar="4" Cut="1.7701977539062500e+02" cType="1" res="-2.7811268344521523e-02" rms="3.6949494481086731e-01" purity="3.4418648481369019e-01" nType="0">
          <Node pos="l" depth="2" NCoef="0" IVar="8" Cut="-1.5555791854858398e+00" cType="1" res="-1.5295545570552349e-02" rms="3.6653420329093933e-01" purity="3.2747393846511841e-01" nType="0">
            <Node pos="l" depth="3" NCoef="0" IVar="-1" Cut="0.0000000000000000e+00" cType="1" res="-2.9585366137325764e-03" rms="3.3153316378593445e-01" purity="1.9972214102745056e-01" nType="-99"/>
            <Node pos="r" depth="3" NCoef="0" IVar="-1" Cut="0.0000000000000000e+00" cType="1" res="1.0934725287370384e-04" rms="3.8812905550003052e-01" purity="4.1661772131919861e-01" nType="-99"/>
          </Node>
          <Node pos="r" depth="2" NCoef="0" IVar="-1" Cut="0.0000000000000000e+00" cType="1" res="-4.5720608904957771e-03" rms="3.7695118784904480e-01" purity="4.1064092516899109e-01" nType="-99"/>
        </Node>
        <Node pos="r" depth="1" NCoef="0" IVar="8" Cut="4.8886460065841675e-01" cType="1" res="9.8274312913417816e-03" rms="3.9045432209968567e-01" purity="5.3876608610153198e-01" nType="0">
          <Node pos="l" depth="2" NCoef="0" IVar="9" Cut="9.3336659669876099e-01" cType="1" res="2.0425049588084221e-02" rms="3.9141193032264709e-01" purity="6.0375034809112549e-01" nType="0">
            <Node pos="l" depth="3" NCoef="0" IVar="-1" Cut="0.0000000000000000e+00" cType="1" res="1.1933159548789263e-03" rms="3.9035156369209290e-01" purity="6.3266682624816895e-01" nType="-99"/>
            <Node pos="r" depth="3" NCoef="0" IVar="-1" Cut="0.0000000000000000e+00" cType="1" res="-8.0045568756759167e-04" rms="3.9417707920074463e-01" purity="4.6878576278686523e-01" nType="-99"/>
          </Node>
          <Node pos="r" depth="2" NCoef="0" IVar="3" Cut="1.9422807312011719e+02" cType="1" res="-6.6499649547040462e-03" rms="3.8838681578636169e-01" purity="4.3772706389427185e-01" nType="0">
            <Node pos="l" depth="3" NCoef="0" IVar="-1" Cut="0.0000000000000000e+00" cType="1" res="5.7835871120914817e-04" rms="3.8989695906639099e-01" purity="3.9600291848182678e-01" nType="-99"/>
            <Node pos="r" depth="3" NCoef="0" IVar="-1" Cut="0.0000000000000000e+00" cType="1" res="-1.2943322071805596e-03" rms="3.8603422045707703e-01" purity="4.7789877653121948e-01" nType="-99"/>
          </Node>
        </Node>
      </Node>
    </BinaryTree>
    <BinaryTree type="DecisionTree" boostWeight="1.0000000000000000e+00" itree="637">
      <Node pos="s" depth="0" NCoef="0" IVar="2" Cut="6.6213262939453125e+02" cType="1" res="1.3948975829407573e-03" rms="3.8473755121231079e-01" purity="4.9775141477584839e-01" nType="0">
        <Node pos="l" depth="1" NCoef="0" IVar="0" Cut="1.6929970703125000e+03" cType="1" res="4.9007628113031387e-03" rms="3.8394975662231445e-01" purity="5.0627303123474121e-01" nType="0">
          <Node pos="l" depth="2" NCoef="0" IVar="3" Cut="1.4966816711425781e+02" cType="1" res="-8.4210548084229231e-04" rms="3.8841059803962708e-01" purity="4.6199864149093628e-01" nType="0">
            <Node pos="l" depth="3" NCoef="0" IVar="-1" Cut="0.0000000000000000e+00" cType="1" res="1.1383309029042721e-03" rms="3.9845517277717590e-01" purity="3.6716899275779724e-01" nType="-99"/>
            <Node pos="r" depth="3" NCoef="0" IVar="-1" Cut="0.0000000000000000e+00" cType="1" res="-5.0821388140320778e-04" rms="3.8395065069198608e-01" purity="4.9897345900535583e-01" nType="-99"/>
          </Node>
          <Node pos="r" depth="2" NCoef="0" IVar="3" Cut="3.2653735351562500e+02" cType="1" res="3.4712217748165131e-02" rms="3.5843035578727722e-01" purity="7.3610317707061768e-01" nType="0">
            <Node pos="l" depth="3" NCoef="0" IVar="-1" Cut="0.0000000000000000e+00" cType="1" res="2.5712356436997652e-03" rms="3.3331161737442017e-01" purity="8.0840831995010376e-01" nType="-99"/>
            <Node pos="r" depth="3" NCoef="0" IVar="-1" Cut="0.0000000000000000e+00" cType="1" res="-6.3995044911280274e-04" rms="4.0553152561187744e-01" purity="5.7223260402679443e-01" nType="-99"/>
          </Node>
        </Node>
        <Node pos="r" depth="1" NCoef="0" IVar="0" Cut="2.1931628417968750e+03" cType="1" res="-4.5551545917987823e-02" rms="3.9212703704833984e-01" purity="3.8363945484161377e-01" nType="0">
          <Node pos="l" depth="2" NCoef="0" IVar="-1" Cut="0.0000000000000000e+00" cType="1" res="-8.9962093625217676e-04" rms="3.6234691739082336e-01" purity="2.3920407891273499e-01" nType="-99"/>
          <Node pos="r" depth="2" NCoef="0" IVar="-1" Cut="0.0000000000000000e+00" cType="1" res="3.5105113056488335e-04" rms="4.2433071136474609e-01" purity="5.8596158027648926e-01" nType="-99"/>
        </Node>
      </Node>
    </BinaryTree>
    <BinaryTree type="DecisionTree" boostWeight="1.0000000000000000e+00" itree="638">
      <Node pos="s" depth="0" NCoef="0" IVar="3" Cut="3.4224249267578125e+02" cType="1" res="4.6732206828892231e-03" rms="3.8894581794738770e-01" purity="5.0147694349288940e-01" nType="0">
        <Node pos="l" depth="1" NCoef="0" IVar="0" Cut="1.6246434326171875e+03" cType="1" res="8.0389222130179405e-03" rms="3.8743299245834351e-01" purity="5.0691431760787964e-01" nType="0">
          <Node pos="l" depth="2" NCoef="0" IVar="4" Cut="2.0191078186035156e+02" cType="1" res="-9.3342387117445469e-04" rms="3.9381057024002075e-01" purity="4.5105776190757751e-01" nType="0">
            <Node pos="l" depth="3" NCoef="0" IVar="-1" Cut="0.0000000000000000e+00" cType="1" res="1.3183467672206461e-04" rms="3.9374253153800964e-01" purity="4.4670048356056213e-01" nType="-99"/>
            <Node pos="r" depth="3" NCoef="0" IVar="-1" Cut="0.0000000000000000e+00" cType="1" res="-3.2392016146332026e-03" rms="3.8982194662094116e-01" purity="5.2036142349243164e-01" nType="-99"/>
          </Node>
          <Node pos="r" depth="2" NCoef="0" IVar="3" Cut="2.3277557373046875e+02" cType="1" res="4.0944855660200119e-02" rms="3.6118316650390625e-01" purity="7.1176719665527344e-01" nType="0">
            <Node pos="l" depth="3" NCoef="0" IVar="-1" Cut="0.0000000000000000e+00" cType="1" res="2.7873511426150799e-03" rms="3.4918385744094849e-01" purity="7.4432826042175293e-01" nType="-99"/>
            <Node pos="r" depth="3" NCoef="0" IVar="-1" Cut="0.0000000000000000e+00" cType="1" res="1.1051162146031857e-03" rms="3.6836293339729309e-01" purity="6.8882018327713013e-01" nType="-99"/>
          </Node>
        </Node>
        <Node pos="r" depth="1" NCoef="0" IVar="1" Cut="4.2404965209960938e+02" cType="1" res="-3.8824543356895447e-02" rms="4.0548688173294067e-01" purity="4.3120637536048889e-01" nType="0">
          <Node pos="l" depth="2" NCoef="0" IVar="-1" Cut="0.0000000000000000e+00" cType="1" res="-9.7873597405850887e-04" rms="3.7985607981681824e-01" purity="3.3702895045280457e-01" nType="-99"/>
          <Node pos="r" depth="2" NCoef="0" IVar="-1" Cut="0.0000000000000000e+00" cType="1" res="-2.7297802735120058e-03" rms="4.2074427008628845e-01" purity="4.9306201934814453e-01" nType="-99"/>
        </Node>
      </Node>
    </BinaryTree>
    <BinaryTree type="DecisionTree" boostWeight="1.0000000000000000e+00" itree="639">
      <Node pos="s" depth="0" NCoef="0" IVar="8" Cut="-1.7333519458770752e+00" cType="1" res="8.9124304940924048e-04" rms="3.8712236285209656e-01" purity="4.9773633480072021e-01" nType="0">
        <Node pos="l" depth="1" NCoef="0" IVar="4" Cut="1.1785055541992188e+02" cType="1" res="-5.6537650525569916e-02" rms="3.2196751236915588e-01" purity="1.8701185286045074e-01" nType="0">
          <Node pos="l" depth="2" NCoef="0" IVar="-1" Cut="0.0000000000000000e+00" cType="1" res="-2.3697877768427134e-03" rms="3.0296939611434937e-01" purity="1.4214619994163513e-01" nType="-99"/>
          <Node pos="r" depth="2" NCoef="0" IVar="-1" Cut="0.0000000000000000e+00" cType="1" res="-6.0603427700698376e-03" rms="3.3693003654479980e-01" purity="2.2899687290191650e-01" nType="-99"/>
        </Node>
        <Node pos="r" depth="1" NCoef="0" IVar="3" Cut="1.4743023681640625e+02" cType="1" res="4.3738139793276787e-03" rms="3.9045265316963196e-01" purity="5.1657909154891968e-01" nType="0">
          <Node pos="l" depth="2" NCoef="0" IVar="0" Cut="1.0503291015625000e+03" cType="1" res="2.8114341199398041e-02" rms="4.0526613593101501e-01" purity="3.9004030823707581e-01" nType="0">
            <Node pos="l" depth="3" NCoef="0" IVar="-1" Cut="0.0000000000000000e+00" cType="1" res="-6.4358912641182542e-04" rms="3.9706668257713318e-01" purity="2.5399076938629150e-01" nType="-99"/>
            <Node pos="r" depth="3" NCoef="0" IVar="-1" Cut="0.0000000000000000e+00" cType="1" res="1.9577646162360907e-03" rms="4.0791374444961548e-01" purity="4.6634936332702637e-01" nType="-99"/>
          </Node>
          <Node pos="r" depth="2" NCoef="0" IVar="6" Cut="1.2151139974594116e+00" cType="1" res="-2.1190734114497900e-03" rms="3.8604819774627686e-01" purity="5.5118674039840698e-01" nType="0">
            <Node pos="l" depth="3" NCoef="0" IVar="-1" Cut="0.0000000000000000e+00" cType="1" res="1.3338774442672729e-04" rms="3.8894796371459961e-01" purity="5.8060270547866821e-01" nType="-99"/>
            <Node pos="r" depth="3" NCoef="0" IVar="-1" Cut="0.0000000000000000e+00" cType="1" res="-2.5491137057542801e-03" rms="3.5583740472793579e-01" purity="2.8764820098876953e-01" nType="-99"/>
          </Node>
        </Node>
      </Node>
    </BinaryTree>
    <BinaryTree type="DecisionTree" boostWeight="1.0000000000000000e+00" itree="640">
      <Node pos="s" depth="0" NCoef="0" IVar="2" Cut="8.1617535400390625e+02" cType="1" res="-2.5588573771528900e-04" rms="3.8645923137664795e-01" purity="4.9795496463775635e-01" nType="0">
        <Node pos="l" depth="1" NCoef="0" IVar="0" Cut="1.9058725585937500e+03" cType="1" res="3.4454220440238714e-03" rms="3.8583877682685852e-01" purity="5.0220465660095215e-01" nType="0">
          <Node pos="l" depth="2" NCoef="0" IVar="2" Cut="4.9339654541015625e+02" cType="1" res="-1.6347110504284501e-03" rms="3.8589385151863098e-01" purity="4.8090967535972595e-01" nType="0">
            <Node pos="l" depth="3" NCoef="0" IVar="-1" Cut="0.0000000000000000e+00" cType="1" res="1.8692873709369451e-04" rms="3.8854992389678955e-01" purity="5.1485502719879150e-01" nType="-99"/>
            <Node pos="r" depth="3" NCoef="0" IVar="-1" Cut="0.0000000000000000e+00" cType="1" res="-3.0705081298947334e-03" rms="3.6424151062965393e-01" purity="2.4451729655265808e-01" nType="-99"/>
          </Node>
          <Node pos="r" depth="2" NCoef="0" IVar="3" Cut="2.7483450317382812e+02" cType="1" res="5.5063165724277496e-02" rms="3.8146170973777771e-01" purity="7.1857714653015137e-01" nType="0">
            <Node pos="l" depth="3" NCoef="0" IVar="-1" Cut="0.0000000000000000e+00" cType="1" res="3.5968208685517311e-03" rms="3.4252458810806274e-01" purity="8.2605850696563721e-01" nType="-99"/>
            <Node pos="r" depth="3" NCoef="0" IVar="-1" Cut="0.0000000000000000e+00" cType="1" res="1.3988288119435310e-03" rms="3.9868989586830139e-01" purity="6.6314655542373657e-01" nType="-99"/>
          </Node>
        </Node>
        <Node pos="r" depth="1" NCoef="0" IVar="-1" Cut="0.0000000000000000e+00" cType="1" res="-3.4463050542399287e-04" rms="3.8862809538841248e-01" purity="3.7101888656616211e-01" nType="-99"/>
      </Node>
    </BinaryTree>
    <BinaryTree type="DecisionTree" boostWeight="1.0000000000000000e+00" itree="641">
      <Node pos="s" depth="0" NCoef="0" IVar="2" Cut="8.0937762451171875e+02" cType="1" res="1.8714711768552661e-03" rms="3.8624328374862671e-01" purity="4.9972182512283325e-01" nType="0">
        <Node pos="l" depth="1" NCoef="0" IVar="2" Cut="2.2902095031738281e+02" cType="1" res="4.5182770118117332e-03" rms="3.8557592034339905e-01" purity="5.0286841392517090e-01" nType="0">
          <Node pos="l" depth="2" NCoef="0" IVar="-1" Cut="0.0000000000000000e+00" cType="1" res="1.8179463222622871e-03" rms="3.9174905419349670e-01" purity="5.9116369485855103e-01" nType="-99"/>
          <Node pos="r" depth="2" NCoef="0" IVar="0" Cut="1.5374281005859375e+03" cType="1" res="-4.8377169878222048e-04" rms="3.8450053334236145e-01" purity="4.9174520373344421e-01" nType="0">
            <Node pos="l" depth="3" NCoef="0" IVar="-1" Cut="0.0000000000000000e+00" cType="1" res="-5.9362471802160144e-04" rms="3.9136093854904175e-01" purity="4.0085572004318237e-01" nType="-99"/>
            <Node pos="r" depth="3" NCoef="0" IVar="-1" Cut="0.0000000000000000e+00" cType="1" res="1.0544912656769156e-03" rms="3.7046554684638977e-01" purity="6.5947002172470093e-01" nType="-99"/>
          </Node>
        </Node>
        <Node pos="r" depth="1" NCoef="0" IVar="-1" Cut="0.0000000000000000e+00" cType="1" res="-6.5496977185830474e-04" rms="3.9793282747268677e-01" purity="3.9366254210472107e-01" nType="-99"/>
      </Node>
    </BinaryTree>
    <BinaryTree type="DecisionTree" boostWeight="1.0000000000000000e+00" itree="642">
      <Node pos="s" depth="0" NCoef="0" IVar="2" Cut="8.1617486572265625e+02" cType="1" res="3.0921434517949820e-03" rms="3.8626152276992798e-01" purity="4.9934491515159607e-01" nType="0">
        <Node pos="l" depth="1" NCoef="0" IVar="0" Cut="2.0899824218750000e+03" cType="1" res="5.2831885404884815e-03" rms="3.8527297973632812e-01" purity="5.0197988748550415e-01" nType="0">
          <Node pos="l" depth="2" NCoef="0" IVar="2" Cut="4.6407284545898438e+02" cType="1" res="2.1790373139083385e-03" rms="3.8508415222167969e-01" purity="4.9088230729103088e-01" nType="0">
            <Node pos="l" depth="3" NCoef="0" IVar="-1" Cut="0.0000000000000000e+00" cType="1" res="3.9407078293152153e-04" rms="3.8540703058242798e-01" purity="5.2875745296478271e-01" nType="-99"/>
            <Node pos="r" depth="3" NCoef="0" IVar="-1" Cut="0.0000000000000000e+00" cType="1" res="-1.7959022661671042e-03" rms="3.8207980990409851e-01" purity="3.1641495227813721e-01" nType="-99"/>
          </Node>
          <Node pos="r" depth="2" NCoef="0" IVar="-1" Cut="0.0000000000000000e+00" cType="1" res="2.6102846022695303e-03" rms="3.8324406743049622e-01" purity="7.4158549308776855e-01" nType="-99"/>
        </Node>
        <Node pos="r" depth="1" NCoef="0" IVar="-1" Cut="0.0000000000000000e+00" cType="1" res="-2.8422736795619130e-04" rms="4.1033947467803955e-01" purity="4.1593629121780396e-01" nType="-99"/>
      </Node>
    </BinaryTree>
    <BinaryTree type="DecisionTree" boostWeight="1.0000000000000000e+00" itree="643">
      <Node pos="s" depth="0" NCoef="0" IVar="0" Cut="1.1200750732421875e+03" cType="1" res="2.0005907863378525e-03" rms="3.8433304429054260e-01" purity="5.0193607807159424e-01" nType="0">
        <Node pos="l" depth="1" NCoef="0" IVar="5" Cut="8.1583160400390625e+01" cType="1" res="-2.3938961327075958e-02" rms="3.8744956254959106e-01" purity="2.5138902664184570e-01" nType="0">
          <Node pos="l" depth="2" NCoef="0" IVar="6" Cut="-9.9697306752204895e-02" cType="1" res="-1.2308118864893913e-02" rms="3.7376746535301208e-01" purity="2.1819148957729340e-01" nType="0">
            <Node pos="l" depth="3" NCoef="0" IVar="-1" Cut="0.0000000000000000e+00" cType="1" res="-2.2530104033648968e-03" rms="3.5638603568077087e-01" purity="1.7769442498683929e-01" nType="-99"/>
            <Node pos="r" depth="3" NCoef="0" IVar="-1" Cut="0.0000000000000000e+00" cType="1" res="4.1077242349274457e-04" rms="3.8631829619407654e-01" purity="2.5154805183410645e-01" nType="-99"/>
          </Node>
          <Node pos="r" depth="2" NCoef="0" IVar="-1" Cut="0.0000000000000000e+00" cType="1" res="-1.8752890173345804e-03" rms="4.1108679771423340e-01" purity="3.1389331817626953e-01" nType="-99"/>
        </Node>
        <Node pos="r" depth="1" NCoef="0" IVar="2" Cut="3.4597634887695312e+02" cType="1" res="8.2942061126232147e-03" rms="3.8330855965614319e-01" purity="5.6272536516189575e-01" nType="0">
          <Node pos="l" depth="2" NCoef="0" IVar="3" Cut="1.8494020080566406e+02" cType="1" res="2.3066034540534019e-02" rms="3.6959758400917053e-01" purity="6.9547134637832642e-01" nType="0">
            <Node pos="l" depth="3" NCoef="0" IVar="-1" Cut="0.0000000000000000e+00" cType="1" res="2.0651430822908878e-03" rms="3.7912175059318542e-01" purity="7.0710945129394531e-01" nType="-99"/>
            <Node pos="r" depth="3" NCoef="0" IVar="-1" Cut="0.0000000000000000e+00" cType="1" res="3.1302293064072728e-04" rms="3.6362740397453308e-01" purity="6.8961411714553833e-01" nType="-99"/>
          </Node>
          <Node pos="r" depth="2" NCoef="0" IVar="6" Cut="-3.6954888701438904e-01" cType="1" res="-3.8853036239743233e-03" rms="3.9383837580680847e-01" purity="4.5327499508857727e-01" nType="0">
            <Node pos="l" depth="3" NCoef="0" IVar="-1" Cut="0.0000000000000000e+00" cType="1" res="-1.3539401115849614e-03" rms="3.8382056355476379e-01" purity="3.8289636373519897e-01" nType="-99"/>
            <Node pos="r" depth="3" NCoef="0" IVar="-1" Cut="0.0000000000000000e+00" cType="1" res="3.2028759596869349e-04" rms="3.9842787384986877e-01" purity="4.8912113904953003e-01" nType="-99"/>
          </Node>
        </Node>
      </Node>
    </BinaryTree>
    <BinaryTree type="DecisionTree" boostWeight="1.0000000000000000e+00" itree="644">
      <Node pos="s" depth="0" NCoef="0" IVar="8" Cut="-1.1999576091766357e+00" cType="1" res="5.8069643564522266e-03" rms="3.8527053594589233e-01" purity="5.0476664304733276e-01" nType="0">
        <Node pos="l" depth="1" NCoef="0" IVar="2" Cut="4.6245446777343750e+02" cType="1" res="-2.6175534352660179e-02" rms="3.6068159341812134e-01" purity="2.8530973196029663e-01" nType="0">
          <Node pos="l" depth="2" NCoef="0" IVar="0" Cut="1.2800111083984375e+03" cType="1" res="-1.5156148932874203e-02" rms="3.7399441003799438e-01" purity="3.2246190309524536e-01" nType="0">
            <Node pos="l" depth="3" NCoef="0" IVar="-1" Cut="0.0000000000000000e+00" cType="1" res="-1.9736404065042734e-03" rms="3.4883376955986023e-01" purity="1.9728037714958191e-01" nType="-99"/>
            <Node pos="r" depth="3" NCoef="0" IVar="-1" Cut="0.0000000000000000e+00" cType="1" res="3.9032418862916529e-04" rms="4.0642070770263672e-01" purity="5.0321936607360840e-01" nType="-99"/>
          </Node>
          <Node pos="r" depth="2" NCoef="0" IVar="-1" Cut="0.0000000000000000e+00" cType="1" res="-7.5363512150943279e-03" rms="3.0479073524475098e-01" purity="1.5165558457374573e-01" nType="-99"/>
        </Node>
        <Node pos="r" depth="1" NCoef="0" IVar="9" Cut="-6.6652524471282959e-01" cType="1" res="1.0559276677668095e-02" rms="3.8856697082519531e-01" purity="5.3737592697143555e-01" nType="0">
          <Node pos="l" depth="2" NCoef="0" IVar="2" Cut="3.4280386352539062e+02" cType="1" res="-1.0384672321379185e-02" rms="3.8570845127105713e-01" purity="4.6339961886405945e-01" nType="0">
            <Node pos="l" depth="3" NCoef="0" IVar="-1" Cut="0.0000000000000000e+00" cType="1" res="1.6447613597847521e-04" rms="3.8936275243759155e-01" purity="5.3025293350219727e-01" nType="-99"/>
            <Node pos="r" depth="3" NCoef="0" IVar="-1" Cut="0.0000000000000000e+00" cType="1" res="-1.4006256824359298e-03" rms="3.8105529546737671e-01" purity="3.8984805345535278e-01" nType="-99"/>
          </Node>
          <Node pos="r" depth="2" NCoef="0" IVar="9" Cut="8.1909894943237305e-01" cType="1" res="1.7765281721949577e-02" rms="3.8928517699241638e-01" purity="5.6282836198806763e-01" nType="0">
            <Node pos="l" depth="3" NCoef="0" IVar="-1" Cut="0.0000000000000000e+00" cType="1" res="1.2000837596133351e-03" rms="3.8955062627792358e-01" purity="6.2255042791366577e-01" nType="-99"/>
            <Node pos="r" depth="3" NCoef="0" IVar="-1" Cut="0.0000000000000000e+00" cType="1" res="-3.3433476346544921e-04" rms="3.8756066560745239e-01" purity="4.3393492698669434e-01" nType="-99"/>
          </Node>
        </Node>
      </Node>
    </BinaryTree>
    <BinaryTree type="DecisionTree" boostWeight="1.0000000000000000e+00" itree="645">
      <Node pos="s" depth="0" NCoef="0" IVar="8" Cut="-1.4666659832000732e+00" cType="1" res="5.3480383940041065e-03" rms="3.8527524471282959e-01" purity="5.0346308946609497e-01" nType="0">
        <Node pos="l" depth="1" NCoef="0" IVar="4" Cut="1.3245147705078125e+02" cType="1" res="-2.7864314615726471e-02" rms="3.4720844030380249e-01" purity="2.3556396365165710e-01" nType="0">
          <Node pos="l" depth="2" NCoef="0" IVar="-1" Cut="0.0000000000000000e+00" cType="1" res="-3.7451431853696704e-04" rms="3.3250424265861511e-01" purity="1.9380871951580048e-01" nType="-99"/>
          <Node pos="r" depth="2" NCoef="0" IVar="-1" Cut="0.0000000000000000e+00" cType="1" res="-3.5015263129025698e-03" rms="3.6387595534324646e-01" purity="2.9198876023292542e-01" nType="-99"/>
        </Node>
        <Node pos="r" depth="1" NCoef="0" IVar="6" Cut="1.7352854013442993e+00" cType="1" res="8.4955217316746712e-03" rms="3.8854220509529114e-01" purity="5.2885144948959351e-01" nType="0">
          <Node pos="l" depth="2" NCoef="0" IVar="8" Cut="7.6825153827667236e-01" cType="1" res="1.0727342218160629e-02" rms="3.9083537459373474e-01" purity="5.4225981235504150e-01" nType="0">
            <Node pos="l" depth="3" NCoef="0" IVar="-1" Cut="0.0000000000000000e+00" cType="1" res="7.0656702155247331e-04" rms="3.9182975888252258e-01" purity="5.8781629800796509e-01" nType="-99"/>
            <Node pos="r" depth="3" NCoef="0" IVar="-1" Cut="0.0000000000000000e+00" cType="1" res="-3.8405004306696355e-04" rms="3.8725703954696655e-01" purity="4.0502348542213440e-01" nType="-99"/>
          </Node>
          <Node pos="r" depth="2" NCoef="0" IVar="-1" Cut="0.0000000000000000e+00" cType="1" res="-3.4283970016986132e-03" rms="3.2203322649002075e-01" purity="1.9797572493553162e-01" nType="-99"/>
        </Node>
      </Node>
    </BinaryTree>
    <BinaryTree type="DecisionTree" boostWeight="1.0000000000000000e+00" itree="646">
      <Node pos="s" depth="0" NCoef="0" IVar="9" Cut="-1.9995396137237549e+00" cType="1" res="3.8952108006924391e-03" rms="3.8481965661048889e-01" purity="4.9988496303558350e-01" nType="0">
        <Node pos="l" depth="1" NCoef="0" IVar="-1" Cut="0.0000000000000000e+00" cType="1" res="-4.9818907864391804e-03" rms="3.2823145389556885e-01" purity="1.9896954298019409e-01" nType="-99"/>
        <Node pos="r" depth="1" NCoef="0" IVar="9" Cut="1.4286823272705078e+00" cType="1" res="6.3359276391565800e-03" rms="3.8666903972625732e-01" purity="5.1170104742050171e-01" nType="0">
          <Node pos="l" depth="2" NCoef="0" IVar="3" Cut="1.4199304199218750e+02" cType="1" res="1.0241540148854256e-02" rms="3.8953927159309387e-01" purity="5.3725010156631470e-01" nType="0">
            <Node pos="l" depth="3" NCoef="0" IVar="-1" Cut="0.0000000000000000e+00" cType="1" res="1.5761419199407101e-03" rms="4.1670551896095276e-01" purity="3.9322844147682190e-01" nType="-99"/>
            <Node pos="r" depth="3" NCoef="0" IVar="-1" Cut="0.0000000000000000e+00" cType="1" res="1.9107021216768771e-04" rms="3.8297638297080994e-01" purity="5.6928348541259766e-01" nType="-99"/>
          </Node>
          <Node pos="r" depth="2" NCoef="0" IVar="1" Cut="4.2729653930664062e+02" cType="1" res="-2.5681003928184509e-02" rms="3.6069288849830627e-01" purity="3.0225813388824463e-01" nType="0">
            <Node pos="l" depth="3" NCoef="0" IVar="-1" Cut="0.0000000000000000e+00" cType="1" res="-7.8152806963771582e-04" rms="3.4464856982231140e-01" purity="2.3447184264659882e-01" nType="-99"/>
            <Node pos="r" depth="3" NCoef="0" IVar="-1" Cut="0.0000000000000000e+00" cType="1" res="-2.7218968607485294e-03" rms="3.8935226202011108e-01" purity="4.3667373061180115e-01" nType="-99"/>
          </Node>
        </Node>
      </Node>
    </BinaryTree>
    <BinaryTree type="DecisionTree" boostWeight="1.0000000000000000e+00" itree="647">
      <Node pos="s" depth="0" NCoef="0" IVar="8" Cut="1.9999073743820190e+00" cType="1" res="5.3119198419153690e-03" rms="3.8754719495773315e-01" purity="5.0162017345428467e-01" nType="0">
        <Node pos="l" depth="1" NCoef="0" IVar="9" Cut="-6.6655939817428589e-01" cType="1" res="7.6563805341720581e-03" rms="3.9016938209533691e-01" purity="5.1381820440292358e-01" nType="0">
          <Node pos="l" depth="2" NCoef="0" IVar="3" Cut="1.3457713317871094e+02" cType="1" res="-1.1160754598677158e-02" rms="3.8509005308151245e-01" purity="4.3243840336799622e-01" nType="0">
            <Node pos="l" depth="3" NCoef="0" IVar="-1" Cut="0.0000000000000000e+00" cType="1" res="1.4288901584222913e-03" rms="3.9002931118011475e-01" purity="3.1315511465072632e-01" nType="-99"/>
            <Node pos="r" depth="3" NCoef="0" IVar="-1" Cut="0.0000000000000000e+00" cType="1" res="-1.0133712785318494e-03" rms="3.8343977928161621e-01" purity="4.5850834250450134e-01" nType="-99"/>
          </Node>
          <Node pos="r" depth="2" NCoef="0" IVar="9" Cut="1.3142964839935303e+00" cType="1" res="1.4737290330231190e-02" rms="3.9182975888252258e-01" purity="5.4444152116775513e-01" nType="0">
            <Node pos="l" depth="3" NCoef="0" IVar="-1" Cut="0.0000000000000000e+00" cType="1" res="8.8394578779116273e-04" rms="3.9459246397018433e-01" purity="5.8372604846954346e-01" nType="-99"/>
            <Node pos="r" depth="3" NCoef="0" IVar="-1" Cut="0.0000000000000000e+00" cType="1" res="-1.1129324557259679e-03" rms="3.7500345706939697e-01" purity="3.3626434206962585e-01" nType="-99"/>
          </Node>
        </Node>
        <Node pos="r" depth="1" NCoef="0" IVar="-1" Cut="0.0000000000000000e+00" cType="1" res="-4.5980983413755894e-03" rms="3.0116888880729675e-01" purity="1.7084917426109314e-01" nType="-99"/>
      </Node>
    </BinaryTree>
    <BinaryTree type="DecisionTree" boostWeight="1.0000000000000000e+00" itree="648">
      <Node pos="s" depth="0" NCoef="0" IVar="7" Cut="6.6668140888214111e-01" cType="1" res="4.4866949319839478e-03" rms="3.8549950718879700e-01" purity="5.0372707843780518e-01" nType="0">
        <Node pos="l" depth="1" NCoef="0" IVar="7" Cut="-6.5394157171249390e-01" cType="1" res="1.0378576815128326e-02" rms="3.8850256800651550e-01" purity="5.4440915584564209e-01" nType="0">
          <Node pos="l" depth="2" NCoef="0" IVar="3" Cut="1.9313130187988281e+02" cType="1" res="-1.2202388606965542e-02" rms="3.7634584307670593e-01" purity="3.8576373457908630e-01" nType="0">
            <Node pos="l" depth="3" NCoef="0" IVar="-1" Cut="0.0000000000000000e+00" cType="1" res="2.1566006762441248e-04" rms="3.7624609470367432e-01" purity="3.4275302290916443e-01" nType="-99"/>
            <Node pos="r" depth="3" NCoef="0" IVar="-1" Cut="0.0000000000000000e+00" cType="1" res="-1.5698478091508150e-03" rms="3.7572762370109558e-01" purity="4.2848271131515503e-01" nType="-99"/>
          </Node>
          <Node pos="r" depth="2" NCoef="0" IVar="0" Cut="1.1906523437500000e+03" cType="1" res="2.1546656265854836e-02" rms="3.9389839768409729e-01" purity="6.2287199497222900e-01" nType="0">
            <Node pos="l" depth="3" NCoef="0" IVar="-1" Cut="0.0000000000000000e+00" cType="1" res="1.5682724097132450e-06" rms="4.4006478786468506e-01" purity="4.0837237238883972e-01" nType="-99"/>
            <Node pos="r" depth="3" NCoef="0" IVar="-1" Cut="0.0000000000000000e+00" cType="1" res="1.2171735288575292e-03" rms="3.7847569584846497e-01" purity="6.8821370601654053e-01" nType="-99"/>
          </Node>
        </Node>
        <Node pos="r" depth="1" NCoef="0" IVar="3" Cut="2.6463720703125000e+02" cType="1" res="-1.3908851891756058e-02" rms="3.7537443637847900e-01" purity="3.7670999765396118e-01" nType="0">
          <Node pos="l" depth="2" NCoef="0" IVar="0" Cut="1.3045466308593750e+03" cType="1" res="-2.6005187537521124e-03" rms="3.7488690018653870e-01" purity="3.8925406336784363e-01" nType="0">
            <Node pos="l" depth="3" NCoef="0" IVar="-1" Cut="0.0000000000000000e+00" cType="1" res="-1.0698558762669563e-03" rms="3.6868599057197571e-01" purity="2.5709956884384155e-01" nType="-99"/>
            <Node pos="r" depth="3" NCoef="0" IVar="-1" Cut="0.0000000000000000e+00" cType="1" res="1.0021902853623033e-03" rms="3.8138687610626221e-01" purity="5.5776822566986084e-01" nType="-99"/>
          </Node>
          <Node pos="r" depth="2" NCoef="0" IVar="-1" Cut="0.0000000000000000e+00" cType="1" res="-3.9426698349416256e-03" rms="3.7358546257019043e-01" purity="3.2279390096664429e-01" nType="-99"/>
        </Node>
      </Node>
    </BinaryTree>
    <BinaryTree type="DecisionTree" boostWeight="1.0000000000000000e+00" itree="649">
      <Node pos="s" depth="0" NCoef="0" IVar="2" Cut="3.4279647827148438e+02" cType="1" res="2.8082448989152908e-03" rms="3.8492774963378906e-01" purity="5.0176978111267090e-01" nType="0">
        <Node pos="l" depth="1" NCoef="0" IVar="6" Cut="1.4773571491241455e+00" cType="1" res="1.4575850218534470e-02" rms="3.8231849670410156e-01" purity="5.6452983617782593e-01" nType="0">
          <Node pos="l" depth="2" NCoef="0" IVar="3" Cut="1.6367860412597656e+02" cType="1" res="1.9075108692049980e-02" rms="3.8553094863891602e-01" purity="5.9023326635360718e-01" nType="0">
            <Node pos="l" depth="3" NCoef="0" IVar="-1" Cut="0.0000000000000000e+00" cType="1" res="1.7145867459475994e-03" rms="4.0867331624031067e-01" purity="4.7993373870849609e-01" nType="-99"/>
            <Node pos="r" depth="3" NCoef="0" IVar="-1" Cut="0.0000000000000000e+00" cType="1" res="3.0027586035430431e-04" rms="3.7232080101966858e-01" purity="6.4769345521926880e-01" nType="-99"/>
          </Node>
          <Node pos="r" depth="2" NCoef="0" IVar="-1" Cut="0.0000000000000000e+00" cType="1" res="-2.8375771362334490e-03" rms="3.3206945657730103e-01" purity="2.2913844883441925e-01" nType="-99"/>
        </Node>
        <Node pos="r" depth="1" NCoef="0" IVar="0" Cut="1.8186484375000000e+03" cType="1" res="-1.0180016048252583e-02" rms="3.8737246394157410e-01" purity="4.3249955773353577e-01" nType="0">
          <Node pos="l" depth="2" NCoef="0" IVar="4" Cut="1.8868476867675781e+02" cType="1" res="-2.2366983816027641e-02" rms="3.8255473971366882e-01" purity="3.5689333081245422e-01" nType="0">
            <Node pos="l" depth="3" NCoef="0" IVar="-1" Cut="0.0000000000000000e+00" cType="1" res="-8.1874144962057471e-04" rms="3.8122236728668213e-01" purity="3.3973687887191772e-01" nType="-99"/>
            <Node pos="r" depth="3" NCoef="0" IVar="-1" Cut="0.0000000000000000e+00" cType="1" res="-3.2845060341060162e-03" rms="3.8706156611442566e-01" purity="4.4349834322929382e-01" nType="-99"/>
          </Node>
          <Node pos="r" depth="2" NCoef="0" IVar="2" Cut="7.5078686523437500e+02" cType="1" res="2.1538311615586281e-02" rms="3.9789295196533203e-01" purity="6.2927561998367310e-01" nType="0">
            <Node pos="l" depth="3" NCoef="0" IVar="-1" Cut="0.0000000000000000e+00" cType="1" res="1.6781734302639961e-03" rms="3.8890463113784790e-01" purity="6.9052857160568237e-01" nType="-99"/>
            <Node pos="r" depth="3" NCoef="0" IVar="-1" Cut="0.0000000000000000e+00" cType="1" res="-1.3635746436193585e-03" rms="4.1631439328193665e-01" purity="4.6633487939834595e-01" nType="-99"/>
          </Node>
        </Node>
      </Node>
    </BinaryTree>
    <BinaryTree type="DecisionTree" boostWeight="1.0000000000000000e+00" itree="650">
      <Node pos="s" depth="0" NCoef="0" IVar="8" Cut="1.4666540622711182e+00" cType="1" res="2.7576487045735121e-03" rms="3.8518348336219788e-01" purity="5.0113391876220703e-01" nType="0">
        <Node pos="l" depth="1" NCoef="0" IVar="9" Cut="-1.9994837045669556e+00" cType="1" res="6.7460779100656509e-03" rms="3.8826608657836914e-01" purity="5.2610516548156738e-01" nType="0">
          <Node pos="l" depth="2" NCoef="0" IVar="-1" Cut="0.0000000000000000e+00" cType="1" res="-4.1061346419155598e-03" rms="3.3602118492126465e-01" purity="2.1761973202228546e-01" nType="-99"/>
          <Node pos="r" depth="2" NCoef="0" IVar="9" Cut="1.6572226285934448e+00" cType="1" res="9.1229574754834175e-03" rms="3.8996756076812744e-01" purity="5.3812795877456665e-01" nType="0">
            <Node pos="l" depth="3" NCoef="0" IVar="-1" Cut="0.0000000000000000e+00" cType="1" res="5.3567625582218170e-04" rms="3.9201179146766663e-01" purity="5.5639731884002686e-01" nType="-99"/>
            <Node pos="r" depth="3" NCoef="0" IVar="-1" Cut="0.0000000000000000e+00" cType="1" res="-2.0499546080827713e-03" rms="3.5813677310943604e-01" purity="2.8979200124740601e-01" nType="-99"/>
          </Node>
        </Node>
        <Node pos="r" depth="1" NCoef="0" IVar="4" Cut="1.2806637573242188e+02" cType="1" res="-3.9958722889423370e-02" rms="3.4761488437652588e-01" purity="2.3368965089321136e-01" nType="0">
          <Node pos="l" depth="2" NCoef="0" IVar="-1" Cut="0.0000000000000000e+00" cType="1" res="-1.5630748821422458e-03" rms="3.2615333795547485e-01" purity="1.8505407869815826e-01" nType="-99"/>
          <Node pos="r" depth="2" NCoef="0" IVar="-1" Cut="0.0000000000000000e+00" cType="1" res="-4.0176562033593655e-03" rms="3.6956065893173218e-01" purity="2.8993290662765503e-01" nType="-99"/>
        </Node>
      </Node>
    </BinaryTree>
    <BinaryTree type="DecisionTree" boostWeight="1.0000000000000000e+00" itree="651">
      <Node pos="s" depth="0" NCoef="0" IVar="6" Cut="1.4691741466522217e+00" cType="1" res="5.0195436924695969e-03" rms="3.8669797778129578e-01" purity="5.0344097614288330e-01" nType="0">
        <Node pos="l" depth="1" NCoef="0" IVar="6" Cut="-5.5834197998046875e-01" cType="1" res="8.2683432847261429e-03" rms="3.9056196808815002e-01" purity="5.2552998065948486e-01" nType="0">
          <Node pos="l" depth="2" NCoef="0" IVar="7" Cut="3.9988499879837036e-01" cType="1" res="-1.2108515016734600e-02" rms="3.8110023736953735e-01" purity="4.0429329872131348e-01" nType="0">
            <Node pos="l" depth="3" NCoef="0" IVar="-1" Cut="0.0000000000000000e+00" cType="1" res="-8.9501536422176287e-06" rms="3.8719055056571960e-01" purity="4.4991925358772278e-01" nType="-99"/>
            <Node pos="r" depth="3" NCoef="0" IVar="-1" Cut="0.0000000000000000e+00" cType="1" res="-2.4823534768074751e-03" rms="3.6553230881690979e-01" purity="3.0116143822669983e-01" nType="-99"/>
          </Node>
          <Node pos="r" depth="2" NCoef="0" IVar="2" Cut="4.7993536376953125e+02" cType="1" res="1.6645513474941254e-02" rms="3.9408043026924133e-01" purity="5.7537180185317993e-01" nType="0">
            <Node pos="l" depth="3" NCoef="0" IVar="-1" Cut="0.0000000000000000e+00" cType="1" res="9.9853426218032837e-04" rms="3.9142355322837830e-01" purity="6.1309373378753662e-01" nType="-99"/>
            <Node pos="r" depth="3" NCoef="0" IVar="-1" Cut="0.0000000000000000e+00" cType="1" res="-5.1729707047343254e-04" rms="4.0286847949028015e-01" purity="4.3166455626487732e-01" nType="-99"/>
          </Node>
        </Node>
        <Node pos="r" depth="1" NCoef="0" IVar="9" Cut="4.0008357167243958e-01" cType="1" res="-4.0065765380859375e-02" rms="3.2508087158203125e-01" purity="1.9689993560314178e-01" nType="0">
          <Node pos="l" depth="2" NCoef="0" IVar="-1" Cut="0.0000000000000000e+00" cType="1" res="-8.9112529531121254e-04" rms="3.5126268863677979e-01" purity="2.5681886076927185e-01" nType="-99"/>
          <Node pos="r" depth="2" NCoef="0" IVar="-1" Cut="0.0000000000000000e+00" cType="1" res="-7.8539000824093819e-03" rms="2.7795198559761047e-01" purity="1.0933011770248413e-01" nType="-99"/>
        </Node>
      </Node>
    </BinaryTree>
    <BinaryTree type="DecisionTree" boostWeight="1.0000000000000000e+00" itree="652">
      <Node pos="s" depth="0" NCoef="0" IVar="2" Cut="4.0312747192382812e+02" cType="1" res="2.0604836754500866e-03" rms="3.8735330104827881e-01" purity="4.9718841910362244e-01" nType="0">
        <Node pos="l" depth="1" NCoef="0" IVar="2" Cut="2.2902041625976562e+02" cType="1" res="1.0327467694878578e-02" rms="3.8550087809562683e-01" purity="5.4653459787368774e-01" nType="0">
          <Node pos="l" depth="2" NCoef="0" IVar="-1" Cut="0.0000000000000000e+00" cType="1" res="1.7981484998017550e-03" rms="3.9686733484268188e-01" purity="5.9037184715270996e-01" nType="-99"/>
          <Node pos="r" depth="2" NCoef="0" IVar="0" Cut="1.5207058105468750e+03" cType="1" res="3.0168450903147459e-03" rms="3.8270190358161926e-01" purity="5.3747338056564331e-01" nType="0">
            <Node pos="l" depth="3" NCoef="0" IVar="-1" Cut="0.0000000000000000e+00" cType="1" res="-2.4211818526964635e-04" rms="4.0116274356842041e-01" purity="4.4917041063308716e-01" nType="-99"/>
            <Node pos="r" depth="3" NCoef="0" IVar="-1" Cut="0.0000000000000000e+00" cType="1" res="1.7369637498632073e-03" rms="3.0898705124855042e-01" purity="8.4178960323333740e-01" nType="-99"/>
          </Node>
        </Node>
        <Node pos="r" depth="1" NCoef="0" IVar="0" Cut="2.0965144042968750e+03" cType="1" res="-1.4603992924094200e-02" rms="3.9052915573120117e-01" purity="3.9771702885627747e-01" nType="0">
          <Node pos="l" depth="2" NCoef="0" IVar="2" Cut="4.7068859863281250e+02" cType="1" res="-2.4795796722173691e-02" rms="3.8462030887603760e-01" purity="3.4711840748786926e-01" nType="0">
            <Node pos="l" depth="3" NCoef="0" IVar="-1" Cut="0.0000000000000000e+00" cType="1" res="1.0998376092175022e-04" rms="3.9673292636871338e-01" purity="4.3290555477142334e-01" nType="-99"/>
            <Node pos="r" depth="3" NCoef="0" IVar="-1" Cut="0.0000000000000000e+00" cType="1" res="-1.2134357821196318e-03" rms="3.7552544474601746e-01" purity="2.9154217243194580e-01" nType="-99"/>
          </Node>
          <Node pos="r" depth="2" NCoef="0" IVar="3" Cut="3.4008117675781250e+02" cType="1" res="3.4424558281898499e-02" rms="4.1429841518402100e-01" purity="6.4112621545791626e-01" nType="0">
            <Node pos="l" depth="3" NCoef="0" IVar="-1" Cut="0.0000000000000000e+00" cType="1" res="2.5566178373992443e-03" rms="4.0181779861450195e-01" purity="7.1944403648376465e-01" nType="-99"/>
            <Node pos="r" depth="3" NCoef="0" IVar="-1" Cut="0.0000000000000000e+00" cType="1" res="-6.6065254031855147e-06" rms="4.2268726229667664e-01" purity="5.6808173656463623e-01" nType="-99"/>
          </Node>
        </Node>
      </Node>
    </BinaryTree>
    <BinaryTree type="DecisionTree" boostWeight="1.0000000000000000e+00" itree="653">
      <Node pos="s" depth="0" NCoef="0" IVar="2" Cut="7.1392669677734375e+02" cType="1" res="1.2710604096355382e-05" rms="3.8456499576568604e-01" purity="4.9819067120552063e-01" nType="0">
        <Node pos="l" depth="1" NCoef="0" IVar="0" Cut="1.3422817382812500e+03" cType="1" res="3.8270689547061920e-03" rms="3.8322544097900391e-01" purity="5.0523149967193604e-01" nType="0">
          <Node pos="l" depth="2" NCoef="0" IVar="5" Cut="1.1338784027099609e+02" cType="1" res="-1.2151386588811874e-02" rms="3.9745897054672241e-01" purity="3.6716714501380920e-01" nType="0">
            <Node pos="l" depth="3" NCoef="0" IVar="-1" Cut="0.0000000000000000e+00" cType="1" res="-1.7033920448739082e-04" rms="3.9417362213134766e-01" purity="3.3665364980697632e-01" nType="-99"/>
            <Node pos="r" depth="3" NCoef="0" IVar="-1" Cut="0.0000000000000000e+00" cType="1" res="-2.2370696533471346e-03" rms="4.1191181540489197e-01" purity="5.3282821178436279e-01" nType="-99"/>
          </Node>
          <Node pos="r" depth="2" NCoef="0" IVar="3" Cut="2.1326316833496094e+02" cType="1" res="1.9054356962442398e-02" rms="3.6850652098655701e-01" purity="6.3680535554885864e-01" nType="0">
            <Node pos="l" depth="3" NCoef="0" IVar="-1" Cut="0.0000000000000000e+00" cType="1" res="1.9612836185842752e-03" rms="3.5429942607879639e-01" purity="6.8364071846008301e-01" nType="-99"/>
            <Node pos="r" depth="3" NCoef="0" IVar="-1" Cut="0.0000000000000000e+00" cType="1" res="2.6780765620060265e-04" rms="3.7569513916969299e-01" purity="6.1003988981246948e-01" nType="-99"/>
          </Node>
        </Node>
        <Node pos="r" depth="1" NCoef="0" IVar="9" Cut="1.3378159701824188e-01" cType="1" res="-7.0630013942718506e-02" rms="4.0209233760833740e-01" purity="3.6779296398162842e-01" nType="0">
          <Node pos="l" depth="2" NCoef="0" IVar="-1" Cut="0.0000000000000000e+00" cType="1" res="-1.7728639068081975e-03" rms="4.1267085075378418e-01" purity="4.1172370314598083e-01" nType="-99"/>
          <Node pos="r" depth="2" NCoef="0" IVar="-1" Cut="0.0000000000000000e+00" cType="1" res="-3.7749705370515585e-04" rms="3.8772717118263245e-01" purity="3.2153859734535217e-01" nType="-99"/>
        </Node>
      </Node>
    </BinaryTree>
    <BinaryTree type="DecisionTree" boostWeight="1.0000000000000000e+00" itree="654">
      <Node pos="s" depth="0" NCoef="0" IVar="3" Cut="3.3456134033203125e+02" cType="1" res="3.2255502883344889e-03" rms="3.8621708750724792e-01" purity="5.0031071901321411e-01" nType="0">
        <Node pos="l" depth="1" NCoef="0" IVar="0" Cut="1.8995106201171875e+03" cType="1" res="6.8456684239208698e-03" rms="3.8467866182327271e-01" purity="5.0564414262771606e-01" nType="0">
          <Node pos="l" depth="2" NCoef="0" IVar="2" Cut="2.8786376953125000e+02" cType="1" res="3.2278178259730339e-03" rms="3.8563278317451477e-01" purity="4.8704013228416443e-01" nType="0">
            <Node pos="l" depth="3" NCoef="0" IVar="-1" Cut="0.0000000000000000e+00" cType="1" res="8.3850562805309892e-04" rms="3.8413947820663452e-01" purity="5.7820898294448853e-01" nType="-99"/>
            <Node pos="r" depth="3" NCoef="0" IVar="-1" Cut="0.0000000000000000e+00" cType="1" res="-4.1392771527171135e-04" rms="3.8621625304222107e-01" purity="4.2543569207191467e-01" nType="-99"/>
          </Node>
          <Node pos="r" depth="2" NCoef="0" IVar="6" Cut="-1.5166509896516800e-02" cType="1" res="5.3718451410531998e-02" rms="3.6890199780464172e-01" purity="7.4667668342590332e-01" nType="0">
            <Node pos="l" depth="3" NCoef="0" IVar="-1" Cut="0.0000000000000000e+00" cType="1" res="1.5275336336344481e-03" rms="3.6529317498207092e-01" purity="7.3724275827407837e-01" nType="-99"/>
            <Node pos="r" depth="3" NCoef="0" IVar="-1" Cut="0.0000000000000000e+00" cType="1" res="2.7251709252595901e-03" rms="3.7122783064842224e-01" purity="7.5508272647857666e-01" nType="-99"/>
          </Node>
        </Node>
        <Node pos="r" depth="1" NCoef="0" IVar="8" Cut="-4.0008994936943054e-01" cType="1" res="-3.8445532321929932e-02" rms="4.0115815401077271e-01" purity="4.3891787528991699e-01" nType="0">
          <Node pos="l" depth="2" NCoef="0" IVar="-1" Cut="0.0000000000000000e+00" cType="1" res="-6.4664115197956562e-03" rms="3.7318533658981323e-01" purity="3.4067481756210327e-01" nType="-99"/>
          <Node pos="r" depth="2" NCoef="0" IVar="8" Cut="3.6180242896080017e-01" cType="1" res="-1.3081126846373081e-02" rms="4.1152212023735046e-01" purity="4.8611152172088623e-01" nType="0">
            <Node pos="l" depth="3" NCoef="0" IVar="-1" Cut="0.0000000000000000e+00" cType="1" res="1.1087446182500571e-04" rms="4.1700214147567749e-01" purity="5.6428688764572144e-01" nType="-99"/>
            <Node pos="r" depth="3" NCoef="0" IVar="-1" Cut="0.0000000000000000e+00" cType="1" res="-1.5733365435153246e-03" rms="4.0596103668212891e-01" purity="4.1516822576522827e-01" nType="-99"/>
          </Node>
        </Node>
      </Node>
    </BinaryTree>
    <BinaryTree type="DecisionTree" boostWeight="1.0000000000000000e+00" itree="655">
      <Node pos="s" depth="0" NCoef="0" IVar="9" Cut="6.6671001911163330e-01" cType="1" res="2.4858983233571053e-03" rms="3.8644006848335266e-01" purity="4.9910929799079895e-01" nType="0">
        <Node pos="l" depth="1" NCoef="0" IVar="9" Cut="-1.9744333028793335e+00" cType="1" res="1.0200941003859043e-02" rms="3.8902217149734497e-01" purity="5.2843749523162842e-01" nType="0">
          <Node pos="l" depth="2" NCoef="0" IVar="-1" Cut="0.0000000000000000e+00" cType="1" res="-2.6590949855744839e-03" rms="3.3548772335052490e-01" purity="2.2782623767852783e-01" nType="-99"/>
          <Node pos="r" depth="2" NCoef="0" IVar="3" Cut="1.4932284545898438e+02" cType="1" res="1.3028657063841820e-02" rms="3.9188188314437866e-01" purity="5.4682087898254395e-01" nType="0">
            <Node pos="l" depth="3" NCoef="0" IVar="-1" Cut="0.0000000000000000e+00" cType="1" res="1.4092064229771495e-03" rms="4.1184911131858826e-01" purity="4.1777041554450989e-01" nType="-99"/>
            <Node pos="r" depth="3" NCoef="0" IVar="-1" Cut="0.0000000000000000e+00" cType="1" res="3.2281776657328010e-04" rms="3.8598743081092834e-01" purity="5.8234685659408569e-01" nType="-99"/>
          </Node>
        </Node>
        <Node pos="r" depth="1" NCoef="0" IVar="0" Cut="1.3946458740234375e+03" cType="1" res="-1.7839632928371429e-02" rms="3.7880185246467590e-01" purity="4.2184314131736755e-01" nType="0">
          <Node pos="l" depth="2" NCoef="0" IVar="3" Cut="1.6019326782226562e+02" cType="1" res="-2.9847763478755951e-02" rms="3.7427169084548950e-01" purity="3.1392586231231689e-01" nType="0">
            <Node pos="l" depth="3" NCoef="0" IVar="-1" Cut="0.0000000000000000e+00" cType="1" res="-5.7581544388085604e-04" rms="3.7721249461174011e-01" purity="2.7769082784652710e-01" nType="-99"/>
            <Node pos="r" depth="3" NCoef="0" IVar="-1" Cut="0.0000000000000000e+00" cType="1" res="-2.4052944499999285e-03" rms="3.7097594141960144e-01" purity="3.4501323103904724e-01" nType="-99"/>
          </Node>
          <Node pos="r" depth="2" NCoef="0" IVar="3" Cut="2.7661123657226562e+02" cType="1" res="-3.8269101642072201e-03" rms="3.8354569673538208e-01" purity="5.4777586460113525e-01" nType="0">
            <Node pos="l" depth="3" NCoef="0" IVar="-1" Cut="0.0000000000000000e+00" cType="1" res="2.5668888702057302e-04" rms="3.7356236577033997e-01" purity="6.1465990543365479e-01" nType="-99"/>
            <Node pos="r" depth="3" NCoef="0" IVar="-1" Cut="0.0000000000000000e+00" cType="1" res="-2.4319959338754416e-03" rms="4.0000829100608826e-01" purity="4.1451302170753479e-01" nType="-99"/>
          </Node>
        </Node>
      </Node>
    </BinaryTree>
    <BinaryTree type="DecisionTree" boostWeight="1.0000000000000000e+00" itree="656">
      <Node pos="s" depth="0" NCoef="0" IVar="0" Cut="1.1200546875000000e+03" cType="1" res="1.8424916779622436e-03" rms="3.8606482744216919e-01" purity="4.9808567762374878e-01" nType="0">
        <Node pos="l" depth="1" NCoef="0" IVar="2" Cut="2.8012832641601562e+02" cType="1" res="-2.1241186186671257e-02" rms="3.9208966493606567e-01" purity="2.5912120938301086e-01" nType="0">
          <Node pos="l" depth="2" NCoef="0" IVar="0" Cut="1.0133608398437500e+03" cType="1" res="-9.1323945671319962e-03" rms="4.1884130239486694e-01" purity="3.1626644730567932e-01" nType="0">
            <Node pos="l" depth="3" NCoef="0" IVar="-1" Cut="0.0000000000000000e+00" cType="1" res="-1.7442771932110190e-03" rms="3.9845925569534302e-01" purity="2.4403028190135956e-01" nType="-99"/>
            <Node pos="r" depth="3" NCoef="0" IVar="-1" Cut="0.0000000000000000e+00" cType="1" res="7.0380687247961760e-04" rms="4.3750613927841187e-01" purity="3.9182135462760925e-01" nType="-99"/>
          </Node>
          <Node pos="r" depth="2" NCoef="0" IVar="-1" Cut="0.0000000000000000e+00" cType="1" res="-2.7138034347444773e-03" rms="3.3062869310379028e-01" purity="1.4444406330585480e-01" nType="-99"/>
        </Node>
        <Node pos="r" depth="1" NCoef="0" IVar="2" Cut="3.5405114746093750e+02" cType="1" res="7.3825223371386528e-03" rms="3.8439863920211792e-01" purity="5.5543661117553711e-01" nType="0">
          <Node pos="l" depth="2" NCoef="0" IVar="3" Cut="1.6452015686035156e+02" cType="1" res="2.5930725038051605e-02" rms="3.7320894002914429e-01" purity="6.8844985961914062e-01" nType="0">
            <Node pos="l" depth="3" NCoef="0" IVar="-1" Cut="0.0000000000000000e+00" cType="1" res="2.8063273057341576e-03" rms="3.8280454277992249e-01" purity="7.0978820323944092e-01" nType="-99"/>
            <Node pos="r" depth="3" NCoef="0" IVar="-1" Cut="0.0000000000000000e+00" cType="1" res="6.2010524561628699e-04" rms="3.6987006664276123e-01" purity="6.8342679738998413e-01" nType="-99"/>
          </Node>
          <Node pos="r" depth="2" NCoef="0" IVar="0" Cut="2.0344503173828125e+03" cType="1" res="-9.1116791591048241e-03" rms="3.9334836602210999e-01" purity="4.3715304136276245e-01" nType="0">
            <Node pos="l" depth="3" NCoef="0" IVar="-1" Cut="0.0000000000000000e+00" cType="1" res="-8.2215433940291405e-04" rms="3.9013937115669250e-01" purity="3.9810380339622498e-01" nType="-99"/>
            <Node pos="r" depth="3" NCoef="0" IVar="-1" Cut="0.0000000000000000e+00" cType="1" res="8.8065158342942595e-04" rms="4.0783330798149109e-01" purity="6.3589811325073242e-01" nType="-99"/>
          </Node>
        </Node>
      </Node>
    </BinaryTree>
    <BinaryTree type="DecisionTree" boostWeight="1.0000000000000000e+00" itree="657">
      <Node pos="s" depth="0" NCoef="0" IVar="6" Cut="1.4723951816558838e+00" cType="1" res="4.6240719966590405e-03" rms="3.8589447736740112e-01" purity="5.0450193881988525e-01" nType="0">
        <Node pos="l" depth="1" NCoef="0" IVar="2" Cut="3.7131011962890625e+02" cType="1" res="7.6641258783638477e-03" rms="3.8959485292434692e-01" purity="5.2550119161605835e-01" nType="0">
          <Node pos="l" depth="2" NCoef="0" IVar="0" Cut="1.2656705322265625e+03" cType="1" res="1.6251977533102036e-02" rms="3.8508218526840210e-01" purity="5.8562457561492920e-01" nType="0">
            <Node pos="l" depth="3" NCoef="0" IVar="-1" Cut="0.0000000000000000e+00" cType="1" res="-2.0006038539577276e-05" rms="4.2236179113388062e-01" purity="3.8861697912216187e-01" nType="-99"/>
            <Node pos="r" depth="3" NCoef="0" IVar="-1" Cut="0.0000000000000000e+00" cType="1" res="1.5295229386538267e-03" rms="3.4154155850410461e-01" purity="7.8883492946624756e-01" nType="-99"/>
          </Node>
          <Node pos="r" depth="2" NCoef="0" IVar="9" Cut="-6.6657090187072754e-01" cType="1" res="-5.2008237689733505e-03" rms="3.9591050148010254e-01" purity="4.3543395400047302e-01" nType="0">
            <Node pos="l" depth="3" NCoef="0" IVar="-1" Cut="0.0000000000000000e+00" cType="1" res="-1.6879073809832335e-03" rms="3.7715512514114380e-01" purity="3.4833917021751404e-01" nType="-99"/>
            <Node pos="r" depth="3" NCoef="0" IVar="-1" Cut="0.0000000000000000e+00" cType="1" res="1.7008483700919896e-04" rms="4.0232175588607788e-01" purity="4.6788170933723450e-01" nType="-99"/>
          </Node>
        </Node>
        <Node pos="r" depth="1" NCoef="0" IVar="4" Cut="1.4013725280761719e+02" cType="1" res="-3.8184195756912231e-02" rms="3.2641014456748962e-01" purity="2.0880287885665894e-01" nType="0">
          <Node pos="l" depth="2" NCoef="0" IVar="-1" Cut="0.0000000000000000e+00" cType="1" res="-1.3913693837821484e-03" rms="3.1608447432518005e-01" purity="1.5874956548213959e-01" nType="-99"/>
          <Node pos="r" depth="2" NCoef="0" IVar="-1" Cut="0.0000000000000000e+00" cType="1" res="-3.9997543208301067e-03" rms="3.3785492181777954e-01" purity="2.7831193804740906e-01" nType="-99"/>
        </Node>
      </Node>
    </BinaryTree>
    <BinaryTree type="DecisionTree" boostWeight="1.0000000000000000e+00" itree="658">
      <Node pos="s" depth="0" NCoef="0" IVar="0" Cut="1.1903264160156250e+03" cType="1" res="-3.1597097404301167e-03" rms="3.8280358910560608e-01" purity="4.9657142162322998e-01" nType="0">
        <Node pos="l" depth="1" NCoef="0" IVar="2" Cut="2.7430505371093750e+02" cType="1" res="-2.1810023114085197e-02" rms="3.9173838496208191e-01" purity="2.8750503063201904e-01" nType="0">
          <Node pos="l" depth="2" NCoef="0" IVar="0" Cut="1.0044648437500000e+03" cType="1" res="-6.6543207503855228e-03" rms="4.1728523373603821e-01" purity="3.6482307314872742e-01" nType="0">
            <Node pos="l" depth="3" NCoef="0" IVar="-1" Cut="0.0000000000000000e+00" cType="1" res="-1.8622737843543291e-03" rms="3.9104339480400085e-01" purity="2.4046254158020020e-01" nType="-99"/>
            <Node pos="r" depth="3" NCoef="0" IVar="-1" Cut="0.0000000000000000e+00" cType="1" res="4.8619697918184102e-04" rms="4.3150311708450317e-01" purity="4.4161647558212280e-01" nType="-99"/>
          </Node>
          <Node pos="r" depth="2" NCoef="0" IVar="3" Cut="1.3485864257812500e+02" cType="1" res="-4.2482294142246246e-02" rms="3.5288426280021667e-01" purity="1.8204379081726074e-01" nType="0">
            <Node pos="l" depth="3" NCoef="0" IVar="-1" Cut="0.0000000000000000e+00" cType="1" res="-1.5892848605290055e-03" rms="3.5910958051681519e-01" purity="1.7935557663440704e-01" nType="-99"/>
            <Node pos="r" depth="3" NCoef="0" IVar="-1" Cut="0.0000000000000000e+00" cType="1" res="-3.1709428876638412e-03" rms="3.4583100676536560e-01" purity="1.8472677469253540e-01" nType="-99"/>
          </Node>
        </Node>
        <Node pos="r" depth="1" NCoef="0" IVar="2" Cut="4.0313281250000000e+02" cType="1" res="3.8028047420084476e-03" rms="3.7917906045913696e-01" purity="5.7461982965469360e-01" nType="0">
          <Node pos="l" depth="2" NCoef="0" IVar="4" Cut="1.8232208251953125e+02" cType="1" res="1.9897330552339554e-02" rms="3.6564075946807861e-01" purity="6.9932359457015991e-01" nType="0">
            <Node pos="l" depth="3" NCoef="0" IVar="-1" Cut="0.0000000000000000e+00" cType="1" res="1.3626144500449300e-03" rms="3.7143203616142273e-01" purity="6.9130295515060425e-01" nType="-99"/>
            <Node pos="r" depth="3" NCoef="0" IVar="-1" Cut="0.0000000000000000e+00" cType="1" res="-3.7278668605722487e-04" rms="3.5109671950340271e-01" purity="7.1686446666717529e-01" nType="-99"/>
          </Node>
          <Node pos="r" depth="2" NCoef="0" IVar="0" Cut="2.3054829101562500e+03" cType="1" res="-1.7105145379900932e-02" rms="3.9509800076484680e-01" purity="4.1262057423591614e-01" nType="0">
            <Node pos="l" depth="3" NCoef="0" IVar="-1" Cut="0.0000000000000000e+00" cType="1" res="-7.8819534974172711e-04" rms="3.9196258783340454e-01" purity="3.8536486029624939e-01" nType="-99"/>
            <Node pos="r" depth="3" NCoef="0" IVar="-1" Cut="0.0000000000000000e+00" cType="1" res="1.5022435691207647e-03" rms="4.1751450300216675e-01" purity="6.5442079305648804e-01" nType="-99"/>
          </Node>
        </Node>
      </Node>
    </BinaryTree>
    <BinaryTree type="DecisionTree" boostWeight="1.0000000000000000e+00" itree="659">
      <Node pos="s" depth="0" NCoef="0" IVar="8" Cut="9.3330216407775879e-01" cType="1" res="1.5931510133668780e-03" rms="3.8447031378746033e-01" purity="5.0036531686782837e-01" nType="0">
        <Node pos="l" depth="1" NCoef="0" IVar="0" Cut="1.4400944824218750e+03" cType="1" res="6.9268653169274330e-03" rms="3.8614097237586975e-01" purity="5.3681784868240356e-01" nType="0">
          <Node pos="l" depth="2" NCoef="0" IVar="2" Cut="2.8067956542968750e+02" cType="1" res="-4.2144856415688992e-03" rms="4.0396252274513245e-01" purity="4.3014878034591675e-01" nType="0">
            <Node pos="l" depth="3" NCoef="0" IVar="-1" Cut="0.0000000000000000e+00" cType="1" res="6.0057686641812325e-04" rms="4.1350543498992920e-01" purity="5.3940057754516602e-01" nType="-99"/>
            <Node pos="r" depth="3" NCoef="0" IVar="-1" Cut="0.0000000000000000e+00" cType="1" res="-1.0602422989904881e-03" rms="3.9423260092735291e-01" purity="3.3079969882965088e-01" nType="-99"/>
          </Node>
          <Node pos="r" depth="2" NCoef="0" IVar="2" Cut="7.7123907470703125e+02" cType="1" res="2.0684123039245605e-02" rms="3.6245739459991455e-01" purity="6.6853195428848267e-01" nType="0">
            <Node pos="l" depth="3" NCoef="0" IVar="-1" Cut="0.0000000000000000e+00" cType="1" res="1.2968188384547830e-03" rms="3.5709288716316223e-01" purity="6.8708389997482300e-01" nType="-99"/>
            <Node pos="r" depth="3" NCoef="0" IVar="-1" Cut="0.0000000000000000e+00" cType="1" res="-2.2777470294386148e-03" rms="4.1330093145370483e-01" purity="4.5281955599784851e-01" nType="-99"/>
          </Node>
        </Node>
        <Node pos="r" depth="1" NCoef="0" IVar="3" Cut="1.8397058105468750e+02" cType="1" res="-2.1712601184844971e-02" rms="3.7619748711585999e-01" purity="3.4108570218086243e-01" nType="0">
          <Node pos="l" depth="2" NCoef="0" IVar="9" Cut="-1.3357867300510406e-01" cType="1" res="3.8270351942628622e-03" rms="3.7600564956665039e-01" purity="3.0607420206069946e-01" nType="0">
            <Node pos="l" depth="3" NCoef="0" IVar="-1" Cut="0.0000000000000000e+00" cType="1" res="-1.4296898152679205e-03" rms="3.5957592725753784e-01" purity="2.7420127391815186e-01" nType="-99"/>
            <Node pos="r" depth="3" NCoef="0" IVar="-1" Cut="0.0000000000000000e+00" cType="1" res="1.0470899287611246e-03" rms="3.8467615842819214e-01" purity="3.2551488280296326e-01" nType="-99"/>
          </Node>
          <Node pos="r" depth="2" NCoef="0" IVar="6" Cut="-8.3719775080680847e-02" cType="1" res="-4.4119376689195633e-02" rms="3.7493577599525452e-01" purity="3.7180250883102417e-01" nType="0">
            <Node pos="l" depth="3" NCoef="0" IVar="-1" Cut="0.0000000000000000e+00" cType="1" res="-4.9106120131909847e-03" rms="3.6184591054916382e-01" purity="3.1365016102790833e-01" nType="-99"/>
            <Node pos="r" depth="3" NCoef="0" IVar="-1" Cut="0.0000000000000000e+00" cType="1" res="-1.3859296450391412e-03" rms="3.8243305683135986e-01" purity="4.1099959611892700e-01" nType="-99"/>
          </Node>
        </Node>
      </Node>
    </BinaryTree>
    <BinaryTree type="DecisionTree" boostWeight="1.0000000000000000e+00" itree="660">
      <Node pos="s" depth="0" NCoef="0" IVar="0" Cut="2.1260944824218750e+03" cType="1" res="4.8774690367281437e-03" rms="3.8708907365798950e-01" purity="5.0209051370620728e-01" nType="0">
        <Node pos="l" depth="1" NCoef="0" IVar="2" Cut="2.8985479736328125e+02" cType="1" res="2.5129721034318209e-03" rms="3.8585254549980164e-01" purity="4.9159780144691467e-01" nType="0">
          <Node pos="l" depth="2" NCoef="0" IVar="0" Cut="1.0525059814453125e+03" cType="1" res="2.2209694609045982e-02" rms="3.8343712687492371e-01" purity="5.7955485582351685e-01" nType="0">
            <Node pos="l" depth="3" NCoef="0" IVar="-1" Cut="0.0000000000000000e+00" cType="1" res="-8.0106745008379221e-04" rms="4.0563973784446716e-01" purity="2.6943323016166687e-01" nType="-99"/>
            <Node pos="r" depth="3" NCoef="0" IVar="-1" Cut="0.0000000000000000e+00" cType="1" res="1.4829231658950448e-03" rms="3.7432345747947693e-01" purity="6.8861067295074463e-01" nType="-99"/>
          </Node>
          <Node pos="r" depth="2" NCoef="0" IVar="6" Cut="6.8641436100006104e-01" cType="1" res="-9.4326771795749664e-03" rms="3.8682183623313904e-01" purity="4.3825370073318481e-01" nType="0">
            <Node pos="l" depth="3" NCoef="0" IVar="-1" Cut="0.0000000000000000e+00" cType="1" res="-3.7210360460449010e-05" rms="3.9170488715171814e-01" purity="4.8117330670356750e-01" nType="-99"/>
            <Node pos="r" depth="3" NCoef="0" IVar="-1" Cut="0.0000000000000000e+00" cType="1" res="-2.1008874755352736e-03" rms="3.6912578344345093e-01" purity="2.9890412092208862e-01" nType="-99"/>
          </Node>
        </Node>
        <Node pos="r" depth="1" NCoef="0" IVar="2" Cut="7.1812786865234375e+02" cType="1" res="4.3203201144933701e-02" rms="4.0468564629554749e-01" purity="6.7216479778289795e-01" nType="0">
          <Node pos="l" depth="2" NCoef="0" IVar="-1" Cut="0.0000000000000000e+00" cType="1" res="3.0804902780801058e-03" rms="3.6611929535865784e-01" purity="7.8304320573806763e-01" nType="-99"/>
          <Node pos="r" depth="2" NCoef="0" IVar="-1" Cut="0.0000000000000000e+00" cType="1" res="4.6378838305827230e-05" rms="4.3789359927177429e-01" purity="5.5502724647521973e-01" nType="-99"/>
        </Node>
      </Node>
    </BinaryTree>
    <BinaryTree type="DecisionTree" boostWeight="1.0000000000000000e+00" itree="661">
      <Node pos="s" depth="0" NCoef="0" IVar="2" Cut="8.0937670898437500e+02" cType="1" res="3.1609288416802883e-03" rms="3.8640654087066650e-01" purity="4.9808314442634583e-01" nType="0">
        <Node pos="l" depth="1" NCoef="0" IVar="0" Cut="1.6729929199218750e+03" cType="1" res="5.4528936743736267e-03" rms="3.8556262850761414e-01" purity="5.0073927640914917e-01" nType="0">
          <Node pos="l" depth="2" NCoef="0" IVar="5" Cut="1.6333198547363281e+02" cType="1" res="-1.3248478062450886e-03" rms="3.8853907585144043e-01" purity="4.5483747124671936e-01" nType="0">
            <Node pos="l" depth="3" NCoef="0" IVar="-1" Cut="0.0000000000000000e+00" cType="1" res="8.1355297879781574e-05" rms="3.8863030076026917e-01" purity="4.4810843467712402e-01" nType="-99"/>
            <Node pos="r" depth="3" NCoef="0" IVar="-1" Cut="0.0000000000000000e+00" cType="1" res="-4.5251077972352505e-03" rms="3.7809211015701294e-01" purity="6.2253248691558838e-01" nType="-99"/>
          </Node>
          <Node pos="r" depth="2" NCoef="0" IVar="0" Cut="2.2050869140625000e+03" cType="1" res="3.2430838793516159e-02" rms="3.7225914001464844e-01" purity="6.8344557285308838e-01" nType="0">
            <Node pos="l" depth="3" NCoef="0" IVar="-1" Cut="0.0000000000000000e+00" cType="1" res="1.2095614802092314e-03" rms="3.6787271499633789e-01" purity="6.7454779148101807e-01" nType="-99"/>
            <Node pos="r" depth="3" NCoef="0" IVar="-1" Cut="0.0000000000000000e+00" cType="1" res="3.0006498564034700e-03" rms="3.9585274457931519e-01" purity="7.4160462617874146e-01" nType="-99"/>
          </Node>
        </Node>
        <Node pos="r" depth="1" NCoef="0" IVar="-1" Cut="0.0000000000000000e+00" cType="1" res="-5.4844585247337818e-04" rms="4.0605878829956055e-01" purity="4.1070502996444702e-01" nType="-99"/>
      </Node>
    </BinaryTree>
    <BinaryTree type="DecisionTree" boostWeight="1.0000000000000000e+00" itree="662">
      <Node pos="s" depth="0" NCoef="0" IVar="8" Cut="-6.6667342185974121e-01" cType="1" res="4.1272998787462711e-03" rms="3.8710913062095642e-01" purity="5.0293481349945068e-01" nType="0">
        <Node pos="l" depth="1" NCoef="0" IVar="7" Cut="6.6646951436996460e-01" cType="1" res="-1.3874451629817486e-02" rms="3.8007006049156189e-01" purity="3.9979168772697449e-01" nType="0">
          <Node pos="l" depth="2" NCoef="0" IVar="7" Cut="-8.1911003589630127e-01" cType="1" res="-4.7793802805244923e-03" rms="3.8717862963676453e-01" purity="4.3716514110565186e-01" nType="0">
            <Node pos="l" depth="3" NCoef="0" IVar="-1" Cut="0.0000000000000000e+00" cType="1" res="-1.7774860607460141e-03" rms="3.4492880105972290e-01" purity="2.7377521991729736e-01" nType="-99"/>
            <Node pos="r" depth="3" NCoef="0" IVar="-1" Cut="0.0000000000000000e+00" cType="1" res="3.2704739714972675e-04" rms="4.0658980607986450e-01" purity="5.2083247900009155e-01" nType="-99"/>
          </Node>
          <Node pos="r" depth="2" NCoef="0" IVar="4" Cut="1.3064184570312500e+02" cType="1" res="-4.8122990876436234e-02" rms="3.4990140795707703e-01" purity="2.5905764102935791e-01" nType="0">
            <Node pos="l" depth="3" NCoef="0" IVar="-1" Cut="0.0000000000000000e+00" cType="1" res="-1.1621960438787937e-03" rms="3.3717000484466553e-01" purity="2.0040696859359741e-01" nType="-99"/>
            <Node pos="r" depth="3" NCoef="0" IVar="-1" Cut="0.0000000000000000e+00" cType="1" res="-5.5282013490796089e-03" rms="3.6056289076805115e-01" purity="3.2233354449272156e-01" nType="-99"/>
          </Node>
        </Node>
        <Node pos="r" depth="1" NCoef="0" IVar="8" Cut="8.1904780864715576e-01" cType="1" res="1.0388814844191074e-02" rms="3.8933262228965759e-01" purity="5.3881090879440308e-01" nType="0">
          <Node pos="l" depth="2" NCoef="0" IVar="9" Cut="-9.3283385038375854e-01" cType="1" res="1.8998051062226295e-02" rms="3.9188537001609802e-01" purity="6.0300540924072266e-01" nType="0">
            <Node pos="l" depth="3" NCoef="0" IVar="-1" Cut="0.0000000000000000e+00" cType="1" res="-5.6517985649406910e-04" rms="4.0496835112571716e-01" purity="4.7035339474678040e-01" nType="-99"/>
            <Node pos="r" depth="3" NCoef="0" IVar="-1" Cut="0.0000000000000000e+00" cType="1" res="7.9525046749040484e-04" rms="3.8880345225334167e-01" purity="6.3064765930175781e-01" nType="-99"/>
          </Node>
          <Node pos="r" depth="2" NCoef="0" IVar="7" Cut="-4.0043371915817261e-01" cType="1" res="-1.0975288227200508e-02" rms="3.8208734989166260e-01" purity="3.7951022386550903e-01" nType="0">
            <Node pos="l" depth="3" NCoef="0" IVar="-1" Cut="0.0000000000000000e+00" cType="1" res="-2.0670634694397449e-03" rms="3.5693287849426270e-01" purity="3.0013141036033630e-01" nType="-99"/>
            <Node pos="r" depth="3" NCoef="0" IVar="-1" Cut="0.0000000000000000e+00" cType="1" res="-8.0463447375223041e-05" rms="3.9218035340309143e-01" purity="4.1412141919136047e-01" nType="-99"/>
          </Node>
        </Node>
      </Node>
    </BinaryTree>
    <BinaryTree type="DecisionTree" boostWeight="1.0000000000000000e+00" itree="663">
      <Node pos="s" depth="0" NCoef="0" IVar="0" Cut="1.1285310058593750e+03" cType="1" res="4.0892246179282665e-03" rms="3.8390707969665527e-01" purity="5.0273686647415161e-01" nType="0">
        <Node pos="l" depth="1" NCoef="0" IVar="5" Cut="8.4055664062500000e+01" cType="1" res="-2.0999567583203316e-02" rms="3.9479669928550720e-01" purity="2.5769072771072388e-01" nType="0">
          <Node pos="l" depth="2" NCoef="0" IVar="0" Cut="1.0346704101562500e+03" cType="1" res="-4.1660331189632416e-03" rms="3.8739877939224243e-01" purity="2.3488949239253998e-01" nType="0">
            <Node pos="l" depth="3" NCoef="0" IVar="-1" Cut="0.0000000000000000e+00" cType="1" res="-1.1424539843574166e-03" rms="3.8259637355804443e-01" purity="2.1521157026290894e-01" nType="-99"/>
            <Node pos="r" depth="3" NCoef="0" IVar="-1" Cut="0.0000000000000000e+00" cType="1" res="1.2030521174892783e-03" rms="3.9304870367050171e-01" purity="2.6485660672187805e-01" nType="-99"/>
          </Node>
          <Node pos="r" depth="2" NCoef="0" IVar="-1" Cut="0.0000000000000000e+00" cType="1" res="-2.4964266922324896e-03" rms="4.0851292014122009e-01" purity="3.0937469005584717e-01" nType="-99"/>
        </Node>
        <Node pos="r" depth="1" NCoef="0" IVar="2" Cut="3.7131823730468750e+02" cType="1" res="1.0461732745170593e-02" rms="3.8082846999168396e-01" purity="5.6497824192047119e-01" nType="0">
          <Node pos="l" depth="2" NCoef="0" IVar="3" Cut="1.9448043823242188e+02" cType="1" res="2.6195678859949112e-02" rms="3.6858126521110535e-01" purity="6.8905544281005859e-01" nType="0">
            <Node pos="l" depth="3" NCoef="0" IVar="-1" Cut="0.0000000000000000e+00" cType="1" res="1.9560733344405890e-03" rms="3.7271592020988464e-01" purity="7.0353978872299194e-01" nType="-99"/>
            <Node pos="r" depth="3" NCoef="0" IVar="-1" Cut="0.0000000000000000e+00" cType="1" res="4.7634792281314731e-04" rms="3.6494815349578857e-01" purity="6.7943692207336426e-01" nType="-99"/>
          </Node>
          <Node pos="r" depth="2" NCoef="0" IVar="0" Cut="2.0670769042968750e+03" cType="1" res="-6.3628125935792923e-03" rms="3.9280641078948975e-01" purity="4.3230056762695312e-01" nType="0">
            <Node pos="l" depth="3" NCoef="0" IVar="-1" Cut="0.0000000000000000e+00" cType="1" res="-8.3395640831440687e-04" rms="3.8903820514678955e-01" purity="3.8750806450843811e-01" nType="-99"/>
            <Node pos="r" depth="3" NCoef="0" IVar="-1" Cut="0.0000000000000000e+00" cType="1" res="1.4563939766958356e-03" rms="4.0813693404197693e-01" purity="6.5582388639450073e-01" nType="-99"/>
          </Node>
        </Node>
      </Node>
    </BinaryTree>
    <BinaryTree type="DecisionTree" boostWeight="1.0000000000000000e+00" itree="664">
      <Node pos="s" depth="0" NCoef="0" IVar="2" Cut="7.1392718505859375e+02" cType="1" res="1.0229789186269045e-03" rms="3.8474550843238831e-01" purity="4.9873805046081543e-01" nType="0">
        <Node pos="l" depth="1" NCoef="0" IVar="0" Cut="1.7037645263671875e+03" cType="1" res="3.8941069506108761e-03" rms="3.8376805186271667e-01" purity="5.0441950559616089e-01" nType="0">
          <Node pos="l" depth="2" NCoef="0" IVar="4" Cut="1.9209487915039062e+02" cType="1" res="-3.1613858882337809e-03" rms="3.8736385107040405e-01" purity="4.6104598045349121e-01" nType="0">
            <Node pos="l" depth="3" NCoef="0" IVar="-1" Cut="0.0000000000000000e+00" cType="1" res="1.5396917297039181e-04" rms="3.8743445277214050e-01" purity="4.5159646868705750e-01" nType="-99"/>
            <Node pos="r" depth="3" NCoef="0" IVar="-1" Cut="0.0000000000000000e+00" cType="1" res="-3.2722938340157270e-03" rms="3.8216033577919006e-01" purity="5.4260909557342529e-01" nType="-99"/>
          </Node>
          <Node pos="r" depth="2" NCoef="0" IVar="3" Cut="3.1131402587890625e+02" cType="1" res="3.9088863879442215e-02" rms="3.6326190829277039e-01" purity="7.2077864408493042e-01" nType="0">
            <Node pos="l" depth="3" NCoef="0" IVar="-1" Cut="0.0000000000000000e+00" cType="1" res="2.6066473219543695e-03" rms="3.3578988909721375e-01" purity="7.9931223392486572e-01" nType="-99"/>
            <Node pos="r" depth="3" NCoef="0" IVar="-1" Cut="0.0000000000000000e+00" cType="1" res="5.1887793233618140e-04" rms="4.0219312906265259e-01" purity="5.9385037422180176e-01" nType="-99"/>
          </Node>
        </Node>
        <Node pos="r" depth="1" NCoef="0" IVar="0" Cut="2.2186999511718750e+03" cType="1" res="-4.9219477921724319e-02" rms="3.9812770485877991e-01" purity="3.9931732416152954e-01" nType="0">
          <Node pos="l" depth="2" NCoef="0" IVar="-1" Cut="0.0000000000000000e+00" cType="1" res="-4.3098296737298369e-04" rms="3.6327233910560608e-01" purity="2.3512957990169525e-01" nType="-99"/>
          <Node pos="r" depth="2" NCoef="0" IVar="-1" Cut="0.0000000000000000e+00" cType="1" res="4.8207474173977971e-04" rms="4.2671123147010803e-01" purity="5.8999800682067871e-01" nType="-99"/>
        </Node>
      </Node>
    </BinaryTree>
    <BinaryTree type="DecisionTree" boostWeight="1.0000000000000000e+00" itree="665">
      <Node pos="s" depth="0" NCoef="0" IVar="2" Cut="3.4597100830078125e+02" cType="1" res="1.8487162888050079e-03" rms="3.8492190837860107e-01" purity="5.0200754404067993e-01" nType="0">
        <Node pos="l" depth="1" NCoef="0" IVar="3" Cut="1.6536547851562500e+02" cType="1" res="1.5220883302390575e-02" rms="3.8286378979682922e-01" purity="5.6836414337158203e-01" nType="0">
          <Node pos="l" depth="2" NCoef="0" IVar="0" Cut="1.0136714477539062e+03" cType="1" res="3.9032135158777237e-02" rms="4.0369474887847900e-01" purity="4.5541259646415710e-01" nType="0">
            <Node pos="l" depth="3" NCoef="0" IVar="-1" Cut="0.0000000000000000e+00" cType="1" res="-6.2722753500565886e-04" rms="3.9995217323303223e-01" purity="2.4053561687469482e-01" nType="-99"/>
            <Node pos="r" depth="3" NCoef="0" IVar="-1" Cut="0.0000000000000000e+00" cType="1" res="2.4782647378742695e-03" rms="4.0300932526588440e-01" purity="5.7447940111160278e-01" nType="-99"/>
          </Node>
          <Node pos="r" depth="2" NCoef="0" IVar="0" Cut="1.2156309814453125e+03" cType="1" res="2.1749581210315228e-03" rms="3.7030634284019470e-01" purity="6.3024908304214478e-01" nType="0">
            <Node pos="l" depth="3" NCoef="0" IVar="-1" Cut="0.0000000000000000e+00" cType="1" res="-1.3412877451628447e-03" rms="4.0614527463912964e-01" purity="3.4000259637832642e-01" nType="-99"/>
            <Node pos="r" depth="3" NCoef="0" IVar="-1" Cut="0.0000000000000000e+00" cType="1" res="7.3894974775612354e-04" rms="3.5351267457008362e-01" purity="7.5010448694229126e-01" nType="-99"/>
          </Node>
        </Node>
        <Node pos="r" depth="1" NCoef="0" IVar="0" Cut="2.2040837402343750e+03" cType="1" res="-1.3710602186620235e-02" rms="3.8672134280204773e-01" purity="4.2479762434959412e-01" nType="0">
          <Node pos="l" depth="2" NCoef="0" IVar="2" Cut="5.6573223876953125e+02" cType="1" res="-2.0394451916217804e-02" rms="3.8368219137191772e-01" purity="3.9717093110084534e-01" nType="0">
            <Node pos="l" depth="3" NCoef="0" IVar="-1" Cut="0.0000000000000000e+00" cType="1" res="-5.6908989790827036e-04" rms="3.8607081770896912e-01" purity="4.3210622668266296e-01" nType="-99"/>
            <Node pos="r" depth="3" NCoef="0" IVar="-1" Cut="0.0000000000000000e+00" cType="1" res="-4.4396952725946903e-03" rms="3.7171110510826111e-01" purity="2.5732511281967163e-01" nType="-99"/>
          </Node>
          <Node pos="r" depth="2" NCoef="0" IVar="-1" Cut="0.0000000000000000e+00" cType="1" res="1.7151491483673453e-03" rms="4.0809580683708191e-01" purity="6.7227309942245483e-01" nType="-99"/>
        </Node>
      </Node>
    </BinaryTree>
    <BinaryTree type="DecisionTree" boostWeight="1.0000000000000000e+00" itree="666">
      <Node pos="s" depth="0" NCoef="0" IVar="7" Cut="-1.7333185672760010e+00" cType="1" res="4.0716859512031078e-03" rms="3.8567838072776794e-01" purity="5.0235229730606079e-01" nType="0">
        <Node pos="l" depth="1" NCoef="0" IVar="8" Cut="-1.3407289981842041e-01" cType="1" res="-4.2914759367704391e-02" rms="3.0211192369461060e-01" purity="1.7500641942024231e-01" nType="0">
          <Node pos="l" depth="2" NCoef="0" IVar="-1" Cut="0.0000000000000000e+00" cType="1" res="-3.3665965311229229e-03" rms="2.9355064034461975e-01" purity="1.6735710203647614e-01" nType="-99"/>
          <Node pos="r" depth="2" NCoef="0" IVar="-1" Cut="0.0000000000000000e+00" cType="1" res="-3.2676905393600464e-03" rms="3.1070038676261902e-01" purity="1.8290188908576965e-01" nType="-99"/>
        </Node>
        <Node pos="r" depth="1" NCoef="0" IVar="8" Cut="1.7333188056945801e+00" cType="1" res="6.6442410461604595e-03" rms="3.8957309722900391e-01" purity="5.2027481794357300e-01" nType="0">
          <Node pos="l" depth="2" NCoef="0" IVar="2" Cut="3.5404577636718750e+02" cType="1" res="9.0958541259169579e-03" rms="3.9184674620628357e-01" purity="5.3854888677597046e-01" nType="0">
            <Node pos="l" depth="3" NCoef="0" IVar="-1" Cut="0.0000000000000000e+00" cType="1" res="7.6012330828234553e-04" rms="3.8664054870605469e-01" purity="6.0117983818054199e-01" nType="-99"/>
            <Node pos="r" depth="3" NCoef="0" IVar="-1" Cut="0.0000000000000000e+00" cType="1" res="-1.1716126027749851e-04" rms="3.9804771542549133e-01" purity="4.5917856693267822e-01" nType="-99"/>
          </Node>
          <Node pos="r" depth="2" NCoef="0" IVar="8" Cut="2.1396818161010742e+00" cType="1" res="-3.4739937633275986e-02" rms="3.4635546803474426e-01" purity="2.1180273592472076e-01" nType="0">
            <Node pos="l" depth="3" NCoef="0" IVar="-1" Cut="0.0000000000000000e+00" cType="1" res="-1.0438167955726385e-03" rms="3.6807322502136230e-01" purity="2.4344919621944427e-01" nType="-99"/>
            <Node pos="r" depth="3" NCoef="0" IVar="-1" Cut="0.0000000000000000e+00" cType="1" res="-4.4299471192061901e-03" rms="3.1843101978302002e-01" purity="1.7592318356037140e-01" nType="-99"/>
          </Node>
        </Node>
      </Node>
    </BinaryTree>
    <BinaryTree type="DecisionTree" boostWeight="1.0000000000000000e+00" itree="667">
      <Node pos="s" depth="0" NCoef="0" IVar="7" Cut="6.6670453548431396e-01" cType="1" res="2.4147368094418198e-04" rms="3.8251557946205139e-01" purity="4.9701073765754700e-01" nType="0">
        <Node pos="l" depth="1" NCoef="0" IVar="7" Cut="-6.5391808748245239e-01" cType="1" res="8.0768866464495659e-03" rms="3.8596031069755554e-01" purity="5.4079085588455200e-01" nType="0">
          <Node pos="l" depth="2" NCoef="0" IVar="8" Cut="6.6660052537918091e-01" cType="1" res="-1.2494294904172421e-02" rms="3.7191647291183472e-01" purity="3.8555610179901123e-01" nType="0">
            <Node pos="l" depth="3" NCoef="0" IVar="-1" Cut="0.0000000000000000e+00" cType="1" res="-2.4113111430779099e-04" rms="3.7668332457542419e-01" purity="4.1995438933372498e-01" nType="-99"/>
            <Node pos="r" depth="3" NCoef="0" IVar="-1" Cut="0.0000000000000000e+00" cType="1" res="-2.3989933542907238e-03" rms="3.5416334867477417e-01" purity="2.6954239606857300e-01" nType="-99"/>
          </Node>
          <Node pos="r" depth="2" NCoef="0" IVar="2" Cut="5.4261816406250000e+02" cType="1" res="1.8312672153115273e-02" rms="3.9235955476760864e-01" purity="6.1803239583969116e-01" nType="0">
            <Node pos="l" depth="3" NCoef="0" IVar="-1" Cut="0.0000000000000000e+00" cType="1" res="9.9044025409966707e-04" rms="3.8876956701278687e-01" purity="6.4355766773223877e-01" nType="-99"/>
            <Node pos="r" depth="3" NCoef="0" IVar="-1" Cut="0.0000000000000000e+00" cType="1" res="-2.3904780391603708e-04" rms="4.1123130917549133e-01" purity="4.6762952208518982e-01" nType="-99"/>
          </Node>
        </Node>
        <Node pos="r" depth="1" NCoef="0" IVar="8" Cut="-6.6650897264480591e-01" cType="1" res="-2.4487847462296486e-02" rms="3.7034848332405090e-01" purity="3.5883653163909912e-01" nType="0">
          <Node pos="l" depth="2" NCoef="0" IVar="9" Cut="1.3344019651412964e-01" cType="1" res="-4.9440398812294006e-02" rms="3.4080868959426880e-01" purity="2.5392192602157593e-01" nType="0">
            <Node pos="l" depth="3" NCoef="0" IVar="-1" Cut="0.0000000000000000e+00" cType="1" res="-1.7687955405563116e-03" rms="3.5731104016304016e-01" purity="2.8619685769081116e-01" nType="-99"/>
            <Node pos="r" depth="3" NCoef="0" IVar="-1" Cut="0.0000000000000000e+00" cType="1" res="-4.2589479126036167e-03" rms="3.1829991936683655e-01" purity="2.1578553318977356e-01" nType="-99"/>
          </Node>
          <Node pos="r" depth="2" NCoef="0" IVar="8" Cut="-1.7131412029266357e-01" cType="1" res="-1.6850175336003304e-02" rms="3.7860164046287537e-01" purity="3.9094957709312439e-01" nType="0">
            <Node pos="l" depth="3" NCoef="0" IVar="-1" Cut="0.0000000000000000e+00" cType="1" res="5.6092935847118497e-04" rms="4.0079611539840698e-01" purity="4.9463927745819092e-01" nType="-99"/>
            <Node pos="r" depth="3" NCoef="0" IVar="-1" Cut="0.0000000000000000e+00" cType="1" res="-1.2846329482272267e-03" rms="3.7299716472625732e-01" purity="3.6732113361358643e-01" nType="-99"/>
          </Node>
        </Node>
      </Node>
    </BinaryTree>
    <BinaryTree type="DecisionTree" boostWeight="1.0000000000000000e+00" itree="668">
      <Node pos="s" depth="0" NCoef="0" IVar="2" Cut="3.3918759155273438e+02" cType="1" res="4.8786040861159563e-04" rms="3.8552516698837280e-01" purity="4.9666965007781982e-01" nType="0">
        <Node pos="l" depth="1" NCoef="0" IVar="2" Cut="2.2651379394531250e+02" cType="1" res="1.1001972481608391e-02" rms="3.8518622517585754e-01" purity="5.6191337108612061e-01" nType="0">
          <Node pos="l" depth="2" NCoef="0" IVar="-1" Cut="0.0000000000000000e+00" cType="1" res="1.8306848360225558e-03" rms="3.9451959729194641e-01" purity="5.9675645828247070e-01" nType="-99"/>
          <Node pos="r" depth="2" NCoef="0" IVar="0" Cut="1.3669403076171875e+03" cType="1" res="1.3892863644286990e-03" rms="3.8212144374847412e-01" purity="5.5278509855270386e-01" nType="0">
            <Node pos="l" depth="3" NCoef="0" IVar="-1" Cut="0.0000000000000000e+00" cType="1" res="-4.8224069178104401e-04" rms="4.1145545244216919e-01" purity="4.0907946228981018e-01" nType="-99"/>
            <Node pos="r" depth="3" NCoef="0" IVar="-1" Cut="0.0000000000000000e+00" cType="1" res="1.3861099723726511e-03" rms="3.1567358970642090e-01" purity="8.3288812637329102e-01" nType="-99"/>
          </Node>
        </Node>
        <Node pos="r" depth="1" NCoef="0" IVar="0" Cut="2.1369882812500000e+03" cType="1" res="-1.0857238434255123e-02" rms="3.8556906580924988e-01" purity="4.2626938223838806e-01" nType="0">
          <Node pos="l" depth="2" NCoef="0" IVar="2" Cut="6.7195233154296875e+02" cType="1" res="-1.7460739240050316e-02" rms="3.8342785835266113e-01" purity="3.9356547594070435e-01" nType="0">
            <Node pos="l" depth="3" NCoef="0" IVar="-1" Cut="0.0000000000000000e+00" cType="1" res="-6.8637443473562598e-04" rms="3.8556885719299316e-01" purity="4.0673485398292542e-01" nType="-99"/>
            <Node pos="r" depth="3" NCoef="0" IVar="-1" Cut="0.0000000000000000e+00" cType="1" res="-5.4680290631949902e-03" rms="3.5194069147109985e-01" purity="2.3462820053100586e-01" nType="-99"/>
          </Node>
          <Node pos="r" depth="2" NCoef="0" IVar="2" Cut="7.3687060546875000e+02" cType="1" res="3.9102561771869659e-02" rms="3.9786332845687866e-01" purity="6.7369562387466431e-01" nType="0">
            <Node pos="l" depth="3" NCoef="0" IVar="-1" Cut="0.0000000000000000e+00" cType="1" res="2.7516516856849194e-03" rms="3.6795490980148315e-01" purity="7.6891046762466431e-01" nType="-99"/>
            <Node pos="r" depth="3" NCoef="0" IVar="-1" Cut="0.0000000000000000e+00" cType="1" res="-7.3096496635116637e-05" rms="4.2716994881629944e-01" purity="5.6035375595092773e-01" nType="-99"/>
          </Node>
        </Node>
      </Node>
    </BinaryTree>
    <BinaryTree type="DecisionTree" boostWeight="1.0000000000000000e+00" itree="669">
      <Node pos="s" depth="0" NCoef="0" IVar="0" Cut="1.4401011962890625e+03" cType="1" res="-3.9006181759759784e-04" rms="3.8453480601310730e-01" purity="4.9722850322723389e-01" nType="0">
        <Node pos="l" depth="1" NCoef="0" IVar="3" Cut="2.1132447814941406e+02" cType="1" res="-1.1648473329842091e-02" rms="3.9431950449943542e-01" purity="3.9503192901611328e-01" nType="0">
          <Node pos="l" depth="2" NCoef="0" IVar="2" Cut="3.3772393798828125e+02" cType="1" res="-2.5364311877638102e-03" rms="3.9348736405372620e-01" purity="4.0046808123588562e-01" nType="0">
            <Node pos="l" depth="3" NCoef="0" IVar="-1" Cut="0.0000000000000000e+00" cType="1" res="3.6734892637468874e-04" rms="4.0417885780334473e-01" purity="4.6953427791595459e-01" nType="-99"/>
            <Node pos="r" depth="3" NCoef="0" IVar="-1" Cut="0.0000000000000000e+00" cType="1" res="-1.5863270964473486e-03" rms="3.6502140760421753e-01" purity="2.3447465896606445e-01" nType="-99"/>
          </Node>
          <Node pos="r" depth="2" NCoef="0" IVar="4" Cut="1.5647703552246094e+02" cType="1" res="-4.4428501278162003e-02" rms="3.9556670188903809e-01" purity="3.7547561526298523e-01" nType="0">
            <Node pos="l" depth="3" NCoef="0" IVar="-1" Cut="0.0000000000000000e+00" cType="1" res="-1.4101584674790502e-03" rms="3.9286980032920837e-01" purity="3.4442719817161560e-01" nType="-99"/>
            <Node pos="r" depth="3" NCoef="0" IVar="-1" Cut="0.0000000000000000e+00" cType="1" res="-3.5674704704433680e-03" rms="3.9812210202217102e-01" purity="4.2317596077919006e-01" nType="-99"/>
          </Node>
        </Node>
        <Node pos="r" depth="1" NCoef="0" IVar="3" Cut="2.4670126342773438e+02" cType="1" res="1.4450566843152046e-02" rms="3.7072092294692993e-01" purity="6.3194215297698975e-01" nType="0">
          <Node pos="l" depth="2" NCoef="0" IVar="2" Cut="5.6649426269531250e+02" cType="1" res="3.6243431270122528e-02" rms="3.4507066011428833e-01" purity="7.0777350664138794e-01" nType="0">
            <Node pos="l" depth="3" NCoef="0" IVar="-1" Cut="0.0000000000000000e+00" cType="1" res="2.4398572277277708e-03" rms="3.2733973860740662e-01" purity="8.0529993772506714e-01" nType="-99"/>
            <Node pos="r" depth="3" NCoef="0" IVar="-1" Cut="0.0000000000000000e+00" cType="1" res="-5.9368327492848039e-04" rms="3.9240401983261108e-01" purity="3.9735001325607300e-01" nType="-99"/>
          </Node>
          <Node pos="r" depth="2" NCoef="0" IVar="3" Cut="3.3386840820312500e+02" cType="1" res="-6.7166090011596680e-03" rms="3.9288392663002014e-01" purity="5.5828797817230225e-01" nType="0">
            <Node pos="l" depth="3" NCoef="0" IVar="-1" Cut="0.0000000000000000e+00" cType="1" res="2.9257743153721094e-04" rms="3.8311439752578735e-01" purity="6.1859077215194702e-01" nType="-99"/>
            <Node pos="r" depth="3" NCoef="0" IVar="-1" Cut="0.0000000000000000e+00" cType="1" res="-1.6631708713248372e-03" rms="4.0918257832527161e-01" purity="4.4766011834144592e-01" nType="-99"/>
          </Node>
        </Node>
      </Node>
    </BinaryTree>
    <BinaryTree type="DecisionTree" boostWeight="1.0000000000000000e+00" itree="670">
      <Node pos="s" depth="0" NCoef="0" IVar="8" Cut="6.6667437553405762e-01" cType="1" res="3.1140886712819338e-03" rms="3.8447868824005127e-01" purity="5.0073033571243286e-01" nType="0">
        <Node pos="l" depth="1" NCoef="0" IVar="9" Cut="-1.9998251199722290e+00" cType="1" res="9.8252613097429276e-03" rms="3.8557022809982300e-01" purity="5.3537702560424805e-01" nType="0">
          <Node pos="l" depth="2" NCoef="0" IVar="-1" Cut="0.0000000000000000e+00" cType="1" res="-4.2445943690836430e-03" rms="3.2215726375579834e-01" purity="2.2040939331054688e-01" nType="-99"/>
          <Node pos="r" depth="2" NCoef="0" IVar="8" Cut="-9.8388016223907471e-01" cType="1" res="1.2631109915673733e-02" rms="3.8778424263000488e-01" purity="5.4875022172927856e-01" nType="0">
            <Node pos="l" depth="3" NCoef="0" IVar="-1" Cut="0.0000000000000000e+00" cType="1" res="-6.6576927201822400e-04" rms="3.7673950195312500e-01" purity="3.5509553551673889e-01" nType="-99"/>
            <Node pos="r" depth="3" NCoef="0" IVar="-1" Cut="0.0000000000000000e+00" cType="1" res="8.4849260747432709e-04" rms="3.9076381921768188e-01" purity="6.0737341642379761e-01" nType="-99"/>
          </Node>
        </Node>
        <Node pos="r" depth="1" NCoef="0" IVar="3" Cut="2.1341223144531250e+02" cType="1" res="-1.5765056014060974e-02" rms="3.8075748085975647e-01" purity="4.0326604247093201e-01" nType="0">
          <Node pos="l" depth="2" NCoef="0" IVar="2" Cut="3.0947900390625000e+02" cType="1" res="-3.1185778789222240e-03" rms="3.8101094961166382e-01" purity="3.8127538561820984e-01" nType="0">
            <Node pos="l" depth="3" NCoef="0" IVar="-1" Cut="0.0000000000000000e+00" cType="1" res="6.5856002038344741e-04" rms="3.9369159936904907e-01" purity="4.5963627099990845e-01" nType="-99"/>
            <Node pos="r" depth="3" NCoef="0" IVar="-1" Cut="0.0000000000000000e+00" cType="1" res="-1.5531885437667370e-03" rms="3.6339324712753296e-01" purity="2.8428086638450623e-01" nType="-99"/>
          </Node>
          <Node pos="r" depth="2" NCoef="0" IVar="0" Cut="1.6698366699218750e+03" cType="1" res="-3.5146929323673248e-02" rms="3.7955176830291748e-01" purity="4.3696871399879456e-01" nType="0">
            <Node pos="l" depth="3" NCoef="0" IVar="-1" Cut="0.0000000000000000e+00" cType="1" res="-3.5900431685149670e-03" rms="3.7277176976203918e-01" purity="3.5060226917266846e-01" nType="-99"/>
            <Node pos="r" depth="3" NCoef="0" IVar="-1" Cut="0.0000000000000000e+00" cType="1" res="1.0218144598184153e-04" rms="3.8621827960014343e-01" purity="5.6283670663833618e-01" nType="-99"/>
          </Node>
        </Node>
      </Node>
    </BinaryTree>
    <BinaryTree type="DecisionTree" boostWeight="1.0000000000000000e+00" itree="671">
      <Node pos="s" depth="0" NCoef="0" IVar="8" Cut="6.6665947437286377e-01" cType="1" res="2.6901343371719122e-03" rms="3.8574889302253723e-01" purity="5.0063306093215942e-01" nType="0">
        <Node pos="l" depth="1" NCoef="0" IVar="8" Cut="-8.1906181573867798e-01" cType="1" res="9.5750726759433746e-03" rms="3.8660001754760742e-01" purity="5.3491747379302979e-01" nType="0">
          <Node pos="l" depth="2" NCoef="0" IVar="4" Cut="1.7334649658203125e+02" cType="1" res="-9.8175043240189552e-03" rms="3.7537375092506409e-01" purity="3.7825408577919006e-01" nType="0">
            <Node pos="l" depth="3" NCoef="0" IVar="-1" Cut="0.0000000000000000e+00" cType="1" res="-2.9600663765450008e-05" rms="3.7315052747726440e-01" purity="3.5092878341674805e-01" nType="-99"/>
            <Node pos="r" depth="3" NCoef="0" IVar="-1" Cut="0.0000000000000000e+00" cType="1" res="-2.1790198516100645e-03" rms="3.8102281093597412e-01" purity="4.6839740872383118e-01" nType="-99"/>
          </Node>
          <Node pos="r" depth="2" NCoef="0" IVar="7" Cut="1.2000297307968140e+00" cType="1" res="1.7709270119667053e-02" rms="3.9092668890953064e-01" purity="6.0062974691390991e-01" nType="0">
            <Node pos="l" depth="3" NCoef="0" IVar="-1" Cut="0.0000000000000000e+00" cType="1" res="8.8723987573757768e-04" rms="3.9257135987281799e-01" purity="6.2944084405899048e-01" nType="-99"/>
            <Node pos="r" depth="3" NCoef="0" IVar="-1" Cut="0.0000000000000000e+00" cType="1" res="-8.5432775085791945e-04" rms="3.7390232086181641e-01" purity="3.3743694424629211e-01" nType="-99"/>
          </Node>
        </Node>
        <Node pos="r" depth="1" NCoef="0" IVar="4" Cut="1.6178244018554688e+02" cType="1" res="-1.6716128215193748e-02" rms="3.8267365097999573e-01" purity="4.0399733185768127e-01" nType="0">
          <Node pos="l" depth="2" NCoef="0" IVar="0" Cut="1.2808569335937500e+03" cType="1" res="-6.0642156749963760e-03" rms="3.8077270984649658e-01" purity="3.5736027359962463e-01" nType="0">
            <Node pos="l" depth="3" NCoef="0" IVar="-1" Cut="0.0000000000000000e+00" cType="1" res="-1.4975375961512327e-03" rms="3.8208851218223572e-01" purity="2.5523185729980469e-01" nType="-99"/>
            <Node pos="r" depth="3" NCoef="0" IVar="-1" Cut="0.0000000000000000e+00" cType="1" res="1.0420470498502254e-03" rms="3.7735509872436523e-01" purity="4.8512628674507141e-01" nType="-99"/>
          </Node>
          <Node pos="r" depth="2" NCoef="0" IVar="0" Cut="1.4934565429687500e+03" cType="1" res="-4.1568588465452194e-02" rms="3.8593107461929321e-01" purity="5.1280832290649414e-01" nType="0">
            <Node pos="l" depth="3" NCoef="0" IVar="-1" Cut="0.0000000000000000e+00" cType="1" res="-4.0198909118771553e-03" rms="4.0104222297668457e-01" purity="3.8611996173858643e-01" nType="-99"/>
            <Node pos="r" depth="3" NCoef="0" IVar="-1" Cut="0.0000000000000000e+00" cType="1" res="-1.0716870892792940e-03" rms="3.7636256217956543e-01" purity="5.7627117633819580e-01" nType="-99"/>
          </Node>
        </Node>
      </Node>
    </BinaryTree>
    <BinaryTree type="DecisionTree" boostWeight="1.0000000000000000e+00" itree="672">
      <Node pos="s" depth="0" NCoef="0" IVar="3" Cut="1.4626486206054688e+02" cType="1" res="2.5438172742724419e-03" rms="3.8579505681991577e-01" purity="4.9916833639144897e-01" nType="0">
        <Node pos="l" depth="1" NCoef="0" IVar="0" Cut="1.3005207519531250e+03" cType="1" res="2.3040821775794029e-02" rms="3.9906102418899536e-01" purity="3.5919719934463501e-01" nType="0">
          <Node pos="l" depth="2" NCoef="0" IVar="5" Cut="6.8031036376953125e+01" cType="1" res="4.2714341543614864e-03" rms="3.9468717575073242e-01" purity="3.0168557167053223e-01" nType="0">
            <Node pos="l" depth="3" NCoef="0" IVar="-1" Cut="0.0000000000000000e+00" cType="1" res="-1.5291366726160049e-03" rms="3.5802757740020752e-01" purity="1.8192765116691589e-01" nType="-99"/>
            <Node pos="r" depth="3" NCoef="0" IVar="-1" Cut="0.0000000000000000e+00" cType="1" res="8.9712307089939713e-04" rms="4.1173979640007019e-01" purity="3.6462241411209106e-01" nType="-99"/>
          </Node>
          <Node pos="r" depth="2" NCoef="0" IVar="-1" Cut="0.0000000000000000e+00" cType="1" res="3.3394626807421446e-03" rms="4.0728536248207092e-01" purity="5.6312161684036255e-01" nType="-99"/>
        </Node>
        <Node pos="r" depth="1" NCoef="0" IVar="0" Cut="1.4712930908203125e+03" cType="1" res="-2.8987349942326546e-03" rms="3.8201045989990234e-01" purity="5.3633475303649902e-01" nType="0">
          <Node pos="l" depth="2" NCoef="0" IVar="4" Cut="1.7341897583007812e+02" cType="1" res="-1.4662611298263073e-02" rms="3.9402073621749878e-01" purity="4.4459578394889832e-01" nType="0">
            <Node pos="l" depth="3" NCoef="0" IVar="-1" Cut="0.0000000000000000e+00" cType="1" res="-2.5960037601180375e-04" rms="3.9318373799324036e-01" purity="4.3722817301750183e-01" nType="-99"/>
            <Node pos="r" depth="3" NCoef="0" IVar="-1" Cut="0.0000000000000000e+00" cType="1" res="-3.0970571096986532e-03" rms="3.9514830708503723e-01" purity="4.8536071181297302e-01" nType="-99"/>
          </Node>
          <Node pos="r" depth="2" NCoef="0" IVar="2" Cut="5.4283825683593750e+02" cType="1" res="1.0124596767127514e-02" rms="3.6781921982765198e-01" purity="6.3789540529251099e-01" nType="0">
            <Node pos="l" depth="3" NCoef="0" IVar="-1" Cut="0.0000000000000000e+00" cType="1" res="1.0890765115618706e-03" rms="3.5282734036445618e-01" purity="7.3563522100448608e-01" nType="-99"/>
            <Node pos="r" depth="3" NCoef="0" IVar="-1" Cut="0.0000000000000000e+00" cType="1" res="-1.0406926739960909e-03" rms="3.9962828159332275e-01" purity="4.0614163875579834e-01" nType="-99"/>
          </Node>
        </Node>
      </Node>
    </BinaryTree>
    <BinaryTree type="DecisionTree" boostWeight="1.0000000000000000e+00" itree="673">
      <Node pos="s" depth="0" NCoef="0" IVar="0" Cut="2.1261120605468750e+03" cType="1" res="4.1647683829069138e-03" rms="3.8795453310012817e-01" purity="5.0196236371994019e-01" nType="0">
        <Node pos="l" depth="1" NCoef="0" IVar="2" Cut="5.4762304687500000e+02" cType="1" res="1.7389643471688032e-03" rms="3.8729637861251831e-01" purity="4.9094212055206299e-01" nType="0">
          <Node pos="l" depth="2" NCoef="0" IVar="0" Cut="1.3051817626953125e+03" cType="1" res="6.5801735036075115e-03" rms="3.8897958397865295e-01" purity="5.1541757583618164e-01" nType="0">
            <Node pos="l" depth="3" NCoef="0" IVar="-1" Cut="0.0000000000000000e+00" cType="1" res="-3.7522043567150831e-04" rms="4.0285304188728333e-01" purity="3.5164412856101990e-01" nType="-99"/>
            <Node pos="r" depth="3" NCoef="0" IVar="-1" Cut="0.0000000000000000e+00" cType="1" res="9.8106381483376026e-04" rms="3.7504154443740845e-01" purity="6.6804045438766479e-01" nType="-99"/>
          </Node>
          <Node pos="r" depth="2" NCoef="0" IVar="0" Cut="1.7945872802734375e+03" cType="1" res="-4.3569810688495636e-02" rms="3.6809971928596497e-01" purity="2.6187661290168762e-01" nType="0">
            <Node pos="l" depth="3" NCoef="0" IVar="-1" Cut="0.0000000000000000e+00" cType="1" res="-6.2008625827729702e-03" rms="3.2809087634086609e-01" purity="1.6268391907215118e-01" nType="-99"/>
            <Node pos="r" depth="3" NCoef="0" IVar="-1" Cut="0.0000000000000000e+00" cType="1" res="-7.4293155921623111e-04" rms="4.1969531774520874e-01" purity="4.1159924864768982e-01" nType="-99"/>
          </Node>
        </Node>
        <Node pos="r" depth="1" NCoef="0" IVar="2" Cut="6.8538806152343750e+02" cType="1" res="4.3387245386838913e-02" rms="3.9639034867286682e-01" purity="6.8014723062515259e-01" nType="0">
          <Node pos="l" depth="2" NCoef="0" IVar="-1" Cut="0.0000000000000000e+00" cType="1" res="3.1915586441755295e-03" rms="3.5380947589874268e-01" purity="8.0124449729919434e-01" nType="-99"/>
          <Node pos="r" depth="2" NCoef="0" IVar="-1" Cut="0.0000000000000000e+00" cType="1" res="1.6739727288950235e-04" rms="4.2912209033966064e-01" purity="5.6582498550415039e-01" nType="-99"/>
        </Node>
      </Node>
    </BinaryTree>
    <BinaryTree type="DecisionTree" boostWeight="1.0000000000000000e+00" itree="674">
      <Node pos="s" depth="0" NCoef="0" IVar="2" Cut="4.7837097167968750e+02" cType="1" res="1.9758536946028471e-03" rms="3.8485947251319885e-01" purity="5.0029039382934570e-01" nType="0">
        <Node pos="l" depth="1" NCoef="0" IVar="0" Cut="1.3525001220703125e+03" cType="1" res="7.0651290006935596e-03" rms="3.8449004292488098e-01" purity="5.3110319375991821e-01" nType="0">
          <Node pos="l" depth="2" NCoef="0" IVar="5" Cut="1.1119874572753906e+02" cType="1" res="-6.1257756315171719e-03" rms="4.0473997592926025e-01" purity="3.8217219710350037e-01" nType="0">
            <Node pos="l" depth="3" NCoef="0" IVar="-1" Cut="0.0000000000000000e+00" cType="1" res="1.5846936730667949e-04" rms="4.0245866775512695e-01" purity="3.4832477569580078e-01" nType="-99"/>
            <Node pos="r" depth="3" NCoef="0" IVar="-1" Cut="0.0000000000000000e+00" cType="1" res="-1.9460094626992941e-03" rms="4.1199004650115967e-01" purity="5.3474140167236328e-01" nType="-99"/>
          </Node>
          <Node pos="r" depth="2" NCoef="0" IVar="3" Cut="2.6582897949218750e+02" cType="1" res="2.4915384128689766e-02" rms="3.5447353124618530e-01" purity="7.3264032602310181e-01" nType="0">
            <Node pos="l" depth="3" NCoef="0" IVar="-1" Cut="0.0000000000000000e+00" cType="1" res="1.9313513766974211e-03" rms="3.4076222777366638e-01" purity="7.8805947303771973e-01" nType="-99"/>
            <Node pos="r" depth="3" NCoef="0" IVar="-1" Cut="0.0000000000000000e+00" cType="1" res="-4.4644463923759758e-04" rms="3.8014316558837891e-01" purity="6.1307609081268311e-01" nType="-99"/>
          </Node>
        </Node>
        <Node pos="r" depth="1" NCoef="0" IVar="0" Cut="2.0116772460937500e+03" cType="1" res="-1.7632454633712769e-02" rms="3.8565209507942200e-01" purity="3.8157272338867188e-01" nType="0">
          <Node pos="l" depth="2" NCoef="0" IVar="1" Cut="5.0467944335937500e+02" cType="1" res="-3.1384944915771484e-02" rms="3.7351742386817932e-01" purity="2.8657561540603638e-01" nType="0">
            <Node pos="l" depth="3" NCoef="0" IVar="-1" Cut="0.0000000000000000e+00" cType="1" res="-3.6571398377418518e-03" rms="3.4714603424072266e-01" purity="2.1379776298999786e-01" nType="-99"/>
            <Node pos="r" depth="3" NCoef="0" IVar="-1" Cut="0.0000000000000000e+00" cType="1" res="2.7338744257576764e-04" rms="4.3941783905029297e-01" purity="4.9919113516807556e-01" nType="-99"/>
          </Node>
          <Node pos="r" depth="2" NCoef="0" IVar="2" Cut="7.3023718261718750e+02" cType="1" res="1.4685245230793953e-02" rms="4.1095873713493347e-01" purity="6.0481137037277222e-01" nType="0">
            <Node pos="l" depth="3" NCoef="0" IVar="-1" Cut="0.0000000000000000e+00" cType="1" res="1.9588046707212925e-03" rms="3.9710688591003418e-01" purity="6.9347822666168213e-01" nType="-99"/>
            <Node pos="r" depth="3" NCoef="0" IVar="-1" Cut="0.0000000000000000e+00" cType="1" res="-1.0019774781540036e-03" rms="4.2112863063812256e-01" purity="5.1458072662353516e-01" nType="-99"/>
          </Node>
        </Node>
      </Node>
    </BinaryTree>
    <BinaryTree type="DecisionTree" boostWeight="1.0000000000000000e+00" itree="675">
      <Node pos="s" depth="0" NCoef="0" IVar="0" Cut="1.1187791748046875e+03" cType="1" res="2.0900582894682884e-03" rms="3.8540840148925781e-01" purity="4.9964550137519836e-01" nType="0">
        <Node pos="l" depth="1" NCoef="0" IVar="4" Cut="1.0366301727294922e+02" cType="1" res="-2.2631082683801651e-02" rms="3.9061895012855530e-01" purity="2.5685372948646545e-01" nType="0">
          <Node pos="l" depth="2" NCoef="0" IVar="5" Cut="6.7624763488769531e+01" cType="1" res="-6.9395010359585285e-03" rms="3.7932288646697998e-01" purity="2.3891803622245789e-01" nType="0">
            <Node pos="l" depth="3" NCoef="0" IVar="-1" Cut="0.0000000000000000e+00" cType="1" res="-1.5063299797475338e-03" rms="3.4907999634742737e-01" purity="1.8221910297870636e-01" nType="-99"/>
            <Node pos="r" depth="3" NCoef="0" IVar="-1" Cut="0.0000000000000000e+00" cType="1" res="8.0464553320780396e-04" rms="4.0147995948791504e-01" purity="2.8640806674957275e-01" nType="-99"/>
          </Node>
          <Node pos="r" depth="2" NCoef="0" IVar="-1" Cut="0.0000000000000000e+00" cType="1" res="-2.0479548256844282e-03" rms="4.0628334879875183e-01" purity="2.8459656238555908e-01" nType="-99"/>
        </Node>
        <Node pos="r" depth="1" NCoef="0" IVar="3" Cut="1.4846611022949219e+02" cType="1" res="7.8412266448140144e-03" rms="3.8395792245864868e-01" purity="5.5612897872924805e-01" nType="0">
          <Node pos="l" depth="2" NCoef="0" IVar="1" Cut="5.1089053344726562e+02" cType="1" res="4.9369860440492630e-02" rms="4.0583139657974243e-01" purity="4.8297905921936035e-01" nType="0">
            <Node pos="l" depth="3" NCoef="0" IVar="-1" Cut="0.0000000000000000e+00" cType="1" res="1.6348084900528193e-03" rms="3.9705696702003479e-01" purity="4.2231094837188721e-01" nType="-99"/>
            <Node pos="r" depth="3" NCoef="0" IVar="-1" Cut="0.0000000000000000e+00" cType="1" res="2.8423839248716831e-03" rms="4.2590200901031494e-01" purity="6.3992744684219360e-01" nType="-99"/>
          </Node>
          <Node pos="r" depth="2" NCoef="0" IVar="2" Cut="3.5405114746093750e+02" cType="1" res="1.7085038125514984e-03" rms="3.8023710250854492e-01" purity="5.6693136692047119e-01" nType="0">
            <Node pos="l" depth="3" NCoef="0" IVar="-1" Cut="0.0000000000000000e+00" cType="1" res="6.6869676811620593e-04" rms="3.6854955554008484e-01" purity="6.8483972549438477e-01" nType="-99"/>
            <Node pos="r" depth="3" NCoef="0" IVar="-1" Cut="0.0000000000000000e+00" cType="1" res="-4.0438974974676967e-04" rms="3.9071208238601685e-01" purity="4.5339497923851013e-01" nType="-99"/>
          </Node>
        </Node>
      </Node>
    </BinaryTree>
    <BinaryTree type="DecisionTree" boostWeight="1.0000000000000000e+00" itree="676">
      <Node pos="s" depth="0" NCoef="0" IVar="0" Cut="1.6477971191406250e+03" cType="1" res="2.0618182606995106e-03" rms="3.8331791758537292e-01" purity="5.0138038396835327e-01" nType="0">
        <Node pos="l" depth="1" NCoef="0" IVar="4" Cut="2.0436224365234375e+02" cType="1" res="-4.6862661838531494e-03" rms="3.8702026009559631e-01" purity="4.5062568783760071e-01" nType="0">
          <Node pos="l" depth="2" NCoef="0" IVar="2" Cut="3.4258752441406250e+02" cType="1" res="-9.6871948335319757e-04" rms="3.8658365607261658e-01" purity="4.4781363010406494e-01" nType="0">
            <Node pos="l" depth="3" NCoef="0" IVar="-1" Cut="0.0000000000000000e+00" cType="1" res="3.9306835969910026e-04" rms="3.8917097449302673e-01" purity="5.2587640285491943e-01" nType="-99"/>
            <Node pos="r" depth="3" NCoef="0" IVar="-1" Cut="0.0000000000000000e+00" cType="1" res="-1.1240555904805660e-03" rms="3.8114836812019348e-01" purity="3.0695471167564392e-01" nType="-99"/>
          </Node>
          <Node pos="r" depth="2" NCoef="0" IVar="-1" Cut="0.0000000000000000e+00" cType="1" res="-3.7149409763514996e-03" rms="3.8909265398979187e-01" purity="4.9645370244979858e-01" nType="-99"/>
        </Node>
        <Node pos="r" depth="1" NCoef="0" IVar="3" Cut="2.8487240600585938e+02" cType="1" res="2.3171368986368179e-02" rms="3.7070569396018982e-01" purity="6.6015255451202393e-01" nType="0">
          <Node pos="l" depth="2" NCoef="0" IVar="2" Cut="5.5679864501953125e+02" cType="1" res="4.6112108975648880e-02" rms="3.4460443258285522e-01" purity="7.4465215206146240e-01" nType="0">
            <Node pos="l" depth="3" NCoef="0" IVar="-1" Cut="0.0000000000000000e+00" cType="1" res="3.0902535654604435e-03" rms="2.9085496068000793e-01" purity="8.7356084585189819e-01" nType="-99"/>
            <Node pos="r" depth="3" NCoef="0" IVar="-1" Cut="0.0000000000000000e+00" cType="1" res="7.3538982542231679e-04" rms="4.2281013727188110e-01" purity="5.1358509063720703e-01" nType="-99"/>
          </Node>
          <Node pos="r" depth="2" NCoef="0" IVar="3" Cut="4.1629138183593750e+02" cType="1" res="-4.4241040013730526e-03" rms="3.9810416102409363e-01" purity="5.5850768089294434e-01" nType="0">
            <Node pos="l" depth="3" NCoef="0" IVar="-1" Cut="0.0000000000000000e+00" cType="1" res="6.4615340670570731e-04" rms="3.9186492562294006e-01" purity="6.0419571399688721e-01" nType="-99"/>
            <Node pos="r" depth="3" NCoef="0" IVar="-1" Cut="0.0000000000000000e+00" cType="1" res="-3.5634855739772320e-03" rms="4.1266795992851257e-01" purity="4.0262526273727417e-01" nType="-99"/>
          </Node>
        </Node>
      </Node>
    </BinaryTree>
    <BinaryTree type="DecisionTree" boostWeight="1.0000000000000000e+00" itree="677">
      <Node pos="s" depth="0" NCoef="0" IVar="0" Cut="1.9709425048828125e+03" cType="1" res="2.0539283286780119e-03" rms="3.8789919018745422e-01" purity="4.9711537361145020e-01" nType="0">
        <Node pos="l" depth="1" NCoef="0" IVar="2" Cut="5.5145080566406250e+02" cType="1" res="-1.1152932420372963e-03" rms="3.8717824220657349e-01" purity="4.8029479384422302e-01" nType="0">
          <Node pos="l" depth="2" NCoef="0" IVar="0" Cut="1.3018541259765625e+03" cType="1" res="2.5773094967007637e-03" rms="3.8911882042884827e-01" purity="5.0334221124649048e-01" nType="0">
            <Node pos="l" depth="3" NCoef="0" IVar="-1" Cut="0.0000000000000000e+00" cType="1" res="-5.2705104462802410e-04" rms="4.0211728215217590e-01" purity="3.4792423248291016e-01" nType="-99"/>
            <Node pos="r" depth="3" NCoef="0" IVar="-1" Cut="0.0000000000000000e+00" cType="1" res="7.8210176434367895e-04" rms="3.7562042474746704e-01" purity="6.5329569578170776e-01" nType="-99"/>
          </Node>
          <Node pos="r" depth="2" NCoef="0" IVar="1" Cut="4.0203634643554688e+02" cType="1" res="-4.0799677371978760e-02" rms="3.6331194639205933e-01" purity="2.3260401189327240e-01" nType="0">
            <Node pos="l" depth="3" NCoef="0" IVar="-1" Cut="0.0000000000000000e+00" cType="1" res="-8.2165648927912116e-04" rms="2.7921745181083679e-01" purity="9.8607510328292847e-02" nType="-99"/>
            <Node pos="r" depth="3" NCoef="0" IVar="-1" Cut="0.0000000000000000e+00" cType="1" res="-4.0161740616895258e-04" rms="4.1691315174102783e-01" purity="3.4237885475158691e-01" nType="-99"/>
          </Node>
        </Node>
        <Node pos="r" depth="1" NCoef="0" IVar="3" Cut="3.4642816162109375e+02" cType="1" res="3.3755753189325333e-02" rms="3.9363679289817810e-01" purity="6.6537213325500488e-01" nType="0">
          <Node pos="l" depth="2" NCoef="0" IVar="0" Cut="2.1674472656250000e+03" cType="1" res="5.8963615447282791e-02" rms="3.7023502588272095e-01" purity="7.4803876876831055e-01" nType="0">
            <Node pos="l" depth="3" NCoef="0" IVar="-1" Cut="0.0000000000000000e+00" cType="1" res="1.7618399579077959e-03" rms="3.6484715342521667e-01" purity="7.2865349054336548e-01" nType="-99"/>
            <Node pos="r" depth="3" NCoef="0" IVar="-1" Cut="0.0000000000000000e+00" cType="1" res="3.0093139503151178e-03" rms="3.7453001737594604e-01" purity="7.6884770393371582e-01" nType="-99"/>
          </Node>
          <Node pos="r" depth="2" NCoef="0" IVar="-1" Cut="0.0000000000000000e+00" cType="1" res="-9.7181225555686979e-07" rms="4.2060822248458862e-01" purity="5.5459851026535034e-01" nType="-99"/>
        </Node>
      </Node>
    </BinaryTree>
    <BinaryTree type="DecisionTree" boostWeight="1.0000000000000000e+00" itree="678">
      <Node pos="s" depth="0" NCoef="0" IVar="9" Cut="-6.6663229465484619e-01" cType="1" res="1.6596087953075767e-03" rms="3.8469544053077698e-01" purity="4.9685421586036682e-01" nType="0">
        <Node pos="l" depth="1" NCoef="0" IVar="0" Cut="1.6425092773437500e+03" cType="1" res="-1.7787644639611244e-02" rms="3.7437859177589417e-01" purity="4.1999697685241699e-01" nType="0">
          <Node pos="l" depth="2" NCoef="0" IVar="5" Cut="1.2216111755371094e+02" cType="1" res="-2.6623297482728958e-02" rms="3.7063974142074585e-01" purity="3.6941519379615784e-01" nType="0">
            <Node pos="l" depth="3" NCoef="0" IVar="-1" Cut="0.0000000000000000e+00" cType="1" res="-1.0689735645428300e-03" rms="3.6790066957473755e-01" purity="3.2299086451530457e-01" nType="-99"/>
            <Node pos="r" depth="3" NCoef="0" IVar="-1" Cut="0.0000000000000000e+00" cType="1" res="-2.8166987467557192e-03" rms="3.8039857149124146e-01" purity="5.6571614742279053e-01" nType="-99"/>
          </Node>
          <Node pos="r" depth="2" NCoef="0" IVar="2" Cut="4.8570806884765625e+02" cType="1" res="1.2685481458902359e-02" rms="3.8544565439224243e-01" purity="5.9444749355316162e-01" nType="0">
            <Node pos="l" depth="3" NCoef="0" IVar="-1" Cut="0.0000000000000000e+00" cType="1" res="1.8884778255596757e-03" rms="3.5195934772491455e-01" purity="7.8344076871871948e-01" nType="-99"/>
            <Node pos="r" depth="3" NCoef="0" IVar="-1" Cut="0.0000000000000000e+00" cType="1" res="-6.7011377541348338e-04" rms="4.1194027662277222e-01" purity="4.2202627658843994e-01" nType="-99"/>
          </Node>
        </Node>
        <Node pos="r" depth="1" NCoef="0" IVar="9" Cut="3.2381990551948547e-01" cType="1" res="8.8754296302795410e-03" rms="3.8820606470108032e-01" purity="5.2537173032760620e-01" nType="0">
          <Node pos="l" depth="2" NCoef="0" IVar="6" Cut="-3.5288619995117188e-01" cType="1" res="2.2177204489707947e-02" rms="3.9365059137344360e-01" purity="5.8567547798156738e-01" nType="0">
            <Node pos="l" depth="3" NCoef="0" IVar="-1" Cut="0.0000000000000000e+00" cType="1" res="1.6994960606098175e-04" rms="4.0187430381774902e-01" purity="5.2207750082015991e-01" nType="-99"/>
            <Node pos="r" depth="3" NCoef="0" IVar="-1" Cut="0.0000000000000000e+00" cType="1" res="1.2839245609939098e-03" rms="3.8910514116287231e-01" purity="6.1778098344802856e-01" nType="-99"/>
          </Node>
          <Node pos="r" depth="2" NCoef="0" IVar="0" Cut="1.0965317382812500e+03" cType="1" res="-2.8118102345615625e-03" rms="3.8297745585441589e-01" purity="4.7238761186599731e-01" nType="0">
            <Node pos="l" depth="3" NCoef="0" IVar="-1" Cut="0.0000000000000000e+00" cType="1" res="-2.0533227361738682e-03" rms="3.6894568800926208e-01" purity="2.1890655159950256e-01" nType="-99"/>
            <Node pos="r" depth="3" NCoef="0" IVar="-1" Cut="0.0000000000000000e+00" cType="1" res="1.5988072846084833e-04" rms="3.8535919785499573e-01" purity="5.2483659982681274e-01" nType="-99"/>
          </Node>
        </Node>
      </Node>
    </BinaryTree>
    <BinaryTree type="DecisionTree" boostWeight="1.0000000000000000e+00" itree="679">
      <Node pos="s" depth="0" NCoef="0" IVar="0" Cut="1.4630610351562500e+03" cType="1" res="-1.5586897497996688e-03" rms="3.8398692011833191e-01" purity="4.9435770511627197e-01" nType="0">
        <Node pos="l" depth="1" NCoef="0" IVar="5" Cut="1.2472209930419922e+02" cType="1" res="-1.2898274697363377e-02" rms="3.9321506023406982e-01" purity="3.9829337596893311e-01" nType="0">
          <Node pos="l" depth="2" NCoef="0" IVar="2" Cut="4.6257369995117188e+02" cType="1" res="-4.9362098798155785e-03" rms="3.9240950345993042e-01" purity="3.7233638763427734e-01" nType="0">
            <Node pos="l" depth="3" NCoef="0" IVar="-1" Cut="0.0000000000000000e+00" cType="1" res="1.1210899174329825e-05" rms="3.9939662814140320e-01" purity="3.9592874050140381e-01" nType="-99"/>
            <Node pos="r" depth="3" NCoef="0" IVar="-1" Cut="0.0000000000000000e+00" cType="1" res="-5.7798288762569427e-03" rms="3.0361777544021606e-01" purity="1.2286294251680374e-01" nType="-99"/>
          </Node>
          <Node pos="r" depth="2" NCoef="0" IVar="-1" Cut="0.0000000000000000e+00" cType="1" res="-3.0321991071105003e-03" rms="3.9443579316139221e-01" purity="5.7295006513595581e-01" nType="-99"/>
        </Node>
        <Node pos="r" depth="1" NCoef="0" IVar="3" Cut="2.4237442016601562e+02" cType="1" res="1.5083600766956806e-02" rms="3.6939716339111328e-01" purity="6.3534432649612427e-01" nType="0">
          <Node pos="l" depth="2" NCoef="0" IVar="2" Cut="5.8672772216796875e+02" cType="1" res="3.3667229115962982e-02" rms="3.4605374932289124e-01" purity="7.0844149589538574e-01" nType="0">
            <Node pos="l" depth="3" NCoef="0" IVar="-1" Cut="0.0000000000000000e+00" cType="1" res="2.1104977931827307e-03" rms="3.2515889406204224e-01" purity="7.9983991384506226e-01" nType="-99"/>
            <Node pos="r" depth="3" NCoef="0" IVar="-1" Cut="0.0000000000000000e+00" cType="1" res="2.5206449208781123e-04" rms="4.0518939495086670e-01" purity="4.1194516420364380e-01" nType="-99"/>
          </Node>
          <Node pos="r" depth="2" NCoef="0" IVar="3" Cut="4.1200064086914062e+02" cType="1" res="-3.8496498746098951e-05" rms="3.8669723272323608e-01" purity="5.7586288452148438e-01" nType="0">
            <Node pos="l" depth="3" NCoef="0" IVar="-1" Cut="0.0000000000000000e+00" cType="1" res="3.4692688495852053e-04" rms="3.8209885358810425e-01" purity="6.0008287429809570e-01" nType="-99"/>
            <Node pos="r" depth="3" NCoef="0" IVar="-1" Cut="0.0000000000000000e+00" cType="1" res="-2.5629394222050905e-03" rms="4.1301980614662170e-01" purity="4.1351720690727234e-01" nType="-99"/>
          </Node>
        </Node>
      </Node>
    </BinaryTree>
    <BinaryTree type="DecisionTree" boostWeight="1.0000000000000000e+00" itree="680">
      <Node pos="s" depth="0" NCoef="0" IVar="0" Cut="1.4630610351562500e+03" cType="1" res="2.2621583193540573e-03" rms="3.8399729132652283e-01" purity="5.0147175788879395e-01" nType="0">
        <Node pos="l" depth="1" NCoef="0" IVar="5" Cut="1.1380098724365234e+02" cType="1" res="-7.4245440773665905e-03" rms="3.9384815096855164e-01" purity="4.0630966424942017e-01" nType="0">
          <Node pos="l" depth="2" NCoef="0" IVar="0" Cut="1.2736177978515625e+03" cType="1" res="-1.2838041584473103e-04" rms="3.9372193813323975e-01" purity="3.5693711042404175e-01" nType="0">
            <Node pos="l" depth="3" NCoef="0" IVar="-1" Cut="0.0000000000000000e+00" cType="1" res="-4.6569586265832186e-04" rms="3.9498662948608398e-01" purity="3.1229656934738159e-01" nType="-99"/>
            <Node pos="r" depth="3" NCoef="0" IVar="-1" Cut="0.0000000000000000e+00" cType="1" res="1.1881405953317881e-03" rms="3.8938307762145996e-01" purity="4.6831962466239929e-01" nType="-99"/>
          </Node>
          <Node pos="r" depth="2" NCoef="0" IVar="7" Cut="-3.9615455269813538e-01" cType="1" res="-3.4599933773279190e-02" rms="3.9312821626663208e-01" purity="5.9020316600799561e-01" nType="0">
            <Node pos="l" depth="3" NCoef="0" IVar="-1" Cut="0.0000000000000000e+00" cType="1" res="-3.1783322338014841e-03" rms="4.0165066719055176e-01" purity="5.0004774332046509e-01" nType="-99"/>
            <Node pos="r" depth="3" NCoef="0" IVar="-1" Cut="0.0000000000000000e+00" cType="1" res="-7.4717617826536298e-04" rms="3.8781714439392090e-01" purity="6.3357836008071899e-01" nType="-99"/>
          </Node>
        </Node>
        <Node pos="r" depth="1" NCoef="0" IVar="4" Cut="2.3397824096679688e+02" cType="1" res="1.6431700438261032e-02" rms="3.6865621805191040e-01" purity="6.4067327976226807e-01" nType="0">
          <Node pos="l" depth="2" NCoef="0" IVar="2" Cut="5.0820565795898438e+02" cType="1" res="2.6330288499593735e-02" rms="3.6296898126602173e-01" purity="6.4849883317947388e-01" nType="0">
            <Node pos="l" depth="3" NCoef="0" IVar="-1" Cut="0.0000000000000000e+00" cType="1" res="1.8535887356847525e-03" rms="3.3783242106437683e-01" purity="7.8027266263961792e-01" nType="-99"/>
            <Node pos="r" depth="3" NCoef="0" IVar="-1" Cut="0.0000000000000000e+00" cType="1" res="2.2406649077311158e-04" rms="4.0265691280364990e-01" purity="4.1550818085670471e-01" nType="-99"/>
          </Node>
          <Node pos="r" depth="2" NCoef="0" IVar="0" Cut="2.0570424804687500e+03" cType="1" res="-3.0039399862289429e-02" rms="3.9092484116554260e-01" purity="6.0393428802490234e-01" nType="0">
            <Node pos="l" depth="3" NCoef="0" IVar="-1" Cut="0.0000000000000000e+00" cType="1" res="-2.7675195597112179e-03" rms="3.8225135207176208e-01" purity="5.7205152511596680e-01" nType="-99"/>
            <Node pos="r" depth="3" NCoef="0" IVar="-1" Cut="0.0000000000000000e+00" cType="1" res="2.3297834559343755e-04" rms="4.0104496479034424e-01" purity="6.5190500020980835e-01" nType="-99"/>
          </Node>
        </Node>
      </Node>
    </BinaryTree>
    <BinaryTree type="DecisionTree" boostWeight="1.0000000000000000e+00" itree="681">
      <Node pos="s" depth="0" NCoef="0" IVar="6" Cut="-1.4580618143081665e+00" cType="1" res="5.0290254876017570e-03" rms="3.8636609911918640e-01" purity="5.0187593698501587e-01" nType="0">
        <Node pos="l" depth="1" NCoef="0" IVar="8" Cut="-3.9947071671485901e-01" cType="1" res="-3.7875279784202576e-02" rms="3.2213240861892700e-01" purity="2.0270647108554840e-01" nType="0">
          <Node pos="l" depth="2" NCoef="0" IVar="-1" Cut="0.0000000000000000e+00" cType="1" res="-6.5324958413839340e-03" rms="2.6639717817306519e-01" purity="1.3606573641300201e-01" nType="-99"/>
          <Node pos="r" depth="2" NCoef="0" IVar="-1" Cut="0.0000000000000000e+00" cType="1" res="-1.0391401592642069e-03" rms="3.5387957096099854e-01" purity="2.4887941777706146e-01" nType="-99"/>
        </Node>
        <Node pos="r" depth="1" NCoef="0" IVar="9" Cut="1.9999588727951050e+00" cType="1" res="7.9067433252930641e-03" rms="3.9012748003005981e-01" purity="5.2194213867187500e-01" nType="0">
          <Node pos="l" depth="2" NCoef="0" IVar="6" Cut="7.7220129966735840e-01" cType="1" res="1.0009416379034519e-02" rms="3.9200481772422791e-01" purity="5.3414624929428101e-01" nType="0">
            <Node pos="l" depth="3" NCoef="0" IVar="-1" Cut="0.0000000000000000e+00" cType="1" res="6.7401269916445017e-04" rms="3.9353218674659729e-01" purity="5.8204460144042969e-01" nType="-99"/>
            <Node pos="r" depth="3" NCoef="0" IVar="-1" Cut="0.0000000000000000e+00" cType="1" res="-4.9940793542191386e-04" rms="3.8596504926681519e-01" purity="3.6602842807769775e-01" nType="-99"/>
          </Node>
          <Node pos="r" depth="2" NCoef="0" IVar="-1" Cut="0.0000000000000000e+00" cType="1" res="-2.7519543655216694e-03" rms="3.3724832534790039e-01" purity="2.2491393983364105e-01" nType="-99"/>
        </Node>
      </Node>
    </BinaryTree>
    <BinaryTree type="DecisionTree" boostWeight="1.0000000000000000e+00" itree="682">
      <Node pos="s" depth="0" NCoef="0" IVar="0" Cut="1.5806446533203125e+03" cType="1" res="3.5860398784279823e-03" rms="3.8705682754516602e-01" purity="4.9844831228256226e-01" nType="0">
        <Node pos="l" depth="1" NCoef="0" IVar="2" Cut="2.3015344238281250e+02" cType="1" res="-4.1746473871171474e-03" rms="3.9139020442962646e-01" purity="4.3480086326599121e-01" nType="0">
          <Node pos="l" depth="2" NCoef="0" IVar="-1" Cut="0.0000000000000000e+00" cType="1" res="1.4160941354930401e-03" rms="4.0144145488739014e-01" purity="5.6876105070114136e-01" nType="-99"/>
          <Node pos="r" depth="2" NCoef="0" IVar="4" Cut="1.8102610778808594e+02" cType="1" res="-1.1475405655801296e-02" rms="3.8906151056289673e-01" purity="4.0998157858848572e-01" nType="0">
            <Node pos="l" depth="3" NCoef="0" IVar="-1" Cut="0.0000000000000000e+00" cType="1" res="-2.4817700614221394e-04" rms="3.8735592365264893e-01" purity="3.9715820550918579e-01" nType="-99"/>
            <Node pos="r" depth="3" NCoef="0" IVar="-1" Cut="0.0000000000000000e+00" cType="1" res="-2.8767867479473352e-03" rms="3.9845702052116394e-01" purity="5.0364047288894653e-01" nType="-99"/>
          </Node>
        </Node>
        <Node pos="r" depth="1" NCoef="0" IVar="3" Cut="3.4304379272460938e+02" cType="1" res="2.2155541926622391e-02" rms="3.7583574652671814e-01" purity="6.5074169635772705e-01" nType="0">
          <Node pos="l" depth="2" NCoef="0" IVar="4" Cut="2.4511444091796875e+02" cType="1" res="3.5772442817687988e-02" rms="3.6524236202239990e-01" purity="7.0137405395507812e-01" nType="0">
            <Node pos="l" depth="3" NCoef="0" IVar="-1" Cut="0.0000000000000000e+00" cType="1" res="1.9575657788664103e-03" rms="3.6119791865348816e-01" purity="7.0690655708312988e-01" nType="-99"/>
            <Node pos="r" depth="3" NCoef="0" IVar="-1" Cut="0.0000000000000000e+00" cType="1" res="-3.7485329085029662e-04" rms="3.9100885391235352e-01" purity="6.6062539815902710e-01" nType="-99"/>
          </Node>
          <Node pos="r" depth="2" NCoef="0" IVar="5" Cut="1.3591709899902344e+02" cType="1" res="-2.4702548980712891e-02" rms="4.0673550963401794e-01" purity="4.7650703787803650e-01" nType="0">
            <Node pos="l" depth="3" NCoef="0" IVar="-1" Cut="0.0000000000000000e+00" cType="1" res="-3.1601798254996538e-03" rms="3.9895555377006531e-01" purity="3.4669569134712219e-01" nType="-99"/>
            <Node pos="r" depth="3" NCoef="0" IVar="-1" Cut="0.0000000000000000e+00" cType="1" res="3.2059175282483920e-05" rms="4.1260698437690735e-01" purity="6.0332405567169189e-01" nType="-99"/>
          </Node>
        </Node>
      </Node>
    </BinaryTree>
    <BinaryTree type="DecisionTree" boostWeight="1.0000000000000000e+00" itree="683">
      <Node pos="s" depth="0" NCoef="0" IVar="6" Cut="-3.9362621307373047e-01" cType="1" res="3.2604036387056112e-03" rms="3.8533768057823181e-01" purity="4.9900734424591064e-01" nType="0">
        <Node pos="l" depth="1" NCoef="0" IVar="4" Cut="2.1721746826171875e+02" cType="1" res="-1.1981020681560040e-02" rms="3.7776297330856323e-01" purity="4.3236455321311951e-01" nType="0">
          <Node pos="l" depth="2" NCoef="0" IVar="0" Cut="1.3132218017578125e+03" cType="1" res="-7.5675733387470245e-03" rms="3.7660267949104309e-01" purity="4.2107471823692322e-01" nType="0">
            <Node pos="l" depth="3" NCoef="0" IVar="-1" Cut="0.0000000000000000e+00" cType="1" res="-1.3280702987685800e-03" rms="3.7648338079452515e-01" purity="2.8716769814491272e-01" nType="-99"/>
            <Node pos="r" depth="3" NCoef="0" IVar="-1" Cut="0.0000000000000000e+00" cType="1" res="5.8381463168188930e-04" rms="3.7574097514152527e-01" purity="5.5245351791381836e-01" nType="-99"/>
          </Node>
          <Node pos="r" depth="2" NCoef="0" IVar="-1" Cut="0.0000000000000000e+00" cType="1" res="-2.7378301601856947e-03" rms="3.8561913371086121e-01" purity="5.3115797042846680e-01" nType="-99"/>
        </Node>
        <Node pos="r" depth="1" NCoef="0" IVar="6" Cut="5.1875126361846924e-01" cType="1" res="1.0780529119074345e-02" rms="3.8880065083503723e-01" purity="5.3188896179199219e-01" nType="0">
          <Node pos="l" depth="2" NCoef="0" IVar="8" Cut="-1.4666706323623657e+00" cType="1" res="2.5491403415799141e-02" rms="3.9086070656776428e-01" purity="6.2645202875137329e-01" nType="0">
            <Node pos="l" depth="3" NCoef="0" IVar="-1" Cut="0.0000000000000000e+00" cType="1" res="-1.4059187378734350e-03" rms="3.9323779940605164e-01" purity="3.1904754042625427e-01" nType="-99"/>
            <Node pos="r" depth="3" NCoef="0" IVar="-1" Cut="0.0000000000000000e+00" cType="1" res="1.2345082359388471e-03" rms="3.9041292667388916e-01" purity="6.4950251579284668e-01" nType="-99"/>
          </Node>
          <Node pos="r" depth="2" NCoef="0" IVar="9" Cut="-6.6639137268066406e-01" cType="1" res="-8.4954677149653435e-03" rms="3.8523530960083008e-01" purity="4.0798074007034302e-01" nType="0">
            <Node pos="l" depth="3" NCoef="0" IVar="-1" Cut="0.0000000000000000e+00" cType="1" res="-2.2374237887561321e-03" rms="3.6556082963943481e-01" purity="3.1681388616561890e-01" nType="-99"/>
            <Node pos="r" depth="3" NCoef="0" IVar="-1" Cut="0.0000000000000000e+00" cType="1" res="2.5235493012587540e-05" rms="3.9075320959091187e-01" purity="4.3651881814002991e-01" nType="-99"/>
          </Node>
        </Node>
      </Node>
    </BinaryTree>
    <BinaryTree type="DecisionTree" boostWeight="1.0000000000000000e+00" itree="684">
      <Node pos="s" depth="0" NCoef="0" IVar="0" Cut="1.5806380615234375e+03" cType="1" res="4.5640594325959682e-03" rms="3.8673838973045349e-01" purity="4.9902281165122986e-01" nType="0">
        <Node pos="l" depth="1" NCoef="0" IVar="5" Cut="1.2933786010742188e+02" cType="1" res="-3.0605655629187822e-03" rms="3.9118045568466187e-01" purity="4.3561130762100220e-01" nType="0">
          <Node pos="l" depth="2" NCoef="0" IVar="2" Cut="2.9054013061523438e+02" cType="1" res="4.0899403393268585e-03" rms="3.9307448267936707e-01" purity="4.0438804030418396e-01" nType="0">
            <Node pos="l" depth="3" NCoef="0" IVar="-1" Cut="0.0000000000000000e+00" cType="1" res="8.2938367268070579e-04" rms="4.0460237860679626e-01" purity="5.0255298614501953e-01" nType="-99"/>
            <Node pos="r" depth="3" NCoef="0" IVar="-1" Cut="0.0000000000000000e+00" cType="1" res="-5.2108330419287086e-04" rms="3.8256362080574036e-01" purity="3.2189232110977173e-01" nType="-99"/>
          </Node>
          <Node pos="r" depth="2" NCoef="0" IVar="2" Cut="3.0165527343750000e+02" cType="1" res="-4.6213187277317047e-02" rms="3.7667918205261230e-01" purity="6.2404072284698486e-01" nType="0">
            <Node pos="l" depth="3" NCoef="0" IVar="-1" Cut="0.0000000000000000e+00" cType="1" res="-9.0037792688235641e-04" rms="3.5719862580299377e-01" purity="7.2030764818191528e-01" nType="-99"/>
            <Node pos="r" depth="3" NCoef="0" IVar="-1" Cut="0.0000000000000000e+00" cType="1" res="-4.5030876062810421e-03" rms="4.0347430109977722e-01" purity="4.6171882748603821e-01" nType="-99"/>
          </Node>
        </Node>
        <Node pos="r" depth="1" NCoef="0" IVar="3" Cut="2.4158047485351562e+02" cType="1" res="2.2923782467842102e-02" rms="3.7519147992134094e-01" purity="6.5171450376510620e-01" nType="0">
          <Node pos="l" depth="2" NCoef="0" IVar="3" Cut="1.7905712890625000e+02" cType="1" res="4.8649728298187256e-02" rms="3.5419225692749023e-01" purity="7.2854435443878174e-01" nType="0">
            <Node pos="l" depth="3" NCoef="0" IVar="-1" Cut="0.0000000000000000e+00" cType="1" res="2.9145006556063890e-03" rms="3.8322806358337402e-01" purity="6.7479926347732544e-01" nType="-99"/>
            <Node pos="r" depth="3" NCoef="0" IVar="-1" Cut="0.0000000000000000e+00" cType="1" res="1.9392620306462049e-03" rms="3.4121006727218628e-01" purity="7.5013977289199829e-01" nType="-99"/>
          </Node>
          <Node pos="r" depth="2" NCoef="0" IVar="1" Cut="4.5299826049804688e+02" cType="1" res="7.8845601528882980e-03" rms="3.8614696264266968e-01" purity="6.0680031776428223e-01" nType="0">
            <Node pos="l" depth="3" NCoef="0" IVar="-1" Cut="0.0000000000000000e+00" cType="1" res="1.7240335000678897e-03" rms="3.8877785205841064e-01" purity="5.3147643804550171e-01" nType="-99"/>
            <Node pos="r" depth="3" NCoef="0" IVar="-1" Cut="0.0000000000000000e+00" cType="1" res="-5.3663842845708132e-04" rms="3.8313138484954834e-01" purity="6.6086059808731079e-01" nType="-99"/>
          </Node>
        </Node>
      </Node>
    </BinaryTree>
    <BinaryTree type="DecisionTree" boostWeight="1.0000000000000000e+00" itree="685">
      <Node pos="s" depth="0" NCoef="0" IVar="7" Cut="-6.6663515567779541e-01" cType="1" res="5.3874263539910316e-03" rms="3.8717526197433472e-01" purity="5.0218856334686279e-01" nType="0">
        <Node pos="l" depth="1" NCoef="0" IVar="3" Cut="1.9181056213378906e+02" cType="1" res="-1.5815718099474907e-02" rms="3.7129029631614685e-01" purity="3.7446838617324829e-01" nType="0">
          <Node pos="l" depth="2" NCoef="0" IVar="9" Cut="4.0006032586097717e-01" cType="1" res="4.7264769673347473e-03" rms="3.7074887752532959e-01" purity="3.3915865421295166e-01" nType="0">
            <Node pos="l" depth="3" NCoef="0" IVar="-1" Cut="0.0000000000000000e+00" cType="1" res="8.1523618428036571e-04" rms="3.7501323223114014e-01" purity="3.5670325160026550e-01" nType="-99"/>
            <Node pos="r" depth="3" NCoef="0" IVar="-1" Cut="0.0000000000000000e+00" cType="1" res="-1.2977090664207935e-03" rms="3.5879102349281311e-01" purity="2.9702240228652954e-01" nType="-99"/>
          </Node>
          <Node pos="r" depth="2" NCoef="0" IVar="6" Cut="-3.6561837792396545e-01" cType="1" res="-3.6409821361303329e-02" rms="3.7069135904312134e-01" purity="4.0986731648445129e-01" nType="0">
            <Node pos="l" depth="3" NCoef="0" IVar="-1" Cut="0.0000000000000000e+00" cType="1" res="-4.3290206231176853e-03" rms="3.5474598407745361e-01" purity="3.6118113994598389e-01" nType="-99"/>
            <Node pos="r" depth="3" NCoef="0" IVar="-1" Cut="0.0000000000000000e+00" cType="1" res="-9.6501578809693456e-04" rms="3.7811321020126343e-01" purity="4.3715518712997437e-01" nType="-99"/>
          </Node>
        </Node>
        <Node pos="r" depth="1" NCoef="0" IVar="7" Cut="4.8890653252601624e-01" cType="1" res="1.2314381077885628e-02" rms="3.9197695255279541e-01" purity="5.4391407966613770e-01" nType="0">
          <Node pos="l" depth="2" NCoef="0" IVar="8" Cut="9.3322825431823730e-01" cType="1" res="2.3189017549157143e-02" rms="3.9642590284347534e-01" purity="6.2307822704315186e-01" nType="0">
            <Node pos="l" depth="3" NCoef="0" IVar="-1" Cut="0.0000000000000000e+00" cType="1" res="1.1557335965335369e-03" rms="3.9210385084152222e-01" purity="6.5419894456863403e-01" nType="-99"/>
            <Node pos="r" depth="3" NCoef="0" IVar="-1" Cut="0.0000000000000000e+00" cType="1" res="-5.5016822443576530e-05" rms="4.1742613911628723e-01" purity="4.6051925420761108e-01" nType="-99"/>
          </Node>
          <Node pos="r" depth="2" NCoef="0" IVar="3" Cut="1.4943446350097656e+02" cType="1" res="-3.4456928260624409e-03" rms="3.8489326834678650e-01" purity="4.2918527126312256e-01" nType="0">
            <Node pos="l" depth="3" NCoef="0" IVar="-1" Cut="0.0000000000000000e+00" cType="1" res="1.2660990469157696e-03" rms="3.9253830909729004e-01" purity="3.3219119906425476e-01" nType="-99"/>
            <Node pos="r" depth="3" NCoef="0" IVar="-1" Cut="0.0000000000000000e+00" cType="1" res="-7.2242005262523890e-04" rms="3.8169524073600769e-01" purity="4.6222037076950073e-01" nType="-99"/>
          </Node>
        </Node>
      </Node>
    </BinaryTree>
    <BinaryTree type="DecisionTree" boostWeight="1.0000000000000000e+00" itree="686">
      <Node pos="s" depth="0" NCoef="0" IVar="0" Cut="2.0592978515625000e+03" cType="1" res="5.8313454501330853e-03" rms="3.8827642798423767e-01" purity="5.0276738405227661e-01" nType="0">
        <Node pos="l" depth="1" NCoef="0" IVar="5" Cut="1.0496288299560547e+02" cType="1" res="2.5321885477751493e-03" rms="3.8758337497711182e-01" purity="4.8896643519401550e-01" nType="0">
          <Node pos="l" depth="2" NCoef="0" IVar="0" Cut="1.0998585205078125e+03" cType="1" res="1.2688782066106796e-02" rms="3.9837968349456787e-01" purity="3.6907589435577393e-01" nType="0">
            <Node pos="l" depth="3" NCoef="0" IVar="-1" Cut="0.0000000000000000e+00" cType="1" res="-5.8865203754976392e-04" rms="3.9442110061645508e-01" purity="2.4767136573791504e-01" nType="-99"/>
            <Node pos="r" depth="3" NCoef="0" IVar="-1" Cut="0.0000000000000000e+00" cType="1" res="1.0804664343595505e-03" rms="3.9960306882858276e-01" purity="4.2138418555259705e-01" nType="-99"/>
          </Node>
          <Node pos="r" depth="2" NCoef="0" IVar="0" Cut="1.2925961914062500e+03" cType="1" res="-1.0620139539241791e-02" rms="3.7272772192955017e-01" purity="6.4421927928924561e-01" nType="0">
            <Node pos="l" depth="3" NCoef="0" IVar="-1" Cut="0.0000000000000000e+00" cType="1" res="-2.1315654739737511e-03" rms="4.1688880324363708e-01" purity="4.8007667064666748e-01" nType="-99"/>
            <Node pos="r" depth="3" NCoef="0" IVar="-1" Cut="0.0000000000000000e+00" cType="1" res="-1.6044949006754905e-05" rms="3.6100423336029053e-01" purity="6.8204593658447266e-01" nType="-99"/>
          </Node>
        </Node>
        <Node pos="r" depth="1" NCoef="0" IVar="2" Cut="7.7978344726562500e+02" cType="1" res="4.8181522637605667e-02" rms="3.9462360739707947e-01" purity="6.7992478609085083e-01" nType="0">
          <Node pos="l" depth="2" NCoef="0" IVar="-1" Cut="0.0000000000000000e+00" cType="1" res="2.9458822682499886e-03" rms="3.7365117669105530e-01" purity="7.5999110937118530e-01" nType="-99"/>
          <Node pos="r" depth="2" NCoef="0" IVar="-1" Cut="0.0000000000000000e+00" cType="1" res="-1.7246631614398211e-04" rms="4.2510837316513062e-01" purity="5.3452229499816895e-01" nType="-99"/>
        </Node>
      </Node>
    </BinaryTree>
    <BinaryTree type="DecisionTree" boostWeight="1.0000000000000000e+00" itree="687">
      <Node pos="s" depth="0" NCoef="0" IVar="7" Cut="1.9997094869613647e+00" cType="1" res="1.2692196760326624e-03" rms="3.8490036129951477e-01" purity="4.9965324997901917e-01" nType="0">
        <Node pos="l" depth="1" NCoef="0" IVar="8" Cut="1.4665224552154541e+00" cType="1" res="3.1066434457898140e-03" rms="3.8745170831680298e-01" purity="5.1069271564483643e-01" nType="0">
          <Node pos="l" depth="2" NCoef="0" IVar="0" Cut="1.1315443115234375e+03" cType="1" res="6.2740766443312168e-03" rms="3.9006105065345764e-01" purity="5.3446537256240845e-01" nType="0">
            <Node pos="l" depth="3" NCoef="0" IVar="-1" Cut="0.0000000000000000e+00" cType="1" res="-6.8416405702009797e-04" rms="4.0827509760856628e-01" purity="2.8861838579177856e-01" nType="-99"/>
            <Node pos="r" depth="3" NCoef="0" IVar="-1" Cut="0.0000000000000000e+00" cType="1" res="5.1925197476521134e-04" rms="3.8538500666618347e-01" purity="5.9344434738159180e-01" nType="-99"/>
          </Node>
          <Node pos="r" depth="2" NCoef="0" IVar="3" Cut="1.8651715087890625e+02" cType="1" res="-3.0167244374752045e-02" rms="3.5720297694206238e-01" purity="2.6096096634864807e-01" nType="0">
            <Node pos="l" depth="3" NCoef="0" IVar="-1" Cut="0.0000000000000000e+00" cType="1" res="-9.9043434602208436e-05" rms="3.6336776614189148e-01" purity="2.4751171469688416e-01" nType="-99"/>
            <Node pos="r" depth="3" NCoef="0" IVar="-1" Cut="0.0000000000000000e+00" cType="1" res="-3.6534136161208153e-03" rms="3.4875565767288208e-01" purity="2.7420467138290405e-01" nType="-99"/>
          </Node>
        </Node>
        <Node pos="r" depth="1" NCoef="0" IVar="-1" Cut="0.0000000000000000e+00" cType="1" res="-5.8844834566116333e-03" rms="2.8240865468978882e-01" purity="1.3747461140155792e-01" nType="-99"/>
      </Node>
    </BinaryTree>
    <BinaryTree type="DecisionTree" boostWeight="1.0000000000000000e+00" itree="688">
      <Node pos="s" depth="0" NCoef="0" IVar="7" Cut="3.9992791414260864e-01" cType="1" res="1.4427361311390996e-03" rms="3.8478511571884155e-01" purity="5.0162053108215332e-01" nType="0">
        <Node pos="l" depth="1" NCoef="0" IVar="7" Cut="-1.1238229274749756e+00" cType="1" res="8.9224325492978096e-03" rms="3.8695645332336426e-01" purity="5.3424012660980225e-01" nType="0">
          <Node pos="l" depth="2" NCoef="0" IVar="3" Cut="1.6700326538085938e+02" cType="1" res="-1.6207106411457062e-02" rms="3.5361662507057190e-01" purity="2.8653186559677124e-01" nType="0">
            <Node pos="l" depth="3" NCoef="0" IVar="-1" Cut="0.0000000000000000e+00" cType="1" res="1.1586699401959777e-03" rms="3.6023905873298645e-01" purity="2.5570982694625854e-01" nType="-99"/>
            <Node pos="r" depth="3" NCoef="0" IVar="-1" Cut="0.0000000000000000e+00" cType="1" res="-2.4911989457905293e-03" rms="3.4711492061614990e-01" purity="3.0687636137008667e-01" nType="-99"/>
          </Node>
          <Node pos="r" depth="2" NCoef="0" IVar="8" Cut="-6.6622340679168701e-01" cType="1" res="1.5364066697657108e-02" rms="3.9479240775108337e-01" purity="5.9773701429367065e-01" nType="0">
            <Node pos="l" depth="3" NCoef="0" IVar="-1" Cut="0.0000000000000000e+00" cType="1" res="-1.8971084500662982e-04" rms="3.9508816599845886e-01" purity="5.0892525911331177e-01" nType="-99"/>
            <Node pos="r" depth="3" NCoef="0" IVar="-1" Cut="0.0000000000000000e+00" cType="1" res="9.0923445532098413e-04" rms="3.9445966482162476e-01" purity="6.2880545854568481e-01" nType="-99"/>
          </Node>
        </Node>
        <Node pos="r" depth="1" NCoef="0" IVar="6" Cut="-1.1503589153289795e+00" cType="1" res="-1.3246851973235607e-02" rms="3.8005650043487549e-01" purity="4.3755790591239929e-01" nType="0">
          <Node pos="l" depth="2" NCoef="0" IVar="-1" Cut="0.0000000000000000e+00" cType="1" res="-3.9807390421628952e-03" rms="3.2196146249771118e-01" purity="1.9182366132736206e-01" nType="-99"/>
          <Node pos="r" depth="2" NCoef="0" IVar="2" Cut="3.3269766235351562e+02" cType="1" res="-8.7999841198325157e-03" rms="3.8665595650672913e-01" purity="4.6909287571907043e-01" nType="0">
            <Node pos="l" depth="3" NCoef="0" IVar="-1" Cut="0.0000000000000000e+00" cType="1" res="1.5724146214779466e-04" rms="3.8573679327964783e-01" purity="5.3934252262115479e-01" nType="-99"/>
            <Node pos="r" depth="3" NCoef="0" IVar="-1" Cut="0.0000000000000000e+00" cType="1" res="-1.1063674464821815e-03" rms="3.8717797398567200e-01" purity="3.9800989627838135e-01" nType="-99"/>
          </Node>
        </Node>
      </Node>
    </BinaryTree>
    <BinaryTree type="DecisionTree" boostWeight="1.0000000000000000e+00" itree="689">
      <Node pos="s" depth="0" NCoef="0" IVar="9" Cut="-1.4665119647979736e+00" cType="1" res="2.3469654843211174e-03" rms="3.8247096538543701e-01" purity="5.0324714183807373e-01" nType="0">
        <Node pos="l" depth="1" NCoef="0" IVar="6" Cut="-7.5629122555255890e-02" cType="1" res="-3.3348955214023590e-02" rms="3.5056793689727783e-01" purity="2.9593726992607117e-01" nType="0">
          <Node pos="l" depth="2" NCoef="0" IVar="6" Cut="-8.2087081670761108e-01" cType="1" res="-1.7148600891232491e-02" rms="3.5810720920562744e-01" purity="3.0168658494949341e-01" nType="0">
            <Node pos="l" depth="3" NCoef="0" IVar="-1" Cut="0.0000000000000000e+00" cType="1" res="-1.8119416199624538e-03" rms="3.2518851757049561e-01" purity="2.0198348164558411e-01" nType="-99"/>
            <Node pos="r" depth="3" NCoef="0" IVar="-1" Cut="0.0000000000000000e+00" cType="1" res="-5.4695003200322390e-04" rms="3.8780927658081055e-01" purity="4.0017092227935791e-01" nType="-99"/>
          </Node>
          <Node pos="r" depth="2" NCoef="0" IVar="-1" Cut="0.0000000000000000e+00" cType="1" res="-3.3891329076141119e-03" rms="3.4107914566993713e-01" purity="2.8953921794891357e-01" nType="-99"/>
        </Node>
        <Node pos="r" depth="1" NCoef="0" IVar="6" Cut="-6.5973436832427979e-01" cType="1" res="6.1945379711687565e-03" rms="3.8555496931076050e-01" purity="5.2559256553649902e-01" nType="0">
          <Node pos="l" depth="2" NCoef="0" IVar="4" Cut="1.3245147705078125e+02" cType="1" res="-1.7653331160545349e-02" rms="3.7892222404479980e-01" purity="3.9194631576538086e-01" nType="0">
            <Node pos="l" depth="3" NCoef="0" IVar="-1" Cut="0.0000000000000000e+00" cType="1" res="1.8220077618025243e-04" rms="3.7455987930297852e-01" purity="2.9860800504684448e-01" nType="-99"/>
            <Node pos="r" depth="3" NCoef="0" IVar="-1" Cut="0.0000000000000000e+00" cType="1" res="-1.8458156846463680e-03" rms="3.8189354538917542e-01" purity="4.7853943705558777e-01" nType="-99"/>
          </Node>
          <Node pos="r" depth="2" NCoef="0" IVar="3" Cut="3.3653414916992188e+02" cType="1" res="1.3232431374490261e-02" rms="3.8721010088920593e-01" purity="5.6503367424011230e-01" nType="0">
            <Node pos="l" depth="3" NCoef="0" IVar="-1" Cut="0.0000000000000000e+00" cType="1" res="7.4937340104952455e-04" rms="3.8490781188011169e-01" purity="5.7183605432510376e-01" nType="-99"/>
            <Node pos="r" depth="3" NCoef="0" IVar="-1" Cut="0.0000000000000000e+00" cType="1" res="-1.4123586006462574e-03" rms="4.1010507941246033e-01" purity="4.8767244815826416e-01" nType="-99"/>
          </Node>
        </Node>
      </Node>
    </BinaryTree>
    <BinaryTree type="DecisionTree" boostWeight="1.0000000000000000e+00" itree="690">
      <Node pos="s" depth="0" NCoef="0" IVar="2" Cut="8.0937719726562500e+02" cType="1" res="-5.6855296716094017e-03" rms="3.8123783469200134e-01" purity="4.9186959862709045e-01" nType="0">
        <Node pos="l" depth="1" NCoef="0" IVar="0" Cut="1.3357208251953125e+03" cType="1" res="-2.5517994072288275e-03" rms="3.8050043582916260e-01" purity="4.9583998322486877e-01" nType="0">
          <Node pos="l" depth="2" NCoef="0" IVar="2" Cut="2.7069146728515625e+02" cType="1" res="-2.0086351782083511e-02" rms="3.9447450637817383e-01" purity="3.4871351718902588e-01" nType="0">
            <Node pos="l" depth="3" NCoef="0" IVar="-1" Cut="0.0000000000000000e+00" cType="1" res="7.8140430559869856e-05" rms="4.1915115714073181e-01" purity="4.5882230997085571e-01" nType="-99"/>
            <Node pos="r" depth="3" NCoef="0" IVar="-1" Cut="0.0000000000000000e+00" cType="1" res="-1.9643355626612902e-03" rms="3.7174332141876221e-01" purity="2.5724807381629944e-01" nType="-99"/>
          </Node>
          <Node pos="r" depth="2" NCoef="0" IVar="2" Cut="4.6117581176757812e+02" cType="1" res="1.2583228759467602e-02" rms="3.6733984947204590e-01" purity="6.2283283472061157e-01" nType="0">
            <Node pos="l" depth="3" NCoef="0" IVar="-1" Cut="0.0000000000000000e+00" cType="1" res="1.3286495814099908e-03" rms="3.5281431674957275e-01" purity="7.4142801761627197e-01" nType="-99"/>
            <Node pos="r" depth="3" NCoef="0" IVar="-1" Cut="0.0000000000000000e+00" cType="1" res="-9.2376419343054295e-04" rms="3.9163017272949219e-01" purity="3.9906927943229675e-01" nType="-99"/>
          </Node>
        </Node>
        <Node pos="r" depth="1" NCoef="0" IVar="-1" Cut="0.0000000000000000e+00" cType="1" res="-4.5322260120883584e-04" rms="3.9109376072883606e-01" purity="3.6522170901298523e-01" nType="-99"/>
      </Node>
    </BinaryTree>
    <BinaryTree type="DecisionTree" boostWeight="1.0000000000000000e+00" itree="691">
      <Node pos="s" depth="0" NCoef="0" IVar="7" Cut="-9.3325811624526978e-01" cType="1" res="4.9669547006487846e-03" rms="3.8498061895370483e-01" purity="5.0704556703567505e-01" nType="0">
        <Node pos="l" depth="1" NCoef="0" IVar="3" Cut="1.8253971862792969e+02" cType="1" res="-2.3596236482262611e-02" rms="3.6300721764564514e-01" purity="3.1097447872161865e-01" nType="0">
          <Node pos="l" depth="2" NCoef="0" IVar="0" Cut="1.1962523193359375e+03" cType="1" res="5.3646722808480263e-03" rms="3.7175872921943665e-01" purity="2.7947598695755005e-01" nType="0">
            <Node pos="l" depth="3" NCoef="0" IVar="-1" Cut="0.0000000000000000e+00" cType="1" res="-8.1129820318892598e-04" rms="3.4977900981903076e-01" purity="1.7917747795581818e-01" nType="-99"/>
            <Node pos="r" depth="3" NCoef="0" IVar="-1" Cut="0.0000000000000000e+00" cType="1" res="1.3879818143323064e-03" rms="3.9765003323554993e-01" purity="4.1136345267295837e-01" nType="-99"/>
          </Node>
          <Node pos="r" depth="2" NCoef="0" IVar="9" Cut="-6.6645032167434692e-01" cType="1" res="-4.9506142735481262e-02" rms="3.5298675298690796e-01" purity="3.3915463089942932e-01" nType="0">
            <Node pos="l" depth="3" NCoef="0" IVar="-1" Cut="0.0000000000000000e+00" cType="1" res="-5.2361460402607918e-03" rms="3.3040609955787659e-01" purity="2.4599739909172058e-01" nType="-99"/>
            <Node pos="r" depth="3" NCoef="0" IVar="-1" Cut="0.0000000000000000e+00" cType="1" res="-2.0169240888208151e-03" rms="3.6241522431373596e-01" purity="3.8270589709281921e-01" nType="-99"/>
          </Node>
        </Node>
        <Node pos="r" depth="1" NCoef="0" IVar="6" Cut="6.8655765056610107e-01" cType="1" res="1.0999798774719238e-02" rms="3.8919505476951599e-01" purity="5.4845786094665527e-01" nType="0">
          <Node pos="l" depth="2" NCoef="0" IVar="6" Cut="-4.5777988433837891e-01" cType="1" res="1.8614504486322403e-02" rms="3.9002415537834167e-01" purity="5.9113466739654541e-01" nType="0">
            <Node pos="l" depth="3" NCoef="0" IVar="-1" Cut="0.0000000000000000e+00" cType="1" res="-2.2637363872490823e-04" rms="3.9194542169570923e-01" purity="4.6815824508666992e-01" nType="-99"/>
            <Node pos="r" depth="3" NCoef="0" IVar="-1" Cut="0.0000000000000000e+00" cType="1" res="1.3527574483305216e-03" rms="3.8816094398498535e-01" purity="6.6600006818771362e-01" nType="-99"/>
          </Node>
          <Node pos="r" depth="2" NCoef="0" IVar="8" Cut="-6.6666561365127563e-01" cType="1" res="-1.4767772518098354e-02" rms="3.8526141643524170e-01" purity="4.0404292941093445e-01" nType="0">
            <Node pos="l" depth="3" NCoef="0" IVar="-1" Cut="0.0000000000000000e+00" cType="1" res="-4.7372248955070972e-03" rms="3.4821143746376038e-01" purity="2.5520652532577515e-01" nType="-99"/>
            <Node pos="r" depth="3" NCoef="0" IVar="-1" Cut="0.0000000000000000e+00" cType="1" res="-5.8438712585484609e-05" rms="3.9327055215835571e-01" purity="4.4301673769950867e-01" nType="-99"/>
          </Node>
        </Node>
      </Node>
    </BinaryTree>
    <BinaryTree type="DecisionTree" boostWeight="1.0000000000000000e+00" itree="692">
      <Node pos="s" depth="0" NCoef="0" IVar="3" Cut="2.1414511108398438e+02" cType="1" res="2.8383750468492508e-03" rms="3.8560763001441956e-01" purity="4.9924242496490479e-01" nType="0">
        <Node pos="l" depth="1" NCoef="0" IVar="0" Cut="1.2911677246093750e+03" cType="1" res="1.2452466413378716e-02" rms="3.8743501901626587e-01" purity="4.7241228818893433e-01" nType="0">
          <Node pos="l" depth="2" NCoef="0" IVar="5" Cut="1.0167004394531250e+02" cType="1" res="-2.5605326518416405e-03" rms="4.0180265903472900e-01" purity="3.5199642181396484e-01" nType="0">
            <Node pos="l" depth="3" NCoef="0" IVar="-1" Cut="0.0000000000000000e+00" cType="1" res="3.4975344897247851e-04" rms="3.9684244990348816e-01" purity="3.1742805242538452e-01" nType="-99"/>
            <Node pos="r" depth="3" NCoef="0" IVar="-1" Cut="0.0000000000000000e+00" cType="1" res="-1.4877517241984606e-03" rms="4.1729733347892761e-01" purity="4.7850230336189270e-01" nType="-99"/>
          </Node>
          <Node pos="r" depth="2" NCoef="0" IVar="5" Cut="1.1141573333740234e+02" cType="1" res="3.4726455807685852e-02" rms="3.6393898725509644e-01" purity="6.5106689929962158e-01" nType="0">
            <Node pos="l" depth="3" NCoef="0" IVar="-1" Cut="0.0000000000000000e+00" cType="1" res="2.2437488660216331e-03" rms="3.8850522041320801e-01" purity="5.5248075723648071e-01" nType="-99"/>
            <Node pos="r" depth="3" NCoef="0" IVar="-1" Cut="0.0000000000000000e+00" cType="1" res="9.1224291827529669e-04" rms="3.3620688319206238e-01" purity="7.5190985202789307e-01" nType="-99"/>
          </Node>
        </Node>
        <Node pos="r" depth="1" NCoef="0" IVar="6" Cut="-9.2659550905227661e-01" cType="1" res="-1.1053170077502728e-02" rms="3.8252520561218262e-01" purity="5.3800964355468750e-01" nType="0">
          <Node pos="l" depth="2" NCoef="0" IVar="7" Cut="1.3339436054229736e-01" cType="1" res="-5.5122580379247665e-02" rms="3.6690095067024231e-01" purity="3.1759703159332275e-01" nType="0">
            <Node pos="l" depth="3" NCoef="0" IVar="-1" Cut="0.0000000000000000e+00" cType="1" res="-1.8208862747997046e-03" rms="3.8488334417343140e-01" purity="3.7086614966392517e-01" nType="-99"/>
            <Node pos="r" depth="3" NCoef="0" IVar="-1" Cut="0.0000000000000000e+00" cType="1" res="-6.7727239802479744e-03" rms="3.4045994281768799e-01" purity="2.4995015561580658e-01" nType="-99"/>
          </Node>
          <Node pos="r" depth="2" NCoef="0" IVar="6" Cut="6.6941952705383301e-01" cType="1" res="-3.7555624730885029e-03" rms="3.8456422090530396e-01" purity="5.7450848817825317e-01" nType="0">
            <Node pos="l" depth="3" NCoef="0" IVar="-1" Cut="0.0000000000000000e+00" cType="1" res="2.5173785979859531e-04" rms="3.8387942314147949e-01" purity="6.3802158832550049e-01" nType="-99"/>
            <Node pos="r" depth="3" NCoef="0" IVar="-1" Cut="0.0000000000000000e+00" cType="1" res="-1.6934333834797144e-03" rms="3.8533541560173035e-01" purity="3.9525160193443298e-01" nType="-99"/>
          </Node>
        </Node>
      </Node>
    </BinaryTree>
    <BinaryTree type="DecisionTree" boostWeight="1.0000000000000000e+00" itree="693">
      <Node pos="s" depth="0" NCoef="0" IVar="9" Cut="2.0000219345092773e+00" cType="1" res="1.7260116292163730e-03" rms="3.8202282786369324e-01" purity="4.9980977177619934e-01" nType="0">
        <Node pos="l" depth="1" NCoef="0" IVar="2" Cut="3.5404922485351562e+02" cType="1" res="4.3529332615435123e-03" rms="3.8400015234947205e-01" purity="5.1186877489089966e-01" nType="0">
          <Node pos="l" depth="2" NCoef="0" IVar="0" Cut="1.1217446289062500e+03" cType="1" res="1.5854220837354660e-02" rms="3.8085833191871643e-01" purity="5.7507824897766113e-01" nType="0">
            <Node pos="l" depth="3" NCoef="0" IVar="-1" Cut="0.0000000000000000e+00" cType="1" res="-2.8753789956681430e-04" rms="4.0640598535537720e-01" purity="2.9371920228004456e-01" nType="-99"/>
            <Node pos="r" depth="3" NCoef="0" IVar="-1" Cut="0.0000000000000000e+00" cType="1" res="1.1289451504126191e-03" rms="3.6810436844825745e-01" purity="7.0391845703125000e-01" nType="-99"/>
          </Node>
          <Node pos="r" depth="2" NCoef="0" IVar="9" Cut="-7.4256491661071777e-01" cType="1" res="-1.0079463012516499e-02" rms="3.8742390275001526e-01" purity="4.3255034089088440e-01" nType="0">
            <Node pos="l" depth="3" NCoef="0" IVar="-1" Cut="0.0000000000000000e+00" cType="1" res="-2.3832903243601322e-03" rms="3.6442559957504272e-01" purity="3.2363158464431763e-01" nType="-99"/>
            <Node pos="r" depth="3" NCoef="0" IVar="-1" Cut="0.0000000000000000e+00" cType="1" res="-1.6527241314179264e-05" rms="3.9445272088050842e-01" purity="4.6944442391395569e-01" nType="-99"/>
          </Node>
        </Node>
        <Node pos="r" depth="1" NCoef="0" IVar="-1" Cut="0.0000000000000000e+00" cType="1" res="-5.1118396222591400e-03" rms="3.1933349370956421e-01" purity="1.8793070316314697e-01" nType="-99"/>
      </Node>
    </BinaryTree>
    <BinaryTree type="DecisionTree" boostWeight="1.0000000000000000e+00" itree="694">
      <Node pos="s" depth="0" NCoef="0" IVar="2" Cut="7.6099627685546875e+02" cType="1" res="2.0861008670181036e-03" rms="3.8340115547180176e-01" purity="4.9806475639343262e-01" nType="0">
        <Node pos="l" depth="1" NCoef="0" IVar="0" Cut="1.3422633056640625e+03" cType="1" res="4.4650677591562271e-03" rms="3.8239562511444092e-01" purity="5.0170350074768066e-01" nType="0">
          <Node pos="l" depth="2" NCoef="0" IVar="2" Cut="3.4753063964843750e+02" cType="1" res="-1.0164583101868629e-02" rms="3.9431092143058777e-01" purity="3.6453929543495178e-01" nType="0">
            <Node pos="l" depth="3" NCoef="0" IVar="-1" Cut="0.0000000000000000e+00" cType="1" res="-3.1697087251814082e-05" rms="4.0689224004745483e-01" purity="4.2171868681907654e-01" nType="-99"/>
            <Node pos="r" depth="3" NCoef="0" IVar="-1" Cut="0.0000000000000000e+00" cType="1" res="-2.4556235875934362e-03" rms="3.4871211647987366e-01" purity="1.7925310134887695e-01" nType="-99"/>
          </Node>
          <Node pos="r" depth="2" NCoef="0" IVar="2" Cut="2.8020645141601562e+02" cType="1" res="1.8020754680037498e-02" rms="3.7049838900566101e-01" purity="6.2879842519760132e-01" nType="0">
            <Node pos="l" depth="3" NCoef="0" IVar="-1" Cut="0.0000000000000000e+00" cType="1" res="2.6206958573311567e-03" rms="2.7387341856956482e-01" purity="8.9413219690322876e-01" nType="-99"/>
            <Node pos="r" depth="3" NCoef="0" IVar="-1" Cut="0.0000000000000000e+00" cType="1" res="5.5699585936963558e-04" rms="3.8717138767242432e-01" purity="5.7387548685073853e-01" nType="-99"/>
          </Node>
        </Node>
        <Node pos="r" depth="1" NCoef="0" IVar="-1" Cut="0.0000000000000000e+00" cType="1" res="-5.5277126375585794e-04" rms="4.0321698784828186e-01" purity="4.0697732567787170e-01" nType="-99"/>
      </Node>
    </BinaryTree>
    <BinaryTree type="DecisionTree" boostWeight="1.0000000000000000e+00" itree="695">
      <Node pos="s" depth="0" NCoef="0" IVar="0" Cut="1.1315443115234375e+03" cType="1" res="2.9122107662260532e-03" rms="3.8482415676116943e-01" purity="5.0029653310775757e-01" nType="0">
        <Node pos="l" depth="1" NCoef="0" IVar="1" Cut="3.2640969848632812e+02" cType="1" res="-1.8432952463626862e-02" rms="3.9479562640190125e-01" purity="2.6059031486511230e-01" nType="0">
          <Node pos="l" depth="2" NCoef="0" IVar="-1" Cut="0.0000000000000000e+00" cType="1" res="-2.9631336219608784e-03" rms="3.5633239150047302e-01" purity="1.9474679231643677e-01" nType="-99"/>
          <Node pos="r" depth="2" NCoef="0" IVar="2" Cut="2.4932656860351562e+02" cType="1" res="2.4871560744941235e-03" rms="4.1293066740036011e-01" purity="2.9678604006767273e-01" nType="0">
            <Node pos="l" depth="3" NCoef="0" IVar="-1" Cut="0.0000000000000000e+00" cType="1" res="1.4000147348269820e-03" rms="4.4674548506736755e-01" purity="3.9585942029953003e-01" nType="-99"/>
            <Node pos="r" depth="3" NCoef="0" IVar="-1" Cut="0.0000000000000000e+00" cType="1" res="-1.4499134849756956e-03" rms="3.7772396206855774e-01" purity="2.0820923149585724e-01" nType="-99"/>
          </Node>
        </Node>
        <Node pos="r" depth="1" NCoef="0" IVar="3" Cut="2.4193196105957031e+02" cType="1" res="8.5097951814532280e-03" rms="3.8196879625320435e-01" purity="5.6315743923187256e-01" nType="0">
          <Node pos="l" depth="2" NCoef="0" IVar="2" Cut="3.2169879150390625e+02" cType="1" res="1.8649388104677200e-02" rms="3.7842959165573120e-01" purity="5.8339053392410278e-01" nType="0">
            <Node pos="l" depth="3" NCoef="0" IVar="-1" Cut="0.0000000000000000e+00" cType="1" res="1.3997136848047376e-03" rms="3.6208716034889221e-01" purity="7.3406404256820679e-01" nType="-99"/>
            <Node pos="r" depth="3" NCoef="0" IVar="-1" Cut="0.0000000000000000e+00" cType="1" res="2.5553090381436050e-04" rms="3.9187052845954895e-01" purity="4.4978001713752747e-01" nType="-99"/>
          </Node>
          <Node pos="r" depth="2" NCoef="0" IVar="8" Cut="-6.6672712564468384e-01" cType="1" res="-9.6733924001455307e-03" rms="3.8757091760635376e-01" purity="5.2687370777130127e-01" nType="0">
            <Node pos="l" depth="3" NCoef="0" IVar="-1" Cut="0.0000000000000000e+00" cType="1" res="-3.0659963376820087e-03" rms="3.8064092397689819e-01" purity="3.8060361146926880e-01" nType="-99"/>
            <Node pos="r" depth="3" NCoef="0" IVar="-1" Cut="0.0000000000000000e+00" cType="1" res="1.0291246871929616e-04" rms="3.8885602355003357e-01" purity="5.7083892822265625e-01" nType="-99"/>
          </Node>
        </Node>
      </Node>
    </BinaryTree>
    <BinaryTree type="DecisionTree" boostWeight="1.0000000000000000e+00" itree="696">
      <Node pos="s" depth="0" NCoef="0" IVar="0" Cut="2.1140048828125000e+03" cType="1" res="-1.1314526636851951e-04" rms="3.8390389084815979e-01" purity="4.9786627292633057e-01" nType="0">
        <Node pos="l" depth="1" NCoef="0" IVar="3" Cut="1.7338780212402344e+02" cType="1" res="-3.4583727829158306e-03" rms="3.8276880979537964e-01" purity="4.8514890670776367e-01" nType="0">
          <Node pos="l" depth="2" NCoef="0" IVar="0" Cut="1.1128918457031250e+03" cType="1" res="1.5850931406021118e-02" rms="3.9458024501800537e-01" purity="4.0955156087875366e-01" nType="0">
            <Node pos="l" depth="3" NCoef="0" IVar="-1" Cut="0.0000000000000000e+00" cType="1" res="-2.1660482161678374e-04" rms="3.9682132005691528e-01" purity="2.6168975234031677e-01" nType="-99"/>
            <Node pos="r" depth="3" NCoef="0" IVar="-1" Cut="0.0000000000000000e+00" cType="1" res="1.2707727728411555e-03" rms="3.9231503009796143e-01" purity="5.1549136638641357e-01" nType="-99"/>
          </Node>
          <Node pos="r" depth="2" NCoef="0" IVar="0" Cut="1.3443958740234375e+03" cType="1" res="-1.5106625854969025e-02" rms="3.7498348951339722e-01" purity="5.3075265884399414e-01" nType="0">
            <Node pos="l" depth="3" NCoef="0" IVar="-1" Cut="0.0000000000000000e+00" cType="1" res="-1.9109618151560426e-03" rms="3.9484643936157227e-01" purity="3.7715116143226624e-01" nType="-99"/>
            <Node pos="r" depth="3" NCoef="0" IVar="-1" Cut="0.0000000000000000e+00" cType="1" res="-9.0842760982923210e-05" rms="3.6442682147026062e-01" purity="6.0417246818542480e-01" nType="-99"/>
          </Node>
        </Node>
        <Node pos="r" depth="1" NCoef="0" IVar="3" Cut="3.4747503662109375e+02" cType="1" res="4.9333658069372177e-02" rms="3.9703267812728882e-01" purity="6.8584543466567993e-01" nType="0">
          <Node pos="l" depth="2" NCoef="0" IVar="-1" Cut="0.0000000000000000e+00" cType="1" res="3.2020737417042255e-03" rms="3.7244871258735657e-01" purity="7.7609717845916748e-01" nType="-99"/>
          <Node pos="r" depth="2" NCoef="0" IVar="-1" Cut="0.0000000000000000e+00" cType="1" res="2.4149734235834330e-04" rms="4.1859769821166992e-01" purity="5.8477073907852173e-01" nType="-99"/>
        </Node>
      </Node>
    </BinaryTree>
    <BinaryTree type="DecisionTree" boostWeight="1.0000000000000000e+00" itree="697">
      <Node pos="s" depth="0" NCoef="0" IVar="0" Cut="1.1187924804687500e+03" cType="1" res="5.9266545576974750e-04" rms="3.8510349392890930e-01" purity="4.9536857008934021e-01" nType="0">
        <Node pos="l" depth="1" NCoef="0" IVar="2" Cut="2.5274098205566406e+02" cType="1" res="-2.1547790616750717e-02" rms="3.9022704958915710e-01" purity="2.5084850192070007e-01" nType="0">
          <Node pos="l" depth="2" NCoef="0" IVar="-1" Cut="0.0000000000000000e+00" cType="1" res="-2.1146484868950211e-05" rms="4.2830798029899597e-01" purity="3.3983647823333740e-01" nType="-99"/>
          <Node pos="r" depth="2" NCoef="0" IVar="-1" Cut="0.0000000000000000e+00" cType="1" res="-2.3408450651913881e-03" rms="3.5094469785690308e-01" purity="1.6992929577827454e-01" nType="-99"/>
        </Node>
        <Node pos="r" depth="1" NCoef="0" IVar="3" Cut="1.3346768188476562e+02" cType="1" res="5.7684122584760189e-03" rms="3.8371169567108154e-01" purity="5.5252969264984131e-01" nType="0">
          <Node pos="l" depth="2" NCoef="0" IVar="8" Cut="1.3337251543998718e-01" cType="1" res="5.2300754934549332e-02" rms="4.0415504574775696e-01" purity="4.5160874724388123e-01" nType="0">
            <Node pos="l" depth="3" NCoef="0" IVar="-1" Cut="0.0000000000000000e+00" cType="1" res="2.7046729810535908e-03" rms="4.0742692351341248e-01" purity="4.7149756550788879e-01" nType="-99"/>
            <Node pos="r" depth="3" NCoef="0" IVar="-1" Cut="0.0000000000000000e+00" cType="1" res="1.3816354330629110e-03" rms="3.9947837591171265e-01" purity="4.2849805951118469e-01" nType="-99"/>
          </Node>
          <Node pos="r" depth="2" NCoef="0" IVar="2" Cut="6.6213696289062500e+02" cType="1" res="1.6811595996841788e-03" rms="3.8159275054931641e-01" purity="5.6139421463012695e-01" nType="0">
            <Node pos="l" depth="3" NCoef="0" IVar="-1" Cut="0.0000000000000000e+00" cType="1" res="2.7003526338376105e-04" rms="3.7988111376762390e-01" purity="5.7810652256011963e-01" nType="-99"/>
            <Node pos="r" depth="3" NCoef="0" IVar="-1" Cut="0.0000000000000000e+00" cType="1" res="-6.0410372680053115e-04" rms="3.9688545465469360e-01" purity="3.8201498985290527e-01" nType="-99"/>
          </Node>
        </Node>
      </Node>
    </BinaryTree>
    <BinaryTree type="DecisionTree" boostWeight="1.0000000000000000e+00" itree="698">
      <Node pos="s" depth="0" NCoef="0" IVar="7" Cut="-6.6665780544281006e-01" cType="1" res="3.1680068932473660e-03" rms="3.8327777385711670e-01" purity="5.0228577852249146e-01" nType="0">
        <Node pos="l" depth="1" NCoef="0" IVar="6" Cut="1.5700986981391907e-01" cType="1" res="-1.6778010874986649e-02" rms="3.6790147423744202e-01" purity="3.7590789794921875e-01" nType="0">
          <Node pos="l" depth="2" NCoef="0" IVar="6" Cut="-1.2272818088531494e+00" cType="1" res="-4.3812836520373821e-03" rms="3.7618520855903625e-01" purity="4.0874210000038147e-01" nType="0">
            <Node pos="l" depth="3" NCoef="0" IVar="-1" Cut="0.0000000000000000e+00" cType="1" res="-3.0700699426233768e-03" rms="3.0069920420646667e-01" purity="1.8194802105426788e-01" nType="-99"/>
            <Node pos="r" depth="3" NCoef="0" IVar="-1" Cut="0.0000000000000000e+00" cType="1" res="2.3678898287471384e-04" rms="3.9386641979217529e-01" purity="4.7100740671157837e-01" nType="-99"/>
          </Node>
          <Node pos="r" depth="2" NCoef="0" IVar="0" Cut="1.5266406250000000e+03" cType="1" res="-3.5414554178714752e-02" rms="3.5426941514015198e-01" purity="3.2654681801795959e-01" nType="0">
            <Node pos="l" depth="3" NCoef="0" IVar="-1" Cut="0.0000000000000000e+00" cType="1" res="-2.8284881263971329e-03" rms="3.4769755601882935e-01" purity="2.4281506240367889e-01" nType="-99"/>
            <Node pos="r" depth="3" NCoef="0" IVar="-1" Cut="0.0000000000000000e+00" cType="1" res="-4.8660856555216014e-04" rms="3.6610743403434753e-01" purity="5.0008082389831543e-01" nType="-99"/>
          </Node>
        </Node>
        <Node pos="r" depth="1" NCoef="0" IVar="7" Cut="3.2377359271049500e-01" cType="1" res="9.7781727090477943e-03" rms="3.8801303505897522e-01" purity="5.4416775703430176e-01" nType="0">
          <Node pos="l" depth="2" NCoef="0" IVar="0" Cut="1.1193348388671875e+03" cType="1" res="2.4052852764725685e-02" rms="3.8967683911323547e-01" purity="6.3138902187347412e-01" nType="0">
            <Node pos="l" depth="3" NCoef="0" IVar="-1" Cut="0.0000000000000000e+00" cType="1" res="-1.5461903240066022e-04" rms="4.5115184783935547e-01" purity="3.6104241013526917e-01" nType="-99"/>
            <Node pos="r" depth="3" NCoef="0" IVar="-1" Cut="0.0000000000000000e+00" cType="1" res="1.3016116572543979e-03" rms="3.7699732184410095e-01" purity="6.8129324913024902e-01" nType="-99"/>
          </Node>
          <Node pos="r" depth="2" NCoef="0" IVar="3" Cut="1.4943446350097656e+02" cType="1" res="-5.4488522000610828e-03" rms="3.8564836978912354e-01" purity="4.5112740993499756e-01" nType="0">
            <Node pos="l" depth="3" NCoef="0" IVar="-1" Cut="0.0000000000000000e+00" cType="1" res="1.5299945371225476e-03" rms="4.0298575162887573e-01" purity="3.4392267465591431e-01" nType="-99"/>
            <Node pos="r" depth="3" NCoef="0" IVar="-1" Cut="0.0000000000000000e+00" cType="1" res="-8.7639084085822105e-04" rms="3.7915709614753723e-01" purity="4.8534896969795227e-01" nType="-99"/>
          </Node>
        </Node>
      </Node>
    </BinaryTree>
    <BinaryTree type="DecisionTree" boostWeight="1.0000000000000000e+00" itree="699">
      <Node pos="s" depth="0" NCoef="0" IVar="9" Cut="-1.9998270273208618e+00" cType="1" res="2.0043784752488136e-03" rms="3.8411161303520203e-01" purity="4.9897611141204834e-01" nType="0">
        <Node pos="l" depth="1" NCoef="0" IVar="-1" Cut="0.0000000000000000e+00" cType="1" res="-4.2670415714383125e-03" rms="3.1246966123580933e-01" purity="2.0928142964839935e-01" nType="-99"/>
        <Node pos="r" depth="1" NCoef="0" IVar="9" Cut="1.8856987953186035e+00" cType="1" res="4.3576173484325409e-03" rms="3.8648718595504761e-01" purity="5.1044678688049316e-01" nType="0">
          <Node pos="l" depth="2" NCoef="0" IVar="0" Cut="1.9709241943359375e+03" cType="1" res="6.8711545318365097e-03" rms="3.8888081908226013e-01" purity="5.2560174465179443e-01" nType="0">
            <Node pos="l" depth="3" NCoef="0" IVar="-1" Cut="0.0000000000000000e+00" cType="1" res="1.3227817544247955e-04" rms="3.8807377219200134e-01" purity="5.0873351097106934e-01" nType="-99"/>
            <Node pos="r" depth="3" NCoef="0" IVar="-1" Cut="0.0000000000000000e+00" cType="1" res="1.6005018260329962e-03" rms="3.9491364359855652e-01" purity="6.8385219573974609e-01" nType="-99"/>
          </Node>
          <Node pos="r" depth="2" NCoef="0" IVar="-1" Cut="0.0000000000000000e+00" cType="1" res="-3.0501973815262318e-03" rms="3.3455121517181396e-01" purity="2.2406071424484253e-01" nType="-99"/>
        </Node>
      </Node>
    </BinaryTree>
    <BinaryTree type="DecisionTree" boostWeight="1.0000000000000000e+00" itree="700">
      <Node pos="s" depth="0" NCoef="0" IVar="0" Cut="1.7945898437500000e+03" cType="1" res="-3.6868121242150664e-04" rms="3.8174411654472351e-01" purity="4.9679726362228394e-01" nType="0">
        <Node pos="l" depth="1" NCoef="0" IVar="2" Cut="3.1630920410156250e+02" cType="1" res="-5.1692882552742958e-03" rms="3.8192188739776611e-01" purity="4.6571993827819824e-01" nType="0">
          <Node pos="l" depth="2" NCoef="0" IVar="0" Cut="1.1789005126953125e+03" cType="1" res="1.0425646789371967e-02" rms="3.8284045457839966e-01" purity="5.5391860008239746e-01" nType="0">
            <Node pos="l" depth="3" NCoef="0" IVar="-1" Cut="0.0000000000000000e+00" cType="1" res="-7.4860069435089827e-04" rms="4.0962767601013184e-01" purity="3.1887057423591614e-01" nType="-99"/>
            <Node pos="r" depth="3" NCoef="0" IVar="-1" Cut="0.0000000000000000e+00" cType="1" res="1.4820644864812493e-03" rms="3.5652896761894226e-01" purity="7.5509667396545410e-01" nType="-99"/>
          </Node>
          <Node pos="r" depth="2" NCoef="0" IVar="0" Cut="1.6163587646484375e+03" cType="1" res="-2.1534619852900505e-02" rms="3.8026845455169678e-01" purity="3.7316414713859558e-01" nType="0">
            <Node pos="l" depth="3" NCoef="0" IVar="-1" Cut="0.0000000000000000e+00" cType="1" res="-1.5355850337073207e-03" rms="3.7712243199348450e-01" purity="3.2330310344696045e-01" nType="-99"/>
            <Node pos="r" depth="3" NCoef="0" IVar="-1" Cut="0.0000000000000000e+00" cType="1" res="8.1124380812980235e-05" rms="3.9093440771102905e-01" purity="5.5950176715850830e-01" nType="-99"/>
          </Node>
        </Node>
        <Node pos="r" depth="1" NCoef="0" IVar="2" Cut="7.7268591308593750e+02" cType="1" res="2.5994876399636269e-02" rms="3.7968602776527405e-01" purity="6.6746509075164795e-01" nType="0">
          <Node pos="l" depth="2" NCoef="0" IVar="0" Cut="2.1947475585937500e+03" cType="1" res="3.9946902543306351e-02" rms="3.6622771620750427e-01" purity="7.1962368488311768e-01" nType="0">
            <Node pos="l" depth="3" NCoef="0" IVar="-1" Cut="0.0000000000000000e+00" cType="1" res="1.3313414528965950e-03" rms="3.6340504884719849e-01" purity="7.0568829774856567e-01" nType="-99"/>
            <Node pos="r" depth="3" NCoef="0" IVar="-1" Cut="0.0000000000000000e+00" cType="1" res="3.3397269435226917e-03" rms="3.7240824103355408e-01" purity="7.6965761184692383e-01" nType="-99"/>
          </Node>
          <Node pos="r" depth="2" NCoef="0" IVar="-1" Cut="0.0000000000000000e+00" cType="1" res="-1.2385782320052385e-03" rms="4.2303246259689331e-01" purity="4.6802556514739990e-01" nType="-99"/>
        </Node>
      </Node>
    </BinaryTree>
    <BinaryTree type="DecisionTree" boostWeight="1.0000000000000000e+00" itree="701">
      <Node pos="s" depth="0" NCoef="0" IVar="7" Cut="6.6657239198684692e-01" cType="1" res="3.2378386240452528e-03" rms="3.8556578755378723e-01" purity="5.0138795375823975e-01" nType="0">
        <Node pos="l" depth="1" NCoef="0" IVar="9" Cut="9.3336170911788940e-01" cType="1" res="1.0698085650801659e-02" rms="3.8853517174720764e-01" purity="5.4438722133636475e-01" nType="0">
          <Node pos="l" depth="2" NCoef="0" IVar="9" Cut="-8.4433335065841675e-01" cType="1" res="1.6910223290324211e-02" rms="3.8910391926765442e-01" purity="5.6815260648727417e-01" nType="0">
            <Node pos="l" depth="3" NCoef="0" IVar="-1" Cut="0.0000000000000000e+00" cType="1" res="-2.5914970319718122e-04" rms="3.8478156924247742e-01" purity="4.3397814035415649e-01" nType="-99"/>
            <Node pos="r" depth="3" NCoef="0" IVar="-1" Cut="0.0000000000000000e+00" cType="1" res="1.0984891559928656e-03" rms="3.9048159122467041e-01" purity="6.2215232849121094e-01" nType="-99"/>
          </Node>
          <Node pos="r" depth="2" NCoef="0" IVar="7" Cut="-3.2339036464691162e-01" cType="1" res="-1.7421798780560493e-02" rms="3.8469743728637695e-01" purity="4.3681082129478455e-01" nType="0">
            <Node pos="l" depth="3" NCoef="0" IVar="-1" Cut="0.0000000000000000e+00" cType="1" res="-2.3002249654382467e-03" rms="3.6336448788642883e-01" purity="3.4667280316352844e-01" nType="-99"/>
            <Node pos="r" depth="3" NCoef="0" IVar="-1" Cut="0.0000000000000000e+00" cType="1" res="7.2720667958492413e-06" rms="4.0154030919075012e-01" purity="5.1536089181900024e-01" nType="-99"/>
          </Node>
        </Node>
        <Node pos="r" depth="1" NCoef="0" IVar="3" Cut="1.2761028289794922e+02" cType="1" res="-2.0096627995371819e-02" rms="3.7517029047012329e-01" purity="3.6689326167106628e-01" nType="0">
          <Node pos="l" depth="2" NCoef="0" IVar="-1" Cut="0.0000000000000000e+00" cType="1" res="1.6506104730069637e-03" rms="3.7586101889610291e-01" purity="2.4560452997684479e-01" nType="-99"/>
          <Node pos="r" depth="2" NCoef="0" IVar="0" Cut="1.3547593994140625e+03" cType="1" res="-2.8803478926420212e-02" rms="3.7438526749610901e-01" purity="3.8885533809661865e-01" nType="0">
            <Node pos="l" depth="3" NCoef="0" IVar="-1" Cut="0.0000000000000000e+00" cType="1" res="-2.8698828537017107e-03" rms="3.6793068051338196e-01" purity="2.5161832571029663e-01" nType="-99"/>
            <Node pos="r" depth="3" NCoef="0" IVar="-1" Cut="0.0000000000000000e+00" cType="1" res="-5.3784484043717384e-04" rms="3.7839597463607788e-01" purity="4.9819701910018921e-01" nType="-99"/>
          </Node>
        </Node>
      </Node>
    </BinaryTree>
    <BinaryTree type="DecisionTree" boostWeight="1.0000000000000000e+00" itree="702">
      <Node pos="s" depth="0" NCoef="0" IVar="2" Cut="8.1617486572265625e+02" cType="1" res="1.6588678117841482e-03" rms="3.8403990864753723e-01" purity="4.9839103221893311e-01" nType="0">
        <Node pos="l" depth="1" NCoef="0" IVar="0" Cut="1.9058825683593750e+03" cType="1" res="3.8857182953506708e-03" rms="3.8296118378639221e-01" purity="5.0128126144409180e-01" nType="0">
          <Node pos="l" depth="2" NCoef="0" IVar="2" Cut="2.5868310546875000e+02" cType="1" res="-5.4466328583657742e-04" rms="3.8301509618759155e-01" purity="4.7965800762176514e-01" nType="0">
            <Node pos="l" depth="3" NCoef="0" IVar="-1" Cut="0.0000000000000000e+00" cType="1" res="9.5497717848047614e-04" rms="3.8145422935485840e-01" purity="5.8158022165298462e-01" nType="-99"/>
            <Node pos="r" depth="3" NCoef="0" IVar="-1" Cut="0.0000000000000000e+00" cType="1" res="-4.5369565486907959e-04" rms="3.8322147727012634e-01" purity="4.4364920258522034e-01" nType="-99"/>
          </Node>
          <Node pos="r" depth="2" NCoef="0" IVar="3" Cut="3.1145327758789062e+02" cType="1" res="4.9103729426860809e-02" rms="3.7946385145187378e-01" purity="7.2197562456130981e-01" nType="0">
            <Node pos="l" depth="3" NCoef="0" IVar="-1" Cut="0.0000000000000000e+00" cType="1" res="3.1766742467880249e-03" rms="3.4581089019775391e-01" purity="8.1489557027816772e-01" nType="-99"/>
            <Node pos="r" depth="3" NCoef="0" IVar="-1" Cut="0.0000000000000000e+00" cType="1" res="9.5430185319855809e-04" rms="4.0825578570365906e-01" purity="6.2970936298370361e-01" nType="-99"/>
          </Node>
        </Node>
        <Node pos="r" depth="1" NCoef="0" IVar="-1" Cut="0.0000000000000000e+00" cType="1" res="-5.5278820218518376e-04" rms="4.1207504272460938e-01" purity="3.9959397912025452e-01" nType="-99"/>
      </Node>
    </BinaryTree>
    <BinaryTree type="DecisionTree" boostWeight="1.0000000000000000e+00" itree="703">
      <Node pos="s" depth="0" NCoef="0" IVar="8" Cut="-9.3334555625915527e-01" cType="1" res="1.1343618389219046e-03" rms="3.8523784279823303e-01" purity="4.9797749519348145e-01" nType="0">
        <Node pos="l" depth="1" NCoef="0" IVar="2" Cut="3.1314364624023438e+02" cType="1" res="-2.1444726735353470e-02" rms="3.6648234724998474e-01" purity="3.4521082043647766e-01" nType="0">
          <Node pos="l" depth="2" NCoef="0" IVar="-1" Cut="0.0000000000000000e+00" cType="1" res="-2.0215286349412054e-04" rms="3.7746679782867432e-01" purity="4.3092933297157288e-01" nType="-99"/>
          <Node pos="r" depth="2" NCoef="0" IVar="4" Cut="1.7756979370117188e+02" cType="1" res="-3.4973829984664917e-02" rms="3.5696661472320557e-01" purity="2.7734464406967163e-01" nType="0">
            <Node pos="l" depth="3" NCoef="0" IVar="-1" Cut="0.0000000000000000e+00" cType="1" res="-1.7907784786075354e-03" rms="3.4844276309013367e-01" purity="2.4474376440048218e-01" nType="-99"/>
            <Node pos="r" depth="3" NCoef="0" IVar="-1" Cut="0.0000000000000000e+00" cType="1" res="-3.8743673358112574e-03" rms="3.7910127639770508e-01" purity="3.7165808677673340e-01" nType="-99"/>
          </Node>
        </Node>
        <Node pos="r" depth="1" NCoef="0" IVar="8" Cut="4.8887684941291809e-01" cType="1" res="6.2913461588323116e-03" rms="3.8921111822128296e-01" purity="5.3286892175674438e-01" nType="0">
          <Node pos="l" depth="2" NCoef="0" IVar="9" Cut="1.7332874536514282e+00" cType="1" res="1.5805907547473907e-02" rms="3.9253285527229309e-01" purity="5.9526956081390381e-01" nType="0">
            <Node pos="l" depth="3" NCoef="0" IVar="-1" Cut="0.0000000000000000e+00" cType="1" res="8.2148466026410460e-04" rms="3.9297893643379211e-01" purity="6.1093616485595703e-01" nType="-99"/>
            <Node pos="r" depth="3" NCoef="0" IVar="-1" Cut="0.0000000000000000e+00" cType="1" res="-2.2766718175262213e-03" rms="3.7969845533370972e-01" purity="3.2216012477874756e-01" nType="-99"/>
          </Node>
          <Node pos="r" depth="2" NCoef="0" IVar="9" Cut="-1.1998772621154785e+00" cType="1" res="-8.5216015577316284e-03" rms="3.8351291418075562e-01" purity="4.3571910262107849e-01" nType="0">
            <Node pos="l" depth="3" NCoef="0" IVar="-1" Cut="0.0000000000000000e+00" cType="1" res="-2.7092669624835253e-03" rms="3.5296803712844849e-01" purity="2.6630684733390808e-01" nType="-99"/>
            <Node pos="r" depth="3" NCoef="0" IVar="-1" Cut="0.0000000000000000e+00" cType="1" res="-1.9970719586126506e-04" rms="3.8720029592514038e-01" purity="4.5838588476181030e-01" nType="-99"/>
          </Node>
        </Node>
      </Node>
    </BinaryTree>
    <BinaryTree type="DecisionTree" boostWeight="1.0000000000000000e+00" itree="704">
      <Node pos="s" depth="0" NCoef="0" IVar="0" Cut="1.1202050781250000e+03" cType="1" res="3.6451034247875214e-03" rms="3.8487741351127625e-01" purity="5.0095385313034058e-01" nType="0">
        <Node pos="l" depth="1" NCoef="0" IVar="7" Cut="-6.6669929027557373e-01" cType="1" res="-2.0651914179325104e-02" rms="3.9088961482048035e-01" purity="2.5300151109695435e-01" nType="0">
          <Node pos="l" depth="2" NCoef="0" IVar="-1" Cut="0.0000000000000000e+00" cType="1" res="-3.1440935563296080e-03" rms="3.3610689640045166e-01" purity="1.5282480418682098e-01" nType="-99"/>
          <Node pos="r" depth="2" NCoef="0" IVar="1" Cut="3.4042300415039062e+02" cType="1" res="-9.1413818299770355e-03" rms="4.1041061282157898e-01" purity="2.9350391030311584e-01" nType="0">
            <Node pos="l" depth="3" NCoef="0" IVar="-1" Cut="0.0000000000000000e+00" cType="1" res="-1.4491577167063951e-03" rms="3.8421294093132019e-01" purity="2.4393613636493683e-01" nType="-99"/>
            <Node pos="r" depth="3" NCoef="0" IVar="-1" Cut="0.0000000000000000e+00" cType="1" res="6.4940738957375288e-04" rms="4.3450817465782166e-01" purity="3.4483137726783752e-01" nType="-99"/>
          </Node>
        </Node>
        <Node pos="r" depth="1" NCoef="0" IVar="3" Cut="1.4918151855468750e+02" cType="1" res="9.5834676176309586e-03" rms="3.8315939903259277e-01" purity="5.6155520677566528e-01" nType="0">
          <Node pos="l" depth="2" NCoef="0" IVar="2" Cut="4.5457522583007812e+02" cType="1" res="4.7023024410009384e-02" rms="3.9900758862495422e-01" purity="4.8888725042343140e-01" nType="0">
            <Node pos="l" depth="3" NCoef="0" IVar="-1" Cut="0.0000000000000000e+00" cType="1" res="2.4918070994317532e-03" rms="4.0525534749031067e-01" purity="5.8156102895736694e-01" nType="-99"/>
            <Node pos="r" depth="3" NCoef="0" IVar="-1" Cut="0.0000000000000000e+00" cType="1" res="4.6667005517520010e-04" rms="3.8503509759902954e-01" purity="3.2755511999130249e-01" nType="-99"/>
          </Node>
          <Node pos="r" depth="2" NCoef="0" IVar="2" Cut="5.0809405517578125e+02" cType="1" res="3.7325129378587008e-03" rms="3.8029021024703979e-01" purity="5.7291150093078613e-01" nType="0">
            <Node pos="l" depth="3" NCoef="0" IVar="-1" Cut="0.0000000000000000e+00" cType="1" res="5.1928631728515029e-04" rms="3.7802156805992126e-01" purity="6.2338495254516602e-01" nType="-99"/>
            <Node pos="r" depth="3" NCoef="0" IVar="-1" Cut="0.0000000000000000e+00" cType="1" res="-1.3180872192606330e-03" rms="3.8751161098480225e-01" purity="3.8175377249717712e-01" nType="-99"/>
          </Node>
        </Node>
      </Node>
    </BinaryTree>
    <BinaryTree type="DecisionTree" boostWeight="1.0000000000000000e+00" itree="705">
      <Node pos="s" depth="0" NCoef="0" IVar="0" Cut="2.1260944824218750e+03" cType="1" res="-3.5058439243584871e-03" rms="3.8119763135910034e-01" purity="4.9391612410545349e-01" nType="0">
        <Node pos="l" depth="1" NCoef="0" IVar="2" Cut="2.9874630737304688e+02" cType="1" res="-6.3536455854773521e-03" rms="3.7956425547599792e-01" purity="4.8260465264320374e-01" nType="0">
          <Node pos="l" depth="2" NCoef="0" IVar="0" Cut="1.2411842041015625e+03" cType="1" res="1.1745516210794449e-02" rms="3.7714082002639771e-01" purity="5.7237643003463745e-01" nType="0">
            <Node pos="l" depth="3" NCoef="0" IVar="-1" Cut="0.0000000000000000e+00" cType="1" res="-4.0750662446953356e-04" rms="4.1333273053169250e-01" purity="3.7803441286087036e-01" nType="-99"/>
            <Node pos="r" depth="3" NCoef="0" IVar="-1" Cut="0.0000000000000000e+00" cType="1" res="1.8665033858269453e-03" rms="3.2196241617202759e-01" purity="8.2487803697586060e-01" nType="-99"/>
          </Node>
          <Node pos="r" depth="2" NCoef="0" IVar="0" Cut="1.3237329101562500e+03" cType="1" res="-1.9065463915467262e-02" rms="3.8074314594268799e-01" purity="4.1955411434173584e-01" nType="0">
            <Node pos="l" depth="3" NCoef="0" IVar="-1" Cut="0.0000000000000000e+00" cType="1" res="-2.1781281102448702e-03" rms="3.6248135566711426e-01" purity="2.1899762749671936e-01" nType="-99"/>
            <Node pos="r" depth="3" NCoef="0" IVar="-1" Cut="0.0000000000000000e+00" cType="1" res="-5.0516589544713497e-04" rms="3.8843587040901184e-01" purity="5.1116394996643066e-01" nType="-99"/>
          </Node>
        </Node>
        <Node pos="r" depth="1" NCoef="0" IVar="3" Cut="3.4722357177734375e+02" cType="1" res="4.1676685214042664e-02" rms="4.0355435013771057e-01" purity="6.7338061332702637e-01" nType="0">
          <Node pos="l" depth="2" NCoef="0" IVar="-1" Cut="0.0000000000000000e+00" cType="1" res="2.8494957368820906e-03" rms="3.8541013002395630e-01" purity="7.6366996765136719e-01" nType="-99"/>
          <Node pos="r" depth="2" NCoef="0" IVar="-1" Cut="0.0000000000000000e+00" cType="1" res="5.8354555221740156e-05" rms="4.1909524798393250e-01" purity="5.7328546047210693e-01" nType="-99"/>
        </Node>
      </Node>
    </BinaryTree>
    <BinaryTree type="DecisionTree" boostWeight="1.0000000000000000e+00" itree="706">
      <Node pos="s" depth="0" NCoef="0" IVar="3" Cut="2.1928494262695312e+02" cType="1" res="6.9974921643733978e-03" rms="3.8296529650688171e-01" purity="5.0519722700119019e-01" nType="0">
        <Node pos="l" depth="1" NCoef="0" IVar="9" Cut="-1.4665119647979736e+00" cType="1" res="1.6483426094055176e-02" rms="3.8314917683601379e-01" purity="4.8225688934326172e-01" nType="0">
          <Node pos="l" depth="2" NCoef="0" IVar="6" Cut="-7.5629122555255890e-02" cType="1" res="-2.7035515755414963e-02" rms="3.3698561787605286e-01" purity="2.7301463484764099e-01" nType="0">
            <Node pos="l" depth="3" NCoef="0" IVar="-1" Cut="0.0000000000000000e+00" cType="1" res="-3.9808629662729800e-04" rms="3.3869248628616333e-01" purity="2.8093510866165161e-01" nType="-99"/>
            <Node pos="r" depth="3" NCoef="0" IVar="-1" Cut="0.0000000000000000e+00" cType="1" res="-3.0541385058313608e-03" rms="3.3376747369766235e-01" purity="2.6470938324928284e-01" nType="-99"/>
          </Node>
          <Node pos="r" depth="2" NCoef="0" IVar="0" Cut="1.2709145507812500e+03" cType="1" res="2.1378079429268837e-02" rms="3.8769230246543884e-01" purity="5.0579077005386353e-01" nType="0">
            <Node pos="l" depth="3" NCoef="0" IVar="-1" Cut="0.0000000000000000e+00" cType="1" res="4.0722565609030426e-04" rms="4.0778124332427979e-01" purity="3.7187820672988892e-01" nType="-99"/>
            <Node pos="r" depth="3" NCoef="0" IVar="-1" Cut="0.0000000000000000e+00" cType="1" res="1.5925840707495809e-03" rms="3.6220976710319519e-01" purity="6.6302478313446045e-01" nType="-99"/>
          </Node>
        </Node>
        <Node pos="r" depth="1" NCoef="0" IVar="0" Cut="1.5789721679687500e+03" cType="1" res="-8.0168778076767921e-03" rms="3.8219311833381653e-01" purity="5.4150730371475220e-01" nType="0">
          <Node pos="l" depth="2" NCoef="0" IVar="5" Cut="1.0674700927734375e+02" cType="1" res="-2.8509529307484627e-02" rms="3.8777303695678711e-01" purity="4.2934313416481018e-01" nType="0">
            <Node pos="l" depth="3" NCoef="0" IVar="-1" Cut="0.0000000000000000e+00" cType="1" res="-2.0800819038413465e-04" rms="3.8361731171607971e-01" purity="3.4289005398750305e-01" nType="-99"/>
            <Node pos="r" depth="3" NCoef="0" IVar="-1" Cut="0.0000000000000000e+00" cType="1" res="-3.0648233368992805e-03" rms="3.9071500301361084e-01" purity="5.3912699222564697e-01" nType="-99"/>
          </Node>
          <Node pos="r" depth="2" NCoef="0" IVar="2" Cut="6.2895367431640625e+02" cType="1" res="7.4766464531421661e-03" rms="3.7718129158020020e-01" purity="6.2630927562713623e-01" nType="0">
            <Node pos="l" depth="3" NCoef="0" IVar="-1" Cut="0.0000000000000000e+00" cType="1" res="1.0991542367264628e-03" rms="3.7096729874610901e-01" purity="6.9754475355148315e-01" nType="-99"/>
            <Node pos="r" depth="3" NCoef="0" IVar="-1" Cut="0.0000000000000000e+00" cType="1" res="-2.6384743396192789e-03" rms="3.9314216375350952e-01" purity="3.7947180867195129e-01" nType="-99"/>
          </Node>
        </Node>
      </Node>
    </BinaryTree>
    <BinaryTree type="DecisionTree" boostWeight="1.0000000000000000e+00" itree="707">
      <Node pos="s" depth="0" NCoef="0" IVar="0" Cut="2.0593933105468750e+03" cType="1" res="2.8159921057522297e-03" rms="3.8253870606422424e-01" purity="5.0534349679946899e-01" nType="0">
        <Node pos="l" depth="1" NCoef="0" IVar="2" Cut="3.3477420043945312e+02" cType="1" res="-1.6824065824039280e-04" rms="3.8129016757011414e-01" purity="4.9193319678306580e-01" nType="0">
          <Node pos="l" depth="2" NCoef="0" IVar="0" Cut="1.2196593017578125e+03" cType="1" res="1.2948954477906227e-02" rms="3.8036972284317017e-01" purity="5.7045549154281616e-01" nType="0">
            <Node pos="l" depth="3" NCoef="0" IVar="-1" Cut="0.0000000000000000e+00" cType="1" res="-4.2697656317614019e-04" rms="4.0976151823997498e-01" purity="3.5036250948905945e-01" nType="-99"/>
            <Node pos="r" depth="3" NCoef="0" IVar="-1" Cut="0.0000000000000000e+00" cType="1" res="1.5414840308949351e-03" rms="3.4936124086380005e-01" purity="7.7571570873260498e-01" nType="-99"/>
          </Node>
          <Node pos="r" depth="2" NCoef="0" IVar="2" Cut="6.8132092285156250e+02" cType="1" res="-1.5410831198096275e-02" rms="3.8179126381874084e-01" purity="4.0068781375885010e-01" nType="0">
            <Node pos="l" depth="3" NCoef="0" IVar="-1" Cut="0.0000000000000000e+00" cType="1" res="-5.9653870994225144e-04" rms="3.8300433754920959e-01" purity="4.1306954622268677e-01" nType="-99"/>
            <Node pos="r" depth="3" NCoef="0" IVar="-1" Cut="0.0000000000000000e+00" cType="1" res="-5.6972383754327893e-04" rms="3.5870638489723206e-01" purity="2.2187349200248718e-01" nType="-99"/>
          </Node>
        </Node>
        <Node pos="r" depth="1" NCoef="0" IVar="3" Cut="3.4747503662109375e+02" cType="1" res="4.1204620152711868e-02" rms="3.9625161886215210e-01" purity="6.7785120010375977e-01" nType="0">
          <Node pos="l" depth="2" NCoef="0" IVar="-1" Cut="0.0000000000000000e+00" cType="1" res="2.7122534811496735e-03" rms="3.7183833122253418e-01" purity="7.6284295320510864e-01" nType="-99"/>
          <Node pos="r" depth="2" NCoef="0" IVar="-1" Cut="0.0000000000000000e+00" cType="1" res="1.4107402239460498e-04" rms="4.2161583900451660e-01" purity="5.7217687368392944e-01" nType="-99"/>
        </Node>
      </Node>
    </BinaryTree>
    <BinaryTree type="DecisionTree" boostWeight="1.0000000000000000e+00" itree="708">
      <Node pos="s" depth="0" NCoef="0" IVar="7" Cut="-1.9999682903289795e+00" cType="1" res="5.2331811748445034e-03" rms="3.8586959242820740e-01" purity="5.0338828563690186e-01" nType="0">
        <Node pos="l" depth="1" NCoef="0" IVar="-1" Cut="0.0000000000000000e+00" cType="1" res="-5.2740680985152721e-03" rms="2.8922387957572937e-01" purity="1.3883917033672333e-01" nType="-99"/>
        <Node pos="r" depth="1" NCoef="0" IVar="2" Cut="3.7131011962890625e+02" cType="1" res="7.2632194496691227e-03" rms="3.8838338851928711e-01" purity="5.1500856876373291e-01" nType="0">
          <Node pos="l" depth="2" NCoef="0" IVar="5" Cut="9.0168861389160156e+01" cType="1" res="1.6942398622632027e-02" rms="3.8448405265808105e-01" purity="5.7236659526824951e-01" nType="0">
            <Node pos="l" depth="3" NCoef="0" IVar="-1" Cut="0.0000000000000000e+00" cType="1" res="1.4503599377349019e-03" rms="4.1125631332397461e-01" purity="3.8340795040130615e-01" nType="-99"/>
            <Node pos="r" depth="3" NCoef="0" IVar="-1" Cut="0.0000000000000000e+00" cType="1" res="2.9220711439847946e-04" rms="3.6667993664741516e-01" purity="6.8853884935379028e-01" nType="-99"/>
          </Node>
          <Node pos="r" depth="2" NCoef="0" IVar="0" Cut="2.2095356445312500e+03" cType="1" res="-7.3360600508749485e-03" rms="3.9374202489852905e-01" purity="4.2849445343017578e-01" nType="0">
            <Node pos="l" depth="3" NCoef="0" IVar="-1" Cut="0.0000000000000000e+00" cType="1" res="-6.7445804597809911e-04" rms="3.9105126261711121e-01" purity="3.9967539906501770e-01" nType="-99"/>
            <Node pos="r" depth="3" NCoef="0" IVar="-1" Cut="0.0000000000000000e+00" cType="1" res="1.4696615980938077e-03" rms="4.1209793090820312e-01" purity="6.6123342514038086e-01" nType="-99"/>
          </Node>
        </Node>
      </Node>
    </BinaryTree>
    <BinaryTree type="DecisionTree" boostWeight="1.0000000000000000e+00" itree="709">
      <Node pos="s" depth="0" NCoef="0" IVar="2" Cut="5.4261816406250000e+02" cType="1" res="3.1196768395602703e-03" rms="3.8210177421569824e-01" purity="5.0245970487594604e-01" nType="0">
        <Node pos="l" depth="1" NCoef="0" IVar="0" Cut="1.6373187255859375e+03" cType="1" res="8.5366321727633476e-03" rms="3.8156750798225403e-01" purity="5.2492606639862061e-01" nType="0">
          <Node pos="l" depth="2" NCoef="0" IVar="3" Cut="1.9046176147460938e+02" cType="1" res="2.1988060325384140e-03" rms="3.9016458392143250e-01" purity="4.6952402591705322e-01" nType="0">
            <Node pos="l" depth="3" NCoef="0" IVar="-1" Cut="0.0000000000000000e+00" cType="1" res="7.4379239231348038e-04" rms="3.9306408166885376e-01" purity="4.3896219134330750e-01" nType="-99"/>
            <Node pos="r" depth="3" NCoef="0" IVar="-1" Cut="0.0000000000000000e+00" cType="1" res="-7.9858262324705720e-04" rms="3.8569441437721252e-01" purity="5.0774604082107544e-01" nType="-99"/>
          </Node>
          <Node pos="r" depth="2" NCoef="0" IVar="4" Cut="2.3083744812011719e+02" cType="1" res="3.8883022964000702e-02" rms="3.3572736382484436e-01" purity="7.9019868373870850e-01" nType="0">
            <Node pos="l" depth="3" NCoef="0" IVar="-1" Cut="0.0000000000000000e+00" cType="1" res="2.6884935796260834e-03" rms="3.1874415278434753e-01" purity="8.2494461536407471e-01" nType="-99"/>
            <Node pos="r" depth="3" NCoef="0" IVar="-1" Cut="0.0000000000000000e+00" cType="1" res="-2.0594490342773497e-04" rms="3.7075364589691162e-01" purity="7.0468759536743164e-01" nType="-99"/>
          </Node>
        </Node>
        <Node pos="r" depth="1" NCoef="0" IVar="0" Cut="2.0495822753906250e+03" cType="1" res="-3.0620004981756210e-02" rms="3.8369518518447876e-01" purity="3.6252745985984802e-01" nType="0">
          <Node pos="l" depth="2" NCoef="0" IVar="2" Cut="6.8565795898437500e+02" cType="1" res="-5.3103893995285034e-02" rms="3.6051383614540100e-01" purity="2.4048283696174622e-01" nType="0">
            <Node pos="l" depth="3" NCoef="0" IVar="-1" Cut="0.0000000000000000e+00" cType="1" res="-2.6345853693783283e-03" rms="3.6131131649017334e-01" purity="2.6358395814895630e-01" nType="-99"/>
            <Node pos="r" depth="3" NCoef="0" IVar="-1" Cut="0.0000000000000000e+00" cType="1" res="-6.9201615406200290e-04" rms="3.5462719202041626e-01" purity="1.8140111863613129e-01" nType="-99"/>
          </Node>
          <Node pos="r" depth="2" NCoef="0" IVar="-1" Cut="0.0000000000000000e+00" cType="1" res="4.0213702595792711e-04" rms="4.1955405473709106e-01" purity="5.8464813232421875e-01" nType="-99"/>
        </Node>
      </Node>
    </BinaryTree>
    <BinaryTree type="DecisionTree" boostWeight="1.0000000000000000e+00" itree="710">
      <Node pos="s" depth="0" NCoef="0" IVar="2" Cut="7.5674328613281250e+02" cType="1" res="4.1714869439601898e-03" rms="3.8587275147438049e-01" purity="4.9984690546989441e-01" nType="0">
        <Node pos="l" depth="1" NCoef="0" IVar="0" Cut="1.7037537841796875e+03" cType="1" res="6.6927741281688213e-03" rms="3.8490331172943115e-01" purity="5.0366878509521484e-01" nType="0">
          <Node pos="l" depth="2" NCoef="0" IVar="2" Cut="2.7953811645507812e+02" cType="1" res="1.1281312908977270e-03" rms="3.8772496581077576e-01" purity="4.6151164174079895e-01" nType="0">
            <Node pos="l" depth="3" NCoef="0" IVar="-1" Cut="0.0000000000000000e+00" cType="1" res="8.7795488070696592e-04" rms="3.8555902242660522e-01" purity="5.7101553678512573e-01" nType="-99"/>
            <Node pos="r" depth="3" NCoef="0" IVar="-1" Cut="0.0000000000000000e+00" cType="1" res="-5.7799549540504813e-04" rms="3.8855132460594177e-01" purity="3.9284792542457581e-01" nType="-99"/>
          </Node>
          <Node pos="r" depth="2" NCoef="0" IVar="1" Cut="4.5286877441406250e+02" cType="1" res="3.3396065235137939e-02" rms="3.6990150809288025e-01" purity="7.0596987009048462e-01" nType="0">
            <Node pos="l" depth="3" NCoef="0" IVar="-1" Cut="0.0000000000000000e+00" cType="1" res="3.0821950640529394e-03" rms="3.8436001539230347e-01" purity="6.2967967987060547e-01" nType="-99"/>
            <Node pos="r" depth="3" NCoef="0" IVar="-1" Cut="0.0000000000000000e+00" cType="1" res="7.0578121813014150e-04" rms="3.6091315746307373e-01" purity="7.4417454004287720e-01" nType="-99"/>
          </Node>
        </Node>
        <Node pos="r" depth="1" NCoef="0" IVar="-1" Cut="0.0000000000000000e+00" cType="1" res="-3.0279025668278337e-04" rms="4.0273466706275940e-01" purity="4.1514617204666138e-01" nType="-99"/>
      </Node>
    </BinaryTree>
    <BinaryTree type="DecisionTree" boostWeight="1.0000000000000000e+00" itree="711">
      <Node pos="s" depth="0" NCoef="0" IVar="2" Cut="8.0937670898437500e+02" cType="1" res="2.1993883419781923e-03" rms="3.8528865575790405e-01" purity="4.9844849109649658e-01" nType="0">
        <Node pos="l" depth="1" NCoef="0" IVar="0" Cut="1.7010140380859375e+03" cType="1" res="4.0393196977674961e-03" rms="3.8428369164466858e-01" purity="5.0087457895278931e-01" nType="0">
          <Node pos="l" depth="2" NCoef="0" IVar="2" Cut="2.5802722167968750e+02" cType="1" res="-1.7796016763895750e-03" rms="3.8815170526504517e-01" purity="4.5715931057929993e-01" nType="0">
            <Node pos="l" depth="3" NCoef="0" IVar="-1" Cut="0.0000000000000000e+00" cType="1" res="8.9952198322862387e-04" rms="3.8636326789855957e-01" purity="5.7574713230133057e-01" nType="-99"/>
            <Node pos="r" depth="3" NCoef="0" IVar="-1" Cut="0.0000000000000000e+00" cType="1" res="-5.6176306679844856e-04" rms="3.8844686746597290e-01" purity="4.1014853119850159e-01" nType="-99"/>
          </Node>
          <Node pos="r" depth="2" NCoef="0" IVar="1" Cut="6.1436932373046875e+02" cType="1" res="2.9769258573651314e-02" rms="3.6558294296264648e-01" purity="6.9417351484298706e-01" nType="0">
            <Node pos="l" depth="3" NCoef="0" IVar="-1" Cut="0.0000000000000000e+00" cType="1" res="2.0921698305755854e-03" rms="3.6518844962120056e-01" purity="6.6667395830154419e-01" nType="-99"/>
            <Node pos="r" depth="3" NCoef="0" IVar="-1" Cut="0.0000000000000000e+00" cType="1" res="-2.4168401432689279e-04" rms="3.6407551169395447e-01" purity="7.5498569011688232e-01" nType="-99"/>
          </Node>
        </Node>
        <Node pos="r" depth="1" NCoef="0" IVar="-1" Cut="0.0000000000000000e+00" cType="1" res="-4.4803094351664186e-04" rms="4.1273006796836853e-01" purity="4.1760897636413574e-01" nType="-99"/>
      </Node>
    </BinaryTree>
    <BinaryTree type="DecisionTree" boostWeight="1.0000000000000000e+00" itree="712">
      <Node pos="s" depth="0" NCoef="0" IVar="9" Cut="-9.3329143524169922e-01" cType="1" res="2.2159169893711805e-03" rms="3.8474655151367188e-01" purity="4.9905520677566528e-01" nType="0">
        <Node pos="l" depth="1" NCoef="0" IVar="7" Cut="-6.6673022508621216e-01" cType="1" res="-2.3110697045922279e-02" rms="3.6796799302101135e-01" purity="3.7626266479492188e-01" nType="0">
          <Node pos="l" depth="2" NCoef="0" IVar="4" Cut="1.2886529541015625e+02" cType="1" res="-4.9056917428970337e-02" rms="3.3540526032447815e-01" purity="2.4583482742309570e-01" nType="0">
            <Node pos="l" depth="3" NCoef="0" IVar="-1" Cut="0.0000000000000000e+00" cType="1" res="-1.7359567573294044e-03" rms="3.2223445177078247e-01" purity="1.9117046892642975e-01" nType="-99"/>
            <Node pos="r" depth="3" NCoef="0" IVar="-1" Cut="0.0000000000000000e+00" cType="1" res="-4.9766176380217075e-03" rms="3.4757182002067566e-01" purity="3.0765658617019653e-01" nType="-99"/>
          </Node>
          <Node pos="r" depth="2" NCoef="0" IVar="6" Cut="4.3415665626525879e-01" cType="1" res="-1.1167596094310284e-02" rms="3.8143229484558105e-01" purity="4.3629884719848633e-01" nType="0">
            <Node pos="l" depth="3" NCoef="0" IVar="-1" Cut="0.0000000000000000e+00" cType="1" res="2.2436139988712966e-04" rms="3.8734614849090576e-01" purity="4.8220553994178772e-01" nType="-99"/>
            <Node pos="r" depth="3" NCoef="0" IVar="-1" Cut="0.0000000000000000e+00" cType="1" res="-2.9227063059806824e-03" rms="3.6372449994087219e-01" purity="3.2409340143203735e-01" nType="-99"/>
          </Node>
        </Node>
        <Node pos="r" depth="1" NCoef="0" IVar="9" Cut="3.1111881136894226e-01" cType="1" res="8.4174685180187225e-03" rms="3.8849309086799622e-01" purity="5.2912259101867676e-01" nType="0">
          <Node pos="l" depth="2" NCoef="0" IVar="3" Cut="1.4793902587890625e+02" cType="1" res="2.0648762583732605e-02" rms="3.9265033602714539e-01" purity="5.8706939220428467e-01" nType="0">
            <Node pos="l" depth="3" NCoef="0" IVar="-1" Cut="0.0000000000000000e+00" cType="1" res="1.6867768717929721e-03" rms="4.2460811138153076e-01" purity="4.5451056957244873e-01" nType="-99"/>
            <Node pos="r" depth="3" NCoef="0" IVar="-1" Cut="0.0000000000000000e+00" cType="1" res="6.5567431738600135e-04" rms="3.8405224680900574e-01" purity="6.2007623910903931e-01" nType="-99"/>
          </Node>
          <Node pos="r" depth="2" NCoef="0" IVar="7" Cut="-3.9992308616638184e-01" cType="1" res="-4.6569434925913811e-03" rms="3.8356846570968628e-01" purity="4.6718144416809082e-01" nType="0">
            <Node pos="l" depth="3" NCoef="0" IVar="-1" Cut="0.0000000000000000e+00" cType="1" res="-1.4125066809356213e-03" rms="3.7403729557991028e-01" purity="3.9802244305610657e-01" nType="-99"/>
            <Node pos="r" depth="3" NCoef="0" IVar="-1" Cut="0.0000000000000000e+00" cType="1" res="2.0795116142835468e-04" rms="3.8709044456481934e-01" purity="4.9588534235954285e-01" nType="-99"/>
          </Node>
        </Node>
      </Node>
    </BinaryTree>
    <BinaryTree type="DecisionTree" boostWeight="1.0000000000000000e+00" itree="713">
      <Node pos="s" depth="0" NCoef="0" IVar="7" Cut="-1.4665675163269043e+00" cType="1" res="2.6240008883178234e-03" rms="3.8465082645416260e-01" purity="4.9892455339431763e-01" nType="0">
        <Node pos="l" depth="1" NCoef="0" IVar="4" Cut="1.4292472839355469e+02" cType="1" res="-3.4418940544128418e-02" rms="3.1954026222229004e-01" purity="1.9637617468833923e-01" nType="0">
          <Node pos="l" depth="2" NCoef="0" IVar="5" Cut="8.0736457824707031e+01" cType="1" res="-2.2018479183316231e-02" rms="3.0851948261260986e-01" purity="1.5440832078456879e-01" nType="0">
            <Node pos="l" depth="3" NCoef="0" IVar="-1" Cut="0.0000000000000000e+00" cType="1" res="-2.8730058111250401e-03" rms="2.7306625247001648e-01" purity="8.9102268218994141e-02" nType="-99"/>
            <Node pos="r" depth="3" NCoef="0" IVar="-1" Cut="0.0000000000000000e+00" cType="1" res="-1.1530631454661489e-03" rms="3.4276860952377319e-01" purity="2.2512681782245636e-01" nType="-99"/>
          </Node>
          <Node pos="r" depth="2" NCoef="0" IVar="-1" Cut="0.0000000000000000e+00" cType="1" res="-3.7807468324899673e-03" rms="3.3752128481864929e-01" purity="2.7280035614967346e-01" nType="-99"/>
        </Node>
        <Node pos="r" depth="1" NCoef="0" IVar="7" Cut="1.9873138666152954e+00" cType="1" res="5.8983094058930874e-03" rms="3.8971406221389771e-01" purity="5.2566742897033691e-01" nType="0">
          <Node pos="l" depth="2" NCoef="0" IVar="4" Cut="2.7024588012695312e+02" cType="1" res="8.1210415810346603e-03" rms="3.9260265231132507e-01" purity="5.3924685716629028e-01" nType="0">
            <Node pos="l" depth="3" NCoef="0" IVar="-1" Cut="0.0000000000000000e+00" cType="1" res="4.5334047172218561e-04" rms="3.9166891574859619e-01" purity="5.3780698776245117e-01" nType="-99"/>
            <Node pos="r" depth="3" NCoef="0" IVar="-1" Cut="0.0000000000000000e+00" cType="1" res="-2.2186713758856058e-03" rms="4.1343802213668823e-01" purity="5.7834535837173462e-01" nType="-99"/>
          </Node>
          <Node pos="r" depth="2" NCoef="0" IVar="-1" Cut="0.0000000000000000e+00" cType="1" res="-5.6183324195444584e-03" rms="2.8716468811035156e-01" purity="1.3409593701362610e-01" nType="-99"/>
        </Node>
      </Node>
    </BinaryTree>
    <BinaryTree type="DecisionTree" boostWeight="1.0000000000000000e+00" itree="714">
      <Node pos="s" depth="0" NCoef="0" IVar="0" Cut="1.1903264160156250e+03" cType="1" res="1.5836019301787019e-03" rms="3.8303247094154358e-01" purity="5.0079953670501709e-01" nType="0">
        <Node pos="l" depth="1" NCoef="0" IVar="2" Cut="2.3858805847167969e+02" cType="1" res="-1.7353469505906105e-02" rms="3.9395573735237122e-01" purity="2.9027152061462402e-01" nType="0">
          <Node pos="l" depth="2" NCoef="0" IVar="-1" Cut="0.0000000000000000e+00" cType="1" res="2.9232184169813991e-04" rms="4.2381170392036438e-01" purity="4.1819903254508972e-01" nType="-99"/>
          <Node pos="r" depth="2" NCoef="0" IVar="5" Cut="7.8715217590332031e+01" cType="1" res="-2.9448548331856728e-02" rms="3.7803819775581360e-01" purity="2.2823229432106018e-01" nType="0">
            <Node pos="l" depth="3" NCoef="0" IVar="-1" Cut="0.0000000000000000e+00" cType="1" res="-5.5003387387841940e-04" rms="3.6864241957664490e-01" purity="1.9846144318580627e-01" nType="-99"/>
            <Node pos="r" depth="3" NCoef="0" IVar="-1" Cut="0.0000000000000000e+00" cType="1" res="-2.2973623126745224e-03" rms="3.8932928442955017e-01" purity="2.7004528045654297e-01" nType="-99"/>
          </Node>
        </Node>
        <Node pos="r" depth="1" NCoef="0" IVar="3" Cut="1.4930183410644531e+02" cType="1" res="8.8137388229370117e-03" rms="3.7852907180786133e-01" purity="5.8117872476577759e-01" nType="0">
          <Node pos="l" depth="2" NCoef="0" IVar="7" Cut="1.3345308601856232e-01" cType="1" res="5.0785709172487259e-02" rms="3.9684930443763733e-01" purity="5.3030598163604736e-01" nType="0">
            <Node pos="l" depth="3" NCoef="0" IVar="-1" Cut="0.0000000000000000e+00" cType="1" res="2.8363384772092104e-03" rms="3.9278155565261841e-01" purity="5.5701327323913574e-01" nType="-99"/>
            <Node pos="r" depth="3" NCoef="0" IVar="-1" Cut="0.0000000000000000e+00" cType="1" res="9.7423512488603592e-04" rms="4.0043255686759949e-01" purity="4.9678429961204529e-01" nType="-99"/>
          </Node>
          <Node pos="r" depth="2" NCoef="0" IVar="3" Cut="4.1903973388671875e+02" cType="1" res="3.6277552135288715e-03" rms="3.7587836384773254e-01" purity="5.8746439218521118e-01" nType="0">
            <Node pos="l" depth="3" NCoef="0" IVar="-1" Cut="0.0000000000000000e+00" cType="1" res="3.1440079328604043e-04" rms="3.7439888715744019e-01" purity="5.9556400775909424e-01" nType="-99"/>
            <Node pos="r" depth="3" NCoef="0" IVar="-1" Cut="0.0000000000000000e+00" cType="1" res="-3.2718882430344820e-03" rms="4.0264755487442017e-01" purity="4.0290284156799316e-01" nType="-99"/>
          </Node>
        </Node>
      </Node>
    </BinaryTree>
    <BinaryTree type="DecisionTree" boostWeight="1.0000000000000000e+00" itree="715">
      <Node pos="s" depth="0" NCoef="0" IVar="8" Cut="1.9999843835830688e+00" cType="1" res="-1.7048936570063233e-03" rms="3.8459622859954834e-01" purity="4.9529317021369934e-01" nType="0">
        <Node pos="l" depth="1" NCoef="0" IVar="8" Cut="-1.8857207298278809e+00" cType="1" res="3.8409166154451668e-04" rms="3.8686051964759827e-01" purity="5.0767481327056885e-01" nType="0">
          <Node pos="l" depth="2" NCoef="0" IVar="-1" Cut="0.0000000000000000e+00" cType="1" res="-4.7502648085355759e-03" rms="3.0066365003585815e-01" purity="1.6460844874382019e-01" nType="-99"/>
          <Node pos="r" depth="2" NCoef="0" IVar="7" Cut="-6.6665780544281006e-01" cType="1" res="3.0143260955810547e-03" rms="3.9019599556922913e-01" purity="5.2358257770538330e-01" nType="0">
            <Node pos="l" depth="3" NCoef="0" IVar="-1" Cut="0.0000000000000000e+00" cType="1" res="-9.0062629897147417e-04" rms="3.8050153851509094e-01" purity="3.9721009135246277e-01" nType="-99"/>
            <Node pos="r" depth="3" NCoef="0" IVar="-1" Cut="0.0000000000000000e+00" cType="1" res="3.6453144275583327e-04" rms="3.9302915334701538e-01" purity="5.6428664922714233e-01" nType="-99"/>
          </Node>
        </Node>
        <Node pos="r" depth="1" NCoef="0" IVar="-1" Cut="0.0000000000000000e+00" cType="1" res="-4.4132368639111519e-03" rms="3.1244891881942749e-01" purity="1.6206674277782440e-01" nType="-99"/>
      </Node>
    </BinaryTree>
    <BinaryTree type="DecisionTree" boostWeight="1.0000000000000000e+00" itree="716">
      <Node pos="s" depth="0" NCoef="0" IVar="2" Cut="7.7118310546875000e+02" cType="1" res="3.4691335167735815e-03" rms="3.8593426346778870e-01" purity="4.9957740306854248e-01" nType="0">
        <Node pos="l" depth="1" NCoef="0" IVar="0" Cut="1.9058878173828125e+03" cType="1" res="5.7010697200894356e-03" rms="3.8522487878799438e-01" purity="5.0281828641891479e-01" nType="0">
          <Node pos="l" depth="2" NCoef="0" IVar="2" Cut="4.7198266601562500e+02" cType="1" res="1.6616315115243196e-03" rms="3.8621830940246582e-01" purity="4.8145988583564758e-01" nType="0">
            <Node pos="l" depth="3" NCoef="0" IVar="-1" Cut="0.0000000000000000e+00" cType="1" res="3.4928810782730579e-04" rms="3.8895082473754883e-01" purity="5.1844567060470581e-01" nType="-99"/>
            <Node pos="r" depth="3" NCoef="0" IVar="-1" Cut="0.0000000000000000e+00" cType="1" res="-2.2296186070889235e-03" rms="3.6814600229263306e-01" purity="2.6877233386039734e-01" nType="-99"/>
          </Node>
          <Node pos="r" depth="2" NCoef="0" IVar="0" Cut="2.1691960449218750e+03" cType="1" res="4.9584936350584030e-02" rms="3.7144213914871216e-01" purity="7.3485296964645386e-01" nType="0">
            <Node pos="l" depth="3" NCoef="0" IVar="-1" Cut="0.0000000000000000e+00" cType="1" res="1.4639740111306310e-03" rms="3.7318325042724609e-01" purity="7.1231389045715332e-01" nType="-99"/>
            <Node pos="r" depth="3" NCoef="0" IVar="-1" Cut="0.0000000000000000e+00" cType="1" res="2.9440189246088266e-03" rms="3.6637374758720398e-01" purity="7.7400785684585571e-01" nType="-99"/>
          </Node>
        </Node>
        <Node pos="r" depth="1" NCoef="0" IVar="-1" Cut="0.0000000000000000e+00" cType="1" res="-5.0972879398614168e-04" rms="3.9962601661682129e-01" purity="4.1497689485549927e-01" nType="-99"/>
      </Node>
    </BinaryTree>
    <BinaryTree type="DecisionTree" boostWeight="1.0000000000000000e+00" itree="717">
      <Node pos="s" depth="0" NCoef="0" IVar="6" Cut="1.4783462285995483e+00" cType="1" res="2.4064232129603624e-03" rms="3.8469260931015015e-01" purity="5.0041729211807251e-01" nType="0">
        <Node pos="l" depth="1" NCoef="0" IVar="8" Cut="-1.9998530149459839e+00" cType="1" res="5.3963768295943737e-03" rms="3.8851466774940491e-01" purity="5.2131664752960205e-01" nType="0">
          <Node pos="l" depth="2" NCoef="0" IVar="-1" Cut="0.0000000000000000e+00" cType="1" res="-3.8780102040618658e-03" rms="3.2017967104911804e-01" purity="1.8089599907398224e-01" nType="-99"/>
          <Node pos="r" depth="2" NCoef="0" IVar="0" Cut="2.3941665039062500e+03" cType="1" res="7.3448251932859421e-03" rms="3.9056989550590515e-01" purity="5.3335326910018921e-01" nType="0">
            <Node pos="l" depth="3" NCoef="0" IVar="-1" Cut="0.0000000000000000e+00" cType="1" res="2.6097067166119814e-04" rms="3.8984671235084534e-01" purity="5.2828097343444824e-01" nType="-99"/>
            <Node pos="r" depth="3" NCoef="0" IVar="-1" Cut="0.0000000000000000e+00" cType="1" res="2.0761594641953707e-03" rms="4.0940141677856445e-01" purity="6.9456863403320312e-01" nType="-99"/>
          </Node>
        </Node>
        <Node pos="r" depth="1" NCoef="0" IVar="8" Cut="1.3244514167308807e-01" cType="1" res="-3.8993470370769501e-02" rms="3.2439357042312622e-01" purity="2.1103781461715698e-01" nType="0">
          <Node pos="l" depth="2" NCoef="0" IVar="-1" Cut="0.0000000000000000e+00" cType="1" res="-1.0633878409862518e-03" rms="3.4510162472724915e-01" purity="2.5295871496200562e-01" nType="-99"/>
          <Node pos="r" depth="2" NCoef="0" IVar="-1" Cut="0.0000000000000000e+00" cType="1" res="-4.7779572196304798e-03" rms="2.9933980107307434e-01" purity="1.6706238687038422e-01" nType="-99"/>
        </Node>
      </Node>
    </BinaryTree>
    <BinaryTree type="DecisionTree" boostWeight="1.0000000000000000e+00" itree="718">
      <Node pos="s" depth="0" NCoef="0" IVar="2" Cut="8.0937670898437500e+02" cType="1" res="4.5262658968567848e-03" rms="3.8377594947814941e-01" purity="5.0146728754043579e-01" nType="0">
        <Node pos="l" depth="1" NCoef="0" IVar="3" Cut="1.5920191955566406e+02" cType="1" res="6.8236077204346657e-03" rms="3.8279819488525391e-01" purity="5.0420492887496948e-01" nType="0">
          <Node pos="l" depth="2" NCoef="0" IVar="2" Cut="3.1605883789062500e+02" cType="1" res="2.6153599843382835e-02" rms="3.9692208170890808e-01" purity="3.8949599862098694e-01" nType="0">
            <Node pos="l" depth="3" NCoef="0" IVar="-1" Cut="0.0000000000000000e+00" cType="1" res="1.6885494114831090e-03" rms="4.0456876158714294e-01" purity="4.5482316613197327e-01" nType="-99"/>
            <Node pos="r" depth="3" NCoef="0" IVar="-1" Cut="0.0000000000000000e+00" cType="1" res="4.1006869287230074e-04" rms="3.8700020313262939e-01" purity="3.1273645162582397e-01" nType="-99"/>
          </Node>
          <Node pos="r" depth="2" NCoef="0" IVar="0" Cut="1.9073946533203125e+03" cType="1" res="-7.5321499025449157e-04" rms="3.7684735655784607e-01" purity="5.4916775226593018e-01" nType="0">
            <Node pos="l" depth="3" NCoef="0" IVar="-1" Cut="0.0000000000000000e+00" cType="1" res="-3.3807757426984608e-04" rms="3.7688314914703369e-01" purity="5.2492469549179077e-01" nType="-99"/>
            <Node pos="r" depth="3" NCoef="0" IVar="-1" Cut="0.0000000000000000e+00" cType="1" res="1.9614319317042828e-03" rms="3.7346625328063965e-01" purity="7.2529017925262451e-01" nType="-99"/>
          </Node>
        </Node>
        <Node pos="r" depth="1" NCoef="0" IVar="-1" Cut="0.0000000000000000e+00" cType="1" res="-2.8849483351223171e-04" rms="4.0578165650367737e-01" purity="4.2062550783157349e-01" nType="-99"/>
      </Node>
    </BinaryTree>
    <BinaryTree type="DecisionTree" boostWeight="1.0000000000000000e+00" itree="719">
      <Node pos="s" depth="0" NCoef="0" IVar="0" Cut="1.5806380615234375e+03" cType="1" res="5.4813921451568604e-04" rms="3.8471993803977966e-01" purity="5.0002467632293701e-01" nType="0">
        <Node pos="l" depth="1" NCoef="0" IVar="4" Cut="1.7606283569335938e+02" cType="1" res="-6.3227512873709202e-03" rms="3.9026188850402832e-01" purity="4.3613842129707336e-01" nType="0">
          <Node pos="l" depth="2" NCoef="0" IVar="0" Cut="9.8589739990234375e+02" cType="1" res="-4.0047275251708925e-04" rms="3.9030563831329346e-01" purity="4.1964811086654663e-01" nType="0">
            <Node pos="l" depth="3" NCoef="0" IVar="-1" Cut="0.0000000000000000e+00" cType="1" res="-2.6781866326928139e-03" rms="3.7035846710205078e-01" purity="1.9147685170173645e-01" nType="-99"/>
            <Node pos="r" depth="3" NCoef="0" IVar="-1" Cut="0.0000000000000000e+00" cType="1" res="2.6129963225685060e-04" rms="3.9206761121749878e-01" purity="4.4586050510406494e-01" nType="-99"/>
          </Node>
          <Node pos="r" depth="2" NCoef="0" IVar="2" Cut="3.0815258789062500e+02" cType="1" res="-4.4565867632627487e-02" rms="3.8780772686004639e-01" purity="5.4262483119964600e-01" nType="0">
            <Node pos="l" depth="3" NCoef="0" IVar="-1" Cut="0.0000000000000000e+00" cType="1" res="-8.9539121836423874e-04" rms="3.7511840462684631e-01" purity="6.7038488388061523e-01" nType="-99"/>
            <Node pos="r" depth="3" NCoef="0" IVar="-1" Cut="0.0000000000000000e+00" cType="1" res="-4.4833389110863209e-03" rms="4.0066650509834290e-01" purity="3.8586926460266113e-01" nType="-99"/>
          </Node>
        </Node>
        <Node pos="r" depth="1" NCoef="0" IVar="3" Cut="3.4008117675781250e+02" cType="1" res="1.6935892403125763e-02" rms="3.7065410614013672e-01" purity="6.5239977836608887e-01" nType="0">
          <Node pos="l" depth="2" NCoef="0" IVar="0" Cut="1.7894743652343750e+03" cType="1" res="2.5832314044237137e-02" rms="3.5861125588417053e-01" purity="7.0036315917968750e-01" nType="0">
            <Node pos="l" depth="3" NCoef="0" IVar="-1" Cut="0.0000000000000000e+00" cType="1" res="4.8460831749252975e-04" rms="3.5729643702507019e-01" purity="6.6548764705657959e-01" nType="-99"/>
            <Node pos="r" depth="3" NCoef="0" IVar="-1" Cut="0.0000000000000000e+00" cType="1" res="2.0053021144121885e-03" rms="3.5913497209548950e-01" purity="7.3850667476654053e-01" nType="-99"/>
          </Node>
          <Node pos="r" depth="2" NCoef="0" IVar="3" Cut="4.2090963745117188e+02" cType="1" res="-1.1853681877255440e-02" rms="4.0585741400718689e-01" purity="4.9718609452247620e-01" nType="0">
            <Node pos="l" depth="3" NCoef="0" IVar="-1" Cut="0.0000000000000000e+00" cType="1" res="4.5736553147435188e-04" rms="4.0382003784179688e-01" purity="5.4084342718124390e-01" nType="-99"/>
            <Node pos="r" depth="3" NCoef="0" IVar="-1" Cut="0.0000000000000000e+00" cType="1" res="-2.5909312535077333e-03" rms="4.0667092800140381e-01" purity="4.2136609554290771e-01" nType="-99"/>
          </Node>
        </Node>
      </Node>
    </BinaryTree>
    <BinaryTree type="DecisionTree" boostWeight="1.0000000000000000e+00" itree="720">
      <Node pos="s" depth="0" NCoef="0" IVar="2" Cut="7.7117974853515625e+02" cType="1" res="-2.2331257350742817e-03" rms="3.8276910781860352e-01" purity="4.9592271447181702e-01" nType="0">
        <Node pos="l" depth="1" NCoef="0" IVar="0" Cut="2.0652443847656250e+03" cType="1" res="8.0855918349698186e-04" rms="3.8230931758880615e-01" purity="4.9987676739692688e-01" nType="0">
          <Node pos="l" depth="2" NCoef="0" IVar="2" Cut="2.2720095825195312e+02" cType="1" res="-2.0404316019266844e-03" rms="3.8292509317398071e-01" purity="4.8691591620445251e-01" nType="0">
            <Node pos="l" depth="3" NCoef="0" IVar="-1" Cut="0.0000000000000000e+00" cType="1" res="1.4956231461837888e-03" rms="3.8625028729438782e-01" purity="5.8669447898864746e-01" nType="-99"/>
            <Node pos="r" depth="3" NCoef="0" IVar="-1" Cut="0.0000000000000000e+00" cType="1" res="-3.5223347367718816e-04" rms="3.8219410181045532e-01" purity="4.7349449992179871e-01" nType="-99"/>
          </Node>
          <Node pos="r" depth="2" NCoef="0" IVar="-1" Cut="0.0000000000000000e+00" cType="1" res="2.3634468670934439e-03" rms="3.6485949158668518e-01" purity="7.6238429546356201e-01" nType="-99"/>
        </Node>
        <Node pos="r" depth="1" NCoef="0" IVar="-1" Cut="0.0000000000000000e+00" cType="1" res="-7.7409524237737060e-04" rms="3.8581830263137817e-01" purity="3.8535737991333008e-01" nType="-99"/>
      </Node>
    </BinaryTree>
    <BinaryTree type="DecisionTree" boostWeight="1.0000000000000000e+00" itree="721">
      <Node pos="s" depth="0" NCoef="0" IVar="6" Cut="-6.5971612930297852e-01" cType="1" res="5.4516266100108624e-03" rms="3.8448017835617065e-01" purity="5.0374245643615723e-01" nType="0">
        <Node pos="l" depth="1" NCoef="0" IVar="3" Cut="1.3568191528320312e+02" cType="1" res="-1.5505199320614338e-02" rms="3.7400472164154053e-01" purity="3.7240427732467651e-01" nType="0">
          <Node pos="l" depth="2" NCoef="0" IVar="-1" Cut="0.0000000000000000e+00" cType="1" res="2.2551121655851603e-03" rms="3.8507285714149475e-01" purity="2.7088189125061035e-01" nType="-99"/>
          <Node pos="r" depth="2" NCoef="0" IVar="7" Cut="3.9984193444252014e-01" cType="1" res="-2.8029628098011017e-02" rms="3.7032482028007507e-01" purity="3.9514470100402832e-01" nType="0">
            <Node pos="l" depth="3" NCoef="0" IVar="-1" Cut="0.0000000000000000e+00" cType="1" res="-6.9603382144123316e-04" rms="3.8261803984642029e-01" purity="4.4578355550765991e-01" nType="-99"/>
            <Node pos="r" depth="3" NCoef="0" IVar="-1" Cut="0.0000000000000000e+00" cType="1" res="-3.8653803057968616e-03" rms="3.3975860476493835e-01" purity="2.8361311554908752e-01" nType="-99"/>
          </Node>
        </Node>
        <Node pos="r" depth="1" NCoef="0" IVar="6" Cut="1.1523785591125488e+00" cType="1" res="1.1978790163993835e-02" rms="3.8745358586311340e-01" purity="5.4464876651763916e-01" nType="0">
          <Node pos="l" depth="2" NCoef="0" IVar="7" Cut="-1.4660308361053467e+00" cType="1" res="1.6669556498527527e-02" rms="3.9219117164611816e-01" purity="5.9396445751190186e-01" nType="0">
            <Node pos="l" depth="3" NCoef="0" IVar="-1" Cut="0.0000000000000000e+00" cType="1" res="-1.8579427851364017e-03" rms="3.5814523696899414e-01" purity="2.6199501752853394e-01" nType="-99"/>
            <Node pos="r" depth="3" NCoef="0" IVar="-1" Cut="0.0000000000000000e+00" cType="1" res="8.3161063957959414e-04" rms="3.9420565962791443e-01" purity="6.1647737026214600e-01" nType="-99"/>
          </Node>
          <Node pos="r" depth="2" NCoef="0" IVar="3" Cut="2.1650553894042969e+02" cType="1" res="-1.3689056038856506e-02" rms="3.5934606194496155e-01" purity="2.7479359507560730e-01" nType="0">
            <Node pos="l" depth="3" NCoef="0" IVar="-1" Cut="0.0000000000000000e+00" cType="1" res="3.6569705116562545e-04" rms="3.5607776045799255e-01" purity="2.7803286910057068e-01" nType="-99"/>
            <Node pos="r" depth="3" NCoef="0" IVar="-1" Cut="0.0000000000000000e+00" cType="1" res="-3.8500947412103415e-03" rms="3.6248329281806946e-01" purity="2.6849067211151123e-01" nType="-99"/>
          </Node>
        </Node>
      </Node>
    </BinaryTree>
    <BinaryTree type="DecisionTree" boostWeight="1.0000000000000000e+00" itree="722">
      <Node pos="s" depth="0" NCoef="0" IVar="7" Cut="1.7333462238311768e+00" cType="1" res="8.8916369713842869e-04" rms="3.8296940922737122e-01" purity="5.0054085254669189e-01" nType="0">
        <Node pos="l" depth="1" NCoef="0" IVar="7" Cut="-6.4120662212371826e-01" cType="1" res="3.2059529330581427e-03" rms="3.8634854555130005e-01" purity="5.1777309179306030e-01" nType="0">
          <Node pos="l" depth="2" NCoef="0" IVar="6" Cut="4.2225715517997742e-01" cType="1" res="-1.4449228532612324e-02" rms="3.7040501832962036e-01" purity="3.8653999567031860e-01" nType="0">
            <Node pos="l" depth="3" NCoef="0" IVar="-1" Cut="0.0000000000000000e+00" cType="1" res="-2.2776950208935887e-04" rms="3.7994354963302612e-01" purity="4.2998763918876648e-01" nType="-99"/>
            <Node pos="r" depth="3" NCoef="0" IVar="-1" Cut="0.0000000000000000e+00" cType="1" res="-2.4189015384763479e-03" rms="3.4667676687240601e-01" purity="2.8767752647399902e-01" nType="-99"/>
          </Node>
          <Node pos="r" depth="2" NCoef="0" IVar="7" Cut="7.1567553281784058e-01" cType="1" res="9.7778690978884697e-03" rms="3.9191472530364990e-01" purity="5.6662291288375854e-01" nType="0">
            <Node pos="l" depth="3" NCoef="0" IVar="-1" Cut="0.0000000000000000e+00" cType="1" res="7.1437476435676217e-04" rms="3.9129760861396790e-01" purity="6.1954689025878906e-01" nType="-99"/>
            <Node pos="r" depth="3" NCoef="0" IVar="-1" Cut="0.0000000000000000e+00" cType="1" res="-5.2172201685607433e-04" rms="3.9298456907272339e-01" purity="4.1435742378234863e-01" nType="-99"/>
          </Node>
        </Node>
        <Node pos="r" depth="1" NCoef="0" IVar="-1" Cut="0.0000000000000000e+00" cType="1" res="-3.9824242703616619e-03" rms="3.0673009157180786e-01" purity="1.6608084738254547e-01" nType="-99"/>
      </Node>
    </BinaryTree>
    <BinaryTree type="DecisionTree" boostWeight="1.0000000000000000e+00" itree="723">
      <Node pos="s" depth="0" NCoef="0" IVar="9" Cut="1.7332990169525146e+00" cType="1" res="-1.0411889525130391e-03" rms="3.8482749462127686e-01" purity="4.9414363503456116e-01" nType="0">
        <Node pos="l" depth="1" NCoef="0" IVar="8" Cut="1.9998748302459717e+00" cType="1" res="2.1717473864555359e-03" rms="3.8773518800735474e-01" purity="5.1185739040374756e-01" nType="0">
          <Node pos="l" depth="2" NCoef="0" IVar="9" Cut="-8.5711014270782471e-01" cType="1" res="4.3244860135018826e-03" rms="3.8969415426254272e-01" purity="5.2347952127456665e-01" nType="0">
            <Node pos="l" depth="3" NCoef="0" IVar="-1" Cut="0.0000000000000000e+00" cType="1" res="-7.5098627712577581e-04" rms="3.8159620761871338e-01" purity="4.0256649255752563e-01" nType="-99"/>
            <Node pos="r" depth="3" NCoef="0" IVar="-1" Cut="0.0000000000000000e+00" cType="1" res="4.3950375402346253e-04" rms="3.9200341701507568e-01" purity="5.6106919050216675e-01" nType="-99"/>
          </Node>
          <Node pos="r" depth="2" NCoef="0" IVar="-1" Cut="0.0000000000000000e+00" cType="1" res="-4.7788512893021107e-03" rms="3.1880384683609009e-01" purity="1.7155055701732635e-01" nType="-99"/>
        </Node>
        <Node pos="r" depth="1" NCoef="0" IVar="6" Cut="-4.8661869019269943e-02" cType="1" res="-4.7179974615573883e-02" rms="3.3698153495788574e-01" purity="2.3976856470108032e-01" nType="0">
          <Node pos="l" depth="2" NCoef="0" IVar="-1" Cut="0.0000000000000000e+00" cType="1" res="-5.0272820517420769e-03" rms="3.1016212701797485e-01" purity="2.0830431580543518e-01" nType="-99"/>
          <Node pos="r" depth="2" NCoef="0" IVar="-1" Cut="0.0000000000000000e+00" cType="1" res="-1.8067625351250172e-03" rms="3.5507193207740784e-01" purity="2.6379787921905518e-01" nType="-99"/>
        </Node>
      </Node>
    </BinaryTree>
    <BinaryTree type="DecisionTree" boostWeight="1.0000000000000000e+00" itree="724">
      <Node pos="s" depth="0" NCoef="0" IVar="6" Cut="1.4691361188888550e+00" cType="1" res="3.2278266735374928e-03" rms="3.8315728306770325e-01" purity="5.0225973129272461e-01" nType="0">
        <Node pos="l" depth="1" NCoef="0" IVar="6" Cut="-9.6386510133743286e-01" cType="1" res="5.9424559585750103e-03" rms="3.8658845424652100e-01" purity="5.2351838350296021e-01" nType="0">
          <Node pos="l" depth="2" NCoef="0" IVar="7" Cut="-6.6633093357086182e-01" cType="1" res="-2.0791679620742798e-02" rms="3.5791575908660889e-01" purity="3.0409818887710571e-01" nType="0">
            <Node pos="l" depth="3" NCoef="0" IVar="-1" Cut="0.0000000000000000e+00" cType="1" res="-3.6594998091459274e-03" rms="3.1879484653472900e-01" purity="2.1007540822029114e-01" nType="-99"/>
            <Node pos="r" depth="3" NCoef="0" IVar="-1" Cut="0.0000000000000000e+00" cType="1" res="-4.4436391908675432e-04" rms="3.7328216433525085e-01" purity="3.4586888551712036e-01" nType="-99"/>
          </Node>
          <Node pos="r" depth="2" NCoef="0" IVar="8" Cut="1.7333204746246338e+00" cType="1" res="1.1189303360879421e-02" rms="3.9175552129745483e-01" purity="5.6658184528350830e-01" nType="0">
            <Node pos="l" depth="3" NCoef="0" IVar="-1" Cut="0.0000000000000000e+00" cType="1" res="5.8574799913913012e-04" rms="3.9324426651000977e-01" purity="5.8319962024688721e-01" nType="-99"/>
            <Node pos="r" depth="3" NCoef="0" IVar="-1" Cut="0.0000000000000000e+00" cType="1" res="-2.3968012537807226e-03" rms="3.5972586274147034e-01" purity="2.5554013252258301e-01" nType="-99"/>
          </Node>
        </Node>
        <Node pos="r" depth="1" NCoef="0" IVar="9" Cut="3.9988383650779724e-01" cType="1" res="-3.3045258373022079e-02" rms="3.3181950449943542e-01" purity="2.1819990873336792e-01" nType="0">
          <Node pos="l" depth="2" NCoef="0" IVar="-1" Cut="0.0000000000000000e+00" cType="1" res="-3.3707023249007761e-04" rms="3.6004996299743652e-01" purity="2.6702263951301575e-01" nType="-99"/>
          <Node pos="r" depth="2" NCoef="0" IVar="-1" Cut="0.0000000000000000e+00" cType="1" res="-5.6938650086522102e-03" rms="2.8114849328994751e-01" purity="1.4723899960517883e-01" nType="-99"/>
        </Node>
      </Node>
    </BinaryTree>
    <BinaryTree type="DecisionTree" boostWeight="1.0000000000000000e+00" itree="725">
      <Node pos="s" depth="0" NCoef="0" IVar="9" Cut="1.9999520778656006e+00" cType="1" res="1.5066855121403933e-03" rms="3.8339793682098389e-01" purity="4.9926206469535828e-01" nType="0">
        <Node pos="l" depth="1" NCoef="0" IVar="7" Cut="-6.6658425331115723e-01" cType="1" res="3.5261157900094986e-03" rms="3.8541662693023682e-01" purity="5.1147317886352539e-01" nType="0">
          <Node pos="l" depth="2" NCoef="0" IVar="9" Cut="-7.4280703067779541e-01" cType="1" res="-1.4764915220439434e-02" rms="3.7303766608238220e-01" purity="3.8155338168144226e-01" nType="0">
            <Node pos="l" depth="3" NCoef="0" IVar="-1" Cut="0.0000000000000000e+00" cType="1" res="-2.4607516825199127e-03" rms="3.4444457292556763e-01" purity="2.7459385991096497e-01" nType="-99"/>
            <Node pos="r" depth="3" NCoef="0" IVar="-1" Cut="0.0000000000000000e+00" cType="1" res="-1.9727689505089074e-04" rms="3.8566821813583374e-01" purity="4.3338939547538757e-01" nType="-99"/>
          </Node>
          <Node pos="r" depth="2" NCoef="0" IVar="8" Cut="1.4658625125885010e+00" cType="1" res="9.4982516020536423e-03" rms="3.8918709754943848e-01" purity="5.5389285087585449e-01" nType="0">
            <Node pos="l" depth="3" NCoef="0" IVar="-1" Cut="0.0000000000000000e+00" cType="1" res="5.7185924379155040e-04" rms="3.9127719402313232e-01" purity="5.7883292436599731e-01" nType="-99"/>
            <Node pos="r" depth="3" NCoef="0" IVar="-1" Cut="0.0000000000000000e+00" cType="1" res="-1.6864740755409002e-03" rms="3.6393737792968750e-01" purity="2.8711736202239990e-01" nType="-99"/>
          </Node>
        </Node>
        <Node pos="r" depth="1" NCoef="0" IVar="-1" Cut="0.0000000000000000e+00" cType="1" res="-3.4571345895528793e-03" rms="3.2616311311721802e-01" purity="1.9981254637241364e-01" nType="-99"/>
      </Node>
    </BinaryTree>
    <BinaryTree type="DecisionTree" boostWeight="1.0000000000000000e+00" itree="726">
      <Node pos="s" depth="0" NCoef="0" IVar="6" Cut="-9.1661351919174194e-01" cType="1" res="-8.5718056652694941e-04" rms="3.8258069753646851e-01" purity="4.9545744061470032e-01" nType="0">
        <Node pos="l" depth="1" NCoef="0" IVar="0" Cut="1.3123598632812500e+03" cType="1" res="-2.7448829263448715e-02" rms="3.5411319136619568e-01" purity="3.0366003513336182e-01" nType="0">
          <Node pos="l" depth="2" NCoef="0" IVar="-1" Cut="0.0000000000000000e+00" cType="1" res="-2.9123669955879450e-03" rms="3.2359692454338074e-01" purity="1.7749421298503876e-01" nType="-99"/>
          <Node pos="r" depth="2" NCoef="0" IVar="4" Cut="1.7479562377929688e+02" cType="1" res="-1.2259128503501415e-02" rms="3.8055104017257690e-01" purity="4.2502063512802124e-01" nType="0">
            <Node pos="l" depth="3" NCoef="0" IVar="-1" Cut="0.0000000000000000e+00" cType="1" res="6.4027291955426335e-04" rms="3.7718993425369263e-01" purity="4.1041004657745361e-01" nType="-99"/>
            <Node pos="r" depth="3" NCoef="0" IVar="-1" Cut="0.0000000000000000e+00" cType="1" res="-2.6230905205011368e-03" rms="3.8281488418579102e-01" purity="4.4558605551719666e-01" nType="-99"/>
          </Node>
        </Node>
        <Node pos="r" depth="1" NCoef="0" IVar="6" Cut="1.9148058891296387e+00" cType="1" res="4.3131168931722641e-03" rms="3.8766142725944519e-01" purity="5.3274917602539062e-01" nType="0">
          <Node pos="l" depth="2" NCoef="0" IVar="7" Cut="-1.7332608699798584e+00" cType="1" res="6.3245063647627831e-03" rms="3.9029839634895325e-01" purity="5.4540908336639404e-01" nType="0">
            <Node pos="l" depth="3" NCoef="0" IVar="-1" Cut="0.0000000000000000e+00" cType="1" res="-3.6171760875731707e-03" rms="3.1657588481903076e-01" purity="1.9565583765506744e-01" nType="-99"/>
            <Node pos="r" depth="3" NCoef="0" IVar="-1" Cut="0.0000000000000000e+00" cType="1" res="3.7799475830979645e-04" rms="3.9327183365821838e-01" purity="5.6181210279464722e-01" nType="-99"/>
          </Node>
          <Node pos="r" depth="2" NCoef="0" IVar="-1" Cut="0.0000000000000000e+00" cType="1" res="-4.1261250153183937e-03" rms="2.9786074161529541e-01" purity="1.7364437878131866e-01" nType="-99"/>
        </Node>
      </Node>
    </BinaryTree>
    <BinaryTree type="DecisionTree" boostWeight="1.0000000000000000e+00" itree="727">
      <Node pos="s" depth="0" NCoef="0" IVar="7" Cut="1.4667476415634155e+00" cType="1" res="8.5483002476394176e-04" rms="3.8227316737174988e-01" purity="4.9818032979965210e-01" nType="0">
        <Node pos="l" depth="1" NCoef="0" IVar="6" Cut="1.2030285596847534e+00" cType="1" res="4.0399688296020031e-03" rms="3.8677036762237549e-01" purity="5.2384012937545776e-01" nType="0">
          <Node pos="l" depth="2" NCoef="0" IVar="2" Cut="5.0808847045898438e+02" cType="1" res="7.6717310585081577e-03" rms="3.9049819111824036e-01" purity="5.5292969942092896e-01" nType="0">
            <Node pos="l" depth="3" NCoef="0" IVar="-1" Cut="0.0000000000000000e+00" cType="1" res="5.8879115385934711e-04" rms="3.8805273175239563e-01" purity="5.8379900455474854e-01" nType="-99"/>
            <Node pos="r" depth="3" NCoef="0" IVar="-1" Cut="0.0000000000000000e+00" cType="1" res="-1.0336390696465969e-03" rms="4.0083140134811401e-01" purity="4.0564665198326111e-01" nType="-99"/>
          </Node>
          <Node pos="r" depth="2" NCoef="0" IVar="6" Cut="1.8873155117034912e+00" cType="1" res="-2.6908738538622856e-02" rms="3.5189390182495117e-01" purity="2.7594801783561707e-01" nType="0">
            <Node pos="l" depth="3" NCoef="0" IVar="-1" Cut="0.0000000000000000e+00" cType="1" res="-8.1729883095249534e-04" rms="3.6986294388771057e-01" purity="3.0237251520156860e-01" nType="-99"/>
            <Node pos="r" depth="3" NCoef="0" IVar="-1" Cut="0.0000000000000000e+00" cType="1" res="-4.1790409013628960e-03" rms="2.9894322156906128e-01" purity="2.0875480771064758e-01" nType="-99"/>
          </Node>
        </Node>
        <Node pos="r" depth="1" NCoef="0" IVar="4" Cut="1.3099742126464844e+02" cType="1" res="-3.6911606788635254e-02" rms="3.2183527946472168e-01" purity="1.9393028318881989e-01" nType="0">
          <Node pos="l" depth="2" NCoef="0" IVar="-1" Cut="0.0000000000000000e+00" cType="1" res="-1.2642432702705264e-03" rms="3.0896395444869995e-01" purity="1.4854840934276581e-01" nType="-99"/>
          <Node pos="r" depth="2" NCoef="0" IVar="-1" Cut="0.0000000000000000e+00" cType="1" res="-4.4303666800260544e-03" rms="3.3506357669830322e-01" purity="2.5050568580627441e-01" nType="-99"/>
        </Node>
      </Node>
    </BinaryTree>
    <BinaryTree type="DecisionTree" boostWeight="1.0000000000000000e+00" itree="728">
      <Node pos="s" depth="0" NCoef="0" IVar="7" Cut="-1.9999351501464844e+00" cType="1" res="9.3794567510485649e-04" rms="3.8329297304153442e-01" purity="4.9824276566505432e-01" nType="0">
        <Node pos="l" depth="1" NCoef="0" IVar="-1" Cut="0.0000000000000000e+00" cType="1" res="-6.0541816055774689e-03" rms="2.7903079986572266e-01" purity="1.3472208380699158e-01" nType="-99"/>
        <Node pos="r" depth="1" NCoef="0" IVar="2" Cut="7.5985095214843750e+02" cType="1" res="2.9299953021109104e-03" rms="3.8582080602645874e-01" purity="5.0919187068939209e-01" nType="0">
          <Node pos="l" depth="2" NCoef="0" IVar="0" Cut="1.8844990234375000e+03" cType="1" res="5.2535799331963062e-03" rms="3.8473749160766602e-01" purity="5.1311367750167847e-01" nType="0">
            <Node pos="l" depth="3" NCoef="0" IVar="-1" Cut="0.0000000000000000e+00" cType="1" res="6.0394664615159854e-05" rms="3.8619419932365417e-01" purity="4.9010214209556580e-01" nType="-99"/>
            <Node pos="r" depth="3" NCoef="0" IVar="-1" Cut="0.0000000000000000e+00" cType="1" res="1.9362336024641991e-03" rms="3.6795940995216370e-01" purity="7.3773825168609619e-01" nType="-99"/>
          </Node>
          <Node pos="r" depth="2" NCoef="0" IVar="-1" Cut="0.0000000000000000e+00" cType="1" res="-5.0339323934167624e-04" rms="4.0702790021896362e-01" purity="4.1493678092956543e-01" nType="-99"/>
        </Node>
      </Node>
    </BinaryTree>
    <BinaryTree type="DecisionTree" boostWeight="1.0000000000000000e+00" itree="729">
      <Node pos="s" depth="0" NCoef="0" IVar="2" Cut="7.1392718505859375e+02" cType="1" res="2.8575276955962181e-03" rms="3.8536414504051208e-01" purity="5.0122594833374023e-01" nType="0">
        <Node pos="l" depth="1" NCoef="0" IVar="0" Cut="9.5802532958984375e+02" cType="1" res="5.4311216808855534e-03" rms="3.8446092605590820e-01" purity="5.0672334432601929e-01" nType="0">
          <Node pos="l" depth="2" NCoef="0" IVar="-1" Cut="0.0000000000000000e+00" cType="1" res="-2.7711009606719017e-03" rms="3.6679211258888245e-01" purity="1.8558095395565033e-01" nType="-99"/>
          <Node pos="r" depth="2" NCoef="0" IVar="2" Cut="2.2447546386718750e+02" cType="1" res="8.2479603588581085e-03" rms="3.8502353429794312e-01" purity="5.2154761552810669e-01" nType="0">
            <Node pos="l" depth="3" NCoef="0" IVar="-1" Cut="0.0000000000000000e+00" cType="1" res="2.0069407764822245e-03" rms="3.9145120978355408e-01" purity="6.4488869905471802e-01" nType="-99"/>
            <Node pos="r" depth="3" NCoef="0" IVar="-1" Cut="0.0000000000000000e+00" cType="1" res="1.9843348127324134e-04" rms="3.8415601849555969e-01" purity="5.0996655225753784e-01" nType="-99"/>
          </Node>
        </Node>
        <Node pos="r" depth="1" NCoef="0" IVar="-1" Cut="0.0000000000000000e+00" cType="1" res="-5.3493416635319591e-04" rms="3.9869308471679688e-01" purity="3.9981341361999512e-01" nType="-99"/>
      </Node>
    </BinaryTree>
    <BinaryTree type="DecisionTree" boostWeight="1.0000000000000000e+00" itree="730">
      <Node pos="s" depth="0" NCoef="0" IVar="2" Cut="8.0938336181640625e+02" cType="1" res="-2.1119080483913422e-03" rms="3.8385459780693054e-01" purity="4.9332210421562195e-01" nType="0">
        <Node pos="l" depth="1" NCoef="0" IVar="0" Cut="1.9056236572265625e+03" cType="1" res="-2.0547265012282878e-04" rms="3.8265085220336914e-01" purity="4.9587994813919067e-01" nType="0">
          <Node pos="l" depth="2" NCoef="0" IVar="2" Cut="3.1606829833984375e+02" cType="1" res="-4.0191346779465675e-03" rms="3.8358002901077271e-01" purity="4.7341403365135193e-01" nType="0">
            <Node pos="l" depth="3" NCoef="0" IVar="-1" Cut="0.0000000000000000e+00" cType="1" res="5.1195092964917421e-04" rms="3.8360241055488586e-01" purity="5.6151711940765381e-01" nType="-99"/>
            <Node pos="r" depth="3" NCoef="0" IVar="-1" Cut="0.0000000000000000e+00" cType="1" res="-1.0948794661089778e-03" rms="3.8291838765144348e-01" purity="3.8585084676742554e-01" nType="-99"/>
          </Node>
          <Node pos="r" depth="2" NCoef="0" IVar="3" Cut="3.1145327758789062e+02" cType="1" res="3.8197912275791168e-02" rms="3.7098646163940430e-01" purity="7.2211116552352905e-01" nType="0">
            <Node pos="l" depth="3" NCoef="0" IVar="-1" Cut="0.0000000000000000e+00" cType="1" res="3.0428685713559389e-03" rms="3.3607798814773560e-01" purity="8.2166057825088501e-01" nType="-99"/>
            <Node pos="r" depth="3" NCoef="0" IVar="-1" Cut="0.0000000000000000e+00" cType="1" res="3.9998389547690749e-04" rms="4.0088576078414917e-01" purity="6.2209200859069824e-01" nType="-99"/>
          </Node>
        </Node>
        <Node pos="r" depth="1" NCoef="0" IVar="-1" Cut="0.0000000000000000e+00" cType="1" res="-4.8799911746755242e-04" rms="4.1662856936454773e-01" purity="4.0942552685737610e-01" nType="-99"/>
      </Node>
    </BinaryTree>
    <BinaryTree type="DecisionTree" boostWeight="1.0000000000000000e+00" itree="731">
      <Node pos="s" depth="0" NCoef="0" IVar="0" Cut="1.1315646972656250e+03" cType="1" res="4.6904715709388256e-03" rms="3.8345393538475037e-01" purity="5.0494229793548584e-01" nType="0">
        <Node pos="l" depth="1" NCoef="0" IVar="2" Cut="2.3389002990722656e+02" cType="1" res="-1.7101382836699486e-02" rms="3.9352148771286011e-01" purity="2.6611772179603577e-01" nType="0">
          <Node pos="l" depth="2" NCoef="0" IVar="-1" Cut="0.0000000000000000e+00" cType="1" res="5.1503197755664587e-04" rms="4.3052619695663452e-01" purity="3.8134017586708069e-01" nType="-99"/>
          <Node pos="r" depth="2" NCoef="0" IVar="3" Cut="1.3681532287597656e+02" cType="1" res="-3.2808467745780945e-02" rms="3.7213712930679321e-01" purity="2.0699989795684814e-01" nType="0">
            <Node pos="l" depth="3" NCoef="0" IVar="-1" Cut="0.0000000000000000e+00" cType="1" res="-6.2516971956938505e-04" rms="3.7644189596176147e-01" purity="2.1236106753349304e-01" nType="-99"/>
            <Node pos="r" depth="3" NCoef="0" IVar="-1" Cut="0.0000000000000000e+00" cType="1" res="-2.8776980470865965e-03" rms="3.6584103107452393e-01" purity="2.0106400549411774e-01" nType="-99"/>
          </Node>
        </Node>
        <Node pos="r" depth="1" NCoef="0" IVar="2" Cut="3.4598104858398438e+02" cType="1" res="1.0336311534047127e-02" rms="3.8059878349304199e-01" purity="5.6681710481643677e-01" nType="0">
          <Node pos="l" depth="2" NCoef="0" IVar="3" Cut="1.7470297241210938e+02" cType="1" res="2.5229450315237045e-02" rms="3.6386811733245850e-01" purity="7.1099305152893066e-01" nType="0">
            <Node pos="l" depth="3" NCoef="0" IVar="-1" Cut="0.0000000000000000e+00" cType="1" res="2.4192105047404766e-03" rms="3.7468466162681580e-01" purity="7.3270052671432495e-01" nType="-99"/>
            <Node pos="r" depth="3" NCoef="0" IVar="-1" Cut="0.0000000000000000e+00" cType="1" res="5.7853077305480838e-04" rms="3.5923588275909424e-01" purity="7.0367640256881714e-01" nType="-99"/>
          </Node>
          <Node pos="r" depth="2" NCoef="0" IVar="0" Cut="2.0787563476562500e+03" cType="1" res="-1.5367412706837058e-03" rms="3.9302328228950500e-01" purity="4.5187765359878540e-01" nType="0">
            <Node pos="l" depth="3" NCoef="0" IVar="-1" Cut="0.0000000000000000e+00" cType="1" res="-4.0035575511865318e-04" rms="3.9102333784103394e-01" purity="4.1658458113670349e-01" nType="-99"/>
            <Node pos="r" depth="3" NCoef="0" IVar="-1" Cut="0.0000000000000000e+00" cType="1" res="1.3453438878059387e-03" rms="4.0279039740562439e-01" purity="6.5968430042266846e-01" nType="-99"/>
          </Node>
        </Node>
      </Node>
    </BinaryTree>
    <BinaryTree type="DecisionTree" boostWeight="1.0000000000000000e+00" itree="732">
      <Node pos="s" depth="0" NCoef="0" IVar="0" Cut="1.4630854492187500e+03" cType="1" res="7.6185207581147552e-04" rms="3.8159948587417603e-01" purity="4.9955123662948608e-01" nType="0">
        <Node pos="l" depth="1" NCoef="0" IVar="3" Cut="1.5161126708984375e+02" cType="1" res="-8.1747863441705704e-03" rms="3.9136776328086853e-01" purity="4.0252912044525146e-01" nType="0">
          <Node pos="l" depth="2" NCoef="0" IVar="0" Cut="9.8948657226562500e+02" cType="1" res="1.3808212243020535e-02" rms="3.9332833886146545e-01" purity="3.4590777754783630e-01" nType="0">
            <Node pos="l" depth="3" NCoef="0" IVar="-1" Cut="0.0000000000000000e+00" cType="1" res="-1.1452226899564266e-03" rms="3.8326498866081238e-01" purity="2.2192338109016418e-01" nType="-99"/>
            <Node pos="r" depth="3" NCoef="0" IVar="-1" Cut="0.0000000000000000e+00" cType="1" res="1.1224992340430617e-03" rms="3.9597752690315247e-01" purity="3.8825833797454834e-01" nType="-99"/>
          </Node>
          <Node pos="r" depth="2" NCoef="0" IVar="0" Cut="1.3429603271484375e+03" cType="1" res="-2.0724436268210411e-02" rms="3.8968843221664429e-01" purity="4.3485307693481445e-01" nType="0">
            <Node pos="l" depth="3" NCoef="0" IVar="-1" Cut="0.0000000000000000e+00" cType="1" res="-1.4851113082841039e-03" rms="3.9397245645523071e-01" purity="3.7898415327072144e-01" nType="-99"/>
            <Node pos="r" depth="3" NCoef="0" IVar="-1" Cut="0.0000000000000000e+00" cType="1" res="2.6320855249650776e-04" rms="3.7882098555564880e-01" purity="5.5731874704360962e-01" nType="-99"/>
          </Node>
        </Node>
        <Node pos="r" depth="1" NCoef="0" IVar="2" Cut="6.3796136474609375e+02" cType="1" res="1.3597278855741024e-02" rms="3.6673435568809509e-01" purity="6.3890117406845093e-01" nType="0">
          <Node pos="l" depth="2" NCoef="0" IVar="4" Cut="2.0955406188964844e+02" cType="1" res="2.1358268335461617e-02" rms="3.5752022266387939e-01" purity="6.9378912448883057e-01" nType="0">
            <Node pos="l" depth="3" NCoef="0" IVar="-1" Cut="0.0000000000000000e+00" cType="1" res="1.5934915281832218e-03" rms="3.5017845034599304e-01" purity="7.0377951860427856e-01" nType="-99"/>
